<unk>	0
<s>	0
</s>	0
_the	-2.68752
_of	-3.16737
_and	-3.47884
_to	-3.7232
_in	-3.89196
_a	-3.93418
_that	-4.63563
_is	-4.77269
_was	-4.81186
_for	-4.81657
_it	-4.86731
_he	-4.87045
_i	-4.9225
_as	-4.98448
_by	-4.99447
_with	-5.05388
_his	-5.06559
_be	-5.11528
_on	-5.16588
_at	-5.24644
_or	-5.30315
s	-5.34452
_not	-5.35232
_which	-5.3579
_this	-5.38083
_from	-5.44383
_but	-5.51299
_had	-5.61357
_are	-5.65678
_have	-5.66778
_an	-5.70803
_you	-5.73874
_all	-5.79643
_they	-5.81268
_were	-5.92976
_one	-5.95461
_her	-5.95647
_their	-5.98011
_we	-6.01138
_s	-6.03148
_him	-6.03293
_no	-6.08684
_page	-6.09598
_so	-6.11824
_there	-6.17191
_who	-6.17426
_been	-6.1752
_she	-6.21651
_my	-6.21696
_if	-6.26211
_when	-6.28488
_them	-6.29849
_has	-6.31497
_its	-6.32041
_djvu	-6.33278
_any	-6.34071
_will	-6.34323
_other	-6.36698
_me	-6.38291
_may	-6.38647
_such	-6.39585
_more	-6.44935
_would	-6.45389
_shall	-6.46841
_c	-6.47107
_said	-6.49827
_out	-6.56503
_into	-6.5773
_what	-6.60927
e	-6.62651
_some	-6.63822
_time	-6.64793
_under	-6.66546
_our	-6.66705
_than	-6.68513
_two	-6.69296
_these	-6.69623
_up	-6.70148
_made	-6.70762
_upon	-6.7176
_only	-6.72044
_do	-6.72085
_d	-6.72329
_states	-6.73187
_then	-6.73491
_b	-6.75317
_after	-6.77113
_man	-6.78141
_now	-6.7953
_first	-6.80548
_act	-6.82601
_e	-6.82755
_united	-6.83742
_new	-6.83908
_about	-6.84275
_see	-6.8697
_very	-6.8771
_can	-6.91148
_great	-6.91148
_p	-6.95402
_before	-6.96262
_your	-6.97772
_could	-6.98364
_like	-7.00131
_m	-7.01762
_being	-7.03334
_part	-7.03984
_where	-7.04351
_those	-7.05363
_should	-7.05517
_also	-7.05986
_state	-7.06052
_well	-7.06168
_de	-7.08847
_same	-7.08901
_over	-7.10122
_us	-7.10408
_t	-7.11172
_l	-7.11517
_day	-7.12527
_men	-7.13597
_mr	-7.14483
_most	-7.15111
_did	-7.1537
_r	-7.16245
_must	-7.17801
_life	-7.18169
_right	-7.18731
_little	-7.18828
_many	-7.21942
_law	-7.22029
_n	-7.22047
_volume	-7.22229
_years	-7.2368
_much	-7.24643
_court	-7.25002
_good	-7.25337
_through	-7.25997
_work	-7.29822
_general	-7.29961
_old	-7.30332
_h	-7.30773
_own	-7.31992
_u	-7.32383
_here	-7.3266
_without	-7.33146
_section	-7.3558
_house	-7.36328
_long	-7.3688
_how	-7.36993
_three	-7.37099
_f	-7.37208
_each	-7.37632
_year	-7.38094
_place	-7.38344
_down	-7.3895
_even	-7.39146
_make	-7.39301
_found	-7.40693
_every	-7.41046
_o	-7.41629
_j	-7.43363
_way	-7.43705
_people	-7.44563
_while	-7.46724
_against	-7.4788
_know	-7.48095
_come	-7.48147
_between	-7.48375
_public	-7.49068
_himself	-7.49982
_god	-7.50659
_amp	-7.50673
_th	-7.52475
_w	-7.53116
_st	-7.53428
_g	-7.53474
_go	-7.53993
_never	-7.5413
d	-7.5496
_name	-7.55281
_came	-7.56003
_still	-7.57102
_john	-7.57218
_large	-7.57337
_case	-7.57434
_another	-7.57876
_again	-7.58104
_might	-7.604
_lord	-7.60655
_left	-7.6098
_last	-7.61609
_take	-7.6185
_both	-7.626
_em	-7.63546
_say	-7.6417
_back	-7.6662
_though	-7.68137
_hand	-7.68272
_yet	-7.68538
_am	-7.69943
_too	-7.70435
_use	-7.70462
_government	-7.70613
_chapter	-7.70635
_water	-7.70661
_history	-7.70863
_called	-7.71585
_because	-7.71858
a	-7.7297
_having	-7.73103
_among	-7.73216
_country	-7.74519
ed	-7.74527
_order	-7.74602
_world	-7.74687
_vol	-7.76273
_far	-7.76337
ing	-7.76351
_national	-7.76374
_however	-7.78055
_land	-7.78374
_went	-7.7852
_just	-7.78564
_during	-7.7951
_war	-7.79909
_power	-7.8048
_king	-7.81653
_give	-7.82161
_thus	-7.8263
_given	-7.83228
_sir	-7.8361
_end	-7.84387
_whole	-7.84685
_death	-7.84746
_away	-7.85057
_think	-7.85538
_city	-7.8603
_present	-7.86376
_let	-7.87775
_account	-7.88244
_head	-7.883
_nothing	-7.88826
_thought	-7.88979
_things	-7.89347
_off	-7.89504
_took	-7.90146
_within	-7.90338
_son	-7.90536
_until	-7.91527
n	-7.91654
_once	-7.9199
_days	-7.92061
_number	-7.92323
_whom	-7.92871
_few	-7.93106
_put	-7.93811
_second	-7.94398
_four	-7.94593
_church	-7.94754
_form	-7.95056
_ever	-7.96434
_side	-7.9659
_taken	-7.96596
_small	-7.96633
_young	-7.96709
_does	-7.97019
_used	-7.97455
_book	-7.97522
es	-7.98035
i	-7.98241
t	-7.98509
_nor	-7.98968
_secretary	-7.99138
_certain	-7.99404
_since	-7.99863
_others	-8.00135
_father	-8.00463
_company	-8.00892
_following	-8.01756
_known	-8.01777
_night	-8.01956
y	-8.02181
_white	-8.02193
_set	-8.02498
_less	-8.02764
_love	-8.032
_thou	-8.0327
_half	-8.03508
_y	-8.03555
_therefore	-8.03774
_align	-8.03959
_mrs	-8.04144
_above	-8.04563
_eyes	-8.04693
_subject	-8.04764
_find	-8.04868
_always	-8.04914
_service	-8.05006
_ed	-8.05175
_works	-8.05442
_william	-8.06183
_hundred	-8.06269
ly	-8.06339
_london	-8.06554
_held	-8.06668
_high	-8.06822
_course	-8.0788
_whose	-8.08107
_light	-8.08401
_english	-8.08629
_mind	-8.09202
_get	-8.09559
_north	-8.10069
_person	-8.10457
_american	-8.10653
_done	-8.1068
_home	-8.10717
_office	-8.11055
_whether	-8.1152
_several	-8.11677
_means	-8.11714
_river	-8.11875
_congress	-8.11884
_five	-8.12031
_pdf	-8.12037
_nature	-8.1228
_title	-8.12885
_br	-8.13372
_near	-8.13509
_seen	-8.13721
_saw	-8.13869
_president	-8.13943
_per	-8.1415
_brought	-8.14185
_fact	-8.14659
_thing	-8.14793
_face	-8.14809
_south	-8.15313
_ar	-8.15445
_words	-8.15731
_body	-8.16115
_point	-8.16546
_question	-8.16662
_necessary	-8.17463
_full	-8.17981
_better	-8.18425
_matter	-8.18443
_why	-8.18477
_children	-8.1901
_co	-8.19962
_cannot	-8.20082
_provided	-8.20432
_feet	-8.2044
_district	-8.2072
_la	-8.208
_england	-8.20893
_heart	-8.20943
_became	-8.21026
_june	-8.2113
_school	-8.22991
_america	-8.22996
_soon	-8.23024
_themselves	-8.23449
_re	-8.24161
_almost	-8.25069
_word	-8.25367
_true	-8.25369
_sec	-8.25486
_further	-8.25553
_either	-8.256
_woman	-8.25648
_gave	-8.26561
_best	-8.26565
_thy	-8.27336
_times	-8.2783
_going	-8.28032
_free	-8.28034
_common	-8.28568
_early	-8.28703
_dont	-8.28785
_look	-8.29059
_together	-8.29063
_period	-8.29412
_next	-8.3014
_family	-8.30176
_sea	-8.30523
_march	-8.30922
_room	-8.31306
_york	-8.31327
_federal	-8.31347
_hands	-8.31376
_art	-8.31715
_received	-8.32112
_line	-8.32155
_died	-8.32178
_property	-8.32642
_later	-8.32807
_sent	-8.33292
_interest	-8.33385
_society	-8.33915
_tell	-8.34209
_k	-8.34663
er	-8.34694
_pr	-8.34747
_dr	-8.34935
_till	-8.35191
_heard	-8.3524
_authority	-8.35349
_making	-8.35365
_something	-8.35577
_quite	-8.35906
_different	-8.35996
_itself	-8.36547
o	-8.36588
_wife	-8.36891
_says	-8.36915
_west	-8.37166
_rather	-8.37498
_got	-8.37571
_stat	-8.3765
_kind	-8.37926
_born	-8.37963
_chief	-8.37996
_black	-8.38038
_money	-8.38362
_town	-8.38663
_told	-8.38966
_twenty	-8.39044
_ground	-8.39077
_information	-8.3913
_vtp	-8.39573
_business	-8.40195
_july	-8.40337
_henry	-8.40614
_perhaps	-8.4104
_human	-8.41061
_often	-8.41165
_laws	-8.41423
_air	-8.41715
r	-8.41729
_system	-8.4179
_x	-8.41864
_pay	-8.41942
_reason	-8.42152
_fire	-8.42152
_passed	-8.42574
_army	-8.42714
_mother	-8.42793
_force	-8.42807
_members	-8.42824
_statutes	-8.43388
_age	-8.43967
_seemed	-8.43973
_date	-8.44105
_county	-8.44272
_purpose	-8.44296
_including	-8.44604
_miles	-8.44754
_opinion	-8.4477
_began	-8.44958
_women	-8.45244
_six	-8.45355
_manner	-8.45694
_action	-8.45918
_looked	-8.45985
_become	-8.46166
_enough	-8.46346
_french	-8.46369
_amount	-8.46575
_already	-8.46633
_asked	-8.4667
_according	-8.46989
_party	-8.47041
_round	-8.47913
_open	-8.4849
_except	-8.48687
_least	-8.49083
_short	-8.49318
_george	-8.4957
_cause	-8.49917
_et	-8.5005
_thomas	-8.50142
_along	-8.50355
_ill	-8.50669
_letter	-8.50693
_persons	-8.50769
_thousand	-8.50772
_knew	-8.50887
_board	-8.50936
_effect	-8.50995
_third	-8.51766
_read	-8.52693
_april	-8.52781
_indeed	-8.53211
_cases	-8.53278
_want	-8.54077
_text	-8.54144
_ten	-8.54166
_talk	-8.54469
_james	-8.5452
_earth	-8.5453
_red	-8.55212
_character	-8.55212
_moment	-8.55293
_natural	-8.55322
_east	-8.55367
_justice	-8.55975
_view	-8.56055
_poor	-8.5635
_turned	-8.56604
_etc	-8.56968
_help	-8.56988
_department	-8.57581
_science	-8.57699
_door	-8.57711
_pl	-8.57797
_possible	-8.58284
_morning	-8.5879
_charles	-8.58901
_century	-8.59018
is	-8.59319
_style	-8.59447
_believe	-8.59536
_university	-8.60136
_published	-8.60303
_special	-8.61027
us	-8.61091
_various	-8.61126
_although	-8.6141
_child	-8.61419
_call	-8.61437
_q	-8.61468
_spirit	-8.61744
_article	-8.61793
_return	-8.6181
_rest	-8.61933
_oh	-8.6198
_author	-8.6219
_report	-8.62616
_value	-8.6278
_yes	-8.6284
_im	-8.62898
_respect	-8.63187
_important	-8.63208
_alone	-8.6324
_lady	-8.63325
_hope	-8.63437
_indian	-8.63643
_seems	-8.63828
_christ	-8.63942
_latter	-8.63992
_care	-8.64065
_parts	-8.64115
_provisions	-8.64126
_books	-8.64637
_authorized	-8.64654
_anything	-8.64766
_position	-8.64778
_late	-8.64831
_series	-8.64869
_keep	-8.65259
_british	-8.65569
_miss	-8.65687
_able	-8.65723
_show	-8.65819
_dead	-8.65906
_center	-8.65926
_knowledge	-8.67002
_felt	-8.67392
_note	-8.67819
_foreign	-8.6786
_notes	-8.67955
_myself	-8.68143
_close	-8.68574
_peace	-8.68803
_ct	-8.6887
_voice	-8.69158
_services	-8.69479
_military	-8.69766
in	-8.69846
_friend	-8.70099
_road	-8.70117
_continued	-8.70384
_fine	-8.70408
_le	-8.70413
_none	-8.70572
_education	-8.70645
_evidence	-8.70658
_sense	-8.7115
_truth	-8.71473
_probably	-8.71499
_india	-8.71516
_required	-8.71603
_al	-8.7173
_need	-8.71787
_purposes	-8.71808
_story	-8.72028
_written	-8.72111
_commission	-8.72255
_carried	-8.72346
_lost	-8.72354
_paid	-8.7286
_rights	-8.72943
_lands	-8.72998
_lay	-8.73123
_mary	-8.73242
_leave	-8.73372
_stood	-8.73574
_duty	-8.73944
_college	-8.74002
_top	-8.74195
_term	-8.74503
_con	-8.74553
_private	-8.74934
_trade	-8.75073
_entered	-8.7518
_ye	-8.7521
_en	-8.75503
_committee	-8.75607
_especially	-8.75659
_strong	-8.75853
_friends	-8.76361
_thereof	-8.76429
_council	-8.76733
_dear	-8.76797
_sometimes	-8.76836
_soul	-8.76911
_greater	-8.76955
_courts	-8.7743
_captain	-8.77438
_available	-8.77462
_mean	-8.77629
_real	-8.77837
_hold	-8.77837
_appointed	-8.77868
_daughter	-8.77899
_language	-8.77925
_development	-8.78021
_senate	-8.78163
_table	-8.78165
_green	-8.78204
_due	-8.78306
_returned	-8.78384
_original	-8.78396
_gold	-8.78468
_france	-8.78787
_nearly	-8.78901
_arms	-8.78928
_towards	-8.791
_living	-8.79314
_post	-8.79335
_expenses	-8.79461
_amended	-8.79603
_subsection	-8.79696
_change	-8.79764
l	-8.79966
_across	-8.80254
_street	-8.80365
_paris	-8.8044
_officers	-8.80545
_study	-8.80769
_inches	-8.81236
_length	-8.81535
_clear	-8.81609
_political	-8.8161
_class	-8.8163
_forth	-8.81896
_holy	-8.81942
_complete	-8.82138
_payment	-8.82179
_letters	-8.82263
_field	-8.82383
_followed	-8.82484
_gt	-8.82532
_former	-8.82916
_paper	-8.83271
_behind	-8.83291
_member	-8.83328
_ch	-8.83446
_kept	-8.83461
_seven	-8.83606
_brother	-8.83691
_sun	-8.83926
_idea	-8.84004
_bring	-8.84043
_species	-8.84562
_beyond	-8.84604
_cut	-8.84666
_master	-8.8491
_placed	-8.84921
_hear	-8.84953
_constitution	-8.8498
_doubt	-8.85063
_taking	-8.85295
_supreme	-8.85372
_ancient	-8.85457
_gone	-8.85496
_judgment	-8.86139
_sure	-8.86193
_appeared	-8.86256
_blood	-8.86267
_established	-8.86699
_rule	-8.86848
_coming	-8.87011
_girl	-8.87366
_around	-8.87418
_afterwards	-8.87679
_food	-8.87695
_met	-8.87707
_german	-8.87756
_royal	-8.8785
_hour	-8.88019
_judge	-8.88021
_self	-8.88112
_live	-8.88342
_social	-8.88421
_past	-8.88616
_speak	-8.88795
_generally	-8.88851
_health	-8.89144
_really	-8.89149
_months	-8.89369
_rate	-8.8941
_hard	-8.89447
_stone	-8.89589
_considered	-8.89596
_looking	-8.89609
_neither	-8.89705
_result	-8.89989
_local	-8.90303
_beginning	-8.90831
_prince	-8.91143
_pass	-8.91365
_boy	-8.9155
_fair	-8.92066
_faith	-8.92089
_particular	-8.92287
_notice	-8.92392
_fell	-8.92485
_pp	-8.92916
_support	-8.93028
_edition	-8.93032
_described	-8.93279
_cross	-8.93359
_low	-8.93437
_appear	-8.93734
_paragraph	-8.93752
_lt	-8.93762
_plan	-8.93787
_future	-8.93819
_popular	-8.93996
_places	-8.94138
_turn	-8.94154
_added	-8.94305
_horse	-8.94501
_dark	-8.94546
_fiscal	-8.94565
_answer	-8.94648
_island	-8.94713
_feel	-8.94848
_un	-8.9496
_otherwise	-8.95337
_below	-8.95359
_building	-8.95396
_bank	-8.95504
_provide	-8.95556
_robert	-8.959
_hall	-8.96061
_modern	-8.96169
_z	-8.963
_forms	-8.96302
_fear	-8.96355
_civil	-8.9639
_married	-8.96613
_herself	-8.96638
_seem	-8.96813
_appears	-8.97151
_fall	-8.97366
_proper	-8.97402
_dictionary	-8.97785
_similar	-8.97853
_ask	-8.97873
_front	-8.98025
_union	-8.98151
_individual	-8.98261
_led	-8.98445
_regard	-8.98579
_eight	-8.98609
m	-8.98744
_bill	-8.98829
_wish	-8.99073
_approved	-8.99277
_thirty	-8.99308
_terms	-8.99476
_hours	-8.99984
_month	-9.00169
_condition	-9.00354
_deep	-9.00437
_meet	-9.00503
_immediately	-9.00503
_sale	-9.00514
_personal	-9.0073
_total	-9.0094
_bed	-9.00944
_governor	-9.00945
_sat	-9.00982
_equal	-9.01114
_coast	-9.01164
_january	-9.01233
_middle	-9.01394
_single	-9.01461
_mentioned	-9.01575
_conditions	-9.01579
_laid	-9.01699
_charge	-9.01775
_formed	-9.01901
_august	-9.01971
_claim	-9.02587
_officer	-9.02705
_reached	-9.02791
_object	-9.02823
_administration	-9.02885
_religious	-9.02889
_kings	-9.02908
_battle	-9.03062
_attention	-9.03132
_unless	-9.03133
_southern	-9.03286
_issue	-9.0329
_wood	-9.03349
en	-9.03399
_unto	-9.03461
_sound	-9.03508
_control	-9.03579
_mass	-9.03632
_week	-9.03672
_eye	-9.03706
_beautiful	-9.0386
_appropriation	-9.03892
_nov	-9.03911
_tax	-9.03951
_construction	-9.03994
_ac	-9.04176
_edward	-9.04296
_bishop	-9.04303
_october	-9.04324
_christian	-9.04559
_jesus	-9.04694
_longer	-9.04749
_oct	-9.04915
_lines	-9.0492
_foot	-9.05041
_lower	-9.05331
_carry	-9.05373
_stand	-9.05438
_rose	-9.05614
_obtained	-9.05624
_follows	-9.05828
_process	-9.05879
_birds	-9.05908
_dollars	-9.05937
_influence	-9.06098
_nation	-9.06375
_rev	-9.06634
_tree	-9.06671
_security	-9.06872
_ought	-9.07099
um	-9.07123
_pension	-9.07361
_trees	-9.07365
_blue	-9.07375
_historical	-9.0752
_remain	-9.07547
_evening	-9.07571
_wall	-9.07751
_sort	-9.08029
_cost	-9.08057
_nations	-9.08233
_hill	-9.08263
_brown	-9.08364
_distance	-9.08563
_earl	-9.08931
_international	-9.09151
_determined	-9.09208
_command	-9.0934
_september	-9.0937
_schools	-9.09395
_ship	-9.09559
_funds	-9.0979
_makes	-9.09953
_review	-9.09959
_western	-9.10035
_follow	-9.1021
_material	-9.10456
_grant	-9.10521
_receive	-9.10524
_principal	-9.10557
_extent	-9.10562
_acts	-9.10666
_die	-9.10706
_cold	-9.1077
_ready	-9.10776
_saying	-9.11119
_certainly	-9.11129
_religion	-9.11172
_roman	-9.11204
_powers	-9.11215
_assistance	-9.11456
_else	-9.11623
_native	-9.11669
_washington	-9.11783
_december	-9.11835
_bird	-9.11853
_practice	-9.12167
_heaven	-9.12283
_direction	-9.12434
_cried	-9.12526
_sight	-9.12716
_capital	-9.12857
_indians	-9.12931
_iron	-9.12939
_understand	-9.13147
_ex	-9.1324
_answered	-9.13398
_remained	-9.13465
_contract	-9.13539
_ing	-9.13652
_wrote	-9.13652
_everything	-9.13995
_record	-9.14063
_space	-9.14224
_policy	-9.14326
_existence	-9.14367
_community	-9.144
_sum	-9.14404
_program	-9.14542
_literature	-9.14624
_merely	-9.14759
_fifty	-9.14857
_library	-9.14869
_entitled	-9.14883
_covered	-9.14989
_protection	-9.15058
_tion	-9.15082
_using	-9.15187
_built	-9.15502
_besides	-9.15568
_non	-9.15661
_whatever	-9.1567
_possession	-9.15781
_portion	-9.15909
_facts	-9.16039
_run	-9.16098
h	-9.16172
_toward	-9.16195
_enemy	-9.16425
_employed	-9.16565
_papers	-9.16643
_relief	-9.16793
_forward	-9.16818
_collection	-9.17042
_names	-9.1717
_jan	-9.17276
_agreement	-9.17278
_bar	-9.17438
_replied	-9.17489
_dec	-9.17643
_bad	-9.17652
_degree	-9.17767
_comes	-9.17901
_allowed	-9.17992
_ago	-9.18176
_defense	-9.18247
_suddenly	-9.18461
_list	-9.18606
_higher	-9.18657
_shown	-9.18844
_sufficient	-9.19083
_mouth	-9.19091
_bottom	-9.19133
_labor	-9.19275
_strength	-9.19299
_opened	-9.19317
_doing	-9.19322
_february	-9.19412
_application	-9.19458
_representatives	-9.19499
_population	-9.1954
_poems	-9.19587
_bear	-9.19836
_experience	-9.19863
_fig	-9.20135
_produced	-9.2035
_instead	-9.20371
_questions	-9.20534
_big	-9.20586
_increase	-9.20746
_striking	-9.2075
_circumstances	-9.20786
_lived	-9.20815
_strange	-9.20852
_desire	-9.20918
_greek	-9.20953
_gives	-9.20958
_november	-9.20978
_conduct	-9.21078
_oxford	-9.21109
_border	-9.21127
_size	-9.21387
_central	-9.21782
_catholic	-9.21875
_parties	-9.21883
_entirely	-9.21954
_giving	-9.22049
_hair	-9.22387
_raised	-9.22576
_surface	-9.22686
_territory	-9.22729
_orders	-9.22784
_code	-9.22803
_meeting	-9.23019
_duties	-9.23212
_fellow	-9.23283
_europe	-9.23587
_fathers	-9.2369
_formula	-9.23775
_des	-9.23794
_articles	-9.23835
_countries	-9.23957
_marriage	-9.23992
_play	-9.24216
_sons	-9.2424
_rome	-9.24293
_husband	-9.24438
_animals	-9.24499
_area	-9.24549
_division	-9.24556
_queen	-9.24748
_feeling	-9.24829
_lake	-9.24988
ers	-9.24992
on	-9.24992
_wild	-9.25138
_wind	-9.25139
_direct	-9.25151
_considerable	-9.25363
_utc	-9.25642
_forces	-9.25712
_meaning	-9.25796
_served	-9.25944
_houses	-9.26115
_outside	-9.26254
_principles	-9.26395
_changes	-9.26397
_operation	-9.26546
_commerce	-9.27021
_agency	-9.27219
_example	-9.2722
_main	-9.27397
_pro	-9.27472
_kingdom	-9.27508
_rich	-9.27528
_motion	-9.27608
_standing	-9.27677
_reference	-9.27691
_village	-9.27741
_named	-9.27744
_monthly	-9.27791
_px	-9.27874
_richard	-9.27948
_hath	-9.27977
_affairs	-9.28019
_success	-9.28116
_com	-9.28164
al	-9.28385
_pleasure	-9.28623
_trust	-9.28953
_biography	-9.29139
_matters	-9.29182
_wide	-9.29351
_simple	-9.29352
_camp	-9.29448
_northern	-9.29498
_progress	-9.29661
_wanted	-9.29716
_worth	-9.2976
_fourth	-9.29785
_finally	-9.29967
_remains	-9.30085
_hereby	-9.30155
_points	-9.30208
_joseph	-9.30213
_figure	-9.30449
_professor	-9.30603
_mine	-9.30621
_directed	-9.30636
_claims	-9.30958
_race	-9.30998
_suppose	-9.31015
_boston	-9.31059
_numerous	-9.31114
_tried	-9.31239
_presence	-9.31288
_spring	-9.31356
_upper	-9.31422
_divine	-9.31454
_concerning	-9.31477
_issued	-9.31684
_remember	-9.31914
_lead	-9.31934
_mere	-9.31957
_forty	-9.31998
_horses	-9.32088
_impossible	-9.32093
_amendments	-9.32151
_arm	-9.32163
_origin	-9.32315
_engaged	-9.32339
_dia	-9.32421
_plain	-9.32435
ness	-9.32443
_par	-9.32448
_appearance	-9.32789
_legal	-9.32912
_evil	-9.3292
_writing	-9.3292
_columbia	-9.3302
_granted	-9.33076
_window	-9.33175
_increased	-9.33268
_aid	-9.33339
_working	-9.33343
_trial	-9.33541
_connection	-9.3361
_range	-9.33619
_price	-9.33702
re	-9.33748
_drawn	-9.33755
_ia	-9.33807
_beauty	-9.3392
_ordinary	-9.33977
_jurisdiction	-9.34176
_additional	-9.34255
_heavy	-9.34788
_official	-9.34871
_statute	-9.34923
_stories	-9.35019
_nine	-9.35048
_importance	-9.35152
_glass	-9.35288
_accounts	-9.35333
_enter	-9.35559
_appropriate	-9.35608
_fixed	-9.35623
_ones	-9.35629
_occasion	-9.35735
_major	-9.35817
_animal	-9.35887
_attack	-9.35931
_learned	-9.36081
_principle	-9.36126
_spoke	-9.36135
_method	-9.36214
_throughout	-9.36226
_picture	-9.36281
_soldiers	-9.36286
_oregon	-9.36295
_winter	-9.36298
_lives	-9.36363
_presented	-9.36378
_valley	-9.36422
_economic	-9.36426
_association	-9.36527
_silver	-9.36559
_happy	-9.36572
_du	-9.36693
_usually	-9.36786
_interior	-9.36798
_david	-9.36833
_relations	-9.36842
_bound	-9.36969
_citizens	-9.37043
_grand	-9.37064
_twelve	-9.3708
_hence	-9.37145
_consider	-9.37156
_fund	-9.37297
_applied	-9.37337
_election	-9.37427
_observed	-9.37463
_perfect	-9.37712
an	-9.37759
_leaves	-9.37813
_boys	-9.37817
_parliament	-9.379
_decision	-9.38067
_duke	-9.38086
th	-9.38099
_moral	-9.38102
man	-9.38146
_broken	-9.38161
_ll	-9.38218
_project	-9.38267
_intended	-9.38538
_republic	-9.38649
_inserting	-9.38753
_elected	-9.38755
_gods	-9.38768
_loss	-9.39063
_efforts	-9.39138
_filled	-9.39145
_arrived	-9.39184
_mark	-9.39257
_rock	-9.39269
_ran	-9.39271
_solid	-9.39307
_mar	-9.39328
_temple	-9.39338
_van	-9.39478
_peter	-9.3954
_smith	-9.39565
_aug	-9.396
_moved	-9.39751
_removed	-9.39825
_printed	-9.39913
ia	-9.39985
_greatest	-9.39991
_proved	-9.39996
_region	-9.40014
_difficult	-9.4007
_ordered	-9.40079
_group	-9.40087
_id	-9.40111
_rise	-9.40302
_port	-9.40366
_square	-9.40403
_summer	-9.40423
_addition	-9.4043
_user	-9.40515
_feb	-9.40623
_prepared	-9.40706
_instance	-9.4088
_islands	-9.40915
_troops	-9.41025
_deal	-9.41231
_attempt	-9.41298
_relation	-9.41379
_fish	-9.41479
_statement	-9.41642
_stated	-9.4165
_fort	-9.41746
_declared	-9.41859
_xi	-9.41983
_freedom	-9.41988
_somewhat	-9.42232
_minister	-9.42513
_corporation	-9.42538
_leaving	-9.4259
_sweet	-9.4264
_music	-9.42649
_sleep	-9.42764
_passage	-9.42777
_theory	-9.4283
_vessels	-9.42834
_entire	-9.429
_save	-9.42925
_easily	-9.43063
_hardly	-9.431
_expression	-9.43195
_piece	-9.43312
_activities	-9.43327
_treasury	-9.43409
_offered	-9.43468
_er	-9.43554
_lie	-9.43556
_usual	-9.43631
_ireland	-9.4364
_station	-9.43743
_cant	-9.43745
_previous	-9.43806
_eastern	-9.43846
_oil	-9.43956
_results	-9.43964
_secret	-9.43964
_tales	-9.44071
_youth	-9.44082
_killed	-9.44261
_regulations	-9.44487
_enacted	-9.44488
_contrary	-9.44501
_supposed	-9.44527
_caused	-9.44652
_medical	-9.44653
_resolution	-9.44725
_emperor	-9.44809
_accordance	-9.44851
_easy	-9.4487
_crown	-9.44938
_consideration	-9.44947
_garden	-9.44963
_press	-9.45023
_castle	-9.45216
_china	-9.45414
_send	-9.45484
_referred	-9.45487
_mountain	-9.45592
_proclamation	-9.45703
_stock	-9.45729
_produce	-9.45753
_v	-9.45788
_try	-9.45807
_sister	-9.46002
_sub	-9.46201
_minutes	-9.46275
_rules	-9.46345
_sin	-9.46465
_allow	-9.46632
_mountains	-9.46719
_cast	-9.46798
_africa	-9.46938
_serve	-9.47141
_san	-9.47214
_description	-9.47305
_weight	-9.47322
_doctor	-9.47364
_discovered	-9.47369
_ad	-9.47422
_basis	-9.47437
_adopted	-9.47467
_regarded	-9.47507
_simply	-9.47508
_song	-9.47525
_liberty	-9.47765
_fully	-9.47774
_movement	-9.47876
_decided	-9.47877
_final	-9.47988
_railroad	-9.48012
_attorney	-9.48041
_interesting	-9.4806
_based	-9.48084
_happened	-9.48163
_continue	-9.48185
_production	-9.48223
_exceed	-9.48415
_broad	-9.48438
_contained	-9.4848
_bl	-9.48542
_provision	-9.48589
_cent	-9.48761
_journal	-9.48792
_opportunity	-9.48801
_width	-9.48802
_interests	-9.48937
_colonel	-9.48955
_speech	-9.49044
_holding	-9.49093
_delivered	-9.49338
_reading	-9.49624
_subjects	-9.49668
_forest	-9.49691
_visit	-9.49875
_joint	-9.50292
_apply	-9.50311
_pursuant	-9.50359
_colspan	-9.50412
_car	-9.50437
_prior	-9.50439
_danger	-9.50452
_francis	-9.50551
_grace	-9.50611
_executive	-9.50642
_amendment	-9.50803
_vessel	-9.5082
_purchase	-9.50867
_related	-9.50885
_el	-9.50916
_active	-9.50994
_pre	-9.51093
_prevent	-9.51169
_game	-9.51196
_literary	-9.51209
_bay	-9.51271
_base	-9.51416
_add	-9.51477
_annual	-9.515
_carrying	-9.51597
_energy	-9.51673
_chair	-9.5171
_hot	-9.51844
_research	-9.52059
_settled	-9.52193
_difference	-9.52201
_pretty	-9.52408
_type	-9.52469
_reports	-9.52569
_proposed	-9.5262
_index	-9.52675
_fresh	-9.52677
_da	-9.5273
_irish	-9.5274
_les	-9.52874
_walls	-9.52992
_honour	-9.53053
_address	-9.53063
_california	-9.53196
_gathered	-9.53198
_frequently	-9.53202
_philosophy	-9.53222
_begin	-9.53247
_waters	-9.53459
_showed	-9.53506
_training	-9.53508
_memory	-9.53532
_count	-9.53588
_wi	-9.53755
_physical	-9.53976
_elizabeth	-9.54103
_tribes	-9.54124
_sold	-9.54133
_virtue	-9.54157
_numbers	-9.54176
_current	-9.54195
_market	-9.54198
_nd	-9.5421
_write	-9.54313
_scientific	-9.54315
_plants	-9.54408
_marked	-9.54428
_proceedings	-9.5445
_level	-9.54534
_empire	-9.54542
_effective	-9.54633
_buildings	-9.54651
_connected	-9.54672
_seeing	-9.54761
_peculiar	-9.54778
_vo	-9.54864
_assembly	-9.55074
_joy	-9.55145
_bodies	-9.55207
_bright	-9.55224
_valign	-9.55239
_guard	-9.55288
_seat	-9.55307
_chap	-9.55309
_contains	-9.55328
_railway	-9.55338
_lieutenant	-9.55488
_relating	-9.55556
_goods	-9.5558
_passing	-9.55617
_boat	-9.55711
_treaty	-9.55775
_reach	-9.55818
_effects	-9.56047
_organization	-9.56155
_ive	-9.56176
_trouble	-9.56211
_dry	-9.56214
_wrong	-9.56293
_don	-9.56411
_existing	-9.56521
_police	-9.56558
_separate	-9.56574
_ideas	-9.56575
_latin	-9.56641
_treatment	-9.56698
_yellow	-9.56712
_ft	-9.56812
_admitted	-9.56834
_pa	-9.56925
_started	-9.56931
_sacred	-9.56971
_credit	-9.56976
_difficulty	-9.56978
_divided	-9.57407
_changed	-9.57462
_prove	-9.57502
_supply	-9.57514
_se	-9.57567
_independent	-9.57631
_require	-9.57631
_records	-9.57743
_succeeded	-9.57767
_please	-9.57819
_usc	-9.5784
_agreed	-9.57868
_exercise	-9.57952
_speaking	-9.58008
_struck	-9.58058
_occupied	-9.58171
_measure	-9.5823
_bridge	-9.58367
_situation	-9.58402
_chance	-9.58554
_distinguished	-9.58567
_news	-9.58615
_include	-9.58645
_containing	-9.58677
_patent	-9.5873
_ment	-9.58765
_ships	-9.58819
_appeal	-9.58888
_di	-9.58968
_fight	-9.58972
_regular	-9.58992
_goes	-9.59058
_paul	-9.5907
_dog	-9.59184
_shows	-9.59399
_establishment	-9.59467
_actual	-9.5949
_suit	-9.59494
_israel	-9.596
_flowers	-9.59675
_estate	-9.597
_stay	-9.5973
_highest	-9.5979
_founded	-9.59856
_gen	-9.59861
_famous	-9.59884
_sides	-9.60017
_limited	-9.60026
_encyclop	-9.60058
_represented	-9.60122
z	-9.60142
_compensation	-9.60156
_clearly	-9.60419
_particularly	-9.60431
_edited	-9.60453
_objects	-9.60466
_chiefly	-9.60495
_salt	-9.60565
_directly	-9.60609
_sign	-9.60676
_pt	-9.60704
_greatly	-9.60789
_takes	-9.60844
_gentleman	-9.6092
_remarkable	-9.60979
_believed	-9.61002
_didnt	-9.6108
_created	-9.61098
_lies	-9.61104
_thinking	-9.61105
_leading	-9.61191
_plant	-9.61231
_advance	-9.6124
_glad	-9.6136
_drew	-9.61375
_individuals	-9.61412
_assembled	-9.6142
_revenue	-9.61443
_thoughts	-9.61447
_rendered	-9.61494
_ne	-9.61505
_management	-9.61588
_understood	-9.61607
te	-9.61734
_expected	-9.61753
_step	-9.61801
_error	-9.61982
_becomes	-9.621
_convention	-9.62103
_institutions	-9.62104
_facilities	-9.622
_girls	-9.62317
ie	-9.6232
_ah	-9.62336
_daily	-9.62484
_floor	-9.62542
_priest	-9.62556
_reign	-9.62593
_pure	-9.62731
_mans	-9.62744
_mexico	-9.62759
_european	-9.62924
_employees	-9.62933
_source	-9.62959
_heat	-9.63089
_operations	-9.63099
_centre	-9.63268
_hills	-9.63315
_scotland	-9.63339
c	-9.63375
_doctrine	-9.63402
_wise	-9.63482
_share	-9.63574
_quantity	-9.6362
_wine	-9.63634
_lips	-9.63658
_sought	-9.63747
_sentence	-9.6378
_practical	-9.63828
_offer	-9.63965
_italy	-9.63967
_ma	-9.6414
_height	-9.64214
_proof	-9.64305
_pieces	-9.64328
_gas	-9.64386
_louis	-9.64392
_silence	-9.64421
_quarter	-9.64489
_larger	-9.646
_tom	-9.64657
_accepted	-9.64789
_pleasant	-9.64849
_sept	-9.64907
_move	-9.64907
_glory	-9.65102
_appropriated	-9.6511
_saint	-9.65183
_regiment	-9.65272
_likely	-9.65294
_eat	-9.65643
_copyright	-9.65749
_fifth	-9.65797
_hearing	-9.65827
_spent	-9.65847
_birth	-9.65852
eth	-9.65961
_museum	-9.66149
_germany	-9.66151
_industry	-9.66191
_journey	-9.66351
_figures	-9.66377
_safety	-9.66462
_authors	-9.66498
_legislature	-9.66583
_institution	-9.66611
_noble	-9.66634
_learn	-9.66701
_students	-9.66783
_crime	-9.6683
_whereas	-9.66856
_virginia	-9.66898
_naval	-9.669
_scene	-9.66915
_lying	-9.66916
_foundation	-9.66938
_rank	-9.66964
_alexander	-9.67171
_break	-9.67333
_getting	-9.67451
_majority	-9.67506
st	-9.67599
_advanced	-9.6762
ton	-9.6768
_ways	-9.67802
_dream	-9.67865
_navy	-9.67883
_wikimedia	-9.67921
_obtain	-9.68007
_stage	-9.68037
_events	-9.68071
_knows	-9.68159
_collected	-9.68339
_actually	-9.68528
_earlier	-9.6856
_serious	-9.6862
_studies	-9.68661
_prayer	-9.68699
_ball	-9.68897
_cities	-9.69045
_introduced	-9.69119
_sections	-9.69128
_joined	-9.69221
_maintenance	-9.69234
_heads	-9.69248
_apparently	-9.69251
_recent	-9.69269
_watch	-9.69321
_te	-9.69396
_moon	-9.69396
_products	-9.69422
_opposite	-9.69426
_caught	-9.69429
_agent	-9.69438
_corner	-9.6959
_witness	-9.69674
_chinese	-9.69682
_hospital	-9.69747
_shore	-9.69757
_transportation	-9.69833
_authorities	-9.69904
_included	-9.6993
_appropriations	-9.69954
_uncle	-9.70091
_request	-9.70193
_lot	-9.70205
_sand	-9.70272
_director	-9.70286
_soft	-9.7032
_advantage	-9.70338
_constitutional	-9.70347
_examination	-9.70493
_beside	-9.70569
_walk	-9.7061
_materials	-9.7063
_running	-9.7063
_false	-9.70711
_finding	-9.70909
_programs	-9.70937
_steps	-9.70969
_clerk	-9.70983
_wonder	-9.71021
_palace	-9.71081
_features	-9.71123
_concerned	-9.71125
_sit	-9.7118
_equally	-9.71298
_circuit	-9.71338
_signed	-9.71419
_families	-9.71456
_grew	-9.71607
_slowly	-9.71668
_der	-9.71767
_grave	-9.71894
_criminal	-9.71944
_closed	-9.71946
_internal	-9.71994
_honor	-9.72026
_fruit	-9.7207
_sitting	-9.72119
_grey	-9.72253
_golden	-9.723
_conclusion	-9.72308
_double	-9.72473
_park	-9.7251
_vols	-9.7252
_ourselves	-9.72548
_effort	-9.7255
_commissioner	-9.72561
_excellent	-9.72693
_widow	-9.72898
_branch	-9.7291
_club	-9.72922
_beneath	-9.72951
_fame	-9.73001
_stands	-9.73038
_color	-9.73129
_jury	-9.73235
_meant	-9.73267
_copy	-9.73304
_stop	-9.73323
_wait	-9.73328
_necessity	-9.7341
_spread	-9.73413
_straight	-9.73531
u	-9.73601
as	-9.73606
_quickly	-9.73655
_measures	-9.73661
_valuable	-9.73786
_spain	-9.73838
_armed	-9.73929
_benefit	-9.73934
_servant	-9.7418
_seek	-9.74271
_defendant	-9.74294
_superior	-9.74362
_domestic	-9.74365
_quality	-9.74371
_wont	-9.74387
_scarcely	-9.74402
_legislative	-9.74415
_sixty	-9.74424
_narrow	-9.74439
_search	-9.74447
_writer	-9.74451
_corn	-9.74512
_buried	-9.74572
_extended	-9.746
_samuel	-9.74685
_blessed	-9.74688
_stream	-9.7471
_fit	-9.74728
_employment	-9.74749
_snow	-9.74976
k	-9.75004
_standard	-9.75054
_worked	-9.75063
_spanish	-9.75068
_bread	-9.75085
_farm	-9.75256
_income	-9.75329
_yourself	-9.75411
_shot	-9.75762
_pages	-9.75784
_na	-9.75816
_soil	-9.75927
_recognized	-9.75953
_bit	-9.75974
_taught	-9.75977
_cattle	-9.76023
_secure	-9.76048
_introduction	-9.76107
_exchange	-9.76174
_escape	-9.76205
_brothers	-9.76236
f	-9.76307
_cf	-9.76396
_budget	-9.76422
_hat	-9.76425
_loved	-9.76479
_expressed	-9.76496
_lieu	-9.7653
_reasonable	-9.76557
_owner	-9.76559
_partly	-9.76583
_reply	-9.76627
_inhabitants	-9.76692
ic	-9.76761
_britannica	-9.76778
_poet	-9.76812
_consequence	-9.76938
_absence	-9.7696
_safe	-9.77029
_sky	-9.77049
_commercial	-9.77091
_establish	-9.77259
_banks	-9.77312
_pain	-9.7732
_province	-9.77587
_tears	-9.77709
_au	-9.77758
_quiet	-9.7789
_failed	-9.78078
_vast	-9.78187
_es	-9.78209
_stopped	-9.78261
_worship	-9.78335
_settlement	-9.78384
_spot	-9.78405
_reasons	-9.78415
_minute	-9.78437
_determine	-9.78448
_causes	-9.78511
_classes	-9.78582
_silent	-9.78605
_refused	-9.78611
_grass	-9.78648
_judicial	-9.78671
_mile	-9.78757
_cap	-9.78757
_agencies	-9.78936
_draw	-9.79001
_unknown	-9.7903
_fast	-9.79196
_useful	-9.79213
_argument	-9.79324
_mission	-9.79363
_spiritual	-9.79369
_counsel	-9.79389
_drink	-9.79447
_express	-9.79452
_gray	-9.79459
_vice	-9.79468
_improvement	-9.79539
_showing	-9.79539
_average	-9.79564
_li	-9.79689
_committed	-9.79739
_requirements	-9.79857
_exist	-9.79971
_accordingly	-9.79973
_col	-9.80076
_broke	-9.80129
_assistant	-9.80165
_vote	-9.80316
_notwithstanding	-9.80355
_bearing	-9.80451
_derived	-9.80651
_curious	-9.80754
_colour	-9.80756
_activity	-9.80812
_eggs	-9.80816
_explained	-9.80913
_plate	-9.80927
_receiving	-9.80953
_rep	-9.80978
_belief	-9.8098
_magazine	-9.81021
_formerly	-9.81036
_views	-9.81043
_touch	-9.81053
_dress	-9.81108
_youre	-9.81179
_carefully	-9.81192
_weeks	-9.81229
_ou	-9.81282
_composed	-9.81312
_opening	-9.81349
_treated	-9.81431
_pope	-9.81442
_welcome	-9.81558
_http	-9.81577
_bureau	-9.81577
_loan	-9.81688
_afraid	-9.81697
_thanks	-9.81721
_cry	-9.81754
_substance	-9.8189
_smile	-9.81923
_revolution	-9.81923
_consent	-9.81949
_thin	-9.81961
_flesh	-9.81973
_attached	-9.8202
_mental	-9.82064
_growth	-9.821
_moreover	-9.82224
_priests	-9.82377
_britain	-9.82437
_pacific	-9.8254
_survey	-9.82558
_stones	-9.82619
_understanding	-9.82627
_wholly	-9.8273
_fortune	-9.82788
_academy	-9.82814
_box	-9.82834
_event	-9.82888
_cloth	-9.82903
_forced	-9.8292
_train	-9.83079
_pointed	-9.8308
_peoples	-9.83102
_poetry	-9.83136
_wonderful	-9.83211
_exactly	-9.83277
_translation	-9.83335
_thank	-9.83356
_sheep	-9.83374
_labour	-9.83434
_student	-9.83436
_aside	-9.83489
_powerful	-9.8355
_wealth	-9.83566
_queries	-9.83574
_season	-9.83589
_tribe	-9.8362
_neck	-9.83694
_representative	-9.83704
_mention	-9.83815
_intelligence	-9.83945
_distinct	-9.83969
_proportion	-9.84102
_developed	-9.84116
_disease	-9.84117
_accept	-9.84169
_drawing	-9.8427
_firm	-9.84272
_occurred	-9.84339
_ninth	-9.84389
_publication	-9.84484
_devoted	-9.84491
_	-9.84503
_needs	-9.8452
_dinner	-9.84553
_mo	-9.8458
_ohio	-9.84601
_walked	-9.8461
_suggested	-9.8463
_altogether	-9.8486
_favour	-9.84931
_roll	-9.84965
_ii	-9.84974
_transfer	-9.84997
_resources	-9.85225
_everywhere	-9.85336
_methods	-9.85337
_male	-9.85419
_smaller	-9.85436
_kinds	-9.85439
_servants	-9.85448
_perfectly	-9.85485
_sudden	-9.85549
le	-9.85598
_elements	-9.8562
_sm	-9.8567
_sacrifice	-9.85718
_essential	-9.85752
_weather	-9.85923
_ages	-9.85932
or	-9.86033
_pale	-9.86168
_sick	-9.86175
_commanded	-9.86255
_parents	-9.86311
_jerusalem	-9.86315
_turning	-9.86352
_bell	-9.86357
ne	-9.86359
_warm	-9.86432
_chosen	-9.86484
_properly	-9.86492
_projects	-9.86632
_thick	-9.86664
_ear	-9.86729
_task	-9.86799
_growing	-9.86913
_consists	-9.87003
_rain	-9.87006
_determination	-9.87026
_acquired	-9.87149
_editor	-9.87206
_cotton	-9.87258
_female	-9.87306
_actions	-9.87334
_preceding	-9.87334
_wished	-9.87334
_cover	-9.87384
_woods	-9.87419
_highly	-9.87443
_successful	-9.87509
_path	-9.87545
able	-9.87595
_slave	-9.87729
_administrative	-9.87741
rs	-9.87792
_fields	-9.87827
_documents	-9.87894
_frank	-9.87944
_ms	-9.88052
_afternoon	-9.88057
_martin	-9.88065
_towns	-9.881
_evidently	-9.88153
_ladies	-9.88158
_judges	-9.88201
_problem	-9.88216
_writers	-9.88225
_universal	-9.88294
_immediate	-9.88353
_permanent	-9.88405
_tis	-9.88408
_milk	-9.88617
_thrown	-9.88621
_churches	-9.88623
_fallen	-9.88627
_spoken	-9.88731
_enjoy	-9.88764
_percent	-9.88824
_philip	-9.8901
_catalogue	-9.89042
_promise	-9.89252
_sword	-9.89288
_worthy	-9.89325
_corps	-9.89358
_spirits	-9.89375
_agree	-9.89436
_enemies	-9.89447
_insurance	-9.89448
_details	-9.89466
_reduced	-9.89498
_demand	-9.89508
_residence	-9.89539
_rising	-9.89645
_cambridge	-9.89682
_vain	-9.89692
_accompanied	-9.89735
_twice	-9.89761
_fifteen	-9.89778
_arthur	-9.8978
_taxes	-9.89791
_repeated	-9.89799
_star	-9.89886
_gate	-9.8989
_needed	-9.89925
_looks	-9.89996
_rocks	-9.90022
_functions	-9.90032
_possessed	-9.90108
_charged	-9.90129
_acting	-9.90142
_won	-9.90143
_que	-9.90185
_destroyed	-9.90287
_guide	-9.90369
_shape	-9.90503
_canada	-9.90511
_distribution	-9.90677
_structure	-9.90698
_guilty	-9.90718
_custom	-9.90765
_waiting	-9.90784
_normal	-9.90974
_darkness	-9.90996
_extraordinary	-9.91025
est	-9.91027
_texas	-9.91158
_situated	-9.91187
_legislation	-9.91237
_naturally	-9.91305
_fate	-9.91319
_dis	-9.91338
_acres	-9.91425
_staff	-9.9143
_surely	-9.91432
_grounds	-9.91468
_wisdom	-9.91476
_gradually	-9.91484
_grow	-9.91495
_test	-9.91636
_noticed	-9.9167
_distant	-9.91713
_russian	-9.91775
_amounts	-9.91784
_soldier	-9.91784
_aged	-9.91806
_happiness	-9.91876
_capable	-9.91882
_trying	-9.9189
_maintain	-9.92002
_ib	-9.92039
_jews	-9.92123
_struggle	-9.92208
_testimony	-9.92278
_obliged	-9.92285
_tone	-9.92287
_whilst	-9.92305
_session	-9.92316
_content	-9.92348
_punishment	-9.92356
_tho	-9.92386
_belonging	-9.924
_petition	-9.92427
_ocean	-9.92498
_possibly	-9.92519
_owing	-9.92668
to	-9.92675
_hon	-9.92869
_conversation	-9.92937
_costs	-9.92955
_expedition	-9.93018
_minor	-9.93051
_lee	-9.93055
_finished	-9.93074
_colony	-9.93145
_edge	-9.9317
_bag	-9.93271
_independence	-9.93329
_sorry	-9.93369
_contents	-9.9361
_ve	-9.93761
_appeals	-9.93797
_deemed	-9.93806
_desired	-9.93881
_printing	-9.93896
_net	-9.93905
it	-9.9391
_brief	-9.9394
_philadelphia	-9.93955
_nevertheless	-9.94009
_egypt	-9.94017
_companies	-9.94064
_suffered	-9.9407
_ha	-9.94133
_hearts	-9.94133
_learning	-9.94203
_verse	-9.94225
_administrator	-9.94236
_interested	-9.94276
b	-9.94326
_sa	-9.94333
_coal	-9.94441
_travel	-9.94588
_branches	-9.94604
_retired	-9.94627
_writings	-9.94778
_hast	-9.94785
_gov	-9.94861
_holds	-9.94905
_preserved	-9.94919
_stars	-9.94939
_flight	-9.95041
_keeping	-9.95068
_kill	-9.95095
_clause	-9.95105
os	-9.95233
_defence	-9.95247
_australia	-9.95397
_involved	-9.95397
_taste	-9.9555
_confidence	-9.95569
_parish	-9.95589
_circle	-9.95595
_americans	-9.95624
_previously	-9.95685
_meat	-9.95736
_limits	-9.95758
_sake	-9.95759
_rivers	-9.95915
_illustrations	-9.95977
_machine	-9.96017
_victory	-9.96034
_capacity	-9.9605
_fee	-9.96106
_design	-9.96109
_tools	-9.96134
_seized	-9.96209
_familiar	-9.96291
_spite	-9.96316
_districts	-9.96357
_grown	-9.9639
_esq	-9.96451
_gun	-9.96498
_completely	-9.9651
_educational	-9.96606
_streets	-9.96618
_rates	-9.96637
_terrible	-9.96665
_offices	-9.96672
_log	-9.96815
_ot	-9.96844
_prison	-9.96951
of	-9.97007
_correct	-9.97013
_portrait	-9.97039
_reader	-9.97057
_flat	-9.97161
_thats	-9.97177
_ice	-9.97185
_customs	-9.97212
_breath	-9.97222
_passion	-9.97272
_sources	-9.97339
_execution	-9.97388
_agricultural	-9.97453
_start	-9.97503
_habit	-9.97515
_constant	-9.9767
_decree	-9.97725
_teaching	-9.97757
_variety	-9.97764
_chamber	-9.97925
_unable	-9.98062
_clothes	-9.98108
_rare	-9.98151
_steam	-9.98214
_pray	-9.98221
_completed	-9.98243
_primitive	-9.98305
_applicable	-9.98333
_ring	-9.98418
_italian	-9.98449
_closely	-9.98531
_volumes	-9.98613
_agriculture	-9.98618
_specified	-9.98648
_extreme	-9.98732
_souls	-9.98802
_wounded	-9.98817
_ante	-9.98838
_sharp	-9.98845
_moving	-9.98849
_russia	-9.98866
_discovery	-9.98954
_rd	-9.99048
_mount	-9.99083
_failure	-9.99137
_amongst	-9.99223
_bulk	-9.99239
_steel	-9.99261
_band	-9.99277
_apart	-9.99292
_belong	-9.99329
_instruction	-9.99354
_thence	-9.99401
_reserve	-9.99658
_folk	-9.99761
_investigation	-9.99789
_threw	-9.99829
_flower	-9.99963
_site	-10.0005
_roads	-10.0014
_data	-10.0022
_tongue	-10.003
_pounds	-10.0032
_recently	-10.0033
_tower	-10.0033
_resolved	-10.0039
_lords	-10.0041
_contain	-10.0044
_offering	-10.0056
_knowing	-10.006
_designated	-10.0064
_poem	-10.0064
_financial	-10.0067
_pictures	-10.0074
_gentlemen	-10.0082
_rapidly	-10.0087
_debt	-10.0087
_played	-10.0088
_performed	-10.0088
_inter	-10.0088
_proceeded	-10.0094
_fr	-10.0094
_farther	-10.0097
_cat	-10.0105
_courage	-10.011
_intention	-10.0111
_expect	-10.0115
_strike	-10.0116
_aunt	-10.0118
_falls	-10.0121
_oclock	-10.0122
_standards	-10.013
_permit	-10.0132
_absolutely	-10.0149
_pleased	-10.0152
_destruction	-10.0152
_defined	-10.0153
_tale	-10.0158
_affected	-10.0178
_key	-10.0178
_sixth	-10.0182
_choose	-10.0189
_yours	-10.0202
_advice	-10.0208
_transferred	-10.0211
ta	-10.0216
_visited	-10.0218
_whence	-10.0223
_inside	-10.0231
_medicine	-10.0236
ment	-10.0237
na	-10.0243
_benefits	-10.0245
_fo	-10.0248
_exception	-10.0248
_pen	-10.0257
_alumni	-10.0264
_minds	-10.0268
_arts	-10.0277
_il	-10.0278
_del	-10.0282
_salaries	-10.0282
_subsequently	-10.0285
_hung	-10.029
_plaintiff	-10.0293
_permitted	-10.03
_tr	-10.0303
_therein	-10.0304
_bi	-10.0305
_blow	-10.0306
_furnished	-10.0309
_subsequent	-10.0309
_specific	-10.0312
_org	-10.0313
_skin	-10.0313
_evident	-10.0314
_equipment	-10.0314
_approach	-10.0317
_hell	-10.0317
_groups	-10.0318
_tea	-10.0319
_fat	-10.0322
_reform	-10.0325
_satisfied	-10.0327
_illustrated	-10.034
_whenever	-10.0341
_remaining	-10.0344
_appointment	-10.0347
_renamed	-10.0348
_forget	-10.035
_reported	-10.0353
_bible	-10.0355
_studied	-10.0363
_pennsylvania	-10.0367
_worse	-10.0373
_performance	-10.0374
_lo	-10.0377
_extensive	-10.0378
_sp	-10.0383
_youll	-10.0388
_natives	-10.0397
_favor	-10.0413
_proceed	-10.0422
_faithful	-10.0423
_breast	-10.0431
_ears	-10.0432
_baron	-10.0434
_proceeding	-10.0442
_observe	-10.0443
_majesty	-10.0444
_distinction	-10.045
_secured	-10.0458
_eighteen	-10.0465
_extension	-10.0469
_driven	-10.0469
_join	-10.0471
_dated	-10.0474
_excess	-10.048
_commander	-10.0481
_characters	-10.0482
_von	-10.0484
_celebrated	-10.0485
_contracts	-10.0489
_arrangement	-10.0505
_morrow	-10.0508
_explain	-10.0515
_plans	-10.0516
_nest	-10.052
_quick	-10.0534
_intellectual	-10.0536
_opposition	-10.0536
_fighting	-10.0542
_shut	-10.0545
_supplies	-10.0548
_conviction	-10.0551
_probable	-10.0557
_largely	-10.056
_protect	-10.0567
_areas	-10.0568
_absolute	-10.0572
_abroad	-10.0572
_regarding	-10.0582
j	-10.0585
_arrival	-10.0588
_centuries	-10.0616
_cape	-10.0623
_slight	-10.063
_sell	-10.0634
_dangerous	-10.0638
_assumed	-10.0638
_motor	-10.0644
_becoming	-10.0646
_laughed	-10.065
_explanation	-10.0653
ism	-10.0654
_conducted	-10.0656
_talking	-10.0656
_mercy	-10.0659
_adding	-10.0664
_product	-10.0669
_res	-10.0682
_quarters	-10.0682
_prescribed	-10.0692
_choice	-10.07
_teeth	-10.0707
_observations	-10.071
_truly	-10.0715
_guns	-10.0716
_gospel	-10.0719
_discussion	-10.0719
_anne	-10.0723
_theres	-10.0741
_blind	-10.0746
_bore	-10.0747
_approval	-10.0749
_promised	-10.0768
_legs	-10.0768
_daughters	-10.0792
_begun	-10.0796
_addressed	-10.0803
_originally	-10.0814
_elsewhere	-10.0815
_sunday	-10.0817
_pride	-10.0819
_chicago	-10.0821
_filed	-10.083
_ca	-10.0836
_enforcement	-10.0847
_weak	-10.0849
_submitted	-10.085
_resource	-10.0854
_industrial	-10.0855
_granting	-10.0861
_edinburgh	-10.0865
_sisters	-10.0869
_clean	-10.0872
_exclaimed	-10.0881
_gained	-10.0885
_supported	-10.0888
_teacher	-10.0889
_satisfaction	-10.0891
_marine	-10.0893
_seventy	-10.0901
_walter	-10.0903
_limit	-10.0912
_brain	-10.0914
_sugar	-10.0916
_organized	-10.0917
ian	-10.0921
_commissioners	-10.0924
_remembered	-10.0931
_render	-10.094
_clay	-10.0942
_informed	-10.0943
_educated	-10.0945
_build	-10.0948
_noted	-10.0951
_compelled	-10.0954
_objection	-10.0957
_throne	-10.0967
_copies	-10.0967
_oxonienses	-10.0973
_reserved	-10.0976
_coat	-10.098
_maintained	-10.0991
_si	-10.0996
_careful	-10.0996
_eternal	-10.1002
_function	-10.1002
_ends	-10.1007
ley	-10.1008
_silk	-10.1015
_mode	-10.1017
ar	-10.1019
_quarterly	-10.1049
land	-10.1049
_forgotten	-10.1053
_murder	-10.106
p	-10.1067
_manufacture	-10.1068
_regions	-10.1069
_arranged	-10.1071
_sad	-10.1072
_occur	-10.1075
_fancy	-10.108
_bonds	-10.108
_translated	-10.1086
_citizen	-10.1096
_throw	-10.1097
_ben	-10.11
_dust	-10.1103
_princess	-10.1104
_inquiry	-10.1105
_technical	-10.1105
_penalty	-10.1105
_wilson	-10.1111
_prisoners	-10.1117
_aware	-10.112
_requires	-10.1127
_map	-10.113
_seal	-10.1131
men	-10.1138
at	-10.114
_lose	-10.1141
_contact	-10.1144
_earliest	-10.1144
_fashion	-10.1145
_mighty	-10.1146
_yards	-10.1149
_gain	-10.1151
_avoid	-10.1155
_imperial	-10.1156
_older	-10.1157
_anti	-10.1159
_mill	-10.1161
_scott	-10.1161
_entrance	-10.1168
_acid	-10.1175
_metal	-10.1183
_exceeding	-10.1194
_greece	-10.1206
_image	-10.1214
_entry	-10.1215
_degrees	-10.122
_infantry	-10.1222
_million	-10.1236
_dutch	-10.1237
_tail	-10.1246
_erected	-10.1254
_limitations	-10.1269
_masters	-10.1271
_vision	-10.1272
_habits	-10.1272
_reality	-10.1276
_painted	-10.1277
_admit	-10.128
_systems	-10.1282
_agents	-10.1297
_tall	-10.1303
_document	-10.1306
_authorization	-10.1312
ra	-10.1314
_relative	-10.1318
_consequently	-10.1332
_canal	-10.1351
_associated	-10.1353
_genius	-10.1355
_necessarily	-10.1367
_attended	-10.1368
_acquisition	-10.1378
_pair	-10.1379
_bones	-10.1381
_bringing	-10.1383
_raise	-10.1383
_burning	-10.1384
_skill	-10.1391
_fail	-10.1392
g	-10.1394
_leader	-10.1396
_grants	-10.1401
_imposed	-10.142
_jack	-10.1421
id	-10.1431
_creation	-10.1432
_viz	-10.1434
_exact	-10.1435
_discuss	-10.1439
_hole	-10.1441
_namely	-10.1442
_alive	-10.1446
_panel	-10.1446
_lore	-10.1446
ry	-10.1455
_calling	-10.1458
ch	-10.1462
_cal	-10.1465
_today	-10.1468
_possess	-10.1487
_claimed	-10.1487
am	-10.1488
_officials	-10.1489
_institute	-10.1495
_difficulties	-10.1499
_deed	-10.1502
_devil	-10.1503
_ap	-10.1507
_liable	-10.1512
_rough	-10.1515
_surprise	-10.1518
_fur	-10.1519
_scheme	-10.1521
_marks	-10.1522
_gift	-10.1527
_calls	-10.1529
_primary	-10.1532
_crossed	-10.1536
_instrument	-10.154
_career	-10.1542
the	-10.1544
_fleet	-10.1546
_opinions	-10.1548
_frederick	-10.1548
_johnson	-10.1553
_represent	-10.1554
_inc	-10.1554
_impression	-10.1569
me	-10.1572
_likewise	-10.1583
_behalf	-10.159
_delight	-10.1597
_returning	-10.1605
ist	-10.1607
_companion	-10.1613
_scale	-10.1614
_expense	-10.1614
_presently	-10.162
_eminent	-10.1627
_sc	-10.1642
_remarks	-10.1643
_altar	-10.1644
_merchant	-10.1648
_expended	-10.1651
_praise	-10.1674
_tender	-10.168
_appendix	-10.1695
_tool	-10.1698
_fought	-10.1702
_lawyer	-10.1705
_arose	-10.1708
_submit	-10.1714
_element	-10.1719
_putting	-10.1722
_sup	-10.1722
less	-10.1723
_fairly	-10.1726
_storm	-10.1728
la	-10.1732
_fingers	-10.1736
_suffer	-10.1743
_senator	-10.1743
_bought	-10.1747
_princes	-10.1752
_listen	-10.1767
_extend	-10.1772
_madame	-10.1773
_analysis	-10.1774
_conflict	-10.1776
_campaign	-10.1776
_instant	-10.1777
el	-10.1782
_provinces	-10.1795
_conception	-10.1798
_separated	-10.1798
_fill	-10.1798
_denied	-10.1802
_includes	-10.1813
_testament	-10.1819
et	-10.1825
_fly	-10.1827
_frequent	-10.1829
_shoulder	-10.1829
_enactment	-10.184
_falling	-10.1841
_disposition	-10.1847
_apr	-10.185
_shortly	-10.1854
_moses	-10.1856
_encyclopedia	-10.1858
_signs	-10.1858
_carolina	-10.1865
_crowd	-10.1866
_sufficiently	-10.1866
_dropped	-10.1868
_feelings	-10.1874
_consciousness	-10.1876
_culture	-10.1877
_regulation	-10.1878
_characteristic	-10.188
_mad	-10.1881
_suffering	-10.1886
_thousands	-10.189
_willing	-10.1892
_responsible	-10.1893
_dignity	-10.1893
_saved	-10.1894
_mm	-10.1896
_sect	-10.1898
_ter	-10.1899
ville	-10.1907
_mankind	-10.1907
_register	-10.1909
_slow	-10.1912
_interstate	-10.1914
_assigned	-10.1918
_wit	-10.1922
_desert	-10.1924
_bishops	-10.1937
_watched	-10.1942
_shadow	-10.1952
_hym	-10.1976
_owned	-10.1978
_bond	-10.1981
_mothers	-10.1984
_mixed	-10.1988
_pocket	-10.199
_thereby	-10.1994
_temporary	-10.1995
_acted	-10.1995
_tons	-10.1997
_job	-10.1999
by	-10.2008
_slavery	-10.2013
_composition	-10.2016
_comfort	-10.2024
_flag	-10.2025
_virgin	-10.2027
_voyage	-10.203
_emergency	-10.203
_ann	-10.2035
ll	-10.2035
_ki	-10.2036
_perform	-10.2051
_anxious	-10.2052
_bare	-10.2053
_teachers	-10.2057
ham	-10.2068
_selected	-10.207
_ability	-10.2072
_civilization	-10.2099
_universe	-10.2103
_laugh	-10.2106
_missouri	-10.2112
_imagination	-10.2113
_boundary	-10.212
_angel	-10.212
_external	-10.2127
_sing	-10.213
_ti	-10.214
_petitioner	-10.2145
_empty	-10.2147
_critical	-10.2153
_providing	-10.2166
_christians	-10.2174
_est	-10.2175
_wales	-10.2176
_pressure	-10.2179
_creek	-10.2188
_ng	-10.2196
_constantly	-10.2199
_discharge	-10.2202
_ra	-10.2203
_margin	-10.2208
_setting	-10.2208
_proud	-10.2212
_chapel	-10.2213
_younger	-10.2217
_governments	-10.2217
_repair	-10.222
_concluded	-10.2223
_wants	-10.2227
_seventh	-10.2231
_drug	-10.2233
_inner	-10.2242
_behold	-10.2249
_happen	-10.2249
_ceased	-10.225
_violence	-10.2267
_occasionally	-10.2273
_florida	-10.228
_severe	-10.2281
_faces	-10.2289
_committees	-10.2289
_nights	-10.2291
_communication	-10.2294
ies	-10.2299
_wings	-10.2301
_fees	-10.2303
_drive	-10.2313
_songs	-10.2327
_stranger	-10.233
_bent	-10.2331
_workers	-10.2332
_qualities	-10.234
_congressional	-10.2341
_ministers	-10.2348
_midst	-10.2356
_problems	-10.2357
_organizations	-10.2361
_gentle	-10.2361
_electric	-10.2368
_risk	-10.2369
_remarked	-10.2377
_val	-10.2382
_illinois	-10.2384
_yard	-10.2388
_japan	-10.2395
_jones	-10.24
_provides	-10.2402
_hymn	-10.2402
_definite	-10.2406
_glance	-10.2415
_bow	-10.2416
_geo	-10.2422
_restored	-10.2431
_apparent	-10.2437
_rooms	-10.2437
_household	-10.2439
_divisions	-10.2442
_edit	-10.2446
_demanded	-10.2449
_confined	-10.2459
_chairman	-10.246
_honest	-10.2461
_ho	-10.2463
_teach	-10.2467
_waste	-10.2472
_conference	-10.2479
_enable	-10.248
_reputation	-10.248
_inch	-10.2498
v	-10.2504
_plates	-10.2509
_compared	-10.251
_saints	-10.2514
_suitable	-10.2515
_thoroughly	-10.2519
_slightly	-10.2529
_christmas	-10.2529
_smoke	-10.2535
_recorded	-10.2538
_access	-10.255
_treatise	-10.2554
_rent	-10.2554
_mystery	-10.2555
_responsibility	-10.2555
_prof	-10.256
_arch	-10.2563
_dogs	-10.2564
_margaret	-10.2568
_surrounded	-10.2571
_cook	-10.2573
_pan	-10.2573
_boats	-10.258
_creature	-10.258
_rear	-10.2584
_forming	-10.2585
_cavalry	-10.2592
_opposed	-10.2602
_jackson	-10.2616
_doubtless	-10.2617
_cloud	-10.262
_strongly	-10.2621
_counties	-10.2627
_belonged	-10.2628
_marry	-10.2636
_increasing	-10.2642
_shoulders	-10.2652
_lack	-10.2652
_races	-10.2671
ce	-10.2672
_formation	-10.2675
_cooperation	-10.2676
_commonly	-10.2679
_windows	-10.2679
_belongs	-10.2683
_eighth	-10.2684
_democratic	-10.2685
_capt	-10.2689
_tobacco	-10.2691
_massachusetts	-10.2691
_sympathy	-10.2706
_patient	-10.271
_friendship	-10.271
_cr	-10.2714
_occurs	-10.2718
em	-10.2719
_telephone	-10.2723
_op	-10.2724
_pipe	-10.2725
_hello	-10.2728
_alleged	-10.273
de	-10.2734
_extremely	-10.2737
_league	-10.2744
_accomplished	-10.2749
_lincoln	-10.275
_economy	-10.2752
_dying	-10.2761
_smiled	-10.2764
_poets	-10.2778
_profession	-10.2781
_supplied	-10.2782
_glorious	-10.2783
_beat	-10.2794
_instances	-10.2804
_carriage	-10.2805
_exists	-10.2807
_african	-10.2808
_shell	-10.2811
_touched	-10.282
_largest	-10.283
_preparation	-10.2836
_charter	-10.2837
_worn	-10.2846
_verses	-10.2847
_timber	-10.2848
_sales	-10.2851
_hide	-10.2852
_charges	-10.2854
_examined	-10.2856
_copper	-10.2863
_nice	-10.2864
_defendants	-10.2865
_pour	-10.2871
_eighty	-10.2883
_version	-10.2887
_qui	-10.2889
_parallel	-10.2893
_davis	-10.2895
son	-10.2908
_violation	-10.2914
nt	-10.2919
_designed	-10.2928
_walking	-10.2929
_obligations	-10.2941
_atlantic	-10.2952
_va	-10.2953
_michael	-10.2956
_decisions	-10.2958
_hitherto	-10.2968
_balance	-10.2978
_supra	-10.2997
_payments	-10.2997
_root	-10.2998
_bb	-10.3005
_sess	-10.3008
_solution	-10.3008
_injury	-10.301
_wars	-10.3011
_generation	-10.3012
_professional	-10.3017
_respectively	-10.3017
_housing	-10.3019
_assist	-10.3021
_offence	-10.3028
_wool	-10.3031
_visible	-10.3034
_slaves	-10.3038
_fed	-10.304
_detail	-10.3043
ation	-10.3046
_wages	-10.3048
_thine	-10.3049
_elder	-10.305
_mines	-10.3052
_guess	-10.3054
_fled	-10.3058
_route	-10.3065
_seed	-10.3065
_file	-10.3066
_experiments	-10.3068
_store	-10.3074
_sole	-10.3076
_executed	-10.3083
_mid	-10.3089
_catch	-10.309
_located	-10.3094
_genus	-10.3097
_afford	-10.3098
_uniform	-10.3099
_artillery	-10.3101
_shop	-10.3105
_observation	-10.3105
_message	-10.3107
_practically	-10.3111
_imagine	-10.3114
_rapid	-10.3114
_transactions	-10.3115
_ended	-10.3116
_roof	-10.3118
_select	-10.3123
_finds	-10.3126
_infinite	-10.3134
_nearer	-10.3138
ity	-10.3139
_decide	-10.3145
_attempted	-10.3147
_movements	-10.3148
_essays	-10.315
_brave	-10.3155
_terror	-10.3155
_loose	-10.3156
_escaped	-10.3162
_oath	-10.3164
_artist	-10.3179
li	-10.3181
_win	-10.3183
_commenced	-10.3186
_unfortunately	-10.3187
_fairy	-10.3193
_temperature	-10.3198
_chemical	-10.3207
_violent	-10.3209
_buy	-10.3213
_daniel	-10.3215
_speed	-10.3217
_millions	-10.3224
_hotel	-10.3231
_pressed	-10.3234
_asia	-10.3235
_existed	-10.3235
_examples	-10.3236
_prisoner	-10.3239
_ward	-10.3243
_wheat	-10.325
_monument	-10.3255
_destroy	-10.3263
_pity	-10.3264
_eleven	-10.3268
_dressed	-10.3271
_mutual	-10.3272
_swift	-10.3272
_personnel	-10.3273
_tomb	-10.3276
_shalt	-10.3295
_lane	-10.3295
_brilliant	-10.3297
se	-10.3298
_douglas	-10.3301
_bull	-10.3313
_beds	-10.3315
_amsterdam	-10.3317
_andrew	-10.3325
_privilege	-10.3326
_recognition	-10.3329
_exclusive	-10.3329
_ending	-10.333
_ver	-10.3335
_conscious	-10.3337
_readily	-10.3338
_tions	-10.3343
_maria	-10.3355
_outer	-10.3359
_remove	-10.3362
_clouds	-10.3368
_dozen	-10.3371
_indicated	-10.3373
_tin	-10.3374
_obligation	-10.338
_ts	-10.3381
_dreams	-10.3383
_iii	-10.3387
_hi	-10.3393
_status	-10.3394
_drop	-10.3398
_playing	-10.3399
_writ	-10.34
_leaders	-10.34
_respective	-10.3408
_wear	-10.341
_immense	-10.3411
_disposed	-10.3412
_bears	-10.3423
_japanese	-10.343
_declaration	-10.3438
_flow	-10.3452
_plays	-10.3454
_handsome	-10.3454
_calm	-10.3458
_announced	-10.346
_ta	-10.3463
_hem	-10.3466
_mississippi	-10.3471
_climate	-10.3475
_afterward	-10.3478
ion	-10.3479
_mistake	-10.3479
_limitation	-10.3491
_waited	-10.3492
_telling	-10.3496
ii	-10.3499
_languages	-10.3511
ns	-10.3514
_isnt	-10.3514
_refer	-10.3521
_lest	-10.3526
_joe	-10.3528
_fro	-10.3536
_innocent	-10.3538
_butter	-10.3543
_fun	-10.3544
_burden	-10.3549
_lectures	-10.3552
_sam	-10.3558
_succession	-10.3562
_conscience	-10.3562
_cathedral	-10.3566
_cents	-10.3578
_sovereign	-10.3582
_shook	-10.3596
_precious	-10.3599
_miscellaneous	-10.3603
_dick	-10.3608
ine	-10.3618
_wikisource	-10.362
_liberal	-10.3622
_fool	-10.3624
_meanwhile	-10.3624
_bitter	-10.3625
_grain	-10.363
_constructed	-10.363
_feast	-10.3632
_obvious	-10.3634
_ere	-10.3637
_aspect	-10.3641
_row	-10.3641
_womans	-10.3642
_attacked	-10.3648
_weapons	-10.3659
_extra	-10.3663
_cup	-10.3667
_hugh	-10.3668
_surprised	-10.3673
_bush	-10.3681
_gates	-10.3696
_specimens	-10.37
_owners	-10.3704
_manor	-10.3707
_witnesses	-10.371
_portions	-10.372
_cruel	-10.3732
_adam	-10.3737
_finger	-10.3737
_hamilton	-10.3741
_captured	-10.3742
_tradition	-10.3753
_ecclesiastical	-10.3755
_hopes	-10.3755
_politics	-10.3757
_affection	-10.3757
_prayers	-10.3758
ti	-10.3761
_fault	-10.3771
_attend	-10.3778
_alike	-10.378
_flying	-10.3785
_confirmed	-10.3785
_prominent	-10.3793
_talked	-10.3798
_trace	-10.38
_disappeared	-10.3802
_sins	-10.3805
_loud	-10.3807
_entering	-10.3808
_abandoned	-10.3811
_deeply	-10.3813
io	-10.3822
_instructions	-10.3822
_tired	-10.3824
_sorrow	-10.3838
_profit	-10.3842
_confusion	-10.3843
_excited	-10.3846
_biographical	-10.3856
_protected	-10.3858
_lit	-10.3858
_yield	-10.3864
_grief	-10.3878
_ph	-10.3881
_issues	-10.3884
_nobody	-10.3888
_hidden	-10.389
_bold	-10.3899
_nineteen	-10.3906
_removal	-10.3907
_assume	-10.3908
_angels	-10.391
_sexual	-10.3913
_brethren	-10.3916
_check	-10.3917
_channel	-10.3917
ius	-10.3923
_dare	-10.3925
_subparagraph	-10.3926
_automated	-10.3933
_procedure	-10.3934
_mi	-10.3938
_nose	-10.3938
_employee	-10.3939
_hero	-10.3944
_begins	-10.3952
_incident	-10.3952
_warrant	-10.3957
_attitude	-10.3969
_ce	-10.3981
_scattered	-10.3981
_pi	-10.3981
_splendid	-10.3981
_contributions	-10.3992
_sex	-10.3994
_negro	-10.3996
_purchased	-10.3997
_delay	-10.3998
_uses	-10.4002
_pur	-10.4008
_tells	-10.401
_drove	-10.4019
_experiment	-10.4023
_readers	-10.4028
_lovely	-10.4035
_combined	-10.4042
_pardon	-10.4048
_estimated	-10.4049
_fox	-10.4053
_seldom	-10.4058
_arise	-10.4066
_presents	-10.4068
_quietly	-10.4068
_census	-10.4073
_accident	-10.4073
_develop	-10.4088
_cousin	-10.4093
_newspaper	-10.41
_aint	-10.41
_constitute	-10.4103
_ninety	-10.4107
_unity	-10.412
_holland	-10.4125
_enjoyed	-10.4131
_reward	-10.4131
_mail	-10.4134
_remedy	-10.4137
_exposed	-10.4147
_freely	-10.415
_sh	-10.4159
_georgia	-10.4171
_angry	-10.4173
_los	-10.4175
_departure	-10.4179
_burnt	-10.4181
_knight	-10.4183
_merit	-10.4184
_wound	-10.4193
_den	-10.4194
_huge	-10.4194
_suggestion	-10.4201
_discover	-10.4203
_doors	-10.4205
_friendly	-10.4211
_charity	-10.4212
_seeking	-10.4218
_trans	-10.4221
_cave	-10.4221
_bath	-10.4222
_kindly	-10.4231
_corresponding	-10.4236
_thereto	-10.4237
_dublin	-10.4238
_sounds	-10.4245
_memorial	-10.4249
_fix	-10.4262
_noise	-10.4264
_recovered	-10.4269
_singing	-10.427
_soc	-10.427
_invention	-10.427
_enwikisource	-10.4287
_nay	-10.4293
_excitement	-10.4296
_heavens	-10.4296
_reaching	-10.4297
_wing	-10.4298
_concern	-10.43
_breakfast	-10.4301
_webm	-10.4308
_rural	-10.431
_seated	-10.4313
_und	-10.4315
_burst	-10.4317
_memoirs	-10.4322
_anyone	-10.4328
_creatures	-10.4328
_revised	-10.4329
_couldnt	-10.4329
_berlin	-10.4329
_ignorance	-10.4332
_contributed	-10.4339
_fond	-10.434
_delicate	-10.4342
_pot	-10.4346
_busy	-10.4346
_physician	-10.4352
_mon	-10.4353
_quoted	-10.4358
_lion	-10.4358
_williams	-10.4359
_moore	-10.436
_wouldnt	-10.4364
ter	-10.4367
_unique	-10.4368
_jane	-10.4369
_prophet	-10.4371
_lewis	-10.4371
_wire	-10.4375
_inferior	-10.4376
_complaint	-10.4377
_font	-10.4379
_volunteer	-10.438
_departments	-10.4389
_narrative	-10.4389
_depth	-10.4398
_ministry	-10.4399
_archbishop	-10.4406
_lat	-10.441
_requested	-10.4412
_abundant	-10.4414
_masses	-10.4424
_consisting	-10.4425
_machinery	-10.4426
_ease	-10.4428
_attained	-10.4431
_secondary	-10.4432
_instruments	-10.4438
_improvements	-10.4438
_mainly	-10.4445
_commons	-10.4448
_lamp	-10.4452
_create	-10.4453
_gulf	-10.4454
_florins	-10.4455
_preserve	-10.4467
_serving	-10.4468
_furnish	-10.4473
_urged	-10.4474
_treat	-10.4479
_retained	-10.4488
_host	-10.4488
_interpretation	-10.4489
_veterans	-10.449
_hereafter	-10.4494
ier	-10.4503
_covering	-10.4506
_colorado	-10.4508
_wheel	-10.4528
_hebrew	-10.4535
_occasions	-10.4535
_wicked	-10.4536
_directions	-10.454
_affair	-10.454
_considering	-10.4543
_fundamental	-10.4545
_bills	-10.4552
_savage	-10.456
_leg	-10.4562
_fi	-10.4566
_nicholas	-10.4568
_refuse	-10.457
_moments	-10.4572
_deny	-10.459
_watching	-10.4594
_ensure	-10.4598
_restoration	-10.4599
_wore	-10.46
_criticism	-10.4608
_combination	-10.4613
_tendency	-10.4613
_enormous	-10.4614
_welfare	-10.4626
_winds	-10.4631
_ideal	-10.4631
_flood	-10.4632
_representation	-10.4633
_rice	-10.4634
_occupation	-10.4635
_everybody	-10.4641
_waves	-10.4642
_po	-10.4642
_hist	-10.4646
_iowa	-10.4647
_chain	-10.4648
_passes	-10.4655
_sur	-10.4663
_dedicated	-10.4668
kified	-10.4672
_correspondence	-10.4673
_anna	-10.4677
_remark	-10.4683
_borne	-10.4684
_stick	-10.4686
_graduated	-10.4688
co	-10.4689
_statements	-10.4691
_pole	-10.4695
_fellows	-10.4696
_extending	-10.4697
_resistance	-10.4705
_couple	-10.4707
_team	-10.4712
_wherein	-10.4715
_duly	-10.4719
_dance	-10.472
_ghost	-10.4728
_examine	-10.4737
_amend	-10.4738
_stephen	-10.4741
_apostles	-10.4743
_fruits	-10.4747
_prepare	-10.4747
_colonies	-10.4752
_consistent	-10.4753
_liability	-10.4761
_oer	-10.4766
_hoped	-10.477
_christianity	-10.4771
_singular	-10.4776
_arising	-10.4789
_cited	-10.4789
_orange	-10.4796
_admiral	-10.4799
_youve	-10.4808
_pine	-10.4813
_chi	-10.4832
_hunting	-10.4839
_norfolk	-10.4841
_vbm	-10.4841
_definition	-10.4842
_var	-10.4844
_rode	-10.4858
_plains	-10.486
_wishes	-10.4871
_ahead	-10.4871
_possibility	-10.4873
_runs	-10.4874
_messenger	-10.488
_genera	-10.4882
_cor	-10.4887
_remainder	-10.4889
_wet	-10.4892
_nt	-10.4894
_throat	-10.4895
_substantial	-10.4904
_cutting	-10.4905
_whereof	-10.4906
_positive	-10.4908
_controversy	-10.4911
_continent	-10.4912
_column	-10.4912
_companions	-10.4918
_newspapers	-10.4923
_eldest	-10.493
_hit	-10.4937
_hurt	-10.494
_mining	-10.4942
_acquainted	-10.4945
_municipal	-10.4949
_lists	-10.4951
_francs	-10.4966
_arrangements	-10.4969
_lights	-10.4979
_eve	-10.4983
_gallery	-10.4992
ite	-10.501
_declare	-10.5017
_employ	-10.5021
_faint	-10.5021
ling	-10.5021
_ab	-10.5023
_painting	-10.5026
_helped	-10.5026
_frame	-10.5029
_scope	-10.5034
_deputy	-10.5035
_historic	-10.5036
_lately	-10.5036
_theatre	-10.5037
_novel	-10.5038
_dull	-10.5045
_alien	-10.5048
_taylor	-10.505
_apparatus	-10.5051
_sums	-10.5051
_doth	-10.5052
_damage	-10.5055
_damages	-10.5059
_jewish	-10.5059
_dates	-10.506
_burned	-10.5063
_eligible	-10.5064
_devotion	-10.5068
_sustained	-10.5071
_affect	-10.5076
_tide	-10.5077
_petitioners	-10.5084
_superintendent	-10.5091
_worst	-10.5096
_harm	-10.5098
_alice	-10.5109
_bone	-10.5114
_lifted	-10.5115
_regards	-10.5115
_forests	-10.5119
_attempts	-10.5119
_dispute	-10.5123
_asking	-10.5124
age	-10.5125
_numbered	-10.5125
_substances	-10.5127
_pal	-10.5128
_mostly	-10.5129
_humanity	-10.5129
_yesterday	-10.5129
_capture	-10.5139
_supper	-10.5141
_maximum	-10.5141
_types	-10.5148
_item	-10.5148
_signal	-10.515
_breaking	-10.5156
_fatal	-10.5156
_heir	-10.516
_benjamin	-10.5161
_clark	-10.5174
_cease	-10.5182
_adequate	-10.5187
_pulled	-10.5188
_speaks	-10.5189
_discretion	-10.5194
_knife	-10.5195
_gently	-10.5197
_respects	-10.5205
_inclined	-10.5205
_knees	-10.5209
_sixteen	-10.5218
_aim	-10.5221
_deposit	-10.5222
_maid	-10.523
_abuse	-10.5236
_ride	-10.5236
_proceeds	-10.5245
_condemned	-10.525
_sketch	-10.525
_autumn	-10.5251
_albert	-10.5257
_wash	-10.5262
_abbey	-10.5262
_accustomed	-10.5263
_brow	-10.5264
_comparison	-10.5266
w	-10.527
_enterprise	-10.5271
_peerage	-10.5271
_ibid	-10.5274
_iv	-10.5274
_shed	-10.5276
_technology	-10.5278
_conferred	-10.5278
_multitude	-10.5281
_acquaintance	-10.5291
_sooner	-10.5292
_solemn	-10.5293
_selection	-10.5297
_wave	-10.5302
_florence	-10.5302
_asleep	-10.5303
_ruin	-10.5312
_retirement	-10.5312
_assured	-10.5313
_herein	-10.5315
_atmosphere	-10.5322
_cow	-10.5324
_exhibited	-10.533
_resident	-10.5345
_imprisonment	-10.5347
_widely	-10.5348
_taxation	-10.5353
_permission	-10.5355
_ni	-10.5358
_fever	-10.5359
_wherever	-10.5361
_cool	-10.5362
_quantities	-10.5362
_authorize	-10.5364
_organ	-10.5367
_periods	-10.5371
_registration	-10.5372
_license	-10.5373
_utterly	-10.5374
_preface	-10.5375
_wooden	-10.5376
_thompson	-10.538
_privileges	-10.5383
_mounted	-10.5384
_deeds	-10.5387
_tables	-10.5394
_expenditure	-10.5395
_capitol	-10.5403
_phenomena	-10.5405
_painter	-10.5407
_colored	-10.5411
_cabinet	-10.5414
_pupils	-10.5415
_publications	-10.5416
_binding	-10.5419
_marble	-10.5426
_shame	-10.5427
_harbor	-10.5429
_conquest	-10.543
_navigation	-10.5435
_jean	-10.5437
_kansas	-10.5441
_deceased	-10.5442
_satisfactory	-10.5451
_absent	-10.5451
_leaf	-10.5458
_smooth	-10.546
_roots	-10.5462
_romance	-10.5471
_reduction	-10.5476
_meal	-10.5477
_stations	-10.5479
_springs	-10.5481
_eating	-10.5483
_collections	-10.5483
_recognize	-10.5486
_beg	-10.5489
_thinks	-10.549
_eb	-10.5491
ting	-10.5492
_hes	-10.5504
_oak	-10.5505
_geological	-10.5508
_oriental	-10.5509
_exercised	-10.551
_wives	-10.5522
_certificate	-10.5531
_unusual	-10.5538
_clergy	-10.5539
_beloved	-10.5542
_plenty	-10.5542
_comparatively	-10.5544
_utmost	-10.5547
_intent	-10.5547
_meetings	-10.5548
he	-10.555
_qualified	-10.5557
_je	-10.5559
_turns	-10.5561
_consist	-10.5561
_defeat	-10.5568
_approached	-10.5569
_recover	-10.5569
_defeated	-10.5576
_manners	-10.5579
_jacob	-10.5582
_coloured	-10.5586
_homes	-10.5586
_handed	-10.5586
_treasurer	-10.5587
_ge	-10.5594
_romans	-10.5595
_release	-10.5597
_hate	-10.5606
_societies	-10.5607
_siege	-10.5609
_kent	-10.5612
_humble	-10.5616
_indicate	-10.5622
_eighteenth	-10.5624
_trail	-10.5629
_differences	-10.5631
_demands	-10.5631
_simon	-10.5633
_coll	-10.5642
_chin	-10.5643
_sciences	-10.5646
_kitchen	-10.5652
_accused	-10.5654
den	-10.5655
_dealing	-10.5666
_improve	-10.5667
_relevant	-10.5674
ts	-10.5681
_invited	-10.5681
_requirement	-10.5685
_suffrage	-10.5689
un	-10.569
_schedule	-10.5693
_designation	-10.5705
_crimes	-10.5706
_unit	-10.5706
_defend	-10.5712
_padding	-10.5714
_phrase	-10.5714
_modified	-10.5715
_pub	-10.5717
_anger	-10.5717
_vi	-10.572
_miller	-10.5722
_neighbourhood	-10.573
ty	-10.5738
_diseases	-10.5739
_ignorant	-10.5742
_collect	-10.5755
_hunt	-10.5759
_clerks	-10.5759
_fragments	-10.576
_excuse	-10.5761
_cells	-10.577
_gross	-10.5781
_passages	-10.5784
_austria	-10.5788
_adams	-10.5789
_greeks	-10.5791
_gardens	-10.5792
_ri	-10.5793
_torn	-10.5795
_prime	-10.5796
_remote	-10.5801
_grammar	-10.5807
_enabled	-10.5809
_model	-10.5811
_agreements	-10.5817
_deliver	-10.5821
_print	-10.5826
_significant	-10.5831
_feature	-10.5834
_voices	-10.5836
_villages	-10.5837
_horn	-10.584
_writes	-10.5854
_canadian	-10.5854
_furniture	-10.5854
_basin	-10.5855
_sphere	-10.5856
_thereafter	-10.5861
ford	-10.5862
_riding	-10.5864
_processes	-10.5865
_raising	-10.5865
_assessment	-10.5866
_sarah	-10.5868
_app	-10.5875
_cell	-10.5886
_earnest	-10.5887
_wells	-10.5889
_fourteen	-10.5895
_ei	-10.5901
_advantages	-10.5903
_chiefs	-10.5903
_seq	-10.5906
_equivalent	-10.5908
_feed	-10.5909
_threatened	-10.5913
_brings	-10.5915
_undoubtedly	-10.5917
_shade	-10.592
ma	-10.5921
_improved	-10.5922
_scottish	-10.5922
_philosophical	-10.5925
_inspection	-10.5936
_preservation	-10.5938
ca	-10.5938
ant	-10.5939
_describe	-10.5954
ro	-10.5957
_settle	-10.5962
_rarely	-10.5964
_prices	-10.5968
_gay	-10.5969
_angle	-10.5978
_jr	-10.5979
_abraham	-10.5979
_crew	-10.5981
_dawn	-10.5981
_gifts	-10.5985
_pursued	-10.6001
_kindness	-10.6006
_dakota	-10.6008
_competent	-10.6017
_mills	-10.6018
_armies	-10.6018
_flour	-10.6028
_mss	-10.6033
_mayor	-10.6037
_valid	-10.6041
_mc	-10.6043
_omitted	-10.6044
_convinced	-10.6045
_monsieur	-10.6049
_facility	-10.6049
_precisely	-10.605
_practices	-10.6054
_reservation	-10.6056
_cardinal	-10.6065
_match	-10.6066
_amid	-10.6069
_richmond	-10.607
_burn	-10.6077
_producing	-10.6086
_differ	-10.6095
x	-10.6095
_paying	-10.6097
_wasnt	-10.6097
_plainly	-10.6097
_magnificent	-10.6099
_alfred	-10.6104
_arrest	-10.6106
_promote	-10.6107
_proposition	-10.6109
_basic	-10.6113
_streams	-10.6113
_distributed	-10.6114
_beast	-10.6114
_hay	-10.6118
_credited	-10.6119
_continually	-10.6119
ot	-10.612
_spend	-10.6121
_consequences	-10.6123
_properties	-10.6123
_evolution	-10.6127
_fuel	-10.6128
_somewhere	-10.6129
_genuine	-10.6135
_democracy	-10.6139
_revealed	-10.6141
_dependent	-10.6147
_deck	-10.6149
_diameter	-10.6152
ri	-10.6153
_edmund	-10.6154
_listened	-10.6157
il	-10.616
_block	-10.6163
_hollow	-10.617
_naked	-10.6171
_whispered	-10.6173
_flame	-10.6177
ni	-10.6178
and	-10.6178
_liked	-10.618
_vict	-10.6181
_varied	-10.6183
_alaska	-10.6186
_messrs	-10.6188
_odd	-10.6189
_rejected	-10.6195
_linen	-10.6201
_managed	-10.6202
_seas	-10.6204
_prevented	-10.6206
_export	-10.621
_jersey	-10.6214
_admission	-10.6217
_users	-10.6222
_depends	-10.6222
_tenth	-10.6227
_era	-10.623
_theology	-10.6233
_coffee	-10.6236
_assisted	-10.6236
_landed	-10.6244
_ordinance	-10.6244
_leads	-10.6245
_depend	-10.6246
_bark	-10.6254
_operating	-10.6258
_beach	-10.626
_recovery	-10.6261
_confederate	-10.6266
_laughing	-10.6266
_triumph	-10.6271
_musical	-10.629
_discussed	-10.6292
_senses	-10.63
_mexican	-10.6305
_prevention	-10.6308
_fol	-10.631
_sep	-10.6312
_architecture	-10.6312
_experienced	-10.6317
_everyone	-10.6317
_gr	-10.6318
_francisco	-10.6318
_powder	-10.6323
_vertical	-10.6325
_circumstance	-10.6326
_poverty	-10.6328
_descended	-10.6331
_purely	-10.6331
_traffic	-10.6334
_continuing	-10.634
_knights	-10.6341
_resigned	-10.6343
_tract	-10.6346
_congregation	-10.6346
_lakes	-10.6347
_plaintiffs	-10.6358
_bibliography	-10.6361
ina	-10.6363
_crossing	-10.6366
ng	-10.6378
_departed	-10.6382
_eh	-10.639
_ba	-10.639
_titles	-10.6392
_positions	-10.6395
_brigade	-10.6403
_suggest	-10.6403
_instantly	-10.6404
ish	-10.641
_howard	-10.6411
_por	-10.6412
_salary	-10.6416
_lamb	-10.6419
_republican	-10.6419
_govern	-10.642
_salvation	-10.6422
_su	-10.6423
_unfortunate	-10.6424
_perfection	-10.6427
_loves	-10.6428
_sail	-10.6428
_loans	-10.6434
_canon	-10.6434
_diocese	-10.6436
_drinking	-10.6437
_confess	-10.6438
_errors	-10.6439
_warning	-10.644
_items	-10.6442
_harry	-10.6443
_affirmed	-10.6445
_descent	-10.645
_cabin	-10.6453
_bottle	-10.6455
_approaching	-10.6462
_respecting	-10.6464
_weary	-10.6465
_specially	-10.6468
_strictly	-10.6469
_successor	-10.6474
_consisted	-10.6476
ey	-10.6477
_clock	-10.6479
ists	-10.6483
_essay	-10.6493
_territories	-10.6493
_luck	-10.6494
_colonial	-10.6499
_delivery	-10.6502
_baby	-10.6503
_immigration	-10.6505
_sheet	-10.6507
_prose	-10.6508
_oliver	-10.6514
_respondent	-10.6514
_notion	-10.6516
_mistress	-10.6517
_dim	-10.6519
_clothing	-10.652
_rebellion	-10.652
_mu	-10.6522
_fa	-10.6525
_compare	-10.653
_confession	-10.6531
_semi	-10.6531
_beings	-10.6531
_engineer	-10.6531
ge	-10.6533
_sending	-10.6537
field	-10.6538
_mechanical	-10.6546
_temper	-10.6547
_comprehensive	-10.6549
_telegraph	-10.655
_mud	-10.655
_effected	-10.6552
_annum	-10.656
ium	-10.6561
_continuous	-10.6563
_adventures	-10.6563
_collector	-10.6566
ard	-10.6567
_picked	-10.6575
_wa	-10.6581
_doubtful	-10.6585
_louisiana	-10.6588
_speaker	-10.6589
_perceived	-10.6604
_contempt	-10.6611
_track	-10.6612
_lawrence	-10.6617
_resolutions	-10.6619
_dam	-10.6627
_bengal	-10.6638
tis	-10.6641
_warren	-10.6644
_trustees	-10.6648
_loving	-10.6649
_exceedingly	-10.6655
_jim	-10.6656
_awful	-10.6659
_engine	-10.6663
_votes	-10.6664
_canvas	-10.6673
_headed	-10.6676
_rail	-10.6681
_mortal	-10.6682
_estates	-10.6683
_globe	-10.6685
_represents	-10.6687
_calendar	-10.6689
_lover	-10.6695
_refuge	-10.6696
_ruins	-10.6703
_ent	-10.6705
_manual	-10.6707
_trip	-10.6708
_identified	-10.6712
_surrender	-10.6715
_travels	-10.6715
_egg	-10.6721
_manuscript	-10.6723
_tent	-10.6724
_intelligent	-10.6726
_depart	-10.673
ibus	-10.6733
_gordon	-10.6737
_providence	-10.6741
_retreat	-10.6743
_protestant	-10.6749
_slept	-10.6763
_countenance	-10.6764
_palm	-10.6771
well	-10.6773
_landscape	-10.6775
ae	-10.6776
_prize	-10.6777
_succeed	-10.6778
_fer	-10.6779
ally	-10.6787
_suspicion	-10.6792
_overcome	-10.6796
_worlds	-10.6797
_zealand	-10.68
_dan	-10.6801
_boards	-10.6801
_pushed	-10.6806
_location	-10.6808
_liquid	-10.6809
_determining	-10.6809
_matthew	-10.681
_counter	-10.681
_frontier	-10.6818
ner	-10.6822
_stuff	-10.6823
_specimen	-10.6827
_rolled	-10.683
_farmers	-10.6832
_radical	-10.6835
_scenes	-10.6838
_fierce	-10.6843
_response	-10.6844
_surrounding	-10.6845
_vienna	-10.6849
_virtues	-10.685
_maryland	-10.6854
_purple	-10.6855
_background	-10.6855
_ser	-10.6861
_mineral	-10.6866
_values	-10.6868
_mysterious	-10.6869
_fishing	-10.687
ah	-10.6878
_russell	-10.6878
_brass	-10.6879
_induced	-10.6881
_pound	-10.6884
_industries	-10.6884
ate	-10.6886
_passions	-10.6887
_victoria	-10.6888
nes	-10.6893
fe	-10.6894
_wilderness	-10.6895
_tied	-10.6903
_aforesaid	-10.6907
_justify	-10.6909
_walker	-10.6909
_accord	-10.6912
_procedures	-10.6917
ft	-10.6922
_communities	-10.6936
_vested	-10.6938
_convenient	-10.6938
_mem	-10.6941
_thereon	-10.6944
_reduce	-10.6945
_suffolk	-10.6947
_rowspan	-10.6947
_farmer	-10.6948
_identical	-10.695
_ralph	-10.6953
_detailed	-10.6954
_exclusively	-10.6963
_hen	-10.6965
_westminster	-10.6965
_charming	-10.6966
_noon	-10.6968
_dwell	-10.6973
_kiss	-10.6977
_faculty	-10.6982
_strain	-10.6983
_stretched	-10.6984
_useless	-10.6989
da	-10.6992
_hanging	-10.6993
_hundreds	-10.6994
_equity	-10.6994
_nearest	-10.6995
_allied	-10.6999
_statutory	-10.7
_interrupted	-10.7001
_tube	-10.7006
_lighted	-10.7017
_representing	-10.7019
_pronounced	-10.7019
_adoption	-10.7024
_zeal	-10.7032
_stairs	-10.7032
_centum	-10.7034
_swept	-10.7035
_hal	-10.7039
_poison	-10.7044
_missionary	-10.7047
_slain	-10.7051
_declined	-10.7051
_competition	-10.7054
_supplement	-10.7054
_driving	-10.7058
les	-10.7062
_voluntary	-10.7064
_eager	-10.7067
_plane	-10.7067
_shining	-10.7071
_herbert	-10.7079
ous	-10.708
_contribution	-10.7082
_bronze	-10.7084
_admiration	-10.7099
_heirs	-10.71
_firmly	-10.7101
_nervous	-10.7101
_tu	-10.7102
_australian	-10.7103
_doesnt	-10.7117
_prosperity	-10.7117
_pursuit	-10.7118
_communications	-10.7121
_medium	-10.7121
_faced	-10.7127
_ly	-10.7133
_michigan	-10.7135
_whereby	-10.7137
_beard	-10.714
_sang	-10.7147
be	-10.715
_alas	-10.7151
_rope	-10.7158
_editions	-10.7165
_sentiment	-10.7171
_cure	-10.7172
_seriously	-10.7173
_ber	-10.7176
_rocky	-10.7177
_returns	-10.7182
_strict	-10.7185
_territorial	-10.7189
_cheese	-10.7189
_spare	-10.7192
_mycenian	-10.7194
_distinctly	-10.7196
_maybe	-10.7202
_lawful	-10.7202
_despair	-10.7204
_thirteen	-10.7211
_ceremony	-10.7212
_gregory	-10.7214
_stern	-10.7217
_solely	-10.7217
_retain	-10.7219
_lad	-10.722
_para	-10.7222
_references	-10.7222
_surgeon	-10.7227
_desires	-10.7236
_ports	-10.7237
_attributed	-10.7238
_zone	-10.7239
_obtaining	-10.7242
_incurred	-10.7254
_scholar	-10.7259
_harmony	-10.726
_cultivated	-10.7267
_valued	-10.7269
_bench	-10.7279
_feared	-10.7285
_um	-10.7287
_anxiety	-10.7296
_jehovah	-10.7296
_ee	-10.7299
_smiling	-10.7305
_manifest	-10.7306
ee	-10.7307
_attracted	-10.731
_egyptian	-10.7311
_discipline	-10.7312
_deposited	-10.7313
_parker	-10.7317
_conclude	-10.7323
_promoted	-10.7326
_shaped	-10.7326
_somehow	-10.7328
_breadth	-10.7329
_guarantee	-10.7331
_colours	-10.734
_shoes	-10.734
_deposits	-10.7341
_rector	-10.7341
_imported	-10.7342
_import	-10.7355
_annually	-10.7361
_hang	-10.7367
_vital	-10.7373
_marched	-10.738
ted	-10.7383
_contrast	-10.7393
_horror	-10.7395
_drama	-10.7396
_distress	-10.7397
_patience	-10.7399
_adopt	-10.7399
_sar	-10.74
_expressly	-10.7401
_rational	-10.7402
_weakness	-10.7403
_stronger	-10.7406
_preparing	-10.7411
_discharged	-10.7414
_stewart	-10.7417
_sprang	-10.7418
_volunteers	-10.7418
_insisted	-10.7419
_ram	-10.7419
_countess	-10.7424
_ob	-10.7427
_starting	-10.7427
_void	-10.7431
_ga	-10.7438
_reception	-10.7445
_thrust	-10.7445
_ka	-10.7454
_bosom	-10.7459
_fitted	-10.746
_charm	-10.7462
_beasts	-10.7463
_card	-10.7467
_attacks	-10.7473
_wrought	-10.7478
_fourteenth	-10.7482
_illness	-10.7483
_investigations	-10.7484
_rush	-10.749
_conveyed	-10.7494
_adapted	-10.7497
_display	-10.75
ke	-10.7505
_lib	-10.7506
_designate	-10.7507
_repairs	-10.7508
_sorts	-10.7514
_ceremonies	-10.7515
_justified	-10.7516
_allen	-10.7516
_formal	-10.752
_curiosity	-10.7521
_corporations	-10.7522
_wanting	-10.7522
_passenger	-10.7524
_chambers	-10.7525
_preferred	-10.7527
_vicinity	-10.7533
_intervals	-10.7534
_shillings	-10.7539
_separation	-10.7539
_keen	-10.7541
_arguments	-10.7542
_unlawful	-10.7543
_significance	-10.7545
_chancellor	-10.7549
_establishing	-10.7551
_merits	-10.7555
_lucy	-10.7557
_trinity	-10.7558
_neglect	-10.7559
_rays	-10.7559
_trustee	-10.7562
_guards	-10.7563
_concealed	-10.7567
_vehicles	-10.7579
_allies	-10.758
_lease	-10.758
_midnight	-10.7583
_despite	-10.7583
_bless	-10.7584
_foregoing	-10.7589
_ro	-10.7592
_motive	-10.7593
_exceptions	-10.7605
_changing	-10.7605
_sees	-10.7606
_followers	-10.7609
_hurried	-10.7611
_intimate	-10.7613
_whats	-10.7615
_merchants	-10.7616
_bid	-10.7618
_chose	-10.7623
_inquired	-10.7623
ve	-10.7629
ur	-10.763
_username	-10.7638
_inconvenience	-10.7642
_debtor	-10.7643
_grows	-10.7646
_artificial	-10.7647
_distinguish	-10.7648
_gets	-10.7648
_realized	-10.765
_theological	-10.7654
_dreadful	-10.7655
_resting	-10.7656
_opportunities	-10.7657
_boundaries	-10.7657
_infant	-10.7658
_engineers	-10.7659
_estimate	-10.7662
_sailed	-10.7668
_roger	-10.7669
_victim	-10.7674
_anybody	-10.7675
_lu	-10.7678
_intellect	-10.7686
_santa	-10.7686
_pull	-10.769
_construed	-10.7696
_asserted	-10.7698
_commonwealth	-10.7699
_stores	-10.77
_cornwall	-10.7701
_illustration	-10.7705
_ridge	-10.7707
_magic	-10.7711
_facing	-10.7715
_urban	-10.7727
_funeral	-10.773
_han	-10.7735
_allowance	-10.7736
_fiction	-10.7737
ci	-10.774
_sheriff	-10.7744
_legend	-10.7744
_sorrell	-10.7752
_wright	-10.7762
_statue	-10.7769
_acknowledged	-10.7774
_regret	-10.7775
_novels	-10.7781
_highway	-10.7784
_characteristics	-10.7785
_rude	-10.7787
_favourite	-10.7788
_contemporary	-10.7795
_occupy	-10.7797
_schal	-10.7801
_minimum	-10.7801
_ruth	-10.7802
_agreeable	-10.7803
_nat	-10.7804
_consul	-10.7804
_constituted	-10.7809
_gaze	-10.7815
_treasure	-10.7823
_encourage	-10.7826
_operate	-10.7828
_wiki	-10.7829
_sleeping	-10.783
_chase	-10.7831
_payable	-10.7832
_theyre	-10.7834
_fl	-10.7835
_laughter	-10.784
_recommended	-10.7842
_apostle	-10.7844
_senior	-10.7851
_afforded	-10.7853
_impulse	-10.7857
_baltimore	-10.7858
_desirable	-10.7858
_stepped	-10.7859
_considerably	-10.7865
_shelter	-10.7868
_alarm	-10.787
_mixture	-10.787
_blame	-10.7871
_leather	-10.7872
_pains	-10.7872
_dwelling	-10.7875
_enthusiasm	-10.7878
_classification	-10.7883
_gather	-10.7885
_ur	-10.7891
_etymological	-10.7897
_hire	-10.7899
_husbands	-10.7901
_forgive	-10.7905
_accurate	-10.7906
_prosecution	-10.7908
_deprived	-10.7912
_dissent	-10.7916
_organs	-10.7921
_nicene	-10.7924
_mate	-10.7925
_carl	-10.7925
_campbell	-10.7925
_continues	-10.7925
ized	-10.7927
_ay	-10.7931
_conceived	-10.7933
_premises	-10.7934
_minority	-10.7936
_inspired	-10.7937
_satisfy	-10.7937
don	-10.7939
_disciples	-10.7941
_fired	-10.7942
_hymns	-10.7945
_napoleon	-10.7946
_associations	-10.796
_garrison	-10.7962
_emily	-10.7964
_alle	-10.797
_landing	-10.7974
lin	-10.7977
_imports	-10.7991
_prophets	-10.7992
_rod	-10.8001
ir	-10.8002
_appoint	-10.8002
ga	-10.8009
_germans	-10.801
_generations	-10.8011
_doctrines	-10.8018
_conservation	-10.8019
_uncertain	-10.8022
_minnesota	-10.8025
_happens	-10.803
_arc	-10.803
_commencement	-10.8032
_descriptive	-10.8038
_cl	-10.8045
no	-10.8046
_compliance	-10.8051
_frightened	-10.8052
ler	-10.8053
_axis	-10.8058
_raw	-10.806
_steady	-10.8061
ata	-10.8063
_implementation	-10.8064
_poured	-10.8065
_attendance	-10.8071
_limbs	-10.8076
_commit	-10.8077
_marie	-10.8081
_arrested	-10.8082
_images	-10.8086
_generous	-10.8087
_presidential	-10.8092
_victims	-10.8093
_exhausted	-10.8097
_reversed	-10.81
_circular	-10.8103
_lofty	-10.8104
_paradise	-10.8104
_venture	-10.8104
_rushed	-10.8108
_forever	-10.8109
_misery	-10.811
_pupil	-10.8112
_particulars	-10.8112
_vs	-10.8113
_governed	-10.8115
_moderate	-10.8115
_cash	-10.8116
_controlled	-10.8117
_refers	-10.8118
_repeal	-10.8121
_marshall	-10.8121
_insects	-10.8126
_gathering	-10.8127
_isaac	-10.8128
_connexion	-10.8129
_altered	-10.8133
_occasional	-10.8136
_queens	-10.8138
_relieved	-10.8139
_stared	-10.8142
_summary	-10.8156
_kyng	-10.816
_acquire	-10.8163
_manchester	-10.8163
_memories	-10.8163
_columns	-10.8168
_founder	-10.817
_profits	-10.8174
_rage	-10.8175
_lesson	-10.8178
_dean	-10.8181
_provincial	-10.8183
im	-10.819
_heading	-10.819
_ol	-10.8197
_twelfth	-10.8201
_ambassador	-10.8203
_findings	-10.8204
_monday	-10.8208
_inspector	-10.8209
_maps	-10.8211
_lock	-10.8216
_laying	-10.8223
_suspended	-10.8223
_saturday	-10.8228
_complex	-10.8239
_hostile	-10.8241
_brick	-10.8243
_ranks	-10.8251
_blessing	-10.8258
_strangers	-10.8261
_holes	-10.8261
_saviour	-10.8261
_chang	-10.8265
_abundance	-10.8267
_forehead	-10.8268
_employer	-10.8271
_consult	-10.8276
_utter	-10.8277
_rival	-10.8279
_touching	-10.8282
_merry	-10.8282
_injured	-10.8283
_portland	-10.8283
_delightful	-10.8286
_kentucky	-10.8287
_wm	-10.8289
_practised	-10.8289
_resulting	-10.829
_repeat	-10.8292
_anthony	-10.8294
_rid	-10.8295
_dried	-10.8295
_scholars	-10.8299
_via	-10.8299
_receipt	-10.8301
_sets	-10.8304
_pick	-10.8305
_obey	-10.8307
_disposal	-10.8314
_voting	-10.8315
_intense	-10.8316
_resulted	-10.8323
_painful	-10.8329
_hut	-10.8337
_seventeen	-10.834
_ut	-10.8346
_alabama	-10.8347
_elementary	-10.8347
_indiana	-10.835
_persian	-10.8352
_symbol	-10.8353
_fome	-10.8354
_fe	-10.8355
_foolish	-10.8357
_interview	-10.8364
_converted	-10.8369
_mac	-10.8374
_obedience	-10.8374
_identity	-10.8374
ha	-10.8379
_dancing	-10.8388
_incorporated	-10.8388
_finance	-10.839
_regularly	-10.8398
_cottage	-10.8399
_paused	-10.8399
_ments	-10.8401
_stomach	-10.8402
_prohibition	-10.8404
_antiquity	-10.8408
_applies	-10.8408
_proposal	-10.8415
_ham	-10.8418
_xx	-10.8419
_possessions	-10.8419
_traces	-10.842
_flexible	-10.8421
_pit	-10.8426
wood	-10.8428
_extends	-10.8436
_missions	-10.8438
_catholics	-10.8439
_instinct	-10.8442
_feathers	-10.8443
_leo	-10.8449
_md	-10.8449
_alliance	-10.8449
_mortgage	-10.8451
_bride	-10.8451
_displayed	-10.8453
_eaten	-10.8453
_forgot	-10.8456
_machines	-10.8457
_tribute	-10.8459
_inscription	-10.8461
_travelling	-10.8462
_chester	-10.8462
sa	-10.8463
ent	-10.8465
_intercourse	-10.8468
_released	-10.8468
_havent	-10.847
_researches	-10.8474
_pause	-10.8475
_preliminary	-10.8475
_profound	-10.8483
_summit	-10.8484
_ju	-10.8484
_completion	-10.8488
_oi	-10.8489
_dramatic	-10.849
ka	-10.849
_ultimate	-10.8492
_bankruptcy	-10.8495
_rested	-10.8495
_decline	-10.8499
_anglo	-10.8501
_jonathan	-10.8502
_parent	-10.8503
_appellant	-10.8504
_scripture	-10.8511
_granite	-10.8511
_maine	-10.8512
ad	-10.8512
_ferdinand	-10.8515
_aircraft	-10.8516
_washed	-10.8524
_safely	-10.8525
_mis	-10.8525
_discourse	-10.8526
_baptism	-10.8528
_cultivation	-10.8529
_proclaim	-10.8529
_elections	-10.8533
_obviously	-10.8534
_mistaken	-10.8535
_rises	-10.8536
_lonely	-10.8537
_dismissed	-10.8538
_considerations	-10.854
_sung	-10.8541
_wisconsin	-10.8543
_wearing	-10.8543
_goodness	-10.8544
_bur	-10.8547
_statistics	-10.855
_occurrence	-10.8551
_commanding	-10.8556
_gratitude	-10.8556
_ordained	-10.8557
_registered	-10.8558
_cum	-10.8562
_shakespeare	-10.8564
_elevation	-10.8572
_delighted	-10.8575
_describes	-10.8576
_receives	-10.8582
_marquis	-10.8584
_summoned	-10.8585
_burial	-10.8593
_punished	-10.8594
_finest	-10.8594
_mont	-10.8597
_classical	-10.8598
_recall	-10.8598
mi	-10.8599
_alter	-10.8602
_latest	-10.8605
_rio	-10.8607
_las	-10.8608
_ray	-10.8613
_certainty	-10.8615
_revolutionary	-10.8618
_upwards	-10.8622
_kissed	-10.8623
res	-10.8623
_saxon	-10.8624
_newly	-10.8628
_pending	-10.8633
_trunk	-10.8634
_ultimately	-10.8635
_grateful	-10.8636
_exempt	-10.8639
_advised	-10.8642
_wilt	-10.8646
_somebody	-10.8649
_trained	-10.865
_essex	-10.8652
_divide	-10.8657
_policies	-10.8666
_heavenly	-10.867
_determines	-10.8673
_shores	-10.8673
_softly	-10.8676
_deer	-10.869
_comfortable	-10.8695
_monuments	-10.8697
_successive	-10.8698
_miserable	-10.8701
_resumed	-10.8703
_seide	-10.8707
_prohibited	-10.8709
_grandfather	-10.871
_unhappy	-10.8714
_outlays	-10.8716
_debts	-10.8719
_conclusions	-10.8721
_engraved	-10.8729
_sits	-10.873
_admirable	-10.8735
_assure	-10.8737
_manager	-10.8739
_historian	-10.8746
_guests	-10.8748
_tennessee	-10.8749
_portuguese	-10.8749
_convey	-10.8758
_deeper	-10.8759
_adjustment	-10.8759
_reasoning	-10.8759
_enjoyment	-10.876
_dealt	-10.8762
_concerns	-10.8765
_lessons	-10.8772
_valleys	-10.8776
_hides	-10.8779
_rolls	-10.8782
_audience	-10.8787
_chest	-10.879
_worcester	-10.8791
_adds	-10.8792
_plea	-10.8793
_catherine	-10.8794
_fraud	-10.8804
_tre	-10.8805
_libraries	-10.8812
_porter	-10.8814
_domain	-10.8816
ans	-10.8818
_pas	-10.8819
_equality	-10.8821
_termination	-10.8822
_succeeding	-10.8824
_saving	-10.8824
_protest	-10.8833
_successfully	-10.8834
_liquor	-10.8835
_irregular	-10.8836
_pop	-10.884
_demonstration	-10.8843
_healthy	-10.8845
_penalties	-10.8847
_lecture	-10.885
_ambition	-10.885
_essence	-10.885
_reflection	-10.885
fi	-10.8851
_reflected	-10.8858
_tend	-10.8861
_sermon	-10.8865
_cleared	-10.8866
_prey	-10.8868
_hid	-10.8869
_dominion	-10.8872
do	-10.8875
_petty	-10.8876
_unlike	-10.8879
_lodge	-10.8879
_privy	-10.8882
_specifically	-10.8883
_promptly	-10.8884
_compact	-10.8885
_neglected	-10.8887
_requiring	-10.8889
_placing	-10.889
_manufacturing	-10.8896
_investigate	-10.8898
_rests	-10.8903
_outward	-10.8904
_exhibition	-10.8908
_carrier	-10.8909
_suspected	-10.8913
_handle	-10.8914
_hunger	-10.8918
_adventure	-10.8919
ld	-10.8922
_advocate	-10.8923
_headquarters	-10.8924
_idle	-10.8926
_apt	-10.8927
au	-10.8933
_perceive	-10.8937
_baker	-10.8939
_cu	-10.8941
_steep	-10.8943
_graves	-10.8945
_honey	-10.8947
_enlarged	-10.8954
_breeding	-10.8956
_ko	-10.8957
_conspicuous	-10.8957
_arrive	-10.8963
_validity	-10.8967
_bacon	-10.8973
_carbon	-10.8973
_wondered	-10.8974
_artists	-10.8974
_charlotte	-10.8974
_indies	-10.8978
_unnecessary	-10.8981
_environment	-10.8983
_vague	-10.8984
_grove	-10.8985
_pursue	-10.8987
_poetical	-10.8987
_sank	-10.8988
_louise	-10.8993
_someone	-10.9
_ashamed	-10.9003
_hunter	-10.9008
_artistic	-10.9009
_combat	-10.9017
_factor	-10.9019
_dost	-10.902
_exports	-10.9021
_essentially	-10.9026
_vehicle	-10.9028
_weapon	-10.9028
_covenant	-10.903
_hampshire	-10.9031
_sociology	-10.9031
_parliamentary	-10.9032
_franklin	-10.9035
_pattern	-10.9036
_shells	-10.904
_listening	-10.9047
ez	-10.9048
_attorneys	-10.9052
_negative	-10.9053
_anywhere	-10.9054
_tour	-10.9056
_steamer	-10.9056
_circulation	-10.906
_missing	-10.9064
_nurse	-10.9064
_ruled	-10.9064
_inform	-10.9064
_matt	-10.9072
_beaten	-10.9073
_seeds	-10.9073
_consumption	-10.9074
ea	-10.9078
_trembling	-10.9078
_foster	-10.9079
_shadows	-10.9082
_wherefore	-10.9083
_renewed	-10.9084
ya	-10.9086
_restore	-10.9087
_flew	-10.9089
_continental	-10.909
_challenge	-10.9091
_wheels	-10.9096
if	-10.9101
_athens	-10.9102
_possesses	-10.9103
_ownership	-10.9103
_bo	-10.9114
_latitude	-10.9115
_wolf	-10.9115
_phil	-10.9115
_weekly	-10.9116
_prejudice	-10.9117
_forbidden	-10.9117
_entity	-10.9118
ide	-10.912
_comm	-10.9121
_khan	-10.9123
_whatsoever	-10.9125
_farewell	-10.9125
_tear	-10.9125
_avenue	-10.9129
_plus	-10.913
_heavily	-10.9132
_slender	-10.9133
_similarly	-10.9139
_clever	-10.914
_deserted	-10.9141
_fu	-10.9144
_melancholy	-10.9146
_subjected	-10.9148
_invasion	-10.9151
_engage	-10.9153
_aggregate	-10.9153
_orleans	-10.9153
_arctic	-10.9155
_pink	-10.916
_luke	-10.916
_varieties	-10.9161
_stages	-10.9162
_comment	-10.9162
_erect	-10.9169
_resist	-10.9173
_horizon	-10.9173
_throwing	-10.9177
_temples	-10.9188
_ox	-10.919
_honourable	-10.9192
_principally	-10.9194
_gilbert	-10.9199
ls	-10.9199
_ford	-10.9203
_units	-10.9205
_harbour	-10.9206
_platform	-10.9209
_offense	-10.921
_doctors	-10.921
_dread	-10.9211
_thunder	-10.9218
_traced	-10.9221
_assumption	-10.9224
_battery	-10.9227
_crowded	-10.9228
_ample	-10.923
_traditions	-10.9233
_reed	-10.9234
_tie	-10.9239
_collar	-10.9246
_encouraged	-10.9247
_contest	-10.9249
_lift	-10.9249
_tragedy	-10.9263
_probability	-10.9263
_offers	-10.9275
_conveyance	-10.9275
_ukraine	-10.9277
ive	-10.928
nd	-10.9282
_proclaimed	-10.9297
_helen	-10.93
_layout	-10.93
_applications	-10.9302
_posts	-10.9318
_deficiency	-10.9321
_outline	-10.9323
_shouted	-10.9324
_hurry	-10.9325
_jo	-10.9326
_discrimination	-10.9329
_engineering	-10.9334
_relationship	-10.9335
_partial	-10.9343
_participation	-10.9343
_practicable	-10.9343
_sensible	-10.9343
_saddle	-10.9345
_ascertained	-10.9348
_peaceful	-10.9355
_seventeenth	-10.9367
_enforce	-10.9367
_fortunate	-10.937
_folly	-10.937
_viscount	-10.9372
_discoveries	-10.9374
_calculated	-10.9374
_spaniards	-10.9375
rum	-10.9375
_grade	-10.9375
_vigorous	-10.9377
_prescribe	-10.9381
_cheek	-10.9382
_interfere	-10.9384
_measured	-10.9393
_expansion	-10.9395
_meantime	-10.9396
_thorough	-10.9406
_undertake	-10.9407
_butler	-10.9411
_coin	-10.9412
_fears	-10.9427
_horrible	-10.9432
_til	-10.9434
_portraits	-10.9435
_fence	-10.9437
_roy	-10.9442
_withdrawn	-10.9445
_connecticut	-10.9447
_vicar	-10.9451
_periodicals	-10.9459
_childhood	-10.9461
_planted	-10.9465
_alternative	-10.9465
_troubled	-10.9468
_sailors	-10.947
_ry	-10.9472
_hatred	-10.9478
_slightest	-10.9478
_promotion	-10.9483
_guidance	-10.9485
_wrath	-10.9485
_eventually	-10.9485
_meadow	-10.9491
_oldest	-10.9496
_governing	-10.9498
_arizona	-10.95
ys	-10.9501
_fuller	-10.9502
_mor	-10.9502
_excluded	-10.9503
_fires	-10.9507
_uttered	-10.9512
_link	-10.9514
_hudson	-10.9514
_candidate	-10.9515
_sacrifices	-10.9519
_haste	-10.9521
_jpg	-10.9523
_christopher	-10.9524
_bade	-10.9524
_ashes	-10.9524
_craft	-10.9525
_procured	-10.9527
_restrictions	-10.953
_wretched	-10.9535
_severely	-10.9536
_sensation	-10.9537
_smell	-10.954
_obscure	-10.9541
_factory	-10.9542
_endure	-10.9544
_judgments	-10.9547
_ancestors	-10.9551
_interval	-10.9552
_organic	-10.9566
_elaborate	-10.9566
_nephew	-10.9567
_cheeks	-10.9569
_recognised	-10.957
_lowest	-10.9571
_geographical	-10.9572
_stir	-10.9573
_verdict	-10.9574
_ruisdael	-10.9575
_cream	-10.9581
_factors	-10.9588
_slope	-10.9596
_settlers	-10.9597
_marsh	-10.9599
_nests	-10.96
_sport	-10.9601
ens	-10.9602
_dish	-10.9607
_veins	-10.9614
_heights	-10.9615
_bands	-10.962
_belt	-10.962
_device	-10.962
_fountain	-10.9622
_convicted	-10.9622
_ant	-10.9624
_desperate	-10.9625
_dared	-10.9626
_nelson	-10.9628
_closing	-10.9628
_cock	-10.9632
_super	-10.9632
_dau	-10.9634
_developing	-10.9635
_engagement	-10.9635
_shake	-10.9636
ins	-10.9638
_negotiations	-10.9641
_negroes	-10.9641
_assurance	-10.9643
_cars	-10.9643
_tariff	-10.965
_conversion	-10.965
ities	-10.9658
_nineteenth	-10.966
_additions	-10.9666
_acceptance	-10.9667
_thefe	-10.9669
_killing	-10.9671
_thi	-10.9671
que	-10.9671
_prefer	-10.9675
_seats	-10.9676
_prospect	-10.9676
_persuaded	-10.9677
_levels	-10.9681
_boots	-10.9686
_newton	-10.9687
_tropical	-10.9689
_ascertain	-10.969
_disturbed	-10.9691
_absurd	-10.9692
_lawyers	-10.9692
_varying	-10.9692
_perpetual	-10.9695
_caesar	-10.9695
_undertaken	-10.97
_award	-10.9702
_crying	-10.9702
_inheritance	-10.9704
_slipped	-10.9704
_vanity	-10.9706
_imagined	-10.9706
_chapters	-10.9707
_lieut	-10.9708
_nom	-10.971
_lime	-10.9713
_conceive	-10.9715
rich	-10.9716
_games	-10.9717
_investment	-10.9727
_flung	-10.9728
_efficient	-10.9732
_finish	-10.9733
_enlisted	-10.9751
_pilot	-10.9754
_brush	-10.9755
ac	-10.9759
_postal	-10.9762
_maritime	-10.9765
_crop	-10.9769
_associate	-10.977
_sergeant	-10.9772
_ix	-10.9773
_scarce	-10.9779
_operated	-10.9787
_madras	-10.9789
_rogers	-10.979
_glanced	-10.9792
_potential	-10.9793
_breach	-10.9794
_isle	-10.9794
_nerves	-10.9794
_speeches	-10.9796
_entries	-10.9796
_sq	-10.98
_chronicle	-10.9801
_jefferson	-10.9811
_blank	-10.9814
_enters	-10.9815
_gallant	-10.9824
_feeble	-10.9824
_plot	-10.9825
_sigh	-10.9827
_ci	-10.983
_propose	-10.9832
_shared	-10.9832
_peasant	-10.9835
_brook	-10.9838
_cam	-10.9841
_spake	-10.9842
_bells	-10.9844
_bowed	-10.9845
_abstract	-10.9847
_cows	-10.9848
_owe	-10.9848
_quarrel	-10.985
_chemistry	-10.985
_securing	-10.9851
_hare	-10.9857
_assault	-10.9858
_modification	-10.9859
_conquered	-10.986
_awake	-10.9863
_inland	-10.9865
_ger	-10.9866
_communion	-10.9866
_monks	-10.9866
_treaties	-10.9867
_begged	-10.9874
_troubles	-10.9874
_thread	-10.9876
_vegetable	-10.9882
_consultation	-10.9883
_instructed	-10.9884
_eagle	-10.9885
_passengers	-10.9885
_bob	-10.989
_traveling	-10.9893
_comparative	-10.9894
_sone	-10.9899
_morality	-10.9899
_involving	-10.99
_rendering	-10.9902
_drunk	-10.9903
_harvest	-10.9906
_designs	-10.9909
_repealed	-10.991
_crops	-10.991
_suits	-10.9911
_extinct	-10.9912
_io	-10.9913
_lots	-10.9919
_comply	-10.9919
_refusal	-10.992
_guest	-10.9922
_anderson	-10.9925
_roberts	-10.9925
_colleges	-10.9933
_answers	-10.9935
_sketches	-10.9942
_monastery	-10.9944
_adjoining	-10.9944
_score	-10.9954
_grandson	-10.9955
_township	-10.9955
_pet	-10.9955
_botany	-10.996
_ash	-10.9963
_closer	-10.9966
_tiny	-10.9968
_philosopher	-10.9968
_pe	-10.9969
_straw	-10.9969
_personally	-10.9971
_opera	-10.9973
_substantially	-10.9973
_morris	-10.9975
_queer	-10.9975
_sentiments	-10.9981
pa	-10.9984
_curse	-10.9989
_om	-10.9989
_affecting	-10.9991
_revision	-10.9993
_abbot	-10.9995
_acre	-10.9999
_keeper	-11.0007
_contingent	-11.0008
_emotion	-11.0009
_potter	-11.001
_contracting	-11.001
_notices	-11.0011
_realize	-11.0012
_travellers	-11.0013
ji	-11.0018
_paragraphs	-11.0026
_dans	-11.0028
_ruined	-11.0029
_theories	-11.0031
her	-11.0032
_whoever	-11.0036
_manuscripts	-11.0039
_battles	-11.004
_initial	-11.0053
_fitting	-11.0054
_friedrich	-11.0054
_eng	-11.0054
_destined	-11.0055
_hospitals	-11.0059
_sunk	-11.0059
tion	-11.006
_lets	-11.0061
_av	-11.0061
_oo	-11.0063
_reasonably	-11.0063
_stayed	-11.0064
_preached	-11.0066
_patron	-11.0067
_harris	-11.0068
_bridges	-11.0069
_simplicity	-11.007
_crisis	-11.007
ated	-11.0072
_gazed	-11.0077
_preparations	-11.0078
_ours	-11.0078
_faculties	-11.0078
_symptoms	-11.0079
ue	-11.0081
_comp	-11.0083
_pin	-11.0083
_minded	-11.0084
_civilized	-11.0088
_counted	-11.0089
_prevailed	-11.0089
_knee	-11.0093
_reg	-11.0095
_secondly	-11.0097
_legitimate	-11.0099
_glasgow	-11.0102
_embrace	-11.0104
_shock	-11.0104
_clergyman	-11.0105
_proc	-11.011
_png	-11.0114
_cir	-11.0114
_role	-11.0118
_maiden	-11.0125
_attending	-11.0126
_steadily	-11.0126
_restricted	-11.0127
_murmured	-11.0128
_traveller	-11.0128
_tasks	-11.0134
_victor	-11.0138
_swear	-11.014
_peasants	-11.0141
_submission	-11.0144
_objections	-11.0146
_harrison	-11.0147
_anatomy	-11.015
_revelation	-11.0152
_eagerly	-11.0154
_liaison	-11.0158
_manage	-11.0166
_replaced	-11.0169
_mag	-11.0169
_pious	-11.0174
_sensitive	-11.0181
_heretofore	-11.0182
_mediterranean	-11.0182
_membership	-11.0184
_candle	-11.0185
_conn	-11.019
ful	-11.0192
_svo	-11.0195
_cards	-11.0199
_crowned	-11.0202
_recommendations	-11.0205
_approximately	-11.0207
_bat	-11.0209
_woe	-11.0209
_attain	-11.021
_murray	-11.0218
_tl	-11.0222
_rolling	-11.0236
_implements	-11.0241
_norman	-11.0253
_mt	-11.0257
_solomon	-11.026
_ja	-11.026
_rifle	-11.0268
_giant	-11.0268
_iroquois	-11.0271
pe	-11.0275
_shield	-11.0278
_dwelt	-11.0278
_administered	-11.0281
_realm	-11.0283
_maintaining	-11.0283
_immortal	-11.0286
_manufactures	-11.0289
ten	-11.0289
_inserted	-11.029
_publishing	-11.029
_dollar	-11.0295
_kit	-11.0295
_impressions	-11.0299
_welsh	-11.0303
_shone	-11.0311
_lent	-11.0312
_locality	-11.0314
_trump	-11.0314
_unconscious	-11.0315
_threat	-11.0317
_produces	-11.0318
_sickness	-11.0327
_believing	-11.0327
_thereupon	-11.0337
_flash	-11.0337
all	-11.0337
_mirror	-11.0342
_publicly	-11.0344
_duration	-11.0345
_af	-11.0345
_cries	-11.0347
_adult	-11.0348
_excessive	-11.035
_dangers	-11.035
_fn	-11.0363
_marshal	-11.0363
_lovers	-11.0363
_descendants	-11.0368
_hungry	-11.0369
_objective	-11.0369
_revenues	-11.037
_episcopal	-11.0372
_circles	-11.0373
_hippolytus	-11.0376
_mysteries	-11.0376
_argued	-11.038
ol	-11.0382
_civilian	-11.0383
_slip	-11.0392
_snake	-11.0393
_logic	-11.0398
_universities	-11.0401
_lin	-11.0402
_sultan	-11.0405
_achieved	-11.0406
_wandering	-11.0406
_extract	-11.0408
_byron	-11.0412
_identify	-11.0413
_prayed	-11.0413
_load	-11.0416
_garments	-11.0419
_paint	-11.0419
_excellence	-11.0421
_motives	-11.0421
_stiff	-11.0421
_lb	-11.0422
_procurement	-11.0427
_ya	-11.0433
_custody	-11.0434
_inevitable	-11.0434
ria	-11.0437
_ruling	-11.0437
_constantinople	-11.0442
_certified	-11.0442
_shoot	-11.0446
ical	-11.0449
_nationality	-11.0451
_wounds	-11.0454
_pile	-11.0454
_robinson	-11.0454
_exhibit	-11.0457
_www	-11.0459
_diet	-11.0465
der	-11.0467
_syllabus	-11.0467
_bart	-11.0467
_resort	-11.047
_corruption	-11.0471
_holmes	-11.0471
_relate	-11.0476
_badly	-11.0478
_sheets	-11.048
_fails	-11.0481
_acknowledge	-11.0482
_thickness	-11.0483
_confused	-11.0489
_seasons	-11.0489
_bend	-11.049
_thither	-11.0491
_guilt	-11.0492
_notable	-11.0495
_preference	-11.0495
_revenge	-11.0498
_nodded	-11.05
_goal	-11.05
_accompanying	-11.0504
_lace	-11.0504
_separately	-11.0505
_justly	-11.0506
_dimensions	-11.0511
_monk	-11.0514
_confirmation	-11.0517
_embraced	-11.0522
_reporter	-11.0529
_stem	-11.0529
_arises	-11.0532
_wagon	-11.0532
_ful	-11.0541
_arab	-11.0543
_kin	-11.0548
_theodore	-11.0555
_warriors	-11.0555
_interference	-11.0558
_compiled	-11.0558
_planning	-11.0559
_expenditures	-11.056
led	-11.0562
_expert	-11.0562
_edits	-11.0564
ana	-11.0567
_veil	-11.0572
_flowing	-11.0583
_blake	-11.0594
_angles	-11.0596
_shaft	-11.0597
_inquire	-11.0597
_fastened	-11.0601
_heroes	-11.0604
_scriptures	-11.0606
_arabic	-11.061
_stuart	-11.0612
_motions	-11.0613
_pointing	-11.0614
_laboratory	-11.0617
_favourable	-11.0618
_grasp	-11.0621
_humour	-11.0622
_receipts	-11.0624
_arkansas	-11.0625
_che	-11.0626
_diplomatic	-11.0628
_serpent	-11.0637
_pb	-11.0638
_undertaking	-11.0638
_wedding	-11.0639
_mild	-11.064
_hood	-11.0641
_impressed	-11.0644
_filing	-11.0649
_stable	-11.0658
_ballot	-11.0662
_presidents	-11.0665
_weren	-11.0671
_buffalo	-11.0672
_harper	-11.0678
_alcohol	-11.0681
_shipping	-11.0684
_lively	-11.0686
_feeding	-11.0691
_losing	-11.0692
_commodities	-11.0692
_felix	-11.0692
_jordan	-11.0693
_briefly	-11.0693
_purity	-11.0693
_rom	-11.0696
_saul	-11.0696
_lien	-11.0703
_riches	-11.0703
_rebels	-11.0705
_addresses	-11.0708
_lasted	-11.0709
_inconsistent	-11.0709
ba	-11.0712
_ea	-11.0714
_cargo	-11.0715
_wake	-11.0724
_aaron	-11.0724
_environmental	-11.0733
_darling	-11.0734
_unexpected	-11.074
ance	-11.0746
_upward	-11.0747
_num	-11.0749
_sermons	-11.0756
_wears	-11.0758
_yielded	-11.076
_compilation	-11.0762
ites	-11.0764
_din	-11.0765
_steen	-11.077
_dirty	-11.077
_entertained	-11.078
_ke	-11.0783
_nobles	-11.0783
_adjacent	-11.0785
_aloud	-11.0785
_cord	-11.0787
_magistrate	-11.0791
_rulers	-11.0792
_supervision	-11.0794
_ranges	-11.0796
_deity	-11.0803
_notifications	-11.0803
_appearing	-11.0804
_monarch	-11.0805
_string	-11.0807
_governors	-11.0807
_delicious	-11.0808
_preach	-11.0809
_venice	-11.0811
_isolated	-11.0811
_salmon	-11.0812
_ff	-11.0813
_coarse	-11.0813
_commissions	-11.0816
_xxi	-11.0816
_drugs	-11.0825
_storage	-11.0828
_logging	-11.0828
_penny	-11.0829
_edith	-11.0831
_collins	-11.0832
_carriers	-11.0833
_discussions	-11.0835
_turkish	-11.0837
_sixteenth	-11.0838
_tri	-11.0838
_neighbours	-11.0839
_bot	-11.0845
_carter	-11.0847
_dies	-11.0853
_parcel	-11.0854
_reflect	-11.0854
_stroke	-11.0854
_devices	-11.0854
_depths	-11.0856
_assert	-11.0861
_accuracy	-11.0862
_bodily	-11.0862
_debate	-11.0872
_invented	-11.0873
_pleasures	-11.0873
_wage	-11.0874
_phase	-11.0875
_visitors	-11.0881
_freight	-11.0881
_nu	-11.0882
_successors	-11.0883
_coins	-11.0886
_breathing	-11.0886
si	-11.0886
ary	-11.0888
_assets	-11.0889
_apple	-11.0891
_radio	-11.0896
_admiralty	-11.0897
_roses	-11.0897
_curve	-11.0899
_advances	-11.09
_cliff	-11.0901
_transport	-11.0903
_procure	-11.0904
_seminary	-11.0906
ship	-11.0914
_subsistence	-11.0914
tes	-11.0914
_fulfilled	-11.0915
_foe	-11.0918
_mood	-11.0919
_implement	-11.092
_collecting	-11.0921
_apartment	-11.0921
_experiences	-11.0925
_lightly	-11.0925
_generals	-11.0927
_injunction	-11.0932
_tracts	-11.0935
_voted	-11.0943
_shes	-11.0943
_preaching	-11.0944
_gravity	-11.0949
_utah	-11.095
_losses	-11.095
_har	-11.0955
_nuclear	-11.0957
_continuation	-11.0957
_divorce	-11.0959
_awarded	-11.0962
_allowing	-11.0963
_accompany	-11.097
_manufactured	-11.0971
_sentences	-11.0973
_patrick	-11.0974
_owen	-11.0975
_contracted	-11.0979
_turkey	-11.0981
ere	-11.0983
_advancing	-11.0983
_flock	-11.0983
_ir	-11.0986
_plato	-11.0987
_publish	-11.099
_carries	-11.099
_prudence	-11.0992
_guardian	-11.0997
_peters	-11.0998
_ties	-11.1
_irrigation	-11.1009
_cruelty	-11.101
_directors	-11.1013
_risen	-11.1014
_commands	-11.1015
_stout	-11.1015
_soviet	-11.1016
_supporting	-11.102
_sandy	-11.1023
_strand	-11.1025
tor	-11.1026
_youd	-11.1028
_mat	-11.1031
_stating	-11.1034
_liverpool	-11.1035
_fearful	-11.1038
_selling	-11.1039
_vary	-11.1042
_stamp	-11.1044
_cromwell	-11.1046
_nowhere	-11.1049
_introduce	-11.1049
_judged	-11.105
_basket	-11.1051
_sunshine	-11.1053
_exercises	-11.106
_quod	-11.1063
_inst	-11.1063
_deem	-11.107
_travelled	-11.1071
_mb	-11.1071
_troy	-11.1072
_fifteenth	-11.1073
_leisure	-11.1076
_editors	-11.108
ica	-11.1081
ial	-11.1082
ny	-11.1083
_creator	-11.1086
_sailing	-11.1086
_sounded	-11.1087
_hindu	-11.1087
_vel	-11.1088
_sovereignty	-11.1089
_judith	-11.1095
_ali	-11.1096
_mens	-11.1096
_psychology	-11.1097
_cur	-11.1101
_tight	-11.1103
_perception	-11.1104
_stolen	-11.1109
_resurrection	-11.1114
_peninsula	-11.1116
_boil	-11.112
_alexandria	-11.1123
_regional	-11.1125
_honorable	-11.1125
_diamond	-11.113
_limestone	-11.113
_assertion	-11.1131
_variations	-11.1131
_subtitle	-11.1132
_imprisoned	-11.1132
_respondents	-11.1134
_attachment	-11.1139
_vengeance	-11.1141
_courses	-11.1142
_pres	-11.1143
_elect	-11.1143
_disaster	-11.1148
_therefor	-11.1148
_militia	-11.115
ach	-11.1152
tus	-11.1153
_draft	-11.1153
_locked	-11.1157
_muscles	-11.1163
_developer	-11.1163
_convent	-11.1163
_accomplish	-11.1167
_solitary	-11.1168
_drank	-11.1168
_martyr	-11.1174
_resemblance	-11.1175
_junior	-11.1176
_torture	-11.1181
_typical	-11.1182
_lesser	-11.1183
_grim	-11.1185
_lightning	-11.1186
_majestys	-11.1187
_reverse	-11.1187
_partner	-11.1187
_landlord	-11.1193
_calcutta	-11.1194
_fir	-11.1194
_invisible	-11.1194
_metropolitan	-11.1194
_referring	-11.1194
_communicated	-11.1198
_graham	-11.1202
_favorable	-11.1204
_intend	-11.1205
_esteem	-11.1208
_wikis	-11.1214
_cloak	-11.1215
_proposals	-11.1219
_extremity	-11.1221
_sones	-11.1221
_clashes	-11.1221
_texts	-11.1222
_conformity	-11.123
_sta	-11.1233
_astonished	-11.1239
_rubber	-11.1239
_fishes	-11.124
_strengthen	-11.1242
ians	-11.1247
_harvard	-11.1247
_horace	-11.1248
_relates	-11.1253
_recalled	-11.1253
_securities	-11.1256
_agitation	-11.1256
_chains	-11.1257
_illegal	-11.1262
_scotch	-11.1263
_friday	-11.1264
_logical	-11.1264
_lang	-11.1268
_auto	-11.1269
_achieve	-11.1269
_mentions	-11.1269
_amounted	-11.1272
_ps	-11.1273
_pitch	-11.1273
_tones	-11.1274
_ratio	-11.1282
_rites	-11.1283
_electronic	-11.1283
ney	-11.1286
_precise	-11.1289
_guy	-11.129
_sharply	-11.1293
_juan	-11.1293
_keeps	-11.1294
_avoided	-11.1295
_neighbouring	-11.1296
ini	-11.1297
_parted	-11.1297
for	-11.1298
_augustus	-11.1298
_ammunition	-11.1301
_permissions	-11.1304
_geology	-11.131
_junction	-11.131
_password	-11.131
_stanley	-11.131
_arrow	-11.1311
_promises	-11.1315
_clad	-11.1316
_rightly	-11.1317
_ref	-11.1319
_clinton	-11.1319
_bestowed	-11.1321
_assyria	-11.1324
_shirt	-11.1325
_exposition	-11.1327
_watson	-11.1327
_expiration	-11.1328
_towers	-11.1329
_bind	-11.1332
_shepherd	-11.1333
_rounded	-11.1334
_hastily	-11.1337
_resided	-11.1341
_boiling	-11.1341
_ross	-11.1347
up	-11.135
_partnership	-11.1354
_tribunal	-11.1363
_imperfect	-11.137
_inasmuch	-11.1373
_thyself	-11.1374
_une	-11.1379
_philosophers	-11.1381
_spectator	-11.1381
_northwest	-11.1382
_tar	-11.1384
_influences	-11.1386
_amen	-11.1386
_beheld	-11.1386
_captains	-11.1389
_pays	-11.139
_defended	-11.139
_pack	-11.1391
_tan	-11.1394
go	-11.1401
_vanished	-11.1402
_visitor	-11.1402
_daylight	-11.1402
_labours	-11.1407
_relatives	-11.1408
ik	-11.1411
ou	-11.1416
izing	-11.1416
_os	-11.1422
_contribute	-11.1422
_plague	-11.1423
_warfare	-11.1428
_olive	-11.1429
_avail	-11.1432
_settlements	-11.1434
_abode	-11.1436
_advisory	-11.1437
_citizenship	-11.1437
_endowed	-11.1438
mo	-11.1439
_ky	-11.1441
_morgan	-11.1441
_decisive	-11.1443
_arrange	-11.1445
di	-11.1445
_compound	-11.1446
od	-11.1448
_pretended	-11.1449
_goat	-11.145
_mal	-11.1454
_expressions	-11.1454
_denial	-11.1455
_exile	-11.1458
_whann	-11.146
_flames	-11.146
ino	-11.1463
_smoking	-11.1464
_oz	-11.1465
_cheerful	-11.1469
_exquisite	-11.147
_breeze	-11.1473
_ruler	-11.1473
_incidents	-11.148
_borough	-11.1482
_piety	-11.1483
_covers	-11.1484
_thirds	-11.1485
_dense	-11.1489
_restriction	-11.1491
_fluid	-11.1491
_personality	-11.1495
_saith	-11.1495
_dock	-11.1496
_qe	-11.15
_invitation	-11.15
_exemption	-11.1501
_regulate	-11.1504
_bt	-11.1506
_ion	-11.1513
ger	-11.1514
orum	-11.1517
_salisbury	-11.1519
_bury	-11.1519
_percentage	-11.152
_absorbed	-11.152
_spencer	-11.1521
_retire	-11.1522
_visiting	-11.1523
_persia	-11.1523
more	-11.1524
tu	-11.1524
_missionaries	-11.1528
_visits	-11.1529
_upright	-11.153
_beating	-11.153
_constitutes	-11.1533
_lip	-11.1534
_mist	-11.1539
_publisher	-11.1539
_weve	-11.1542
_foul	-11.1543
_fan	-11.1544
_washing	-11.1549
_flies	-11.1551
_picturesque	-11.1552
_unjust	-11.1552
_fertile	-11.1556
_transit	-11.1556
_fury	-11.1557
_creed	-11.1558
_lordship	-11.1561
_clubs	-11.1564
_miracles	-11.1564
_aspects	-11.1565
_pig	-11.1566
_wax	-11.1567
_cannon	-11.1569
_waist	-11.157
_offerings	-11.1572
_arbitrary	-11.1574
_sue	-11.1574
_ow	-11.1579
yn	-11.1579
ris	-11.158
_seize	-11.158
_pressing	-11.1581
_currency	-11.1583
_eyed	-11.1584
_tracks	-11.1585
_dialect	-11.1585
_respectable	-11.159
q	-11.1591
ula	-11.1592
_judah	-11.1593
_failing	-11.1595
_applying	-11.1596
_substitute	-11.1597
_frances	-11.1601
_miracle	-11.1602
_mingled	-11.1603
_commissioned	-11.1604
_ty	-11.1604
_leaning	-11.1606
_romantic	-11.161
_carved	-11.1612
_decay	-11.1615
_baptist	-11.1615
_journals	-11.1615
_translations	-11.1618
_dragged	-11.1621
_workmen	-11.1621
tt	-11.1627
_studying	-11.1628
_sustain	-11.163
_leadership	-11.163
_borrowed	-11.1632
_rings	-11.1633
_governmental	-11.1637
ua	-11.1637
_persecution	-11.1639
_contention	-11.1641
_fran	-11.1641
_soap	-11.1646
_imitation	-11.1649
_norwich	-11.1649
_dressing	-11.1649
_flows	-11.165
_kate	-11.1651
_floating	-11.1651
_attractive	-11.1653
_bounded	-11.1655
_creditors	-11.1657
_ethics	-11.1659
_blocks	-11.166
_increases	-11.1662
_earthly	-11.1663
cl	-11.1665
_palestine	-11.1667
_sanctuary	-11.1667
_cart	-11.1667
ron	-11.1667
_flora	-11.1667
_portugal	-11.1668
_pu	-11.1669
_instituted	-11.1672
_surplus	-11.1672
_divinity	-11.1676
_winchester	-11.1676
_sabbath	-11.1677
_accession	-11.1677
_vii	-11.1678
_feels	-11.168
_electricity	-11.1686
_abandon	-11.1686
_pat	-11.1688
_dat	-11.169
_emphasis	-11.169
_borders	-11.1693
_bristol	-11.1695
_examining	-11.1695
_questioned	-11.1696
_bloody	-11.1699
_colors	-11.1702
_verb	-11.1703
_rob	-11.171
_poles	-11.1711
_heroic	-11.1712
_applicant	-11.1714
_neighbors	-11.1716
ak	-11.1716
_cas	-11.1719
_serves	-11.1728
_staring	-11.1729
_urge	-11.1731
_patients	-11.1733
_publishers	-11.1733
_variation	-11.1733
_cooper	-11.1734
_chu	-11.1734
_pastor	-11.1734
_rt	-11.1735
_particles	-11.1737
_min	-11.1739
_buck	-11.1741
_johns	-11.1744
_max	-11.1747
_fisheries	-11.1751
_architect	-11.1752
_puts	-11.1754
cr	-11.1765
_disability	-11.177
_hungary	-11.177
_petersburg	-11.1773
_countrymen	-11.1774
ith	-11.1775
_deserve	-11.1776
_mus	-11.1778
_reverend	-11.1779
_offensive	-11.1779
_hind	-11.178
_scholarship	-11.178
_talent	-11.1786
_shares	-11.1787
_vow	-11.1788
_elevated	-11.1789
_milton	-11.1791
_tissue	-11.1792
_gazette	-11.1793
_daring	-11.1795
_quebec	-11.1798
_punish	-11.1807
_pepper	-11.1807
_montgomery	-11.1807
_rat	-11.1808
_preacher	-11.1812
_wesley	-11.1812
_tenant	-11.1813
_considers	-11.1813
che	-11.1814
_ore	-11.1816
_happily	-11.1817
_drops	-11.182
_gal	-11.1822
_trials	-11.1824
_productive	-11.1826
_fragment	-11.1827
_toil	-11.183
_reads	-11.1832
_sion	-11.1839
_suggests	-11.1839
va	-11.1843
_termed	-11.1846
_warwick	-11.1848
_nonsense	-11.1854
_boxes	-11.1858
_desk	-11.1861
_dou	-11.1862
_weep	-11.1862
_battalion	-11.1865
_eleventh	-11.1866
_gown	-11.1867
_estimates	-11.1868
_fin	-11.1868
_foundations	-11.1869
_savings	-11.1869
_pace	-11.187
_bombay	-11.1874
_indicates	-11.1874
_qu	-11.1887
_hawk	-11.1888
_players	-11.1888
_hated	-11.1891
_mathematics	-11.1894
_endeavour	-11.1895
_renewal	-11.1895
_englishman	-11.1896
_hardy	-11.19
_supp	-11.1901
lo	-11.1902
_shooting	-11.1907
_construct	-11.191
_reviews	-11.191
_quit	-11.1912
_proves	-11.1916
_edwin	-11.1916
_righteous	-11.1918
_herd	-11.192
_canterbury	-11.1921
_hadde	-11.1925
con	-11.1926
_bushes	-11.1929
_dit	-11.1929
_reaches	-11.1931
_jew	-11.1931
_ness	-11.1932
_exchanged	-11.1933
ay	-11.1933
_gloomy	-11.1934
_loaded	-11.1936
_tremendous	-11.1937
_heap	-11.1939
_destiny	-11.194
ization	-11.1944
_crow	-11.1948
_impose	-11.195
_rejoice	-11.195
_creating	-11.195
_leagues	-11.195
_beef	-11.1952
_conceal	-11.1952
_og	-11.1952
_annex	-11.1953
_dissenting	-11.1956
_cornelia	-11.1958
sh	-11.1958
mer	-11.1959
_hypothesis	-11.196
_diary	-11.1964
_railroads	-11.1965
_deadly	-11.197
_planned	-11.197
_sincere	-11.1973
_dame	-11.1975
_halt	-11.1976
ven	-11.1976
_describing	-11.1979
_caste	-11.198
_skins	-11.1981
_inclusive	-11.1982
_char	-11.1987
_velocity	-11.1988
_stirred	-11.1988
_excellency	-11.199
_mars	-11.199
_fashioned	-11.1991
_weeping	-11.2002
_allowances	-11.2003
_viii	-11.2004
_loyal	-11.2004
_fortunes	-11.2006
_evils	-11.2007
vi	-11.2008
_seconds	-11.2009
_ic	-11.2011
_bred	-11.2012
_graceful	-11.2015
_hed	-11.2018
_mer	-11.2018
_rescue	-11.2018
_mason	-11.2019
_cong	-11.2022
_famine	-11.2028
_burns	-11.203
_westward	-11.2031
_methodist	-11.2031
_reverence	-11.2031
_editorial	-11.2033
_clothed	-11.2035
_bruce	-11.2039
_swiftly	-11.2044
_arnold	-11.2045
_folks	-11.2046
_ordnance	-11.2046
_transmitted	-11.2046
_wept	-11.2046
_bars	-11.2047
_clement	-11.2053
_hereunto	-11.2056
_reprinted	-11.2058
_inspiration	-11.2058
_insert	-11.2058
_suspect	-11.2059
_coach	-11.206
_memoir	-11.2061
_wondering	-11.2062
_delegate	-11.2063
_disputes	-11.2063
_bradley	-11.2065
_favorite	-11.2069
_partially	-11.207
_dom	-11.2072
des	-11.2074
_extant	-11.2075
_hearted	-11.2081
_earnestly	-11.2081
_totally	-11.2084
_relieve	-11.2085
_baptized	-11.2086
_trap	-11.2086
_links	-11.2086
_palmer	-11.2088
_lined	-11.2089
_unite	-11.209
_tribal	-11.2092
_efficiency	-11.2094
_sufferings	-11.2096
_haven	-11.2102
_almighty	-11.2104
_medal	-11.2105
_consecrated	-11.2105
_isabella	-11.2109
_tip	-11.211
ize	-11.2111
_penal	-11.2113
_traditional	-11.2113
_christs	-11.2118
_archives	-11.212
_orthodox	-11.212
_warned	-11.2121
_printer	-11.2122
_utility	-11.2124
_easier	-11.2133
_breed	-11.2137
_nerve	-11.2138
_hu	-11.2138
_strip	-11.2139
_alps	-11.2144
_structures	-11.2147
berg	-11.2154
_accounted	-11.2154
_murdered	-11.2156
_ark	-11.216
cy	-11.2165
_survived	-11.2166
_pool	-11.2167
_spouse	-11.2169
_assuming	-11.2172
_denmark	-11.2173
_plough	-11.2174
_whereupon	-11.2183
_killers	-11.2183
_pierre	-11.2184
_smallest	-11.2185
_emperors	-11.2187
_barry	-11.2187
_goddess	-11.2189
_sore	-11.2189
_judiciary	-11.2192
_observing	-11.2192
_cheap	-11.2193
om	-11.2195
_injustice	-11.2196
_korea	-11.2197
bo	-11.2198
_mathematical	-11.2199
_spending	-11.22
_ny	-11.2203
_resolve	-11.221
_appreciation	-11.2212
_treason	-11.2212
_approve	-11.2212
_muttered	-11.2213
_lend	-11.2221
_tuesday	-11.2221
_transmission	-11.2222
_alteration	-11.2223
_whitman	-11.2226
_papal	-11.2231
_misfortune	-11.2235
_impact	-11.2236
_usage	-11.2239
_roar	-11.2239
_withdrew	-11.2241
_sink	-11.2242
_groot	-11.2242
_alfo	-11.2244
_filling	-11.2247
_execute	-11.225
_indifferent	-11.2251
_endless	-11.2256
_hart	-11.2261
_naples	-11.2261
_scarlet	-11.2264
_skull	-11.2264
_repose	-11.2264
_vegetation	-11.2271
_harold	-11.2271
rt	-11.2274
_signature	-11.2274
_festival	-11.2275
_greatness	-11.2279
_symbols	-11.228
_sacrament	-11.2281
_spear	-11.2282
ung	-11.2283
_bohemia	-11.2287
_heathen	-11.2289
_trading	-11.2291
_vulgar	-11.2293
_trick	-11.2295
ul	-11.2297
_tim	-11.23
_conspiracy	-11.23
_ec	-11.2306
_injuries	-11.2306
_gent	-11.2307
ure	-11.2308
_socialist	-11.2309
_withdraw	-11.2315
_lastly	-11.2316
_regulated	-11.2316
_steal	-11.2316
_inscriptions	-11.2319
_push	-11.2322
_hastened	-11.2323
_sparrow	-11.2324
_andrews	-11.2324
_males	-11.2325
_modifications	-11.233
ks	-11.233
_cemetery	-11.233
_reformation	-11.2332
_meridian	-11.2334
_reaction	-11.2334
_comments	-11.2334
_fred	-11.2335
_gg	-11.2337
_shih	-11.2337
_procession	-11.234
_integrity	-11.234
_markets	-11.2341
_strongest	-11.2341
_righteousness	-11.2342
_receiver	-11.2342
_youngest	-11.2343
_leaned	-11.2344
_arriving	-11.235
_resignation	-11.2351
_apostolic	-11.2351
_bon	-11.2357
_ave	-11.2359
_causing	-11.2361
_cable	-11.2363
_didst	-11.2368
_affections	-11.2369
_switzerland	-11.237
_nebraska	-11.237
_foods	-11.2383
_reporting	-11.2387
_railways	-11.2388
_fold	-11.2388
_statesman	-11.2388
_curtain	-11.24
_shaking	-11.2401
_erection	-11.2403
_juvenile	-11.2404
_blows	-11.2404
_dealer	-11.241
_forsothe	-11.241
_caps	-11.2411
_authorizing	-11.2412
ons	-11.2413
_annals	-11.2414
_neighborhood	-11.2414
_juice	-11.2415
_mercury	-11.242
_gap	-11.2428
_split	-11.243
_prophecy	-11.243
_evans	-11.2432
_physicians	-11.2434
_transaction	-11.2435
_lap	-11.2438
_driver	-11.2442
_thofe	-11.2442
yng	-11.2445
_openly	-11.2449
_belgium	-11.245
_thursday	-11.245
_glow	-11.245
_maurice	-11.245
_invested	-11.2452
_karl	-11.2452
_dining	-11.2459
_dynasty	-11.2461
_classified	-11.2461
_spots	-11.2465
_venus	-11.2466
_gloom	-11.2467
_gradual	-11.2468
fa	-11.2468
_preceded	-11.2473
ise	-11.2478
_gale	-11.2478
_appealed	-11.2483
_drawings	-11.2487
_descriptions	-11.2489
_ascribed	-11.249
_jos	-11.2491
_sunset	-11.2496
_funding	-11.2498
_barony	-11.2502
_sworn	-11.2504
_pleasing	-11.2505
_attempting	-11.2507
_cared	-11.2507
_dun	-11.251
_intermediate	-11.2511
_dissolved	-11.2513
_secular	-11.2513
_cit	-11.2522
_infringement	-11.2526
_cleveland	-11.2531
_performing	-11.2533
ura	-11.2535
_comedy	-11.2536
_gracious	-11.2537
_aliens	-11.2538
_sal	-11.2542
_corporate	-11.2542
_confessed	-11.2546
_surprising	-11.2548
_lis	-11.2551
_entities	-11.2552
_enforced	-11.2559
lt	-11.2559
_charitable	-11.2562
_supposing	-11.2562
_accounting	-11.2563
_ugly	-11.2563
_stevenson	-11.2563
_literally	-11.2564
ai	-11.2564
_neighbour	-11.2564
_balloon	-11.2567
_chaplain	-11.2568
_babylon	-11.2571
_hy	-11.2576
_flint	-11.2577
_linn	-11.2581
_identification	-11.2582
_declaring	-11.2582
_monte	-11.2586
_hir	-11.2587
_mischief	-11.2587
_ploughs	-11.2589
_shops	-11.2591
_photographic	-11.2597
_yearly	-11.2599
_senators	-11.2604
_wu	-11.2606
_dug	-11.2607
_vegetables	-11.2612
_maker	-11.2612
_eternity	-11.2613
op	-11.2613
_employers	-11.2614
_engines	-11.2614
_descend	-11.2616
_pistol	-11.2621
_appellants	-11.2621
_ef	-11.2622
_conjunction	-11.2623
_encouragement	-11.2624
_clerical	-11.2625
_beer	-11.2626
_jumped	-11.2626
_peak	-11.2627
_requisite	-11.2628
_kh	-11.2632
_contractor	-11.2633
_astonishment	-11.2633
_raisonn	-11.2635
_transition	-11.2639
_peril	-11.2641
_emma	-11.2642
_proprietor	-11.2648
_lunch	-11.2652
_dauid	-11.2656
_legends	-11.2657
_divers	-11.2658
_sinking	-11.2659
_edwards	-11.2663
_ernest	-11.2665
_whip	-11.2665
_experimental	-11.2667
ised	-11.267
_hadnt	-11.2675
_film	-11.2676
_drift	-11.2676
fl	-11.2677
_jealousy	-11.2678
_wealthy	-11.2678
ella	-11.2678
_horizontal	-11.2682
_milan	-11.2684
_primarily	-11.2685
_sidney	-11.2685
_improving	-11.2685
_gazing	-11.2685
_helping	-11.2686
ement	-11.2687
_peru	-11.2689
_beaver	-11.2689
_epoch	-11.269
_learnt	-11.2691
_vivid	-11.2692
_jerome	-11.2695
_gi	-11.2697
_durham	-11.2706
_somerset	-11.2706
_declares	-11.2708
_perish	-11.2709
_suggestions	-11.271
_corrected	-11.271
_proportions	-11.2711
_definitely	-11.2714
_inquiries	-11.2716
_subordinate	-11.2716
_anniversary	-11.2726
_lust	-11.2726
_disappointed	-11.2726
_spell	-11.2727
_poland	-11.2728
_diminished	-11.2728
ynge	-11.2733
_invalid	-11.2734
_joan	-11.2734
_hook	-11.2742
_differs	-11.2743
_deaf	-11.2743
_trusted	-11.2746
_batteries	-11.2747
_proofs	-11.2753
_repeatedly	-11.2759
_hale	-11.2759
_jealous	-11.276
_modest	-11.2761
cs	-11.2764
_chairs	-11.2764
_homer	-11.2774
_hither	-11.2778
_fide	-11.2779
_barn	-11.2781
_handkerchief	-11.2784
_doubts	-11.2786
_participating	-11.2788
_grains	-11.2789
_whisper	-11.2794
_caution	-11.2795
_stupid	-11.2795
_collective	-11.2796
_slaughter	-11.2797
_hesitated	-11.2802
_ethical	-11.2805
_eu	-11.2805
_nile	-11.2808
_lean	-11.2811
_compel	-11.2811
_supernatural	-11.2816
_manifested	-11.2816
_annuity	-11.2819
_vch	-11.282
_induce	-11.282
_crept	-11.282
_justices	-11.2821
_cliffs	-11.2823
_earned	-11.2823
_thirst	-11.2823
_keys	-11.2826
_wider	-11.2827
aria	-11.2828
_invariably	-11.283
_concrete	-11.283
_councils	-11.283
_agnes	-11.2837
_sherman	-11.2838
_dumb	-11.2841
_concurrent	-11.2848
_guaranteed	-11.2849
_talents	-11.285
_anchor	-11.2853
_web	-11.2854
ring	-11.2855
_recommend	-11.2859
_treasures	-11.2861
_shallow	-11.2867
_hull	-11.2867
_sic	-11.2868
_indictment	-11.2868
_corners	-11.2871
ck	-11.2871
_truths	-11.2871
_removing	-11.2872
_thirteenth	-11.2873
mes	-11.2873
bury	-11.2876
_scorn	-11.2878
_incapable	-11.2882
_ku	-11.2885
_restraint	-11.2888
_yea	-11.2892
_merchandise	-11.2893
_complicated	-11.2893
ja	-11.2894
mar	-11.2899
_maclane	-11.2903
_wallace	-11.2905
_contemplated	-11.2905
_foreigners	-11.2907
_academic	-11.2909
_firing	-11.2909
_voters	-11.2911
ver	-11.2913
_loyalty	-11.2914
_consumed	-11.2916
_worm	-11.2916
_inhabited	-11.2916
cd	-11.2917
_prevailing	-11.2918
_critic	-11.292
_ornament	-11.2924
_category	-11.2924
_hail	-11.2929
_jimmy	-11.2932
_lasting	-11.2932
_barren	-11.2934
_bees	-11.2944
_eliza	-11.2945
_corrupt	-11.2945
_sydney	-11.2946
_leipzig	-11.2946
_continuance	-11.2946
_seeks	-11.2946
_pipes	-11.295
_bliss	-11.295
_augustine	-11.296
_fortunately	-11.2961
_nominated	-11.2968
ire	-11.2969
_helpless	-11.2979
_participate	-11.2979
_violet	-11.298
_tt	-11.2981
_shorter	-11.2981
_protecting	-11.2984
_coleridge	-11.2985
_prick	-11.2985
_hund	-11.2987
_swung	-11.2988
_couch	-11.2989
_twas	-11.2991
_crude	-11.2994
_fined	-11.2995
_med	-11.2995
_implied	-11.2996
_prevail	-11.2997
_definitions	-11.3007
_banking	-11.3011
_nigh	-11.3013
_duchess	-11.3016
_patents	-11.3019
_yourselves	-11.302
_whither	-11.302
_addressing	-11.3023
_knocked	-11.3024
_hiding	-11.3027
_convenience	-11.3028
_damp	-11.3029
_bernard	-11.3033
_possessing	-11.3033
_hofstede	-11.3041
_dew	-11.3043
_walks	-11.3044
_syria	-11.3046
_everlasting	-11.3049
_resembling	-11.3052
_danish	-11.3052
_obeyed	-11.3059
_subdivision	-11.3059
_confirm	-11.3061
_navigable	-11.3063
_sage	-11.3063
_ban	-11.3067
_joining	-11.3068
_anyway	-11.307
_surveys	-11.3072
_chalk	-11.3072
_devils	-11.3073
_customary	-11.3074
_communicate	-11.3075
_suited	-11.3078
_strikes	-11.3078
sch	-11.3083
_hans	-11.3085
_localities	-11.3086
_thief	-11.3086
_pamphlet	-11.309
_phillips	-11.3091
_rang	-11.3093
_indifference	-11.3095
_innumerable	-11.3095
_kennedy	-11.3095
_privately	-11.3103
_turks	-11.3105
_fuch	-11.3107
_horns	-11.311
_meets	-11.311
_dig	-11.3116
_firft	-11.3117
_suppressed	-11.3119
era	-11.3119
_directory	-11.3122
_searching	-11.3123
_scots	-11.3124
_entrusted	-11.3128
ps	-11.313
_cha	-11.3136
_medieval	-11.3138
_suspension	-11.3138
_antonio	-11.3139
_priority	-11.314
_cultural	-11.3149
_martial	-11.3149
_envy	-11.3149
_yorkshire	-11.315
_universally	-11.3151
_stuck	-11.3152
_missed	-11.3155
_chorus	-11.3156
_witnessed	-11.3159
_suppression	-11.316
za	-11.3166
_faithfully	-11.3171
_clarke	-11.3172
_conducting	-11.3172
_elders	-11.3173
_assent	-11.3174
_womens	-11.3179
we	-11.3183
_folded	-11.3186
_endeavoured	-11.3186
_swan	-11.3187
_vacant	-11.3189
_fortified	-11.3192
_tenderness	-11.3195
_tm	-11.3195
_ellis	-11.3197
_remembrance	-11.32
_initiative	-11.32
_northward	-11.3202
_delaware	-11.3203
_speedily	-11.3203
_ardent	-11.3209
_pearl	-11.321
_indignation	-11.3214
_certification	-11.3215
_drowned	-11.3215
_potatoes	-11.3215
_mask	-11.3225
_wishing	-11.3232
_cooperative	-11.3233
_frozen	-11.3236
_startled	-11.3236
_socrates	-11.3237
_reproach	-11.3237
_nobility	-11.3237
_owed	-11.324
_doubted	-11.3242
_goats	-11.3243
_weeds	-11.3245
_observer	-11.3246
_unworthy	-11.3246
_ken	-11.3246
_vine	-11.3247
_rs	-11.3251
ct	-11.3251
sponsibilities	-11.3253
_evaluation	-11.3255
_vein	-11.3257
iu	-11.3257
_frost	-11.3261
gar	-11.3261
_consulted	-11.3264
_lions	-11.3267
_appetite	-11.3267
_phenomenon	-11.3268
_aroused	-11.327
_oc	-11.3271
_moves	-11.3272
_madam	-11.3276
_brazil	-11.3276
_formidable	-11.3279
_guarded	-11.3282
_tank	-11.3285
_currents	-11.329
town	-11.3292
_corpus	-11.3297
_believes	-11.3297
_cyclop	-11.3299
_needle	-11.33
_guides	-11.33
_bu	-11.3302
_lamps	-11.3304
_demonstrated	-11.3305
_fog	-11.3305
_memorials	-11.3305
_persuade	-11.3307
_childrens	-11.3307
_defects	-11.3309
_veteran	-11.331
_refusing	-11.3312
_opium	-11.3312
_careless	-11.3313
_occasioned	-11.332
_electors	-11.3321
_systematic	-11.3322
_regiments	-11.3327
_cedar	-11.3332
_figured	-11.3334
_illustrious	-11.3334
_oxygen	-11.3334
_peck	-11.3335
_martyrs	-11.3336
_metals	-11.3337
_involve	-11.3337
_shout	-11.3338
_norway	-11.3338
_ink	-11.3339
_innocence	-11.3345
_mythology	-11.3345
_sanction	-11.3346
_balls	-11.3346
_ned	-11.3348
_enemys	-11.335
_canoe	-11.3351
_epistle	-11.3353
_bloom	-11.3355
_sculpture	-11.336
_recreation	-11.3362
_decrees	-11.3362
_permits	-11.3363
_glasses	-11.3365
_revolt	-11.3366
_reconciliation	-11.3367
_hereditary	-11.3367
_highways	-11.3373
_ferry	-11.3377
_exclusion	-11.3378
_deputies	-11.3378
_disabilities	-11.3378
_mess	-11.338
_heated	-11.3383
_painters	-11.3393
_media	-11.3397
_madison	-11.34
_sublime	-11.3408
_rigid	-11.3411
_cincinnati	-11.3411
_twentieth	-11.3411
_silly	-11.3412
hi	-11.3415
ita	-11.3416
_elephant	-11.342
_kan	-11.3421
_sweden	-11.3423
_moss	-11.3425
_edgar	-11.3425
_ornaments	-11.3426
_sands	-11.3426
_boiled	-11.3427
_pretend	-11.3431
_burton	-11.3434
ow	-11.3436
_holidays	-11.3441
_wellington	-11.3441
_moneys	-11.3445
wa	-11.3446
_encountered	-11.3448
_facilitate	-11.3449
_stationed	-11.3451
_extracts	-11.3451
_letting	-11.3453
_axe	-11.3453
_julius	-11.3456
tum	-11.3457
_involves	-11.3458
sen	-11.3459
_deceived	-11.3459
_elegant	-11.3463
_asylum	-11.3465
_celestial	-11.3465
let	-11.3467
_abruptly	-11.3468
_appreciate	-11.3471
_electrical	-11.3477
_brussels	-11.3478
_imposing	-11.3478
_yu	-11.3479
_inherited	-11.348
_mil	-11.3481
_quote	-11.3482
_brand	-11.3485
_respected	-11.3486
_establishments	-11.3486
_philippine	-11.3487
_observance	-11.3488
_thro	-11.3489
_undertook	-11.3489
_consolidated	-11.3491
_cc	-11.3492
_ip	-11.3493
_consented	-11.3497
_reveal	-11.3502
_wo	-11.3505
_summons	-11.3507
_sealed	-11.3507
_ventured	-11.3509
_figs	-11.3513
_acute	-11.3513
_interpreted	-11.3514
_crest	-11.3522
_mob	-11.3526
_enterprises	-11.3526
_stole	-11.3527
ff	-11.3527
_surrendered	-11.3531
_reside	-11.3532
_gesture	-11.3533
_females	-11.3533
_guided	-11.3534
_strife	-11.3534
_appl	-11.3537
_threatening	-11.3545
_gloucester	-11.3545
_reckon	-11.3546
ries	-11.3551
_confer	-11.3552
_comrades	-11.3552
_blade	-11.3557
_sites	-11.3557
_screen	-11.3559
_ellen	-11.356
_perished	-11.3561
_bet	-11.3562
_socialism	-11.3563
ze	-11.3564
_sch	-11.3566
_wrapped	-11.3567
_exceptional	-11.3568
_float	-11.3569
_epistles	-11.3571
_listed	-11.3572
_ripe	-11.3576
_ance	-11.3577
_crushed	-11.3581
rn	-11.3581
ning	-11.3585
_opponents	-11.3587
_objected	-11.3588
_communist	-11.3589
burg	-11.359
_occurring	-11.359
_silently	-11.3594
_seamen	-11.3598
_hopkins	-11.3599
_belly	-11.36
_enclosed	-11.3602
_hague	-11.3603
_natures	-11.3603
ko	-11.3604
_crook	-11.3605
_insane	-11.3613
_doorway	-11.3613
_incidental	-11.3615
_disgrace	-11.3616
_kid	-11.3618
_propositions	-11.3619
_ep	-11.3621
_sen	-11.3625
_ideals	-11.3626
_mamma	-11.3626
_gravel	-11.3628
_oppose	-11.363
_cunning	-11.3634
_assignment	-11.3635
_jupiter	-11.3635
_ching	-11.3636
_modes	-11.3636
_ai	-11.364
_taxable	-11.364
_approaches	-11.3641
_ufed	-11.3644
_squadron	-11.3644
_luxury	-11.3646
_presidency	-11.3646
_europeans	-11.3647
_remedies	-11.3648
_morals	-11.365
_restrain	-11.3651
_oklahoma	-11.3658
_stopping	-11.3659
ible	-11.366
ab	-11.3663
_harsh	-11.3665
_caroline	-11.3669
_heritage	-11.3669
_wildlife	-11.3669
_expectation	-11.367
_relics	-11.367
_hs	-11.3671
_viewed	-11.3671
_scenery	-11.3671
_offences	-11.3678
atus	-11.368
ati	-11.368
_equitable	-11.3681
_enumerated	-11.3682
_slopes	-11.3682
_edges	-11.3682
tra	-11.3683
_austrian	-11.3688
_achievement	-11.3692
_commitment	-11.3693
_continual	-11.3696
_charms	-11.3699
_marriages	-11.3701
_indebted	-11.3702
_bee	-11.3707
lie	-11.3708
_spreading	-11.3714
_solitude	-11.3714
_checked	-11.3715
_preventing	-11.3719
_longing	-11.3722
rie	-11.3722
_blessings	-11.3726
_evelyn	-11.3726
_summa	-11.3729
_roi	-11.373
_cork	-11.3733
_twilight	-11.3738
_venerable	-11.3738
_destination	-11.3738
_implies	-11.3738
_velvet	-11.3746
_emotions	-11.3747
_inference	-11.3749
_eusebius	-11.3749
_grande	-11.3749
_cheer	-11.3755
_susan	-11.3755
_fisher	-11.3761
_prolonged	-11.3762
bi	-11.3762
_bargain	-11.3764
tin	-11.3764
_peculiarly	-11.3768
_subtle	-11.3769
_fugitive	-11.3771
_bas	-11.3771
_disabled	-11.3772
_jar	-11.3774
_assessed	-11.3774
_disorder	-11.3776
_productions	-11.3779
_excepting	-11.3779
_garment	-11.3782
_rows	-11.3783
_webster	-11.3784
_wonders	-11.3785
_blew	-11.3787
_temporal	-11.3788
_yo	-11.3789
_influenced	-11.379
line	-11.3794
_crimson	-11.3795
_physiology	-11.3795
_spared	-11.3795
_adjusted	-11.3797
_photograph	-11.3798
_dur	-11.3803
_handling	-11.3805
_disappointment	-11.3807
_columbus	-11.3807
_backward	-11.381
off	-11.381
_styled	-11.3812
_advancement	-11.3814
_aided	-11.3816
_lucky	-11.3816
_mansion	-11.3818
_comptroller	-11.3818
_winning	-11.3818
_gothic	-11.382
_affords	-11.3825
_default	-11.3825
_hue	-11.3827
_certificates	-11.3831
_abolished	-11.3831
_honours	-11.3833
_strengthened	-11.3835
_stretch	-11.3836
_moonlight	-11.3841
_profitable	-11.3843
_wandered	-11.3845
_proviso	-11.3851
_certiorari	-11.3853
_condemnation	-11.3853
_shine	-11.3853
are	-11.3862
_wikipedia	-11.3864
_sailor	-11.3879
_purchaser	-11.3882
_farms	-11.3883
_pond	-11.3885
_desirous	-11.3888
_remarkably	-11.3888
cot	-11.3888
_context	-11.3888
_climb	-11.3889
_annexed	-11.3893
_quest	-11.3896
_passionate	-11.3897
_glen	-11.3897
_recollection	-11.39
_captive	-11.3901
_cancer	-11.3903
lis	-11.3906
_ted	-11.3908
_federation	-11.3911
_joke	-11.3914
_critics	-11.3915
_secretly	-11.3921
_tune	-11.3922
_eloquence	-11.3922
_superstition	-11.3923
_relied	-11.3924
_brigadier	-11.3934
_mademoiselle	-11.3934
_indispensable	-11.3934
_furnace	-11.3935
_sticks	-11.3936
_hired	-11.3939
_erroneous	-11.3943
_curiously	-11.3949
_insist	-11.3951
_compass	-11.3955
_urgent	-11.3955
_intensity	-11.3958
_hesitation	-11.3958
_biological	-11.3958
_ul	-11.3959
_notions	-11.3959
_armour	-11.3964
ned	-11.3969
_oxen	-11.3973
_polish	-11.3973
_blowing	-11.3974
_rite	-11.3974
_hammer	-11.3974
_hint	-11.3976
ington	-11.3979
_parting	-11.3981
_churchyard	-11.3982
_roused	-11.3985
_neat	-11.3988
_paintings	-11.3988
_correctly	-11.3994
_amusement	-11.3994
_nowrap	-11.3995
_deliberate	-11.3996
_mound	-11.4002
_fixing	-11.4004
_cumberland	-11.4005
_anticipated	-11.4006
_yer	-11.4007
_climbed	-11.4009
_admired	-11.4009
_enthusiastic	-11.401
_expedient	-11.4018
_sessions	-11.4018
_magistrates	-11.4021
br	-11.4022
ber	-11.4024
_goin	-11.4026
_egil	-11.4026
_exposure	-11.4029
_eastward	-11.4031
_arisen	-11.4038
_offenders	-11.4039
_disciple	-11.404
_directing	-11.4041
_topics	-11.4041
_bowl	-11.4046
_manufacturer	-11.4048
_soup	-11.4053
_kindred	-11.4054
_warmth	-11.4056
ken	-11.4062
_reynolds	-11.4065
_responded	-11.4067
_complained	-11.4068
_alarmed	-11.4071
_compromise	-11.4071
_neutral	-11.4074
_nevada	-11.4075
_reminded	-11.4079
_ascended	-11.4082
mg	-11.4083
_ranch	-11.4093
_aimed	-11.4098
_jail	-11.4099
_prosperous	-11.4101
_gladstone	-11.4101
kin	-11.4105
_reflections	-11.4106
_messengers	-11.4107
_residents	-11.4114
_liver	-11.4116
_suffice	-11.412
_jewels	-11.412
_dispose	-11.412
_apocrypha	-11.4121
ston	-11.4122
_eo	-11.4122
_leicester	-11.4123
_rehabilitation	-11.4123
_player	-11.4123
_geography	-11.4123
_percy	-11.4127
_jaw	-11.4127
_constable	-11.413
_concurring	-11.4135
_justification	-11.4136
_tombs	-11.4137
ola	-11.414
_edw	-11.4146
_southward	-11.4147
fer	-11.4147
_hopeless	-11.4149
_lond	-11.4149
_originated	-11.415
my	-11.4154
_harp	-11.4158
_winged	-11.4158
_robe	-11.4159
_surfaces	-11.4161
ig	-11.4162
cu	-11.4165
_arabs	-11.4165
_lacking	-11.4168
_relatively	-11.417
_concurrence	-11.417
_commodity	-11.417
_basil	-11.4171
_coun	-11.4171
_inflicted	-11.4172
_answering	-11.4174
_planet	-11.4175
_smart	-11.4175
_ridiculous	-11.4179
_gang	-11.4182
_surviving	-11.4183
_agony	-11.4184
_adorned	-11.4184
_pendant	-11.4185
_zu	-11.4186
_fables	-11.4189
_prudent	-11.4191
_therfor	-11.4193
_destructive	-11.4193
_commitments	-11.4195
_costume	-11.4197
_mourning	-11.4197
_horsemen	-11.4199
ating	-11.4201
_scales	-11.4201
_pledge	-11.4204
_phrases	-11.4206
_ivory	-11.4207
_allah	-11.4208
_prairie	-11.4208
_recommendation	-11.4209
_bor	-11.421
_blast	-11.421
_esteemed	-11.4212
_foremost	-11.4218
_windsor	-11.4221
ix	-11.4221
_holder	-11.4221
ado	-11.4223
way	-11.4226
_sussex	-11.423
ien	-11.4231
ib	-11.4233
_temptation	-11.4233
_wards	-11.4235
port	-11.4237
_prop	-11.4241
_cole	-11.4241
_unreasonable	-11.4242
_harvey	-11.4243
_diversity	-11.4243
_asks	-11.4244
_descending	-11.4247
_bounds	-11.4255
_threshold	-11.4257
_winding	-11.4258
ell	-11.4264
_cab	-11.4264
_counts	-11.4268
_awareness	-11.427
_dragon	-11.4272
_fortress	-11.4273
_levy	-11.4278
_brit	-11.4278
_acceptable	-11.4281
_puzzled	-11.4282
_fetch	-11.4282
_anyhow	-11.4283
_polished	-11.4283
_heels	-11.4284
_steward	-11.4284
_lan	-11.4285
_rushing	-11.4287
_infinitely	-11.4288
_tory	-11.4288
_threats	-11.4289
_poetic	-11.4291
_breathe	-11.4291
_factories	-11.4291
_warehouse	-11.4292
_xii	-11.4293
_carpenter	-11.4293
ors	-11.4298
_pauls	-11.4299
ij	-11.43
_aristotle	-11.4305
_ceiling	-11.4305
_fitz	-11.4315
_guinea	-11.4318
_overthrow	-11.4319
_strangely	-11.4319
_sweep	-11.432
_rawlins	-11.4324
_tends	-11.4325
_corpse	-11.4325
_professors	-11.4326
_enlightened	-11.4328
_apprehension	-11.433
_tit	-11.4331
_honoured	-11.4332
_duck	-11.4335
_secrets	-11.4335
_nut	-11.4336
_whites	-11.4338
_yale	-11.4344
_occupies	-11.4351
_joshua	-11.4351
_detached	-11.4352
_reigned	-11.4353
_advise	-11.4353
_inclination	-11.4354
ek	-11.4354
_deaths	-11.4362
_tongues	-11.4362
ho	-11.4363
_candidates	-11.4364
_comprising	-11.4364
_limb	-11.4366
_cats	-11.4369
_layer	-11.437
_pint	-11.437
_ingenious	-11.4373
_faults	-11.4374
_brotherhood	-11.4376
_complain	-11.4376
_terra	-11.4376
_fiery	-11.4377
_purse	-11.4378
_tutor	-11.438
_sulphur	-11.4382
_tiger	-11.4382
_weird	-11.4383
_curved	-11.4383
_suppl	-11.4384
_rutland	-11.4388
_madrid	-11.4388
_amidst	-11.4389
_satan	-11.4389
_villa	-11.4393
_kingdoms	-11.4395
_prussia	-11.4396
_worker	-11.4399
_mas	-11.44
_visions	-11.44
gg	-11.44
_cooking	-11.4402
_seizure	-11.4403
_chances	-11.4407
nn	-11.441
so	-11.441
_leon	-11.441
_expressing	-11.4422
mann	-11.4422
_crimea	-11.4423
_mah	-11.4424
_negligence	-11.4425
_willingly	-11.4426
oc	-11.4427
_mechanism	-11.4428
_cylinder	-11.4428
_magnitude	-11.4428
_iu	-11.4431
_jer	-11.4433
_massive	-11.4435
_harriet	-11.4437
_sunlight	-11.4437
ki	-11.4438
_consular	-11.4441
_conform	-11.4446
nis	-11.4446
_duncan	-11.4449
_priesthood	-11.4449
_bedford	-11.4452
_knock	-11.4453
_monster	-11.4453
_blown	-11.4454
_pillow	-11.4454
_intentions	-11.4458
_moor	-11.4463
mon	-11.4464
_lantern	-11.4465
_buddha	-11.4466
_presentation	-11.4466
_das	-11.4473
_foreground	-11.4474
_ting	-11.4477
_affirm	-11.448
_invite	-11.4481
_progressive	-11.4482
_sighed	-11.4482
_delegates	-11.4483
_pioneer	-11.4485
_redemption	-11.4486
_aux	-11.4486
_rem	-11.4489
_controlling	-11.4489
_flocks	-11.449
art	-11.449
ias	-11.4494
_dale	-11.4498
_equipped	-11.4499
_repaired	-11.4501
_restless	-11.4501
_synod	-11.4501
_insult	-11.4502
_exploration	-11.4502
ms	-11.4503
rr	-11.4507
_appro	-11.4511
_holiday	-11.4514
_deliberately	-11.4527
_warrior	-11.4527
_experts	-11.453
_exclude	-11.4534
_wasted	-11.4537
_sus	-11.4537
_rico	-11.454
_qualifications	-11.4543
_aberdeen	-11.4548
_dissolution	-11.4548
rd	-11.4549
_outstanding	-11.4549
_plunged	-11.455
_pleaded	-11.4552
_breaks	-11.4553
pur	-11.4556
_classic	-11.4557
_ji	-11.4559
ph	-11.4561
_kar	-11.4562
_strata	-11.4563
_rhine	-11.4564
_tabernacle	-11.4564
_stained	-11.4567
red	-11.4567
_dif	-11.4568
_cer	-11.457
ht	-11.4571
_paths	-11.4573
_pasture	-11.4573
_copied	-11.4573
_newcastle	-11.4574
_mitchell	-11.4575
_meadows	-11.4575
_awakened	-11.4575
_kong	-11.4581
_gar	-11.4583
_plymouth	-11.4585
_brooklyn	-11.4585
_severity	-11.4585
ato	-11.4586
_span	-11.4586
_ether	-11.459
_focus	-11.459
_hong	-11.459
one	-11.4591
av	-11.4597
_decorated	-11.4599
_attributes	-11.4602
_dominions	-11.4605
_witch	-11.4605
_boldly	-11.4607
_folio	-11.461
_allegiance	-11.461
_reformers	-11.4612
_panama	-11.4612
_furnishing	-11.4613
_presumption	-11.4614
_lumber	-11.4618
_occupying	-11.4619
_depended	-11.462
_bc	-11.462
_wednesday	-11.4623
_promoting	-11.4623
_reconstruction	-11.4623
_gigantic	-11.4623
_wed	-11.4629
_hinder	-11.4629
_unions	-11.463
_uncommon	-11.4632
_mich	-11.4636
_exeter	-11.4636
_handled	-11.464
_defect	-11.464
_thumb	-11.4641
_substituted	-11.4642
_shades	-11.4646
_captivity	-11.4648
_staircase	-11.4652
_rely	-11.4653
_labors	-11.4653
_packed	-11.4654
_quotations	-11.4654
_casting	-11.4658
_puple	-11.4661
_shaw	-11.4664
_plateau	-11.4665
cha	-11.4667
_historians	-11.4668
_disappear	-11.4669
_patch	-11.4672
_surrey	-11.4673
_levied	-11.4677
gen	-11.4677
_monarchy	-11.4678
_praying	-11.4679
_jacket	-11.4682
_robes	-11.4682
_cane	-11.4683
_tended	-11.4683
_preserving	-11.4686
_crystal	-11.4689
_hindustan	-11.4689
_connecting	-11.4689
_fauna	-11.469
_gladly	-11.4693
ara	-11.4695
_bitterly	-11.4695
_behaviour	-11.4698
_monopoly	-11.4698
_wyoming	-11.4698
_refined	-11.4699
_fools	-11.47
_parishes	-11.4702
_reckoned	-11.4703
_franz	-11.4703
_histories	-11.4709
ric	-11.4711
_plumage	-11.4712
_coverage	-11.4712
_legally	-11.4713
_pamphlets	-11.4715
_swallowed	-11.4715
_homestead	-11.4715
_flee	-11.4717
_castes	-11.4717
tr	-11.4722
_rot	-11.4724
_penn	-11.4725
per	-11.4725
_leaped	-11.4727
_pencil	-11.4728
_decoration	-11.4728
_likeness	-11.4729
_extracted	-11.473
_flashed	-11.473
_jurisprudence	-11.4736
_pursuing	-11.4736
_carpet	-11.4738
_wifes	-11.4738
_swords	-11.4739
_encounter	-11.4745
_haue	-11.4747
_childs	-11.4748
_stricken	-11.4749
_awoke	-11.4749
_permanently	-11.4751
_inward	-11.4756
_reject	-11.4757
_exported	-11.4759
_martha	-11.476
_rub	-11.4764
_contended	-11.4765
_herald	-11.4767
_reformed	-11.4767
_roughly	-11.4773
_photographs	-11.4774
_petroleum	-11.4774
_convert	-11.4777
_madness	-11.4778
_melted	-11.4778
_proving	-11.4778
dy	-11.4782
_youthful	-11.4785
_hows	-11.4785
hill	-11.4787
_lancaster	-11.4787
_analogous	-11.4787
_chimney	-11.479
_expecting	-11.4793
_solicitor	-11.4793
_cured	-11.4795
_crosses	-11.4802
_mandate	-11.4803
_froude	-11.4805
_bald	-11.4805
_jungle	-11.4805
_weighed	-11.4805
_gum	-11.4806
_advocates	-11.4806
_salem	-11.4809
_compassion	-11.481
_breathed	-11.4812
_quot	-11.4814
_shah	-11.4815
_cake	-11.4817
_coil	-11.4818
_supplemental	-11.4818
ap	-11.4819
_allusion	-11.482
_laden	-11.4824
our	-11.4828
_cope	-11.4829
_sober	-11.4835
_affectionate	-11.4835
ene	-11.4847
_commence	-11.485
_drainage	-11.4851
_testified	-11.4851
_diem	-11.4852
_awe	-11.4853
_twisted	-11.4853
_devote	-11.4854
_correspond	-11.4854
_greet	-11.4856
cher	-11.4858
_unfair	-11.4859
_chart	-11.4862
_concord	-11.4865
_marys	-11.4875
_tomorrow	-11.4876
_eliot	-11.4878
_bis	-11.4879
_heath	-11.4881
_spectacle	-11.4882
_simultaneously	-11.489
_dearest	-11.4897
_renders	-11.49
_issuing	-11.4902
_flushed	-11.4905
_terminated	-11.4907
_insect	-11.4911
ih	-11.4911
_trains	-11.4912
_models	-11.4914
_treating	-11.4914
_expanded	-11.4918
nus	-11.4921
_accurately	-11.4921
_statues	-11.4922
_nan	-11.4923
_bohemian	-11.4925
_bal	-11.4927
_variant	-11.4934
_withdrawal	-11.4934
_token	-11.4936
_marvellous	-11.4937
_medicinal	-11.4941
_conventions	-11.4942
_didn	-11.4943
_devised	-11.4944
_requests	-11.4945
_grandmother	-11.4946
_crawford	-11.4953
_librarian	-11.4953
_aims	-11.4954
_psychological	-11.4955
ari	-11.4955
_indirectly	-11.4956
_chancery	-11.4956
_porch	-11.4956
_jest	-11.4957
_component	-11.4959
_conservative	-11.4959
_sway	-11.496
_testing	-11.4961
_centers	-11.4961
_consumer	-11.4963
_americas	-11.4964
ery	-11.4967
_dent	-11.4967
_exalted	-11.4968
ut	-11.4971
_contented	-11.4971
_associates	-11.4976
_confident	-11.4976
_charleston	-11.4977
_situations	-11.4979
_southwest	-11.498
_tops	-11.498
_replace	-11.498
_empress	-11.498
_destroying	-11.498
_ally	-11.4981
_eugene	-11.4981
_superiority	-11.4981
_stability	-11.4984
_indication	-11.4985
_insufficient	-11.4989
_ode	-11.4993
_makers	-11.4995
_fewer	-11.4996
ei	-11.4999
_independently	-11.5
_boast	-11.5001
_arrows	-11.5003
_joys	-11.5003
_melbourne	-11.5005
_terrace	-11.5007
stone	-11.5007
ence	-11.501
_characterized	-11.501
_mouse	-11.5013
_channels	-11.5015
_inherent	-11.5015
tic	-11.502
_varies	-11.5021
_fare	-11.5022
_presenting	-11.5023
_argue	-11.5027
_cares	-11.5029
_autonomous	-11.5031
_contemplation	-11.5031
_stirring	-11.5032
_vis	-11.5032
_detained	-11.5034
_allows	-11.5036
_turner	-11.5037
ill	-11.5037
ique	-11.5038
_chamberlain	-11.5039
gan	-11.5041
ily	-11.5043
_tooth	-11.5043
_coasts	-11.5043
_entertain	-11.5043
_hou	-11.5044
_vie	-11.5044
_residing	-11.5044
_dreamed	-11.5045
_hunters	-11.5046
_psyche	-11.5046
_bailey	-11.5048
_archive	-11.505
_periodical	-11.5052
_barrier	-11.5052
_encouraging	-11.5054
_seals	-11.5056
_supposition	-11.5064
_importation	-11.5065
_cecil	-11.5065
_conclusive	-11.5067
_victorious	-11.5067
_forts	-11.5068
_cavity	-11.5071
af	-11.5072
_dove	-11.5072
_complaints	-11.5074
ments	-11.5075
ds	-11.5076
_fletcher	-11.5077
_quotation	-11.5077
_spoil	-11.5079
_antiquities	-11.5084
_define	-11.5086
_finite	-11.5086
_pip	-11.5087
_presbyterian	-11.509
ex	-11.5092
_owl	-11.5092
_pm	-11.5095
_courtesy	-11.5097
_vtt	-11.51
_variable	-11.5103
_shu	-11.5107
_wreck	-11.5109
_sicily	-11.511
_albany	-11.5111
_fatigue	-11.5111
_ble	-11.5112
bar	-11.5113
_netherlands	-11.5114
iv	-11.5115
_vincent	-11.5117
_goose	-11.5117
_shrine	-11.5117
can	-11.5119
_calmly	-11.512
_posted	-11.5122
_gu	-11.5122
_astronomy	-11.5123
_birmingham	-11.5123
_exciting	-11.5123
_pierced	-11.5128
_wires	-11.513
ira	-11.5131
uz	-11.5136
_pockets	-11.5136
_availability	-11.5136
_rebel	-11.5137
_terminate	-11.5138
_easter	-11.5141
_accepting	-11.5145
_deserves	-11.5146
_abolition	-11.5149
_minerals	-11.5149
_accessible	-11.515
osa	-11.5151
_readiness	-11.5151
_bass	-11.5151
_popularity	-11.5154
_canals	-11.5156
_dave	-11.5157
_perpendicular	-11.5159
_cm	-11.516
_sioux	-11.5163
_magazines	-11.5164
_hume	-11.5166
_corrections	-11.5168
_monkey	-11.5168
_spy	-11.517
_violently	-11.5173
_cursed	-11.5174
_tenants	-11.5175
_ronald	-11.5176
_sprung	-11.5176
_pearls	-11.5179
_reservoir	-11.5183
_depression	-11.5183
_sentenced	-11.5183
_hawaii	-11.5184
_transparent	-11.5189
_vacancy	-11.5189
_dividing	-11.5189
_propriety	-11.5189
_explains	-11.5189
_stevens	-11.5195
_ashore	-11.5198
_prompt	-11.5198
_fortnight	-11.5199
_marion	-11.52
_skies	-11.5203
_neighbor	-11.5205
ces	-11.5205
_betrayed	-11.5206
_swell	-11.521
_unwilling	-11.5211
lv	-11.5213
_struggling	-11.5215
_framed	-11.5217
_cousins	-11.5217
_faded	-11.522
_dai	-11.522
_deficit	-11.5223
_gonzales	-11.5229
_uncertainty	-11.5229
_ware	-11.523
_disturb	-11.5232
ui	-11.5235
_corp	-11.5235
_enjoying	-11.5237
_pursuits	-11.5239
_infer	-11.5242
_dorothy	-11.5242
_vigour	-11.5242
_beam	-11.5244
house	-11.5244
_forbid	-11.5252
_lighter	-11.5254
_fancied	-11.5255
_resemble	-11.5257
head	-11.5259
_skilled	-11.5259
_nm	-11.5261
ably	-11.5263
_stanza	-11.5264
_winters	-11.5264
worth	-11.5267
_expensive	-11.5269
_montana	-11.5269
_virtuous	-11.5269
_worldly	-11.5271
_cox	-11.5271
_aboard	-11.5273
_entertainment	-11.5276
_schemes	-11.5277
_eloquent	-11.5279
_drum	-11.5279
_temporarily	-11.5282
_ambitious	-11.5282
_frequency	-11.5282
_pollution	-11.5282
iz	-11.5284
_selfish	-11.5284
_hoping	-11.5285
_provisional	-11.5286
_troop	-11.5287
_highness	-11.5288
_rider	-11.5288
_consequent	-11.529
_operator	-11.529
_solemnly	-11.529
_josie	-11.5291
_tents	-11.5291
_amusing	-11.5292
_barely	-11.5294
_dedication	-11.5295
_offended	-11.5299
_lifetime	-11.53
_dc	-11.5303
_migration	-11.5303
_repetition	-11.5303
_emerson	-11.5304
_brooks	-11.5305
_beautifully	-11.5306
_ail	-11.5306
_combinations	-11.5309
_violating	-11.5309
_extensively	-11.5309
_heartily	-11.5312
_nesting	-11.5314
_therefrom	-11.5315
_eminence	-11.5316
_kirk	-11.5318
_locks	-11.5318
_pulling	-11.532
_claimant	-11.532
_baldwin	-11.5322
_heed	-11.5323
_counting	-11.5327
ag	-11.5327
_ale	-11.5328
_allotments	-11.5332
_mammals	-11.5335
_simpson	-11.5336
_glimpse	-11.5338
_revived	-11.5338
_deserved	-11.5342
_humor	-11.5345
_oval	-11.5345
_brig	-11.5346
_ballads	-11.5347
_searched	-11.5348
_nee	-11.5349
_mobile	-11.5349
_detention	-11.535
_lou	-11.535
_tempted	-11.5352
ations	-11.5354
_subsections	-11.5354
_mystic	-11.5356
_detective	-11.5357
_regardless	-11.5357
_correspondent	-11.5358
_adverse	-11.5359
_vault	-11.5362
_contra	-11.5362
_shoe	-11.5364
fo	-11.5364
_alternate	-11.5368
_sends	-11.5368
_glowing	-11.5369
_accidents	-11.537
_fable	-11.5371
_lighting	-11.5374
_constantine	-11.5375
_suicide	-11.5376
_measuring	-11.5376
_commentary	-11.5376
_commune	-11.5378
_rum	-11.5379
_shaken	-11.5383
_pastoral	-11.5384
_echo	-11.5386
_decade	-11.5386
_aviation	-11.539
_mall	-11.539
_ome	-11.5397
_dismiss	-11.5398
_messages	-11.5398
_finely	-11.5402
_halted	-11.5409
_foes	-11.5412
_fork	-11.5412
_memorandum	-11.5416
_fidelity	-11.5417
_feather	-11.542
_ascending	-11.542
han	-11.5421
_stove	-11.5424
_praised	-11.5427
_intervention	-11.543
_enrolled	-11.5431
_geneva	-11.5431
_laborers	-11.5433
_alluded	-11.5434
_inscribed	-11.5437
_od	-11.5437
_sche	-11.544
_decidedly	-11.5441
_fleischer	-11.5444
_weston	-11.5448
_storms	-11.5448
_lungs	-11.545
_administer	-11.5457
_manufacturers	-11.5458
_appointments	-11.5461
_idols	-11.5462
_mg	-11.5464
_pairs	-11.5464
_dic	-11.5467
_sauce	-11.5469
_nails	-11.547
_draws	-11.5471
lier	-11.5473
_illustrate	-11.5475
_camps	-11.5477
_lateral	-11.5479
_correction	-11.5482
_swallow	-11.5485
_assyrian	-11.5485
_sails	-11.5489
_modify	-11.5494
_appearances	-11.5498
_solar	-11.5498
_donald	-11.5498
_litigation	-11.5498
bot	-11.5499
_patriarch	-11.5499
_cornish	-11.55
_concentrated	-11.55
_bundle	-11.5502
_disclosed	-11.5502
_apples	-11.5505
ob	-11.5508
ward	-11.5516
_finer	-11.5518
_ditch	-11.5518
_popes	-11.5518
_conventional	-11.5519
_inadequate	-11.5522
_frankly	-11.5523
_holders	-11.5525
_exterior	-11.5526
_superseded	-11.5527
_reproduced	-11.5528
mans	-11.553
_explaining	-11.5531
_vest	-11.5532
_coffin	-11.5534
cus	-11.5535
_incredible	-11.5539
_crazy	-11.5539
_immigrants	-11.5543
_ud	-11.5547
_excite	-11.5548
_disturbance	-11.5548
_rec	-11.5548
_tub	-11.5549
_unsuccessful	-11.555
_behavior	-11.5552
_subdued	-11.5555
lon	-11.5555
_stress	-11.5558
_gaul	-11.5562
_loudly	-11.5563
uit	-11.5563
_beneficial	-11.5563
_een	-11.5564
_recognise	-11.557
_canton	-11.5572
_ame	-11.5574
_abundantly	-11.5576
_furious	-11.5577
_hughes	-11.5579
_wis	-11.5579
_cage	-11.5581
_champion	-11.5585
_speculation	-11.5589
_outbreak	-11.5594
_henceforth	-11.5594
_seeming	-11.5598
_agrees	-11.5602
_licence	-11.5604
_traders	-11.5604
_cigar	-11.5607
_gandhi	-11.5607
_exchequer	-11.5608
_criteria	-11.5608
_sind	-11.5612
_murderer	-11.5613
_poe	-11.5613
_barrel	-11.5613
_worry	-11.5617
_courthouse	-11.5619
_choir	-11.562
gh	-11.562
_chronicles	-11.5621
_sacrificed	-11.5623
_terminal	-11.5624
_trembled	-11.5626
_attribute	-11.5626
_projected	-11.5632
_earls	-11.5633
_array	-11.5633
_reptiles	-11.5634
_perry	-11.5634
_nathaniel	-11.5636
_freed	-11.5639
_protested	-11.5644
_steamers	-11.5646
_patriotic	-11.5647
_lecturer	-11.5647
_yielding	-11.5649
_offspring	-11.565
_desiring	-11.565
_forthwith	-11.565
_disputed	-11.5651
_stake	-11.5651
_pagan	-11.5652
_violated	-11.5654
_brandy	-11.5654
_idol	-11.5656
inus	-11.566
_ren	-11.566
_tending	-11.5661
_tive	-11.5661
_embassy	-11.5663
_diamonds	-11.5667
_heresy	-11.5669
_renew	-11.5672
_sierra	-11.5673
_unpleasant	-11.5673
_bits	-11.5675
_murmur	-11.5675
_julian	-11.5678
_sensations	-11.5679
_bags	-11.5687
_chald	-11.5688
_gabriel	-11.569
_tyranny	-11.5691
_liberties	-11.5691
_linnean	-11.5691
_anterior	-11.5691
_electoral	-11.5694
_peer	-11.5697
_glacier	-11.5701
_fra	-11.5701
_earldom	-11.5702
_jump	-11.5704
_professed	-11.5705
_supremacy	-11.5705
_voluntarily	-11.5705
vo	-11.5707
_manhood	-11.5709
_materially	-11.5714
_leap	-11.5719
_analogy	-11.5719
_amiable	-11.5719
_programme	-11.5722
_derby	-11.5724
_centres	-11.5726
_walla	-11.5728
_egyptians	-11.5729
ings	-11.5729
_wheeler	-11.5729
_funny	-11.5733
_kluge	-11.5734
_honorary	-11.5734
_recording	-11.5735
_asiatic	-11.5737
_opens	-11.5739
_jam	-11.5739
_unclean	-11.5739
_thames	-11.574
_allan	-11.5744
_montreal	-11.5747
_promising	-11.5747
_accumulated	-11.5748
uf	-11.575
_conjecture	-11.5752
_concept	-11.5753
ean	-11.5753
_cen	-11.5754
_ag	-11.5757
_annie	-11.5758
_violations	-11.5759
_demon	-11.576
_freeman	-11.576
_laura	-11.5763
_tread	-11.5765
_clearing	-11.5766
po	-11.5767
_impatient	-11.5772
_mouths	-11.5777
_gould	-11.5778
chi	-11.5778
_hearth	-11.5778
books	-11.578
war	-11.5782
_tra	-11.5785
_physics	-11.5785
_julia	-11.5788
_muscular	-11.5789
_secretaries	-11.5789
hall	-11.5791
_gloves	-11.5794
cc	-11.5796
_footsteps	-11.5796
_dialogue	-11.5799
_lowered	-11.5801
_merciful	-11.5801
_tat	-11.5802
_ordinarily	-11.5803
_jolly	-11.5803
_trent	-11.5804
_tubes	-11.5805
_soda	-11.5809
ran	-11.581
_postmaster	-11.5814
_fearing	-11.5818
_animated	-11.5819
_piano	-11.582
_positively	-11.5826
_whit	-11.5827
_alterations	-11.5829
_reminiscences	-11.583
_sack	-11.5831
_charlie	-11.5834
_metallic	-11.5838
_sweeping	-11.5838
_exhibits	-11.584
_hedge	-11.5841
_reforms	-11.5843
_network	-11.5843
_statistical	-11.5845
_hun	-11.5845
_pillars	-11.5848
_decent	-11.5849
gi	-11.5853
_sadly	-11.5859
_embodied	-11.5859
_zoology	-11.586
_austin	-11.586
end	-11.5862
_attendants	-11.5863
_inventor	-11.5868
_hangs	-11.5868
_classics	-11.587
iy	-11.5871
_slew	-11.5877
_successively	-11.588
_jerry	-11.5888
_resembles	-11.5894
_dresses	-11.5894
_ascent	-11.5896
lia	-11.5896
_brains	-11.5897
_computer	-11.5899
_pier	-11.5901
_apportionment	-11.5902
ett	-11.5903
_cooked	-11.5907
_stocks	-11.5908
_ture	-11.5911
_shift	-11.5911
_franchise	-11.5913
_deduction	-11.5913
_attract	-11.5914
_recollections	-11.5916
_contemporaries	-11.5916
_hereinafter	-11.5916
nia	-11.5916
_oppressed	-11.5918
_xl	-11.5924
_motionless	-11.5926
_forfeiture	-11.5927
_dodge	-11.5929
_attraction	-11.593
ice	-11.593
_carriages	-11.593
_ratified	-11.5931
_expired	-11.5933
_sem	-11.5939
_earn	-11.5941
_reimbursement	-11.5942
_denying	-11.5944
ros	-11.5945
_infancy	-11.5945
_dar	-11.5945
_buying	-11.5946
_bottles	-11.5949
dale	-11.5951
_isles	-11.5951
_emand	-11.5952
_substantive	-11.5956
je	-11.5957
_connect	-11.5959
_indicating	-11.5959
_swimming	-11.5959
_yonder	-11.596
_catching	-11.596
_deprive	-11.5965
_colonists	-11.5965
_organisation	-11.597
_ticket	-11.5971
_biblical	-11.5974
_patriotism	-11.5974
_pirates	-11.5976
_contend	-11.5976
_earnings	-11.5978
_esther	-11.5978
_hesitate	-11.598
_desolate	-11.5982
_savages	-11.5984
_accidental	-11.5984
_imaginary	-11.5988
_regent	-11.599
_ze	-11.599
_johnny	-11.5991
_insured	-11.5993
_grades	-11.5994
_wander	-11.5994
_presume	-11.5997
_lays	-11.5999
_marching	-11.6001
_vermont	-11.6002
_letterpress	-11.6002
_worshipped	-11.6002
_peculiarities	-11.6003
_hospitality	-11.6004
_richly	-11.6005
_tests	-11.6005
_integral	-11.6014
_attendant	-11.6014
_git	-11.6015
_imply	-11.6015
_renaissance	-11.6016
_humility	-11.6016
_charities	-11.6017
_temperate	-11.602
_cuba	-11.6021
_oon	-11.6021
_expresses	-11.6023
_balanced	-11.6025
_omission	-11.6029
_destitute	-11.6031
_volcanic	-11.6031
_hairs	-11.6031
_reducing	-11.6031
_robbed	-11.6032
_deacon	-11.6036
_drag	-11.6037
_slate	-11.604
_respond	-11.604
_comprehend	-11.604
_pall	-11.6042
_elsie	-11.6043
_pillar	-11.6045
_delayed	-11.6045
_hydrogen	-11.6046
_pierce	-11.6049
_racial	-11.6049
_pirate	-11.605
_libel	-11.6053
_dioc	-11.6055
pr	-11.6056
ax	-11.6056
_oppression	-11.6057
_conqueror	-11.6057
_hamlet	-11.6059
_sincerity	-11.606
_foliage	-11.606
_ethel	-11.6063
ux	-11.6063
_pitt	-11.6063
_barley	-11.6064
_shouting	-11.6066
_pots	-11.6069
iness	-11.6073
_multi	-11.6079
_abide	-11.608
_hearty	-11.608
fc	-11.6083
_favoured	-11.6084
ese	-11.6086
_feminine	-11.6089
_licensed	-11.6089
_horseback	-11.6089
ani	-11.6091
_mistakes	-11.6091
_lbs	-11.6092
_ufe	-11.6095
_shapes	-11.6095
_stored	-11.6095
_option	-11.6096
_sweetness	-11.6097
ile	-11.6097
_meals	-11.61
_smiles	-11.6104
_initiated	-11.6105
_editing	-11.6105
_attach	-11.6107
_distances	-11.6108
car	-11.6109
yl	-11.6111
_papa	-11.6111
_calvin	-11.6115
_dip	-11.6117
iana	-11.6118
_southeast	-11.6118
_feudal	-11.6119
_rapidity	-11.6119
_dashed	-11.6122
_orbit	-11.6124
_appreciated	-11.6124
_rains	-11.6129
_reproduction	-11.613
_idaho	-11.6132
_ordinances	-11.6139
_mechanics	-11.6141
_myth	-11.6142
_sector	-11.6146
_strategy	-11.6147
_repentance	-11.6147
_iran	-11.6148
_hooch	-11.6153
_tragic	-11.6154
_rag	-11.6155
_formally	-11.6163
_hideous	-11.6165
_assign	-11.6168
_injurious	-11.6173
_zarathustra	-11.6176
rus	-11.6181
ees	-11.6183
_hanged	-11.6186
_affidavit	-11.6188
_orator	-11.619
_internet	-11.6191
_dome	-11.6191
_partners	-11.6197
_apollo	-11.62
_fellowship	-11.6205
ability	-11.6205
_dropping	-11.6206
_hastings	-11.6206
_rabbit	-11.6206
_vt	-11.6207
_thingis	-11.6207
_levi	-11.6208
_hannah	-11.6208
_complexion	-11.6209
_tenure	-11.6212
_reviewed	-11.6214
_sexes	-11.6217
_schooner	-11.6218
_bedroom	-11.6218
_concluding	-11.622
_pars	-11.6221
_readings	-11.6224
_admire	-11.6227
_decrease	-11.6228
_panic	-11.623
_pilgrims	-11.6231
_zealous	-11.6232
_therewith	-11.6233
_sports	-11.6234
_vivekananda	-11.6234
_achievements	-11.6235
_berry	-11.6239
_morton	-11.6239
_statesmans	-11.6242
_bus	-11.6243
_notification	-11.6244
_core	-11.6244
_dirt	-11.6245
har	-11.6247
_diligence	-11.6249
_embracing	-11.6249
_swore	-11.6249
_robin	-11.6249
_flowed	-11.625
out	-11.625
_weighing	-11.6253
lan	-11.6254
_jun	-11.6256
_rim	-11.6256
_chill	-11.6256
_stamped	-11.6261
_honors	-11.6263
_longitude	-11.6264
_flanders	-11.6264
_surroundings	-11.6264
_unnatural	-11.6264
_backed	-11.6264
_dash	-11.6267
_amused	-11.6267
_presumed	-11.6269
_cycle	-11.6273
_effectively	-11.6274
_footing	-11.6276
_tab	-11.6277
_announcement	-11.6277
_aids	-11.6278
_multiplied	-11.6279
_settling	-11.6279
_plum	-11.628
_judging	-11.628
_welcomed	-11.6281
_disgust	-11.6282
_helena	-11.6282
_exceeds	-11.6285
_yacht	-11.6288
_lyons	-11.6289
_clauses	-11.629
_obstacles	-11.6293
_fre	-11.6297
tar	-11.6303
_button	-11.6305
_authentic	-11.6306
_subscription	-11.6307
_fossil	-11.6307
_hobbema	-11.6308
_eleanor	-11.6309
_gn	-11.6309
_insight	-11.631
_beliefs	-11.631
_spark	-11.6311
_alphabet	-11.6311
_kick	-11.6312
_deals	-11.6317
_entre	-11.6319
_accorded	-11.6319
_equation	-11.6321
_competitive	-11.6322
_ladder	-11.6323
_multiple	-11.6325
_natal	-11.6325
_outcome	-11.6326
_prints	-11.6327
_protective	-11.6327
_vale	-11.6331
ram	-11.6331
_eft	-11.6332
_anguish	-11.6334
_instruct	-11.6334
_anonymous	-11.6335
_earthquake	-11.6336
_ceylon	-11.6338
_unseen	-11.6338
_patronage	-11.6339
_plantation	-11.6339
_philippines	-11.634
_detected	-11.6341
_conceptions	-11.6341
_favored	-11.6344
_shepherds	-11.6345
_canoes	-11.6345
_wagons	-11.6346
_uni	-11.6346
_lifting	-11.6346
_sap	-11.6348
_ven	-11.635
_tc	-11.6353
_bibliographies	-11.6356
_prohibit	-11.6357
_peers	-11.6359
_concert	-11.636
_peaks	-11.636
_fowl	-11.636
uk	-11.6364
ye	-11.6366
_applause	-11.6368
_posterity	-11.6368
_alpine	-11.6368
like	-11.637
ale	-11.637
_hum	-11.6371
_assistants	-11.6372
_wil	-11.6372
_bending	-11.6373
_lh	-11.6375
_subpart	-11.6378
_claiming	-11.638
_techniques	-11.638
_discourses	-11.6383
_delhi	-11.6385
_kd	-11.6387
ov	-11.6387
_aye	-11.6388
_plunder	-11.6388
_flank	-11.6388
_organize	-11.6391
_lawfully	-11.6392
_dickens	-11.6396
_misdemeanor	-11.6396
_rue	-11.6396
_cement	-11.64
_frenchman	-11.6401
_pleas	-11.6407
_collapse	-11.6407
_shew	-11.6407
_sofa	-11.6407
_endured	-11.6409
eus	-11.6409
_dignified	-11.6412
_immunity	-11.6412
_ges	-11.6413
_owes	-11.6413
_trousers	-11.6414
_demonstrate	-11.6421
_routes	-11.6424
_metres	-11.6425
_ibn	-11.6426
_opposing	-11.6427
_robbery	-11.6429
_singh	-11.6433
_strings	-11.6434
_grasses	-11.6434
_vent	-11.6435
_excepted	-11.6437
_tlie	-11.6438
uc	-11.6438
gn	-11.6439
_rachel	-11.6443
_frightful	-11.6443
_ence	-11.6445
_stamps	-11.6448
_sally	-11.645
_herds	-11.6453
pl	-11.6462
_cod	-11.6462
_refrain	-11.6464
_bh	-11.6464
_nn	-11.6469
ets	-11.647
_tempest	-11.6472
_malice	-11.6473
_theyll	-11.6475
_yen	-11.6477
wick	-11.6477
_religions	-11.6478
tl	-11.6483
_celebration	-11.6487
_planets	-11.6487
_homage	-11.6488
_yoke	-11.6493
_ancients	-11.6494
_gravely	-11.6498
_challenged	-11.6498
_carr	-11.65
_automobile	-11.6502
_recognizing	-11.6502
_trifling	-11.6503
_expelled	-11.6503
_harder	-11.6503
_boss	-11.6505
_sw	-11.6509
_exceeded	-11.6509
_conquer	-11.651
_unequal	-11.6514
_theologiae	-11.6518
_spaces	-11.6519
_longed	-11.6521
_levites	-11.6525
_cone	-11.6527
_sara	-11.6528
_shelf	-11.6532
_allotted	-11.6533
_reddish	-11.6533
_automatically	-11.6533
_emerged	-11.6535
_pilate	-11.6535
_barred	-11.6538
_weigh	-11.6541
_remind	-11.6543
cn	-11.6547
_consolation	-11.6547
_occupations	-11.6547
_ezra	-11.6551
_fain	-11.6552
_heating	-11.6553
_boot	-11.6555
_imp	-11.6557
_adults	-11.6558
_peel	-11.6558
_topic	-11.6558
_costly	-11.6558
_cicero	-11.6559
_ambassadors	-11.656
_trifle	-11.6561
ther	-11.6562
_ru	-11.6563
_dominant	-11.6563
_derive	-11.6564
ions	-11.6566
rin	-11.6566
_healing	-11.6567
_furthermore	-11.6567
_russians	-11.6568
_despised	-11.6568
_coats	-11.657
_punch	-11.6573
_printers	-11.6577
_convictions	-11.6578
_raymond	-11.6578
_uniformity	-11.6579
_awaiting	-11.6582
eh	-11.6584
tz	-11.6584
_magnetic	-11.6585
_resisted	-11.6587
_java	-11.6588
dr	-11.6592
_accommodation	-11.6593
_arbitration	-11.6593
_graphic	-11.6596
gr	-11.6598
_doc	-11.66
_pottery	-11.66
_transported	-11.6601
_vn	-11.6606
_explanations	-11.6606
_disagreeable	-11.6609
_lame	-11.661
_expectations	-11.661
_hosts	-11.6611
sk	-11.6612
_bom	-11.6613
_vir	-11.6615
_leonard	-11.6616
ges	-11.6617
_lid	-11.6619
_widows	-11.662
_hostility	-11.6624
_descendant	-11.6624
_psalm	-11.6625
_prague	-11.6625
_afflicted	-11.6625
_devon	-11.6625
_lava	-11.6629
_prejudices	-11.663
_sued	-11.6636
_luther	-11.6637
_versions	-11.6637
_quaint	-11.6638
_auckland	-11.6639
_sterling	-11.6639
_babies	-11.6639
_replacement	-11.664
_mare	-11.664
_withhold	-11.6641
_proclamations	-11.6642
_beams	-11.6643
_prussian	-11.6644
_mur	-11.6644
_pence	-11.6651
_rewarded	-11.6654
_swiss	-11.6655
_orderly	-11.6657
_staying	-11.6657
_shipped	-11.6657
_warn	-11.6657
_ov	-11.6659
_bail	-11.6659
_fortifications	-11.666
_duel	-11.6662
_salts	-11.6664
_sympathetic	-11.667
_confederation	-11.667
_compulsory	-11.667
_baggage	-11.667
_advertisement	-11.667
_stafford	-11.667
_supplementary	-11.667
nan	-11.6671
_waved	-11.6672
_forfeited	-11.6673
_morn	-11.6675
_exertions	-11.6676
_actor	-11.6676
_suc	-11.6677
_practise	-11.6681
ick	-11.6682
_antioch	-11.6684
_wan	-11.6684
_portsmouth	-11.6685
ides	-11.6685
_skirt	-11.6693
_dishes	-11.6693
_ambrose	-11.6701
_omnibus	-11.6701
_maturity	-11.6701
_spotted	-11.6703
_borrow	-11.6704
_gains	-11.6705
_shy	-11.6708
_farming	-11.6709
_actively	-11.6714
_honesty	-11.6714
_admits	-11.6715
_underlying	-11.6716
_burke	-11.6716
bus	-11.6718
_fulfil	-11.6719
_traversed	-11.672
_rhode	-11.6722
ru	-11.6726
_indefinite	-11.6727
_possibilities	-11.6732
tio	-11.6734
_vera	-11.6735
_sed	-11.6742
_depending	-11.6744
_deceive	-11.6746
_gambling	-11.6747
_neighboring	-11.6752
_testify	-11.6758
_doom	-11.676
_convince	-11.6761
_representations	-11.6762
_coordination	-11.6763
_regulating	-11.6763
_clifford	-11.6763
_engraving	-11.6763
_univ	-11.6763
_dealers	-11.6763
_lily	-11.6767
_gerard	-11.6768
_click	-11.6775
_sample	-11.678
_bulletin	-11.678
_knot	-11.678
_stately	-11.6782
_epic	-11.6785
_tha	-11.6785
_arches	-11.6786
_bases	-11.6786
_bp	-11.6788
_predecessors	-11.679
_cigarette	-11.6794
_tyrant	-11.6794
_transformed	-11.6795
_online	-11.6797
_supplying	-11.6797
mont	-11.68
_betray	-11.68
_pushing	-11.68
_ole	-11.68
_arid	-11.6801
_blossoms	-11.6803
_pie	-11.6805
_ascend	-11.6805
_strive	-11.6806
_pines	-11.6807
_captives	-11.6808
_await	-11.6809
_uneasy	-11.6809
_tendencies	-11.6809
_compounds	-11.681
_elbow	-11.681
_earths	-11.6811
_angelo	-11.6813
_discussing	-11.6813
_comprises	-11.6817
_oaths	-11.6818
_caves	-11.6818
_objectives	-11.6819
_oven	-11.6819
_barbarous	-11.6821
_mantle	-11.6822
_scent	-11.6825
_creative	-11.6825
_canons	-11.6825
_sylvia	-11.6826
_dispersed	-11.6826
_scanty	-11.6826
als	-11.6833
_indications	-11.6833
_components	-11.6833
_erie	-11.6833
_corresponds	-11.6834
_whig	-11.6838
pi	-11.684
_standpoint	-11.6841
_lark	-11.6841
_mules	-11.6842
_thoughtful	-11.6844
_confessions	-11.6844
_parks	-11.6845
_cortes	-11.6846
_sharing	-11.6846
_slay	-11.6848
_plead	-11.6852
_moscow	-11.6856
_refutation	-11.6856
_moisture	-11.6856
_isabel	-11.6857
_obstacle	-11.6857
_lodging	-11.6857
_indulgence	-11.6857
_hats	-11.6857
_marcus	-11.6858
_contrived	-11.6858
_nancy	-11.6859
_founders	-11.6862
_repeating	-11.6866
_convict	-11.6867
_amounting	-11.6867
_johnston	-11.6871
_afghanistan	-11.6871
_heresies	-11.6872
_mit	-11.6879
_protestants	-11.6879
ada	-11.6882
_handful	-11.6885
_especial	-11.6885
_retiring	-11.6887
_elijah	-11.6887
_curtis	-11.6889
_fc	-11.689
_wickedness	-11.689
_swine	-11.6891
_swim	-11.6891
_lowell	-11.6891
_patches	-11.6892
_pulse	-11.6894
_emthe	-11.6896
_shire	-11.6896
_sinners	-11.6897
_miners	-11.6898
_jesuit	-11.6898
_wal	-11.6899
_honored	-11.6903
_acquiring	-11.6903
_pouring	-11.6905
_signifies	-11.6907
_fantastic	-11.6908
_phases	-11.6908
_bargaining	-11.6909
_stretching	-11.6909
_parcels	-11.6912
_skilful	-11.6916
_taxed	-11.6916
_temperament	-11.6917
_appellate	-11.6919
_jamaica	-11.6919
_recourse	-11.6919
_sunny	-11.6921
_gaining	-11.6923
_asserts	-11.6924
_gleam	-11.6927
_pose	-11.693
_graduate	-11.693
_jade	-11.6932
_condemn	-11.6932
_exercising	-11.6934
_customers	-11.6935
_rubbed	-11.6935
_camera	-11.6936
_confounded	-11.6936
_harmless	-11.6944
_disguise	-11.6946
_posterior	-11.6947
_reorganization	-11.695
_detroit	-11.695
_chess	-11.695
_hartford	-11.6951
_crag	-11.6952
_reared	-11.6953
_wrist	-11.6953
_calld	-11.6953
_dem	-11.6955
_lump	-11.6959
_orphan	-11.6959
_faintly	-11.696
_celebrate	-11.6962
_domesday	-11.6966
_harrington	-11.6967
_contradiction	-11.6967
_za	-11.6969
_marketing	-11.6971
_notably	-11.6975
_denotes	-11.6977
_intelligible	-11.6982
_defiance	-11.6982
ida	-11.6983
gy	-11.6985
_countless	-11.6985
_founding	-11.6986
oe	-11.6989
_qv	-11.6992
_straits	-11.6994
_benedict	-11.6996
_processing	-11.6996
_willow	-11.6996
_amazement	-11.6998
_persistent	-11.6999
_pavement	-11.6999
_wholesome	-11.6999
_rh	-11.7001
_realised	-11.7004
_wholesale	-11.7005
_ala	-11.7005
_suspicious	-11.701
_richardson	-11.7013
_mutiny	-11.7013
_distinctive	-11.7015
_tem	-11.7016
_meditation	-11.7017
_clara	-11.7018
_georges	-11.702
_pigs	-11.702
_hound	-11.7022
_traveled	-11.7022
fu	-11.7028
_godfrey	-11.703
_virtually	-11.703
_envoy	-11.7031
_crowds	-11.7032
_brute	-11.7036
ln	-11.7037
og	-11.7039
lu	-11.7042
_hyde	-11.7042
_lemon	-11.7043
_treachery	-11.7045
_excluding	-11.7045
_musicians	-11.7048
_parole	-11.7049
eo	-11.7051
_halls	-11.7053
_suspend	-11.7054
_bin	-11.7055
_jay	-11.7058
_supports	-11.7058
las	-11.7059
_commanders	-11.7059
_financing	-11.7061
_reliable	-11.7061
_jobs	-11.7062
_jud	-11.7062
_underneath	-11.7062
_creditor	-11.7063
_macmillan	-11.7063
_altitude	-11.7063
sville	-11.7065
_faster	-11.7071
_folds	-11.7071
_birch	-11.7072
_mould	-11.7072
_assumes	-11.7073
_abound	-11.7075
_nominal	-11.7076
_serv	-11.7077
_cellpadding	-11.7077
_transmit	-11.7079
_lloyd	-11.7079
_pulpit	-11.708
_bitterness	-11.7081
_swami	-11.7086
_screw	-11.7087
eb	-11.7087
_fibres	-11.7088
_rifles	-11.7088
_splendour	-11.7093
_revolving	-11.7094
_ballad	-11.7094
_exaggerated	-11.7094
_sandstone	-11.7096
_nuts	-11.71
_deepest	-11.7101
_chs	-11.7104
uch	-11.7106
_stockholders	-11.7108
_carlyle	-11.7109
_speculative	-11.7109
_complied	-11.711
_banished	-11.7111
_draught	-11.7112
_throws	-11.7112
_purchasers	-11.7113
gl	-11.7115
_prima	-11.7117
_della	-11.7117
_cellar	-11.7118
_fla	-11.7121
_cellspacing	-11.7125
_diverse	-11.7127
_telescope	-11.7129
ud	-11.7131
_deposition	-11.7131
_repre	-11.7133
oa	-11.7135
_conceded	-11.714
_precision	-11.7141
_rochester	-11.7141
_defective	-11.7144
_celtic	-11.7144
_grapes	-11.7146
_offender	-11.7146
_indebtedness	-11.7146
_bite	-11.7147
mm	-11.7147
_nave	-11.7147
_yon	-11.7147
tre	-11.7148
_grip	-11.715
_endeavor	-11.7151
_gases	-11.7153
_nun	-11.7157
_vatican	-11.7158
_dusk	-11.7158
_agitated	-11.7158
_guessed	-11.7159
_palaces	-11.7159
_castles	-11.716
_operative	-11.716
_vernon	-11.716
_poll	-11.7166
_passive	-11.7167
ble	-11.7169
_beggar	-11.717
_pens	-11.7171
_employing	-11.7172
_issuance	-11.7174
_fibrous	-11.7174
_confinement	-11.7174
_collision	-11.7176
_ancestor	-11.7176
_penetrated	-11.7178
_rel	-11.7181
_squire	-11.7182
_targ	-11.7183
_peacock	-11.7183
mu	-11.7183
_shower	-11.7185
_remembering	-11.7188
ip	-11.7188
_ulysses	-11.719
_archibald	-11.719
_cups	-11.719
_barber	-11.7191
_cherished	-11.7192
_buddhist	-11.7199
_expand	-11.72
ano	-11.7201
_legion	-11.7202
_furnishes	-11.7202
_stephens	-11.7202
_pronounce	-11.7203
_energetic	-11.7206
ras	-11.7208
_tain	-11.7208
_snakes	-11.7209
_jose	-11.7211
_alex	-11.7211
_bout	-11.7214
_fabric	-11.722
ub	-11.722
_brutal	-11.722
_elf	-11.7221
_beauties	-11.7222
_reagan	-11.7223
_overlooked	-11.7225
_louisville	-11.7225
_expeditions	-11.7229
_escort	-11.723
_downward	-11.7232
tie	-11.7234
nie	-11.7234
gate	-11.7235
_accent	-11.7238
_puerto	-11.7238
_constituting	-11.7238
_clarence	-11.7238
_immortality	-11.7239
_psalms	-11.724
_indirect	-11.7241
_onward	-11.7242
ette	-11.7251
_gilt	-11.7254
_sanskrit	-11.7255
_terribly	-11.7255
_energies	-11.7255
_pertaining	-11.7256
_camels	-11.7256
_tavern	-11.7257
_incomplete	-11.7257
_incense	-11.7258
mus	-11.7259
_polite	-11.7263
_scribners	-11.7264
_cyrus	-11.7271
_spectators	-11.7272
_stead	-11.7273
_invaded	-11.7273
_ers	-11.7275
_horrid	-11.7277
_swamp	-11.7281
_cuts	-11.7282
_henderson	-11.7287
_sanitary	-11.7287
_jasper	-11.7288
_tex	-11.7289
_grandeur	-11.7289
_munich	-11.7289
_ville	-11.7293
_rivals	-11.7294
_curtains	-11.7297
_anxiously	-11.7301
_combine	-11.7302
_talks	-11.7302
_emerald	-11.7302
_parte	-11.7302
_strategic	-11.7302
_bourgeois	-11.7302
_rental	-11.7303
_solve	-11.7305
_chapman	-11.7305
_orient	-11.7306
_civic	-11.7308
_ln	-11.7308
_barons	-11.7309
_stealing	-11.7311
_rect	-11.7312
_alias	-11.7317
su	-11.7319
_northumberland	-11.732
els	-11.7321
_vile	-11.7323
_webb	-11.7325
_sweat	-11.7326
_rejoiced	-11.7329
_elector	-11.7331
_gem	-11.7332
_balances	-11.7332
_threads	-11.7335
_indemnity	-11.7336
_inevitably	-11.7336
_nucleus	-11.7336
_delicacy	-11.7336
_devonshire	-11.7336
_heretics	-11.7337
_hebrews	-11.7337
_demons	-11.7338
_maintains	-11.7339
_educator	-11.734
_complainant	-11.734
_bud	-11.7341
idae	-11.7343
_lev	-11.7344
_roaring	-11.7344
_nomination	-11.7345
hy	-11.7345
_bunch	-11.7349
_sorrows	-11.7349
_superficial	-11.735
_ivan	-11.735
_sheer	-11.7351
_knox	-11.7353
_pomp	-11.7353
_reserves	-11.7355
_timid	-11.7356
_crooked	-11.7359
ila	-11.7361
_depot	-11.7361
_criminals	-11.7368
_resume	-11.7368
_defensive	-11.7369
_petitions	-11.737
_damned	-11.7374
ban	-11.7379
_cairn	-11.7383
_advertising	-11.7386
_utilities	-11.7386
_stripped	-11.7386
_thanked	-11.7387
_bullet	-11.7392
_mature	-11.7392
_precedent	-11.7392
_oral	-11.7393
_damn	-11.7396
hm	-11.7401
_urging	-11.7403
side	-11.7403
_woke	-11.7409
rv	-11.741
_impress	-11.7412
_vices	-11.7414
_dislike	-11.7418
_birthday	-11.7419
_civilisation	-11.742
_kneeling	-11.7421
_groves	-11.7429
_regime	-11.743
_weights	-11.7433
_piracy	-11.7435
_banquet	-11.7436
_ladys	-11.7437
_tough	-11.7439
_disclosure	-11.7439
_exit	-11.744
_rr	-11.7441
_differently	-11.7444
_poly	-11.7445
ator	-11.745
_touches	-11.7451
_eligibility	-11.7452
_upstairs	-11.7452
_jewel	-11.7452
_violate	-11.7453
_computed	-11.7453
_bondage	-11.7453
ker	-11.7455
_opponent	-11.7456
_examinations	-11.7456
_belle	-11.7459
_arabian	-11.7459
unt	-11.7463
_retaining	-11.7464
_surveyed	-11.7464
_resign	-11.7465
_ig	-11.7465
_struggled	-11.7467
_observatory	-11.7468
_northeast	-11.7469
_framework	-11.7469
_apology	-11.7469
_waving	-11.747
_allotment	-11.7472
_sim	-11.7476
_ation	-11.7477
_grasped	-11.7477
_literal	-11.7478
ona	-11.7481
nconstitutional	-11.7482
_prov	-11.7482
_poisoning	-11.7482
_islam	-11.7484
ren	-11.7485
_warden	-11.7485
_astronomical	-11.7486
_huang	-11.7486
_dreaming	-11.7487
_respectfully	-11.7488
_clung	-11.7488
_inquisition	-11.7489
_predecessor	-11.7489
_constituents	-11.7493
_recollect	-11.7493
_pos	-11.7494
ok	-11.7497
_dukes	-11.7499
_johann	-11.7499
_walt	-11.75
_survive	-11.7502
_felony	-11.7503
_anatomical	-11.7503
_atlas	-11.7505
_fraction	-11.7505
_bona	-11.7506
_surgeons	-11.7511
_tries	-11.7512
_polly	-11.7512
_ropes	-11.7515
_aw	-11.7516
_massacre	-11.7518
_actors	-11.7518
_automatic	-11.7518
_presumably	-11.7518
_reclamation	-11.7519
_impeachment	-11.7519
_youths	-11.7521
_philips	-11.7526
_tal	-11.7527
_barracks	-11.7529
hl	-11.7532
_benevolent	-11.7535
_memorable	-11.7535
_uch	-11.7538
istic	-11.754
_marquess	-11.7541
_chat	-11.7542
_tv	-11.7545
_unusually	-11.7545
len	-11.7546
_jointly	-11.7548
_dairy	-11.7548
_confidential	-11.7549
iti	-11.7551
_carroll	-11.7552
lay	-11.7552
_cakes	-11.7553
_debates	-11.7558
_quo	-11.756
_ces	-11.7565
_banner	-11.7566
_categories	-11.7569
_buckingham	-11.7569
_woven	-11.757
non	-11.7571
_gill	-11.7572
_mule	-11.7572
lg	-11.758
zi	-11.7582
_affirmative	-11.7583
_gerald	-11.7583
_middlesex	-11.7585
_cherry	-11.7586
_bidding	-11.7586
_illuminated	-11.7586
_assisting	-11.7587
_organism	-11.7592
_heel	-11.7594
gs	-11.7594
_projecting	-11.7597
_picking	-11.7598
_clan	-11.7598
_physiological	-11.7599
ensis	-11.7601
_martyrdom	-11.7602
_chri	-11.7606
_wonderfully	-11.7607
_pari	-11.7612
_swing	-11.7612
_zo	-11.7612
_fleming	-11.7616
_triumphant	-11.7617
_graces	-11.7617
_newport	-11.7618
_maad	-11.7618
_google	-11.7619
_engaging	-11.7619
_nathan	-11.762
_ingredients	-11.762
_embarked	-11.7621
_danced	-11.7622
_exerted	-11.7622
_dh	-11.7624
_moist	-11.7624
_imposition	-11.7624
_crack	-11.7624
_upset	-11.7627
_neer	-11.7632
_chronological	-11.7633
iis	-11.7641
_frigate	-11.7641
_tolstoy	-11.7641
_ounces	-11.7644
_mint	-11.765
jo	-11.7656
bert	-11.7657
_melting	-11.7657
_indulge	-11.7661
_aryan	-11.7662
_waa	-11.7662
_inferred	-11.7664
_physically	-11.7665
_candles	-11.7665
dt	-11.7666
_statesmen	-11.7667
sel	-11.7667
_generosity	-11.767
low	-11.7672
_teaches	-11.7675
_gin	-11.768
_spelling	-11.7682
ev	-11.7684
_antwerp	-11.7687
_impatience	-11.7687
_lancashire	-11.7687
_sow	-11.7688
_elapsed	-11.7688
mas	-11.7688
_registers	-11.7689
_ribbon	-11.7692
_ses	-11.7695
_awkward	-11.77
_muse	-11.7701
_indigenous	-11.7704
_advisable	-11.7704
_coral	-11.7705
_waking	-11.7706
_robertson	-11.7706
_pilgrim	-11.7708
_conflicts	-11.7708
_prisons	-11.771
mt	-11.771
_alert	-11.7714
_dial	-11.7718
_anno	-11.7719
_despise	-11.7721
_emancipation	-11.7721
_regulatory	-11.7721
_distilled	-11.7721
ena	-11.7722
_xxx	-11.7723
_fills	-11.7726
_arent	-11.7726
_floated	-11.7727
_sb	-11.7729
_matric	-11.7733
_naturalist	-11.7735
_roosevelt	-11.7738
_routine	-11.7738
_lionel	-11.7739
_denote	-11.7739
_goals	-11.7741
_corridor	-11.7743
_explosion	-11.7743
_davies	-11.7744
_handbook	-11.7745
_bluff	-11.7746
_outset	-11.7747
_tastes	-11.7749
_hereford	-11.7751
_trench	-11.7751
gd	-11.7752
_mortar	-11.7753
_schurz	-11.7755
_cairo	-11.7755
_scandal	-11.7755
_tel	-11.7756
_holt	-11.7757
_haunted	-11.7758
_canning	-11.7758
_bankrupt	-11.776
_skeleton	-11.776
_inventions	-11.7761
_transfers	-11.7762
_brunswick	-11.7772
_insignificant	-11.7772
_introducing	-11.7773
_endowment	-11.7778
_mentally	-11.7779
_bard	-11.7779
_sr	-11.778
rm	-11.7781
_ami	-11.7782
_poisons	-11.7787
_confine	-11.7789
_adversary	-11.7789
_bridegroom	-11.7789
ito	-11.779
_thrice	-11.7791
oo	-11.7791
iden	-11.7792
_hor	-11.7792
_sequence	-11.7795
_cradle	-11.7795
ied	-11.7795
_postage	-11.7799
_calf	-11.7799
_injure	-11.7802
_differing	-11.7803
_monstrous	-11.7803
_wooded	-11.7804
gis	-11.7805
tas	-11.781
_velde	-11.7811
_cheerfully	-11.7812
_amateur	-11.7813
_rewards	-11.7815
mn	-11.7816
_broader	-11.7818
_blanket	-11.7819
_ducks	-11.7821
_xv	-11.7823
_aboriginal	-11.7824
_tidings	-11.7824
_insure	-11.7824
_rugged	-11.7824
_municipality	-11.7825
_englishmen	-11.7825
_awaited	-11.7829
_girdle	-11.7838
_wolves	-11.7841
_prospects	-11.7842
_paste	-11.7843
_dispositions	-11.7844
lic	-11.7844
oi	-11.7844
_comic	-11.7845
_pilgrimage	-11.7847
_dye	-11.7848
_multiply	-11.7854
_billy	-11.7855
_labourers	-11.7857
_ingenuity	-11.7858
_melody	-11.7858
_juda	-11.7861
law	-11.7864
_climbing	-11.7865
_quotes	-11.7865
bridge	-11.787
_pioneers	-11.7871
_lodged	-11.7871
_gall	-11.7872
dan	-11.7873
_worms	-11.7875
_commencing	-11.7876
_thieves	-11.7876
_appended	-11.7877
_gasped	-11.7878
_creeping	-11.7879
_dwellings	-11.788
_ignored	-11.7881
_pell	-11.7881
_sculptor	-11.7882
_rents	-11.7885
_liquors	-11.7886
_unemployment	-11.7893
ama	-11.7895
_huts	-11.7896
_participant	-11.7898
_eton	-11.79
_turf	-11.79
_proprietors	-11.7901
_wor	-11.7901
_prob	-11.7903
_lucas	-11.7903
_giles	-11.7903
_ret	-11.7905
_backs	-11.7906
_abuses	-11.7907
_grandet	-11.7908
_strained	-11.7908
_encamped	-11.7911
_physic	-11.7913
_drunken	-11.7914
_ribs	-11.7915
_gh	-11.7916
_una	-11.7917
_consumers	-11.7918
_null	-11.792
_fry	-11.7921
_organisms	-11.7923
_rea	-11.7926
wn	-11.7927
_ordering	-11.7929
_blanc	-11.7929
_interpret	-11.7934
_episode	-11.7934
_apartments	-11.7934
_transformation	-11.7935
_simplest	-11.7935
_singularly	-11.7939
_surveyor	-11.7943
_scrap	-11.7943
_anew	-11.7945
_viceroy	-11.7946
_imitate	-11.7947
_lar	-11.7949
_bricks	-11.7953
_maxim	-11.7957
_pleading	-11.7959
_jaws	-11.7961
_eminently	-11.7961
_deter	-11.7963
_submerged	-11.7963
_kettle	-11.7964
_tossed	-11.7965
_jules	-11.7968
_ridges	-11.7969
_detachment	-11.7969
ane	-11.7973
_crane	-11.7976
_salute	-11.7977
oni	-11.798
_thirtieth	-11.798
_healed	-11.7984
_fishery	-11.7986
_strait	-11.7988
_gra	-11.799
_subchapter	-11.7998
_holiness	-11.7998
_elephants	-11.8
_projection	-11.8008
_feveral	-11.801
_helps	-11.8013
_auditor	-11.8015
_matches	-11.8015
_dependence	-11.8015
_besieged	-11.8016
_operational	-11.8016
_converse	-11.8017
_monroe	-11.8018
_yields	-11.8018
_ple	-11.8019
_hip	-11.8021
_comrade	-11.8022
_measurement	-11.8026
_thorn	-11.8031
_hostilities	-11.8033
_radiant	-11.8033
_permitting	-11.8034
_perkins	-11.8035
_clasped	-11.8035
_calculation	-11.804
_hasty	-11.8042
_managers	-11.8042
ines	-11.8043
_eg	-11.8043
_syrian	-11.8047
_global	-11.805
_peking	-11.8052
_meek	-11.8052
_ml	-11.8054
_hubert	-11.8055
_ghosts	-11.8056
_falsehood	-11.8057
_fait	-11.8059
_profile	-11.806
_ok	-11.8063
_elderly	-11.8064
_extravagant	-11.8065
_legions	-11.8065
ology	-11.8066
eu	-11.8067
_swedish	-11.8068
sis	-11.8069
_confronted	-11.8069
_lawn	-11.8074
_sinner	-11.8078
ich	-11.8079
_shields	-11.808
_trumpet	-11.808
_delta	-11.8081
_sha	-11.8083
_pump	-11.8086
_yahweh	-11.8086
_thanksgiving	-11.8086
_admitting	-11.8087
_notify	-11.8088
_challenges	-11.8092
ym	-11.8094
_shelley	-11.8094
_drummond	-11.8098
_jug	-11.81
_fon	-11.8101
_blossom	-11.8102
aj	-11.8102
_jesuits	-11.8102
_improbable	-11.8103
_architectural	-11.8103
_stature	-11.8105
dis	-11.8106
vis	-11.8108
_campaigns	-11.8108
_membrane	-11.811
_tricks	-11.8113
_robbers	-11.8114
_economics	-11.8117
_repent	-11.8119
_introductory	-11.8121
_atonement	-11.8121
_trespass	-11.8123
_ij	-11.8123
_haired	-11.8124
_edifice	-11.8128
_sleeve	-11.8128
_signals	-11.813
_bigger	-11.813
_client	-11.8131
_cfr	-11.8133
_attacking	-11.8134
_mai	-11.8135
_theoretical	-11.8136
_defending	-11.8136
_augusta	-11.8138
_mediaeval	-11.8139
_pronunciation	-11.8139
_maj	-11.8141
_truck	-11.8142
_distrust	-11.8142
_cunt	-11.8144
_chariot	-11.8146
_nail	-11.8146
_dal	-11.8147
_manly	-11.8147
_chapels	-11.815
iii	-11.8153
_disastrous	-11.8153
_josiah	-11.8157
_presided	-11.8159
_sincerely	-11.8162
_patterns	-11.8164
ico	-11.8166
_gl	-11.8173
_hazardous	-11.8175
_announce	-11.8176
_deliverance	-11.8176
_comprised	-11.8178
_childish	-11.8179
_tame	-11.8181
_teachings	-11.8182
_drain	-11.8185
_tremble	-11.8187
_pursuance	-11.8192
_dreary	-11.8193
_policeman	-11.8194
_vase	-11.8194
_pic	-11.8195
_intentionally	-11.8195
_audit	-11.8196
iya	-11.8198
_spider	-11.82
ute	-11.8202
_adopting	-11.8205
sey	-11.8205
_decreed	-11.8207
bt	-11.8209
_disregard	-11.8209
_uns	-11.821
_admirably	-11.821
_genesis	-11.821
_damaged	-11.8212
hu	-11.8214
_timely	-11.8214
_packing	-11.8214
_diminish	-11.8216
_hush	-11.822
_rapids	-11.8221
_spirited	-11.8225
_berkeley	-11.8228
_evolved	-11.8229
_persisted	-11.823
_expose	-11.8231
_despatched	-11.8231
_dover	-11.8235
_restrained	-11.8235
_ritual	-11.8236
_woollen	-11.8236
_utterance	-11.8236
_risks	-11.8237
_wisely	-11.8238
uv	-11.824
rc	-11.8246
_prevalent	-11.8246
_revival	-11.8246
_engagements	-11.8247
_launch	-11.8252
_saunders	-11.8252
_vigorously	-11.8254
_accusation	-11.8254
_qualification	-11.8254
dar	-11.8254
_posed	-11.8258
_rotten	-11.8264
_flax	-11.8265
atum	-11.8266
_plantations	-11.8267
_yell	-11.8268
_suppress	-11.827
nce	-11.827
_vigor	-11.827
_boarding	-11.8274
_overhead	-11.8277
_mock	-11.8277
_wits	-11.8277
_eden	-11.8279
_amazing	-11.8279
_advent	-11.828
_choosing	-11.8282
_naturalization	-11.8286
_prosecuted	-11.8286
_practiced	-11.8288
_loc	-11.8291
nor	-11.8292
_waiver	-11.8292
_wordsworth	-11.8295
atis	-11.83
oh	-11.8304
_authorship	-11.8304
_chancel	-11.8304
_commandments	-11.8306
ef	-11.8307
_fright	-11.8308
_wretch	-11.831
cho	-11.8311
_appliances	-11.8311
ative	-11.8311
_armor	-11.8313
_insurrection	-11.8314
wi	-11.8314
_tap	-11.8315
_hol	-11.8316
_bust	-11.8317
_presiding	-11.8318
_radius	-11.8319
_ragged	-11.832
_worthless	-11.8322
_logs	-11.8323
_voyages	-11.8326
_valuation	-11.8326
_hungarian	-11.8327
_penance	-11.8327
_texture	-11.8329
iah	-11.833
_qua	-11.8333
hr	-11.8334
_necessities	-11.8336
_spinning	-11.8336
_mirth	-11.8336
_thankful	-11.8336
_radiation	-11.8337
_anon	-11.8338
_diego	-11.834
_greeted	-11.8342
_etats	-11.8345
_strengthening	-11.8345
_revolver	-11.8345
_leslie	-11.8346
_roofs	-11.8347
_sheltered	-11.8348
_currently	-11.8349
_downwards	-11.8352
_cask	-11.8353
_glancing	-11.8354
_reliance	-11.8355
_underground	-11.8356
_promulgated	-11.8357
_rejoicing	-11.8363
_rectory	-11.8365
fr	-11.8366
_israelites	-11.8368
_files	-11.8371
_athenians	-11.8373
_joints	-11.8373
_stationery	-11.8374
_unc	-11.8375
_warmly	-11.8377
_bestow	-11.8378
_herbs	-11.8378
ster	-11.8378
_writs	-11.8378
_guatemala	-11.8379
_rm	-11.8382
_disclose	-11.8382
_happening	-11.8384
_struggles	-11.8384
_lapse	-11.8385
_aught	-11.8387
_convicts	-11.839
_beneficiary	-11.8391
_victories	-11.8392
_clearness	-11.8392
_wh	-11.8395
_warlike	-11.8396
_mir	-11.84
_gran	-11.84
_effectiveness	-11.84
_misfortunes	-11.8403
_mast	-11.8405
_morbid	-11.8409
_novelty	-11.841
_crust	-11.8411
_helm	-11.8411
_effectually	-11.8412
_jacques	-11.8414
_outlines	-11.8417
_regis	-11.8418
_politicians	-11.8418
ili	-11.842
_dine	-11.8423
_mw	-11.8427
_equator	-11.8427
_unlimited	-11.8427
_centennial	-11.8427
_vinegar	-11.8428
_trails	-11.8428
_verily	-11.8428
_torch	-11.843
fs	-11.8431
_bennett	-11.8434
_ely	-11.8434
_reid	-11.8435
_morrison	-11.8435
_cavalier	-11.8436
_anecdotes	-11.8439
_nova	-11.8445
_macdonald	-11.8446
_superstitious	-11.8446
_spacious	-11.8446
_calamity	-11.8446
_deciding	-11.8446
_amazed	-11.8447
_refund	-11.8447
_prizes	-11.8447
_hints	-11.8448
_appletons	-11.845
_ming	-11.845
_hazard	-11.845
_zero	-11.8453
_concession	-11.8455
_constitutions	-11.8456
_maids	-11.8458
_quartz	-11.8458
_reckless	-11.846
pen	-11.8461
ret	-11.8463
_striving	-11.8464
_ax	-11.8465
_rosy	-11.8469
_stair	-11.8469
_subjective	-11.847
_swelling	-11.8472
_sects	-11.8476
_mut	-11.8479
sto	-11.848
_boiler	-11.8481
borough	-11.8483
_barton	-11.8484
_glittering	-11.8484
_chant	-11.8484
ars	-11.8486
_stockings	-11.8487
_shifting	-11.8488
_whistle	-11.8489
_pitched	-11.8491
_politician	-11.8492
_syllable	-11.8493
_barriers	-11.8493
oth	-11.8494
_groom	-11.8495
_unpublished	-11.8501
_palms	-11.8502
_comte	-11.8504
_shal	-11.8509
_discern	-11.8509
_hop	-11.8509
_solved	-11.851
_tur	-11.851
_rex	-11.8511
ace	-11.8511
dom	-11.8511
_iraq	-11.8512
_fits	-11.8518
_nitrogen	-11.8519
_pembroke	-11.8519
_density	-11.8519
_mann	-11.8523
_shouldnt	-11.8523
_controls	-11.8524
_conrad	-11.8524
_apparel	-11.8525
_cordial	-11.8526
_installation	-11.8529
_serial	-11.8529
_chicken	-11.8529
_outfit	-11.8532
_tang	-11.8534
_honestly	-11.8535
tan	-11.8537
_humanitarian	-11.8538
_folklore	-11.8538
_workman	-11.8538
_brighter	-11.8542
_seemingly	-11.8542
_burgh	-11.8544
_offenses	-11.8545
_sounding	-11.8545
_bladder	-11.8548
_vil	-11.8551
_instincts	-11.8553
_overwhelming	-11.8554
_indexes	-11.8554
_compelling	-11.8557
sc	-11.8558
_watts	-11.8561
ates	-11.8563
_ceases	-11.8564
_disappearance	-11.8566
_accomplishment	-11.8567
_tested	-11.8568
_samples	-11.8574
_madagascar	-11.8575
_circumference	-11.8575
_superfluous	-11.8575
_knives	-11.8575
_repairing	-11.8578
_ard	-11.8579
nc	-11.8584
_acknowledgment	-11.8585
_ratification	-11.8585
_tunnel	-11.8585
_moy	-11.8586
_blankets	-11.8588
_richer	-11.8589
_jurist	-11.8592
_amending	-11.8593
_contributing	-11.8593
_norton	-11.8595
_patented	-11.8597
bs	-11.8598
_bows	-11.8603
_rescued	-11.8603
_constituent	-11.8604
_ounce	-11.8605
_dad	-11.8608
_fet	-11.8609
lar	-11.861
_glare	-11.861
_temperance	-11.8613
_medi	-11.8616
_launched	-11.8617
_swinging	-11.8617
_motto	-11.8617
uri	-11.8618
_prevails	-11.8618
_dei	-11.8625
_clearer	-11.8627
_fraudulent	-11.8628
_germ	-11.8629
lands	-11.8629
_layers	-11.863
_adelaide	-11.8631
_adjutant	-11.8631
_sovereigns	-11.8632
_ensued	-11.8633
_evenings	-11.8634
_afar	-11.8635
_xiii	-11.8636
_gems	-11.8636
_protector	-11.8639
_interpreter	-11.8643
_tout	-11.8643
tel	-11.8644
_obedient	-11.8646
_bel	-11.8648
_influential	-11.8649
_sundry	-11.865
_comparing	-11.865
_backwards	-11.865
_resentment	-11.865
_retorted	-11.8651
_treats	-11.8652
_tate	-11.8654
_gm	-11.8657
ml	-11.8658
atio	-11.8661
_participants	-11.8662
_pri	-11.8664
_sl	-11.8668
_completing	-11.8669
_charging	-11.8669
_smiths	-11.8672
_stain	-11.8673
_burg	-11.8677
iers	-11.8678
_ceremonial	-11.8678
illa	-11.8681
_marvel	-11.8681
_muscle	-11.8682
_vases	-11.8682
_shrill	-11.8687
_auxiliary	-11.8687
_rebuilt	-11.8687
_nursing	-11.8687
_extinguished	-11.8689
_delights	-11.8689
gu	-11.8691
_hn	-11.8692
_angeles	-11.8692
_compliment	-11.8693
_modesty	-11.8693
_praises	-11.8693
_allegations	-11.8694
_intimately	-11.8696
_ringing	-11.8696
_satire	-11.8699
_copying	-11.8704
_rash	-11.8704
_infrastructure	-11.8706
_poultry	-11.8706
_greene	-11.8706
_generated	-11.8709
_hoet	-11.8711
_mycenae	-11.8711
_institutes	-11.8718
_plentiful	-11.8721
prophets	-11.8724
_abnormal	-11.8724
_brows	-11.8725
_keith	-11.8725
_abbe	-11.8725
_tramp	-11.8727
_treatises	-11.873
_salutation	-11.873
_contributor	-11.8732
_botanical	-11.8736
_trunks	-11.8737
_improper	-11.874
_coastal	-11.8741
_surveillance	-11.8743
_consecration	-11.8743
_monogram	-11.8743
_trades	-11.8744
_rubbing	-11.8744
_vainly	-11.8747
nr	-11.8751
_leases	-11.8752
_diana	-11.8752
_assemble	-11.8755
_crowns	-11.8755
_evidences	-11.8758
_unbroken	-11.8762
_widespread	-11.8762
_monasteries	-11.8762
_womb	-11.8764
_ner	-11.8765
_vicars	-11.8765
_charters	-11.8766
_wines	-11.8766
_lees	-11.8768
_aws	-11.8769
_mel	-11.8772
_selective	-11.8774
aire	-11.8774
_commandant	-11.8778
_betty	-11.878
_tedious	-11.8781
_bounty	-11.8781
_masonry	-11.8782
_baltic	-11.8783
_remanded	-11.8784
_enhance	-11.8784
_barbarians	-11.8784
_parsons	-11.8785
_nas	-11.8786
_duplicate	-11.8787
_voter	-11.8787
_cleaning	-11.8788
_amy	-11.8789
_adulteration	-11.8792
_lor	-11.8794
_verbal	-11.8795
_signify	-11.8796
_mute	-11.8797
_bulls	-11.8798
_felicia	-11.8799
_repay	-11.8802
_target	-11.8803
_ste	-11.8805
_wildly	-11.8805
_greenish	-11.8805
_penetrate	-11.8806
_tint	-11.881
_stare	-11.8811
_niece	-11.8812
_forcing	-11.8812
_distinguishing	-11.8813
_minors	-11.8819
_copyrighted	-11.882
otheli	-11.8821
_interim	-11.8822
_omit	-11.8825
_implementing	-11.8828
_brightness	-11.8829
lc	-11.883
_protocol	-11.8831
_advocated	-11.8833
_dire	-11.8834
_mutually	-11.8834
cm	-11.8835
_inspectors	-11.8835
_ling	-11.8838
_rn	-11.8839
_hugo	-11.8839
_eliminate	-11.884
_gear	-11.884
_whale	-11.884
_foam	-11.8843
_hearings	-11.8845
_realise	-11.8848
_beth	-11.885
_repayment	-11.8851
_aut	-11.8851
mor	-11.8856
_irresistible	-11.8857
_shakspeare	-11.8857
_television	-11.8857
_boyhood	-11.8858
_gentiles	-11.8865
_ley	-11.8867
_pol	-11.8868
_pretence	-11.8869
med	-11.887
_unis	-11.887
_consulting	-11.887
_pits	-11.8874
_censure	-11.8875
_jeremiah	-11.8876
_humbly	-11.8876
_adjournment	-11.8877
_seizing	-11.8878
_probate	-11.8878
_republics	-11.8879
_aft	-11.888
_perfume	-11.8882
_doubled	-11.8883
_unlikely	-11.8885
_marshes	-11.8885
_affects	-11.8887
_kai	-11.8888
_oure	-11.8892
_transverse	-11.8892
_hardships	-11.8893
_awhile	-11.8894
_ignore	-11.8895
_transcript	-11.8896
_symbolism	-11.8897
_buchanan	-11.8898
_tak	-11.89
_bridle	-11.8903
_syriac	-11.8907
_contractors	-11.8907
_submarine	-11.8907
_observes	-11.8909
_frenchmen	-11.891
_particle	-11.8911
_studio	-11.8913
ang	-11.8913
uli	-11.8915
_disc	-11.8915
_tails	-11.8915
_frankfort	-11.8915
_jet	-11.8919
ong	-11.8921
_participated	-11.8924
_rosa	-11.8927
ala	-11.8927
_comb	-11.8931
_landon	-11.8931
_intolerable	-11.8934
_randolph	-11.8934
_suspicions	-11.8935
_mortality	-11.8935
_camden	-11.8935
_forgetting	-11.8936
_abu	-11.8936
_detect	-11.8938
_weaving	-11.8939
_inventory	-11.8939
_hooker	-11.894
_suggestive	-11.894
_exertion	-11.8946
_tam	-11.8947
_mounting	-11.8948
_harlan	-11.8949
_banker	-11.8951
_procuring	-11.8953
_allocated	-11.8954
_nursery	-11.8954
_rooted	-11.8955
_courtyard	-11.8956
_fashionable	-11.8956
_fruitful	-11.8957
_wel	-11.8957
_blair	-11.8958
_benson	-11.8959
_throng	-11.896
_fern	-11.8961
_illusion	-11.8967
_journalist	-11.8967
alis	-11.8967
_miraculous	-11.8969
_reciprocal	-11.897
_roland	-11.8971
_spur	-11.8971
_greeting	-11.8972
_unmarried	-11.8973
_cologne	-11.8973
_tenn	-11.8973
rg	-11.8975
_burdens	-11.8976
_distinctions	-11.8978
_vows	-11.8978
_conductor	-11.8978
_ornamented	-11.898
_recipient	-11.8985
_lance	-11.8988
_speedy	-11.8988
_bursting	-11.8991
_pans	-11.8991
_begotten	-11.8992
_dudley	-11.8992
_fanny	-11.8993
_barnes	-11.8993
_embraces	-11.8993
_flourished	-11.8995
_darker	-11.8997
_teams	-11.8998
_interruption	-11.9004
_threaten	-11.9005
_domini	-11.9008
_habitual	-11.9009
_assemblies	-11.9011
_fines	-11.9013
_royalty	-11.9017
_gifted	-11.9017
_tightly	-11.9018
_flush	-11.9023
_fen	-11.9023
_hemisphere	-11.9024
_remnant	-11.9024
_codice	-11.9024
_induction	-11.9025
_terre	-11.9026
tur	-11.9026
_ana	-11.9027
_zi	-11.903
_terrestrial	-11.9031
rl	-11.9031
_blaze	-11.9032
_ella	-11.9033
_producers	-11.9034
zer	-11.9036
_stony	-11.9037
_sac	-11.9039
eg	-11.9044
_civilians	-11.9045
_helpful	-11.9046
chen	-11.9049
_thor	-11.9049
_dict	-11.9049
_mckinlay	-11.905
_privacy	-11.905
_confederacy	-11.905
_crescent	-11.905
_bewildered	-11.9051
_trivial	-11.9051
_feeds	-11.9052
_orchard	-11.9053
_behaved	-11.9054
_histoire	-11.9056
_bomb	-11.9056
_weed	-11.9058
_patriot	-11.9058
_raid	-11.9058
_withheld	-11.9059
_melt	-11.906
_clare	-11.906
_reservations	-11.9063
_warrants	-11.9063
_browne	-11.9063
_whichever	-11.9063
_proportional	-11.9064
_emotional	-11.9064
ient	-11.9065
_notified	-11.9065
_maud	-11.9069
_dresden	-11.907
_kautsky	-11.907
_pecuniary	-11.907
_murphy	-11.907
_capabilities	-11.907
_poisonous	-11.9071
_dismissal	-11.9072
cum	-11.9072
_punishments	-11.9073
_mak	-11.9076
_abbott	-11.9078
_pratt	-11.9081
_dreaded	-11.9081
_chestnut	-11.9082
_telegram	-11.9082
_maidens	-11.9085
_nal	-11.9087
_intervening	-11.9089
_propaganda	-11.9089
_traits	-11.909
_trim	-11.909
_marking	-11.9096
_lung	-11.9097
_lincolns	-11.9097
_resorted	-11.9099
_stems	-11.9101
_gallons	-11.9104
_chan	-11.9106
_drill	-11.9107
pan	-11.9107
_tung	-11.9109
_iniquity	-11.9109
_voltaire	-11.9109
_pedro	-11.9109
_expressive	-11.9109
_instructive	-11.9111
_enduring	-11.9111
_lads	-11.9111
_unfit	-11.9112
_colleagues	-11.9116
ock	-11.9117
_sill	-11.9117
_indent	-11.9121
_concentration	-11.9122
_liar	-11.9124
_oats	-11.9128
_adj	-11.9128
_involuntary	-11.9128
_flourishing	-11.9132
_inhabit	-11.9134
_twin	-11.9134
_apron	-11.9136
_twins	-11.9141
_dep	-11.9141
_bartholomew	-11.9141
_taxpayer	-11.9141
_digging	-11.9141
_adherents	-11.9143
_pg	-11.9143
ral	-11.9143
_richest	-11.9144
ches	-11.9144
_quota	-11.9148
_insanity	-11.9148
_shipment	-11.9149
_purchasing	-11.9149
_grin	-11.9149
_snatched	-11.915
rat	-11.9153
_tai	-11.9154
ues	-11.9154
_nam	-11.9155
_lic	-11.9157
_loses	-11.9158
_mn	-11.9158
_lambs	-11.9158
_giants	-11.9158
_zinc	-11.916
_beau	-11.916
_tz	-11.916
_walpole	-11.9161
_algebra	-11.9162
_housekeeper	-11.9162
_startling	-11.9167
_vide	-11.9167
_camel	-11.9167
_piled	-11.9167
_louvre	-11.9168
_secession	-11.9168
aw	-11.9169
_annoyed	-11.917
_favors	-11.9171
_conflicting	-11.9173
_sqq	-11.9174
_vaguely	-11.9176
_concludes	-11.918
ige	-11.9183
_cy	-11.9184
_kensington	-11.9187
_malay	-11.9188
_mercantile	-11.9188
_silas	-11.9189
_affixed	-11.9189
_sol	-11.919
_victorian	-11.9191
_frail	-11.9196
_wren	-11.9199
ain	-11.9203
_tug	-11.9206
_compositions	-11.9206
_benevolence	-11.9207
_impossibility	-11.9207
_strove	-11.9207
_tional	-11.9208
_rejection	-11.9209
_eagerness	-11.921
_whigs	-11.921
_nic	-11.9211
ern	-11.9211
_guidelines	-11.9213
_mun	-11.9214
_cuckoo	-11.9221
_jurors	-11.9221
_boland	-11.9224
_blush	-11.9225
_stormy	-11.9226
_discovering	-11.9226
_lain	-11.9226
_conversations	-11.9226
eau	-11.9227
_bathing	-11.9227
_wilhelm	-11.9227
_snapped	-11.9227
_commentaries	-11.9227
olo	-11.9228
_upheld	-11.9229
_realization	-11.9231
_fist	-11.9231
_thickly	-11.9231
_doomed	-11.9234
_quoting	-11.9234
_enables	-11.9235
_booth	-11.9239
val	-11.924
_abba	-11.9243
_ditto	-11.9245
_xiv	-11.9247
_geographic	-11.9247
_dawson	-11.9247
_ledge	-11.9248
_antique	-11.9252
_selves	-11.9256
_lever	-11.9256
_flute	-11.9256
_horrors	-11.9258
_burr	-11.926
_diversion	-11.9261
_medals	-11.9262
_cia	-11.9262
_hears	-11.9262
_lone	-11.9262
_revise	-11.9264
_barge	-11.9264
_astonishing	-11.9265
_chevalier	-11.9267
_facie	-11.9269
_questioning	-11.9279
_buff	-11.9282
_premier	-11.9282
_rye	-11.9282
_hai	-11.9284
_potent	-11.9285
_fmall	-11.9287
_comparable	-11.9287
_sparkling	-11.9287
_controversies	-11.9288
day	-11.9289
_prefixed	-11.9289
_scores	-11.9291
_altars	-11.9295
_scan	-11.9297
ore	-11.9297
_moslem	-11.9301
_supplemented	-11.9301
_cultivate	-11.9302
_zones	-11.9302
_heaps	-11.9303
_borrower	-11.9303
_industrious	-11.9304
_vicious	-11.9304
_arabia	-11.9305
_townshend	-11.9307
_oversight	-11.9307
its	-11.9307
_shattered	-11.9308
_cautiously	-11.931
_plural	-11.931
over	-11.9314
_unconsciously	-11.9314
_correspondents	-11.9315
_puritan	-11.9318
_planting	-11.9319
_epitaph	-11.9321
_philo	-11.9321
_hanover	-11.9322
_odds	-11.9325
_enjoined	-11.9329
_weaker	-11.9331
_counsels	-11.9335
_bolt	-11.9336
_fiercely	-11.9337
_vance	-11.9338
_vancouver	-11.9341
_allocation	-11.9341
_bobby	-11.9342
_petit	-11.9342
mat	-11.9343
_suns	-11.9345
_autobiography	-11.9347
_demesne	-11.9347
_humiliation	-11.9347
_obsolete	-11.9348
_utilized	-11.9351
_molly	-11.9352
_irving	-11.9352
tive	-11.9353
_ron	-11.9354
_shrewd	-11.9355
_oblong	-11.9359
_wid	-11.9361
aux	-11.9361
_noah	-11.9362
_impressive	-11.9363
_effectual	-11.9366
_joyous	-11.9366
_halifax	-11.9367
_proletariat	-11.9367
_sunrise	-11.9367
_mixing	-11.9368
_amelia	-11.9368
_fishermen	-11.9368
_alongside	-11.9369
_cruz	-11.937
_endeavored	-11.9372
_entertaining	-11.9375
_marian	-11.9375
_congressman	-11.9378
_script	-11.9378
_chao	-11.938
_vous	-11.9381
_immigrant	-11.9381
_enact	-11.9382
_cro	-11.9383
_ros	-11.9386
_crucified	-11.9387
_rats	-11.9387
_friction	-11.9387
_hampton	-11.9387
_constance	-11.9387
_assn	-11.9388
_empowered	-11.9388
arum	-11.9388
_powell	-11.9388
_tsung	-11.9389
_byzantine	-11.9391
_enhanced	-11.9392
_fay	-11.9393
_adjust	-11.9394
_ransom	-11.9395
_smoked	-11.9395
_mot	-11.9395
_gorge	-11.9396
_atoms	-11.9398
_rotation	-11.9399
_manu	-11.94
_beads	-11.94
_nie	-11.94
iam	-11.9401
_tucker	-11.9405
_coapany	-11.9407
lle	-11.9413
_planes	-11.9413
_curves	-11.9414
_metsu	-11.9414
_forwarded	-11.9414
_intending	-11.9417
_ayens	-11.9421
eur	-11.9421
_saloon	-11.9424
_explicit	-11.9424
_wy	-11.9426
_northampton	-11.9427
_guaranty	-11.9427
_terrified	-11.9427
_toll	-11.9429
_hiram	-11.9429
_impaired	-11.943
_merged	-11.943
_examiner	-11.9433
_jj	-11.9434
_beans	-11.9434
_snowy	-11.9436
_foreman	-11.9439
_jour	-11.9441
_strips	-11.9442
_vapour	-11.9442
_verge	-11.9442
_laurel	-11.9444
_ethiopian	-11.9444
_potomac	-11.9447
_seymour	-11.9447
_perchance	-11.9448
_queensland	-11.9449
_bravery	-11.945
_nar	-11.9451
_curate	-11.9451
_musician	-11.9451
min	-11.9452
_cot	-11.9454
_canst	-11.9459
king	-11.946
_vin	-11.9461
tha	-11.9465
ding	-11.9466
_brooke	-11.9468
_aristocracy	-11.9468
_substitution	-11.9468
_escaping	-11.9468
_zoological	-11.9468
_regretted	-11.9468
_replies	-11.9469
_recess	-11.947
_hould	-11.9472
_dialogues	-11.9473
com	-11.9479
_lon	-11.9481
_crystals	-11.9481
_anglican	-11.9484
_floods	-11.9487
_baxter	-11.9488
_undergo	-11.9488
_lyon	-11.949
_refuses	-11.949
_collectors	-11.9492
lf	-11.9492
und	-11.9494
_chinas	-11.9496
_pledged	-11.9497
nu	-11.9502
_willie	-11.9502
_aud	-11.9503
_translator	-11.9504
_enabling	-11.9508
_masculine	-11.9509
_adoration	-11.9509
_wiser	-11.9509
_coronation	-11.9509
_leyden	-11.9509
_deities	-11.951
_scientists	-11.9512
_lished	-11.9512
_ornamental	-11.9513
_builders	-11.9514
_sans	-11.9514
mel	-11.9516
_dispensation	-11.9524
_manifestation	-11.9525
_hamburg	-11.9527
_pathetic	-11.9529
_glacial	-11.9529
_fireplace	-11.9529
_capitalist	-11.9529
_whitney	-11.9529
_installed	-11.953
_denounced	-11.9531
_commandment	-11.9531
_header	-11.9533
_indulged	-11.9535
elle	-11.9535
_gender	-11.9535
_observers	-11.9537
_flags	-11.9538
shire	-11.9538
_gossip	-11.9539
_forbes	-11.9539
_abilities	-11.9541
_crash	-11.9542
cal	-11.9543
_torrent	-11.9544
_triangle	-11.9544
_elm	-11.9546
_instinctive	-11.9547
_davenport	-11.9549
_surgery	-11.9549
_raises	-11.955
_mournful	-11.9552
_assigns	-11.9552
_polar	-11.9553
_korean	-11.9555
_knt	-11.9561
_summers	-11.9562
_adequately	-11.9562
_inability	-11.9564
_garland	-11.9565
_marx	-11.9567
_hawthorne	-11.9568
_hasten	-11.9569
_logan	-11.957
_troublesome	-11.957
_developments	-11.9571
nl	-11.9571
_profess	-11.9573
_highlands	-11.9574
_tb	-11.9575
_sided	-11.9576
_metaphysical	-11.9576
_herring	-11.9576
ische	-11.9578
_ker	-11.9582
_darwin	-11.9582
_murderers	-11.9583
_ves	-11.9585
_adaptation	-11.9586
_premium	-11.9586
_uniformly	-11.9586
_abrupt	-11.9586
_cautious	-11.9587
_pike	-11.9588
_jacobs	-11.9589
_spears	-11.9589
_servitude	-11.959
_investments	-11.959
_fulfilment	-11.9591
_peculiarity	-11.9594
ped	-11.9595
_raven	-11.9595
_subdivisions	-11.9596
tle	-11.9597
_individuality	-11.9597
_clue	-11.9597
du	-11.9598
_thrill	-11.9599
_traitor	-11.96
_sleeves	-11.9602
_devise	-11.9603
_inmates	-11.9605
_hark	-11.9605
_embryo	-11.9606
_shadowy	-11.9609
los	-11.961
_vid	-11.961
_valentine	-11.961
_citadel	-11.961
_susceptible	-11.9611
_geoffrey	-11.9611
_chisel	-11.9612
_dorset	-11.9613
hn	-11.9613
_monitoring	-11.9614
try	-11.9615
lk	-11.9618
_begging	-11.9619
_surname	-11.9622
_withered	-11.9622
_envelope	-11.9624
_rogue	-11.9627
_dante	-11.963
_deserving	-11.9632
_forcibly	-11.9632
_greenwich	-11.9632
num	-11.9635
_philosophic	-11.9636
_licenses	-11.9637
_mart	-11.9639
_profane	-11.9644
_prevents	-11.9646
_gan	-11.9647
_hunted	-11.9649
_copious	-11.9649
_archaeological	-11.9652
_uncomfortable	-11.9652
_satisfactorily	-11.9652
_estimation	-11.9652
_hindus	-11.9653
_dined	-11.9653
_clo	-11.9655
oy	-11.9656
hat	-11.9657
_explored	-11.9657
_amber	-11.9658
_instructor	-11.9659
_effecting	-11.9661
_riot	-11.9661
_economical	-11.9661
_fal	-11.9663
_bearer	-11.9664
md	-11.9666
lj	-11.9667
ade	-11.9667
_bushels	-11.967
ters	-11.9671
ao	-11.9671
_oils	-11.9673
_officially	-11.9674
_fil	-11.9675
_shan	-11.9676
_springfield	-11.9676
ort	-11.9679
_infants	-11.9681
_eral	-11.9681
_reflecting	-11.9683
_metaphysics	-11.9685
_spin	-11.9687
_distressed	-11.9688
_advantageous	-11.9693
_stimulus	-11.9694
_elimination	-11.9694
_quart	-11.9694
_dixon	-11.9695
_democrats	-11.9697
_conquerors	-11.9698
_awakening	-11.9698
_kil	-11.97
_yarn	-11.9704
_cite	-11.9706
_assuredly	-11.9707
_isaiah	-11.9708
ual	-11.971
_classed	-11.971
_odor	-11.971
_lour	-11.9711
_consolidation	-11.9714
_mcloughlin	-11.9714
_perseverance	-11.9714
_committing	-11.9715
_denver	-11.9716
_billion	-11.9716
_henri	-11.9716
_impulses	-11.9719
_beacon	-11.972
_roared	-11.9723
_casual	-11.9727
_hog	-11.9728
_novelist	-11.973
_investigated	-11.973
ky	-11.973
iter	-11.9731
_plaster	-11.9732
_congo	-11.9734
_package	-11.9735
_proven	-11.9735
_cyclopaedia	-11.9735
ug	-11.9737
_cos	-11.9737
_lisbon	-11.9737
_waterloo	-11.9737
_journeys	-11.9737
_precautions	-11.9738
_py	-11.9738
_recited	-11.9738
lum	-11.9741
_sadness	-11.9742
_pleases	-11.9743
_absentee	-11.9743
_guise	-11.9743
_liber	-11.9745
_dose	-11.9746
_hm	-11.9748
_vl	-11.9749
_guild	-11.975
_carlos	-11.9751
_diagram	-11.9752
_imperative	-11.9753
_eddy	-11.9753
_affinity	-11.9756
_fancies	-11.9756
ves	-11.9757
_sullivan	-11.9758
_nottingham	-11.976
_avoiding	-11.9762
_hercules	-11.9762
_pius	-11.9763
_photo	-11.9763
_needful	-11.9765
_montague	-11.9777
ants	-11.9778
_distribute	-11.978
_similarity	-11.9784
_autres	-11.9791
_fy	-11.9791
_survival	-11.9794
_wrongs	-11.9796
_heinrich	-11.9798
_piercing	-11.9798
_legacy	-11.9798
_noteworthy	-11.9799
_mmm	-11.98
_lazy	-11.9801
_kelly	-11.9801
_stray	-11.9803
_reconciled	-11.9803
_serene	-11.9803
_prompted	-11.9805
_reprint	-11.9806
_constructing	-11.9807
_vines	-11.9808
_siberia	-11.9813
_tumult	-11.9815
_notorious	-11.9816
_tenderly	-11.9817
_ev	-11.9818
rah	-11.9818
_tension	-11.9818
_archipelago	-11.9819
_rubbish	-11.9819
_whittier	-11.9819
_shrubs	-11.9823
_mainland	-11.9826
_sy	-11.9826
_chas	-11.9828
_hilly	-11.9831
pin	-11.9833
itt	-11.9835
_pigeon	-11.9836
_ferrier	-11.9837
_garb	-11.9838
_applicants	-11.9838
_euripides	-11.984
_devoid	-11.984
_bella	-11.984
amptonshire	-11.9841
_fullest	-11.9841
_bequeathed	-11.9842
_rc	-11.9843
_pont	-11.9843
_nostrils	-11.9846
hon	-11.9849
_scot	-11.985
_vowel	-11.9851
_ui	-11.9853
_jove	-11.9853
_cricket	-11.9854
_baronet	-11.9858
_naught	-11.986
_carlisle	-11.9861
_unfinished	-11.9861
_crush	-11.9862
_overwhelmed	-11.9862
_virgil	-11.9862
_ings	-11.9864
_drinks	-11.9865
_herr	-11.9865
_executors	-11.9865
_tag	-11.987
_sour	-11.9871
_hurriedly	-11.9872
_broadcast	-11.9874
_scientist	-11.9879
_dagger	-11.988
_forgiven	-11.9882
_hatch	-11.9882
_obscurity	-11.9882
_wharton	-11.9883
_herod	-11.9884
_parson	-11.9885
_cd	-11.9885
_stan	-11.9886
_tips	-11.9888
_doe	-11.9889
din	-11.989
_watered	-11.9891
zy	-11.9896
_needless	-11.9896
_reconcile	-11.9898
_patiently	-11.99
_spheres	-11.99
_errand	-11.99
_ois	-11.9902
_rouse	-11.9902
_atmospheric	-11.9903
_erskine	-11.9903
_milwaukee	-11.9903
_heavier	-11.9904
iest	-11.9905
_fossils	-11.9906
_vocational	-11.9906
_impatiently	-11.9908
_fasting	-11.9911
_doings	-11.9911
_aerial	-11.9912
_slumber	-11.9912
_ez	-11.9913
_continuously	-11.9915
_lydia	-11.9915
_minn	-11.9917
_gospels	-11.9919
_friars	-11.9919
_mod	-11.9921
lam	-11.9924
_craig	-11.9924
_maternal	-11.9925
_dunbar	-11.9925
_emigration	-11.9925
_accrued	-11.9928
_sophia	-11.9929
_triple	-11.9929
ori	-11.9931
_echoed	-11.9931
_consuls	-11.9932
_tire	-11.9934
pp	-11.9936
_shocked	-11.9936
_brighton	-11.9936
wr	-11.9937
_oblige	-11.9937
_chen	-11.9938
_demanding	-11.9939
_shilling	-11.994
_noblest	-11.994
_analytical	-11.994
_poisoned	-11.994
_proverbs	-11.9942
_tertiary	-11.9946
_carthage	-11.9946
_faire	-11.9947
_outlet	-11.9947
_boon	-11.9947
_signing	-11.995
_buds	-11.995
_schedules	-11.995
_lm	-11.9951
_antony	-11.9951
_duc	-11.9952
nm	-11.9954
_gram	-11.9955
ath	-11.9957
aga	-11.9958
_survivors	-11.9958
_impartial	-11.9964
_hounds	-11.9965
ties	-11.9967
_monetary	-11.9967
_tonnage	-11.9967
_mandatory	-11.9967
zen	-11.9968
_metropolis	-11.9968
_louisa	-11.997
_undergone	-11.997
_lg	-11.9974
_arg	-11.9974
_pleasantly	-11.9978
_tary	-11.9979
_sized	-11.9981
_proudly	-11.9986
_pebbles	-11.9986
_quartermaster	-11.9986
_laborious	-11.9986
_lizzie	-11.9989
_approbation	-11.9989
_arkady	-11.9989
_dusty	-11.9989
_feasts	-11.9989
_airport	-11.9989
_scotsmen	-11.9989
_vnto	-11.999
_melville	-11.9992
_indo	-11.9994
_expanding	-11.9994
_accidentally	-11.9994
_squares	-11.9995
yne	-11.9997
_retail	-11.9999
_pensions	-12.0003
_dividends	-12.0006
_carrie	-12.0006
_lam	-12.0006
_nets	-12.0007
_mammalia	-12.0007
_convincing	-12.0007
_hond	-12.0008
_gratification	-12.001
kar	-12.001
ante	-12.0011
_rejoined	-12.0012
_pigeons	-12.0014
_performances	-12.0015
_claude	-12.0016
_privileged	-12.0016
_firmness	-12.0018
_scream	-12.002
_keenly	-12.0021
net	-12.0022
_linked	-12.0022
_majestic	-12.0024
_satin	-12.0026
_nurses	-12.0027
_wondrous	-12.0028
_devout	-12.0029
_vector	-12.0029
_enforcing	-12.0032
_haughty	-12.0032
_fragrant	-12.0032
_coke	-12.0034
_lac	-12.0034
back	-12.0034
_nought	-12.0035
_manure	-12.0038
_starts	-12.0039
_compose	-12.0039
_hab	-12.0041
_redeem	-12.0042
_vibrations	-12.0042
_firms	-12.0042
_hurrying	-12.0044
_obstinate	-12.005
_unanimous	-12.005
_thoreau	-12.0053
_deficient	-12.0054
_twain	-12.0056
_boyle	-12.0056
_sometime	-12.0059
_keepers	-12.0062
ju	-12.0062
_concessions	-12.0064
_delivering	-12.0071
_mourn	-12.0071
_bir	-12.0072
_tow	-12.0074
_timothy	-12.0075
_preparatory	-12.0075
_populous	-12.0075
_nh	-12.0075
_akin	-12.0075
_vitality	-12.0076
ours	-12.0076
_joins	-12.0077
_mountainous	-12.0081
_limiting	-12.0082
_heal	-12.0083
_dependents	-12.0087
_assessments	-12.0092
_delusion	-12.0093
_pretext	-12.0094
_partition	-12.0095
_stall	-12.0096
_luminous	-12.0096
_worried	-12.0096
_gotten	-12.0097
_paternal	-12.0097
_refugees	-12.0099
_bleeding	-12.0099
_clinging	-12.0099
_broom	-12.01
dl	-12.01
cli	-12.0102
ole	-12.0102
_singer	-12.0102
uo	-12.0105
_intensely	-12.0106
_digest	-12.011
_twist	-12.0111
_cometh	-12.0115
_companys	-12.0116
_fascinating	-12.0118
_desolation	-12.0118
_tunis	-12.0118
mc	-12.012
_tense	-12.012
_alcoholic	-12.0123
qu	-12.0124
_wiped	-12.0124
ago	-12.0125
_cle	-12.0127
_offend	-12.0129
rell	-12.0131
_tailor	-12.0133
tte	-12.0134
tia	-12.0135
_enclosure	-12.0137
_inspire	-12.0138
_invent	-12.0138
_saturn	-12.0139
_hil	-12.0139
_parochial	-12.014
_tributary	-12.014
_marches	-12.0142
_sewing	-12.0142
yd	-12.0143
_wrecked	-12.0147
_cult	-12.015
_usefulness	-12.0151
uy	-12.0154
_retains	-12.016
_punjab	-12.0161
_whosoever	-12.0161
_grazing	-12.0162
_affording	-12.0163
_lyrics	-12.0168
_stag	-12.0169
_democrat	-12.0169
_floors	-12.0172
_raja	-12.0173
_retreated	-12.0178
_subscribers	-12.0179
iw	-12.0179
_sullen	-12.018
_precaution	-12.0181
_thomson	-12.0181
_preachers	-12.0181
_bachelor	-12.0183
_enrollment	-12.0184
_bacchus	-12.0184
_legislatures	-12.0184
_gilded	-12.0185
_marrying	-12.0186
_lacked	-12.0186
uni	-12.0187
_ure	-12.019
_marines	-12.0195
_hostess	-12.02
_purchases	-12.0201
_indignant	-12.0202
hs	-12.0202
_miniature	-12.0202
_paces	-12.0206
_surpassed	-12.0207
_yellowish	-12.0208
_annexation	-12.0209
tc	-12.0209
_trenches	-12.0209
_output	-12.021
_illus	-12.021
_uk	-12.0213
uta	-12.0215
_manifestly	-12.0216
_bavaria	-12.0216
_creep	-12.0217
_humane	-12.022
_precepts	-12.0221
_residue	-12.0224
_brahman	-12.0226
_nobleman	-12.0227
_sympathies	-12.0227
_deserts	-12.0228
_inv	-12.0229
_topographical	-12.0229
_sri	-12.0231
_customer	-12.0231
_neatly	-12.0233
_speakers	-12.0234
_moors	-12.0234
enberg	-12.0236
_bos	-12.0236
_davids	-12.0237
_stillness	-12.0237
_specifications	-12.0238
_cove	-12.0239
_churchill	-12.024
old	-12.0241
_pap	-12.0243
_bul	-12.0246
_bullock	-12.0247
_clive	-12.0247
_reclus	-12.0248
[...]
