<unk>	0
<s>	0
</s>	0
▁the	-2.68752
▁of	-3.16737
▁and	-3.47884
▁to	-3.7232
▁in	-3.89196
▁a	-3.93418
▁that	-4.63563
▁is	-4.77269
▁was	-4.81186
▁for	-4.81657
▁it	-4.86731
▁he	-4.87045
▁i	-4.9225
▁as	-4.98448
▁by	-4.99447
▁with	-5.05388
▁his	-5.06559
▁be	-5.11528
▁on	-5.16588
▁at	-5.24644
▁or	-5.30315
s	-5.34452
▁not	-5.35232
▁which	-5.3579
▁this	-5.38083
▁from	-5.44383
▁but	-5.51299
▁had	-5.61357
▁are	-5.65678
▁have	-5.66778
▁an	-5.70803
▁you	-5.73874
▁all	-5.79643
▁they	-5.81268
▁were	-5.92976
▁one	-5.95461
▁her	-5.95647
▁their	-5.98011
▁we	-6.01138
▁s	-6.03148
▁him	-6.03293
▁no	-6.08684
▁page	-6.09598
▁so	-6.11824
▁there	-6.17191
▁who	-6.17426
▁been	-6.1752
▁she	-6.21651
▁my	-6.21696
▁if	-6.26211
▁when	-6.28488
▁them	-6.29849
▁has	-6.31497
▁its	-6.32041
▁djvu	-6.33278
▁any	-6.34071
▁will	-6.34323
▁other	-6.36698
▁me	-6.38291
▁may	-6.38647
▁such	-6.39585
▁more	-6.44935
▁would	-6.45389
▁shall	-6.46841
▁c	-6.47107
▁said	-6.49827
▁out	-6.56503
▁into	-6.5773
▁what	-6.60927
e	-6.62651
▁some	-6.63822
▁time	-6.64793
▁under	-6.66546
▁our	-6.66705
▁than	-6.68513
▁two	-6.69296
▁these	-6.69623
▁up	-6.70148
▁made	-6.70762
▁upon	-6.7176
▁only	-6.72044
▁do	-6.72085
▁d	-6.72329
▁states	-6.73187
▁then	-6.73491
▁b	-6.75317
▁after	-6.77113
▁man	-6.78141
▁now	-6.7953
▁first	-6.80548
▁act	-6.82601
▁e	-6.82755
▁united	-6.83742
▁new	-6.83908
▁about	-6.84275
▁see	-6.8697
▁very	-6.8771
▁can	-6.91148
▁great	-6.91148
▁p	-6.95402
▁before	-6.96262
▁your	-6.97772
▁could	-6.98364
▁like	-7.00131
▁m	-7.01762
▁being	-7.03334
▁part	-7.03984
▁where	-7.04351
▁those	-7.05363
▁should	-7.05517
▁also	-7.05986
▁state	-7.06052
▁well	-7.06168
▁de	-7.08847
▁same	-7.08901
▁over	-7.10122
▁us	-7.10408
▁t	-7.11172
▁l	-7.11517
▁day	-7.12527
▁men	-7.13597
▁mr	-7.14483
▁most	-7.15111
▁did	-7.1537
▁r	-7.16245
▁must	-7.17801
▁life	-7.18169
▁right	-7.18731
▁little	-7.18828
▁many	-7.21942
▁law	-7.22029
▁n	-7.22047
▁volume	-7.22229
▁years	-7.2368
▁much	-7.24643
▁court	-7.25002
▁good	-7.25337
▁through	-7.25997
▁work	-7.29822
▁general	-7.29961
▁old	-7.30332
▁h	-7.30773
▁own	-7.31992
▁u	-7.32383
▁here	-7.3266
▁without	-7.33146
▁section	-7.3558
▁house	-7.36328
▁long	-7.3688
▁how	-7.36993
▁three	-7.37099
▁f	-7.37208
▁each	-7.37632
▁year	-7.38094
▁place	-7.38344
▁down	-7.3895
▁even	-7.39146
▁make	-7.39301
▁found	-7.40693
▁every	-7.41046
▁o	-7.41629
▁j	-7.43363
▁way	-7.43705
▁people	-7.44563
▁while	-7.46724
▁against	-7.4788
▁know	-7.48095
▁come	-7.48147
▁between	-7.48375
▁public	-7.49068
▁himself	-7.49982
▁god	-7.50659
▁amp	-7.50673
▁th	-7.52475
▁w	-7.53116
▁st	-7.53428
▁g	-7.53474
▁go	-7.53993
▁never	-7.5413
d	-7.5496
▁name	-7.55281
▁came	-7.56003
▁still	-7.57102
▁john	-7.57218
▁large	-7.57337
▁case	-7.57434
▁another	-7.57876
▁again	-7.58104
▁might	-7.604
▁lord	-7.60655
▁left	-7.6098
▁last	-7.61609
▁take	-7.6185
▁both	-7.626
▁em	-7.63546
▁say	-7.6417
▁back	-7.6662
▁though	-7.68137
▁hand	-7.68272
▁yet	-7.68538
▁am	-7.69943
▁too	-7.70435
▁use	-7.70462
▁government	-7.70613
▁chapter	-7.70635
▁water	-7.70661
▁history	-7.70863
▁called	-7.71585
▁because	-7.71858
a	-7.7297
▁having	-7.73103
▁among	-7.73216
▁country	-7.74519
ed	-7.74527
▁order	-7.74602
▁world	-7.74687
▁vol	-7.76273
▁far	-7.76337
ing	-7.76351
▁national	-7.76374
▁however	-7.78055
▁land	-7.78374
▁went	-7.7852
▁just	-7.78564
▁during	-7.7951
▁war	-7.79909
▁power	-7.8048
▁king	-7.81653
▁give	-7.82161
▁thus	-7.8263
▁given	-7.83228
▁sir	-7.8361
▁end	-7.84387
▁whole	-7.84685
▁death	-7.84746
▁away	-7.85057
▁think	-7.85538
▁city	-7.8603
▁present	-7.86376
▁let	-7.87775
▁account	-7.88244
▁head	-7.883
▁nothing	-7.88826
▁thought	-7.88979
▁things	-7.89347
▁off	-7.89504
▁took	-7.90146
▁within	-7.90338
▁son	-7.90536
▁until	-7.91527
n	-7.91654
▁once	-7.9199
▁days	-7.92061
▁number	-7.92323
▁whom	-7.92871
▁few	-7.93106
▁put	-7.93811
▁second	-7.94398
▁four	-7.94593
▁church	-7.94754
▁form	-7.95056
▁ever	-7.96434
▁side	-7.9659
▁taken	-7.96596
▁small	-7.96633
▁young	-7.96709
▁does	-7.97019
▁used	-7.97455
▁book	-7.97522
es	-7.98035
i	-7.98241
t	-7.98509
▁nor	-7.98968
▁secretary	-7.99138
▁certain	-7.99404
▁since	-7.99863
▁others	-8.00135
▁father	-8.00463
▁company	-8.00892
▁following	-8.01756
▁known	-8.01777
▁night	-8.01956
y	-8.02181
▁white	-8.02193
▁set	-8.02498
▁less	-8.02764
▁love	-8.032
▁thou	-8.0327
▁half	-8.03508
▁y	-8.03555
▁therefore	-8.03774
▁align	-8.03959
▁mrs	-8.04144
▁above	-8.04563
▁eyes	-8.04693
▁subject	-8.04764
▁find	-8.04868
▁always	-8.04914
▁service	-8.05006
▁ed	-8.05175
▁works	-8.05442
▁william	-8.06183
▁hundred	-8.06269
ly	-8.06339
▁london	-8.06554
▁held	-8.06668
▁high	-8.06822
▁course	-8.0788
▁whose	-8.08107
▁light	-8.08401
▁english	-8.08629
▁mind	-8.09202
▁get	-8.09559
▁north	-8.10069
▁person	-8.10457
▁american	-8.10653
▁done	-8.1068
▁home	-8.10717
▁office	-8.11055
▁whether	-8.1152
▁several	-8.11677
▁means	-8.11714
▁river	-8.11875
▁congress	-8.11884
▁five	-8.12031
▁pdf	-8.12037
▁nature	-8.1228
▁title	-8.12885
▁br	-8.13372
▁near	-8.13509
▁seen	-8.13721
▁saw	-8.13869
▁president	-8.13943
▁per	-8.1415
▁brought	-8.14185
▁fact	-8.14659
▁thing	-8.14793
▁face	-8.14809
▁south	-8.15313
▁ar	-8.15445
▁words	-8.15731
▁body	-8.16115
▁point	-8.16546
▁question	-8.16662
▁necessary	-8.17463
▁full	-8.17981
▁better	-8.18425
▁matter	-8.18443
▁why	-8.18477
▁children	-8.1901
▁co	-8.19962
▁cannot	-8.20082
▁provided	-8.20432
▁feet	-8.2044
▁district	-8.2072
▁la	-8.208
▁england	-8.20893
▁heart	-8.20943
▁became	-8.21026
▁june	-8.2113
▁school	-8.22991
▁america	-8.22996
▁soon	-8.23024
▁themselves	-8.23449
▁re	-8.24161
▁almost	-8.25069
▁word	-8.25367
▁true	-8.25369
▁sec	-8.25486
▁further	-8.25553
▁either	-8.256
▁woman	-8.25648
▁gave	-8.26561
▁best	-8.26565
▁thy	-8.27336
▁times	-8.2783
▁going	-8.28032
▁free	-8.28034
▁common	-8.28568
▁early	-8.28703
▁dont	-8.28785
▁look	-8.29059
▁together	-8.29063
▁period	-8.29412
▁next	-8.3014
▁family	-8.30176
▁sea	-8.30523
▁march	-8.30922
▁room	-8.31306
▁york	-8.31327
▁federal	-8.31347
▁hands	-8.31376
▁art	-8.31715
▁received	-8.32112
▁line	-8.32155
▁died	-8.32178
▁property	-8.32642
▁later	-8.32807
▁sent	-8.33292
▁interest	-8.33385
▁society	-8.33915
▁tell	-8.34209
▁k	-8.34663
er	-8.34694
▁pr	-8.34747
▁dr	-8.34935
▁till	-8.35191
▁heard	-8.3524
▁authority	-8.35349
▁making	-8.35365
▁something	-8.35577
▁quite	-8.35906
▁different	-8.35996
▁itself	-8.36547
o	-8.36588
▁wife	-8.36891
▁says	-8.36915
▁west	-8.37166
▁rather	-8.37498
▁got	-8.37571
▁stat	-8.3765
▁kind	-8.37926
▁born	-8.37963
▁chief	-8.37996
▁black	-8.38038
▁money	-8.38362
▁town	-8.38663
▁told	-8.38966
▁twenty	-8.39044
▁ground	-8.39077
▁information	-8.3913
▁vtp	-8.39573
▁business	-8.40195
▁july	-8.40337
▁henry	-8.40614
▁perhaps	-8.4104
▁human	-8.41061
▁often	-8.41165
▁laws	-8.41423
▁air	-8.41715
r	-8.41729
▁system	-8.4179
▁x	-8.41864
▁pay	-8.41942
▁reason	-8.42152
▁fire	-8.42152
▁passed	-8.42574
▁army	-8.42714
▁mother	-8.42793
▁force	-8.42807
▁members	-8.42824
▁statutes	-8.43388
▁age	-8.43967
▁seemed	-8.43973
▁date	-8.44105
▁county	-8.44272
▁purpose	-8.44296
▁including	-8.44604
▁miles	-8.44754
▁opinion	-8.4477
▁began	-8.44958
▁women	-8.45244
▁six	-8.45355
▁manner	-8.45694
▁action	-8.45918
▁looked	-8.45985
▁become	-8.46166
▁enough	-8.46346
▁french	-8.46369
▁amount	-8.46575
▁already	-8.46633
▁asked	-8.4667
▁according	-8.46989
▁party	-8.47041
▁round	-8.47913
▁open	-8.4849
▁except	-8.48687
▁least	-8.49083
▁short	-8.49318
▁george	-8.4957
▁cause	-8.49917
▁et	-8.5005
▁thomas	-8.50142
▁along	-8.50355
▁ill	-8.50669
▁letter	-8.50693
▁persons	-8.50769
▁thousand	-8.50772
▁knew	-8.50887
▁board	-8.50936
▁effect	-8.50995
▁third	-8.51766
▁read	-8.52693
▁april	-8.52781
▁indeed	-8.53211
▁cases	-8.53278
▁want	-8.54077
▁text	-8.54144
▁ten	-8.54166
▁talk	-8.54469
▁james	-8.5452
▁earth	-8.5453
▁red	-8.55212
▁character	-8.55212
▁moment	-8.55293
▁natural	-8.55322
▁east	-8.55367
▁justice	-8.55975
▁view	-8.56055
▁poor	-8.5635
▁turned	-8.56604
▁etc	-8.56968
▁help	-8.56988
▁department	-8.57581
▁science	-8.57699
▁door	-8.57711
▁pl	-8.57797
▁possible	-8.58284
▁morning	-8.5879
▁charles	-8.58901
▁century	-8.59018
is	-8.59319
▁style	-8.59447
▁believe	-8.59536
▁university	-8.60136
▁published	-8.60303
▁special	-8.61027
us	-8.61091
▁various	-8.61126
▁although	-8.6141
▁child	-8.61419
▁call	-8.61437
▁q	-8.61468
▁spirit	-8.61744
▁article	-8.61793
▁return	-8.6181
▁rest	-8.61933
▁oh	-8.6198
▁author	-8.6219
▁report	-8.62616
▁value	-8.6278
▁yes	-8.6284
▁im	-8.62898
▁respect	-8.63187
▁important	-8.63208
▁alone	-8.6324
▁lady	-8.63325
▁hope	-8.63437
▁indian	-8.63643
▁seems	-8.63828
▁christ	-8.63942
▁latter	-8.63992
▁care	-8.64065
▁parts	-8.64115
▁provisions	-8.64126
▁books	-8.64637
▁authorized	-8.64654
▁anything	-8.64766
▁position	-8.64778
▁late	-8.64831
▁series	-8.64869
▁keep	-8.65259
▁british	-8.65569
▁miss	-8.65687
▁able	-8.65723
▁show	-8.65819
▁dead	-8.65906
▁center	-8.65926
▁knowledge	-8.67002
▁felt	-8.67392
▁note	-8.67819
▁foreign	-8.6786
▁notes	-8.67955
▁myself	-8.68143
▁close	-8.68574
▁peace	-8.68803
▁ct	-8.6887
▁voice	-8.69158
▁services	-8.69479
▁military	-8.69766
in	-8.69846
▁friend	-8.70099
▁road	-8.70117
▁continued	-8.70384
▁fine	-8.70408
▁le	-8.70413
▁none	-8.70572
▁education	-8.70645
▁evidence	-8.70658
▁sense	-8.7115
▁truth	-8.71473
▁probably	-8.71499
▁india	-8.71516
▁required	-8.71603
▁al	-8.7173
▁need	-8.71787
▁purposes	-8.71808
▁story	-8.72028
▁written	-8.72111
▁commission	-8.72255
▁carried	-8.72346
▁lost	-8.72354
▁paid	-8.7286
▁rights	-8.72943
▁lands	-8.72998
▁lay	-8.73123
▁mary	-8.73242
▁leave	-8.73372
▁stood	-8.73574
▁duty	-8.73944
▁college	-8.74002
▁top	-8.74195
▁term	-8.74503
▁con	-8.74553
▁private	-8.74934
▁trade	-8.75073
▁entered	-8.7518
▁ye	-8.7521
▁en	-8.75503
▁committee	-8.75607
▁especially	-8.75659
▁strong	-8.75853
▁friends	-8.76361
▁thereof	-8.76429
▁council	-8.76733
▁dear	-8.76797
▁sometimes	-8.76836
▁soul	-8.76911
▁greater	-8.76955
▁courts	-8.7743
▁captain	-8.77438
▁available	-8.77462
▁mean	-8.77629
▁real	-8.77837
▁hold	-8.77837
▁appointed	-8.77868
▁daughter	-8.77899
▁language	-8.77925
▁development	-8.78021
▁senate	-8.78163
▁table	-8.78165
▁green	-8.78204
▁due	-8.78306
▁returned	-8.78384
▁original	-8.78396
▁gold	-8.78468
▁france	-8.78787
▁nearly	-8.78901
▁arms	-8.78928
▁towards	-8.791
▁living	-8.79314
▁post	-8.79335
▁expenses	-8.79461
▁amended	-8.79603
▁subsection	-8.79696
▁change	-8.79764
l	-8.79966
▁across	-8.80254
▁street	-8.80365
▁paris	-8.8044
▁officers	-8.80545
▁study	-8.80769
▁inches	-8.81236
▁length	-8.81535
▁clear	-8.81609
▁political	-8.8161
▁class	-8.8163
▁forth	-8.81896
▁holy	-8.81942
▁complete	-8.82138
▁payment	-8.82179
▁letters	-8.82263
▁field	-8.82383
▁followed	-8.82484
▁gt	-8.82532
▁former	-8.82916
▁paper	-8.83271
▁behind	-8.83291
▁member	-8.83328
▁ch	-8.83446
▁kept	-8.83461
▁seven	-8.83606
▁brother	-8.83691
▁sun	-8.83926
▁idea	-8.84004
▁bring	-8.84043
▁species	-8.84562
▁beyond	-8.84604
▁cut	-8.84666
▁master	-8.8491
▁placed	-8.84921
▁hear	-8.84953
▁constitution	-8.8498
▁doubt	-8.85063
▁taking	-8.85295
▁supreme	-8.85372
▁ancient	-8.85457
▁gone	-8.85496
▁judgment	-8.86139
▁sure	-8.86193
▁appeared	-8.86256
▁blood	-8.86267
▁established	-8.86699
▁rule	-8.86848
▁coming	-8.87011
▁girl	-8.87366
▁around	-8.87418
▁afterwards	-8.87679
▁food	-8.87695
▁met	-8.87707
▁german	-8.87756
▁royal	-8.8785
▁hour	-8.88019
▁judge	-8.88021
▁self	-8.88112
▁live	-8.88342
▁social	-8.88421
▁past	-8.88616
▁speak	-8.88795
▁generally	-8.88851
▁health	-8.89144
▁really	-8.89149
▁months	-8.89369
▁rate	-8.8941
▁hard	-8.89447
▁stone	-8.89589
▁considered	-8.89596
▁looking	-8.89609
▁neither	-8.89705
▁result	-8.89989
▁local	-8.90303
▁beginning	-8.90831
▁prince	-8.91143
▁pass	-8.91365
▁boy	-8.9155
▁fair	-8.92066
▁faith	-8.92089
▁particular	-8.92287
▁notice	-8.92392
▁fell	-8.92485
▁pp	-8.92916
▁support	-8.93028
▁edition	-8.93032
▁described	-8.93279
▁cross	-8.93359
▁low	-8.93437
▁appear	-8.93734
▁paragraph	-8.93752
▁lt	-8.93762
▁plan	-8.93787
▁future	-8.93819
▁popular	-8.93996
▁places	-8.94138
▁turn	-8.94154
▁added	-8.94305
▁horse	-8.94501
▁dark	-8.94546
▁fiscal	-8.94565
▁answer	-8.94648
▁island	-8.94713
▁feel	-8.94848
▁un	-8.9496
▁otherwise	-8.95337
▁below	-8.95359
▁building	-8.95396
▁bank	-8.95504
▁provide	-8.95556
▁robert	-8.959
▁hall	-8.96061
▁modern	-8.96169
▁z	-8.963
▁forms	-8.96302
▁fear	-8.96355
▁civil	-8.9639
▁married	-8.96613
▁herself	-8.96638
▁seem	-8.96813
▁appears	-8.97151
▁fall	-8.97366
▁proper	-8.97402
▁dictionary	-8.97785
▁similar	-8.97853
▁ask	-8.97873
▁front	-8.98025
▁union	-8.98151
▁individual	-8.98261
▁led	-8.98445
▁regard	-8.98579
▁eight	-8.98609
m	-8.98744
▁bill	-8.98829
▁wish	-8.99073
▁approved	-8.99277
▁thirty	-8.99308
▁terms	-8.99476
▁hours	-8.99984
▁month	-9.00169
▁condition	-9.00354
▁deep	-9.00437
▁meet	-9.00503
▁immediately	-9.00503
▁sale	-9.00514
▁personal	-9.0073
▁total	-9.0094
▁bed	-9.00944
▁governor	-9.00945
▁sat	-9.00982
▁equal	-9.01114
▁coast	-9.01164
▁january	-9.01233
▁middle	-9.01394
▁single	-9.01461
▁mentioned	-9.01575
▁conditions	-9.01579
▁laid	-9.01699
▁charge	-9.01775
▁formed	-9.01901
▁august	-9.01971
▁claim	-9.02587
▁officer	-9.02705
▁reached	-9.02791
▁object	-9.02823
▁administration	-9.02885
▁religious	-9.02889
▁kings	-9.02908
▁battle	-9.03062
▁attention	-9.03132
▁unless	-9.03133
▁southern	-9.03286
▁issue	-9.0329
▁wood	-9.03349
en	-9.03399
▁unto	-9.03461
▁sound	-9.03508
▁control	-9.03579
▁mass	-9.03632
▁week	-9.03672
▁eye	-9.03706
▁beautiful	-9.0386
▁appropriation	-9.03892
▁nov	-9.03911
▁tax	-9.03951
▁construction	-9.03994
▁ac	-9.04176
▁edward	-9.04296
▁bishop	-9.04303
▁october	-9.04324
▁christian	-9.04559
▁jesus	-9.04694
▁longer	-9.04749
▁oct	-9.04915
▁lines	-9.0492
▁foot	-9.05041
▁lower	-9.05331
▁carry	-9.05373
▁stand	-9.05438
▁rose	-9.05614
▁obtained	-9.05624
▁follows	-9.05828
▁process	-9.05879
▁birds	-9.05908
▁dollars	-9.05937
▁influence	-9.06098
▁nation	-9.06375
▁rev	-9.06634
▁tree	-9.06671
▁security	-9.06872
▁ought	-9.07099
um	-9.07123
▁pension	-9.07361
▁trees	-9.07365
▁blue	-9.07375
▁historical	-9.0752
▁remain	-9.07547
▁evening	-9.07571
▁wall	-9.07751
▁sort	-9.08029
▁cost	-9.08057
▁nations	-9.08233
▁hill	-9.08263
▁brown	-9.08364
▁distance	-9.08563
▁earl	-9.08931
▁international	-9.09151
▁determined	-9.09208
▁command	-9.0934
▁september	-9.0937
▁schools	-9.09395
▁ship	-9.09559
▁funds	-9.0979
▁makes	-9.09953
▁review	-9.09959
▁western	-9.10035
▁follow	-9.1021
▁material	-9.10456
▁grant	-9.10521
▁receive	-9.10524
▁principal	-9.10557
▁extent	-9.10562
▁acts	-9.10666
▁die	-9.10706
▁cold	-9.1077
▁ready	-9.10776
▁saying	-9.11119
▁certainly	-9.11129
▁religion	-9.11172
▁roman	-9.11204
▁powers	-9.11215
▁assistance	-9.11456
▁else	-9.11623
▁native	-9.11669
▁washington	-9.11783
▁december	-9.11835
▁bird	-9.11853
▁practice	-9.12167
▁heaven	-9.12283
▁direction	-9.12434
▁cried	-9.12526
▁sight	-9.12716
▁capital	-9.12857
▁indians	-9.12931
▁iron	-9.12939
▁understand	-9.13147
▁ex	-9.1324
▁answered	-9.13398
▁remained	-9.13465
▁contract	-9.13539
▁ing	-9.13652
▁wrote	-9.13652
▁everything	-9.13995
▁record	-9.14063
▁space	-9.14224
▁policy	-9.14326
▁existence	-9.14367
▁community	-9.144
▁sum	-9.14404
▁program	-9.14542
▁literature	-9.14624
▁merely	-9.14759
▁fifty	-9.14857
▁library	-9.14869
▁entitled	-9.14883
▁covered	-9.14989
▁protection	-9.15058
▁tion	-9.15082
▁using	-9.15187
▁built	-9.15502
▁besides	-9.15568
▁non	-9.15661
▁whatever	-9.1567
▁possession	-9.15781
▁portion	-9.15909
▁facts	-9.16039
▁run	-9.16098
h	-9.16172
▁toward	-9.16195
▁enemy	-9.16425
▁employed	-9.16565
▁papers	-9.16643
▁relief	-9.16793
▁forward	-9.16818
▁collection	-9.17042
▁names	-9.1717
▁jan	-9.17276
▁agreement	-9.17278
▁bar	-9.17438
▁replied	-9.17489
▁dec	-9.17643
▁bad	-9.17652
▁degree	-9.17767
▁comes	-9.17901
▁allowed	-9.17992
▁ago	-9.18176
▁defense	-9.18247
▁suddenly	-9.18461
▁list	-9.18606
▁higher	-9.18657
▁shown	-9.18844
▁sufficient	-9.19083
▁mouth	-9.19091
▁bottom	-9.19133
▁labor	-9.19275
▁strength	-9.19299
▁opened	-9.19317
▁doing	-9.19322
▁february	-9.19412
▁application	-9.19458
▁representatives	-9.19499
▁population	-9.1954
▁poems	-9.19587
▁bear	-9.19836
▁experience	-9.19863
▁fig	-9.20135
▁produced	-9.2035
▁instead	-9.20371
▁questions	-9.20534
▁big	-9.20586
▁increase	-9.20746
▁striking	-9.2075
▁circumstances	-9.20786
▁lived	-9.20815
▁strange	-9.20852
▁desire	-9.20918
▁greek	-9.20953
▁gives	-9.20958
▁november	-9.20978
▁conduct	-9.21078
▁oxford	-9.21109
▁border	-9.21127
▁size	-9.21387
▁central	-9.21782
▁catholic	-9.21875
▁parties	-9.21883
▁entirely	-9.21954
▁giving	-9.22049
▁hair	-9.22387
▁raised	-9.22576
▁surface	-9.22686
▁territory	-9.22729
▁orders	-9.22784
▁code	-9.22803
▁meeting	-9.23019
▁duties	-9.23212
▁fellow	-9.23283
▁europe	-9.23587
▁fathers	-9.2369
▁formula	-9.23775
▁des	-9.23794
▁articles	-9.23835
▁countries	-9.23957
▁marriage	-9.23992
▁play	-9.24216
▁sons	-9.2424
▁rome	-9.24293
▁husband	-9.24438
▁animals	-9.24499
▁area	-9.24549
▁division	-9.24556
▁queen	-9.24748
▁feeling	-9.24829
▁lake	-9.24988
ers	-9.24992
on	-9.24992
▁wild	-9.25138
▁wind	-9.25139
▁direct	-9.25151
▁considerable	-9.25363
▁utc	-9.25642
▁forces	-9.25712
▁meaning	-9.25796
▁served	-9.25944
▁houses	-9.26115
▁outside	-9.26254
▁principles	-9.26395
▁changes	-9.26397
▁operation	-9.26546
▁commerce	-9.27021
▁agency	-9.27219
▁example	-9.2722
▁main	-9.27397
▁pro	-9.27472
▁kingdom	-9.27508
▁rich	-9.27528
▁motion	-9.27608
▁standing	-9.27677
▁reference	-9.27691
▁village	-9.27741
▁named	-9.27744
▁monthly	-9.27791
▁px	-9.27874
▁richard	-9.27948
▁hath	-9.27977
▁affairs	-9.28019
▁success	-9.28116
▁com	-9.28164
al	-9.28385
▁pleasure	-9.28623
▁trust	-9.28953
▁biography	-9.29139
▁matters	-9.29182
▁wide	-9.29351
▁simple	-9.29352
▁camp	-9.29448
▁northern	-9.29498
▁progress	-9.29661
▁wanted	-9.29716
▁worth	-9.2976
▁fourth	-9.29785
▁finally	-9.29967
▁remains	-9.30085
▁hereby	-9.30155
▁points	-9.30208
▁joseph	-9.30213
▁figure	-9.30449
▁professor	-9.30603
▁mine	-9.30621
▁directed	-9.30636
▁claims	-9.30958
▁race	-9.30998
▁suppose	-9.31015
▁boston	-9.31059
▁numerous	-9.31114
▁tried	-9.31239
▁presence	-9.31288
▁spring	-9.31356
▁upper	-9.31422
▁divine	-9.31454
▁concerning	-9.31477
▁issued	-9.31684
▁remember	-9.31914
▁lead	-9.31934
▁mere	-9.31957
▁forty	-9.31998
▁horses	-9.32088
▁impossible	-9.32093
▁amendments	-9.32151
▁arm	-9.32163
▁origin	-9.32315
▁engaged	-9.32339
▁dia	-9.32421
▁plain	-9.32435
ness	-9.32443
▁par	-9.32448
▁appearance	-9.32789
▁legal	-9.32912
▁evil	-9.3292
▁writing	-9.3292
▁columbia	-9.3302
▁granted	-9.33076
▁window	-9.33175
▁increased	-9.33268
▁aid	-9.33339
▁working	-9.33343
▁trial	-9.33541
▁connection	-9.3361
▁range	-9.33619
▁price	-9.33702
re	-9.33748
▁drawn	-9.33755
▁ia	-9.33807
▁beauty	-9.3392
▁ordinary	-9.33977
▁jurisdiction	-9.34176
▁additional	-9.34255
▁heavy	-9.34788
▁official	-9.34871
▁statute	-9.34923
▁stories	-9.35019
▁nine	-9.35048
▁importance	-9.35152
▁glass	-9.35288
▁accounts	-9.35333
▁enter	-9.35559
▁appropriate	-9.35608
▁fixed	-9.35623
▁ones	-9.35629
▁occasion	-9.35735
▁major	-9.35817
▁animal	-9.35887
▁attack	-9.35931
▁learned	-9.36081
▁principle	-9.36126
▁spoke	-9.36135
▁method	-9.36214
▁throughout	-9.36226
▁picture	-9.36281
▁soldiers	-9.36286
▁oregon	-9.36295
▁winter	-9.36298
▁lives	-9.36363
▁presented	-9.36378
▁valley	-9.36422
▁economic	-9.36426
▁association	-9.36527
▁silver	-9.36559
▁happy	-9.36572
▁du	-9.36693
▁usually	-9.36786
▁interior	-9.36798
▁david	-9.36833
▁relations	-9.36842
▁bound	-9.36969
▁citizens	-9.37043
▁grand	-9.37064
▁twelve	-9.3708
▁hence	-9.37145
▁consider	-9.37156
▁fund	-9.37297
▁applied	-9.37337
▁election	-9.37427
▁observed	-9.37463
▁perfect	-9.37712
an	-9.37759
▁leaves	-9.37813
▁boys	-9.37817
▁parliament	-9.379
▁decision	-9.38067
▁duke	-9.38086
th	-9.38099
▁moral	-9.38102
man	-9.38146
▁broken	-9.38161
▁ll	-9.38218
▁project	-9.38267
▁intended	-9.38538
▁republic	-9.38649
▁inserting	-9.38753
▁elected	-9.38755
▁gods	-9.38768
▁loss	-9.39063
▁efforts	-9.39138
▁filled	-9.39145
▁arrived	-9.39184
▁mark	-9.39257
▁rock	-9.39269
▁ran	-9.39271
▁solid	-9.39307
▁mar	-9.39328
▁temple	-9.39338
▁van	-9.39478
▁peter	-9.3954
▁smith	-9.39565
▁aug	-9.396
▁moved	-9.39751
▁removed	-9.39825
▁printed	-9.39913
ia	-9.39985
▁greatest	-9.39991
▁proved	-9.39996
▁region	-9.40014
▁difficult	-9.4007
▁ordered	-9.40079
▁group	-9.40087
▁id	-9.40111
▁rise	-9.40302
▁port	-9.40366
▁square	-9.40403
▁summer	-9.40423
▁addition	-9.4043
▁user	-9.40515
▁feb	-9.40623
▁prepared	-9.40706
▁instance	-9.4088
▁islands	-9.40915
▁troops	-9.41025
▁deal	-9.41231
▁attempt	-9.41298
▁relation	-9.41379
▁fish	-9.41479
▁statement	-9.41642
▁stated	-9.4165
▁fort	-9.41746
▁declared	-9.41859
▁xi	-9.41983
▁freedom	-9.41988
▁somewhat	-9.42232
▁minister	-9.42513
▁corporation	-9.42538
▁leaving	-9.4259
▁sweet	-9.4264
▁music	-9.42649
▁sleep	-9.42764
▁passage	-9.42777
▁theory	-9.4283
▁vessels	-9.42834
▁entire	-9.429
▁save	-9.42925
▁easily	-9.43063
▁hardly	-9.431
▁expression	-9.43195
▁piece	-9.43312
▁activities	-9.43327
▁treasury	-9.43409
▁offered	-9.43468
▁er	-9.43554
▁lie	-9.43556
▁usual	-9.43631
▁ireland	-9.4364
▁station	-9.43743
▁cant	-9.43745
▁previous	-9.43806
▁eastern	-9.43846
▁oil	-9.43956
▁results	-9.43964
▁secret	-9.43964
▁tales	-9.44071
▁youth	-9.44082
▁killed	-9.44261
▁regulations	-9.44487
▁enacted	-9.44488
▁contrary	-9.44501
▁supposed	-9.44527
▁caused	-9.44652
▁medical	-9.44653
▁resolution	-9.44725
▁emperor	-9.44809
▁accordance	-9.44851
▁easy	-9.4487
▁crown	-9.44938
▁consideration	-9.44947
▁garden	-9.44963
▁press	-9.45023
▁castle	-9.45216
▁china	-9.45414
▁send	-9.45484
▁referred	-9.45487
▁mountain	-9.45592
▁proclamation	-9.45703
▁stock	-9.45729
▁produce	-9.45753
▁v	-9.45788
▁try	-9.45807
▁sister	-9.46002
▁sub	-9.46201
▁minutes	-9.46275
▁rules	-9.46345
▁sin	-9.46465
▁allow	-9.46632
▁mountains	-9.46719
▁cast	-9.46798
▁africa	-9.46938
▁serve	-9.47141
▁san	-9.47214
▁description	-9.47305
▁weight	-9.47322
▁doctor	-9.47364
▁discovered	-9.47369
▁ad	-9.47422
▁basis	-9.47437
▁adopted	-9.47467
▁regarded	-9.47507
▁simply	-9.47508
▁song	-9.47525
▁liberty	-9.47765
▁fully	-9.47774
▁movement	-9.47876
▁decided	-9.47877
▁final	-9.47988
▁railroad	-9.48012
▁attorney	-9.48041
▁interesting	-9.4806
▁based	-9.48084
▁happened	-9.48163
▁continue	-9.48185
▁production	-9.48223
▁exceed	-9.48415
▁broad	-9.48438
▁contained	-9.4848
▁bl	-9.48542
▁provision	-9.48589
▁cent	-9.48761
▁journal	-9.48792
▁opportunity	-9.48801
▁width	-9.48802
▁interests	-9.48937
▁colonel	-9.48955
▁speech	-9.49044
▁holding	-9.49093
▁delivered	-9.49338
▁reading	-9.49624
▁subjects	-9.49668
▁forest	-9.49691
▁visit	-9.49875
▁joint	-9.50292
▁apply	-9.50311
▁pursuant	-9.50359
▁colspan	-9.50412
▁car	-9.50437
▁prior	-9.50439
▁danger	-9.50452
▁francis	-9.50551
▁grace	-9.50611
▁executive	-9.50642
▁amendment	-9.50803
▁vessel	-9.5082
▁purchase	-9.50867
▁related	-9.50885
▁el	-9.50916
▁active	-9.50994
▁pre	-9.51093
▁prevent	-9.51169
▁game	-9.51196
▁literary	-9.51209
▁bay	-9.51271
▁base	-9.51416
▁add	-9.51477
▁annual	-9.515
▁carrying	-9.51597
▁energy	-9.51673
▁chair	-9.5171
▁hot	-9.51844
▁research	-9.52059
▁settled	-9.52193
▁difference	-9.52201
▁pretty	-9.52408
▁type	-9.52469
▁reports	-9.52569
▁proposed	-9.5262
▁index	-9.52675
▁fresh	-9.52677
▁da	-9.5273
▁irish	-9.5274
▁les	-9.52874
▁walls	-9.52992
▁honour	-9.53053
▁address	-9.53063
▁california	-9.53196
▁gathered	-9.53198
▁frequently	-9.53202
▁philosophy	-9.53222
▁begin	-9.53247
▁waters	-9.53459
▁showed	-9.53506
▁training	-9.53508
▁memory	-9.53532
▁count	-9.53588
▁wi	-9.53755
▁physical	-9.53976
▁elizabeth	-9.54103
▁tribes	-9.54124
▁sold	-9.54133
▁virtue	-9.54157
▁numbers	-9.54176
▁current	-9.54195
▁market	-9.54198
▁nd	-9.5421
▁write	-9.54313
▁scientific	-9.54315
▁plants	-9.54408
▁marked	-9.54428
▁proceedings	-9.5445
▁level	-9.54534
▁empire	-9.54542
▁effective	-9.54633
▁buildings	-9.54651
▁connected	-9.54672
▁seeing	-9.54761
▁peculiar	-9.54778
▁vo	-9.54864
▁assembly	-9.55074
▁joy	-9.55145
▁bodies	-9.55207
▁bright	-9.55224
▁valign	-9.55239
▁guard	-9.55288
▁seat	-9.55307
▁chap	-9.55309
▁contains	-9.55328
▁railway	-9.55338
▁lieutenant	-9.55488
▁relating	-9.55556
▁goods	-9.5558
▁passing	-9.55617
▁boat	-9.55711
▁treaty	-9.55775
▁reach	-9.55818
▁effects	-9.56047
▁organization	-9.56155
▁ive	-9.56176
▁trouble	-9.56211
▁dry	-9.56214
▁wrong	-9.56293
▁don	-9.56411
▁existing	-9.56521
▁police	-9.56558
▁separate	-9.56574
▁ideas	-9.56575
▁latin	-9.56641
▁treatment	-9.56698
▁yellow	-9.56712
▁ft	-9.56812
▁admitted	-9.56834
▁pa	-9.56925
▁started	-9.56931
▁sacred	-9.56971
▁credit	-9.56976
▁difficulty	-9.56978
▁divided	-9.57407
▁changed	-9.57462
▁prove	-9.57502
▁supply	-9.57514
▁se	-9.57567
▁independent	-9.57631
▁require	-9.57631
▁records	-9.57743
▁succeeded	-9.57767
▁please	-9.57819
▁usc	-9.5784
▁agreed	-9.57868
▁exercise	-9.57952
▁speaking	-9.58008
▁struck	-9.58058
▁occupied	-9.58171
▁measure	-9.5823
▁bridge	-9.58367
▁situation	-9.58402
▁chance	-9.58554
▁distinguished	-9.58567
▁news	-9.58615
▁include	-9.58645
▁containing	-9.58677
▁patent	-9.5873
▁ment	-9.58765
▁ships	-9.58819
▁appeal	-9.58888
▁di	-9.58968
▁fight	-9.58972
▁regular	-9.58992
▁goes	-9.59058
▁paul	-9.5907
▁dog	-9.59184
▁shows	-9.59399
▁establishment	-9.59467
▁actual	-9.5949
▁suit	-9.59494
▁israel	-9.596
▁flowers	-9.59675
▁estate	-9.597
▁stay	-9.5973
▁highest	-9.5979
▁founded	-9.59856
▁gen	-9.59861
▁famous	-9.59884
▁sides	-9.60017
▁limited	-9.60026
▁encyclop	-9.60058
▁represented	-9.60122
z	-9.60142
▁compensation	-9.60156
▁clearly	-9.60419
▁particularly	-9.60431
▁edited	-9.60453
▁objects	-9.60466
▁chiefly	-9.60495
▁salt	-9.60565
▁directly	-9.60609
▁sign	-9.60676
▁pt	-9.60704
▁greatly	-9.60789
▁takes	-9.60844
▁gentleman	-9.6092
▁remarkable	-9.60979
▁believed	-9.61002
▁didnt	-9.6108
▁created	-9.61098
▁lies	-9.61104
▁thinking	-9.61105
▁leading	-9.61191
▁plant	-9.61231
▁advance	-9.6124
▁glad	-9.6136
▁drew	-9.61375
▁individuals	-9.61412
▁assembled	-9.6142
▁revenue	-9.61443
▁thoughts	-9.61447
▁rendered	-9.61494
▁ne	-9.61505
▁management	-9.61588
▁understood	-9.61607
te	-9.61734
▁expected	-9.61753
▁step	-9.61801
▁error	-9.61982
▁becomes	-9.621
▁convention	-9.62103
▁institutions	-9.62104
▁facilities	-9.622
▁girls	-9.62317
ie	-9.6232
▁ah	-9.62336
▁daily	-9.62484
▁floor	-9.62542
▁priest	-9.62556
▁reign	-9.62593
▁pure	-9.62731
▁mans	-9.62744
▁mexico	-9.62759
▁european	-9.62924
▁employees	-9.62933
▁source	-9.62959
▁heat	-9.63089
▁operations	-9.63099
▁centre	-9.63268
▁hills	-9.63315
▁scotland	-9.63339
c	-9.63375
▁doctrine	-9.63402
▁wise	-9.63482
▁share	-9.63574
▁quantity	-9.6362
▁wine	-9.63634
▁lips	-9.63658
▁sought	-9.63747
▁sentence	-9.6378
▁practical	-9.63828
▁offer	-9.63965
▁italy	-9.63967
▁ma	-9.6414
▁height	-9.64214
▁proof	-9.64305
▁pieces	-9.64328
▁gas	-9.64386
▁louis	-9.64392
▁silence	-9.64421
▁quarter	-9.64489
▁larger	-9.646
▁tom	-9.64657
▁accepted	-9.64789
▁pleasant	-9.64849
▁sept	-9.64907
▁move	-9.64907
▁glory	-9.65102
▁appropriated	-9.6511
▁saint	-9.65183
▁regiment	-9.65272
▁likely	-9.65294
▁eat	-9.65643
▁copyright	-9.65749
▁fifth	-9.65797
▁hearing	-9.65827
▁spent	-9.65847
▁birth	-9.65852
eth	-9.65961
▁museum	-9.66149
▁germany	-9.66151
▁industry	-9.66191
▁journey	-9.66351
▁figures	-9.66377
▁safety	-9.66462
▁authors	-9.66498
▁legislature	-9.66583
▁institution	-9.66611
▁noble	-9.66634
▁learn	-9.66701
▁students	-9.66783
▁crime	-9.6683
▁whereas	-9.66856
▁virginia	-9.66898
▁naval	-9.669
▁scene	-9.66915
▁lying	-9.66916
▁foundation	-9.66938
▁rank	-9.66964
▁alexander	-9.67171
▁break	-9.67333
▁getting	-9.67451
▁majority	-9.67506
st	-9.67599
▁advanced	-9.6762
ton	-9.6768
▁ways	-9.67802
▁dream	-9.67865
▁navy	-9.67883
▁wikimedia	-9.67921
▁obtain	-9.68007
▁stage	-9.68037
▁events	-9.68071
▁knows	-9.68159
▁collected	-9.68339
▁actually	-9.68528
▁earlier	-9.6856
▁serious	-9.6862
▁studies	-9.68661
▁prayer	-9.68699
▁ball	-9.68897
▁cities	-9.69045
▁introduced	-9.69119
▁sections	-9.69128
▁joined	-9.69221
▁maintenance	-9.69234
▁heads	-9.69248
▁apparently	-9.69251
▁recent	-9.69269
▁watch	-9.69321
▁te	-9.69396
▁moon	-9.69396
▁products	-9.69422
▁opposite	-9.69426
▁caught	-9.69429
▁agent	-9.69438
▁corner	-9.6959
▁witness	-9.69674
▁chinese	-9.69682
▁hospital	-9.69747
▁shore	-9.69757
▁transportation	-9.69833
▁authorities	-9.69904
▁included	-9.6993
▁appropriations	-9.69954
▁uncle	-9.70091
▁request	-9.70193
▁lot	-9.70205
▁sand	-9.70272
▁director	-9.70286
▁soft	-9.7032
▁advantage	-9.70338
▁constitutional	-9.70347
▁examination	-9.70493
▁beside	-9.70569
▁walk	-9.7061
▁materials	-9.7063
▁running	-9.7063
▁false	-9.70711
▁finding	-9.70909
▁programs	-9.70937
▁steps	-9.70969
▁clerk	-9.70983
▁wonder	-9.71021
▁palace	-9.71081
▁features	-9.71123
▁concerned	-9.71125
▁sit	-9.7118
▁equally	-9.71298
▁circuit	-9.71338
▁signed	-9.71419
▁families	-9.71456
▁grew	-9.71607
▁slowly	-9.71668
▁der	-9.71767
▁grave	-9.71894
▁criminal	-9.71944
▁closed	-9.71946
▁internal	-9.71994
▁honor	-9.72026
▁fruit	-9.7207
▁sitting	-9.72119
▁grey	-9.72253
▁golden	-9.723
▁conclusion	-9.72308
▁double	-9.72473
▁park	-9.7251
▁vols	-9.7252
▁ourselves	-9.72548
▁effort	-9.7255
▁commissioner	-9.72561
▁excellent	-9.72693
▁widow	-9.72898
▁branch	-9.7291
▁club	-9.72922
▁beneath	-9.72951
▁fame	-9.73001
▁stands	-9.73038
▁color	-9.73129
▁jury	-9.73235
▁meant	-9.73267
▁copy	-9.73304
▁stop	-9.73323
▁wait	-9.73328
▁necessity	-9.7341
▁spread	-9.73413
▁straight	-9.73531
u	-9.73601
as	-9.73606
▁quickly	-9.73655
▁measures	-9.73661
▁valuable	-9.73786
▁spain	-9.73838
▁armed	-9.73929
▁benefit	-9.73934
▁servant	-9.7418
▁seek	-9.74271
▁defendant	-9.74294
▁superior	-9.74362
▁domestic	-9.74365
▁quality	-9.74371
▁wont	-9.74387
▁scarcely	-9.74402
▁legislative	-9.74415
▁sixty	-9.74424
▁narrow	-9.74439
▁search	-9.74447
▁writer	-9.74451
▁corn	-9.74512
▁buried	-9.74572
▁extended	-9.746
▁samuel	-9.74685
▁blessed	-9.74688
▁stream	-9.7471
▁fit	-9.74728
▁employment	-9.74749
▁snow	-9.74976
k	-9.75004
▁standard	-9.75054
▁worked	-9.75063
▁spanish	-9.75068
▁bread	-9.75085
▁farm	-9.75256
▁income	-9.75329
▁yourself	-9.75411
▁shot	-9.75762
▁pages	-9.75784
▁na	-9.75816
▁soil	-9.75927
▁recognized	-9.75953
▁bit	-9.75974
▁taught	-9.75977
▁cattle	-9.76023
▁secure	-9.76048
▁introduction	-9.76107
▁exchange	-9.76174
▁escape	-9.76205
▁brothers	-9.76236
f	-9.76307
▁cf	-9.76396
▁budget	-9.76422
▁hat	-9.76425
▁loved	-9.76479
▁expressed	-9.76496
▁lieu	-9.7653
▁reasonable	-9.76557
▁owner	-9.76559
▁partly	-9.76583
▁reply	-9.76627
▁inhabitants	-9.76692
ic	-9.76761
▁britannica	-9.76778
▁poet	-9.76812
▁consequence	-9.76938
▁absence	-9.7696
▁safe	-9.77029
▁sky	-9.77049
▁commercial	-9.77091
▁establish	-9.77259
▁banks	-9.77312
▁pain	-9.7732
▁province	-9.77587
▁tears	-9.77709
▁au	-9.77758
▁quiet	-9.7789
▁failed	-9.78078
▁vast	-9.78187
▁es	-9.78209
▁stopped	-9.78261
▁worship	-9.78335
▁settlement	-9.78384
▁spot	-9.78405
▁reasons	-9.78415
▁minute	-9.78437
▁determine	-9.78448
▁causes	-9.78511
▁classes	-9.78582
▁silent	-9.78605
▁refused	-9.78611
▁grass	-9.78648
▁judicial	-9.78671
▁mile	-9.78757
▁cap	-9.78757
▁agencies	-9.78936
▁draw	-9.79001
▁unknown	-9.7903
▁fast	-9.79196
▁useful	-9.79213
▁argument	-9.79324
▁mission	-9.79363
▁spiritual	-9.79369
▁counsel	-9.79389
▁drink	-9.79447
▁express	-9.79452
▁gray	-9.79459
▁vice	-9.79468
▁improvement	-9.79539
▁showing	-9.79539
▁average	-9.79564
▁li	-9.79689
▁committed	-9.79739
▁requirements	-9.79857
▁exist	-9.79971
▁accordingly	-9.79973
▁col	-9.80076
▁broke	-9.80129
▁assistant	-9.80165
▁vote	-9.80316
▁notwithstanding	-9.80355
▁bearing	-9.80451
▁derived	-9.80651
▁curious	-9.80754
▁colour	-9.80756
▁activity	-9.80812
▁eggs	-9.80816
▁explained	-9.80913
▁plate	-9.80927
▁receiving	-9.80953
▁rep	-9.80978
▁belief	-9.8098
▁magazine	-9.81021
▁formerly	-9.81036
▁views	-9.81043
▁touch	-9.81053
▁dress	-9.81108
▁youre	-9.81179
▁carefully	-9.81192
▁weeks	-9.81229
▁ou	-9.81282
▁composed	-9.81312
▁opening	-9.81349
▁treated	-9.81431
▁pope	-9.81442
▁welcome	-9.81558
▁http	-9.81577
▁bureau	-9.81577
▁loan	-9.81688
▁afraid	-9.81697
▁thanks	-9.81721
▁cry	-9.81754
▁substance	-9.8189
▁smile	-9.81923
▁revolution	-9.81923
▁consent	-9.81949
▁thin	-9.81961
▁flesh	-9.81973
▁attached	-9.8202
▁mental	-9.82064
▁growth	-9.821
▁moreover	-9.82224
▁priests	-9.82377
▁britain	-9.82437
▁pacific	-9.8254
▁survey	-9.82558
▁stones	-9.82619
▁understanding	-9.82627
▁wholly	-9.8273
▁fortune	-9.82788
▁academy	-9.82814
▁box	-9.82834
▁event	-9.82888
▁cloth	-9.82903
▁forced	-9.8292
▁train	-9.83079
▁pointed	-9.8308
▁peoples	-9.83102
▁poetry	-9.83136
▁wonderful	-9.83211
▁exactly	-9.83277
▁translation	-9.83335
▁thank	-9.83356
▁sheep	-9.83374
▁labour	-9.83434
▁student	-9.83436
▁aside	-9.83489
▁powerful	-9.8355
▁wealth	-9.83566
▁queries	-9.83574
▁season	-9.83589
▁tribe	-9.8362
▁neck	-9.83694
▁representative	-9.83704
▁mention	-9.83815
▁intelligence	-9.83945
▁distinct	-9.83969
▁proportion	-9.84102
▁developed	-9.84116
▁disease	-9.84117
▁accept	-9.84169
▁drawing	-9.8427
▁firm	-9.84272
▁occurred	-9.84339
▁ninth	-9.84389
▁publication	-9.84484
▁devoted	-9.84491
▁	-9.84503
▁needs	-9.8452
▁dinner	-9.84553
▁mo	-9.8458
▁ohio	-9.84601
▁walked	-9.8461
▁suggested	-9.8463
▁altogether	-9.8486
▁favour	-9.84931
▁roll	-9.84965
▁ii	-9.84974
▁transfer	-9.84997
▁resources	-9.85225
▁everywhere	-9.85336
▁methods	-9.85337
▁male	-9.85419
▁smaller	-9.85436
▁kinds	-9.85439
▁servants	-9.85448
▁perfectly	-9.85485
▁sudden	-9.85549
le	-9.85598
▁elements	-9.8562
▁sm	-9.8567
▁sacrifice	-9.85718
▁essential	-9.85752
▁weather	-9.85923
▁ages	-9.85932
or	-9.86033
▁pale	-9.86168
▁sick	-9.86175
▁commanded	-9.86255
▁parents	-9.86311
▁jerusalem	-9.86315
▁turning	-9.86352
▁bell	-9.86357
ne	-9.86359
▁warm	-9.86432
▁chosen	-9.86484
▁properly	-9.86492
▁projects	-9.86632
▁thick	-9.86664
▁ear	-9.86729
▁task	-9.86799
▁growing	-9.86913
▁consists	-9.87003
▁rain	-9.87006
▁determination	-9.87026
▁acquired	-9.87149
▁editor	-9.87206
▁cotton	-9.87258
▁female	-9.87306
▁actions	-9.87334
▁preceding	-9.87334
▁wished	-9.87334
▁cover	-9.87384
▁woods	-9.87419
▁highly	-9.87443
▁successful	-9.87509
▁path	-9.87545
able	-9.87595
▁slave	-9.87729
▁administrative	-9.87741
rs	-9.87792
▁fields	-9.87827
▁documents	-9.87894
▁frank	-9.87944
▁ms	-9.88052
▁afternoon	-9.88057
▁martin	-9.88065
▁towns	-9.881
▁evidently	-9.88153
▁ladies	-9.88158
▁judges	-9.88201
▁problem	-9.88216
▁writers	-9.88225
▁universal	-9.88294
▁immediate	-9.88353
▁permanent	-9.88405
▁tis	-9.88408
▁milk	-9.88617
▁thrown	-9.88621
▁churches	-9.88623
▁fallen	-9.88627
▁spoken	-9.88731
▁enjoy	-9.88764
▁percent	-9.88824
▁philip	-9.8901
▁catalogue	-9.89042
▁promise	-9.89252
▁sword	-9.89288
▁worthy	-9.89325
▁corps	-9.89358
▁spirits	-9.89375
▁agree	-9.89436
▁enemies	-9.89447
▁insurance	-9.89448
▁details	-9.89466
▁reduced	-9.89498
▁demand	-9.89508
▁residence	-9.89539
▁rising	-9.89645
▁cambridge	-9.89682
▁vain	-9.89692
▁accompanied	-9.89735
▁twice	-9.89761
▁fifteen	-9.89778
▁arthur	-9.8978
▁taxes	-9.89791
▁repeated	-9.89799
▁star	-9.89886
▁gate	-9.8989
▁needed	-9.89925
▁looks	-9.89996
▁rocks	-9.90022
▁functions	-9.90032
▁possessed	-9.90108
▁charged	-9.90129
▁acting	-9.90142
▁won	-9.90143
▁que	-9.90185
▁destroyed	-9.90287
▁guide	-9.90369
▁shape	-9.90503
▁canada	-9.90511
▁distribution	-9.90677
▁structure	-9.90698
▁guilty	-9.90718
▁custom	-9.90765
▁waiting	-9.90784
▁normal	-9.90974
▁darkness	-9.90996
▁extraordinary	-9.91025
est	-9.91027
▁texas	-9.91158
▁situated	-9.91187
▁legislation	-9.91237
▁naturally	-9.91305
▁fate	-9.91319
▁dis	-9.91338
▁acres	-9.91425
▁staff	-9.9143
▁surely	-9.91432
▁grounds	-9.91468
▁wisdom	-9.91476
▁gradually	-9.91484
▁grow	-9.91495
▁test	-9.91636
▁noticed	-9.9167
▁distant	-9.91713
▁russian	-9.91775
▁amounts	-9.91784
▁soldier	-9.91784
▁aged	-9.91806
▁happiness	-9.91876
▁capable	-9.91882
▁trying	-9.9189
▁maintain	-9.92002
▁ib	-9.92039
▁jews	-9.92123
▁struggle	-9.92208
▁testimony	-9.92278
▁obliged	-9.92285
▁tone	-9.92287
▁whilst	-9.92305
▁session	-9.92316
▁content	-9.92348
▁punishment	-9.92356
▁tho	-9.92386
▁belonging	-9.924
▁petition	-9.92427
▁ocean	-9.92498
▁possibly	-9.92519
▁owing	-9.92668
to	-9.92675
▁hon	-9.92869
▁conversation	-9.92937
▁costs	-9.92955
▁expedition	-9.93018
▁minor	-9.93051
▁lee	-9.93055
▁finished	-9.93074
▁colony	-9.93145
▁edge	-9.9317
▁bag	-9.93271
▁independence	-9.93329
▁sorry	-9.93369
▁contents	-9.9361
▁ve	-9.93761
▁appeals	-9.93797
▁deemed	-9.93806
▁desired	-9.93881
▁printing	-9.93896
▁net	-9.93905
it	-9.9391
▁brief	-9.9394
▁philadelphia	-9.93955
▁nevertheless	-9.94009
▁egypt	-9.94017
▁companies	-9.94064
▁suffered	-9.9407
▁ha	-9.94133
▁hearts	-9.94133
▁learning	-9.94203
▁verse	-9.94225
▁administrator	-9.94236
▁interested	-9.94276
b	-9.94326
▁sa	-9.94333
▁coal	-9.94441
▁travel	-9.94588
▁branches	-9.94604
▁retired	-9.94627
▁writings	-9.94778
▁hast	-9.94785
▁gov	-9.94861
▁holds	-9.94905
▁preserved	-9.94919
▁stars	-9.94939
▁flight	-9.95041
▁keeping	-9.95068
▁kill	-9.95095
▁clause	-9.95105
os	-9.95233
▁defence	-9.95247
▁australia	-9.95397
▁involved	-9.95397
▁taste	-9.9555
▁confidence	-9.95569
▁parish	-9.95589
▁circle	-9.95595
▁americans	-9.95624
▁previously	-9.95685
▁meat	-9.95736
▁limits	-9.95758
▁sake	-9.95759
▁rivers	-9.95915
▁illustrations	-9.95977
▁machine	-9.96017
▁victory	-9.96034
▁capacity	-9.9605
▁fee	-9.96106
▁design	-9.96109
▁tools	-9.96134
▁seized	-9.96209
▁familiar	-9.96291
▁spite	-9.96316
▁districts	-9.96357
▁grown	-9.9639
▁esq	-9.96451
▁gun	-9.96498
▁completely	-9.9651
▁educational	-9.96606
▁streets	-9.96618
▁rates	-9.96637
▁terrible	-9.96665
▁offices	-9.96672
▁log	-9.96815
▁ot	-9.96844
▁prison	-9.96951
of	-9.97007
▁correct	-9.97013
▁portrait	-9.97039
▁reader	-9.97057
▁flat	-9.97161
▁thats	-9.97177
▁ice	-9.97185
▁customs	-9.97212
▁breath	-9.97222
▁passion	-9.97272
▁sources	-9.97339
▁execution	-9.97388
▁agricultural	-9.97453
▁start	-9.97503
▁habit	-9.97515
▁constant	-9.9767
▁decree	-9.97725
▁teaching	-9.97757
▁variety	-9.97764
▁chamber	-9.97925
▁unable	-9.98062
▁clothes	-9.98108
▁rare	-9.98151
▁steam	-9.98214
▁pray	-9.98221
▁completed	-9.98243
▁primitive	-9.98305
▁applicable	-9.98333
▁ring	-9.98418
▁italian	-9.98449
▁closely	-9.98531
▁volumes	-9.98613
▁agriculture	-9.98618
▁specified	-9.98648
▁extreme	-9.98732
▁souls	-9.98802
▁wounded	-9.98817
▁ante	-9.98838
▁sharp	-9.98845
▁moving	-9.98849
▁russia	-9.98866
▁discovery	-9.98954
▁rd	-9.99048
▁mount	-9.99083
▁failure	-9.99137
▁amongst	-9.99223
▁bulk	-9.99239
▁steel	-9.99261
▁band	-9.99277
▁apart	-9.99292
▁belong	-9.99329
▁instruction	-9.99354
▁thence	-9.99401
▁reserve	-9.99658
▁folk	-9.99761
▁investigation	-9.99789
▁threw	-9.99829
▁flower	-9.99963
▁site	-10.0005
▁roads	-10.0014
▁data	-10.0022
▁tongue	-10.003
▁pounds	-10.0032
▁recently	-10.0033
▁tower	-10.0033
▁resolved	-10.0039
▁lords	-10.0041
▁contain	-10.0044
▁offering	-10.0056
▁knowing	-10.006
▁designated	-10.0064
▁poem	-10.0064
▁financial	-10.0067
▁pictures	-10.0074
▁gentlemen	-10.0082
▁rapidly	-10.0087
▁debt	-10.0087
▁played	-10.0088
▁performed	-10.0088
▁inter	-10.0088
▁proceeded	-10.0094
▁fr	-10.0094
▁farther	-10.0097
▁cat	-10.0105
▁courage	-10.011
▁intention	-10.0111
▁expect	-10.0115
▁strike	-10.0116
▁aunt	-10.0118
▁falls	-10.0121
▁oclock	-10.0122
▁standards	-10.013
▁permit	-10.0132
▁absolutely	-10.0149
▁pleased	-10.0152
▁destruction	-10.0152
▁defined	-10.0153
▁tale	-10.0158
▁affected	-10.0178
▁key	-10.0178
▁sixth	-10.0182
▁choose	-10.0189
▁yours	-10.0202
▁advice	-10.0208
▁transferred	-10.0211
ta	-10.0216
▁visited	-10.0218
▁whence	-10.0223
▁inside	-10.0231
▁medicine	-10.0236
ment	-10.0237
na	-10.0243
▁benefits	-10.0245
▁fo	-10.0248
▁exception	-10.0248
▁pen	-10.0257
▁alumni	-10.0264
▁minds	-10.0268
▁arts	-10.0277
▁il	-10.0278
▁del	-10.0282
▁salaries	-10.0282
▁subsequently	-10.0285
▁hung	-10.029
▁plaintiff	-10.0293
▁permitted	-10.03
▁tr	-10.0303
▁therein	-10.0304
▁bi	-10.0305
▁blow	-10.0306
▁furnished	-10.0309
▁subsequent	-10.0309
▁specific	-10.0312
▁org	-10.0313
▁skin	-10.0313
▁evident	-10.0314
▁equipment	-10.0314
▁approach	-10.0317
▁hell	-10.0317
▁groups	-10.0318
▁tea	-10.0319
▁fat	-10.0322
▁reform	-10.0325
▁satisfied	-10.0327
▁illustrated	-10.034
▁whenever	-10.0341
▁remaining	-10.0344
▁appointment	-10.0347
▁renamed	-10.0348
▁forget	-10.035
▁reported	-10.0353
▁bible	-10.0355
▁studied	-10.0363
▁pennsylvania	-10.0367
▁worse	-10.0373
▁performance	-10.0374
▁lo	-10.0377
▁extensive	-10.0378
▁sp	-10.0383
▁youll	-10.0388
▁natives	-10.0397
▁favor	-10.0413
▁proceed	-10.0422
▁faithful	-10.0423
▁breast	-10.0431
▁ears	-10.0432
▁baron	-10.0434
▁proceeding	-10.0442
▁observe	-10.0443
▁majesty	-10.0444
▁distinction	-10.045
▁secured	-10.0458
▁eighteen	-10.0465
▁extension	-10.0469
▁driven	-10.0469
▁join	-10.0471
▁dated	-10.0474
▁excess	-10.048
▁commander	-10.0481
▁characters	-10.0482
▁von	-10.0484
▁celebrated	-10.0485
▁contracts	-10.0489
▁arrangement	-10.0505
▁morrow	-10.0508
▁explain	-10.0515
▁plans	-10.0516
▁nest	-10.052
▁quick	-10.0534
▁intellectual	-10.0536
▁opposition	-10.0536
▁fighting	-10.0542
▁shut	-10.0545
▁supplies	-10.0548
▁conviction	-10.0551
▁probable	-10.0557
▁largely	-10.056
▁protect	-10.0567
▁areas	-10.0568
▁absolute	-10.0572
▁abroad	-10.0572
▁regarding	-10.0582
j	-10.0585
▁arrival	-10.0588
▁centuries	-10.0616
▁cape	-10.0623
▁slight	-10.063
▁sell	-10.0634
▁dangerous	-10.0638
▁assumed	-10.0638
▁motor	-10.0644
▁becoming	-10.0646
▁laughed	-10.065
▁explanation	-10.0653
ism	-10.0654
▁conducted	-10.0656
▁talking	-10.0656
▁mercy	-10.0659
▁adding	-10.0664
▁product	-10.0669
▁res	-10.0682
▁quarters	-10.0682
▁prescribed	-10.0692
▁choice	-10.07
▁teeth	-10.0707
▁observations	-10.071
▁truly	-10.0715
▁guns	-10.0716
▁gospel	-10.0719
▁discussion	-10.0719
▁anne	-10.0723
▁theres	-10.0741
▁blind	-10.0746
▁bore	-10.0747
▁approval	-10.0749
▁promised	-10.0768
▁legs	-10.0768
▁daughters	-10.0792
▁begun	-10.0796
▁addressed	-10.0803
▁originally	-10.0814
▁elsewhere	-10.0815
▁sunday	-10.0817
▁pride	-10.0819
▁chicago	-10.0821
▁filed	-10.083
▁ca	-10.0836
▁enforcement	-10.0847
▁weak	-10.0849
▁submitted	-10.085
▁resource	-10.0854
▁industrial	-10.0855
▁granting	-10.0861
▁edinburgh	-10.0865
▁sisters	-10.0869
▁clean	-10.0872
▁exclaimed	-10.0881
▁gained	-10.0885
▁supported	-10.0888
▁teacher	-10.0889
▁satisfaction	-10.0891
▁marine	-10.0893
▁seventy	-10.0901
▁walter	-10.0903
▁limit	-10.0912
▁brain	-10.0914
▁sugar	-10.0916
▁organized	-10.0917
ian	-10.0921
▁commissioners	-10.0924
▁remembered	-10.0931
▁render	-10.094
▁clay	-10.0942
▁informed	-10.0943
▁educated	-10.0945
▁build	-10.0948
▁noted	-10.0951
▁compelled	-10.0954
▁objection	-10.0957
▁throne	-10.0967
▁copies	-10.0967
▁oxonienses	-10.0973
▁reserved	-10.0976
▁coat	-10.098
▁maintained	-10.0991
▁si	-10.0996
▁careful	-10.0996
▁eternal	-10.1002
▁function	-10.1002
▁ends	-10.1007
ley	-10.1008
▁silk	-10.1015
▁mode	-10.1017
ar	-10.1019
▁quarterly	-10.1049
land	-10.1049
▁forgotten	-10.1053
▁murder	-10.106
p	-10.1067
▁manufacture	-10.1068
▁regions	-10.1069
▁arranged	-10.1071
▁sad	-10.1072
▁occur	-10.1075
▁fancy	-10.108
▁bonds	-10.108
▁translated	-10.1086
▁citizen	-10.1096
▁throw	-10.1097
▁ben	-10.11
▁dust	-10.1103
▁princess	-10.1104
▁inquiry	-10.1105
▁technical	-10.1105
▁penalty	-10.1105
▁wilson	-10.1111
▁prisoners	-10.1117
▁aware	-10.112
▁requires	-10.1127
▁map	-10.113
▁seal	-10.1131
men	-10.1138
at	-10.114
▁lose	-10.1141
▁contact	-10.1144
▁earliest	-10.1144
▁fashion	-10.1145
▁mighty	-10.1146
▁yards	-10.1149
▁gain	-10.1151
▁avoid	-10.1155
▁imperial	-10.1156
▁older	-10.1157
▁anti	-10.1159
▁mill	-10.1161
▁scott	-10.1161
▁entrance	-10.1168
▁acid	-10.1175
▁metal	-10.1183
▁exceeding	-10.1194
▁greece	-10.1206
▁image	-10.1214
▁entry	-10.1215
▁degrees	-10.122
▁infantry	-10.1222
▁million	-10.1236
▁dutch	-10.1237
▁tail	-10.1246
▁erected	-10.1254
▁limitations	-10.1269
▁masters	-10.1271
▁vision	-10.1272
▁habits	-10.1272
▁reality	-10.1276
▁painted	-10.1277
▁admit	-10.128
▁systems	-10.1282
▁agents	-10.1297
▁tall	-10.1303
▁document	-10.1306
▁authorization	-10.1312
ra	-10.1314
▁relative	-10.1318
▁consequently	-10.1332
▁canal	-10.1351
▁associated	-10.1353
▁genius	-10.1355
▁necessarily	-10.1367
▁attended	-10.1368
▁acquisition	-10.1378
▁pair	-10.1379
▁bones	-10.1381
▁bringing	-10.1383
▁raise	-10.1383
▁burning	-10.1384
▁skill	-10.1391
▁fail	-10.1392
g	-10.1394
▁leader	-10.1396
▁grants	-10.1401
▁imposed	-10.142
▁jack	-10.1421
id	-10.1431
▁creation	-10.1432
▁viz	-10.1434
▁exact	-10.1435
▁discuss	-10.1439
▁hole	-10.1441
▁namely	-10.1442
▁alive	-10.1446
▁panel	-10.1446
▁lore	-10.1446
ry	-10.1455
▁calling	-10.1458
ch	-10.1462
▁cal	-10.1465
▁today	-10.1468
▁possess	-10.1487
▁claimed	-10.1487
am	-10.1488
▁officials	-10.1489
▁institute	-10.1495
▁difficulties	-10.1499
▁deed	-10.1502
▁devil	-10.1503
▁ap	-10.1507
▁liable	-10.1512
▁rough	-10.1515
▁surprise	-10.1518
▁fur	-10.1519
▁scheme	-10.1521
▁marks	-10.1522
▁gift	-10.1527
▁calls	-10.1529
▁primary	-10.1532
▁crossed	-10.1536
▁instrument	-10.154
▁career	-10.1542
the	-10.1544
▁fleet	-10.1546
▁opinions	-10.1548
▁frederick	-10.1548
▁johnson	-10.1553
▁represent	-10.1554
▁inc	-10.1554
▁impression	-10.1569
me	-10.1572
▁likewise	-10.1583
▁behalf	-10.159
▁delight	-10.1597
▁returning	-10.1605
ist	-10.1607
▁companion	-10.1613
▁scale	-10.1614
▁expense	-10.1614
▁presently	-10.162
▁eminent	-10.1627
▁sc	-10.1642
▁remarks	-10.1643
▁altar	-10.1644
▁merchant	-10.1648
▁expended	-10.1651
▁praise	-10.1674
▁tender	-10.168
▁appendix	-10.1695
▁tool	-10.1698
▁fought	-10.1702
▁lawyer	-10.1705
▁arose	-10.1708
▁submit	-10.1714
▁element	-10.1719
▁putting	-10.1722
▁sup	-10.1722
less	-10.1723
▁fairly	-10.1726
▁storm	-10.1728
la	-10.1732
▁fingers	-10.1736
▁suffer	-10.1743
▁senator	-10.1743
▁bought	-10.1747
▁princes	-10.1752
▁listen	-10.1767
▁extend	-10.1772
▁madame	-10.1773
▁analysis	-10.1774
▁conflict	-10.1776
▁campaign	-10.1776
▁instant	-10.1777
el	-10.1782
▁provinces	-10.1795
▁conception	-10.1798
▁separated	-10.1798
▁fill	-10.1798
▁denied	-10.1802
▁includes	-10.1813
▁testament	-10.1819
et	-10.1825
▁fly	-10.1827
▁frequent	-10.1829
▁shoulder	-10.1829
▁enactment	-10.184
▁falling	-10.1841
▁disposition	-10.1847
▁apr	-10.185
▁shortly	-10.1854
▁moses	-10.1856
▁encyclopedia	-10.1858
▁signs	-10.1858
▁carolina	-10.1865
▁crowd	-10.1866
▁sufficiently	-10.1866
▁dropped	-10.1868
▁feelings	-10.1874
▁consciousness	-10.1876
▁culture	-10.1877
▁regulation	-10.1878
▁characteristic	-10.188
▁mad	-10.1881
▁suffering	-10.1886
▁thousands	-10.189
▁willing	-10.1892
▁responsible	-10.1893
▁dignity	-10.1893
▁saved	-10.1894
▁mm	-10.1896
▁sect	-10.1898
▁ter	-10.1899
ville	-10.1907
▁mankind	-10.1907
▁register	-10.1909
▁slow	-10.1912
▁interstate	-10.1914
▁assigned	-10.1918
▁wit	-10.1922
▁desert	-10.1924
▁bishops	-10.1937
▁watched	-10.1942
▁shadow	-10.1952
▁hym	-10.1976
▁owned	-10.1978
▁bond	-10.1981
▁mothers	-10.1984
▁mixed	-10.1988
▁pocket	-10.199
▁thereby	-10.1994
▁temporary	-10.1995
▁acted	-10.1995
▁tons	-10.1997
▁job	-10.1999
by	-10.2008
▁slavery	-10.2013
▁composition	-10.2016
▁comfort	-10.2024
▁flag	-10.2025
▁virgin	-10.2027
▁voyage	-10.203
▁emergency	-10.203
▁ann	-10.2035
ll	-10.2035
▁ki	-10.2036
▁perform	-10.2051
▁anxious	-10.2052
▁bare	-10.2053
▁teachers	-10.2057
ham	-10.2068
▁selected	-10.207
▁ability	-10.2072
▁civilization	-10.2099
▁universe	-10.2103
▁laugh	-10.2106
▁missouri	-10.2112
▁imagination	-10.2113
▁boundary	-10.212
▁angel	-10.212
▁external	-10.2127
▁sing	-10.213
▁ti	-10.214
▁petitioner	-10.2145
▁empty	-10.2147
▁critical	-10.2153
▁providing	-10.2166
▁christians	-10.2174
▁est	-10.2175
▁wales	-10.2176
▁pressure	-10.2179
▁creek	-10.2188
▁ng	-10.2196
▁constantly	-10.2199
▁discharge	-10.2202
▁ra	-10.2203
▁margin	-10.2208
▁setting	-10.2208
▁proud	-10.2212
▁chapel	-10.2213
▁younger	-10.2217
▁governments	-10.2217
▁repair	-10.222
▁concluded	-10.2223
▁wants	-10.2227
▁seventh	-10.2231
▁drug	-10.2233
▁inner	-10.2242
▁behold	-10.2249
▁happen	-10.2249
▁ceased	-10.225
▁violence	-10.2267
▁occasionally	-10.2273
▁florida	-10.228
▁severe	-10.2281
▁faces	-10.2289
▁committees	-10.2289
▁nights	-10.2291
▁communication	-10.2294
ies	-10.2299
▁wings	-10.2301
▁fees	-10.2303
▁drive	-10.2313
▁songs	-10.2327
▁stranger	-10.233
▁bent	-10.2331
▁workers	-10.2332
▁qualities	-10.234
▁congressional	-10.2341
▁ministers	-10.2348
▁midst	-10.2356
▁problems	-10.2357
▁organizations	-10.2361
▁gentle	-10.2361
▁electric	-10.2368
▁risk	-10.2369
▁remarked	-10.2377
▁val	-10.2382
▁illinois	-10.2384
▁yard	-10.2388
▁japan	-10.2395
▁jones	-10.24
▁provides	-10.2402
▁hymn	-10.2402
▁definite	-10.2406
▁glance	-10.2415
▁bow	-10.2416
▁geo	-10.2422
▁restored	-10.2431
▁apparent	-10.2437
▁rooms	-10.2437
▁household	-10.2439
▁divisions	-10.2442
▁edit	-10.2446
▁demanded	-10.2449
▁confined	-10.2459
▁chairman	-10.246
▁honest	-10.2461
▁ho	-10.2463
▁teach	-10.2467
▁waste	-10.2472
▁conference	-10.2479
▁enable	-10.248
▁reputation	-10.248
▁inch	-10.2498
v	-10.2504
▁plates	-10.2509
▁compared	-10.251
▁saints	-10.2514
▁suitable	-10.2515
▁thoroughly	-10.2519
▁slightly	-10.2529
▁christmas	-10.2529
▁smoke	-10.2535
▁recorded	-10.2538
▁access	-10.255
▁treatise	-10.2554
▁rent	-10.2554
▁mystery	-10.2555
▁responsibility	-10.2555
▁prof	-10.256
▁arch	-10.2563
▁dogs	-10.2564
▁margaret	-10.2568
▁surrounded	-10.2571
▁cook	-10.2573
▁pan	-10.2573
▁boats	-10.258
▁creature	-10.258
▁rear	-10.2584
▁forming	-10.2585
▁cavalry	-10.2592
▁opposed	-10.2602
▁jackson	-10.2616
▁doubtless	-10.2617
▁cloud	-10.262
▁strongly	-10.2621
▁counties	-10.2627
▁belonged	-10.2628
▁marry	-10.2636
▁increasing	-10.2642
▁shoulders	-10.2652
▁lack	-10.2652
▁races	-10.2671
ce	-10.2672
▁formation	-10.2675
▁cooperation	-10.2676
▁commonly	-10.2679
▁windows	-10.2679
▁belongs	-10.2683
▁eighth	-10.2684
▁democratic	-10.2685
▁capt	-10.2689
▁tobacco	-10.2691
▁massachusetts	-10.2691
▁sympathy	-10.2706
▁patient	-10.271
▁friendship	-10.271
▁cr	-10.2714
▁occurs	-10.2718
em	-10.2719
▁telephone	-10.2723
▁op	-10.2724
▁pipe	-10.2725
▁hello	-10.2728
▁alleged	-10.273
de	-10.2734
▁extremely	-10.2737
▁league	-10.2744
▁accomplished	-10.2749
▁lincoln	-10.275
▁economy	-10.2752
▁dying	-10.2761
▁smiled	-10.2764
▁poets	-10.2778
▁profession	-10.2781
▁supplied	-10.2782
▁glorious	-10.2783
▁beat	-10.2794
▁instances	-10.2804
▁carriage	-10.2805
▁exists	-10.2807
▁african	-10.2808
▁shell	-10.2811
▁touched	-10.282
▁largest	-10.283
▁preparation	-10.2836
▁charter	-10.2837
▁worn	-10.2846
▁verses	-10.2847
▁timber	-10.2848
▁sales	-10.2851
▁hide	-10.2852
▁charges	-10.2854
▁examined	-10.2856
▁copper	-10.2863
▁nice	-10.2864
▁defendants	-10.2865
▁pour	-10.2871
▁eighty	-10.2883
▁version	-10.2887
▁qui	-10.2889
▁parallel	-10.2893
▁davis	-10.2895
son	-10.2908
▁violation	-10.2914
nt	-10.2919
▁designed	-10.2928
▁walking	-10.2929
▁obligations	-10.2941
▁atlantic	-10.2952
▁va	-10.2953
▁michael	-10.2956
▁decisions	-10.2958
▁hitherto	-10.2968
▁balance	-10.2978
▁supra	-10.2997
▁payments	-10.2997
▁root	-10.2998
▁bb	-10.3005
▁sess	-10.3008
▁solution	-10.3008
▁injury	-10.301
▁wars	-10.3011
▁generation	-10.3012
▁professional	-10.3017
▁respectively	-10.3017
▁housing	-10.3019
▁assist	-10.3021
▁offence	-10.3028
▁wool	-10.3031
▁visible	-10.3034
▁slaves	-10.3038
▁fed	-10.304
▁detail	-10.3043
ation	-10.3046
▁wages	-10.3048
▁thine	-10.3049
▁elder	-10.305
▁mines	-10.3052
▁guess	-10.3054
▁fled	-10.3058
▁route	-10.3065
▁seed	-10.3065
▁file	-10.3066
▁experiments	-10.3068
▁store	-10.3074
▁sole	-10.3076
▁executed	-10.3083
▁mid	-10.3089
▁catch	-10.309
▁located	-10.3094
▁genus	-10.3097
▁afford	-10.3098
▁uniform	-10.3099
▁artillery	-10.3101
▁shop	-10.3105
▁observation	-10.3105
▁message	-10.3107
▁practically	-10.3111
▁imagine	-10.3114
▁rapid	-10.3114
▁transactions	-10.3115
▁ended	-10.3116
▁roof	-10.3118
▁select	-10.3123
▁finds	-10.3126
▁infinite	-10.3134
▁nearer	-10.3138
ity	-10.3139
▁decide	-10.3145
▁attempted	-10.3147
▁movements	-10.3148
▁essays	-10.315
▁brave	-10.3155
▁terror	-10.3155
▁loose	-10.3156
▁escaped	-10.3162
▁oath	-10.3164
▁artist	-10.3179
li	-10.3181
▁win	-10.3183
▁commenced	-10.3186
▁unfortunately	-10.3187
▁fairy	-10.3193
▁temperature	-10.3198
▁chemical	-10.3207
▁violent	-10.3209
▁buy	-10.3213
▁daniel	-10.3215
▁speed	-10.3217
▁millions	-10.3224
▁hotel	-10.3231
▁pressed	-10.3234
▁asia	-10.3235
▁existed	-10.3235
▁examples	-10.3236
▁prisoner	-10.3239
▁ward	-10.3243
▁wheat	-10.325
▁monument	-10.3255
▁destroy	-10.3263
▁pity	-10.3264
▁eleven	-10.3268
▁dressed	-10.3271
▁mutual	-10.3272
▁swift	-10.3272
▁personnel	-10.3273
▁tomb	-10.3276
▁shalt	-10.3295
▁lane	-10.3295
▁brilliant	-10.3297
se	-10.3298
▁douglas	-10.3301
▁bull	-10.3313
▁beds	-10.3315
▁amsterdam	-10.3317
▁andrew	-10.3325
▁privilege	-10.3326
▁recognition	-10.3329
▁exclusive	-10.3329
▁ending	-10.333
▁ver	-10.3335
▁conscious	-10.3337
▁readily	-10.3338
▁tions	-10.3343
▁maria	-10.3355
▁outer	-10.3359
▁remove	-10.3362
▁clouds	-10.3368
▁dozen	-10.3371
▁indicated	-10.3373
▁tin	-10.3374
▁obligation	-10.338
▁ts	-10.3381
▁dreams	-10.3383
▁iii	-10.3387
▁hi	-10.3393
▁status	-10.3394
▁drop	-10.3398
▁playing	-10.3399
▁writ	-10.34
▁leaders	-10.34
▁respective	-10.3408
▁wear	-10.341
▁immense	-10.3411
▁disposed	-10.3412
▁bears	-10.3423
▁japanese	-10.343
▁declaration	-10.3438
▁flow	-10.3452
▁plays	-10.3454
▁handsome	-10.3454
▁calm	-10.3458
▁announced	-10.346
▁ta	-10.3463
▁hem	-10.3466
▁mississippi	-10.3471
▁climate	-10.3475
▁afterward	-10.3478
ion	-10.3479
▁mistake	-10.3479
▁limitation	-10.3491
▁waited	-10.3492
▁telling	-10.3496
ii	-10.3499
▁languages	-10.3511
ns	-10.3514
▁isnt	-10.3514
▁refer	-10.3521
▁lest	-10.3526
▁joe	-10.3528
▁fro	-10.3536
▁innocent	-10.3538
▁butter	-10.3543
▁fun	-10.3544
▁burden	-10.3549
▁lectures	-10.3552
▁sam	-10.3558
▁succession	-10.3562
▁conscience	-10.3562
▁cathedral	-10.3566
▁cents	-10.3578
▁sovereign	-10.3582
▁shook	-10.3596
▁precious	-10.3599
▁miscellaneous	-10.3603
▁dick	-10.3608
ine	-10.3618
▁wikisource	-10.362
▁liberal	-10.3622
▁fool	-10.3624
▁meanwhile	-10.3624
▁bitter	-10.3625
▁grain	-10.363
▁constructed	-10.363
▁feast	-10.3632
▁obvious	-10.3634
▁ere	-10.3637
▁aspect	-10.3641
▁row	-10.3641
▁womans	-10.3642
▁attacked	-10.3648
▁weapons	-10.3659
▁extra	-10.3663
▁cup	-10.3667
▁hugh	-10.3668
▁surprised	-10.3673
▁bush	-10.3681
▁gates	-10.3696
▁specimens	-10.37
▁owners	-10.3704
▁manor	-10.3707
▁witnesses	-10.371
▁portions	-10.372
▁cruel	-10.3732
▁adam	-10.3737
▁finger	-10.3737
▁hamilton	-10.3741
▁captured	-10.3742
▁tradition	-10.3753
▁ecclesiastical	-10.3755
▁hopes	-10.3755
▁politics	-10.3757
▁affection	-10.3757
▁prayers	-10.3758
ti	-10.3761
▁fault	-10.3771
▁attend	-10.3778
▁alike	-10.378
▁flying	-10.3785
▁confirmed	-10.3785
▁prominent	-10.3793
▁talked	-10.3798
▁trace	-10.38
▁disappeared	-10.3802
▁sins	-10.3805
▁loud	-10.3807
▁entering	-10.3808
▁abandoned	-10.3811
▁deeply	-10.3813
io	-10.3822
▁instructions	-10.3822
▁tired	-10.3824
▁sorrow	-10.3838
▁profit	-10.3842
▁confusion	-10.3843
▁excited	-10.3846
▁biographical	-10.3856
▁protected	-10.3858
▁lit	-10.3858
▁yield	-10.3864
▁grief	-10.3878
▁ph	-10.3881
▁issues	-10.3884
▁nobody	-10.3888
▁hidden	-10.389
▁bold	-10.3899
▁nineteen	-10.3906
▁removal	-10.3907
▁assume	-10.3908
▁angels	-10.391
▁sexual	-10.3913
▁brethren	-10.3916
▁check	-10.3917
▁channel	-10.3917
ius	-10.3923
▁dare	-10.3925
▁subparagraph	-10.3926
▁automated	-10.3933
▁procedure	-10.3934
▁mi	-10.3938
▁nose	-10.3938
▁employee	-10.3939
▁hero	-10.3944
▁begins	-10.3952
▁incident	-10.3952
▁warrant	-10.3957
▁attitude	-10.3969
▁ce	-10.3981
▁scattered	-10.3981
▁pi	-10.3981
▁splendid	-10.3981
▁contributions	-10.3992
▁sex	-10.3994
▁negro	-10.3996
▁purchased	-10.3997
▁delay	-10.3998
▁uses	-10.4002
▁pur	-10.4008
▁tells	-10.401
▁drove	-10.4019
▁experiment	-10.4023
▁readers	-10.4028
▁lovely	-10.4035
▁combined	-10.4042
▁pardon	-10.4048
▁estimated	-10.4049
▁fox	-10.4053
▁seldom	-10.4058
▁arise	-10.4066
▁presents	-10.4068
▁quietly	-10.4068
▁census	-10.4073
▁accident	-10.4073
▁develop	-10.4088
▁cousin	-10.4093
▁newspaper	-10.41
▁aint	-10.41
▁constitute	-10.4103
▁ninety	-10.4107
▁unity	-10.412
▁holland	-10.4125
▁enjoyed	-10.4131
▁reward	-10.4131
▁mail	-10.4134
▁remedy	-10.4137
▁exposed	-10.4147
▁freely	-10.415
▁sh	-10.4159
▁georgia	-10.4171
▁angry	-10.4173
▁los	-10.4175
▁departure	-10.4179
▁burnt	-10.4181
▁knight	-10.4183
▁merit	-10.4184
▁wound	-10.4193
▁den	-10.4194
▁huge	-10.4194
▁suggestion	-10.4201
▁discover	-10.4203
▁doors	-10.4205
▁friendly	-10.4211
▁charity	-10.4212
▁seeking	-10.4218
▁trans	-10.4221
▁cave	-10.4221
▁bath	-10.4222
▁kindly	-10.4231
▁corresponding	-10.4236
▁thereto	-10.4237
▁dublin	-10.4238
▁sounds	-10.4245
▁memorial	-10.4249
▁fix	-10.4262
▁noise	-10.4264
▁recovered	-10.4269
▁singing	-10.427
▁soc	-10.427
▁invention	-10.427
▁enwikisource	-10.4287
▁nay	-10.4293
▁excitement	-10.4296
▁heavens	-10.4296
▁reaching	-10.4297
▁wing	-10.4298
▁concern	-10.43
▁breakfast	-10.4301
▁webm	-10.4308
▁rural	-10.431
▁seated	-10.4313
▁und	-10.4315
▁burst	-10.4317
▁memoirs	-10.4322
▁anyone	-10.4328
▁creatures	-10.4328
▁revised	-10.4329
▁couldnt	-10.4329
▁berlin	-10.4329
▁ignorance	-10.4332
▁contributed	-10.4339
▁fond	-10.434
▁delicate	-10.4342
▁pot	-10.4346
▁busy	-10.4346
▁physician	-10.4352
▁mon	-10.4353
▁quoted	-10.4358
▁lion	-10.4358
▁williams	-10.4359
▁moore	-10.436
▁wouldnt	-10.4364
ter	-10.4367
▁unique	-10.4368
▁jane	-10.4369
▁prophet	-10.4371
▁lewis	-10.4371
▁wire	-10.4375
▁inferior	-10.4376
▁complaint	-10.4377
▁font	-10.4379
▁volunteer	-10.438
▁departments	-10.4389
▁narrative	-10.4389
▁depth	-10.4398
▁ministry	-10.4399
▁archbishop	-10.4406
▁lat	-10.441
▁requested	-10.4412
▁abundant	-10.4414
▁masses	-10.4424
▁consisting	-10.4425
▁machinery	-10.4426
▁ease	-10.4428
▁attained	-10.4431
▁secondary	-10.4432
▁instruments	-10.4438
▁improvements	-10.4438
▁mainly	-10.4445
▁commons	-10.4448
▁lamp	-10.4452
▁create	-10.4453
▁gulf	-10.4454
▁florins	-10.4455
▁preserve	-10.4467
▁serving	-10.4468
▁furnish	-10.4473
▁urged	-10.4474
▁treat	-10.4479
▁retained	-10.4488
▁host	-10.4488
▁interpretation	-10.4489
▁veterans	-10.449
▁hereafter	-10.4494
ier	-10.4503
▁covering	-10.4506
▁colorado	-10.4508
▁wheel	-10.4528
▁hebrew	-10.4535
▁occasions	-10.4535
▁wicked	-10.4536
▁directions	-10.454
▁affair	-10.454
▁considering	-10.4543
▁fundamental	-10.4545
▁bills	-10.4552
▁savage	-10.456
▁leg	-10.4562
▁fi	-10.4566
▁nicholas	-10.4568
▁refuse	-10.457
▁moments	-10.4572
▁deny	-10.459
▁watching	-10.4594
▁ensure	-10.4598
▁restoration	-10.4599
▁wore	-10.46
▁criticism	-10.4608
▁combination	-10.4613
▁tendency	-10.4613
▁enormous	-10.4614
▁welfare	-10.4626
▁winds	-10.4631
▁ideal	-10.4631
▁flood	-10.4632
▁representation	-10.4633
▁rice	-10.4634
▁occupation	-10.4635
▁everybody	-10.4641
▁waves	-10.4642
▁po	-10.4642
▁hist	-10.4646
▁iowa	-10.4647
▁chain	-10.4648
▁passes	-10.4655
▁sur	-10.4663
▁dedicated	-10.4668
kified	-10.4672
▁correspondence	-10.4673
▁anna	-10.4677
▁remark	-10.4683
▁borne	-10.4684
▁stick	-10.4686
▁graduated	-10.4688
co	-10.4689
▁statements	-10.4691
▁pole	-10.4695
▁fellows	-10.4696
▁extending	-10.4697
▁resistance	-10.4705
▁couple	-10.4707
▁team	-10.4712
▁wherein	-10.4715
▁duly	-10.4719
▁dance	-10.472
▁ghost	-10.4728
▁examine	-10.4737
▁amend	-10.4738
▁stephen	-10.4741
▁apostles	-10.4743
▁fruits	-10.4747
▁prepare	-10.4747
▁colonies	-10.4752
▁consistent	-10.4753
▁liability	-10.4761
▁oer	-10.4766
▁hoped	-10.477
▁christianity	-10.4771
▁singular	-10.4776
▁arising	-10.4789
▁cited	-10.4789
▁orange	-10.4796
▁admiral	-10.4799
▁youve	-10.4808
▁pine	-10.4813
▁chi	-10.4832
▁hunting	-10.4839
▁norfolk	-10.4841
▁vbm	-10.4841
▁definition	-10.4842
▁var	-10.4844
▁rode	-10.4858
▁plains	-10.486
▁wishes	-10.4871
▁ahead	-10.4871
▁possibility	-10.4873
▁runs	-10.4874
▁messenger	-10.488
▁genera	-10.4882
▁cor	-10.4887
▁remainder	-10.4889
▁wet	-10.4892
▁nt	-10.4894
▁throat	-10.4895
▁substantial	-10.4904
▁cutting	-10.4905
▁whereof	-10.4906
▁positive	-10.4908
▁controversy	-10.4911
▁continent	-10.4912
▁column	-10.4912
▁companions	-10.4918
▁newspapers	-10.4923
▁eldest	-10.493
▁hit	-10.4937
▁hurt	-10.494
▁mining	-10.4942
▁acquainted	-10.4945
▁municipal	-10.4949
▁lists	-10.4951
▁francs	-10.4966
▁arrangements	-10.4969
▁lights	-10.4979
▁eve	-10.4983
▁gallery	-10.4992
ite	-10.501
▁declare	-10.5017
▁employ	-10.5021
▁faint	-10.5021
ling	-10.5021
▁ab	-10.5023
▁painting	-10.5026
▁helped	-10.5026
▁frame	-10.5029
▁scope	-10.5034
▁deputy	-10.5035
▁historic	-10.5036
▁lately	-10.5036
▁theatre	-10.5037
▁novel	-10.5038
▁dull	-10.5045
▁alien	-10.5048
▁taylor	-10.505
▁apparatus	-10.5051
▁sums	-10.5051
▁doth	-10.5052
▁damage	-10.5055
▁damages	-10.5059
▁jewish	-10.5059
▁dates	-10.506
▁burned	-10.5063
▁eligible	-10.5064
▁devotion	-10.5068
▁sustained	-10.5071
▁affect	-10.5076
▁tide	-10.5077
▁petitioners	-10.5084
▁superintendent	-10.5091
▁worst	-10.5096
▁harm	-10.5098
▁alice	-10.5109
▁bone	-10.5114
▁lifted	-10.5115
▁regards	-10.5115
▁forests	-10.5119
▁attempts	-10.5119
▁dispute	-10.5123
▁asking	-10.5124
age	-10.5125
▁numbered	-10.5125
▁substances	-10.5127
▁pal	-10.5128
▁mostly	-10.5129
▁humanity	-10.5129
▁yesterday	-10.5129
▁capture	-10.5139
▁supper	-10.5141
▁maximum	-10.5141
▁types	-10.5148
▁item	-10.5148
▁signal	-10.515
▁breaking	-10.5156
▁fatal	-10.5156
▁heir	-10.516
▁benjamin	-10.5161
▁clark	-10.5174
▁cease	-10.5182
▁adequate	-10.5187
▁pulled	-10.5188
▁speaks	-10.5189
▁discretion	-10.5194
▁knife	-10.5195
▁gently	-10.5197
▁respects	-10.5205
▁inclined	-10.5205
▁knees	-10.5209
▁sixteen	-10.5218
▁aim	-10.5221
▁deposit	-10.5222
▁maid	-10.523
▁abuse	-10.5236
▁ride	-10.5236
▁proceeds	-10.5245
▁condemned	-10.525
▁sketch	-10.525
▁autumn	-10.5251
▁albert	-10.5257
▁wash	-10.5262
▁abbey	-10.5262
▁accustomed	-10.5263
▁brow	-10.5264
▁comparison	-10.5266
w	-10.527
▁enterprise	-10.5271
▁peerage	-10.5271
▁ibid	-10.5274
▁iv	-10.5274
▁shed	-10.5276
▁technology	-10.5278
▁conferred	-10.5278
▁multitude	-10.5281
▁acquaintance	-10.5291
▁sooner	-10.5292
▁solemn	-10.5293
▁selection	-10.5297
▁wave	-10.5302
▁florence	-10.5302
▁asleep	-10.5303
▁ruin	-10.5312
▁retirement	-10.5312
▁assured	-10.5313
▁herein	-10.5315
▁atmosphere	-10.5322
▁cow	-10.5324
▁exhibited	-10.533
▁resident	-10.5345
▁imprisonment	-10.5347
▁widely	-10.5348
▁taxation	-10.5353
▁permission	-10.5355
▁ni	-10.5358
▁fever	-10.5359
▁wherever	-10.5361
▁cool	-10.5362
▁quantities	-10.5362
▁authorize	-10.5364
▁organ	-10.5367
▁periods	-10.5371
▁registration	-10.5372
▁license	-10.5373
▁utterly	-10.5374
▁preface	-10.5375
▁wooden	-10.5376
▁thompson	-10.538
▁privileges	-10.5383
▁mounted	-10.5384
▁deeds	-10.5387
▁tables	-10.5394
▁expenditure	-10.5395
▁capitol	-10.5403
▁phenomena	-10.5405
▁painter	-10.5407
▁colored	-10.5411
▁cabinet	-10.5414
▁pupils	-10.5415
▁publications	-10.5416
▁binding	-10.5419
▁marble	-10.5426
▁shame	-10.5427
▁harbor	-10.5429
▁conquest	-10.543
▁navigation	-10.5435
▁jean	-10.5437
▁kansas	-10.5441
▁deceased	-10.5442
▁satisfactory	-10.5451
▁absent	-10.5451
▁leaf	-10.5458
▁smooth	-10.546
▁roots	-10.5462
▁romance	-10.5471
▁reduction	-10.5476
▁meal	-10.5477
▁stations	-10.5479
▁springs	-10.5481
▁eating	-10.5483
▁collections	-10.5483
▁recognize	-10.5486
▁beg	-10.5489
▁thinks	-10.549
▁eb	-10.5491
ting	-10.5492
▁hes	-10.5504
▁oak	-10.5505
▁geological	-10.5508
▁oriental	-10.5509
▁exercised	-10.551
▁wives	-10.5522
▁certificate	-10.5531
▁unusual	-10.5538
▁clergy	-10.5539
▁beloved	-10.5542
▁plenty	-10.5542
▁comparatively	-10.5544
▁utmost	-10.5547
▁intent	-10.5547
▁meetings	-10.5548
he	-10.555
▁qualified	-10.5557
▁je	-10.5559
▁turns	-10.5561
▁consist	-10.5561
▁defeat	-10.5568
▁approached	-10.5569
▁recover	-10.5569
▁defeated	-10.5576
▁manners	-10.5579
▁jacob	-10.5582
▁coloured	-10.5586
▁homes	-10.5586
▁handed	-10.5586
▁treasurer	-10.5587
▁ge	-10.5594
▁romans	-10.5595
▁release	-10.5597
▁hate	-10.5606
▁societies	-10.5607
▁siege	-10.5609
▁kent	-10.5612
▁humble	-10.5616
▁indicate	-10.5622
▁eighteenth	-10.5624
▁trail	-10.5629
▁differences	-10.5631
▁demands	-10.5631
▁simon	-10.5633
▁coll	-10.5642
▁chin	-10.5643
▁sciences	-10.5646
▁kitchen	-10.5652
▁accused	-10.5654
den	-10.5655
▁dealing	-10.5666
▁improve	-10.5667
▁relevant	-10.5674
ts	-10.5681
▁invited	-10.5681
▁requirement	-10.5685
▁suffrage	-10.5689
un	-10.569
▁schedule	-10.5693
▁designation	-10.5705
▁crimes	-10.5706
▁unit	-10.5706
▁defend	-10.5712
▁padding	-10.5714
▁phrase	-10.5714
▁modified	-10.5715
▁pub	-10.5717
▁anger	-10.5717
▁vi	-10.572
▁miller	-10.5722
▁neighbourhood	-10.573
ty	-10.5738
▁diseases	-10.5739
▁ignorant	-10.5742
▁collect	-10.5755
▁hunt	-10.5759
▁clerks	-10.5759
▁fragments	-10.576
▁excuse	-10.5761
▁cells	-10.577
▁gross	-10.5781
▁passages	-10.5784
▁austria	-10.5788
▁adams	-10.5789
▁greeks	-10.5791
▁gardens	-10.5792
▁ri	-10.5793
▁torn	-10.5795
▁prime	-10.5796
▁remote	-10.5801
▁grammar	-10.5807
▁enabled	-10.5809
▁model	-10.5811
▁agreements	-10.5817
▁deliver	-10.5821
▁print	-10.5826
▁significant	-10.5831
▁feature	-10.5834
▁voices	-10.5836
▁villages	-10.5837
▁horn	-10.584
▁writes	-10.5854
▁canadian	-10.5854
▁furniture	-10.5854
▁basin	-10.5855
▁sphere	-10.5856
▁thereafter	-10.5861
ford	-10.5862
▁riding	-10.5864
▁processes	-10.5865
▁raising	-10.5865
▁assessment	-10.5866
▁sarah	-10.5868
▁app	-10.5875
▁cell	-10.5886
▁earnest	-10.5887
▁wells	-10.5889
▁fourteen	-10.5895
▁ei	-10.5901
▁advantages	-10.5903
▁chiefs	-10.5903
▁seq	-10.5906
▁equivalent	-10.5908
▁feed	-10.5909
▁threatened	-10.5913
▁brings	-10.5915
▁undoubtedly	-10.5917
▁shade	-10.592
ma	-10.5921
▁improved	-10.5922
▁scottish	-10.5922
▁philosophical	-10.5925
▁inspection	-10.5936
▁preservation	-10.5938
ca	-10.5938
ant	-10.5939
▁describe	-10.5954
ro	-10.5957
▁settle	-10.5962
▁rarely	-10.5964
▁prices	-10.5968
▁gay	-10.5969
▁angle	-10.5978
▁jr	-10.5979
▁abraham	-10.5979
▁crew	-10.5981
▁dawn	-10.5981
▁gifts	-10.5985
▁pursued	-10.6001
▁kindness	-10.6006
▁dakota	-10.6008
▁competent	-10.6017
▁mills	-10.6018
▁armies	-10.6018
▁flour	-10.6028
▁mss	-10.6033
▁mayor	-10.6037
▁valid	-10.6041
▁mc	-10.6043
▁omitted	-10.6044
▁convinced	-10.6045
▁monsieur	-10.6049
▁facility	-10.6049
▁precisely	-10.605
▁practices	-10.6054
▁reservation	-10.6056
▁cardinal	-10.6065
▁match	-10.6066
▁amid	-10.6069
▁richmond	-10.607
▁burn	-10.6077
▁producing	-10.6086
▁differ	-10.6095
x	-10.6095
▁paying	-10.6097
▁wasnt	-10.6097
▁plainly	-10.6097
▁magnificent	-10.6099
▁alfred	-10.6104
▁arrest	-10.6106
▁promote	-10.6107
▁proposition	-10.6109
▁basic	-10.6113
▁streams	-10.6113
▁distributed	-10.6114
▁beast	-10.6114
▁hay	-10.6118
▁credited	-10.6119
▁continually	-10.6119
ot	-10.612
▁spend	-10.6121
▁consequences	-10.6123
▁properties	-10.6123
▁evolution	-10.6127
▁fuel	-10.6128
▁somewhere	-10.6129
▁genuine	-10.6135
▁democracy	-10.6139
▁revealed	-10.6141
▁dependent	-10.6147
▁deck	-10.6149
▁diameter	-10.6152
ri	-10.6153
▁edmund	-10.6154
▁listened	-10.6157
il	-10.616
▁block	-10.6163
▁hollow	-10.617
▁naked	-10.6171
▁whispered	-10.6173
▁flame	-10.6177
ni	-10.6178
and	-10.6178
▁liked	-10.618
▁vict	-10.6181
▁varied	-10.6183
▁alaska	-10.6186
▁messrs	-10.6188
▁odd	-10.6189
▁rejected	-10.6195
▁linen	-10.6201
▁managed	-10.6202
▁seas	-10.6204
▁prevented	-10.6206
▁export	-10.621
▁jersey	-10.6214
▁admission	-10.6217
▁users	-10.6222
▁depends	-10.6222
▁tenth	-10.6227
▁era	-10.623
▁theology	-10.6233
▁coffee	-10.6236
▁assisted	-10.6236
▁landed	-10.6244
▁ordinance	-10.6244
▁leads	-10.6245
▁depend	-10.6246
▁bark	-10.6254
▁operating	-10.6258
▁beach	-10.626
▁recovery	-10.6261
▁confederate	-10.6266
▁laughing	-10.6266
▁triumph	-10.6271
▁musical	-10.629
▁discussed	-10.6292
▁senses	-10.63
▁mexican	-10.6305
▁prevention	-10.6308
▁fol	-10.631
▁sep	-10.6312
▁architecture	-10.6312
▁experienced	-10.6317
▁everyone	-10.6317
▁gr	-10.6318
▁francisco	-10.6318
▁powder	-10.6323
▁vertical	-10.6325
▁circumstance	-10.6326
▁poverty	-10.6328
▁descended	-10.6331
▁purely	-10.6331
▁traffic	-10.6334
▁continuing	-10.634
▁knights	-10.6341
▁resigned	-10.6343
▁tract	-10.6346
▁congregation	-10.6346
▁lakes	-10.6347
▁plaintiffs	-10.6358
▁bibliography	-10.6361
ina	-10.6363
▁crossing	-10.6366
ng	-10.6378
▁departed	-10.6382
▁eh	-10.639
▁ba	-10.639
▁titles	-10.6392
▁positions	-10.6395
▁brigade	-10.6403
▁suggest	-10.6403
▁instantly	-10.6404
ish	-10.641
▁howard	-10.6411
▁por	-10.6412
▁salary	-10.6416
▁lamb	-10.6419
▁republican	-10.6419
▁govern	-10.642
▁salvation	-10.6422
▁su	-10.6423
▁unfortunate	-10.6424
▁perfection	-10.6427
▁loves	-10.6428
▁sail	-10.6428
▁loans	-10.6434
▁canon	-10.6434
▁diocese	-10.6436
▁drinking	-10.6437
▁confess	-10.6438
▁errors	-10.6439
▁warning	-10.644
▁items	-10.6442
▁harry	-10.6443
▁affirmed	-10.6445
▁descent	-10.645
▁cabin	-10.6453
▁bottle	-10.6455
▁approaching	-10.6462
▁respecting	-10.6464
▁weary	-10.6465
▁specially	-10.6468
▁strictly	-10.6469
▁successor	-10.6474
▁consisted	-10.6476
ey	-10.6477
▁clock	-10.6479
ists	-10.6483
▁essay	-10.6493
▁territories	-10.6493
▁luck	-10.6494
▁colonial	-10.6499
▁delivery	-10.6502
▁baby	-10.6503
▁immigration	-10.6505
▁sheet	-10.6507
▁prose	-10.6508
▁oliver	-10.6514
▁respondent	-10.6514
▁notion	-10.6516
▁mistress	-10.6517
▁dim	-10.6519
▁clothing	-10.652
▁rebellion	-10.652
▁mu	-10.6522
▁fa	-10.6525
▁compare	-10.653
▁confession	-10.6531
▁semi	-10.6531
▁beings	-10.6531
▁engineer	-10.6531
ge	-10.6533
▁sending	-10.6537
field	-10.6538
▁mechanical	-10.6546
▁temper	-10.6547
▁comprehensive	-10.6549
▁telegraph	-10.655
▁mud	-10.655
▁effected	-10.6552
▁annum	-10.656
ium	-10.6561
▁continuous	-10.6563
▁adventures	-10.6563
▁collector	-10.6566
ard	-10.6567
▁picked	-10.6575
▁wa	-10.6581
▁doubtful	-10.6585
▁louisiana	-10.6588
▁speaker	-10.6589
▁perceived	-10.6604
▁contempt	-10.6611
▁track	-10.6612
▁lawrence	-10.6617
▁resolutions	-10.6619
▁dam	-10.6627
▁bengal	-10.6638
tis	-10.6641
▁warren	-10.6644
▁trustees	-10.6648
▁loving	-10.6649
▁exceedingly	-10.6655
▁jim	-10.6656
▁awful	-10.6659
▁engine	-10.6663
▁votes	-10.6664
▁canvas	-10.6673
▁headed	-10.6676
▁rail	-10.6681
▁mortal	-10.6682
▁estates	-10.6683
▁globe	-10.6685
▁represents	-10.6687
▁calendar	-10.6689
▁lover	-10.6695
▁refuge	-10.6696
▁ruins	-10.6703
▁ent	-10.6705
▁manual	-10.6707
▁trip	-10.6708
▁identified	-10.6712
▁surrender	-10.6715
▁travels	-10.6715
▁egg	-10.6721
▁manuscript	-10.6723
▁tent	-10.6724
▁intelligent	-10.6726
▁depart	-10.673
ibus	-10.6733
▁gordon	-10.6737
▁providence	-10.6741
▁retreat	-10.6743
▁protestant	-10.6749
▁slept	-10.6763
▁countenance	-10.6764
▁palm	-10.6771
well	-10.6773
▁landscape	-10.6775
ae	-10.6776
▁prize	-10.6777
▁succeed	-10.6778
▁fer	-10.6779
ally	-10.6787
▁suspicion	-10.6792
▁overcome	-10.6796
▁worlds	-10.6797
▁zealand	-10.68
▁dan	-10.6801
▁boards	-10.6801
▁pushed	-10.6806
▁location	-10.6808
▁liquid	-10.6809
▁determining	-10.6809
▁matthew	-10.681
▁counter	-10.681
▁frontier	-10.6818
ner	-10.6822
▁stuff	-10.6823
▁specimen	-10.6827
▁rolled	-10.683
▁farmers	-10.6832
▁radical	-10.6835
▁scenes	-10.6838
▁fierce	-10.6843
▁response	-10.6844
▁surrounding	-10.6845
▁vienna	-10.6849
▁virtues	-10.685
▁maryland	-10.6854
▁purple	-10.6855
▁background	-10.6855
▁ser	-10.6861
▁mineral	-10.6866
▁values	-10.6868
▁mysterious	-10.6869
▁fishing	-10.687
ah	-10.6878
▁russell	-10.6878
▁brass	-10.6879
▁induced	-10.6881
▁pound	-10.6884
▁industries	-10.6884
ate	-10.6886
▁passions	-10.6887
▁victoria	-10.6888
nes	-10.6893
fe	-10.6894
▁wilderness	-10.6895
▁tied	-10.6903
▁aforesaid	-10.6907
▁justify	-10.6909
▁walker	-10.6909
▁accord	-10.6912
▁procedures	-10.6917
ft	-10.6922
▁communities	-10.6936
▁vested	-10.6938
▁convenient	-10.6938
▁mem	-10.6941
▁thereon	-10.6944
▁reduce	-10.6945
▁suffolk	-10.6947
▁rowspan	-10.6947
▁farmer	-10.6948
▁identical	-10.695
▁ralph	-10.6953
▁detailed	-10.6954
▁exclusively	-10.6963
▁hen	-10.6965
▁westminster	-10.6965
▁charming	-10.6966
▁noon	-10.6968
▁dwell	-10.6973
▁kiss	-10.6977
▁faculty	-10.6982
▁strain	-10.6983
▁stretched	-10.6984
▁useless	-10.6989
da	-10.6992
▁hanging	-10.6993
▁hundreds	-10.6994
▁equity	-10.6994
▁nearest	-10.6995
▁allied	-10.6999
▁statutory	-10.7
▁interrupted	-10.7001
▁tube	-10.7006
▁lighted	-10.7017
▁representing	-10.7019
▁pronounced	-10.7019
▁adoption	-10.7024
▁zeal	-10.7032
▁stairs	-10.7032
▁centum	-10.7034
▁swept	-10.7035
▁hal	-10.7039
▁poison	-10.7044
▁missionary	-10.7047
▁slain	-10.7051
▁declined	-10.7051
▁competition	-10.7054
▁supplement	-10.7054
▁driving	-10.7058
les	-10.7062
▁voluntary	-10.7064
▁eager	-10.7067
▁plane	-10.7067
▁shining	-10.7071
▁herbert	-10.7079
ous	-10.708
▁contribution	-10.7082
▁bronze	-10.7084
▁admiration	-10.7099
▁heirs	-10.71
▁firmly	-10.7101
▁nervous	-10.7101
▁tu	-10.7102
▁australian	-10.7103
▁doesnt	-10.7117
▁prosperity	-10.7117
▁pursuit	-10.7118
▁communications	-10.7121
▁medium	-10.7121
▁faced	-10.7127
▁ly	-10.7133
▁michigan	-10.7135
▁whereby	-10.7137
▁beard	-10.714
▁sang	-10.7147
be	-10.715
▁alas	-10.7151
▁rope	-10.7158
▁editions	-10.7165
▁sentiment	-10.7171
▁cure	-10.7172
▁seriously	-10.7173
▁ber	-10.7176
▁rocky	-10.7177
▁returns	-10.7182
▁strict	-10.7185
▁territorial	-10.7189
▁cheese	-10.7189
▁spare	-10.7192
▁mycenian	-10.7194
▁distinctly	-10.7196
▁maybe	-10.7202
▁lawful	-10.7202
▁despair	-10.7204
▁thirteen	-10.7211
▁ceremony	-10.7212
▁gregory	-10.7214
▁stern	-10.7217
▁solely	-10.7217
▁retain	-10.7219
▁lad	-10.722
▁para	-10.7222
▁references	-10.7222
▁surgeon	-10.7227
▁desires	-10.7236
▁ports	-10.7237
▁attributed	-10.7238
▁zone	-10.7239
▁obtaining	-10.7242
▁incurred	-10.7254
▁scholar	-10.7259
▁harmony	-10.726
▁cultivated	-10.7267
▁valued	-10.7269
▁bench	-10.7279
▁feared	-10.7285
▁um	-10.7287
▁anxiety	-10.7296
▁jehovah	-10.7296
▁ee	-10.7299
▁smiling	-10.7305
▁manifest	-10.7306
ee	-10.7307
▁attracted	-10.731
▁egyptian	-10.7311
▁discipline	-10.7312
▁deposited	-10.7313
▁parker	-10.7317
▁conclude	-10.7323
▁promoted	-10.7326
▁shaped	-10.7326
▁somehow	-10.7328
▁breadth	-10.7329
▁guarantee	-10.7331
▁colours	-10.734
▁shoes	-10.734
▁deposits	-10.7341
▁rector	-10.7341
▁imported	-10.7342
▁import	-10.7355
▁annually	-10.7361
▁hang	-10.7367
▁vital	-10.7373
▁marched	-10.738
ted	-10.7383
▁contrast	-10.7393
▁horror	-10.7395
▁drama	-10.7396
▁distress	-10.7397
▁patience	-10.7399
▁adopt	-10.7399
▁sar	-10.74
▁expressly	-10.7401
▁rational	-10.7402
▁weakness	-10.7403
▁stronger	-10.7406
▁preparing	-10.7411
▁discharged	-10.7414
▁stewart	-10.7417
▁sprang	-10.7418
▁volunteers	-10.7418
▁insisted	-10.7419
▁ram	-10.7419
▁countess	-10.7424
▁ob	-10.7427
▁starting	-10.7427
▁void	-10.7431
▁ga	-10.7438
▁reception	-10.7445
▁thrust	-10.7445
▁ka	-10.7454
▁bosom	-10.7459
▁fitted	-10.746
▁charm	-10.7462
▁beasts	-10.7463
▁card	-10.7467
▁attacks	-10.7473
▁wrought	-10.7478
▁fourteenth	-10.7482
▁illness	-10.7483
▁investigations	-10.7484
▁rush	-10.749
▁conveyed	-10.7494
▁adapted	-10.7497
▁display	-10.75
ke	-10.7505
▁lib	-10.7506
▁designate	-10.7507
▁repairs	-10.7508
▁sorts	-10.7514
▁ceremonies	-10.7515
▁justified	-10.7516
▁allen	-10.7516
▁formal	-10.752
▁curiosity	-10.7521
▁corporations	-10.7522
▁wanting	-10.7522
▁passenger	-10.7524
▁chambers	-10.7525
▁preferred	-10.7527
▁vicinity	-10.7533
▁intervals	-10.7534
▁shillings	-10.7539
▁separation	-10.7539
▁keen	-10.7541
▁arguments	-10.7542
▁unlawful	-10.7543
▁significance	-10.7545
▁chancellor	-10.7549
▁establishing	-10.7551
▁merits	-10.7555
▁lucy	-10.7557
▁trinity	-10.7558
▁neglect	-10.7559
▁rays	-10.7559
▁trustee	-10.7562
▁guards	-10.7563
▁concealed	-10.7567
▁vehicles	-10.7579
▁allies	-10.758
▁lease	-10.758
▁midnight	-10.7583
▁despite	-10.7583
▁bless	-10.7584
▁foregoing	-10.7589
▁ro	-10.7592
▁motive	-10.7593
▁exceptions	-10.7605
▁changing	-10.7605
▁sees	-10.7606
▁followers	-10.7609
▁hurried	-10.7611
▁intimate	-10.7613
▁whats	-10.7615
▁merchants	-10.7616
▁bid	-10.7618
▁chose	-10.7623
▁inquired	-10.7623
ve	-10.7629
ur	-10.763
▁username	-10.7638
▁inconvenience	-10.7642
▁debtor	-10.7643
▁grows	-10.7646
▁artificial	-10.7647
▁distinguish	-10.7648
▁gets	-10.7648
▁realized	-10.765
▁theological	-10.7654
▁dreadful	-10.7655
▁resting	-10.7656
▁opportunities	-10.7657
▁boundaries	-10.7657
▁infant	-10.7658
▁engineers	-10.7659
▁estimate	-10.7662
▁sailed	-10.7668
▁roger	-10.7669
▁victim	-10.7674
▁anybody	-10.7675
▁lu	-10.7678
▁intellect	-10.7686
▁santa	-10.7686
▁pull	-10.769
▁construed	-10.7696
▁asserted	-10.7698
▁commonwealth	-10.7699
▁stores	-10.77
▁cornwall	-10.7701
▁illustration	-10.7705
▁ridge	-10.7707
▁magic	-10.7711
▁facing	-10.7715
▁urban	-10.7727
▁funeral	-10.773
▁han	-10.7735
▁allowance	-10.7736
▁fiction	-10.7737
ci	-10.774
▁sheriff	-10.7744
▁legend	-10.7744
▁sorrell	-10.7752
▁wright	-10.7762
▁statue	-10.7769
▁acknowledged	-10.7774
▁regret	-10.7775
▁novels	-10.7781
▁highway	-10.7784
▁characteristics	-10.7785
▁rude	-10.7787
▁favourite	-10.7788
▁contemporary	-10.7795
▁occupy	-10.7797
▁schal	-10.7801
▁minimum	-10.7801
▁ruth	-10.7802
▁agreeable	-10.7803
▁nat	-10.7804
▁consul	-10.7804
▁constituted	-10.7809
▁gaze	-10.7815
▁treasure	-10.7823
▁encourage	-10.7826
▁operate	-10.7828
▁wiki	-10.7829
▁sleeping	-10.783
▁chase	-10.7831
▁payable	-10.7832
▁theyre	-10.7834
▁fl	-10.7835
▁laughter	-10.784
▁recommended	-10.7842
▁apostle	-10.7844
▁senior	-10.7851
▁afforded	-10.7853
▁impulse	-10.7857
▁baltimore	-10.7858
▁desirable	-10.7858
▁stepped	-10.7859
▁considerably	-10.7865
▁shelter	-10.7868
▁alarm	-10.787
▁mixture	-10.787
▁blame	-10.7871
▁leather	-10.7872
▁pains	-10.7872
▁dwelling	-10.7875
▁enthusiasm	-10.7878
▁classification	-10.7883
▁gather	-10.7885
▁ur	-10.7891
▁etymological	-10.7897
▁hire	-10.7899
▁husbands	-10.7901
▁forgive	-10.7905
▁accurate	-10.7906
▁prosecution	-10.7908
▁deprived	-10.7912
▁dissent	-10.7916
▁organs	-10.7921
▁nicene	-10.7924
▁mate	-10.7925
▁carl	-10.7925
▁campbell	-10.7925
▁continues	-10.7925
ized	-10.7927
▁ay	-10.7931
▁conceived	-10.7933
▁premises	-10.7934
▁minority	-10.7936
▁inspired	-10.7937
▁satisfy	-10.7937
don	-10.7939
▁disciples	-10.7941
▁fired	-10.7942
▁hymns	-10.7945
▁napoleon	-10.7946
▁associations	-10.796
▁garrison	-10.7962
▁emily	-10.7964
▁alle	-10.797
▁landing	-10.7974
lin	-10.7977
▁imports	-10.7991
▁prophets	-10.7992
▁rod	-10.8001
ir	-10.8002
▁appoint	-10.8002
ga	-10.8009
▁germans	-10.801
▁generations	-10.8011
▁doctrines	-10.8018
▁conservation	-10.8019
▁uncertain	-10.8022
▁minnesota	-10.8025
▁happens	-10.803
▁arc	-10.803
▁commencement	-10.8032
▁descriptive	-10.8038
▁cl	-10.8045
no	-10.8046
▁compliance	-10.8051
▁frightened	-10.8052
ler	-10.8053
▁axis	-10.8058
▁raw	-10.806
▁steady	-10.8061
ata	-10.8063
▁implementation	-10.8064
▁poured	-10.8065
▁attendance	-10.8071
▁limbs	-10.8076
▁commit	-10.8077
▁marie	-10.8081
▁arrested	-10.8082
▁images	-10.8086
▁generous	-10.8087
▁presidential	-10.8092
▁victims	-10.8093
▁exhausted	-10.8097
▁reversed	-10.81
▁circular	-10.8103
▁lofty	-10.8104
▁paradise	-10.8104
▁venture	-10.8104
▁rushed	-10.8108
▁forever	-10.8109
▁misery	-10.811
▁pupil	-10.8112
▁particulars	-10.8112
▁vs	-10.8113
▁governed	-10.8115
▁moderate	-10.8115
▁cash	-10.8116
▁controlled	-10.8117
▁refers	-10.8118
▁repeal	-10.8121
▁marshall	-10.8121
▁insects	-10.8126
▁gathering	-10.8127
▁isaac	-10.8128
▁connexion	-10.8129
▁altered	-10.8133
▁occasional	-10.8136
▁queens	-10.8138
▁relieved	-10.8139
▁stared	-10.8142
▁summary	-10.8156
▁kyng	-10.816
▁acquire	-10.8163
▁manchester	-10.8163
▁memories	-10.8163
▁columns	-10.8168
▁founder	-10.817
▁profits	-10.8174
▁rage	-10.8175
▁lesson	-10.8178
▁dean	-10.8181
▁provincial	-10.8183
im	-10.819
▁heading	-10.819
▁ol	-10.8197
▁twelfth	-10.8201
▁ambassador	-10.8203
▁findings	-10.8204
▁monday	-10.8208
▁inspector	-10.8209
▁maps	-10.8211
▁lock	-10.8216
▁laying	-10.8223
▁suspended	-10.8223
▁saturday	-10.8228
▁complex	-10.8239
▁hostile	-10.8241
▁brick	-10.8243
▁ranks	-10.8251
▁blessing	-10.8258
▁strangers	-10.8261
▁holes	-10.8261
▁saviour	-10.8261
▁chang	-10.8265
▁abundance	-10.8267
▁forehead	-10.8268
▁employer	-10.8271
▁consult	-10.8276
▁utter	-10.8277
▁rival	-10.8279
▁touching	-10.8282
▁merry	-10.8282
▁injured	-10.8283
▁portland	-10.8283
▁delightful	-10.8286
▁kentucky	-10.8287
▁wm	-10.8289
▁practised	-10.8289
▁resulting	-10.829
▁repeat	-10.8292
▁anthony	-10.8294
▁rid	-10.8295
▁dried	-10.8295
▁scholars	-10.8299
▁via	-10.8299
▁receipt	-10.8301
▁sets	-10.8304
▁pick	-10.8305
▁obey	-10.8307
▁disposal	-10.8314
▁voting	-10.8315
▁intense	-10.8316
▁resulted	-10.8323
▁painful	-10.8329
▁hut	-10.8337
▁seventeen	-10.834
▁ut	-10.8346
▁alabama	-10.8347
▁elementary	-10.8347
▁indiana	-10.835
▁persian	-10.8352
▁symbol	-10.8353
▁fome	-10.8354
▁fe	-10.8355
▁foolish	-10.8357
▁interview	-10.8364
▁converted	-10.8369
▁mac	-10.8374
▁obedience	-10.8374
▁identity	-10.8374
ha	-10.8379
▁dancing	-10.8388
▁incorporated	-10.8388
▁finance	-10.839
▁regularly	-10.8398
▁cottage	-10.8399
▁paused	-10.8399
▁ments	-10.8401
▁stomach	-10.8402
▁prohibition	-10.8404
▁antiquity	-10.8408
▁applies	-10.8408
▁proposal	-10.8415
▁ham	-10.8418
▁xx	-10.8419
▁possessions	-10.8419
▁traces	-10.842
▁flexible	-10.8421
▁pit	-10.8426
wood	-10.8428
▁extends	-10.8436
▁missions	-10.8438
▁catholics	-10.8439
▁instinct	-10.8442
▁feathers	-10.8443
▁leo	-10.8449
▁md	-10.8449
▁alliance	-10.8449
▁mortgage	-10.8451
▁bride	-10.8451
▁displayed	-10.8453
▁eaten	-10.8453
▁forgot	-10.8456
▁machines	-10.8457
▁tribute	-10.8459
▁inscription	-10.8461
▁travelling	-10.8462
▁chester	-10.8462
sa	-10.8463
ent	-10.8465
▁intercourse	-10.8468
▁released	-10.8468
▁havent	-10.847
▁researches	-10.8474
▁pause	-10.8475
▁preliminary	-10.8475
▁profound	-10.8483
▁summit	-10.8484
▁ju	-10.8484
▁completion	-10.8488
▁oi	-10.8489
▁dramatic	-10.849
ka	-10.849
▁ultimate	-10.8492
▁bankruptcy	-10.8495
▁rested	-10.8495
▁decline	-10.8499
▁anglo	-10.8501
▁jonathan	-10.8502
▁parent	-10.8503
▁appellant	-10.8504
▁scripture	-10.8511
▁granite	-10.8511
▁maine	-10.8512
ad	-10.8512
▁ferdinand	-10.8515
▁aircraft	-10.8516
▁washed	-10.8524
▁safely	-10.8525
▁mis	-10.8525
▁discourse	-10.8526
▁baptism	-10.8528
▁cultivation	-10.8529
▁proclaim	-10.8529
▁elections	-10.8533
▁obviously	-10.8534
▁mistaken	-10.8535
▁rises	-10.8536
▁lonely	-10.8537
▁dismissed	-10.8538
▁considerations	-10.854
▁sung	-10.8541
▁wisconsin	-10.8543
▁wearing	-10.8543
▁goodness	-10.8544
▁bur	-10.8547
▁statistics	-10.855
▁occurrence	-10.8551
▁commanding	-10.8556
▁gratitude	-10.8556
▁ordained	-10.8557
▁registered	-10.8558
▁cum	-10.8562
▁shakespeare	-10.8564
▁elevation	-10.8572
▁delighted	-10.8575
▁describes	-10.8576
▁receives	-10.8582
▁marquis	-10.8584
▁summoned	-10.8585
▁burial	-10.8593
▁punished	-10.8594
▁finest	-10.8594
▁mont	-10.8597
▁classical	-10.8598
▁recall	-10.8598
mi	-10.8599
▁alter	-10.8602
▁latest	-10.8605
▁rio	-10.8607
▁las	-10.8608
▁ray	-10.8613
▁certainty	-10.8615
▁revolutionary	-10.8618
▁upwards	-10.8622
▁kissed	-10.8623
res	-10.8623
▁saxon	-10.8624
▁newly	-10.8628
▁pending	-10.8633
▁trunk	-10.8634
▁ultimately	-10.8635
▁grateful	-10.8636
▁exempt	-10.8639
▁advised	-10.8642
▁wilt	-10.8646
▁somebody	-10.8649
▁trained	-10.865
▁essex	-10.8652
▁divide	-10.8657
▁policies	-10.8666
▁heavenly	-10.867
▁determines	-10.8673
▁shores	-10.8673
▁softly	-10.8676
▁deer	-10.869
▁comfortable	-10.8695
▁monuments	-10.8697
▁successive	-10.8698
▁miserable	-10.8701
▁resumed	-10.8703
▁seide	-10.8707
▁prohibited	-10.8709
▁grandfather	-10.871
▁unhappy	-10.8714
▁outlays	-10.8716
▁debts	-10.8719
▁conclusions	-10.8721
▁engraved	-10.8729
▁sits	-10.873
▁admirable	-10.8735
▁assure	-10.8737
▁manager	-10.8739
▁historian	-10.8746
▁guests	-10.8748
▁tennessee	-10.8749
▁portuguese	-10.8749
▁convey	-10.8758
▁deeper	-10.8759
▁adjustment	-10.8759
▁reasoning	-10.8759
▁enjoyment	-10.876
▁dealt	-10.8762
▁concerns	-10.8765
▁lessons	-10.8772
▁valleys	-10.8776
▁hides	-10.8779
▁rolls	-10.8782
▁audience	-10.8787
▁chest	-10.879
▁worcester	-10.8791
▁adds	-10.8792
▁plea	-10.8793
▁catherine	-10.8794
▁fraud	-10.8804
▁tre	-10.8805
▁libraries	-10.8812
▁porter	-10.8814
▁domain	-10.8816
ans	-10.8818
▁pas	-10.8819
▁equality	-10.8821
▁termination	-10.8822
▁succeeding	-10.8824
▁saving	-10.8824
▁protest	-10.8833
▁successfully	-10.8834
▁liquor	-10.8835
▁irregular	-10.8836
▁pop	-10.884
▁demonstration	-10.8843
▁healthy	-10.8845
▁penalties	-10.8847
▁lecture	-10.885
▁ambition	-10.885
▁essence	-10.885
▁reflection	-10.885
fi	-10.8851
▁reflected	-10.8858
▁tend	-10.8861
▁sermon	-10.8865
▁cleared	-10.8866
▁prey	-10.8868
▁hid	-10.8869
▁dominion	-10.8872
do	-10.8875
▁petty	-10.8876
▁unlike	-10.8879
▁lodge	-10.8879
▁privy	-10.8882
▁specifically	-10.8883
▁promptly	-10.8884
▁compact	-10.8885
▁neglected	-10.8887
▁requiring	-10.8889
▁placing	-10.889
▁manufacturing	-10.8896
▁investigate	-10.8898
▁rests	-10.8903
▁outward	-10.8904
▁exhibition	-10.8908
▁carrier	-10.8909
▁suspected	-10.8913
▁handle	-10.8914
▁hunger	-10.8918
▁adventure	-10.8919
ld	-10.8922
▁advocate	-10.8923
▁headquarters	-10.8924
▁idle	-10.8926
▁apt	-10.8927
au	-10.8933
▁perceive	-10.8937
▁baker	-10.8939
▁cu	-10.8941
▁steep	-10.8943
▁graves	-10.8945
▁honey	-10.8947
▁enlarged	-10.8954
▁breeding	-10.8956
▁ko	-10.8957
▁conspicuous	-10.8957
▁arrive	-10.8963
▁validity	-10.8967
▁bacon	-10.8973
▁carbon	-10.8973
▁wondered	-10.8974
▁artists	-10.8974
▁charlotte	-10.8974
▁indies	-10.8978
▁unnecessary	-10.8981
▁environment	-10.8983
▁vague	-10.8984
▁grove	-10.8985
▁pursue	-10.8987
▁poetical	-10.8987
▁sank	-10.8988
▁louise	-10.8993
▁someone	-10.9
▁ashamed	-10.9003
▁hunter	-10.9008
▁artistic	-10.9009
▁combat	-10.9017
▁factor	-10.9019
▁dost	-10.902
▁exports	-10.9021
▁essentially	-10.9026
▁vehicle	-10.9028
▁weapon	-10.9028
▁covenant	-10.903
▁hampshire	-10.9031
▁sociology	-10.9031
▁parliamentary	-10.9032
▁franklin	-10.9035
▁pattern	-10.9036
▁shells	-10.904
▁listening	-10.9047
ez	-10.9048
▁attorneys	-10.9052
▁negative	-10.9053
▁anywhere	-10.9054
▁tour	-10.9056
▁steamer	-10.9056
▁circulation	-10.906
▁missing	-10.9064
▁nurse	-10.9064
▁ruled	-10.9064
▁inform	-10.9064
▁matt	-10.9072
▁beaten	-10.9073
▁seeds	-10.9073
▁consumption	-10.9074
ea	-10.9078
▁trembling	-10.9078
▁foster	-10.9079
▁shadows	-10.9082
▁wherefore	-10.9083
▁renewed	-10.9084
ya	-10.9086
▁restore	-10.9087
▁flew	-10.9089
▁continental	-10.909
▁challenge	-10.9091
▁wheels	-10.9096
if	-10.9101
▁athens	-10.9102
▁possesses	-10.9103
▁ownership	-10.9103
▁bo	-10.9114
▁latitude	-10.9115
▁wolf	-10.9115
▁phil	-10.9115
▁weekly	-10.9116
▁prejudice	-10.9117
▁forbidden	-10.9117
▁entity	-10.9118
ide	-10.912
▁comm	-10.9121
▁khan	-10.9123
▁whatsoever	-10.9125
▁farewell	-10.9125
▁tear	-10.9125
▁avenue	-10.9129
▁plus	-10.913
▁heavily	-10.9132
▁slender	-10.9133
▁similarly	-10.9139
▁clever	-10.914
▁deserted	-10.9141
▁fu	-10.9144
▁melancholy	-10.9146
▁subjected	-10.9148
▁invasion	-10.9151
▁engage	-10.9153
▁aggregate	-10.9153
▁orleans	-10.9153
▁arctic	-10.9155
▁pink	-10.916
▁luke	-10.916
▁varieties	-10.9161
▁stages	-10.9162
▁comment	-10.9162
▁erect	-10.9169
▁resist	-10.9173
▁horizon	-10.9173
▁throwing	-10.9177
▁temples	-10.9188
▁ox	-10.919
▁honourable	-10.9192
▁principally	-10.9194
▁gilbert	-10.9199
ls	-10.9199
▁ford	-10.9203
▁units	-10.9205
▁harbour	-10.9206
▁platform	-10.9209
▁offense	-10.921
▁doctors	-10.921
▁dread	-10.9211
▁thunder	-10.9218
▁traced	-10.9221
▁assumption	-10.9224
▁battery	-10.9227
▁crowded	-10.9228
▁ample	-10.923
▁traditions	-10.9233
▁reed	-10.9234
▁tie	-10.9239
▁collar	-10.9246
▁encouraged	-10.9247
▁contest	-10.9249
▁lift	-10.9249
▁tragedy	-10.9263
▁probability	-10.9263
▁offers	-10.9275
▁conveyance	-10.9275
▁ukraine	-10.9277
ive	-10.928
nd	-10.9282
▁proclaimed	-10.9297
▁helen	-10.93
▁layout	-10.93
▁applications	-10.9302
▁posts	-10.9318
▁deficiency	-10.9321
▁outline	-10.9323
▁shouted	-10.9324
▁hurry	-10.9325
▁jo	-10.9326
▁discrimination	-10.9329
▁engineering	-10.9334
▁relationship	-10.9335
▁partial	-10.9343
▁participation	-10.9343
▁practicable	-10.9343
▁sensible	-10.9343
▁saddle	-10.9345
▁ascertained	-10.9348
▁peaceful	-10.9355
▁seventeenth	-10.9367
▁enforce	-10.9367
▁fortunate	-10.937
▁folly	-10.937
▁viscount	-10.9372
▁discoveries	-10.9374
▁calculated	-10.9374
▁spaniards	-10.9375
rum	-10.9375
▁grade	-10.9375
▁vigorous	-10.9377
▁prescribe	-10.9381
▁cheek	-10.9382
▁interfere	-10.9384
▁measured	-10.9393
▁expansion	-10.9395
▁meantime	-10.9396
▁thorough	-10.9406
▁undertake	-10.9407
▁butler	-10.9411
▁coin	-10.9412
▁fears	-10.9427
▁horrible	-10.9432
▁til	-10.9434
▁portraits	-10.9435
▁fence	-10.9437
▁roy	-10.9442
▁withdrawn	-10.9445
▁connecticut	-10.9447
▁vicar	-10.9451
▁periodicals	-10.9459
▁childhood	-10.9461
▁planted	-10.9465
▁alternative	-10.9465
▁troubled	-10.9468
▁sailors	-10.947
▁ry	-10.9472
▁hatred	-10.9478
▁slightest	-10.9478
▁promotion	-10.9483
▁guidance	-10.9485
▁wrath	-10.9485
▁eventually	-10.9485
▁meadow	-10.9491
▁oldest	-10.9496
▁governing	-10.9498
▁arizona	-10.95
ys	-10.9501
▁fuller	-10.9502
▁mor	-10.9502
▁excluded	-10.9503
▁fires	-10.9507
▁uttered	-10.9512
▁link	-10.9514
▁hudson	-10.9514
▁candidate	-10.9515
▁sacrifices	-10.9519
▁haste	-10.9521
▁jpg	-10.9523
▁christopher	-10.9524
▁bade	-10.9524
▁ashes	-10.9524
▁craft	-10.9525
▁procured	-10.9527
▁restrictions	-10.953
▁wretched	-10.9535
▁severely	-10.9536
▁sensation	-10.9537
▁smell	-10.954
▁obscure	-10.9541
▁factory	-10.9542
▁endure	-10.9544
▁judgments	-10.9547
▁ancestors	-10.9551
▁interval	-10.9552
▁organic	-10.9566
▁elaborate	-10.9566
▁nephew	-10.9567
▁cheeks	-10.9569
▁recognised	-10.957
▁lowest	-10.9571
▁geographical	-10.9572
▁stir	-10.9573
▁verdict	-10.9574
▁ruisdael	-10.9575
▁cream	-10.9581
▁factors	-10.9588
▁slope	-10.9596
▁settlers	-10.9597
▁marsh	-10.9599
▁nests	-10.96
▁sport	-10.9601
ens	-10.9602
▁dish	-10.9607
▁veins	-10.9614
▁heights	-10.9615
▁bands	-10.962
▁belt	-10.962
▁device	-10.962
▁fountain	-10.9622
▁convicted	-10.9622
▁ant	-10.9624
▁desperate	-10.9625
▁dared	-10.9626
▁nelson	-10.9628
▁closing	-10.9628
▁cock	-10.9632
▁super	-10.9632
▁dau	-10.9634
▁developing	-10.9635
▁engagement	-10.9635
▁shake	-10.9636
ins	-10.9638
▁negotiations	-10.9641
▁negroes	-10.9641
▁assurance	-10.9643
▁cars	-10.9643
▁tariff	-10.965
▁conversion	-10.965
ities	-10.9658
▁nineteenth	-10.966
▁additions	-10.9666
▁acceptance	-10.9667
▁thefe	-10.9669
▁killing	-10.9671
▁thi	-10.9671
que	-10.9671
▁prefer	-10.9675
▁seats	-10.9676
▁prospect	-10.9676
▁persuaded	-10.9677
▁levels	-10.9681
▁boots	-10.9686
▁newton	-10.9687
▁tropical	-10.9689
▁ascertain	-10.969
▁disturbed	-10.9691
▁absurd	-10.9692
▁lawyers	-10.9692
▁varying	-10.9692
▁perpetual	-10.9695
▁caesar	-10.9695
▁undertaken	-10.97
▁award	-10.9702
▁crying	-10.9702
▁inheritance	-10.9704
▁slipped	-10.9704
▁vanity	-10.9706
▁imagined	-10.9706
▁chapters	-10.9707
▁lieut	-10.9708
▁nom	-10.971
▁lime	-10.9713
▁conceive	-10.9715
rich	-10.9716
▁games	-10.9717
▁investment	-10.9727
▁flung	-10.9728
▁efficient	-10.9732
▁finish	-10.9733
▁enlisted	-10.9751
▁pilot	-10.9754
▁brush	-10.9755
ac	-10.9759
▁postal	-10.9762
▁maritime	-10.9765
▁crop	-10.9769
▁associate	-10.977
▁sergeant	-10.9772
▁ix	-10.9773
▁scarce	-10.9779
▁operated	-10.9787
▁madras	-10.9789
▁rogers	-10.979
▁glanced	-10.9792
▁potential	-10.9793
▁breach	-10.9794
▁isle	-10.9794
▁nerves	-10.9794
▁speeches	-10.9796
▁entries	-10.9796
▁sq	-10.98
▁chronicle	-10.9801
▁jefferson	-10.9811
▁blank	-10.9814
▁enters	-10.9815
▁gallant	-10.9824
▁feeble	-10.9824
▁plot	-10.9825
▁sigh	-10.9827
▁ci	-10.983
▁propose	-10.9832
▁shared	-10.9832
▁peasant	-10.9835
▁brook	-10.9838
▁cam	-10.9841
▁spake	-10.9842
▁bells	-10.9844
▁bowed	-10.9845
▁abstract	-10.9847
▁cows	-10.9848
▁owe	-10.9848
▁quarrel	-10.985
▁chemistry	-10.985
▁securing	-10.9851
▁hare	-10.9857
▁assault	-10.9858
▁modification	-10.9859
▁conquered	-10.986
▁awake	-10.9863
▁inland	-10.9865
▁ger	-10.9866
▁communion	-10.9866
▁monks	-10.9866
▁treaties	-10.9867
▁begged	-10.9874
▁troubles	-10.9874
▁thread	-10.9876
▁vegetable	-10.9882
▁consultation	-10.9883
▁instructed	-10.9884
▁eagle	-10.9885
▁passengers	-10.9885
▁bob	-10.989
▁traveling	-10.9893
▁comparative	-10.9894
▁sone	-10.9899
▁morality	-10.9899
▁involving	-10.99
▁rendering	-10.9902
▁drunk	-10.9903
▁harvest	-10.9906
▁designs	-10.9909
▁repealed	-10.991
▁crops	-10.991
▁suits	-10.9911
▁extinct	-10.9912
▁io	-10.9913
▁lots	-10.9919
▁comply	-10.9919
▁refusal	-10.992
▁guest	-10.9922
▁anderson	-10.9925
▁roberts	-10.9925
▁colleges	-10.9933
▁answers	-10.9935
▁sketches	-10.9942
▁monastery	-10.9944
▁adjoining	-10.9944
▁score	-10.9954
▁grandson	-10.9955
▁township	-10.9955
▁pet	-10.9955
▁botany	-10.996
▁ash	-10.9963
▁closer	-10.9966
▁tiny	-10.9968
▁philosopher	-10.9968
▁pe	-10.9969
▁straw	-10.9969
▁personally	-10.9971
▁opera	-10.9973
▁substantially	-10.9973
▁morris	-10.9975
▁queer	-10.9975
▁sentiments	-10.9981
pa	-10.9984
▁curse	-10.9989
▁om	-10.9989
▁affecting	-10.9991
▁revision	-10.9993
▁abbot	-10.9995
▁acre	-10.9999
▁keeper	-11.0007
▁contingent	-11.0008
▁emotion	-11.0009
▁potter	-11.001
▁contracting	-11.001
▁notices	-11.0011
▁realize	-11.0012
▁travellers	-11.0013
ji	-11.0018
▁paragraphs	-11.0026
▁dans	-11.0028
▁ruined	-11.0029
▁theories	-11.0031
her	-11.0032
▁whoever	-11.0036
▁manuscripts	-11.0039
▁battles	-11.004
▁initial	-11.0053
▁fitting	-11.0054
▁friedrich	-11.0054
▁eng	-11.0054
▁destined	-11.0055
▁hospitals	-11.0059
▁sunk	-11.0059
tion	-11.006
▁lets	-11.0061
▁av	-11.0061
▁oo	-11.0063
▁reasonably	-11.0063
▁stayed	-11.0064
▁preached	-11.0066
▁patron	-11.0067
▁harris	-11.0068
▁bridges	-11.0069
▁simplicity	-11.007
▁crisis	-11.007
ated	-11.0072
▁gazed	-11.0077
▁preparations	-11.0078
▁ours	-11.0078
▁faculties	-11.0078
▁symptoms	-11.0079
ue	-11.0081
▁comp	-11.0083
▁pin	-11.0083
▁minded	-11.0084
▁civilized	-11.0088
▁counted	-11.0089
▁prevailed	-11.0089
▁knee	-11.0093
▁reg	-11.0095
▁secondly	-11.0097
▁legitimate	-11.0099
▁glasgow	-11.0102
▁embrace	-11.0104
▁shock	-11.0104
▁clergyman	-11.0105
▁proc	-11.011
▁png	-11.0114
▁cir	-11.0114
▁role	-11.0118
▁maiden	-11.0125
▁attending	-11.0126
▁steadily	-11.0126
▁restricted	-11.0127
▁murmured	-11.0128
▁traveller	-11.0128
▁tasks	-11.0134
▁victor	-11.0138
▁swear	-11.014
▁peasants	-11.0141
▁submission	-11.0144
▁objections	-11.0146
▁harrison	-11.0147
▁anatomy	-11.015
▁revelation	-11.0152
▁eagerly	-11.0154
▁liaison	-11.0158
▁manage	-11.0166
▁replaced	-11.0169
▁mag	-11.0169
▁pious	-11.0174
▁sensitive	-11.0181
▁heretofore	-11.0182
▁mediterranean	-11.0182
▁membership	-11.0184
▁candle	-11.0185
▁conn	-11.019
ful	-11.0192
▁svo	-11.0195
▁cards	-11.0199
▁crowned	-11.0202
▁recommendations	-11.0205
▁approximately	-11.0207
▁bat	-11.0209
▁woe	-11.0209
▁attain	-11.021
▁murray	-11.0218
▁tl	-11.0222
▁rolling	-11.0236
▁implements	-11.0241
▁norman	-11.0253
▁mt	-11.0257
▁solomon	-11.026
▁ja	-11.026
▁rifle	-11.0268
▁giant	-11.0268
▁iroquois	-11.0271
pe	-11.0275
▁shield	-11.0278
▁dwelt	-11.0278
▁administered	-11.0281
▁realm	-11.0283
▁maintaining	-11.0283
▁immortal	-11.0286
▁manufactures	-11.0289
ten	-11.0289
▁inserted	-11.029
▁publishing	-11.029
▁dollar	-11.0295
▁kit	-11.0295
▁impressions	-11.0299
▁welsh	-11.0303
▁shone	-11.0311
▁lent	-11.0312
▁locality	-11.0314
▁trump	-11.0314
▁unconscious	-11.0315
▁threat	-11.0317
▁produces	-11.0318
▁sickness	-11.0327
▁believing	-11.0327
▁thereupon	-11.0337
▁flash	-11.0337
all	-11.0337
▁mirror	-11.0342
▁publicly	-11.0344
▁duration	-11.0345
▁af	-11.0345
▁cries	-11.0347
▁adult	-11.0348
▁excessive	-11.035
▁dangers	-11.035
▁fn	-11.0363
▁marshal	-11.0363
▁lovers	-11.0363
▁descendants	-11.0368
▁hungry	-11.0369
▁objective	-11.0369
▁revenues	-11.037
▁episcopal	-11.0372
▁circles	-11.0373
▁hippolytus	-11.0376
▁mysteries	-11.0376
▁argued	-11.038
ol	-11.0382
▁civilian	-11.0383
▁slip	-11.0392
▁snake	-11.0393
▁logic	-11.0398
▁universities	-11.0401
▁lin	-11.0402
▁sultan	-11.0405
▁achieved	-11.0406
▁wandering	-11.0406
▁extract	-11.0408
▁byron	-11.0412
▁identify	-11.0413
▁prayed	-11.0413
▁load	-11.0416
▁garments	-11.0419
▁paint	-11.0419
▁excellence	-11.0421
▁motives	-11.0421
▁stiff	-11.0421
▁lb	-11.0422
▁procurement	-11.0427
▁ya	-11.0433
▁custody	-11.0434
▁inevitable	-11.0434
ria	-11.0437
▁ruling	-11.0437
▁constantinople	-11.0442
▁certified	-11.0442
▁shoot	-11.0446
ical	-11.0449
▁nationality	-11.0451
▁wounds	-11.0454
▁pile	-11.0454
▁robinson	-11.0454
▁exhibit	-11.0457
▁www	-11.0459
▁diet	-11.0465
der	-11.0467
▁syllabus	-11.0467
▁bart	-11.0467
▁resort	-11.047
▁corruption	-11.0471
▁holmes	-11.0471
▁relate	-11.0476
▁badly	-11.0478
▁sheets	-11.048
▁fails	-11.0481
▁acknowledge	-11.0482
▁thickness	-11.0483
▁confused	-11.0489
▁seasons	-11.0489
▁bend	-11.049
▁thither	-11.0491
▁guilt	-11.0492
▁notable	-11.0495
▁preference	-11.0495
▁revenge	-11.0498
▁nodded	-11.05
▁goal	-11.05
▁accompanying	-11.0504
▁lace	-11.0504
▁separately	-11.0505
▁justly	-11.0506
▁dimensions	-11.0511
▁monk	-11.0514
▁confirmation	-11.0517
▁embraced	-11.0522
▁reporter	-11.0529
▁stem	-11.0529
▁arises	-11.0532
▁wagon	-11.0532
▁ful	-11.0541
▁arab	-11.0543
▁kin	-11.0548
▁theodore	-11.0555
▁warriors	-11.0555
▁interference	-11.0558
▁compiled	-11.0558
▁planning	-11.0559
▁expenditures	-11.056
led	-11.0562
▁expert	-11.0562
▁edits	-11.0564
ana	-11.0567
▁veil	-11.0572
▁flowing	-11.0583
▁blake	-11.0594
▁angles	-11.0596
▁shaft	-11.0597
▁inquire	-11.0597
▁fastened	-11.0601
▁heroes	-11.0604
▁scriptures	-11.0606
▁arabic	-11.061
▁stuart	-11.0612
▁motions	-11.0613
▁pointing	-11.0614
▁laboratory	-11.0617
▁favourable	-11.0618
▁grasp	-11.0621
▁humour	-11.0622
▁receipts	-11.0624
▁arkansas	-11.0625
▁che	-11.0626
▁diplomatic	-11.0628
▁serpent	-11.0637
▁pb	-11.0638
▁undertaking	-11.0638
▁wedding	-11.0639
▁mild	-11.064
▁hood	-11.0641
▁impressed	-11.0644
▁filing	-11.0649
▁stable	-11.0658
▁ballot	-11.0662
▁presidents	-11.0665
▁weren	-11.0671
▁buffalo	-11.0672
▁harper	-11.0678
▁alcohol	-11.0681
▁shipping	-11.0684
▁lively	-11.0686
▁feeding	-11.0691
▁losing	-11.0692
▁commodities	-11.0692
▁felix	-11.0692
▁jordan	-11.0693
▁briefly	-11.0693
▁purity	-11.0693
▁rom	-11.0696
▁saul	-11.0696
▁lien	-11.0703
▁riches	-11.0703
▁rebels	-11.0705
▁addresses	-11.0708
▁lasted	-11.0709
▁inconsistent	-11.0709
ba	-11.0712
▁ea	-11.0714
▁cargo	-11.0715
▁wake	-11.0724
▁aaron	-11.0724
▁environmental	-11.0733
▁darling	-11.0734
▁unexpected	-11.074
ance	-11.0746
▁upward	-11.0747
▁num	-11.0749
▁sermons	-11.0756
▁wears	-11.0758
▁yielded	-11.076
▁compilation	-11.0762
ites	-11.0764
▁din	-11.0765
▁steen	-11.077
▁dirty	-11.077
▁entertained	-11.078
▁ke	-11.0783
▁nobles	-11.0783
▁adjacent	-11.0785
▁aloud	-11.0785
▁cord	-11.0787
▁magistrate	-11.0791
▁rulers	-11.0792
▁supervision	-11.0794
▁ranges	-11.0796
▁deity	-11.0803
▁notifications	-11.0803
▁appearing	-11.0804
▁monarch	-11.0805
▁string	-11.0807
▁governors	-11.0807
▁delicious	-11.0808
▁preach	-11.0809
▁venice	-11.0811
▁isolated	-11.0811
▁salmon	-11.0812
▁ff	-11.0813
▁coarse	-11.0813
▁commissions	-11.0816
▁xxi	-11.0816
▁drugs	-11.0825
▁storage	-11.0828
▁logging	-11.0828
▁penny	-11.0829
▁edith	-11.0831
▁collins	-11.0832
▁carriers	-11.0833
▁discussions	-11.0835
▁turkish	-11.0837
▁sixteenth	-11.0838
▁tri	-11.0838
▁neighbours	-11.0839
▁bot	-11.0845
▁carter	-11.0847
▁dies	-11.0853
▁parcel	-11.0854
▁reflect	-11.0854
▁stroke	-11.0854
▁devices	-11.0854
▁depths	-11.0856
▁assert	-11.0861
▁accuracy	-11.0862
▁bodily	-11.0862
▁debate	-11.0872
▁invented	-11.0873
▁pleasures	-11.0873
▁wage	-11.0874
▁phase	-11.0875
▁visitors	-11.0881
▁freight	-11.0881
▁nu	-11.0882
▁successors	-11.0883
▁coins	-11.0886
▁breathing	-11.0886
si	-11.0886
ary	-11.0888
▁assets	-11.0889
▁apple	-11.0891
▁radio	-11.0896
▁admiralty	-11.0897
▁roses	-11.0897
▁curve	-11.0899
▁advances	-11.09
▁cliff	-11.0901
▁transport	-11.0903
▁procure	-11.0904
▁seminary	-11.0906
ship	-11.0914
▁subsistence	-11.0914
tes	-11.0914
▁fulfilled	-11.0915
▁foe	-11.0918
▁mood	-11.0919
▁implement	-11.092
▁collecting	-11.0921
▁apartment	-11.0921
▁experiences	-11.0925
▁lightly	-11.0925
▁generals	-11.0927
▁injunction	-11.0932
▁tracts	-11.0935
▁voted	-11.0943
▁shes	-11.0943
▁preaching	-11.0944
▁gravity	-11.0949
▁utah	-11.095
▁losses	-11.095
▁har	-11.0955
▁nuclear	-11.0957
▁continuation	-11.0957
▁divorce	-11.0959
▁awarded	-11.0962
▁allowing	-11.0963
▁accompany	-11.097
▁manufactured	-11.0971
▁sentences	-11.0973
▁patrick	-11.0974
▁owen	-11.0975
▁contracted	-11.0979
▁turkey	-11.0981
ere	-11.0983
▁advancing	-11.0983
▁flock	-11.0983
▁ir	-11.0986
▁plato	-11.0987
▁publish	-11.099
▁carries	-11.099
▁prudence	-11.0992
▁guardian	-11.0997
▁peters	-11.0998
▁ties	-11.1
▁irrigation	-11.1009
▁cruelty	-11.101
▁directors	-11.1013
▁risen	-11.1014
▁commands	-11.1015
▁stout	-11.1015
▁soviet	-11.1016
▁supporting	-11.102
▁sandy	-11.1023
▁strand	-11.1025
tor	-11.1026
▁youd	-11.1028
▁mat	-11.1031
▁stating	-11.1034
▁liverpool	-11.1035
▁fearful	-11.1038
▁selling	-11.1039
▁vary	-11.1042
▁stamp	-11.1044
▁cromwell	-11.1046
▁nowhere	-11.1049
▁introduce	-11.1049
▁judged	-11.105
▁basket	-11.1051
▁sunshine	-11.1053
▁exercises	-11.106
▁quod	-11.1063
▁inst	-11.1063
▁deem	-11.107
▁travelled	-11.1071
▁mb	-11.1071
▁troy	-11.1072
▁fifteenth	-11.1073
▁leisure	-11.1076
▁editors	-11.108
ica	-11.1081
ial	-11.1082
ny	-11.1083
▁creator	-11.1086
▁sailing	-11.1086
▁sounded	-11.1087
▁hindu	-11.1087
▁vel	-11.1088
▁sovereignty	-11.1089
▁judith	-11.1095
▁ali	-11.1096
▁mens	-11.1096
▁psychology	-11.1097
▁cur	-11.1101
▁tight	-11.1103
▁perception	-11.1104
▁stolen	-11.1109
▁resurrection	-11.1114
▁peninsula	-11.1116
▁boil	-11.112
▁alexandria	-11.1123
▁regional	-11.1125
▁honorable	-11.1125
▁diamond	-11.113
▁limestone	-11.113
▁assertion	-11.1131
▁variations	-11.1131
▁subtitle	-11.1132
▁imprisoned	-11.1132
▁respondents	-11.1134
▁attachment	-11.1139
▁vengeance	-11.1141
▁courses	-11.1142
▁pres	-11.1143
▁elect	-11.1143
▁disaster	-11.1148
▁therefor	-11.1148
▁militia	-11.115
ach	-11.1152
tus	-11.1153
▁draft	-11.1153
▁locked	-11.1157
▁muscles	-11.1163
▁developer	-11.1163
▁convent	-11.1163
▁accomplish	-11.1167
▁solitary	-11.1168
▁drank	-11.1168
▁martyr	-11.1174
▁resemblance	-11.1175
▁junior	-11.1176
▁torture	-11.1181
▁typical	-11.1182
▁lesser	-11.1183
▁grim	-11.1185
▁lightning	-11.1186
▁majestys	-11.1187
▁reverse	-11.1187
▁partner	-11.1187
▁landlord	-11.1193
▁calcutta	-11.1194
▁fir	-11.1194
▁invisible	-11.1194
▁metropolitan	-11.1194
▁referring	-11.1194
▁communicated	-11.1198
▁graham	-11.1202
▁favorable	-11.1204
▁intend	-11.1205
▁esteem	-11.1208
▁wikis	-11.1214
▁cloak	-11.1215
▁proposals	-11.1219
▁extremity	-11.1221
▁sones	-11.1221
▁clashes	-11.1221
▁texts	-11.1222
▁conformity	-11.123
▁sta	-11.1233
▁astonished	-11.1239
▁rubber	-11.1239
▁fishes	-11.124
▁strengthen	-11.1242
ians	-11.1247
▁harvard	-11.1247
▁horace	-11.1248
▁relates	-11.1253
▁recalled	-11.1253
▁securities	-11.1256
▁agitation	-11.1256
▁chains	-11.1257
▁illegal	-11.1262
▁scotch	-11.1263
▁friday	-11.1264
▁logical	-11.1264
▁lang	-11.1268
▁auto	-11.1269
▁achieve	-11.1269
▁mentions	-11.1269
▁amounted	-11.1272
▁ps	-11.1273
▁pitch	-11.1273
▁tones	-11.1274
▁ratio	-11.1282
▁rites	-11.1283
▁electronic	-11.1283
ney	-11.1286
▁precise	-11.1289
▁guy	-11.129
▁sharply	-11.1293
▁juan	-11.1293
▁keeps	-11.1294
▁avoided	-11.1295
▁neighbouring	-11.1296
ini	-11.1297
▁parted	-11.1297
for	-11.1298
▁augustus	-11.1298
▁ammunition	-11.1301
▁permissions	-11.1304
▁geology	-11.131
▁junction	-11.131
▁password	-11.131
▁stanley	-11.131
▁arrow	-11.1311
▁promises	-11.1315
▁clad	-11.1316
▁rightly	-11.1317
▁ref	-11.1319
▁clinton	-11.1319
▁bestowed	-11.1321
▁assyria	-11.1324
▁shirt	-11.1325
▁exposition	-11.1327
▁watson	-11.1327
▁expiration	-11.1328
▁towers	-11.1329
▁bind	-11.1332
▁shepherd	-11.1333
▁rounded	-11.1334
▁hastily	-11.1337
▁resided	-11.1341
▁boiling	-11.1341
▁ross	-11.1347
up	-11.135
▁partnership	-11.1354
▁tribunal	-11.1363
▁imperfect	-11.137
▁inasmuch	-11.1373
▁thyself	-11.1374
▁une	-11.1379
▁philosophers	-11.1381
▁spectator	-11.1381
▁northwest	-11.1382
▁tar	-11.1384
▁influences	-11.1386
▁amen	-11.1386
▁beheld	-11.1386
▁captains	-11.1389
▁pays	-11.139
▁defended	-11.139
▁pack	-11.1391
▁tan	-11.1394
go	-11.1401
▁vanished	-11.1402
▁visitor	-11.1402
▁daylight	-11.1402
▁labours	-11.1407
▁relatives	-11.1408
ik	-11.1411
ou	-11.1416
izing	-11.1416
▁os	-11.1422
▁contribute	-11.1422
▁plague	-11.1423
▁warfare	-11.1428
▁olive	-11.1429
▁avail	-11.1432
▁settlements	-11.1434
▁abode	-11.1436
▁advisory	-11.1437
▁citizenship	-11.1437
▁endowed	-11.1438
mo	-11.1439
▁ky	-11.1441
▁morgan	-11.1441
▁decisive	-11.1443
▁arrange	-11.1445
di	-11.1445
▁compound	-11.1446
od	-11.1448
▁pretended	-11.1449
▁goat	-11.145
▁mal	-11.1454
▁expressions	-11.1454
▁denial	-11.1455
▁exile	-11.1458
▁whann	-11.146
▁flames	-11.146
ino	-11.1463
▁smoking	-11.1464
▁oz	-11.1465
▁cheerful	-11.1469
▁exquisite	-11.147
▁breeze	-11.1473
▁ruler	-11.1473
▁incidents	-11.148
▁borough	-11.1482
▁piety	-11.1483
▁covers	-11.1484
▁thirds	-11.1485
▁dense	-11.1489
▁restriction	-11.1491
▁fluid	-11.1491
▁personality	-11.1495
▁saith	-11.1495
▁dock	-11.1496
▁qe	-11.15
▁invitation	-11.15
▁exemption	-11.1501
▁regulate	-11.1504
▁bt	-11.1506
▁ion	-11.1513
ger	-11.1514
orum	-11.1517
▁salisbury	-11.1519
▁bury	-11.1519
▁percentage	-11.152
▁absorbed	-11.152
▁spencer	-11.1521
▁retire	-11.1522
▁visiting	-11.1523
▁persia	-11.1523
more	-11.1524
tu	-11.1524
▁missionaries	-11.1528
▁visits	-11.1529
▁upright	-11.153
▁beating	-11.153
▁constitutes	-11.1533
▁lip	-11.1534
▁mist	-11.1539
▁publisher	-11.1539
▁weve	-11.1542
▁foul	-11.1543
▁fan	-11.1544
▁washing	-11.1549
▁flies	-11.1551
▁picturesque	-11.1552
▁unjust	-11.1552
▁fertile	-11.1556
▁transit	-11.1556
▁fury	-11.1557
▁creed	-11.1558
▁lordship	-11.1561
▁clubs	-11.1564
▁miracles	-11.1564
▁aspects	-11.1565
▁pig	-11.1566
▁wax	-11.1567
▁cannon	-11.1569
▁waist	-11.157
▁offerings	-11.1572
▁arbitrary	-11.1574
▁sue	-11.1574
▁ow	-11.1579
yn	-11.1579
ris	-11.158
▁seize	-11.158
▁pressing	-11.1581
▁currency	-11.1583
▁eyed	-11.1584
▁tracks	-11.1585
▁dialect	-11.1585
▁respectable	-11.159
q	-11.1591
ula	-11.1592
▁judah	-11.1593
▁failing	-11.1595
▁applying	-11.1596
▁substitute	-11.1597
▁frances	-11.1601
▁miracle	-11.1602
▁mingled	-11.1603
▁commissioned	-11.1604
▁ty	-11.1604
▁leaning	-11.1606
▁romantic	-11.161
▁carved	-11.1612
▁decay	-11.1615
▁baptist	-11.1615
▁journals	-11.1615
▁translations	-11.1618
▁dragged	-11.1621
▁workmen	-11.1621
tt	-11.1627
▁studying	-11.1628
▁sustain	-11.163
▁leadership	-11.163
▁borrowed	-11.1632
▁rings	-11.1633
▁governmental	-11.1637
ua	-11.1637
▁persecution	-11.1639
▁contention	-11.1641
▁fran	-11.1641
▁soap	-11.1646
▁imitation	-11.1649
▁norwich	-11.1649
▁dressing	-11.1649
▁flows	-11.165
▁kate	-11.1651
▁floating	-11.1651
▁attractive	-11.1653
▁bounded	-11.1655
▁creditors	-11.1657
▁ethics	-11.1659
▁blocks	-11.166
▁increases	-11.1662
▁earthly	-11.1663
cl	-11.1665
▁palestine	-11.1667
▁sanctuary	-11.1667
▁cart	-11.1667
ron	-11.1667
▁flora	-11.1667
▁portugal	-11.1668
▁pu	-11.1669
▁instituted	-11.1672
▁surplus	-11.1672
▁divinity	-11.1676
▁winchester	-11.1676
▁sabbath	-11.1677
▁accession	-11.1677
▁vii	-11.1678
▁feels	-11.168
▁electricity	-11.1686
▁abandon	-11.1686
▁pat	-11.1688
▁dat	-11.169
▁emphasis	-11.169
▁borders	-11.1693
▁bristol	-11.1695
▁examining	-11.1695
▁questioned	-11.1696
▁bloody	-11.1699
▁colors	-11.1702
▁verb	-11.1703
▁rob	-11.171
▁poles	-11.1711
▁heroic	-11.1712
▁applicant	-11.1714
▁neighbors	-11.1716
ak	-11.1716
▁cas	-11.1719
▁serves	-11.1728
▁staring	-11.1729
▁urge	-11.1731
▁patients	-11.1733
▁publishers	-11.1733
▁variation	-11.1733
▁cooper	-11.1734
▁chu	-11.1734
▁pastor	-11.1734
▁rt	-11.1735
▁particles	-11.1737
▁min	-11.1739
▁buck	-11.1741
▁johns	-11.1744
▁max	-11.1747
▁fisheries	-11.1751
▁architect	-11.1752
▁puts	-11.1754
cr	-11.1765
▁disability	-11.177
▁hungary	-11.177
▁petersburg	-11.1773
▁countrymen	-11.1774
ith	-11.1775
▁deserve	-11.1776
▁mus	-11.1778
▁reverend	-11.1779
▁offensive	-11.1779
▁hind	-11.178
▁scholarship	-11.178
▁talent	-11.1786
▁shares	-11.1787
▁vow	-11.1788
▁elevated	-11.1789
▁milton	-11.1791
▁tissue	-11.1792
▁gazette	-11.1793
▁daring	-11.1795
▁quebec	-11.1798
▁punish	-11.1807
▁pepper	-11.1807
▁montgomery	-11.1807
▁rat	-11.1808
▁preacher	-11.1812
▁wesley	-11.1812
▁tenant	-11.1813
▁considers	-11.1813
che	-11.1814
▁ore	-11.1816
▁happily	-11.1817
▁drops	-11.182
▁gal	-11.1822
▁trials	-11.1824
▁productive	-11.1826
▁fragment	-11.1827
▁toil	-11.183
▁reads	-11.1832
▁sion	-11.1839
▁suggests	-11.1839
va	-11.1843
▁termed	-11.1846
▁warwick	-11.1848
▁nonsense	-11.1854
▁boxes	-11.1858
▁desk	-11.1861
▁dou	-11.1862
▁weep	-11.1862
▁battalion	-11.1865
▁eleventh	-11.1866
▁gown	-11.1867
▁estimates	-11.1868
▁fin	-11.1868
▁foundations	-11.1869
▁savings	-11.1869
▁pace	-11.187
▁bombay	-11.1874
▁indicates	-11.1874
▁qu	-11.1887
▁hawk	-11.1888
▁players	-11.1888
▁hated	-11.1891
▁mathematics	-11.1894
▁endeavour	-11.1895
▁renewal	-11.1895
▁englishman	-11.1896
▁hardy	-11.19
▁supp	-11.1901
lo	-11.1902
▁shooting	-11.1907
▁construct	-11.191
▁reviews	-11.191
▁quit	-11.1912
▁proves	-11.1916
▁edwin	-11.1916
▁righteous	-11.1918
▁herd	-11.192
▁canterbury	-11.1921
▁hadde	-11.1925
con	-11.1926
▁bushes	-11.1929
▁dit	-11.1929
▁reaches	-11.1931
▁jew	-11.1931
▁ness	-11.1932
▁exchanged	-11.1933
ay	-11.1933
▁gloomy	-11.1934
▁loaded	-11.1936
▁tremendous	-11.1937
▁heap	-11.1939
▁destiny	-11.194
ization	-11.1944
▁crow	-11.1948
▁impose	-11.195
▁rejoice	-11.195
▁creating	-11.195
▁leagues	-11.195
▁beef	-11.1952
▁conceal	-11.1952
▁og	-11.1952
▁annex	-11.1953
▁dissenting	-11.1956
▁cornelia	-11.1958
sh	-11.1958
mer	-11.1959
▁hypothesis	-11.196
▁diary	-11.1964
▁railroads	-11.1965
▁deadly	-11.197
▁planned	-11.197
▁sincere	-11.1973
▁dame	-11.1975
▁halt	-11.1976
ven	-11.1976
▁describing	-11.1979
▁caste	-11.198
▁skins	-11.1981
▁inclusive	-11.1982
▁char	-11.1987
▁velocity	-11.1988
▁stirred	-11.1988
▁excellency	-11.199
▁mars	-11.199
▁fashioned	-11.1991
▁weeping	-11.2002
▁allowances	-11.2003
▁viii	-11.2004
▁loyal	-11.2004
▁fortunes	-11.2006
▁evils	-11.2007
vi	-11.2008
▁seconds	-11.2009
▁ic	-11.2011
▁bred	-11.2012
▁graceful	-11.2015
▁hed	-11.2018
▁mer	-11.2018
▁rescue	-11.2018
▁mason	-11.2019
▁cong	-11.2022
▁famine	-11.2028
▁burns	-11.203
▁westward	-11.2031
▁methodist	-11.2031
▁reverence	-11.2031
▁editorial	-11.2033
▁clothed	-11.2035
▁bruce	-11.2039
▁swiftly	-11.2044
▁arnold	-11.2045
▁folks	-11.2046
▁ordnance	-11.2046
▁transmitted	-11.2046
▁wept	-11.2046
▁bars	-11.2047
▁clement	-11.2053
▁hereunto	-11.2056
▁reprinted	-11.2058
▁inspiration	-11.2058
▁insert	-11.2058
▁suspect	-11.2059
▁coach	-11.206
▁memoir	-11.2061
▁wondering	-11.2062
▁delegate	-11.2063
▁disputes	-11.2063
▁bradley	-11.2065
▁favorite	-11.2069
▁partially	-11.207
▁dom	-11.2072
des	-11.2074
▁extant	-11.2075
▁hearted	-11.2081
▁earnestly	-11.2081
▁totally	-11.2084
▁relieve	-11.2085
▁baptized	-11.2086
▁trap	-11.2086
▁links	-11.2086
▁palmer	-11.2088
▁lined	-11.2089
▁unite	-11.209
▁tribal	-11.2092
▁efficiency	-11.2094
▁sufferings	-11.2096
▁haven	-11.2102
▁almighty	-11.2104
▁medal	-11.2105
▁consecrated	-11.2105
▁isabella	-11.2109
▁tip	-11.211
ize	-11.2111
▁penal	-11.2113
▁traditional	-11.2113
▁christs	-11.2118
▁archives	-11.212
▁orthodox	-11.212
▁warned	-11.2121
▁printer	-11.2122
▁utility	-11.2124
▁easier	-11.2133
▁breed	-11.2137
▁nerve	-11.2138
▁hu	-11.2138
▁strip	-11.2139
▁alps	-11.2144
▁structures	-11.2147
berg	-11.2154
▁accounted	-11.2154
▁murdered	-11.2156
▁ark	-11.216
cy	-11.2165
▁survived	-11.2166
▁pool	-11.2167
▁spouse	-11.2169
▁assuming	-11.2172
▁denmark	-11.2173
▁plough	-11.2174
▁whereupon	-11.2183
▁killers	-11.2183
▁pierre	-11.2184
▁smallest	-11.2185
▁emperors	-11.2187
▁barry	-11.2187
▁goddess	-11.2189
▁sore	-11.2189
▁judiciary	-11.2192
▁observing	-11.2192
▁cheap	-11.2193
om	-11.2195
▁injustice	-11.2196
▁korea	-11.2197
bo	-11.2198
▁mathematical	-11.2199
▁spending	-11.22
▁ny	-11.2203
▁resolve	-11.221
▁appreciation	-11.2212
▁treason	-11.2212
▁approve	-11.2212
▁muttered	-11.2213
▁lend	-11.2221
▁tuesday	-11.2221
▁transmission	-11.2222
▁alteration	-11.2223
▁whitman	-11.2226
▁papal	-11.2231
▁misfortune	-11.2235
▁impact	-11.2236
▁usage	-11.2239
▁roar	-11.2239
▁withdrew	-11.2241
▁sink	-11.2242
▁groot	-11.2242
▁alfo	-11.2244
▁filling	-11.2247
▁execute	-11.225
▁indifferent	-11.2251
▁endless	-11.2256
▁hart	-11.2261
▁naples	-11.2261
▁scarlet	-11.2264
▁skull	-11.2264
▁repose	-11.2264
▁vegetation	-11.2271
▁harold	-11.2271
rt	-11.2274
▁signature	-11.2274
▁festival	-11.2275
▁greatness	-11.2279
▁symbols	-11.228
▁sacrament	-11.2281
▁spear	-11.2282
ung	-11.2283
▁bohemia	-11.2287
▁heathen	-11.2289
▁trading	-11.2291
▁vulgar	-11.2293
▁trick	-11.2295
ul	-11.2297
▁tim	-11.23
▁conspiracy	-11.23
▁ec	-11.2306
▁injuries	-11.2306
▁gent	-11.2307
ure	-11.2308
▁socialist	-11.2309
▁withdraw	-11.2315
▁lastly	-11.2316
▁regulated	-11.2316
▁steal	-11.2316
▁inscriptions	-11.2319
▁push	-11.2322
▁hastened	-11.2323
▁sparrow	-11.2324
▁andrews	-11.2324
▁males	-11.2325
▁modifications	-11.233
ks	-11.233
▁cemetery	-11.233
▁reformation	-11.2332
▁meridian	-11.2334
▁reaction	-11.2334
▁comments	-11.2334
▁fred	-11.2335
▁gg	-11.2337
▁shih	-11.2337
▁procession	-11.234
▁integrity	-11.234
▁markets	-11.2341
▁strongest	-11.2341
▁righteousness	-11.2342
▁receiver	-11.2342
▁youngest	-11.2343
▁leaned	-11.2344
▁arriving	-11.235
▁resignation	-11.2351
▁apostolic	-11.2351
▁bon	-11.2357
▁ave	-11.2359
▁causing	-11.2361
▁cable	-11.2363
▁didst	-11.2368
▁affections	-11.2369
▁switzerland	-11.237
▁nebraska	-11.237
▁foods	-11.2383
▁reporting	-11.2387
▁railways	-11.2388
▁fold	-11.2388
▁statesman	-11.2388
▁curtain	-11.24
▁shaking	-11.2401
▁erection	-11.2403
▁juvenile	-11.2404
▁blows	-11.2404
▁dealer	-11.241
▁forsothe	-11.241
▁caps	-11.2411
▁authorizing	-11.2412
ons	-11.2413
▁annals	-11.2414
▁neighborhood	-11.2414
▁juice	-11.2415
▁mercury	-11.242
▁gap	-11.2428
▁split	-11.243
▁prophecy	-11.243
▁evans	-11.2432
▁physicians	-11.2434
▁transaction	-11.2435
▁lap	-11.2438
▁driver	-11.2442
▁thofe	-11.2442
yng	-11.2445
▁openly	-11.2449
▁belgium	-11.245
▁thursday	-11.245
▁glow	-11.245
▁maurice	-11.245
▁invested	-11.2452
▁karl	-11.2452
▁dining	-11.2459
▁dynasty	-11.2461
▁classified	-11.2461
▁spots	-11.2465
▁venus	-11.2466
▁gloom	-11.2467
▁gradual	-11.2468
fa	-11.2468
▁preceded	-11.2473
ise	-11.2478
▁gale	-11.2478
▁appealed	-11.2483
▁drawings	-11.2487
▁descriptions	-11.2489
▁ascribed	-11.249
▁jos	-11.2491
▁sunset	-11.2496
▁funding	-11.2498
▁barony	-11.2502
▁sworn	-11.2504
▁pleasing	-11.2505
▁attempting	-11.2507
▁cared	-11.2507
▁dun	-11.251
▁intermediate	-11.2511
▁dissolved	-11.2513
▁secular	-11.2513
▁cit	-11.2522
▁infringement	-11.2526
▁cleveland	-11.2531
▁performing	-11.2533
ura	-11.2535
▁comedy	-11.2536
▁gracious	-11.2537
▁aliens	-11.2538
▁sal	-11.2542
▁corporate	-11.2542
▁confessed	-11.2546
▁surprising	-11.2548
▁lis	-11.2551
▁entities	-11.2552
▁enforced	-11.2559
lt	-11.2559
▁charitable	-11.2562
▁supposing	-11.2562
▁accounting	-11.2563
▁ugly	-11.2563
▁stevenson	-11.2563
▁literally	-11.2564
ai	-11.2564
▁neighbour	-11.2564
▁balloon	-11.2567
▁chaplain	-11.2568
▁babylon	-11.2571
▁hy	-11.2576
▁flint	-11.2577
▁linn	-11.2581
▁identification	-11.2582
▁declaring	-11.2582
▁monte	-11.2586
▁hir	-11.2587
▁mischief	-11.2587
▁ploughs	-11.2589
▁shops	-11.2591
▁photographic	-11.2597
▁yearly	-11.2599
▁senators	-11.2604
▁wu	-11.2606
▁dug	-11.2607
▁vegetables	-11.2612
▁maker	-11.2612
▁eternity	-11.2613
op	-11.2613
▁employers	-11.2614
▁engines	-11.2614
▁descend	-11.2616
▁pistol	-11.2621
▁appellants	-11.2621
▁ef	-11.2622
▁conjunction	-11.2623
▁encouragement	-11.2624
▁clerical	-11.2625
▁beer	-11.2626
▁jumped	-11.2626
▁peak	-11.2627
▁requisite	-11.2628
▁kh	-11.2632
▁contractor	-11.2633
▁astonishment	-11.2633
▁raisonn	-11.2635
▁transition	-11.2639
▁peril	-11.2641
▁emma	-11.2642
▁proprietor	-11.2648
▁lunch	-11.2652
▁dauid	-11.2656
▁legends	-11.2657
▁divers	-11.2658
▁sinking	-11.2659
▁edwards	-11.2663
▁ernest	-11.2665
▁whip	-11.2665
▁experimental	-11.2667
ised	-11.267
▁hadnt	-11.2675
▁film	-11.2676
▁drift	-11.2676
fl	-11.2677
▁jealousy	-11.2678
▁wealthy	-11.2678
ella	-11.2678
▁horizontal	-11.2682
▁milan	-11.2684
▁primarily	-11.2685
▁sidney	-11.2685
▁improving	-11.2685
▁gazing	-11.2685
▁helping	-11.2686
ement	-11.2687
▁peru	-11.2689
▁beaver	-11.2689
▁epoch	-11.269
▁learnt	-11.2691
▁vivid	-11.2692
▁jerome	-11.2695
▁gi	-11.2697
▁durham	-11.2706
▁somerset	-11.2706
▁declares	-11.2708
▁perish	-11.2709
▁suggestions	-11.271
▁corrected	-11.271
▁proportions	-11.2711
▁definitely	-11.2714
▁inquiries	-11.2716
▁subordinate	-11.2716
▁anniversary	-11.2726
▁lust	-11.2726
▁disappointed	-11.2726
▁spell	-11.2727
▁poland	-11.2728
▁diminished	-11.2728
ynge	-11.2733
▁invalid	-11.2734
▁joan	-11.2734
▁hook	-11.2742
▁differs	-11.2743
▁deaf	-11.2743
▁trusted	-11.2746
▁batteries	-11.2747
▁proofs	-11.2753
▁repeatedly	-11.2759
▁hale	-11.2759
▁jealous	-11.276
▁modest	-11.2761
cs	-11.2764
▁chairs	-11.2764
▁homer	-11.2774
▁hither	-11.2778
▁fide	-11.2779
▁barn	-11.2781
▁handkerchief	-11.2784
▁doubts	-11.2786
▁participating	-11.2788
▁grains	-11.2789
▁whisper	-11.2794
▁caution	-11.2795
▁stupid	-11.2795
▁collective	-11.2796
▁slaughter	-11.2797
▁hesitated	-11.2802
▁ethical	-11.2805
▁eu	-11.2805
▁nile	-11.2808
▁lean	-11.2811
▁compel	-11.2811
▁supernatural	-11.2816
▁manifested	-11.2816
▁annuity	-11.2819
▁vch	-11.282
▁induce	-11.282
▁crept	-11.282
▁justices	-11.2821
▁cliffs	-11.2823
▁earned	-11.2823
▁thirst	-11.2823
▁keys	-11.2826
▁wider	-11.2827
aria	-11.2828
▁invariably	-11.283
▁concrete	-11.283
▁councils	-11.283
▁agnes	-11.2837
▁sherman	-11.2838
▁dumb	-11.2841
▁concurrent	-11.2848
▁guaranteed	-11.2849
▁talents	-11.285
▁anchor	-11.2853
▁web	-11.2854
ring	-11.2855
▁recommend	-11.2859
▁treasures	-11.2861
▁shallow	-11.2867
▁hull	-11.2867
▁sic	-11.2868
▁indictment	-11.2868
▁corners	-11.2871
ck	-11.2871
▁truths	-11.2871
▁removing	-11.2872
▁thirteenth	-11.2873
mes	-11.2873
bury	-11.2876
▁scorn	-11.2878
▁incapable	-11.2882
▁ku	-11.2885
▁restraint	-11.2888
▁yea	-11.2892
▁merchandise	-11.2893
▁complicated	-11.2893
ja	-11.2894
mar	-11.2899
▁maclane	-11.2903
▁wallace	-11.2905
▁contemplated	-11.2905
▁foreigners	-11.2907
▁academic	-11.2909
▁firing	-11.2909
▁voters	-11.2911
ver	-11.2913
▁loyalty	-11.2914
▁consumed	-11.2916
▁worm	-11.2916
▁inhabited	-11.2916
cd	-11.2917
▁prevailing	-11.2918
▁critic	-11.292
▁ornament	-11.2924
▁category	-11.2924
▁hail	-11.2929
▁jimmy	-11.2932
▁lasting	-11.2932
▁barren	-11.2934
▁bees	-11.2944
▁eliza	-11.2945
▁corrupt	-11.2945
▁sydney	-11.2946
▁leipzig	-11.2946
▁continuance	-11.2946
▁seeks	-11.2946
▁pipes	-11.295
▁bliss	-11.295
▁augustine	-11.296
▁fortunately	-11.2961
▁nominated	-11.2968
ire	-11.2969
▁helpless	-11.2979
▁participate	-11.2979
▁violet	-11.298
▁tt	-11.2981
▁shorter	-11.2981
▁protecting	-11.2984
▁coleridge	-11.2985
▁prick	-11.2985
▁hund	-11.2987
▁swung	-11.2988
▁couch	-11.2989
▁twas	-11.2991
▁crude	-11.2994
▁fined	-11.2995
▁med	-11.2995
▁implied	-11.2996
▁prevail	-11.2997
▁definitions	-11.3007
▁banking	-11.3011
▁nigh	-11.3013
▁duchess	-11.3016
▁patents	-11.3019
▁yourselves	-11.302
▁whither	-11.302
▁addressing	-11.3023
▁knocked	-11.3024
▁hiding	-11.3027
▁convenience	-11.3028
▁damp	-11.3029
▁bernard	-11.3033
▁possessing	-11.3033
▁hofstede	-11.3041
▁dew	-11.3043
▁walks	-11.3044
▁syria	-11.3046
▁everlasting	-11.3049
▁resembling	-11.3052
▁danish	-11.3052
▁obeyed	-11.3059
▁subdivision	-11.3059
▁confirm	-11.3061
▁navigable	-11.3063
▁sage	-11.3063
▁ban	-11.3067
▁joining	-11.3068
▁anyway	-11.307
▁surveys	-11.3072
▁chalk	-11.3072
▁devils	-11.3073
▁customary	-11.3074
▁communicate	-11.3075
▁suited	-11.3078
▁strikes	-11.3078
sch	-11.3083
▁hans	-11.3085
▁localities	-11.3086
▁thief	-11.3086
▁pamphlet	-11.309
▁phillips	-11.3091
▁rang	-11.3093
▁indifference	-11.3095
▁innumerable	-11.3095
▁kennedy	-11.3095
▁privately	-11.3103
▁turks	-11.3105
▁fuch	-11.3107
▁horns	-11.311
▁meets	-11.311
▁dig	-11.3116
▁firft	-11.3117
▁suppressed	-11.3119
era	-11.3119
▁directory	-11.3122
▁searching	-11.3123
▁scots	-11.3124
▁entrusted	-11.3128
ps	-11.313
▁cha	-11.3136
▁medieval	-11.3138
▁suspension	-11.3138
▁antonio	-11.3139
▁priority	-11.314
▁cultural	-11.3149
▁martial	-11.3149
▁envy	-11.3149
▁yorkshire	-11.315
▁universally	-11.3151
▁stuck	-11.3152
▁missed	-11.3155
▁chorus	-11.3156
▁witnessed	-11.3159
▁suppression	-11.316
za	-11.3166
▁faithfully	-11.3171
▁clarke	-11.3172
▁conducting	-11.3172
▁elders	-11.3173
▁assent	-11.3174
▁womens	-11.3179
we	-11.3183
▁folded	-11.3186
▁endeavoured	-11.3186
▁swan	-11.3187
▁vacant	-11.3189
▁fortified	-11.3192
▁tenderness	-11.3195
▁tm	-11.3195
▁ellis	-11.3197
▁remembrance	-11.32
▁initiative	-11.32
▁northward	-11.3202
▁delaware	-11.3203
▁speedily	-11.3203
▁ardent	-11.3209
▁pearl	-11.321
▁indignation	-11.3214
▁certification	-11.3215
▁drowned	-11.3215
▁potatoes	-11.3215
▁mask	-11.3225
▁wishing	-11.3232
▁cooperative	-11.3233
▁frozen	-11.3236
▁startled	-11.3236
▁socrates	-11.3237
▁reproach	-11.3237
▁nobility	-11.3237
▁owed	-11.324
▁doubted	-11.3242
▁goats	-11.3243
▁weeds	-11.3245
▁observer	-11.3246
▁unworthy	-11.3246
▁ken	-11.3246
▁vine	-11.3247
▁rs	-11.3251
ct	-11.3251
sponsibilities	-11.3253
▁evaluation	-11.3255
▁vein	-11.3257
iu	-11.3257
▁frost	-11.3261
gar	-11.3261
▁consulted	-11.3264
▁lions	-11.3267
▁appetite	-11.3267
▁phenomenon	-11.3268
▁aroused	-11.327
▁oc	-11.3271
▁moves	-11.3272
▁madam	-11.3276
▁brazil	-11.3276
▁formidable	-11.3279
▁guarded	-11.3282
▁tank	-11.3285
▁currents	-11.329
town	-11.3292
▁corpus	-11.3297
▁believes	-11.3297
▁cyclop	-11.3299
▁needle	-11.33
▁guides	-11.33
▁bu	-11.3302
▁lamps	-11.3304
▁demonstrated	-11.3305
▁fog	-11.3305
▁memorials	-11.3305
▁persuade	-11.3307
▁childrens	-11.3307
▁defects	-11.3309
▁veteran	-11.331
▁refusing	-11.3312
▁opium	-11.3312
▁careless	-11.3313
▁occasioned	-11.332
▁electors	-11.3321
▁systematic	-11.3322
▁regiments	-11.3327
▁cedar	-11.3332
▁figured	-11.3334
▁illustrious	-11.3334
▁oxygen	-11.3334
▁peck	-11.3335
▁martyrs	-11.3336
▁metals	-11.3337
▁involve	-11.3337
▁shout	-11.3338
▁norway	-11.3338
▁ink	-11.3339
▁innocence	-11.3345
▁mythology	-11.3345
▁sanction	-11.3346
▁balls	-11.3346
▁ned	-11.3348
▁enemys	-11.335
▁canoe	-11.3351
▁epistle	-11.3353
▁bloom	-11.3355
▁sculpture	-11.336
▁recreation	-11.3362
▁decrees	-11.3362
▁permits	-11.3363
▁glasses	-11.3365
▁revolt	-11.3366
▁reconciliation	-11.3367
▁hereditary	-11.3367
▁highways	-11.3373
▁ferry	-11.3377
▁exclusion	-11.3378
▁deputies	-11.3378
▁disabilities	-11.3378
▁mess	-11.338
▁heated	-11.3383
▁painters	-11.3393
▁media	-11.3397
▁madison	-11.34
▁sublime	-11.3408
▁rigid	-11.3411
▁cincinnati	-11.3411
▁twentieth	-11.3411
▁silly	-11.3412
hi	-11.3415
ita	-11.3416
▁elephant	-11.342
▁kan	-11.3421
▁sweden	-11.3423
▁moss	-11.3425
▁edgar	-11.3425
▁ornaments	-11.3426
▁sands	-11.3426
▁boiled	-11.3427
▁pretend	-11.3431
▁burton	-11.3434
ow	-11.3436
▁holidays	-11.3441
▁wellington	-11.3441
▁moneys	-11.3445
wa	-11.3446
▁encountered	-11.3448
▁facilitate	-11.3449
▁stationed	-11.3451
▁extracts	-11.3451
▁letting	-11.3453
▁axe	-11.3453
▁julius	-11.3456
tum	-11.3457
▁involves	-11.3458
sen	-11.3459
▁deceived	-11.3459
▁elegant	-11.3463
▁asylum	-11.3465
▁celestial	-11.3465
let	-11.3467
▁abruptly	-11.3468
▁appreciate	-11.3471
▁electrical	-11.3477
▁brussels	-11.3478
▁imposing	-11.3478
▁yu	-11.3479
▁inherited	-11.348
▁mil	-11.3481
▁quote	-11.3482
▁brand	-11.3485
▁respected	-11.3486
▁establishments	-11.3486
▁philippine	-11.3487
▁observance	-11.3488
▁thro	-11.3489
▁undertook	-11.3489
▁consolidated	-11.3491
▁cc	-11.3492
▁ip	-11.3493
▁consented	-11.3497
▁reveal	-11.3502
▁wo	-11.3505
▁summons	-11.3507
▁sealed	-11.3507
▁ventured	-11.3509
▁figs	-11.3513
▁acute	-11.3513
▁interpreted	-11.3514
▁crest	-11.3522
▁mob	-11.3526
▁enterprises	-11.3526
▁stole	-11.3527
ff	-11.3527
▁surrendered	-11.3531
▁reside	-11.3532
▁gesture	-11.3533
▁females	-11.3533
▁guided	-11.3534
▁strife	-11.3534
▁appl	-11.3537
▁threatening	-11.3545
▁gloucester	-11.3545
▁reckon	-11.3546
ries	-11.3551
▁confer	-11.3552
▁comrades	-11.3552
▁blade	-11.3557
▁sites	-11.3557
▁screen	-11.3559
▁ellen	-11.356
▁perished	-11.3561
▁bet	-11.3562
▁socialism	-11.3563
ze	-11.3564
▁sch	-11.3566
▁wrapped	-11.3567
▁exceptional	-11.3568
▁float	-11.3569
▁epistles	-11.3571
▁listed	-11.3572
▁ripe	-11.3576
▁ance	-11.3577
▁crushed	-11.3581
rn	-11.3581
ning	-11.3585
▁opponents	-11.3587
▁objected	-11.3588
▁communist	-11.3589
burg	-11.359
▁occurring	-11.359
▁silently	-11.3594
▁seamen	-11.3598
▁hopkins	-11.3599
▁belly	-11.36
▁enclosed	-11.3602
▁hague	-11.3603
▁natures	-11.3603
ko	-11.3604
▁crook	-11.3605
▁insane	-11.3613
▁doorway	-11.3613
▁incidental	-11.3615
▁disgrace	-11.3616
▁kid	-11.3618
▁propositions	-11.3619
▁ep	-11.3621
▁sen	-11.3625
▁ideals	-11.3626
▁mamma	-11.3626
▁gravel	-11.3628
▁oppose	-11.363
▁cunning	-11.3634
▁assignment	-11.3635
▁jupiter	-11.3635
▁ching	-11.3636
▁modes	-11.3636
▁ai	-11.364
▁taxable	-11.364
▁approaches	-11.3641
▁ufed	-11.3644
▁squadron	-11.3644
▁luxury	-11.3646
▁presidency	-11.3646
▁europeans	-11.3647
▁remedies	-11.3648
▁morals	-11.365
▁restrain	-11.3651
▁oklahoma	-11.3658
▁stopping	-11.3659
ible	-11.366
ab	-11.3663
▁harsh	-11.3665
▁caroline	-11.3669
▁heritage	-11.3669
▁wildlife	-11.3669
▁expectation	-11.367
▁relics	-11.367
▁hs	-11.3671
▁viewed	-11.3671
▁scenery	-11.3671
▁offences	-11.3678
atus	-11.368
ati	-11.368
▁equitable	-11.3681
▁enumerated	-11.3682
▁slopes	-11.3682
▁edges	-11.3682
tra	-11.3683
▁austrian	-11.3688
▁achievement	-11.3692
▁commitment	-11.3693
▁continual	-11.3696
▁charms	-11.3699
▁marriages	-11.3701
▁indebted	-11.3702
▁bee	-11.3707
lie	-11.3708
▁spreading	-11.3714
▁solitude	-11.3714
▁checked	-11.3715
▁preventing	-11.3719
▁longing	-11.3722
rie	-11.3722
▁blessings	-11.3726
▁evelyn	-11.3726
▁summa	-11.3729
▁roi	-11.373
▁cork	-11.3733
▁twilight	-11.3738
▁venerable	-11.3738
▁destination	-11.3738
▁implies	-11.3738
▁velvet	-11.3746
▁emotions	-11.3747
▁inference	-11.3749
▁eusebius	-11.3749
▁grande	-11.3749
▁cheer	-11.3755
▁susan	-11.3755
▁fisher	-11.3761
▁prolonged	-11.3762
bi	-11.3762
▁bargain	-11.3764
tin	-11.3764
▁peculiarly	-11.3768
▁subtle	-11.3769
▁fugitive	-11.3771
▁bas	-11.3771
▁disabled	-11.3772
▁jar	-11.3774
▁assessed	-11.3774
▁disorder	-11.3776
▁productions	-11.3779
▁excepting	-11.3779
▁garment	-11.3782
▁rows	-11.3783
▁webster	-11.3784
▁wonders	-11.3785
▁blew	-11.3787
▁temporal	-11.3788
▁yo	-11.3789
▁influenced	-11.379
line	-11.3794
▁crimson	-11.3795
▁physiology	-11.3795
▁spared	-11.3795
▁adjusted	-11.3797
▁photograph	-11.3798
▁dur	-11.3803
▁handling	-11.3805
▁disappointment	-11.3807
▁columbus	-11.3807
▁backward	-11.381
off	-11.381
▁styled	-11.3812
▁advancement	-11.3814
▁aided	-11.3816
▁lucky	-11.3816
▁mansion	-11.3818
▁comptroller	-11.3818
▁winning	-11.3818
▁gothic	-11.382
▁affords	-11.3825
▁default	-11.3825
▁hue	-11.3827
▁certificates	-11.3831
▁abolished	-11.3831
▁honours	-11.3833
▁strengthened	-11.3835
▁stretch	-11.3836
▁moonlight	-11.3841
▁profitable	-11.3843
▁wandered	-11.3845
▁proviso	-11.3851
▁certiorari	-11.3853
▁condemnation	-11.3853
▁shine	-11.3853
are	-11.3862
▁wikipedia	-11.3864
▁sailor	-11.3879
▁purchaser	-11.3882
▁farms	-11.3883
▁pond	-11.3885
▁desirous	-11.3888
▁remarkably	-11.3888
cot	-11.3888
▁context	-11.3888
▁climb	-11.3889
▁annexed	-11.3893
▁quest	-11.3896
▁passionate	-11.3897
▁glen	-11.3897
▁recollection	-11.39
▁captive	-11.3901
▁cancer	-11.3903
lis	-11.3906
▁ted	-11.3908
▁federation	-11.3911
▁joke	-11.3914
▁critics	-11.3915
▁secretly	-11.3921
▁tune	-11.3922
▁eloquence	-11.3922
▁superstition	-11.3923
▁relied	-11.3924
▁brigadier	-11.3934
▁mademoiselle	-11.3934
▁indispensable	-11.3934
▁furnace	-11.3935
▁sticks	-11.3936
▁hired	-11.3939
▁erroneous	-11.3943
▁curiously	-11.3949
▁insist	-11.3951
▁compass	-11.3955
▁urgent	-11.3955
▁intensity	-11.3958
▁hesitation	-11.3958
▁biological	-11.3958
▁ul	-11.3959
▁notions	-11.3959
▁armour	-11.3964
ned	-11.3969
▁oxen	-11.3973
▁polish	-11.3973
▁blowing	-11.3974
▁rite	-11.3974
▁hammer	-11.3974
▁hint	-11.3976
ington	-11.3979
▁parting	-11.3981
▁churchyard	-11.3982
▁roused	-11.3985
▁neat	-11.3988
▁paintings	-11.3988
▁correctly	-11.3994
▁amusement	-11.3994
▁nowrap	-11.3995
▁deliberate	-11.3996
▁mound	-11.4002
▁fixing	-11.4004
▁cumberland	-11.4005
▁anticipated	-11.4006
▁yer	-11.4007
▁climbed	-11.4009
▁admired	-11.4009
▁enthusiastic	-11.401
▁expedient	-11.4018
▁sessions	-11.4018
▁magistrates	-11.4021
br	-11.4022
ber	-11.4024
▁goin	-11.4026
▁egil	-11.4026
▁exposure	-11.4029
▁eastward	-11.4031
▁arisen	-11.4038
▁offenders	-11.4039
▁disciple	-11.404
▁directing	-11.4041
▁topics	-11.4041
▁bowl	-11.4046
▁manufacturer	-11.4048
▁soup	-11.4053
▁kindred	-11.4054
▁warmth	-11.4056
ken	-11.4062
▁reynolds	-11.4065
▁responded	-11.4067
▁complained	-11.4068
▁alarmed	-11.4071
▁compromise	-11.4071
▁neutral	-11.4074
▁nevada	-11.4075
▁reminded	-11.4079
▁ascended	-11.4082
mg	-11.4083
▁ranch	-11.4093
▁aimed	-11.4098
▁jail	-11.4099
▁prosperous	-11.4101
▁gladstone	-11.4101
kin	-11.4105
▁reflections	-11.4106
▁messengers	-11.4107
▁residents	-11.4114
▁liver	-11.4116
▁suffice	-11.412
▁jewels	-11.412
▁dispose	-11.412
▁apocrypha	-11.4121
ston	-11.4122
▁eo	-11.4122
▁leicester	-11.4123
▁rehabilitation	-11.4123
▁player	-11.4123
▁geography	-11.4123
▁percy	-11.4127
▁jaw	-11.4127
▁constable	-11.413
▁concurring	-11.4135
▁justification	-11.4136
▁tombs	-11.4137
ola	-11.414
▁edw	-11.4146
▁southward	-11.4147
fer	-11.4147
▁hopeless	-11.4149
▁lond	-11.4149
▁originated	-11.415
my	-11.4154
▁harp	-11.4158
▁winged	-11.4158
▁robe	-11.4159
▁surfaces	-11.4161
ig	-11.4162
cu	-11.4165
▁arabs	-11.4165
▁lacking	-11.4168
▁relatively	-11.417
▁concurrence	-11.417
▁commodity	-11.417
▁basil	-11.4171
▁coun	-11.4171
▁inflicted	-11.4172
▁answering	-11.4174
▁planet	-11.4175
▁smart	-11.4175
▁ridiculous	-11.4179
▁gang	-11.4182
▁surviving	-11.4183
▁agony	-11.4184
▁adorned	-11.4184
▁pendant	-11.4185
▁zu	-11.4186
▁fables	-11.4189
▁prudent	-11.4191
▁therfor	-11.4193
▁destructive	-11.4193
▁commitments	-11.4195
▁costume	-11.4197
▁mourning	-11.4197
▁horsemen	-11.4199
ating	-11.4201
▁scales	-11.4201
▁pledge	-11.4204
▁phrases	-11.4206
▁ivory	-11.4207
▁allah	-11.4208
▁prairie	-11.4208
▁recommendation	-11.4209
▁bor	-11.421
▁blast	-11.421
▁esteemed	-11.4212
▁foremost	-11.4218
▁windsor	-11.4221
ix	-11.4221
▁holder	-11.4221
ado	-11.4223
way	-11.4226
▁sussex	-11.423
ien	-11.4231
ib	-11.4233
▁temptation	-11.4233
▁wards	-11.4235
port	-11.4237
▁prop	-11.4241
▁cole	-11.4241
▁unreasonable	-11.4242
▁harvey	-11.4243
▁diversity	-11.4243
▁asks	-11.4244
▁descending	-11.4247
▁bounds	-11.4255
▁threshold	-11.4257
▁winding	-11.4258
ell	-11.4264
▁cab	-11.4264
▁counts	-11.4268
▁awareness	-11.427
▁dragon	-11.4272
▁fortress	-11.4273
▁levy	-11.4278
▁brit	-11.4278
▁acceptable	-11.4281
▁puzzled	-11.4282
▁fetch	-11.4282
▁anyhow	-11.4283
▁polished	-11.4283
▁heels	-11.4284
▁steward	-11.4284
▁lan	-11.4285
▁rushing	-11.4287
▁infinitely	-11.4288
▁tory	-11.4288
▁threats	-11.4289
▁poetic	-11.4291
▁breathe	-11.4291
▁factories	-11.4291
▁warehouse	-11.4292
▁xii	-11.4293
▁carpenter	-11.4293
ors	-11.4298
▁pauls	-11.4299
ij	-11.43
▁aristotle	-11.4305
▁ceiling	-11.4305
▁fitz	-11.4315
▁guinea	-11.4318
▁overthrow	-11.4319
▁strangely	-11.4319
▁sweep	-11.432
▁rawlins	-11.4324
▁tends	-11.4325
▁corpse	-11.4325
▁professors	-11.4326
▁enlightened	-11.4328
▁apprehension	-11.433
▁tit	-11.4331
▁honoured	-11.4332
▁duck	-11.4335
▁secrets	-11.4335
▁nut	-11.4336
▁whites	-11.4338
▁yale	-11.4344
▁occupies	-11.4351
▁joshua	-11.4351
▁detached	-11.4352
▁reigned	-11.4353
▁advise	-11.4353
▁inclination	-11.4354
ek	-11.4354
▁deaths	-11.4362
▁tongues	-11.4362
ho	-11.4363
▁candidates	-11.4364
▁comprising	-11.4364
▁limb	-11.4366
▁cats	-11.4369
▁layer	-11.437
▁pint	-11.437
▁ingenious	-11.4373
▁faults	-11.4374
▁brotherhood	-11.4376
▁complain	-11.4376
▁terra	-11.4376
▁fiery	-11.4377
▁purse	-11.4378
▁tutor	-11.438
▁sulphur	-11.4382
▁tiger	-11.4382
▁weird	-11.4383
▁curved	-11.4383
▁suppl	-11.4384
▁rutland	-11.4388
▁madrid	-11.4388
▁amidst	-11.4389
▁satan	-11.4389
▁villa	-11.4393
▁kingdoms	-11.4395
▁prussia	-11.4396
▁worker	-11.4399
▁mas	-11.44
▁visions	-11.44
gg	-11.44
▁cooking	-11.4402
▁seizure	-11.4403
▁chances	-11.4407
nn	-11.441
so	-11.441
▁leon	-11.441
▁expressing	-11.4422
mann	-11.4422
▁crimea	-11.4423
▁mah	-11.4424
▁negligence	-11.4425
▁willingly	-11.4426
oc	-11.4427
▁mechanism	-11.4428
▁cylinder	-11.4428
▁magnitude	-11.4428
▁iu	-11.4431
▁jer	-11.4433
▁massive	-11.4435
▁harriet	-11.4437
▁sunlight	-11.4437
ki	-11.4438
▁consular	-11.4441
▁conform	-11.4446
nis	-11.4446
▁duncan	-11.4449
▁priesthood	-11.4449
▁bedford	-11.4452
▁knock	-11.4453
▁monster	-11.4453
▁blown	-11.4454
▁pillow	-11.4454
▁intentions	-11.4458
▁moor	-11.4463
mon	-11.4464
▁lantern	-11.4465
▁buddha	-11.4466
▁presentation	-11.4466
▁das	-11.4473
▁foreground	-11.4474
▁ting	-11.4477
▁affirm	-11.448
▁invite	-11.4481
▁progressive	-11.4482
▁sighed	-11.4482
▁delegates	-11.4483
▁pioneer	-11.4485
▁redemption	-11.4486
▁aux	-11.4486
▁rem	-11.4489
▁controlling	-11.4489
▁flocks	-11.449
art	-11.449
ias	-11.4494
▁dale	-11.4498
▁equipped	-11.4499
▁repaired	-11.4501
▁restless	-11.4501
▁synod	-11.4501
▁insult	-11.4502
▁exploration	-11.4502
ms	-11.4503
rr	-11.4507
▁appro	-11.4511
▁holiday	-11.4514
▁deliberately	-11.4527
▁warrior	-11.4527
▁experts	-11.453
▁exclude	-11.4534
▁wasted	-11.4537
▁sus	-11.4537
▁rico	-11.454
▁qualifications	-11.4543
▁aberdeen	-11.4548
▁dissolution	-11.4548
rd	-11.4549
▁outstanding	-11.4549
▁plunged	-11.455
▁pleaded	-11.4552
▁breaks	-11.4553
pur	-11.4556
▁classic	-11.4557
▁ji	-11.4559
ph	-11.4561
▁kar	-11.4562
▁strata	-11.4563
▁rhine	-11.4564
▁tabernacle	-11.4564
▁stained	-11.4567
red	-11.4567
▁dif	-11.4568
▁cer	-11.457
ht	-11.4571
▁paths	-11.4573
▁pasture	-11.4573
▁copied	-11.4573
▁newcastle	-11.4574
▁mitchell	-11.4575
▁meadows	-11.4575
▁awakened	-11.4575
▁kong	-11.4581
▁gar	-11.4583
▁plymouth	-11.4585
▁brooklyn	-11.4585
▁severity	-11.4585
ato	-11.4586
▁span	-11.4586
▁ether	-11.459
▁focus	-11.459
▁hong	-11.459
one	-11.4591
av	-11.4597
▁decorated	-11.4599
▁attributes	-11.4602
▁dominions	-11.4605
▁witch	-11.4605
▁boldly	-11.4607
▁folio	-11.461
▁allegiance	-11.461
▁reformers	-11.4612
▁panama	-11.4612
▁furnishing	-11.4613
▁presumption	-11.4614
▁lumber	-11.4618
▁occupying	-11.4619
▁depended	-11.462
▁bc	-11.462
▁wednesday	-11.4623
▁promoting	-11.4623
▁reconstruction	-11.4623
▁gigantic	-11.4623
▁wed	-11.4629
▁hinder	-11.4629
▁unions	-11.463
▁uncommon	-11.4632
▁mich	-11.4636
▁exeter	-11.4636
▁handled	-11.464
▁defect	-11.464
▁thumb	-11.4641
▁substituted	-11.4642
▁shades	-11.4646
▁captivity	-11.4648
▁staircase	-11.4652
▁rely	-11.4653
▁labors	-11.4653
▁packed	-11.4654
▁quotations	-11.4654
▁casting	-11.4658
▁puple	-11.4661
▁shaw	-11.4664
▁plateau	-11.4665
cha	-11.4667
▁historians	-11.4668
▁disappear	-11.4669
▁patch	-11.4672
▁surrey	-11.4673
▁levied	-11.4677
gen	-11.4677
▁monarchy	-11.4678
▁praying	-11.4679
▁jacket	-11.4682
▁robes	-11.4682
▁cane	-11.4683
▁tended	-11.4683
▁preserving	-11.4686
▁crystal	-11.4689
▁hindustan	-11.4689
▁connecting	-11.4689
▁fauna	-11.469
▁gladly	-11.4693
ara	-11.4695
▁bitterly	-11.4695
▁behaviour	-11.4698
▁monopoly	-11.4698
▁wyoming	-11.4698
▁refined	-11.4699
▁fools	-11.47
▁parishes	-11.4702
▁reckoned	-11.4703
▁franz	-11.4703
▁histories	-11.4709
ric	-11.4711
▁plumage	-11.4712
▁coverage	-11.4712
▁legally	-11.4713
▁pamphlets	-11.4715
▁swallowed	-11.4715
▁homestead	-11.4715
▁flee	-11.4717
▁castes	-11.4717
tr	-11.4722
▁rot	-11.4724
▁penn	-11.4725
per	-11.4725
▁leaped	-11.4727
▁pencil	-11.4728
▁decoration	-11.4728
▁likeness	-11.4729
▁extracted	-11.473
▁flashed	-11.473
▁jurisprudence	-11.4736
▁pursuing	-11.4736
▁carpet	-11.4738
▁wifes	-11.4738
▁swords	-11.4739
▁encounter	-11.4745
▁haue	-11.4747
▁childs	-11.4748
▁stricken	-11.4749
▁awoke	-11.4749
▁permanently	-11.4751
▁inward	-11.4756
▁reject	-11.4757
▁exported	-11.4759
▁martha	-11.476
▁rub	-11.4764
▁contended	-11.4765
▁herald	-11.4767
▁reformed	-11.4767
▁roughly	-11.4773
▁photographs	-11.4774
▁petroleum	-11.4774
▁convert	-11.4777
▁madness	-11.4778
▁melted	-11.4778
▁proving	-11.4778
dy	-11.4782
▁youthful	-11.4785
▁hows	-11.4785
hill	-11.4787
▁lancaster	-11.4787
▁analogous	-11.4787
▁chimney	-11.479
▁expecting	-11.4793
▁solicitor	-11.4793
▁cured	-11.4795
▁crosses	-11.4802
▁mandate	-11.4803
▁froude	-11.4805
▁bald	-11.4805
▁jungle	-11.4805
▁weighed	-11.4805
▁gum	-11.4806
▁advocates	-11.4806
▁salem	-11.4809
▁compassion	-11.481
▁breathed	-11.4812
▁quot	-11.4814
▁shah	-11.4815
▁cake	-11.4817
▁coil	-11.4818
▁supplemental	-11.4818
ap	-11.4819
▁allusion	-11.482
▁laden	-11.4824
our	-11.4828
▁cope	-11.4829
▁sober	-11.4835
▁affectionate	-11.4835
ene	-11.4847
▁commence	-11.485
▁drainage	-11.4851
▁testified	-11.4851
▁diem	-11.4852
▁awe	-11.4853
▁twisted	-11.4853
▁devote	-11.4854
▁correspond	-11.4854
▁greet	-11.4856
cher	-11.4858
▁unfair	-11.4859
▁chart	-11.4862
▁concord	-11.4865
▁marys	-11.4875
▁tomorrow	-11.4876
▁eliot	-11.4878
▁bis	-11.4879
▁heath	-11.4881
▁spectacle	-11.4882
▁simultaneously	-11.489
▁dearest	-11.4897
▁renders	-11.49
▁issuing	-11.4902
▁flushed	-11.4905
▁terminated	-11.4907
▁insect	-11.4911
ih	-11.4911
▁trains	-11.4912
▁models	-11.4914
▁treating	-11.4914
▁expanded	-11.4918
nus	-11.4921
▁accurately	-11.4921
▁statues	-11.4922
▁nan	-11.4923
▁bohemian	-11.4925
▁bal	-11.4927
▁variant	-11.4934
▁withdrawal	-11.4934
▁token	-11.4936
▁marvellous	-11.4937
▁medicinal	-11.4941
▁conventions	-11.4942
▁didn	-11.4943
▁devised	-11.4944
▁requests	-11.4945
▁grandmother	-11.4946
▁crawford	-11.4953
▁librarian	-11.4953
▁aims	-11.4954
▁psychological	-11.4955
ari	-11.4955
▁indirectly	-11.4956
▁chancery	-11.4956
▁porch	-11.4956
▁jest	-11.4957
▁component	-11.4959
▁conservative	-11.4959
▁sway	-11.496
▁testing	-11.4961
▁centers	-11.4961
▁consumer	-11.4963
▁americas	-11.4964
ery	-11.4967
▁dent	-11.4967
▁exalted	-11.4968
ut	-11.4971
▁contented	-11.4971
▁associates	-11.4976
▁confident	-11.4976
▁charleston	-11.4977
▁situations	-11.4979
▁southwest	-11.498
▁tops	-11.498
▁replace	-11.498
▁empress	-11.498
▁destroying	-11.498
▁ally	-11.4981
▁eugene	-11.4981
▁superiority	-11.4981
▁stability	-11.4984
▁indication	-11.4985
▁insufficient	-11.4989
▁ode	-11.4993
▁makers	-11.4995
▁fewer	-11.4996
ei	-11.4999
▁independently	-11.5
▁boast	-11.5001
▁arrows	-11.5003
▁joys	-11.5003
▁melbourne	-11.5005
▁terrace	-11.5007
stone	-11.5007
ence	-11.501
▁characterized	-11.501
▁mouse	-11.5013
▁channels	-11.5015
▁inherent	-11.5015
tic	-11.502
▁varies	-11.5021
▁fare	-11.5022
▁presenting	-11.5023
▁argue	-11.5027
▁cares	-11.5029
▁autonomous	-11.5031
▁contemplation	-11.5031
▁stirring	-11.5032
▁vis	-11.5032
▁detained	-11.5034
▁allows	-11.5036
▁turner	-11.5037
ill	-11.5037
ique	-11.5038
▁chamberlain	-11.5039
gan	-11.5041
ily	-11.5043
▁tooth	-11.5043
▁coasts	-11.5043
▁entertain	-11.5043
▁hou	-11.5044
▁vie	-11.5044
▁residing	-11.5044
▁dreamed	-11.5045
▁hunters	-11.5046
▁psyche	-11.5046
▁bailey	-11.5048
▁archive	-11.505
▁periodical	-11.5052
▁barrier	-11.5052
▁encouraging	-11.5054
▁seals	-11.5056
▁supposition	-11.5064
▁importation	-11.5065
▁cecil	-11.5065
▁conclusive	-11.5067
▁victorious	-11.5067
▁forts	-11.5068
▁cavity	-11.5071
af	-11.5072
▁dove	-11.5072
▁complaints	-11.5074
ments	-11.5075
ds	-11.5076
▁fletcher	-11.5077
▁quotation	-11.5077
▁spoil	-11.5079
▁antiquities	-11.5084
▁define	-11.5086
▁finite	-11.5086
▁pip	-11.5087
▁presbyterian	-11.509
ex	-11.5092
▁owl	-11.5092
▁pm	-11.5095
▁courtesy	-11.5097
▁vtt	-11.51
▁variable	-11.5103
▁shu	-11.5107
▁wreck	-11.5109
▁sicily	-11.511
▁albany	-11.5111
▁fatigue	-11.5111
▁ble	-11.5112
bar	-11.5113
▁netherlands	-11.5114
iv	-11.5115
▁vincent	-11.5117
▁goose	-11.5117
▁shrine	-11.5117
can	-11.5119
▁calmly	-11.512
▁posted	-11.5122
▁gu	-11.5122
▁astronomy	-11.5123
▁birmingham	-11.5123
▁exciting	-11.5123
▁pierced	-11.5128
▁wires	-11.513
ira	-11.5131
uz	-11.5136
▁pockets	-11.5136
▁availability	-11.5136
▁rebel	-11.5137
▁terminate	-11.5138
▁easter	-11.5141
▁accepting	-11.5145
▁deserves	-11.5146
▁abolition	-11.5149
▁minerals	-11.5149
▁accessible	-11.515
osa	-11.5151
▁readiness	-11.5151
▁bass	-11.5151
▁popularity	-11.5154
▁canals	-11.5156
▁dave	-11.5157
▁perpendicular	-11.5159
▁cm	-11.516
▁sioux	-11.5163
▁magazines	-11.5164
▁hume	-11.5166
▁corrections	-11.5168
▁monkey	-11.5168
▁spy	-11.517
▁violently	-11.5173
▁cursed	-11.5174
▁tenants	-11.5175
▁ronald	-11.5176
▁sprung	-11.5176
▁pearls	-11.5179
▁reservoir	-11.5183
▁depression	-11.5183
▁sentenced	-11.5183
▁hawaii	-11.5184
▁transparent	-11.5189
▁vacancy	-11.5189
▁dividing	-11.5189
▁propriety	-11.5189
▁explains	-11.5189
▁stevens	-11.5195
▁ashore	-11.5198
▁prompt	-11.5198
▁fortnight	-11.5199
▁marion	-11.52
▁skies	-11.5203
▁neighbor	-11.5205
ces	-11.5205
▁betrayed	-11.5206
▁swell	-11.521
▁unwilling	-11.5211
lv	-11.5213
▁struggling	-11.5215
▁framed	-11.5217
▁cousins	-11.5217
▁faded	-11.522
▁dai	-11.522
▁deficit	-11.5223
▁gonzales	-11.5229
▁uncertainty	-11.5229
▁ware	-11.523
▁disturb	-11.5232
ui	-11.5235
▁corp	-11.5235
▁enjoying	-11.5237
▁pursuits	-11.5239
▁infer	-11.5242
▁dorothy	-11.5242
▁vigour	-11.5242
▁beam	-11.5244
house	-11.5244
▁forbid	-11.5252
▁lighter	-11.5254
▁fancied	-11.5255
▁resemble	-11.5257
head	-11.5259
▁skilled	-11.5259
▁nm	-11.5261
ably	-11.5263
▁stanza	-11.5264
▁winters	-11.5264
worth	-11.5267
▁expensive	-11.5269
▁montana	-11.5269
▁virtuous	-11.5269
▁worldly	-11.5271
▁cox	-11.5271
▁aboard	-11.5273
▁entertainment	-11.5276
▁schemes	-11.5277
▁eloquent	-11.5279
▁drum	-11.5279
▁temporarily	-11.5282
▁ambitious	-11.5282
▁frequency	-11.5282
▁pollution	-11.5282
iz	-11.5284
▁selfish	-11.5284
▁hoping	-11.5285
▁provisional	-11.5286
▁troop	-11.5287
▁highness	-11.5288
▁rider	-11.5288
▁consequent	-11.529
▁operator	-11.529
▁solemnly	-11.529
▁josie	-11.5291
▁tents	-11.5291
▁amusing	-11.5292
▁barely	-11.5294
▁dedication	-11.5295
▁offended	-11.5299
▁lifetime	-11.53
▁dc	-11.5303
▁migration	-11.5303
▁repetition	-11.5303
▁emerson	-11.5304
▁brooks	-11.5305
▁beautifully	-11.5306
▁ail	-11.5306
▁combinations	-11.5309
▁violating	-11.5309
▁extensively	-11.5309
▁heartily	-11.5312
▁nesting	-11.5314
▁therefrom	-11.5315
▁eminence	-11.5316
▁kirk	-11.5318
▁locks	-11.5318
▁pulling	-11.532
▁claimant	-11.532
▁baldwin	-11.5322
▁heed	-11.5323
▁counting	-11.5327
ag	-11.5327
▁ale	-11.5328
▁allotments	-11.5332
▁mammals	-11.5335
▁simpson	-11.5336
▁glimpse	-11.5338
▁revived	-11.5338
▁deserved	-11.5342
▁humor	-11.5345
▁oval	-11.5345
▁brig	-11.5346
▁ballads	-11.5347
▁searched	-11.5348
▁nee	-11.5349
▁mobile	-11.5349
▁detention	-11.535
▁lou	-11.535
▁tempted	-11.5352
ations	-11.5354
▁subsections	-11.5354
▁mystic	-11.5356
▁detective	-11.5357
▁regardless	-11.5357
▁correspondent	-11.5358
▁adverse	-11.5359
▁vault	-11.5362
▁contra	-11.5362
▁shoe	-11.5364
fo	-11.5364
▁alternate	-11.5368
▁sends	-11.5368
▁glowing	-11.5369
▁accidents	-11.537
▁fable	-11.5371
▁lighting	-11.5374
▁constantine	-11.5375
▁suicide	-11.5376
▁measuring	-11.5376
▁commentary	-11.5376
▁commune	-11.5378
▁rum	-11.5379
▁shaken	-11.5383
▁pastoral	-11.5384
▁echo	-11.5386
▁decade	-11.5386
▁aviation	-11.539
▁mall	-11.539
▁ome	-11.5397
▁dismiss	-11.5398
▁messages	-11.5398
▁finely	-11.5402
▁halted	-11.5409
▁foes	-11.5412
▁fork	-11.5412
▁memorandum	-11.5416
▁fidelity	-11.5417
▁feather	-11.542
▁ascending	-11.542
han	-11.5421
▁stove	-11.5424
▁praised	-11.5427
▁intervention	-11.543
▁enrolled	-11.5431
▁geneva	-11.5431
▁laborers	-11.5433
▁alluded	-11.5434
▁inscribed	-11.5437
▁od	-11.5437
▁sche	-11.544
▁decidedly	-11.5441
▁fleischer	-11.5444
▁weston	-11.5448
▁storms	-11.5448
▁lungs	-11.545
▁administer	-11.5457
▁manufacturers	-11.5458
▁appointments	-11.5461
▁idols	-11.5462
▁mg	-11.5464
▁pairs	-11.5464
▁dic	-11.5467
▁sauce	-11.5469
▁nails	-11.547
▁draws	-11.5471
lier	-11.5473
▁illustrate	-11.5475
▁camps	-11.5477
▁lateral	-11.5479
▁correction	-11.5482
▁swallow	-11.5485
▁assyrian	-11.5485
▁sails	-11.5489
▁modify	-11.5494
▁appearances	-11.5498
▁solar	-11.5498
▁donald	-11.5498
▁litigation	-11.5498
bot	-11.5499
▁patriarch	-11.5499
▁cornish	-11.55
▁concentrated	-11.55
▁bundle	-11.5502
▁disclosed	-11.5502
▁apples	-11.5505
ob	-11.5508
ward	-11.5516
▁finer	-11.5518
▁ditch	-11.5518
▁popes	-11.5518
▁conventional	-11.5519
▁inadequate	-11.5522
▁frankly	-11.5523
▁holders	-11.5525
▁exterior	-11.5526
▁superseded	-11.5527
▁reproduced	-11.5528
mans	-11.553
▁explaining	-11.5531
▁vest	-11.5532
▁coffin	-11.5534
cus	-11.5535
▁incredible	-11.5539
▁crazy	-11.5539
▁immigrants	-11.5543
▁ud	-11.5547
▁excite	-11.5548
▁disturbance	-11.5548
▁rec	-11.5548
▁tub	-11.5549
▁unsuccessful	-11.555
▁behavior	-11.5552
▁subdued	-11.5555
lon	-11.5555
▁stress	-11.5558
▁gaul	-11.5562
▁loudly	-11.5563
uit	-11.5563
▁beneficial	-11.5563
▁een	-11.5564
▁recognise	-11.557
▁canton	-11.5572
▁ame	-11.5574
▁abundantly	-11.5576
▁furious	-11.5577
▁hughes	-11.5579
▁wis	-11.5579
▁cage	-11.5581
▁champion	-11.5585
▁speculation	-11.5589
▁outbreak	-11.5594
▁henceforth	-11.5594
▁seeming	-11.5598
▁agrees	-11.5602
▁licence	-11.5604
▁traders	-11.5604
▁cigar	-11.5607
▁gandhi	-11.5607
▁exchequer	-11.5608
▁criteria	-11.5608
▁sind	-11.5612
▁murderer	-11.5613
▁poe	-11.5613
▁barrel	-11.5613
▁worry	-11.5617
▁courthouse	-11.5619
▁choir	-11.562
gh	-11.562
▁chronicles	-11.5621
▁sacrificed	-11.5623
▁terminal	-11.5624
▁trembled	-11.5626
▁attribute	-11.5626
▁projected	-11.5632
▁earls	-11.5633
▁array	-11.5633
▁reptiles	-11.5634
▁perry	-11.5634
▁nathaniel	-11.5636
▁freed	-11.5639
▁protested	-11.5644
▁steamers	-11.5646
▁patriotic	-11.5647
▁lecturer	-11.5647
▁yielding	-11.5649
▁offspring	-11.565
▁desiring	-11.565
▁forthwith	-11.565
▁disputed	-11.5651
▁stake	-11.5651
▁pagan	-11.5652
▁violated	-11.5654
▁brandy	-11.5654
▁idol	-11.5656
inus	-11.566
▁ren	-11.566
▁tending	-11.5661
▁tive	-11.5661
▁embassy	-11.5663
▁diamonds	-11.5667
▁heresy	-11.5669
▁renew	-11.5672
▁sierra	-11.5673
▁unpleasant	-11.5673
▁bits	-11.5675
▁murmur	-11.5675
▁julian	-11.5678
▁sensations	-11.5679
▁bags	-11.5687
▁chald	-11.5688
▁gabriel	-11.569
▁tyranny	-11.5691
▁liberties	-11.5691
▁linnean	-11.5691
▁anterior	-11.5691
▁electoral	-11.5694
▁peer	-11.5697
▁glacier	-11.5701
▁fra	-11.5701
▁earldom	-11.5702
▁jump	-11.5704
▁professed	-11.5705
▁supremacy	-11.5705
▁voluntarily	-11.5705
vo	-11.5707
▁manhood	-11.5709
▁materially	-11.5714
▁leap	-11.5719
▁analogy	-11.5719
▁amiable	-11.5719
▁programme	-11.5722
▁derby	-11.5724
▁centres	-11.5726
▁walla	-11.5728
▁egyptians	-11.5729
ings	-11.5729
▁wheeler	-11.5729
▁funny	-11.5733
▁kluge	-11.5734
▁honorary	-11.5734
▁recording	-11.5735
▁asiatic	-11.5737
▁opens	-11.5739
▁jam	-11.5739
▁unclean	-11.5739
▁thames	-11.574
▁allan	-11.5744
▁montreal	-11.5747
▁promising	-11.5747
▁accumulated	-11.5748
uf	-11.575
▁conjecture	-11.5752
▁concept	-11.5753
ean	-11.5753
▁cen	-11.5754
▁ag	-11.5757
▁annie	-11.5758
▁violations	-11.5759
▁demon	-11.576
▁freeman	-11.576
▁laura	-11.5763
▁tread	-11.5765
▁clearing	-11.5766
po	-11.5767
▁impatient	-11.5772
▁mouths	-11.5777
▁gould	-11.5778
chi	-11.5778
▁hearth	-11.5778
books	-11.578
war	-11.5782
▁tra	-11.5785
▁physics	-11.5785
▁julia	-11.5788
▁muscular	-11.5789
▁secretaries	-11.5789
hall	-11.5791
▁gloves	-11.5794
cc	-11.5796
▁footsteps	-11.5796
▁dialogue	-11.5799
▁lowered	-11.5801
▁merciful	-11.5801
▁tat	-11.5802
▁ordinarily	-11.5803
▁jolly	-11.5803
▁trent	-11.5804
▁tubes	-11.5805
▁soda	-11.5809
ran	-11.581
▁postmaster	-11.5814
▁fearing	-11.5818
▁animated	-11.5819
▁piano	-11.582
▁positively	-11.5826
▁whit	-11.5827
▁alterations	-11.5829
▁reminiscences	-11.583
▁sack	-11.5831
▁charlie	-11.5834
▁metallic	-11.5838
▁sweeping	-11.5838
▁exhibits	-11.584
▁hedge	-11.5841
▁reforms	-11.5843
▁network	-11.5843
▁statistical	-11.5845
▁hun	-11.5845
▁pillars	-11.5848
▁decent	-11.5849
gi	-11.5853
▁sadly	-11.5859
▁embodied	-11.5859
▁zoology	-11.586
▁austin	-11.586
end	-11.5862
▁attendants	-11.5863
▁inventor	-11.5868
▁hangs	-11.5868
▁classics	-11.587
iy	-11.5871
▁slew	-11.5877
▁successively	-11.588
▁jerry	-11.5888
▁resembles	-11.5894
▁dresses	-11.5894
▁ascent	-11.5896
lia	-11.5896
▁brains	-11.5897
▁computer	-11.5899
▁pier	-11.5901
▁apportionment	-11.5902
ett	-11.5903
▁cooked	-11.5907
▁stocks	-11.5908
▁ture	-11.5911
▁shift	-11.5911
▁franchise	-11.5913
▁deduction	-11.5913
▁attract	-11.5914
▁recollections	-11.5916
▁contemporaries	-11.5916
▁hereinafter	-11.5916
nia	-11.5916
▁oppressed	-11.5918
▁xl	-11.5924
▁motionless	-11.5926
▁forfeiture	-11.5927
▁dodge	-11.5929
▁attraction	-11.593
ice	-11.593
▁carriages	-11.593
▁ratified	-11.5931
▁expired	-11.5933
▁sem	-11.5939
▁earn	-11.5941
▁reimbursement	-11.5942
▁denying	-11.5944
ros	-11.5945
▁infancy	-11.5945
▁dar	-11.5945
▁buying	-11.5946
▁bottles	-11.5949
dale	-11.5951
▁isles	-11.5951
▁emand	-11.5952
▁substantive	-11.5956
je	-11.5957
▁connect	-11.5959
▁indicating	-11.5959
▁swimming	-11.5959
▁yonder	-11.596
▁catching	-11.596
▁deprive	-11.5965
▁colonists	-11.5965
▁organisation	-11.597
▁ticket	-11.5971
▁biblical	-11.5974
▁patriotism	-11.5974
▁pirates	-11.5976
▁contend	-11.5976
▁earnings	-11.5978
▁esther	-11.5978
▁hesitate	-11.598
▁desolate	-11.5982
▁savages	-11.5984
▁accidental	-11.5984
▁imaginary	-11.5988
▁regent	-11.599
▁ze	-11.599
▁johnny	-11.5991
▁insured	-11.5993
▁grades	-11.5994
▁wander	-11.5994
▁presume	-11.5997
▁lays	-11.5999
▁marching	-11.6001
▁vermont	-11.6002
▁letterpress	-11.6002
▁worshipped	-11.6002
▁peculiarities	-11.6003
▁hospitality	-11.6004
▁richly	-11.6005
▁tests	-11.6005
▁integral	-11.6014
▁attendant	-11.6014
▁git	-11.6015
▁imply	-11.6015
▁renaissance	-11.6016
▁humility	-11.6016
▁charities	-11.6017
▁temperate	-11.602
▁cuba	-11.6021
▁oon	-11.6021
▁expresses	-11.6023
▁balanced	-11.6025
▁omission	-11.6029
▁destitute	-11.6031
▁volcanic	-11.6031
▁hairs	-11.6031
▁reducing	-11.6031
▁robbed	-11.6032
▁deacon	-11.6036
▁drag	-11.6037
▁slate	-11.604
▁respond	-11.604
▁comprehend	-11.604
▁pall	-11.6042
▁elsie	-11.6043
▁pillar	-11.6045
▁delayed	-11.6045
▁hydrogen	-11.6046
▁pierce	-11.6049
▁racial	-11.6049
▁pirate	-11.605
▁libel	-11.6053
▁dioc	-11.6055
pr	-11.6056
ax	-11.6056
▁oppression	-11.6057
▁conqueror	-11.6057
▁hamlet	-11.6059
▁sincerity	-11.606
▁foliage	-11.606
▁ethel	-11.6063
ux	-11.6063
▁pitt	-11.6063
▁barley	-11.6064
▁shouting	-11.6066
▁pots	-11.6069
iness	-11.6073
▁multi	-11.6079
▁abide	-11.608
▁hearty	-11.608
fc	-11.6083
▁favoured	-11.6084
ese	-11.6086
▁feminine	-11.6089
▁licensed	-11.6089
▁horseback	-11.6089
ani	-11.6091
▁mistakes	-11.6091
▁lbs	-11.6092
▁ufe	-11.6095
▁shapes	-11.6095
▁stored	-11.6095
▁option	-11.6096
▁sweetness	-11.6097
ile	-11.6097
▁meals	-11.61
▁smiles	-11.6104
▁initiated	-11.6105
▁editing	-11.6105
▁attach	-11.6107
▁distances	-11.6108
car	-11.6109
yl	-11.6111
▁papa	-11.6111
▁calvin	-11.6115
▁dip	-11.6117
iana	-11.6118
▁southeast	-11.6118
▁feudal	-11.6119
▁rapidity	-11.6119
▁dashed	-11.6122
▁orbit	-11.6124
▁appreciated	-11.6124
▁rains	-11.6129
▁reproduction	-11.613
▁idaho	-11.6132
▁ordinances	-11.6139
▁mechanics	-11.6141
▁myth	-11.6142
▁sector	-11.6146
▁strategy	-11.6147
▁repentance	-11.6147
▁iran	-11.6148
▁hooch	-11.6153
▁tragic	-11.6154
▁rag	-11.6155
▁formally	-11.6163
▁hideous	-11.6165
▁assign	-11.6168
▁injurious	-11.6173
▁zarathustra	-11.6176
rus	-11.6181
ees	-11.6183
▁hanged	-11.6186
▁affidavit	-11.6188
▁orator	-11.619
▁internet	-11.6191
▁dome	-11.6191
▁partners	-11.6197
▁apollo	-11.62
▁fellowship	-11.6205
ability	-11.6205
▁dropping	-11.6206
▁hastings	-11.6206
▁rabbit	-11.6206
▁vt	-11.6207
▁thingis	-11.6207
▁levi	-11.6208
▁hannah	-11.6208
▁complexion	-11.6209
▁tenure	-11.6212
▁reviewed	-11.6214
▁sexes	-11.6217
▁schooner	-11.6218
▁bedroom	-11.6218
▁concluding	-11.622
▁pars	-11.6221
▁readings	-11.6224
▁admire	-11.6227
▁decrease	-11.6228
▁panic	-11.623
▁pilgrims	-11.6231
▁zealous	-11.6232
▁therewith	-11.6233
▁sports	-11.6234
▁vivekananda	-11.6234
▁achievements	-11.6235
▁berry	-11.6239
▁morton	-11.6239
▁statesmans	-11.6242
▁bus	-11.6243
▁notification	-11.6244
▁core	-11.6244
▁dirt	-11.6245
har	-11.6247
▁diligence	-11.6249
▁embracing	-11.6249
▁swore	-11.6249
▁robin	-11.6249
▁flowed	-11.625
out	-11.625
▁weighing	-11.6253
lan	-11.6254
▁jun	-11.6256
▁rim	-11.6256
▁chill	-11.6256
▁stamped	-11.6261
▁honors	-11.6263
▁longitude	-11.6264
▁flanders	-11.6264
▁surroundings	-11.6264
▁unnatural	-11.6264
▁backed	-11.6264
▁dash	-11.6267
▁amused	-11.6267
▁presumed	-11.6269
▁cycle	-11.6273
▁effectively	-11.6274
▁footing	-11.6276
▁tab	-11.6277
▁announcement	-11.6277
▁aids	-11.6278
▁multiplied	-11.6279
▁settling	-11.6279
▁plum	-11.628
▁judging	-11.628
▁welcomed	-11.6281
▁disgust	-11.6282
▁helena	-11.6282
▁exceeds	-11.6285
▁yacht	-11.6288
▁lyons	-11.6289
▁clauses	-11.629
▁obstacles	-11.6293
▁fre	-11.6297
tar	-11.6303
▁button	-11.6305
▁authentic	-11.6306
▁subscription	-11.6307
▁fossil	-11.6307
▁hobbema	-11.6308
▁eleanor	-11.6309
▁gn	-11.6309
▁insight	-11.631
▁beliefs	-11.631
▁spark	-11.6311
▁alphabet	-11.6311
▁kick	-11.6312
▁deals	-11.6317
▁entre	-11.6319
▁accorded	-11.6319
▁equation	-11.6321
▁competitive	-11.6322
▁ladder	-11.6323
▁multiple	-11.6325
▁natal	-11.6325
▁outcome	-11.6326
▁prints	-11.6327
▁protective	-11.6327
▁vale	-11.6331
ram	-11.6331
▁eft	-11.6332
▁anguish	-11.6334
▁instruct	-11.6334
▁anonymous	-11.6335
▁earthquake	-11.6336
▁ceylon	-11.6338
▁unseen	-11.6338
▁patronage	-11.6339
▁plantation	-11.6339
▁philippines	-11.634
▁detected	-11.6341
▁conceptions	-11.6341
▁favored	-11.6344
▁shepherds	-11.6345
▁canoes	-11.6345
▁wagons	-11.6346
▁uni	-11.6346
▁lifting	-11.6346
▁sap	-11.6348
▁ven	-11.635
▁tc	-11.6353
▁bibliographies	-11.6356
▁prohibit	-11.6357
▁peers	-11.6359
▁concert	-11.636
▁peaks	-11.636
▁fowl	-11.636
uk	-11.6364
ye	-11.6366
▁applause	-11.6368
▁posterity	-11.6368
▁alpine	-11.6368
like	-11.637
ale	-11.637
▁hum	-11.6371
▁assistants	-11.6372
▁wil	-11.6372
▁bending	-11.6373
▁lh	-11.6375
▁subpart	-11.6378
▁claiming	-11.638
▁techniques	-11.638
▁discourses	-11.6383
▁delhi	-11.6385
▁kd	-11.6387
ov	-11.6387
▁aye	-11.6388
▁plunder	-11.6388
▁flank	-11.6388
▁organize	-11.6391
▁lawfully	-11.6392
▁dickens	-11.6396
▁misdemeanor	-11.6396
▁rue	-11.6396
▁cement	-11.64
▁frenchman	-11.6401
▁pleas	-11.6407
▁collapse	-11.6407
▁shew	-11.6407
▁sofa	-11.6407
▁endured	-11.6409
eus	-11.6409
▁dignified	-11.6412
▁immunity	-11.6412
▁ges	-11.6413
▁owes	-11.6413
▁trousers	-11.6414
▁demonstrate	-11.6421
▁routes	-11.6424
▁metres	-11.6425
▁ibn	-11.6426
▁opposing	-11.6427
▁robbery	-11.6429
▁singh	-11.6433
▁strings	-11.6434
▁grasses	-11.6434
▁vent	-11.6435
▁excepted	-11.6437
▁tlie	-11.6438
uc	-11.6438
gn	-11.6439
▁rachel	-11.6443
▁frightful	-11.6443
▁ence	-11.6445
▁stamps	-11.6448
▁sally	-11.645
▁herds	-11.6453
pl	-11.6462
▁cod	-11.6462
▁refrain	-11.6464
▁bh	-11.6464
▁nn	-11.6469
ets	-11.647
▁tempest	-11.6472
▁malice	-11.6473
▁theyll	-11.6475
▁yen	-11.6477
wick	-11.6477
▁religions	-11.6478
tl	-11.6483
▁celebration	-11.6487
▁planets	-11.6487
▁homage	-11.6488
▁yoke	-11.6493
▁ancients	-11.6494
▁gravely	-11.6498
▁challenged	-11.6498
▁carr	-11.65
▁automobile	-11.6502
▁recognizing	-11.6502
▁trifling	-11.6503
▁expelled	-11.6503
▁harder	-11.6503
▁boss	-11.6505
▁sw	-11.6509
▁exceeded	-11.6509
▁conquer	-11.651
▁unequal	-11.6514
▁theologiae	-11.6518
▁spaces	-11.6519
▁longed	-11.6521
▁levites	-11.6525
▁cone	-11.6527
▁sara	-11.6528
▁shelf	-11.6532
▁allotted	-11.6533
▁reddish	-11.6533
▁automatically	-11.6533
▁emerged	-11.6535
▁pilate	-11.6535
▁barred	-11.6538
▁weigh	-11.6541
▁remind	-11.6543
cn	-11.6547
▁consolation	-11.6547
▁occupations	-11.6547
▁ezra	-11.6551
▁fain	-11.6552
▁heating	-11.6553
▁boot	-11.6555
▁imp	-11.6557
▁adults	-11.6558
▁peel	-11.6558
▁topic	-11.6558
▁costly	-11.6558
▁cicero	-11.6559
▁ambassadors	-11.656
▁trifle	-11.6561
ther	-11.6562
▁ru	-11.6563
▁dominant	-11.6563
▁derive	-11.6564
ions	-11.6566
rin	-11.6566
▁healing	-11.6567
▁furthermore	-11.6567
▁russians	-11.6568
▁despised	-11.6568
▁coats	-11.657
▁punch	-11.6573
▁printers	-11.6577
▁convictions	-11.6578
▁raymond	-11.6578
▁uniformity	-11.6579
▁awaiting	-11.6582
eh	-11.6584
tz	-11.6584
▁magnetic	-11.6585
▁resisted	-11.6587
▁java	-11.6588
dr	-11.6592
▁accommodation	-11.6593
▁arbitration	-11.6593
▁graphic	-11.6596
gr	-11.6598
▁doc	-11.66
▁pottery	-11.66
▁transported	-11.6601
▁vn	-11.6606
▁explanations	-11.6606
▁disagreeable	-11.6609
▁lame	-11.661
▁expectations	-11.661
▁hosts	-11.6611
sk	-11.6612
▁bom	-11.6613
▁vir	-11.6615
▁leonard	-11.6616
ges	-11.6617
▁lid	-11.6619
▁widows	-11.662
▁hostility	-11.6624
▁descendant	-11.6624
▁psalm	-11.6625
▁prague	-11.6625
▁afflicted	-11.6625
▁devon	-11.6625
▁lava	-11.6629
▁prejudices	-11.663
▁sued	-11.6636
▁luther	-11.6637
▁versions	-11.6637
▁quaint	-11.6638
▁auckland	-11.6639
▁sterling	-11.6639
▁babies	-11.6639
▁replacement	-11.664
▁mare	-11.664
▁withhold	-11.6641
▁proclamations	-11.6642
▁beams	-11.6643
▁prussian	-11.6644
▁mur	-11.6644
▁pence	-11.6651
▁rewarded	-11.6654
▁swiss	-11.6655
▁orderly	-11.6657
▁staying	-11.6657
▁shipped	-11.6657
▁warn	-11.6657
▁ov	-11.6659
▁bail	-11.6659
▁fortifications	-11.666
▁duel	-11.6662
▁salts	-11.6664
▁sympathetic	-11.667
▁confederation	-11.667
▁compulsory	-11.667
▁baggage	-11.667
▁advertisement	-11.667
▁stafford	-11.667
▁supplementary	-11.667
nan	-11.6671
▁waved	-11.6672
▁forfeited	-11.6673
▁morn	-11.6675
▁exertions	-11.6676
▁actor	-11.6676
▁suc	-11.6677
▁practise	-11.6681
ick	-11.6682
▁antioch	-11.6684
▁wan	-11.6684
▁portsmouth	-11.6685
ides	-11.6685
▁skirt	-11.6693
▁dishes	-11.6693
▁ambrose	-11.6701
▁omnibus	-11.6701
▁maturity	-11.6701
▁spotted	-11.6703
▁borrow	-11.6704
▁gains	-11.6705
▁shy	-11.6708
▁farming	-11.6709
▁actively	-11.6714
▁honesty	-11.6714
▁admits	-11.6715
▁underlying	-11.6716
▁burke	-11.6716
bus	-11.6718
▁fulfil	-11.6719
▁traversed	-11.672
▁rhode	-11.6722
ru	-11.6726
▁indefinite	-11.6727
▁possibilities	-11.6732
tio	-11.6734
▁vera	-11.6735
▁sed	-11.6742
▁depending	-11.6744
▁deceive	-11.6746
▁gambling	-11.6747
▁neighboring	-11.6752
▁testify	-11.6758
▁doom	-11.676
▁convince	-11.6761
▁representations	-11.6762
▁coordination	-11.6763
▁regulating	-11.6763
▁clifford	-11.6763
▁engraving	-11.6763
▁univ	-11.6763
▁dealers	-11.6763
▁lily	-11.6767
▁gerard	-11.6768
▁click	-11.6775
▁sample	-11.678
▁bulletin	-11.678
▁knot	-11.678
▁stately	-11.6782
▁epic	-11.6785
▁tha	-11.6785
▁arches	-11.6786
▁bases	-11.6786
▁bp	-11.6788
▁predecessors	-11.679
▁cigarette	-11.6794
▁tyrant	-11.6794
▁transformed	-11.6795
▁online	-11.6797
▁supplying	-11.6797
mont	-11.68
▁betray	-11.68
▁pushing	-11.68
▁ole	-11.68
▁arid	-11.6801
▁blossoms	-11.6803
▁pie	-11.6805
▁ascend	-11.6805
▁strive	-11.6806
▁pines	-11.6807
▁captives	-11.6808
▁await	-11.6809
▁uneasy	-11.6809
▁tendencies	-11.6809
▁compounds	-11.681
▁elbow	-11.681
▁earths	-11.6811
▁angelo	-11.6813
▁discussing	-11.6813
▁comprises	-11.6817
▁oaths	-11.6818
▁caves	-11.6818
▁objectives	-11.6819
▁oven	-11.6819
▁barbarous	-11.6821
▁mantle	-11.6822
▁scent	-11.6825
▁creative	-11.6825
▁canons	-11.6825
▁sylvia	-11.6826
▁dispersed	-11.6826
▁scanty	-11.6826
als	-11.6833
▁indications	-11.6833
▁components	-11.6833
▁erie	-11.6833
▁corresponds	-11.6834
▁whig	-11.6838
pi	-11.684
▁standpoint	-11.6841
▁lark	-11.6841
▁mules	-11.6842
▁thoughtful	-11.6844
▁confessions	-11.6844
▁parks	-11.6845
▁cortes	-11.6846
▁sharing	-11.6846
▁slay	-11.6848
▁plead	-11.6852
▁moscow	-11.6856
▁refutation	-11.6856
▁moisture	-11.6856
▁isabel	-11.6857
▁obstacle	-11.6857
▁lodging	-11.6857
▁indulgence	-11.6857
▁hats	-11.6857
▁marcus	-11.6858
▁contrived	-11.6858
▁nancy	-11.6859
▁founders	-11.6862
▁repeating	-11.6866
▁convict	-11.6867
▁amounting	-11.6867
▁johnston	-11.6871
▁afghanistan	-11.6871
▁heresies	-11.6872
▁mit	-11.6879
▁protestants	-11.6879
ada	-11.6882
▁handful	-11.6885
▁especial	-11.6885
▁retiring	-11.6887
▁elijah	-11.6887
▁curtis	-11.6889
▁fc	-11.689
▁wickedness	-11.689
▁swine	-11.6891
▁swim	-11.6891
▁lowell	-11.6891
▁patches	-11.6892
▁pulse	-11.6894
▁emthe	-11.6896
▁shire	-11.6896
▁sinners	-11.6897
▁miners	-11.6898
▁jesuit	-11.6898
▁wal	-11.6899
▁honored	-11.6903
▁acquiring	-11.6903
▁pouring	-11.6905
▁signifies	-11.6907
▁fantastic	-11.6908
▁phases	-11.6908
▁bargaining	-11.6909
▁stretching	-11.6909
▁parcels	-11.6912
▁skilful	-11.6916
▁taxed	-11.6916
▁temperament	-11.6917
▁appellate	-11.6919
▁jamaica	-11.6919
▁recourse	-11.6919
▁sunny	-11.6921
▁gaining	-11.6923
▁asserts	-11.6924
▁gleam	-11.6927
▁pose	-11.693
▁graduate	-11.693
▁jade	-11.6932
▁condemn	-11.6932
▁exercising	-11.6934
▁customers	-11.6935
▁rubbed	-11.6935
▁camera	-11.6936
▁confounded	-11.6936
▁harmless	-11.6944
▁disguise	-11.6946
▁posterior	-11.6947
▁reorganization	-11.695
▁detroit	-11.695
▁chess	-11.695
▁hartford	-11.6951
▁crag	-11.6952
▁reared	-11.6953
▁wrist	-11.6953
▁calld	-11.6953
▁dem	-11.6955
▁lump	-11.6959
▁orphan	-11.6959
▁faintly	-11.696
▁celebrate	-11.6962
▁domesday	-11.6966
▁harrington	-11.6967
▁contradiction	-11.6967
▁za	-11.6969
▁marketing	-11.6971
▁notably	-11.6975
▁denotes	-11.6977
▁intelligible	-11.6982
▁defiance	-11.6982
ida	-11.6983
gy	-11.6985
▁countless	-11.6985
▁founding	-11.6986
oe	-11.6989
▁qv	-11.6992
▁straits	-11.6994
▁benedict	-11.6996
▁processing	-11.6996
▁willow	-11.6996
▁amazement	-11.6998
▁persistent	-11.6999
▁pavement	-11.6999
▁wholesome	-11.6999
▁rh	-11.7001
▁realised	-11.7004
▁wholesale	-11.7005
▁ala	-11.7005
▁suspicious	-11.701
▁richardson	-11.7013
▁mutiny	-11.7013
▁distinctive	-11.7015
▁tem	-11.7016
▁meditation	-11.7017
▁clara	-11.7018
▁georges	-11.702
▁pigs	-11.702
▁hound	-11.7022
▁traveled	-11.7022
fu	-11.7028
▁godfrey	-11.703
▁virtually	-11.703
▁envoy	-11.7031
▁crowds	-11.7032
▁brute	-11.7036
ln	-11.7037
og	-11.7039
lu	-11.7042
▁hyde	-11.7042
▁lemon	-11.7043
▁treachery	-11.7045
▁excluding	-11.7045
▁musicians	-11.7048
▁parole	-11.7049
eo	-11.7051
▁halls	-11.7053
▁suspend	-11.7054
▁bin	-11.7055
▁jay	-11.7058
▁supports	-11.7058
las	-11.7059
▁commanders	-11.7059
▁financing	-11.7061
▁reliable	-11.7061
▁jobs	-11.7062
▁jud	-11.7062
▁underneath	-11.7062
▁creditor	-11.7063
▁macmillan	-11.7063
▁altitude	-11.7063
sville	-11.7065
▁faster	-11.7071
▁folds	-11.7071
▁birch	-11.7072
▁mould	-11.7072
▁assumes	-11.7073
▁abound	-11.7075
▁nominal	-11.7076
▁serv	-11.7077
▁cellpadding	-11.7077
▁transmit	-11.7079
▁lloyd	-11.7079
▁pulpit	-11.708
▁bitterness	-11.7081
▁swami	-11.7086
▁screw	-11.7087
eb	-11.7087
▁fibres	-11.7088
▁rifles	-11.7088
▁splendour	-11.7093
▁revolving	-11.7094
▁ballad	-11.7094
▁exaggerated	-11.7094
▁sandstone	-11.7096
▁nuts	-11.71
▁deepest	-11.7101
▁chs	-11.7104
uch	-11.7106
▁stockholders	-11.7108
▁carlyle	-11.7109
▁speculative	-11.7109
▁complied	-11.711
▁banished	-11.7111
▁draught	-11.7112
▁throws	-11.7112
▁purchasers	-11.7113
gl	-11.7115
▁prima	-11.7117
▁della	-11.7117
▁cellar	-11.7118
▁fla	-11.7121
▁cellspacing	-11.7125
▁diverse	-11.7127
▁telescope	-11.7129
ud	-11.7131
▁deposition	-11.7131
▁repre	-11.7133
oa	-11.7135
▁conceded	-11.714
▁precision	-11.7141
▁rochester	-11.7141
▁defective	-11.7144
▁celtic	-11.7144
▁grapes	-11.7146
▁offender	-11.7146
▁indebtedness	-11.7146
▁bite	-11.7147
mm	-11.7147
▁nave	-11.7147
▁yon	-11.7147
tre	-11.7148
▁grip	-11.715
▁endeavor	-11.7151
▁gases	-11.7153
▁nun	-11.7157
▁vatican	-11.7158
▁dusk	-11.7158
▁agitated	-11.7158
▁guessed	-11.7159
▁palaces	-11.7159
▁castles	-11.716
▁operative	-11.716
▁vernon	-11.716
▁poll	-11.7166
▁passive	-11.7167
ble	-11.7169
▁beggar	-11.717
▁pens	-11.7171
▁employing	-11.7172
▁issuance	-11.7174
▁fibrous	-11.7174
▁confinement	-11.7174
▁collision	-11.7176
▁ancestor	-11.7176
▁penetrated	-11.7178
▁rel	-11.7181
▁squire	-11.7182
▁targ	-11.7183
▁peacock	-11.7183
mu	-11.7183
▁shower	-11.7185
▁remembering	-11.7188
ip	-11.7188
▁ulysses	-11.719
▁archibald	-11.719
▁cups	-11.719
▁barber	-11.7191
▁cherished	-11.7192
▁buddhist	-11.7199
▁expand	-11.72
ano	-11.7201
▁legion	-11.7202
▁furnishes	-11.7202
▁stephens	-11.7202
▁pronounce	-11.7203
▁energetic	-11.7206
ras	-11.7208
▁tain	-11.7208
▁snakes	-11.7209
▁jose	-11.7211
▁alex	-11.7211
▁bout	-11.7214
▁fabric	-11.722
ub	-11.722
▁brutal	-11.722
▁elf	-11.7221
▁beauties	-11.7222
▁reagan	-11.7223
▁overlooked	-11.7225
▁louisville	-11.7225
▁expeditions	-11.7229
▁escort	-11.723
▁downward	-11.7232
tie	-11.7234
nie	-11.7234
gate	-11.7235
▁accent	-11.7238
▁puerto	-11.7238
▁constituting	-11.7238
▁clarence	-11.7238
▁immortality	-11.7239
▁psalms	-11.724
▁indirect	-11.7241
▁onward	-11.7242
ette	-11.7251
▁gilt	-11.7254
▁sanskrit	-11.7255
▁terribly	-11.7255
▁energies	-11.7255
▁pertaining	-11.7256
▁camels	-11.7256
▁tavern	-11.7257
▁incomplete	-11.7257
▁incense	-11.7258
mus	-11.7259
▁polite	-11.7263
▁scribners	-11.7264
▁cyrus	-11.7271
▁spectators	-11.7272
▁stead	-11.7273
▁invaded	-11.7273
▁ers	-11.7275
▁horrid	-11.7277
▁swamp	-11.7281
▁cuts	-11.7282
▁henderson	-11.7287
▁sanitary	-11.7287
▁jasper	-11.7288
▁tex	-11.7289
▁grandeur	-11.7289
▁munich	-11.7289
▁ville	-11.7293
▁rivals	-11.7294
▁curtains	-11.7297
▁anxiously	-11.7301
▁combine	-11.7302
▁talks	-11.7302
▁emerald	-11.7302
▁parte	-11.7302
▁strategic	-11.7302
▁bourgeois	-11.7302
▁rental	-11.7303
▁solve	-11.7305
▁chapman	-11.7305
▁orient	-11.7306
▁civic	-11.7308
▁ln	-11.7308
▁barons	-11.7309
▁stealing	-11.7311
▁rect	-11.7312
▁alias	-11.7317
su	-11.7319
▁northumberland	-11.732
els	-11.7321
▁vile	-11.7323
▁webb	-11.7325
▁sweat	-11.7326
▁rejoiced	-11.7329
▁elector	-11.7331
▁gem	-11.7332
▁balances	-11.7332
▁threads	-11.7335
▁indemnity	-11.7336
▁inevitably	-11.7336
▁nucleus	-11.7336
▁delicacy	-11.7336
▁devonshire	-11.7336
▁heretics	-11.7337
▁hebrews	-11.7337
▁demons	-11.7338
▁maintains	-11.7339
▁educator	-11.734
▁complainant	-11.734
▁bud	-11.7341
idae	-11.7343
▁lev	-11.7344
▁roaring	-11.7344
▁nomination	-11.7345
hy	-11.7345
▁bunch	-11.7349
▁sorrows	-11.7349
▁superficial	-11.735
▁ivan	-11.735
▁sheer	-11.7351
▁knox	-11.7353
▁pomp	-11.7353
▁reserves	-11.7355
▁timid	-11.7356
▁crooked	-11.7359
ila	-11.7361
▁depot	-11.7361
▁criminals	-11.7368
▁resume	-11.7368
▁defensive	-11.7369
▁petitions	-11.737
▁damned	-11.7374
ban	-11.7379
▁cairn	-11.7383
▁advertising	-11.7386
▁utilities	-11.7386
▁stripped	-11.7386
▁thanked	-11.7387
▁bullet	-11.7392
▁mature	-11.7392
▁precedent	-11.7392
▁oral	-11.7393
▁damn	-11.7396
hm	-11.7401
▁urging	-11.7403
side	-11.7403
▁woke	-11.7409
rv	-11.741
▁impress	-11.7412
▁vices	-11.7414
▁dislike	-11.7418
▁birthday	-11.7419
▁civilisation	-11.742
▁kneeling	-11.7421
▁groves	-11.7429
▁regime	-11.743
▁weights	-11.7433
▁piracy	-11.7435
▁banquet	-11.7436
▁ladys	-11.7437
▁tough	-11.7439
▁disclosure	-11.7439
▁exit	-11.744
▁rr	-11.7441
▁differently	-11.7444
▁poly	-11.7445
ator	-11.745
▁touches	-11.7451
▁eligibility	-11.7452
▁upstairs	-11.7452
▁jewel	-11.7452
▁violate	-11.7453
▁computed	-11.7453
▁bondage	-11.7453
ker	-11.7455
▁opponent	-11.7456
▁examinations	-11.7456
▁belle	-11.7459
▁arabian	-11.7459
unt	-11.7463
▁retaining	-11.7464
▁surveyed	-11.7464
▁resign	-11.7465
▁ig	-11.7465
▁struggled	-11.7467
▁observatory	-11.7468
▁northeast	-11.7469
▁framework	-11.7469
▁apology	-11.7469
▁waving	-11.747
▁allotment	-11.7472
▁sim	-11.7476
▁ation	-11.7477
▁grasped	-11.7477
▁literal	-11.7478
ona	-11.7481
nconstitutional	-11.7482
▁prov	-11.7482
▁poisoning	-11.7482
▁islam	-11.7484
ren	-11.7485
▁warden	-11.7485
▁astronomical	-11.7486
▁huang	-11.7486
▁dreaming	-11.7487
▁respectfully	-11.7488
▁clung	-11.7488
▁inquisition	-11.7489
▁predecessor	-11.7489
▁constituents	-11.7493
▁recollect	-11.7493
▁pos	-11.7494
ok	-11.7497
▁dukes	-11.7499
▁johann	-11.7499
▁walt	-11.75
▁survive	-11.7502
▁felony	-11.7503
▁anatomical	-11.7503
▁atlas	-11.7505
▁fraction	-11.7505
▁bona	-11.7506
▁surgeons	-11.7511
▁tries	-11.7512
▁polly	-11.7512
▁ropes	-11.7515
▁aw	-11.7516
▁massacre	-11.7518
▁actors	-11.7518
▁automatic	-11.7518
▁presumably	-11.7518
▁reclamation	-11.7519
▁impeachment	-11.7519
▁youths	-11.7521
▁philips	-11.7526
▁tal	-11.7527
▁barracks	-11.7529
hl	-11.7532
▁benevolent	-11.7535
▁memorable	-11.7535
▁uch	-11.7538
istic	-11.754
▁marquess	-11.7541
▁chat	-11.7542
▁tv	-11.7545
▁unusually	-11.7545
len	-11.7546
▁jointly	-11.7548
▁dairy	-11.7548
▁confidential	-11.7549
iti	-11.7551
▁carroll	-11.7552
lay	-11.7552
▁cakes	-11.7553
▁debates	-11.7558
▁quo	-11.756
▁ces	-11.7565
▁banner	-11.7566
▁categories	-11.7569
▁buckingham	-11.7569
▁woven	-11.757
non	-11.7571
▁gill	-11.7572
▁mule	-11.7572
lg	-11.758
zi	-11.7582
▁affirmative	-11.7583
▁gerald	-11.7583
▁middlesex	-11.7585
▁cherry	-11.7586
▁bidding	-11.7586
▁illuminated	-11.7586
▁assisting	-11.7587
▁organism	-11.7592
▁heel	-11.7594
gs	-11.7594
▁projecting	-11.7597
▁picking	-11.7598
▁clan	-11.7598
▁physiological	-11.7599
ensis	-11.7601
▁martyrdom	-11.7602
▁chri	-11.7606
▁wonderfully	-11.7607
▁pari	-11.7612
▁swing	-11.7612
▁zo	-11.7612
▁fleming	-11.7616
▁triumphant	-11.7617
▁graces	-11.7617
▁newport	-11.7618
▁maad	-11.7618
▁google	-11.7619
▁engaging	-11.7619
▁nathan	-11.762
▁ingredients	-11.762
▁embarked	-11.7621
▁danced	-11.7622
▁exerted	-11.7622
▁dh	-11.7624
▁moist	-11.7624
▁imposition	-11.7624
▁crack	-11.7624
▁upset	-11.7627
▁neer	-11.7632
▁chronological	-11.7633
iis	-11.7641
▁frigate	-11.7641
▁tolstoy	-11.7641
▁ounces	-11.7644
▁mint	-11.765
jo	-11.7656
bert	-11.7657
▁melting	-11.7657
▁indulge	-11.7661
▁aryan	-11.7662
▁waa	-11.7662
▁inferred	-11.7664
▁physically	-11.7665
▁candles	-11.7665
dt	-11.7666
▁statesmen	-11.7667
sel	-11.7667
▁generosity	-11.767
low	-11.7672
▁teaches	-11.7675
▁gin	-11.768
▁spelling	-11.7682
ev	-11.7684
▁antwerp	-11.7687
▁impatience	-11.7687
▁lancashire	-11.7687
▁sow	-11.7688
▁elapsed	-11.7688
mas	-11.7688
▁registers	-11.7689
▁ribbon	-11.7692
▁ses	-11.7695
▁awkward	-11.77
▁muse	-11.7701
▁indigenous	-11.7704
▁advisable	-11.7704
▁coral	-11.7705
▁waking	-11.7706
▁robertson	-11.7706
▁pilgrim	-11.7708
▁conflicts	-11.7708
▁prisons	-11.771
mt	-11.771
▁alert	-11.7714
▁dial	-11.7718
▁anno	-11.7719
▁despise	-11.7721
▁emancipation	-11.7721
▁regulatory	-11.7721
▁distilled	-11.7721
ena	-11.7722
▁xxx	-11.7723
▁fills	-11.7726
▁arent	-11.7726
▁floated	-11.7727
▁sb	-11.7729
▁matric	-11.7733
▁naturalist	-11.7735
▁roosevelt	-11.7738
▁routine	-11.7738
▁lionel	-11.7739
▁denote	-11.7739
▁goals	-11.7741
▁corridor	-11.7743
▁explosion	-11.7743
▁davies	-11.7744
▁handbook	-11.7745
▁bluff	-11.7746
▁outset	-11.7747
▁tastes	-11.7749
▁hereford	-11.7751
▁trench	-11.7751
gd	-11.7752
▁mortar	-11.7753
▁schurz	-11.7755
▁cairo	-11.7755
▁scandal	-11.7755
▁tel	-11.7756
▁holt	-11.7757
▁haunted	-11.7758
▁canning	-11.7758
▁bankrupt	-11.776
▁skeleton	-11.776
▁inventions	-11.7761
▁transfers	-11.7762
▁brunswick	-11.7772
▁insignificant	-11.7772
▁introducing	-11.7773
▁endowment	-11.7778
▁mentally	-11.7779
▁bard	-11.7779
▁sr	-11.778
rm	-11.7781
▁ami	-11.7782
▁poisons	-11.7787
▁confine	-11.7789
▁adversary	-11.7789
▁bridegroom	-11.7789
ito	-11.779
▁thrice	-11.7791
oo	-11.7791
iden	-11.7792
▁hor	-11.7792
▁sequence	-11.7795
▁cradle	-11.7795
ied	-11.7795
▁postage	-11.7799
▁calf	-11.7799
▁injure	-11.7802
▁differing	-11.7803
▁monstrous	-11.7803
▁wooded	-11.7804
gis	-11.7805
tas	-11.781
▁velde	-11.7811
▁cheerfully	-11.7812
▁amateur	-11.7813
▁rewards	-11.7815
mn	-11.7816
▁broader	-11.7818
▁blanket	-11.7819
▁ducks	-11.7821
▁xv	-11.7823
▁aboriginal	-11.7824
▁tidings	-11.7824
▁insure	-11.7824
▁rugged	-11.7824
▁municipality	-11.7825
▁englishmen	-11.7825
▁awaited	-11.7829
▁girdle	-11.7838
▁wolves	-11.7841
▁prospects	-11.7842
▁paste	-11.7843
▁dispositions	-11.7844
lic	-11.7844
oi	-11.7844
▁comic	-11.7845
▁pilgrimage	-11.7847
▁dye	-11.7848
▁multiply	-11.7854
▁billy	-11.7855
▁labourers	-11.7857
▁ingenuity	-11.7858
▁melody	-11.7858
▁juda	-11.7861
law	-11.7864
▁climbing	-11.7865
▁quotes	-11.7865
bridge	-11.787
▁pioneers	-11.7871
▁lodged	-11.7871
▁gall	-11.7872
dan	-11.7873
▁worms	-11.7875
▁commencing	-11.7876
▁thieves	-11.7876
▁appended	-11.7877
▁gasped	-11.7878
▁creeping	-11.7879
▁dwellings	-11.788
▁ignored	-11.7881
▁pell	-11.7881
▁sculptor	-11.7882
▁rents	-11.7885
▁liquors	-11.7886
▁unemployment	-11.7893
ama	-11.7895
▁huts	-11.7896
▁participant	-11.7898
▁eton	-11.79
▁turf	-11.79
▁proprietors	-11.7901
▁wor	-11.7901
▁prob	-11.7903
▁lucas	-11.7903
▁giles	-11.7903
▁ret	-11.7905
▁backs	-11.7906
▁abuses	-11.7907
▁grandet	-11.7908
▁strained	-11.7908
▁encamped	-11.7911
▁physic	-11.7913
▁drunken	-11.7914
▁ribs	-11.7915
▁gh	-11.7916
▁una	-11.7917
▁consumers	-11.7918
▁null	-11.792
▁fry	-11.7921
▁organisms	-11.7923
▁rea	-11.7926
wn	-11.7927
▁ordering	-11.7929
▁blanc	-11.7929
▁interpret	-11.7934
▁episode	-11.7934
▁apartments	-11.7934
▁transformation	-11.7935
▁simplest	-11.7935
▁singularly	-11.7939
▁surveyor	-11.7943
▁scrap	-11.7943
▁anew	-11.7945
▁viceroy	-11.7946
▁imitate	-11.7947
▁lar	-11.7949
▁bricks	-11.7953
▁maxim	-11.7957
▁pleading	-11.7959
▁jaws	-11.7961
▁eminently	-11.7961
▁deter	-11.7963
▁submerged	-11.7963
▁kettle	-11.7964
▁tossed	-11.7965
▁jules	-11.7968
▁ridges	-11.7969
▁detachment	-11.7969
ane	-11.7973
▁crane	-11.7976
▁salute	-11.7977
oni	-11.798
▁thirtieth	-11.798
▁healed	-11.7984
▁fishery	-11.7986
▁strait	-11.7988
▁gra	-11.799
▁subchapter	-11.7998
▁holiness	-11.7998
▁elephants	-11.8
▁projection	-11.8008
▁feveral	-11.801
▁helps	-11.8013
▁auditor	-11.8015
▁matches	-11.8015
▁dependence	-11.8015
▁besieged	-11.8016
▁operational	-11.8016
▁converse	-11.8017
▁monroe	-11.8018
▁yields	-11.8018
▁ple	-11.8019
▁hip	-11.8021
▁comrade	-11.8022
▁measurement	-11.8026
▁thorn	-11.8031
▁hostilities	-11.8033
▁radiant	-11.8033
▁permitting	-11.8034
▁perkins	-11.8035
▁clasped	-11.8035
▁calculation	-11.804
▁hasty	-11.8042
▁managers	-11.8042
ines	-11.8043
▁eg	-11.8043
▁syrian	-11.8047
▁global	-11.805
▁peking	-11.8052
▁meek	-11.8052
▁ml	-11.8054
▁hubert	-11.8055
▁ghosts	-11.8056
▁falsehood	-11.8057
▁fait	-11.8059
▁profile	-11.806
▁ok	-11.8063
▁elderly	-11.8064
▁extravagant	-11.8065
▁legions	-11.8065
ology	-11.8066
eu	-11.8067
▁swedish	-11.8068
sis	-11.8069
▁confronted	-11.8069
▁lawn	-11.8074
▁sinner	-11.8078
ich	-11.8079
▁shields	-11.808
▁trumpet	-11.808
▁delta	-11.8081
▁sha	-11.8083
▁pump	-11.8086
▁yahweh	-11.8086
▁thanksgiving	-11.8086
▁admitting	-11.8087
▁notify	-11.8088
▁challenges	-11.8092
ym	-11.8094
▁shelley	-11.8094
▁drummond	-11.8098
▁jug	-11.81
▁fon	-11.8101
▁blossom	-11.8102
aj	-11.8102
▁jesuits	-11.8102
▁improbable	-11.8103
▁architectural	-11.8103
▁stature	-11.8105
dis	-11.8106
vis	-11.8108
▁campaigns	-11.8108
▁membrane	-11.811
▁tricks	-11.8113
▁robbers	-11.8114
▁economics	-11.8117
▁repent	-11.8119
▁introductory	-11.8121
▁atonement	-11.8121
▁trespass	-11.8123
▁ij	-11.8123
▁haired	-11.8124
▁edifice	-11.8128
▁sleeve	-11.8128
▁signals	-11.813
▁bigger	-11.813
▁client	-11.8131
▁cfr	-11.8133
▁attacking	-11.8134
▁mai	-11.8135
▁theoretical	-11.8136
▁defending	-11.8136
▁augusta	-11.8138
▁mediaeval	-11.8139
▁pronunciation	-11.8139
▁maj	-11.8141
▁truck	-11.8142
▁distrust	-11.8142
▁cunt	-11.8144
▁chariot	-11.8146
▁nail	-11.8146
▁dal	-11.8147
▁manly	-11.8147
▁chapels	-11.815
iii	-11.8153
▁disastrous	-11.8153
▁josiah	-11.8157
▁presided	-11.8159
▁sincerely	-11.8162
▁patterns	-11.8164
ico	-11.8166
▁gl	-11.8173
▁hazardous	-11.8175
▁announce	-11.8176
▁deliverance	-11.8176
▁comprised	-11.8178
▁childish	-11.8179
▁tame	-11.8181
▁teachings	-11.8182
▁drain	-11.8185
▁tremble	-11.8187
▁pursuance	-11.8192
▁dreary	-11.8193
▁policeman	-11.8194
▁vase	-11.8194
▁pic	-11.8195
▁intentionally	-11.8195
▁audit	-11.8196
iya	-11.8198
▁spider	-11.82
ute	-11.8202
▁adopting	-11.8205
sey	-11.8205
▁decreed	-11.8207
bt	-11.8209
▁disregard	-11.8209
▁uns	-11.821
▁admirably	-11.821
▁genesis	-11.821
▁damaged	-11.8212
hu	-11.8214
▁timely	-11.8214
▁packing	-11.8214
▁diminish	-11.8216
▁hush	-11.822
▁rapids	-11.8221
▁spirited	-11.8225
▁berkeley	-11.8228
▁evolved	-11.8229
▁persisted	-11.823
▁expose	-11.8231
▁despatched	-11.8231
▁dover	-11.8235
▁restrained	-11.8235
▁ritual	-11.8236
▁woollen	-11.8236
▁utterance	-11.8236
▁risks	-11.8237
▁wisely	-11.8238
uv	-11.824
rc	-11.8246
▁prevalent	-11.8246
▁revival	-11.8246
▁engagements	-11.8247
▁launch	-11.8252
▁saunders	-11.8252
▁vigorously	-11.8254
▁accusation	-11.8254
▁qualification	-11.8254
dar	-11.8254
▁posed	-11.8258
▁rotten	-11.8264
▁flax	-11.8265
atum	-11.8266
▁plantations	-11.8267
▁yell	-11.8268
▁suppress	-11.827
nce	-11.827
▁vigor	-11.827
▁boarding	-11.8274
▁overhead	-11.8277
▁mock	-11.8277
▁wits	-11.8277
▁eden	-11.8279
▁amazing	-11.8279
▁advent	-11.828
▁choosing	-11.8282
▁naturalization	-11.8286
▁prosecuted	-11.8286
▁practiced	-11.8288
▁loc	-11.8291
nor	-11.8292
▁waiver	-11.8292
▁wordsworth	-11.8295
atis	-11.83
oh	-11.8304
▁authorship	-11.8304
▁chancel	-11.8304
▁commandments	-11.8306
ef	-11.8307
▁fright	-11.8308
▁wretch	-11.831
cho	-11.8311
▁appliances	-11.8311
ative	-11.8311
▁armor	-11.8313
▁insurrection	-11.8314
wi	-11.8314
▁tap	-11.8315
▁hol	-11.8316
▁bust	-11.8317
▁presiding	-11.8318
▁radius	-11.8319
▁ragged	-11.832
▁worthless	-11.8322
▁logs	-11.8323
▁voyages	-11.8326
▁valuation	-11.8326
▁hungarian	-11.8327
▁penance	-11.8327
▁texture	-11.8329
iah	-11.833
▁qua	-11.8333
hr	-11.8334
▁necessities	-11.8336
▁spinning	-11.8336
▁mirth	-11.8336
▁thankful	-11.8336
▁radiation	-11.8337
▁anon	-11.8338
▁diego	-11.834
▁greeted	-11.8342
▁etats	-11.8345
▁strengthening	-11.8345
▁revolver	-11.8345
▁leslie	-11.8346
▁roofs	-11.8347
▁sheltered	-11.8348
▁currently	-11.8349
▁downwards	-11.8352
▁cask	-11.8353
▁glancing	-11.8354
▁reliance	-11.8355
▁underground	-11.8356
▁promulgated	-11.8357
▁rejoicing	-11.8363
▁rectory	-11.8365
fr	-11.8366
▁israelites	-11.8368
▁files	-11.8371
▁athenians	-11.8373
▁joints	-11.8373
▁stationery	-11.8374
▁unc	-11.8375
▁warmly	-11.8377
▁bestow	-11.8378
▁herbs	-11.8378
ster	-11.8378
▁writs	-11.8378
▁guatemala	-11.8379
▁rm	-11.8382
▁disclose	-11.8382
▁happening	-11.8384
▁struggles	-11.8384
▁lapse	-11.8385
▁aught	-11.8387
▁convicts	-11.839
▁beneficiary	-11.8391
▁victories	-11.8392
▁clearness	-11.8392
▁wh	-11.8395
▁warlike	-11.8396
▁mir	-11.84
▁gran	-11.84
▁effectiveness	-11.84
▁misfortunes	-11.8403
▁mast	-11.8405
▁morbid	-11.8409
▁novelty	-11.841
▁crust	-11.8411
▁helm	-11.8411
▁effectually	-11.8412
▁jacques	-11.8414
▁outlines	-11.8417
▁regis	-11.8418
▁politicians	-11.8418
ili	-11.842
▁dine	-11.8423
▁mw	-11.8427
▁equator	-11.8427
▁unlimited	-11.8427
▁centennial	-11.8427
▁vinegar	-11.8428
▁trails	-11.8428
▁verily	-11.8428
▁torch	-11.843
fs	-11.8431
▁bennett	-11.8434
▁ely	-11.8434
▁reid	-11.8435
▁morrison	-11.8435
▁cavalier	-11.8436
▁anecdotes	-11.8439
▁nova	-11.8445
▁macdonald	-11.8446
▁superstitious	-11.8446
▁spacious	-11.8446
▁calamity	-11.8446
▁deciding	-11.8446
▁amazed	-11.8447
▁refund	-11.8447
▁prizes	-11.8447
▁hints	-11.8448
▁appletons	-11.845
▁ming	-11.845
▁hazard	-11.845
▁zero	-11.8453
▁concession	-11.8455
▁constitutions	-11.8456
▁maids	-11.8458
▁quartz	-11.8458
▁reckless	-11.846
pen	-11.8461
ret	-11.8463
▁striving	-11.8464
▁ax	-11.8465
▁rosy	-11.8469
▁stair	-11.8469
▁subjective	-11.847
▁swelling	-11.8472
▁sects	-11.8476
▁mut	-11.8479
sto	-11.848
▁boiler	-11.8481
borough	-11.8483
▁barton	-11.8484
▁glittering	-11.8484
▁chant	-11.8484
ars	-11.8486
▁stockings	-11.8487
▁shifting	-11.8488
▁whistle	-11.8489
▁pitched	-11.8491
▁politician	-11.8492
▁syllable	-11.8493
▁barriers	-11.8493
oth	-11.8494
▁groom	-11.8495
▁unpublished	-11.8501
▁palms	-11.8502
▁comte	-11.8504
▁shal	-11.8509
▁discern	-11.8509
▁hop	-11.8509
▁solved	-11.851
▁tur	-11.851
▁rex	-11.8511
ace	-11.8511
dom	-11.8511
▁iraq	-11.8512
▁fits	-11.8518
▁nitrogen	-11.8519
▁pembroke	-11.8519
▁density	-11.8519
▁mann	-11.8523
▁shouldnt	-11.8523
▁controls	-11.8524
▁conrad	-11.8524
▁apparel	-11.8525
▁cordial	-11.8526
▁installation	-11.8529
▁serial	-11.8529
▁chicken	-11.8529
▁outfit	-11.8532
▁tang	-11.8534
▁honestly	-11.8535
tan	-11.8537
▁humanitarian	-11.8538
▁folklore	-11.8538
▁workman	-11.8538
▁brighter	-11.8542
▁seemingly	-11.8542
▁burgh	-11.8544
▁offenses	-11.8545
▁sounding	-11.8545
▁bladder	-11.8548
▁vil	-11.8551
▁instincts	-11.8553
▁overwhelming	-11.8554
▁indexes	-11.8554
▁compelling	-11.8557
sc	-11.8558
▁watts	-11.8561
ates	-11.8563
▁ceases	-11.8564
▁disappearance	-11.8566
▁accomplishment	-11.8567
▁tested	-11.8568
▁samples	-11.8574
▁madagascar	-11.8575
▁circumference	-11.8575
▁superfluous	-11.8575
▁knives	-11.8575
▁repairing	-11.8578
▁ard	-11.8579
nc	-11.8584
▁acknowledgment	-11.8585
▁ratification	-11.8585
▁tunnel	-11.8585
▁moy	-11.8586
▁blankets	-11.8588
▁richer	-11.8589
▁jurist	-11.8592
▁amending	-11.8593
▁contributing	-11.8593
▁norton	-11.8595
▁patented	-11.8597
bs	-11.8598
▁bows	-11.8603
▁rescued	-11.8603
▁constituent	-11.8604
▁ounce	-11.8605
▁dad	-11.8608
▁fet	-11.8609
lar	-11.861
▁glare	-11.861
▁temperance	-11.8613
▁medi	-11.8616
▁launched	-11.8617
▁swinging	-11.8617
▁motto	-11.8617
uri	-11.8618
▁prevails	-11.8618
▁dei	-11.8625
▁clearer	-11.8627
▁fraudulent	-11.8628
▁germ	-11.8629
lands	-11.8629
▁layers	-11.863
▁adelaide	-11.8631
▁adjutant	-11.8631
▁sovereigns	-11.8632
▁ensued	-11.8633
▁evenings	-11.8634
▁afar	-11.8635
▁xiii	-11.8636
▁gems	-11.8636
▁protector	-11.8639
▁interpreter	-11.8643
▁tout	-11.8643
tel	-11.8644
▁obedient	-11.8646
▁bel	-11.8648
▁influential	-11.8649
▁sundry	-11.865
▁comparing	-11.865
▁backwards	-11.865
▁resentment	-11.865
▁retorted	-11.8651
▁treats	-11.8652
▁tate	-11.8654
▁gm	-11.8657
ml	-11.8658
atio	-11.8661
▁participants	-11.8662
▁pri	-11.8664
▁sl	-11.8668
▁completing	-11.8669
▁charging	-11.8669
▁smiths	-11.8672
▁stain	-11.8673
▁burg	-11.8677
iers	-11.8678
▁ceremonial	-11.8678
illa	-11.8681
▁marvel	-11.8681
▁muscle	-11.8682
▁vases	-11.8682
▁shrill	-11.8687
▁auxiliary	-11.8687
▁rebuilt	-11.8687
▁nursing	-11.8687
▁extinguished	-11.8689
▁delights	-11.8689
gu	-11.8691
▁hn	-11.8692
▁angeles	-11.8692
▁compliment	-11.8693
▁modesty	-11.8693
▁praises	-11.8693
▁allegations	-11.8694
▁intimately	-11.8696
▁ringing	-11.8696
▁satire	-11.8699
▁copying	-11.8704
▁rash	-11.8704
▁infrastructure	-11.8706
▁poultry	-11.8706
▁greene	-11.8706
▁generated	-11.8709
▁hoet	-11.8711
▁mycenae	-11.8711
▁institutes	-11.8718
▁plentiful	-11.8721
prophets	-11.8724
▁abnormal	-11.8724
▁brows	-11.8725
▁keith	-11.8725
▁abbe	-11.8725
▁tramp	-11.8727
▁treatises	-11.873
▁salutation	-11.873
▁contributor	-11.8732
▁botanical	-11.8736
▁trunks	-11.8737
▁improper	-11.874
▁coastal	-11.8741
▁surveillance	-11.8743
▁consecration	-11.8743
▁monogram	-11.8743
▁trades	-11.8744
▁rubbing	-11.8744
▁vainly	-11.8747
nr	-11.8751
▁leases	-11.8752
▁diana	-11.8752
▁assemble	-11.8755
▁crowns	-11.8755
▁evidences	-11.8758
▁unbroken	-11.8762
▁widespread	-11.8762
▁monasteries	-11.8762
▁womb	-11.8764
▁ner	-11.8765
▁vicars	-11.8765
▁charters	-11.8766
▁wines	-11.8766
▁lees	-11.8768
▁aws	-11.8769
▁mel	-11.8772
▁selective	-11.8774
aire	-11.8774
▁commandant	-11.8778
▁betty	-11.878
▁tedious	-11.8781
▁bounty	-11.8781
▁masonry	-11.8782
▁baltic	-11.8783
▁remanded	-11.8784
▁enhance	-11.8784
▁barbarians	-11.8784
▁parsons	-11.8785
▁nas	-11.8786
▁duplicate	-11.8787
▁voter	-11.8787
▁cleaning	-11.8788
▁amy	-11.8789
▁adulteration	-11.8792
▁lor	-11.8794
▁verbal	-11.8795
▁signify	-11.8796
▁mute	-11.8797
▁bulls	-11.8798
▁felicia	-11.8799
▁repay	-11.8802
▁target	-11.8803
▁ste	-11.8805
▁wildly	-11.8805
▁greenish	-11.8805
▁penetrate	-11.8806
▁tint	-11.881
▁stare	-11.8811
▁niece	-11.8812
▁forcing	-11.8812
▁distinguishing	-11.8813
▁minors	-11.8819
▁copyrighted	-11.882
otheli	-11.8821
▁interim	-11.8822
▁omit	-11.8825
▁implementing	-11.8828
▁brightness	-11.8829
lc	-11.883
▁protocol	-11.8831
▁advocated	-11.8833
▁dire	-11.8834
▁mutually	-11.8834
cm	-11.8835
▁inspectors	-11.8835
▁ling	-11.8838
▁rn	-11.8839
▁hugo	-11.8839
▁eliminate	-11.884
▁gear	-11.884
▁whale	-11.884
▁foam	-11.8843
▁hearings	-11.8845
▁realise	-11.8848
▁beth	-11.885
▁repayment	-11.8851
▁aut	-11.8851
mor	-11.8856
▁irresistible	-11.8857
▁shakspeare	-11.8857
▁television	-11.8857
▁boyhood	-11.8858
▁gentiles	-11.8865
▁ley	-11.8867
▁pol	-11.8868
▁pretence	-11.8869
med	-11.887
▁unis	-11.887
▁consulting	-11.887
▁pits	-11.8874
▁censure	-11.8875
▁jeremiah	-11.8876
▁humbly	-11.8876
▁adjournment	-11.8877
▁seizing	-11.8878
▁probate	-11.8878
▁republics	-11.8879
▁aft	-11.888
▁perfume	-11.8882
▁doubled	-11.8883
▁unlikely	-11.8885
▁marshes	-11.8885
▁affects	-11.8887
▁kai	-11.8888
▁oure	-11.8892
▁transverse	-11.8892
▁hardships	-11.8893
▁awhile	-11.8894
▁ignore	-11.8895
▁transcript	-11.8896
▁symbolism	-11.8897
▁buchanan	-11.8898
▁tak	-11.89
▁bridle	-11.8903
▁syriac	-11.8907
▁contractors	-11.8907
▁submarine	-11.8907
▁observes	-11.8909
▁frenchmen	-11.891
▁particle	-11.8911
▁studio	-11.8913
ang	-11.8913
uli	-11.8915
▁disc	-11.8915
▁tails	-11.8915
▁frankfort	-11.8915
▁jet	-11.8919
ong	-11.8921
▁participated	-11.8924
▁rosa	-11.8927
ala	-11.8927
▁comb	-11.8931
▁landon	-11.8931
▁intolerable	-11.8934
▁randolph	-11.8934
▁suspicions	-11.8935
▁mortality	-11.8935
▁camden	-11.8935
▁forgetting	-11.8936
▁abu	-11.8936
▁detect	-11.8938
▁weaving	-11.8939
▁inventory	-11.8939
▁hooker	-11.894
▁suggestive	-11.894
▁exertion	-11.8946
▁tam	-11.8947
▁mounting	-11.8948
▁harlan	-11.8949
▁banker	-11.8951
▁procuring	-11.8953
▁allocated	-11.8954
▁nursery	-11.8954
▁rooted	-11.8955
▁courtyard	-11.8956
▁fashionable	-11.8956
▁fruitful	-11.8957
▁wel	-11.8957
▁blair	-11.8958
▁benson	-11.8959
▁throng	-11.896
▁fern	-11.8961
▁illusion	-11.8967
▁journalist	-11.8967
alis	-11.8967
▁miraculous	-11.8969
▁reciprocal	-11.897
▁roland	-11.8971
▁spur	-11.8971
▁greeting	-11.8972
▁unmarried	-11.8973
▁cologne	-11.8973
▁tenn	-11.8973
rg	-11.8975
▁burdens	-11.8976
▁distinctions	-11.8978
▁vows	-11.8978
▁conductor	-11.8978
▁ornamented	-11.898
▁recipient	-11.8985
▁lance	-11.8988
▁speedy	-11.8988
▁bursting	-11.8991
▁pans	-11.8991
▁begotten	-11.8992
▁dudley	-11.8992
▁fanny	-11.8993
▁barnes	-11.8993
▁embraces	-11.8993
▁flourished	-11.8995
▁darker	-11.8997
▁teams	-11.8998
▁interruption	-11.9004
▁threaten	-11.9005
▁domini	-11.9008
▁habitual	-11.9009
▁assemblies	-11.9011
▁fines	-11.9013
▁royalty	-11.9017
▁gifted	-11.9017
▁tightly	-11.9018
▁flush	-11.9023
▁fen	-11.9023
▁hemisphere	-11.9024
▁remnant	-11.9024
▁codice	-11.9024
▁induction	-11.9025
▁terre	-11.9026
tur	-11.9026
▁ana	-11.9027
▁zi	-11.903
▁terrestrial	-11.9031
rl	-11.9031
▁blaze	-11.9032
▁ella	-11.9033
▁producers	-11.9034
zer	-11.9036
▁stony	-11.9037
▁sac	-11.9039
eg	-11.9044
▁civilians	-11.9045
▁helpful	-11.9046
chen	-11.9049
▁thor	-11.9049
▁dict	-11.9049
▁mckinlay	-11.905
▁privacy	-11.905
▁confederacy	-11.905
▁crescent	-11.905
▁bewildered	-11.9051
▁trivial	-11.9051
▁feeds	-11.9052
▁orchard	-11.9053
▁behaved	-11.9054
▁histoire	-11.9056
▁bomb	-11.9056
▁weed	-11.9058
▁patriot	-11.9058
▁raid	-11.9058
▁withheld	-11.9059
▁melt	-11.906
▁clare	-11.906
▁reservations	-11.9063
▁warrants	-11.9063
▁browne	-11.9063
▁whichever	-11.9063
▁proportional	-11.9064
▁emotional	-11.9064
ient	-11.9065
▁notified	-11.9065
▁maud	-11.9069
▁dresden	-11.907
▁kautsky	-11.907
▁pecuniary	-11.907
▁murphy	-11.907
▁capabilities	-11.907
▁poisonous	-11.9071
▁dismissal	-11.9072
cum	-11.9072
▁punishments	-11.9073
▁mak	-11.9076
▁abbott	-11.9078
▁pratt	-11.9081
▁dreaded	-11.9081
▁chestnut	-11.9082
▁telegram	-11.9082
▁maidens	-11.9085
▁nal	-11.9087
▁intervening	-11.9089
▁propaganda	-11.9089
▁traits	-11.909
▁trim	-11.909
▁marking	-11.9096
▁lung	-11.9097
▁lincolns	-11.9097
▁resorted	-11.9099
▁stems	-11.9101
▁gallons	-11.9104
▁chan	-11.9106
▁drill	-11.9107
pan	-11.9107
▁tung	-11.9109
▁iniquity	-11.9109
▁voltaire	-11.9109
▁pedro	-11.9109
▁expressive	-11.9109
▁instructive	-11.9111
▁enduring	-11.9111
▁lads	-11.9111
▁unfit	-11.9112
▁colleagues	-11.9116
ock	-11.9117
▁sill	-11.9117
▁indent	-11.9121
▁concentration	-11.9122
▁liar	-11.9124
▁oats	-11.9128
▁adj	-11.9128
▁involuntary	-11.9128
▁flourishing	-11.9132
▁inhabit	-11.9134
▁twin	-11.9134
▁apron	-11.9136
▁twins	-11.9141
▁dep	-11.9141
▁bartholomew	-11.9141
▁taxpayer	-11.9141
▁digging	-11.9141
▁adherents	-11.9143
▁pg	-11.9143
ral	-11.9143
▁richest	-11.9144
ches	-11.9144
▁quota	-11.9148
▁insanity	-11.9148
▁shipment	-11.9149
▁purchasing	-11.9149
▁grin	-11.9149
▁snatched	-11.915
rat	-11.9153
▁tai	-11.9154
ues	-11.9154
▁nam	-11.9155
▁lic	-11.9157
▁loses	-11.9158
▁mn	-11.9158
▁lambs	-11.9158
▁giants	-11.9158
▁zinc	-11.916
▁beau	-11.916
▁tz	-11.916
▁walpole	-11.9161
▁algebra	-11.9162
▁housekeeper	-11.9162
▁startling	-11.9167
▁vide	-11.9167
▁camel	-11.9167
▁piled	-11.9167
▁louvre	-11.9168
▁secession	-11.9168
aw	-11.9169
▁annoyed	-11.917
▁favors	-11.9171
▁conflicting	-11.9173
▁sqq	-11.9174
▁vaguely	-11.9176
▁concludes	-11.918
ige	-11.9183
▁cy	-11.9184
▁kensington	-11.9187
▁malay	-11.9188
▁mercantile	-11.9188
▁silas	-11.9189
▁affixed	-11.9189
▁sol	-11.919
▁victorian	-11.9191
▁frail	-11.9196
▁wren	-11.9199
ain	-11.9203
▁tug	-11.9206
▁compositions	-11.9206
▁benevolence	-11.9207
▁impossibility	-11.9207
▁strove	-11.9207
▁tional	-11.9208
▁rejection	-11.9209
▁eagerness	-11.921
▁whigs	-11.921
▁nic	-11.9211
ern	-11.9211
▁guidelines	-11.9213
▁mun	-11.9214
▁cuckoo	-11.9221
▁jurors	-11.9221
▁boland	-11.9224
▁blush	-11.9225
▁stormy	-11.9226
▁discovering	-11.9226
▁lain	-11.9226
▁conversations	-11.9226
eau	-11.9227
▁bathing	-11.9227
▁wilhelm	-11.9227
▁snapped	-11.9227
▁commentaries	-11.9227
olo	-11.9228
▁upheld	-11.9229
▁realization	-11.9231
▁fist	-11.9231
▁thickly	-11.9231
▁doomed	-11.9234
▁quoting	-11.9234
▁enables	-11.9235
▁booth	-11.9239
val	-11.924
▁abba	-11.9243
▁ditto	-11.9245
▁xiv	-11.9247
▁geographic	-11.9247
▁dawson	-11.9247
▁ledge	-11.9248
▁antique	-11.9252
▁selves	-11.9256
▁lever	-11.9256
▁flute	-11.9256
▁horrors	-11.9258
▁burr	-11.926
▁diversion	-11.9261
▁medals	-11.9262
▁cia	-11.9262
▁hears	-11.9262
▁lone	-11.9262
▁revise	-11.9264
▁barge	-11.9264
▁astonishing	-11.9265
▁chevalier	-11.9267
▁facie	-11.9269
▁questioning	-11.9279
▁buff	-11.9282
▁premier	-11.9282
▁rye	-11.9282
▁hai	-11.9284
▁potent	-11.9285
▁fmall	-11.9287
▁comparable	-11.9287
▁sparkling	-11.9287
▁controversies	-11.9288
day	-11.9289
▁prefixed	-11.9289
▁scores	-11.9291
▁altars	-11.9295
▁scan	-11.9297
ore	-11.9297
▁moslem	-11.9301
▁supplemented	-11.9301
▁cultivate	-11.9302
▁zones	-11.9302
▁heaps	-11.9303
▁borrower	-11.9303
▁industrious	-11.9304
▁vicious	-11.9304
▁arabia	-11.9305
▁townshend	-11.9307
▁oversight	-11.9307
its	-11.9307
▁shattered	-11.9308
▁cautiously	-11.931
▁plural	-11.931
over	-11.9314
▁unconsciously	-11.9314
▁correspondents	-11.9315
▁puritan	-11.9318
▁planting	-11.9319
▁epitaph	-11.9321
▁philo	-11.9321
▁hanover	-11.9322
▁odds	-11.9325
▁enjoined	-11.9329
▁weaker	-11.9331
▁counsels	-11.9335
▁bolt	-11.9336
▁fiercely	-11.9337
▁vance	-11.9338
▁vancouver	-11.9341
▁allocation	-11.9341
▁bobby	-11.9342
▁petit	-11.9342
mat	-11.9343
▁suns	-11.9345
▁autobiography	-11.9347
▁demesne	-11.9347
▁humiliation	-11.9347
▁obsolete	-11.9348
▁utilized	-11.9351
▁molly	-11.9352
▁irving	-11.9352
tive	-11.9353
▁ron	-11.9354
▁shrewd	-11.9355
▁oblong	-11.9359
▁wid	-11.9361
aux	-11.9361
▁noah	-11.9362
▁impressive	-11.9363
▁effectual	-11.9366
▁joyous	-11.9366
▁halifax	-11.9367
▁proletariat	-11.9367
▁sunrise	-11.9367
▁mixing	-11.9368
▁amelia	-11.9368
▁fishermen	-11.9368
▁alongside	-11.9369
▁cruz	-11.937
▁endeavored	-11.9372
▁entertaining	-11.9375
▁marian	-11.9375
▁congressman	-11.9378
▁script	-11.9378
▁chao	-11.938
▁vous	-11.9381
▁immigrant	-11.9381
▁enact	-11.9382
▁cro	-11.9383
▁ros	-11.9386
▁crucified	-11.9387
▁rats	-11.9387
▁friction	-11.9387
▁hampton	-11.9387
▁constance	-11.9387
▁assn	-11.9388
▁empowered	-11.9388
arum	-11.9388
▁powell	-11.9388
▁tsung	-11.9389
▁byzantine	-11.9391
▁enhanced	-11.9392
▁fay	-11.9393
▁adjust	-11.9394
▁ransom	-11.9395
▁smoked	-11.9395
▁mot	-11.9395
▁gorge	-11.9396
▁atoms	-11.9398
▁rotation	-11.9399
▁manu	-11.94
▁beads	-11.94
▁nie	-11.94
iam	-11.9401
▁tucker	-11.9405
▁coapany	-11.9407
lle	-11.9413
▁planes	-11.9413
▁curves	-11.9414
▁metsu	-11.9414
▁forwarded	-11.9414
▁intending	-11.9417
▁ayens	-11.9421
eur	-11.9421
▁saloon	-11.9424
▁explicit	-11.9424
▁wy	-11.9426
▁northampton	-11.9427
▁guaranty	-11.9427
▁terrified	-11.9427
▁toll	-11.9429
▁hiram	-11.9429
▁impaired	-11.943
▁merged	-11.943
▁examiner	-11.9433
▁jj	-11.9434
▁beans	-11.9434
▁snowy	-11.9436
▁foreman	-11.9439
▁jour	-11.9441
▁strips	-11.9442
▁vapour	-11.9442
▁verge	-11.9442
▁laurel	-11.9444
▁ethiopian	-11.9444
▁potomac	-11.9447
▁seymour	-11.9447
▁perchance	-11.9448
▁queensland	-11.9449
▁bravery	-11.945
▁nar	-11.9451
▁curate	-11.9451
▁musician	-11.9451
min	-11.9452
▁cot	-11.9454
▁canst	-11.9459
king	-11.946
▁vin	-11.9461
tha	-11.9465
ding	-11.9466
▁brooke	-11.9468
▁aristocracy	-11.9468
▁substitution	-11.9468
▁escaping	-11.9468
▁zoological	-11.9468
▁regretted	-11.9468
▁replies	-11.9469
▁recess	-11.947
▁hould	-11.9472
▁dialogues	-11.9473
com	-11.9479
▁lon	-11.9481
▁crystals	-11.9481
▁anglican	-11.9484
▁floods	-11.9487
▁baxter	-11.9488
▁undergo	-11.9488
▁lyon	-11.949
▁refuses	-11.949
▁collectors	-11.9492
lf	-11.9492
und	-11.9494
▁chinas	-11.9496
▁pledged	-11.9497
nu	-11.9502
▁willie	-11.9502
▁aud	-11.9503
▁translator	-11.9504
▁enabling	-11.9508
▁masculine	-11.9509
▁adoration	-11.9509
▁wiser	-11.9509
▁coronation	-11.9509
▁leyden	-11.9509
▁deities	-11.951
▁scientists	-11.9512
▁lished	-11.9512
▁ornamental	-11.9513
▁builders	-11.9514
▁sans	-11.9514
mel	-11.9516
▁dispensation	-11.9524
▁manifestation	-11.9525
▁hamburg	-11.9527
▁pathetic	-11.9529
▁glacial	-11.9529
▁fireplace	-11.9529
▁capitalist	-11.9529
▁whitney	-11.9529
▁installed	-11.953
▁denounced	-11.9531
▁commandment	-11.9531
▁header	-11.9533
▁indulged	-11.9535
elle	-11.9535
▁gender	-11.9535
▁observers	-11.9537
▁flags	-11.9538
shire	-11.9538
▁gossip	-11.9539
▁forbes	-11.9539
▁abilities	-11.9541
▁crash	-11.9542
cal	-11.9543
▁torrent	-11.9544
▁triangle	-11.9544
▁elm	-11.9546
▁instinctive	-11.9547
▁davenport	-11.9549
▁surgery	-11.9549
▁raises	-11.955
▁mournful	-11.9552
▁assigns	-11.9552
▁polar	-11.9553
▁korean	-11.9555
▁knt	-11.9561
▁summers	-11.9562
▁adequately	-11.9562
▁inability	-11.9564
▁garland	-11.9565
▁marx	-11.9567
▁hawthorne	-11.9568
▁hasten	-11.9569
▁logan	-11.957
▁troublesome	-11.957
▁developments	-11.9571
nl	-11.9571
▁profess	-11.9573
▁highlands	-11.9574
▁tb	-11.9575
▁sided	-11.9576
▁metaphysical	-11.9576
▁herring	-11.9576
ische	-11.9578
▁ker	-11.9582
▁darwin	-11.9582
▁murderers	-11.9583
▁ves	-11.9585
▁adaptation	-11.9586
▁premium	-11.9586
▁uniformly	-11.9586
▁abrupt	-11.9586
▁cautious	-11.9587
▁pike	-11.9588
▁jacobs	-11.9589
▁spears	-11.9589
▁servitude	-11.959
▁investments	-11.959
▁fulfilment	-11.9591
▁peculiarity	-11.9594
ped	-11.9595
▁raven	-11.9595
▁subdivisions	-11.9596
tle	-11.9597
▁individuality	-11.9597
▁clue	-11.9597
du	-11.9598
▁thrill	-11.9599
▁traitor	-11.96
▁sleeves	-11.9602
▁devise	-11.9603
▁inmates	-11.9605
▁hark	-11.9605
▁embryo	-11.9606
▁shadowy	-11.9609
los	-11.961
▁vid	-11.961
▁valentine	-11.961
▁citadel	-11.961
▁susceptible	-11.9611
▁geoffrey	-11.9611
▁chisel	-11.9612
▁dorset	-11.9613
hn	-11.9613
▁monitoring	-11.9614
try	-11.9615
lk	-11.9618
▁begging	-11.9619
▁surname	-11.9622
▁withered	-11.9622
▁envelope	-11.9624
▁rogue	-11.9627
▁dante	-11.963
▁deserving	-11.9632
▁forcibly	-11.9632
▁greenwich	-11.9632
num	-11.9635
▁philosophic	-11.9636
▁licenses	-11.9637
▁mart	-11.9639
▁profane	-11.9644
▁prevents	-11.9646
▁gan	-11.9647
▁hunted	-11.9649
▁copious	-11.9649
▁archaeological	-11.9652
▁uncomfortable	-11.9652
▁satisfactorily	-11.9652
▁estimation	-11.9652
▁hindus	-11.9653
▁dined	-11.9653
▁clo	-11.9655
oy	-11.9656
hat	-11.9657
▁explored	-11.9657
▁amber	-11.9658
▁instructor	-11.9659
▁effecting	-11.9661
▁riot	-11.9661
▁economical	-11.9661
▁fal	-11.9663
▁bearer	-11.9664
md	-11.9666
lj	-11.9667
ade	-11.9667
▁bushels	-11.967
ters	-11.9671
ao	-11.9671
▁oils	-11.9673
▁officially	-11.9674
▁fil	-11.9675
▁shan	-11.9676
▁springfield	-11.9676
ort	-11.9679
▁infants	-11.9681
▁eral	-11.9681
▁reflecting	-11.9683
▁metaphysics	-11.9685
▁spin	-11.9687
▁distressed	-11.9688
▁advantageous	-11.9693
▁stimulus	-11.9694
▁elimination	-11.9694
▁quart	-11.9694
▁dixon	-11.9695
▁democrats	-11.9697
▁conquerors	-11.9698
▁awakening	-11.9698
▁kil	-11.97
▁yarn	-11.9704
▁cite	-11.9706
▁assuredly	-11.9707
▁isaiah	-11.9708
ual	-11.971
▁classed	-11.971
▁odor	-11.971
▁lour	-11.9711
▁consolidation	-11.9714
▁mcloughlin	-11.9714
▁perseverance	-11.9714
▁committing	-11.9715
▁denver	-11.9716
▁billion	-11.9716
▁henri	-11.9716
▁impulses	-11.9719
▁beacon	-11.972
▁roared	-11.9723
▁casual	-11.9727
▁hog	-11.9728
▁novelist	-11.973
▁investigated	-11.973
ky	-11.973
iter	-11.9731
▁plaster	-11.9732
▁congo	-11.9734
▁package	-11.9735
▁proven	-11.9735
▁cyclopaedia	-11.9735
ug	-11.9737
▁cos	-11.9737
▁lisbon	-11.9737
▁waterloo	-11.9737
▁journeys	-11.9737
▁precautions	-11.9738
▁py	-11.9738
▁recited	-11.9738
lum	-11.9741
▁sadness	-11.9742
▁pleases	-11.9743
▁absentee	-11.9743
▁guise	-11.9743
▁liber	-11.9745
▁dose	-11.9746
▁hm	-11.9748
▁vl	-11.9749
▁guild	-11.975
▁carlos	-11.9751
▁diagram	-11.9752
▁imperative	-11.9753
▁eddy	-11.9753
▁affinity	-11.9756
▁fancies	-11.9756
ves	-11.9757
▁sullivan	-11.9758
▁nottingham	-11.976
▁avoiding	-11.9762
▁hercules	-11.9762
▁pius	-11.9763
▁photo	-11.9763
▁needful	-11.9765
▁montague	-11.9777
ants	-11.9778
▁distribute	-11.978
▁similarity	-11.9784
▁autres	-11.9791
▁fy	-11.9791
▁survival	-11.9794
▁wrongs	-11.9796
▁heinrich	-11.9798
▁piercing	-11.9798
▁legacy	-11.9798
▁noteworthy	-11.9799
▁mmm	-11.98
▁lazy	-11.9801
▁kelly	-11.9801
▁stray	-11.9803
▁reconciled	-11.9803
▁serene	-11.9803
▁prompted	-11.9805
▁reprint	-11.9806
▁constructing	-11.9807
▁vines	-11.9808
▁siberia	-11.9813
▁tumult	-11.9815
▁notorious	-11.9816
▁tenderly	-11.9817
▁ev	-11.9818
rah	-11.9818
▁tension	-11.9818
▁archipelago	-11.9819
▁rubbish	-11.9819
▁whittier	-11.9819
▁shrubs	-11.9823
▁mainland	-11.9826
▁sy	-11.9826
▁chas	-11.9828
▁hilly	-11.9831
pin	-11.9833
itt	-11.9835
▁pigeon	-11.9836
▁ferrier	-11.9837
▁garb	-11.9838
▁applicants	-11.9838
▁euripides	-11.984
▁devoid	-11.984
▁bella	-11.984
amptonshire	-11.9841
▁fullest	-11.9841
▁bequeathed	-11.9842
▁rc	-11.9843
▁pont	-11.9843
▁nostrils	-11.9846
hon	-11.9849
▁scot	-11.985
▁vowel	-11.9851
▁ui	-11.9853
▁jove	-11.9853
▁cricket	-11.9854
▁baronet	-11.9858
▁naught	-11.986
▁carlisle	-11.9861
▁unfinished	-11.9861
▁crush	-11.9862
▁overwhelmed	-11.9862
▁virgil	-11.9862
▁ings	-11.9864
▁drinks	-11.9865
▁herr	-11.9865
▁executors	-11.9865
▁tag	-11.987
▁sour	-11.9871
▁hurriedly	-11.9872
▁broadcast	-11.9874
▁scientist	-11.9879
▁dagger	-11.988
▁forgiven	-11.9882
▁hatch	-11.9882
▁obscurity	-11.9882
▁wharton	-11.9883
▁herod	-11.9884
▁parson	-11.9885
▁cd	-11.9885
▁stan	-11.9886
▁tips	-11.9888
▁doe	-11.9889
din	-11.989
▁watered	-11.9891
zy	-11.9896
▁needless	-11.9896
▁reconcile	-11.9898
▁patiently	-11.99
▁spheres	-11.99
▁errand	-11.99
▁ois	-11.9902
▁rouse	-11.9902
▁atmospheric	-11.9903
▁erskine	-11.9903
▁milwaukee	-11.9903
▁heavier	-11.9904
iest	-11.9905
▁fossils	-11.9906
▁vocational	-11.9906
▁impatiently	-11.9908
▁fasting	-11.9911
▁doings	-11.9911
▁aerial	-11.9912
▁slumber	-11.9912
▁ez	-11.9913
▁continuously	-11.9915
▁lydia	-11.9915
▁minn	-11.9917
▁gospels	-11.9919
▁friars	-11.9919
▁mod	-11.9921
lam	-11.9924
▁craig	-11.9924
▁maternal	-11.9925
▁dunbar	-11.9925
▁emigration	-11.9925
▁accrued	-11.9928
▁sophia	-11.9929
▁triple	-11.9929
ori	-11.9931
▁echoed	-11.9931
▁consuls	-11.9932
▁tire	-11.9934
pp	-11.9936
▁shocked	-11.9936
▁brighton	-11.9936
wr	-11.9937
▁oblige	-11.9937
▁chen	-11.9938
▁demanding	-11.9939
▁shilling	-11.994
▁noblest	-11.994
▁analytical	-11.994
▁poisoned	-11.994
▁proverbs	-11.9942
▁tertiary	-11.9946
▁carthage	-11.9946
▁faire	-11.9947
▁outlet	-11.9947
▁boon	-11.9947
▁signing	-11.995
▁buds	-11.995
▁schedules	-11.995
▁lm	-11.9951
▁antony	-11.9951
▁duc	-11.9952
nm	-11.9954
▁gram	-11.9955
ath	-11.9957
aga	-11.9958
▁survivors	-11.9958
▁impartial	-11.9964
▁hounds	-11.9965
ties	-11.9967
▁monetary	-11.9967
▁tonnage	-11.9967
▁mandatory	-11.9967
zen	-11.9968
▁metropolis	-11.9968
▁louisa	-11.997
▁undergone	-11.997
▁lg	-11.9974
▁arg	-11.9974
▁pleasantly	-11.9978
▁tary	-11.9979
▁sized	-11.9981
▁proudly	-11.9986
▁pebbles	-11.9986
▁quartermaster	-11.9986
▁laborious	-11.9986
▁lizzie	-11.9989
▁approbation	-11.9989
▁arkady	-11.9989
▁dusty	-11.9989
▁feasts	-11.9989
▁airport	-11.9989
▁scotsmen	-11.9989
▁vnto	-11.999
▁melville	-11.9992
▁indo	-11.9994
▁expanding	-11.9994
▁accidentally	-11.9994
▁squares	-11.9995
yne	-11.9997
▁retail	-11.9999
▁pensions	-12.0003
▁dividends	-12.0006
▁carrie	-12.0006
▁lam	-12.0006
▁nets	-12.0007
▁mammalia	-12.0007
▁convincing	-12.0007
▁hond	-12.0008
▁gratification	-12.001
kar	-12.001
ante	-12.0011
▁rejoined	-12.0012
▁pigeons	-12.0014
▁performances	-12.0015
▁claude	-12.0016
▁privileged	-12.0016
▁firmness	-12.0018
▁scream	-12.002
▁keenly	-12.0021
net	-12.0022
▁linked	-12.0022
▁majestic	-12.0024
▁satin	-12.0026
▁nurses	-12.0027
▁wondrous	-12.0028
▁devout	-12.0029
▁vector	-12.0029
▁enforcing	-12.0032
▁haughty	-12.0032
▁fragrant	-12.0032
▁coke	-12.0034
▁lac	-12.0034
back	-12.0034
▁nought	-12.0035
▁manure	-12.0038
▁starts	-12.0039
▁compose	-12.0039
▁hab	-12.0041
▁redeem	-12.0042
▁vibrations	-12.0042
▁firms	-12.0042
▁hurrying	-12.0044
▁obstinate	-12.005
▁unanimous	-12.005
▁thoreau	-12.0053
▁deficient	-12.0054
▁twain	-12.0056
▁boyle	-12.0056
▁sometime	-12.0059
▁keepers	-12.0062
ju	-12.0062
▁concessions	-12.0064
▁delivering	-12.0071
▁mourn	-12.0071
▁bir	-12.0072
▁tow	-12.0074
▁timothy	-12.0075
▁preparatory	-12.0075
▁populous	-12.0075
▁nh	-12.0075
▁akin	-12.0075
▁vitality	-12.0076
ours	-12.0076
▁joins	-12.0077
▁mountainous	-12.0081
▁limiting	-12.0082
▁heal	-12.0083
▁dependents	-12.0087
▁assessments	-12.0092
▁delusion	-12.0093
▁pretext	-12.0094
▁partition	-12.0095
▁stall	-12.0096
▁luminous	-12.0096
▁worried	-12.0096
▁gotten	-12.0097
▁paternal	-12.0097
▁refugees	-12.0099
▁bleeding	-12.0099
▁clinging	-12.0099
▁broom	-12.01
dl	-12.01
cli	-12.0102
ole	-12.0102
▁singer	-12.0102
uo	-12.0105
▁intensely	-12.0106
▁digest	-12.011
▁twist	-12.0111
▁cometh	-12.0115
▁companys	-12.0116
▁fascinating	-12.0118
▁desolation	-12.0118
▁tunis	-12.0118
mc	-12.012
▁tense	-12.012
▁alcoholic	-12.0123
qu	-12.0124
▁wiped	-12.0124
ago	-12.0125
▁cle	-12.0127
▁offend	-12.0129
rell	-12.0131
▁tailor	-12.0133
tte	-12.0134
tia	-12.0135
▁enclosure	-12.0137
▁inspire	-12.0138
▁invent	-12.0138
▁saturn	-12.0139
▁hil	-12.0139
▁parochial	-12.014
▁tributary	-12.014
▁marches	-12.0142
▁sewing	-12.0142
yd	-12.0143
▁wrecked	-12.0147
▁cult	-12.015
▁usefulness	-12.0151
uy	-12.0154
▁retains	-12.016
▁punjab	-12.0161
▁whosoever	-12.0161
▁grazing	-12.0162
▁affording	-12.0163
▁lyrics	-12.0168
▁stag	-12.0169
▁democrat	-12.0169
▁floors	-12.0172
▁raja	-12.0173
▁retreated	-12.0178
▁subscribers	-12.0179
iw	-12.0179
▁sullen	-12.018
▁precaution	-12.0181
▁thomson	-12.0181
▁preachers	-12.0181
▁bachelor	-12.0183
▁enrollment	-12.0184
▁bacchus	-12.0184
▁legislatures	-12.0184
▁gilded	-12.0185
▁marrying	-12.0186
▁lacked	-12.0186
uni	-12.0187
▁ure	-12.019
▁marines	-12.0195
▁hostess	-12.02
▁purchases	-12.0201
▁indignant	-12.0202
hs	-12.0202
▁miniature	-12.0202
▁paces	-12.0206
▁surpassed	-12.0207
▁yellowish	-12.0208
▁annexation	-12.0209
tc	-12.0209
▁trenches	-12.0209
▁output	-12.021
▁illus	-12.021
▁uk	-12.0213
uta	-12.0215
▁manifestly	-12.0216
▁bavaria	-12.0216
▁creep	-12.0217
▁humane	-12.022
▁precepts	-12.0221
▁residue	-12.0224
▁brahman	-12.0226
▁nobleman	-12.0227
▁sympathies	-12.0227
▁deserts	-12.0228
▁inv	-12.0229
▁topographical	-12.0229
▁sri	-12.0231
▁customer	-12.0231
▁neatly	-12.0233
▁speakers	-12.0234
▁moors	-12.0234
enberg	-12.0236
▁bos	-12.0236
▁davids	-12.0237
▁stillness	-12.0237
▁specifications	-12.0238
▁cove	-12.0239
▁churchill	-12.024
old	-12.0241
▁pap	-12.0243
▁bul	-12.0246
▁bullock	-12.0247
▁clive	-12.0247
▁reclus	-12.0248
[...]
