<unk>	0
<s>	0
</s>	0
▁the	-2.71615
▁of	-3.19001
▁and	-3.50485
▁to	-3.7734
▁in	-3.95516
▁a	-3.98681
▁that	-4.68483
▁is	-4.8293
▁for	-4.85253
▁was	-4.87516
▁he	-4.90652
▁it	-4.92114
▁i	-4.97497
▁as	-5.02003
▁by	-5.03156
▁his	-5.09545
▁with	-5.11055
▁be	-5.12801
▁s	-5.17238
▁on	-5.24087
▁at	-5.25408
▁or	-5.26468
▁doc	-5.31711
▁not	-5.38129
▁this	-5.41991
▁which	-5.42171
▁from	-5.51955
▁page	-5.52108
▁but	-5.57744
▁had	-5.6652
▁are	-5.70903
▁djvu	-5.73448
▁have	-5.76605
▁an	-5.77366
s	-5.7825
▁you	-5.80363
▁they	-5.8189
▁all	-5.8453
▁	-5.85222
▁title	-5.89106
▁en	-5.93187
▁were	-5.97122
▁one	-5.981
▁id	-5.98148
▁wiki	-5.99117
▁wikisource	-5.99724
▁org	-5.9976
▁https	-6.01197
▁url	-6.01402
curid	-6.0145
▁him	-6.02686
▁their	-6.03069
▁her	-6.03797
▁we	-6.07397
▁no	-6.17883
▁so	-6.18568
▁who	-6.21214
▁there	-6.23439
▁she	-6.2712
▁been	-6.28842
▁shall	-6.29973
▁if	-6.29996
▁them	-6.30659
▁any	-6.31932
▁such	-6.35018
▁when	-6.35098
▁my	-6.35654
▁other	-6.37957
▁d	-6.38762
▁will	-6.40477
▁may	-6.40489
▁has	-6.43762
▁said	-6.45849
▁its	-6.46877
▁me	-6.47041
▁c	-6.4724
▁states	-6.50697
▁t	-6.51894
▁more	-6.51956
▁would	-6.54151
▁m	-6.59115
▁into	-6.59845
▁out	-6.60248
▁under	-6.61265
▁b	-6.61893
▁united	-6.62364
▁what	-6.64433
▁than	-6.70569
▁time	-6.70622
▁volume	-6.70863
▁upon	-6.74251
▁made	-6.74511
▁some	-6.75587
▁man	-6.76107
e	-6.7632
▁two	-6.76815
▁up	-6.77754
▁only	-6.77768
▁then	-6.78865
▁these	-6.79165
▁after	-6.79896
▁do	-6.80028
▁e	-6.81586
▁our	-6.81588
▁act	-6.85096
▁first	-6.85828
▁now	-6.86479
▁new	-6.88971
▁see	-6.91062
▁about	-6.92009
▁part	-6.92292
▁state	-6.94651
▁great	-6.94857
▁can	-6.96269
▁before	-7.00221
▁very	-7.00414
▁p	-7.04395
▁could	-7.04747
▁class	-7.05915
▁like	-7.06042
▁your	-7.08686
▁same	-7.10539
▁those	-7.1059
▁should	-7.10822
▁us	-7.11816
▁also	-7.12164
▁law	-7.12208
▁men	-7.13207
▁where	-7.13608
▁being	-7.14084
▁court	-7.15461
▁l	-7.1589
▁over	-7.161
▁day	-7.18187
▁de	-7.19135
▁did	-7.20208
▁well	-7.20935
▁most	-7.21176
▁life	-7.2254
▁n	-7.22903
▁o	-7.23044
▁section	-7.2314
▁right	-7.24803
▁good	-7.24921
▁must	-7.2547
▁years	-7.26624
▁large	-7.28338
▁f	-7.29788
▁mr	-7.29902
▁many	-7.31988
▁god	-7.32072
▁general	-7.32762
▁little	-7.32801
▁much	-7.32979
▁through	-7.34091
▁st	-7.36147
▁r	-7.36252
▁old	-7.36686
▁own	-7.37116
▁u	-7.37347
▁house	-7.37424
▁each	-7.38027
▁without	-7.39799
▁work	-7.40267
▁here	-7.41694
▁year	-7.43088
▁long	-7.43325
▁three	-7.43348
▁down	-7.43367
▁people	-7.43415
▁public	-7.43901
▁how	-7.43946
▁place	-7.43992
▁even	-7.4418
▁make	-7.44612
▁h	-7.44626
▁pdf	-7.44687
▁th	-7.46834
▁against	-7.46988
▁between	-7.47086
▁col	-7.4732
▁every	-7.47561
▁g	-7.47583
▁name	-7.48297
▁way	-7.48738
▁himself	-7.49847
▁j	-7.50417
▁em	-7.51042
▁john	-7.53193
▁come	-7.53601
▁came	-7.56121
▁while	-7.56439
▁found	-7.56884
▁know	-7.57338
▁never	-7.57397
▁case	-7.57702
▁go	-7.60375
▁another	-7.6158
▁king	-7.61946
▁w	-7.63313
▁again	-7.64479
▁national	-7.64956
▁government	-7.65232
▁might	-7.65342
▁lord	-7.65885
▁still	-7.66322
▁take	-7.66651
▁last	-7.67779
▁both	-7.68785
▁say	-7.69596
▁land	-7.70473
▁world	-7.72391
▁called	-7.72677
▁amp	-7.73466
▁statutes	-7.73613
▁yet	-7.74343
▁use	-7.74396
▁style	-7.74693
▁power	-7.74931
▁back	-7.75044
▁though	-7.75047
a	-7.75949
▁history	-7.76483
ing	-7.76783
▁left	-7.76826
▁because	-7.7684
▁secretary	-7.76987
▁order	-7.77006
▁having	-7.77282
▁country	-7.77365
▁among	-7.78279
▁hand	-7.78352
▁war	-7.7911
▁too	-7.79396
▁went	-7.79658
▁am	-7.80388
▁far	-7.80917
▁vol	-7.81287
ed	-7.81617
▁hundred	-7.83522
▁water	-7.84225
▁during	-7.8451
▁things	-7.85642
▁just	-7.86368
▁city	-7.87437
▁give	-7.87702
▁present	-7.88642
▁within	-7.8881
▁church	-7.88819
d	-7.88856
▁son	-7.89508
▁thus	-7.89628
▁however	-7.89642
▁sir	-7.90293
▁death	-7.90471
▁given	-7.90733
▁let	-7.90826
▁account	-7.90951
▁away	-7.91133
▁end	-7.91156
▁align	-7.9233
▁father	-7.92552
▁nothing	-7.93431
▁until	-7.93632
▁head	-7.94216
▁thought	-7.94236
▁whole	-7.94334
▁form	-7.946
▁took	-7.94938
y	-7.94962
▁nor	-7.95777
▁william	-7.95905
▁used	-7.96923
▁per	-7.97341
▁off	-7.974
▁think	-7.9745
▁whom	-7.97677
▁company	-7.9817
▁four	-7.98591
▁re	-7.98923
▁once	-7.99316
▁put	-7.99501
▁does	-8.00258
▁days	-8.01058
▁young	-8.01455
▁second	-8.01538
▁ever	-8.02018
▁chapter	-8.02168
▁side	-8.02478
▁few	-8.02968
▁number	-8.03438
▁following	-8.03755
▁certain	-8.03913
▁night	-8.04214
▁sec	-8.04513
▁service	-8.04738
▁taken	-8.05444
▁london	-8.05753
▁provided	-8.05897
▁small	-8.05912
▁set	-8.06097
▁less	-8.06814
▁subject	-8.07285
▁person	-8.07737
▁works	-8.08163
▁thou	-8.08177
es	-8.08587
▁eyes	-8.08697
▁office	-8.08998
▁held	-8.09112
n	-8.09289
▁congress	-8.09342
▁five	-8.09473
▁love	-8.09608
▁english	-8.09878
▁book	-8.09976
▁high	-8.10209
▁therefore	-8.10515
▁known	-8.10679
▁others	-8.10761
▁always	-8.11167
▁done	-8.11435
▁since	-8.11559
▁text	-8.11573
▁mind	-8.11853
▁don	-8.12006
i	-8.12032
▁children	-8.12381
▁y	-8.1255
▁means	-8.12801
▁white	-8.12815
▁whether	-8.13739
▁half	-8.13842
▁above	-8.14133
t	-8.14868
ly	-8.15005
▁la	-8.15034
▁near	-8.15181
▁saw	-8.15253
▁ed	-8.15326
▁river	-8.15378
▁home	-8.1545
▁find	-8.16138
▁brought	-8.16419
▁north	-8.16619
▁american	-8.16843
▁president	-8.17109
▁whose	-8.17371
▁face	-8.17487
▁k	-8.17864
▁get	-8.18164
▁thing	-8.18199
▁thousand	-8.18589
▁body	-8.18934
▁ll	-8.18962
▁district	-8.1906
▁necessary	-8.19271
▁several	-8.20697
▁march	-8.21045
▁property	-8.21467
▁light	-8.21851
▁point	-8.21946
▁words	-8.21964
▁fact	-8.22315
▁south	-8.22388
▁cannot	-8.22701
▁england	-8.23155
▁members	-8.23267
▁co	-8.23271
▁pay	-8.23399
▁course	-8.23581
▁edition	-8.23675
▁seen	-8.24004
▁question	-8.24634
▁either	-8.2465
▁school	-8.25271
▁matter	-8.26069
▁june	-8.26163
▁full	-8.26336
▁why	-8.26883
▁word	-8.26901
▁further	-8.26922
▁nature	-8.26932
▁talk	-8.2723
▁times	-8.27263
▁became	-8.27323
▁heart	-8.27357
▁better	-8.28713
▁row	-8.29413
▁information	-8.29453
▁gave	-8.3032
▁themselves	-8.30374
▁thy	-8.30727
▁money	-8.30936
▁sea	-8.31209
▁date	-8.31357
o	-8.31794
▁twenty	-8.31949
▁true	-8.32077
▁soon	-8.32179
▁best	-8.32482
▁feet	-8.33512
▁late	-8.33924
▁town	-8.33937
▁stat	-8.33992
▁interest	-8.34175
▁period	-8.34265
▁york	-8.34368
▁woman	-8.34622
▁county	-8.34741
▁together	-8.34867
▁next	-8.35135
▁opinion	-8.35736
▁almost	-8.35974
▁chief	-8.35982
▁dictionary	-8.36203
▁hands	-8.36224
▁common	-8.36714
▁later	-8.37013
▁america	-8.37174
▁toc	-8.37294
▁article	-8.37308
▁laws	-8.375
▁received	-8.37787
▁free	-8.37806
▁society	-8.38029
▁going	-8.38435
▁sent	-8.38711
▁except	-8.39114
▁look	-8.39372
▁heard	-8.39436
▁mrs	-8.39944
▁air	-8.40257
▁itself	-8.40368
▁died	-8.40467
▁july	-8.40519
▁henry	-8.40745
▁mother	-8.4096
▁federal	-8.40965
▁according	-8.41166
▁including	-8.41267
▁subsection	-8.41271
er	-8.41344
▁thomas	-8.41467
▁room	-8.41847
▁art	-8.42157
▁manner	-8.42194
▁black	-8.4239
r	-8.42469
▁family	-8.42666
▁line	-8.42823
▁tell	-8.43129
▁purpose	-8.43364
▁till	-8.43523
▁rather	-8.43624
▁authority	-8.43925
▁told	-8.44044
▁amount	-8.44074
▁got	-8.44326
▁party	-8.44667
▁different	-8.44679
▁system	-8.44931
▁business	-8.45214
▁west	-8.45438
▁james	-8.456
▁passed	-8.46074
▁early	-8.46132
▁force	-8.46299
▁age	-8.46425
▁making	-8.46429
▁knew	-8.46863
▁wife	-8.47245
▁something	-8.47359
▁six	-8.47573
▁says	-8.47806
▁miles	-8.48266
▁kind	-8.48321
▁table	-8.48589
▁become	-8.49007
▁services	-8.4915
▁french	-8.49168
▁dollars	-8.49222
▁action	-8.49528
▁quite	-8.49733
▁reason	-8.49743
▁born	-8.49968
▁army	-8.50324
▁lady	-8.50417
▁began	-8.50543
▁persons	-8.50671
▁term	-8.5138
▁notes	-8.5144
▁looked	-8.51507
▁cause	-8.51866
▁april	-8.51949
▁fire	-8.52143
▁ground	-8.52148
▁perhaps	-8.52175
▁seemed	-8.52299
▁asked	-8.52524
▁none	-8.52543
▁effect	-8.52643
▁third	-8.52649
▁often	-8.52729
▁human	-8.52821
▁respect	-8.53446
▁biography	-8.53708
▁least	-8.54246
▁enough	-8.54599
▁report	-8.54759
▁earth	-8.54935
▁george	-8.55042
▁women	-8.55351
▁board	-8.55363
▁child	-8.55412
▁provisions	-8.55418
▁already	-8.55515
▁century	-8.55735
▁university	-8.55827
▁ten	-8.56242
▁along	-8.5663
▁red	-8.57028
▁short	-8.57183
▁christ	-8.57245
▁east	-8.57428
▁open	-8.577
▁amended	-8.57757
▁round	-8.58151
▁call	-8.58202
▁read	-8.58315
▁education	-8.58351
▁foreign	-8.59202
▁letter	-8.59363
▁dr	-8.59569
▁cases	-8.59722
▁charles	-8.60829
▁authorized	-8.6092
▁purposes	-8.61008
▁character	-8.61038
▁indeed	-8.61582
▁want	-8.61831
▁rate	-8.61858
▁moment	-8.61947
▁et	-8.62033
▁spirit	-8.62384
in	-8.62565
▁issue	-8.62613
▁constitution	-8.63171
▁paid	-8.63679
▁natural	-8.64486
▁commission	-8.6481
▁poor	-8.65059
▁etc	-8.65341
▁military	-8.65508
▁rights	-8.65534
▁width	-8.65675
▁department	-8.65683
▁council	-8.65809
▁science	-8.65832
▁turned	-8.66125
▁special	-8.66428
▁con	-8.67382
▁return	-8.67537
▁lands	-8.67781
▁political	-8.67887
▁latter	-8.68212
▁care	-8.68503
▁ve	-8.68711
▁note	-8.6896
▁believe	-8.68978
▁sense	-8.69202
▁morning	-8.6944
▁view	-8.6957
▁oh	-8.69649
▁dia	-8.69662
▁although	-8.6969
▁q	-8.69909
▁door	-8.69919
▁keep	-8.70141
▁position	-8.70563
▁british	-8.70821
▁series	-8.70834
▁required	-8.70885
▁colspan	-8.70948
▁justice	-8.71039
▁alone	-8.71212
▁paragraph	-8.71253
▁important	-8.71441
▁possible	-8.7146
us	-8.71499
▁knowledge	-8.71712
▁wst	-8.71756
▁rest	-8.71762
▁lost	-8.71952
▁hope	-8.71979
▁truth	-8.72124
▁show	-8.72181
▁pension	-8.72185
▁dead	-8.72623
▁thereof	-8.72625
▁able	-8.72839
▁x	-8.72849
▁language	-8.72869
▁help	-8.72898
▁various	-8.72901
▁private	-8.72977
▁value	-8.73047
▁books	-8.73634
▁college	-8.73818
▁seems	-8.74118
▁mary	-8.74174
▁felt	-8.7436
▁parts	-8.74614
▁france	-8.74811
▁gold	-8.74878
▁stood	-8.75198
▁anything	-8.75671
▁month	-8.75716
▁captain	-8.75926
▁friend	-8.75998
▁available	-8.76164
▁le	-8.76231
▁duty	-8.76425
▁master	-8.76521
▁appointed	-8.76854
▁voice	-8.76916
▁peace	-8.77561
▁bank	-8.77586
▁lay	-8.77851
▁evidence	-8.78276
▁towards	-8.78409
▁real	-8.78431
▁published	-8.78446
▁senate	-8.7858
▁bishop	-8.78668
▁written	-8.78688
▁brother	-8.78692
▁carried	-8.78729
▁living	-8.78794
▁story	-8.7883
▁approved	-8.78886
▁letters	-8.7895
▁established	-8.79212
▁forth	-8.79504
▁health	-8.79569
▁due	-8.79721
▁yes	-8.80642
is	-8.8071
▁judgment	-8.80789
▁leave	-8.80846
▁faith	-8.81073
▁need	-8.81367
▁rule	-8.81837
▁road	-8.81862
▁trade	-8.82164
▁probably	-8.82334
▁sometimes	-8.82569
▁royal	-8.82637
▁officers	-8.82697
▁strong	-8.82742
▁top	-8.82757
▁returned	-8.83208
▁local	-8.83248
▁friends	-8.83355
▁myself	-8.83363
▁author	-8.83405
▁soul	-8.83658
▁ancient	-8.8384
▁terms	-8.84103
▁seven	-8.84285
▁beginning	-8.84507
▁indian	-8.84543
▁close	-8.84589
▁india	-8.84702
▁eight	-8.84714
▁former	-8.84788
▁post	-8.85003
▁expenses	-8.8531
▁dec	-8.85397
▁thirty	-8.85596
▁otherwise	-8.85599
▁live	-8.85692
▁entered	-8.8574
▁hold	-8.85833
▁fiscal	-8.85938
▁ye	-8.86129
▁fine	-8.86218
▁unto	-8.86346
▁self	-8.86543
▁oxford	-8.86636
▁described	-8.8677
▁continued	-8.86956
▁mean	-8.87058
▁encyclop	-8.87176
▁provide	-8.87262
▁un	-8.87349
▁horse	-8.87653
▁island	-8.87654
l	-8.8775
▁especially	-8.87966
▁change	-8.88002
▁daughter	-8.88517
▁development	-8.88605
▁girl	-8.88881
▁street	-8.88929
▁months	-8.89055
▁corporation	-8.89318
▁member	-8.89368
▁followed	-8.89397
▁sun	-8.89888
▁kept	-8.89891
▁paris	-8.89937
▁original	-8.8999
▁bring	-8.90263
▁neither	-8.90509
▁oct	-8.90618
▁study	-8.90774
▁behind	-8.90883
▁answer	-8.90992
▁considered	-8.91046
▁holy	-8.91078
▁program	-8.91139
▁arms	-8.91336
▁payment	-8.91532
▁met	-8.91537
▁greater	-8.91563
▁notice	-8.91775
▁clear	-8.91935
▁religious	-8.92152
▁civil	-8.92271
▁funds	-8.92325
▁international	-8.92365
▁courts	-8.92471
▁placed	-8.92507
▁beyond	-8.92667
▁across	-8.92767
▁support	-8.92792
▁speak	-8.93166
▁field	-8.93229
▁gone	-8.93299
▁robert	-8.93358
▁plan	-8.93377
▁hear	-8.93507
▁popular	-8.93719
▁coming	-8.9393
▁boy	-8.93975
▁nearly	-8.94079
▁doubt	-8.94323
▁appeared	-8.94425
▁nov	-8.94598
▁modern	-8.94732
▁taking	-8.94753
▁pass	-8.94773
▁really	-8.94962
▁turn	-8.95222
▁assistance	-8.95276
▁around	-8.95433
▁powers	-8.95536
▁acts	-8.95616
▁particular	-8.9587
▁personal	-8.96044
▁sure	-8.96071
▁hard	-8.96126
▁agency	-8.96466
▁display	-8.96636
▁afterwards	-8.96801
▁forms	-8.96857
▁fell	-8.96954
▁grant	-8.97164
▁officer	-8.97236
▁battle	-8.97592
▁german	-8.97662
▁low	-8.97726
▁bottom	-8.97777
▁judge	-8.97804
▁complete	-8.98245
▁miss	-8.98267
▁hall	-8.98391
▁governor	-8.98422
▁blood	-8.98673
▁middle	-8.98738
▁below	-8.9902
▁past	-8.99067
▁conditions	-8.99155
▁unless	-8.99428
▁length	-8.99443
▁green	-8.99685
▁al	-9.00157
▁striking	-9.00181
▁union	-9.00207
▁carry	-9.0025
▁looking	-9.00287
▁individual	-9.00333
▁places	-9.00606
▁ask	-9.00849
▁administration	-9.01021
▁cut	-9.01061
▁proper	-9.01174
▁appear	-9.01349
▁idea	-9.0135
▁dau	-9.01559
▁padding	-9.01567
▁roman	-9.01619
▁generally	-9.0174
▁fear	-9.0201
▁result	-9.02042
▁hour	-9.02204
▁ia	-9.02273
▁gt	-9.02324
▁led	-9.02376
▁meet	-9.02654
▁paper	-9.02806
▁edward	-9.02824
▁added	-9.02841
▁regard	-9.02878
▁papers	-9.02893
▁entitled	-9.03065
▁mentioned	-9.03066
▁august	-9.03082
▁representatives	-9.03172
▁nation	-9.03176
▁follows	-9.03654
▁heaven	-9.03706
▁fall	-9.03719
▁ch	-9.03836
▁principal	-9.04343
▁capital	-9.04416
▁dark	-9.04513
▁future	-9.04622
m	-9.04759
▁christian	-9.05002
▁agreement	-9.0504
▁equal	-9.05289
▁committee	-9.05325
▁eye	-9.05497
▁contract	-9.05977
▁lt	-9.06018
▁supreme	-9.06027
▁appears	-9.06133
▁er	-9.06152
▁parties	-9.06302
▁building	-9.06339
▁review	-9.06358
▁bed	-9.06877
▁herself	-9.06926
▁seem	-9.06949
▁condition	-9.06952
▁january	-9.0722
▁nd	-9.07391
▁bill	-9.07512
▁receive	-9.07537
▁control	-9.07621
▁social	-9.07743
▁ship	-9.07784
▁rev	-9.08151
▁immediately	-9.08179
▁center	-9.08189
▁ought	-9.08193
▁tion	-9.08346
▁sound	-9.08424
▁october	-9.08468
▁object	-9.08716
▁catholic	-9.08773
▁formed	-9.08855
▁sat	-9.08992
▁poems	-9.09006
▁claim	-9.09032
▁foot	-9.0917
▁laid	-9.09204
▁fair	-9.09243
▁territory	-9.09443
▁single	-9.09599
▁stand	-9.09691
▁similar	-9.09699
▁inserting	-9.09807
▁religion	-9.09813
▁queen	-9.09842
▁answered	-9.09867
▁longer	-9.09995
▁december	-9.10022
▁wish	-9.10343
▁food	-9.10367
▁historical	-9.10391
▁married	-9.10458
▁total	-9.10485
▁remain	-9.10548
▁aug	-9.10558
▁dear	-9.106
▁schools	-9.10928
▁sum	-9.11014
▁security	-9.11175
▁increased	-9.11194
▁saying	-9.11401
▁sons	-9.1167
▁influence	-9.11898
▁charge	-9.11959
▁rome	-9.11967
▁reached	-9.12051
▁islands	-9.1208
▁arm	-9.12304
▁hereby	-9.12435
▁sale	-9.12446
▁stone	-9.12448
▁dot	-9.12525
▁ing	-9.12855
▁hill	-9.12978
▁des	-9.12984
▁duties	-9.1301
▁deep	-9.13117
▁front	-9.13154
▁species	-9.13251
▁construction	-9.13388
▁rose	-9.13629
▁southern	-9.13655
▁policy	-9.13896
▁ex	-9.13916
▁hours	-9.1412
▁extent	-9.14244
▁feel	-9.14338
▁determined	-9.14416
▁brown	-9.14502
▁die	-9.14527
▁coast	-9.1472
▁aged	-9.14932
▁richard	-9.15048
▁prince	-9.15105
▁fifty	-9.15108
▁jan	-9.1514
▁cross	-9.15157
▁britannica	-9.15171
▁makes	-9.15188
h	-9.15434
▁sept	-9.1548
▁application	-9.15959
▁else	-9.15979
▁attention	-9.16009
▁bar	-9.16038
▁election	-9.16094
▁september	-9.16105
▁joseph	-9.16162
▁using	-9.1642
▁cost	-9.16425
▁europe	-9.16483
▁process	-9.16502
▁beautiful	-9.16586
▁record	-9.16588
▁distance	-9.16641
▁mouth	-9.16734
▁issued	-9.16804
▁whatever	-9.16978
▁understand	-9.17275
▁wood	-9.17275
▁ready	-9.17352
▁wrote	-9.17407
▁user	-9.17432
▁sight	-9.17559
▁jurisdiction	-9.17561
▁allowed	-9.17703
▁greek	-9.17829
▁code	-9.17875
▁population	-9.1794
en	-9.18236
▁lower	-9.1844
▁portion	-9.18451
▁tales	-9.18611
▁fellow	-9.18619
▁everything	-9.18649
▁pro	-9.18677
▁names	-9.18805
▁vertical	-9.18952
▁tax	-9.19062
▁conduct	-9.19366
▁run	-9.19367
▁direction	-9.19413
▁community	-9.19426
▁possession	-9.1943
▁monthly	-9.19518
▁lines	-9.19536
▁bad	-9.19609
▁forty	-9.19613
▁inches	-9.19665
▁medical	-9.19718
▁sort	-9.19731
▁certainly	-9.19851
▁covered	-9.19893
▁nations	-9.20012
▁area	-9.20135
▁residence	-9.20216
▁desire	-9.20376
▁circumstances	-9.20464
▁named	-9.20537
▁non	-9.20749
▁tree	-9.20809
▁enemy	-9.21161
▁principles	-9.21179
▁library	-9.21196
▁obtained	-9.21281
▁material	-9.22128
▁bear	-9.22197
▁practice	-9.22343
▁evening	-9.22549
▁native	-9.22596
▁fourth	-9.226
▁legal	-9.22798
▁literature	-9.22997
▁cold	-9.23077
▁treaty	-9.23103
▁western	-9.23179
▁com	-9.2318
▁ill	-9.23219
▁source	-9.23391
▁comes	-9.2352
▁february	-9.23523
▁husband	-9.23741
▁coll	-9.23779
▁peter	-9.23872
▁enacted	-9.2396
▁direct	-9.2401
▁hath	-9.2412
▁big	-9.24145
▁week	-9.24161
▁articles	-9.24188
▁evil	-9.24368
▁replied	-9.24507
▁nine	-9.24525
▁doing	-9.24541
▁claims	-9.24673
▁z	-9.2476
▁houses	-9.24845
▁higher	-9.25046
▁music	-9.25061
▁accordance	-9.25298
▁november	-9.25433
▁trees	-9.25562
▁instead	-9.25652
▁command	-9.25763
▁journal	-9.25955
▁remained	-9.26022
▁ct	-9.26047
▁cried	-9.26115
▁besides	-9.26185
▁built	-9.2625
▁regulations	-9.26261
▁jesus	-9.26309
▁strange	-9.26557
▁collection	-9.26669
▁follow	-9.26683
▁wild	-9.26771
▁lived	-9.2682
▁marriage	-9.26995
▁forward	-9.27016
▁strength	-9.27038
▁fixed	-9.27159
▁border	-9.27538
▁defense	-9.27563
▁washington	-9.27651
▁existence	-9.27761
▁paul	-9.27936
▁affairs	-9.27988
▁lake	-9.28107
al	-9.28149
▁giving	-9.28178
▁blue	-9.28476
▁play	-9.28728
▁toward	-9.28752
▁earl	-9.28827
▁increase	-9.28928
▁kingdom	-9.28982
▁ireland	-9.28982
▁additional	-9.29084
▁pp	-9.29213
▁columbia	-9.29323
▁suddenly	-9.29328
▁granted	-9.29387
▁space	-9.29526
▁served	-9.2953
▁employed	-9.29696
▁facts	-9.29837
▁wind	-9.2986
▁protection	-9.29886
▁won	-9.30224
▁sufficient	-9.30293
▁writing	-9.30341
▁degree	-9.30538
▁divine	-9.30675
▁gives	-9.30688
▁matters	-9.30805
▁commerce	-9.30838
▁regiment	-9.3088
▁concerning	-9.30904
▁rich	-9.31128
▁race	-9.31152
▁dnb	-9.31291
um	-9.3132
▁assembly	-9.31363
▁wall	-9.31399
▁orders	-9.31411
▁latin	-9.31428
▁shown	-9.31509
▁valley	-9.31546
▁enter	-9.31872
▁merely	-9.31961
▁sin	-9.3224
▁doctor	-9.32247
▁meaning	-9.32468
▁formula	-9.32482
▁boys	-9.32566
▁mere	-9.32643
▁du	-9.32929
▁silver	-9.32985
▁central	-9.33014
ness	-9.33071
▁trust	-9.33191
▁usc	-9.33377
▁hair	-9.33435
▁ago	-9.33539
▁feeling	-9.33662
▁citizens	-9.33785
▁remains	-9.33986
▁opened	-9.34006
▁gen	-9.34173
▁main	-9.34215
▁produced	-9.34378
▁apply	-9.34463
▁village	-9.34543
▁raised	-9.34566
▁motion	-9.34703
▁camp	-9.34794
▁feb	-9.34838
▁meeting	-9.34864
▁standing	-9.34904
▁example	-9.35029
▁plain	-9.35193
▁outside	-9.35219
▁appropriate	-9.35236
▁provision	-9.35373
▁est	-9.35488
▁entirely	-9.35502
▁activities	-9.35554
▁smith	-9.3572
▁ad	-9.35742
ers	-9.35774
▁lives	-9.35795
▁pleasure	-9.35892
▁rules	-9.35929
▁castle	-9.3606
▁mark	-9.36147
▁executive	-9.36292
▁duke	-9.3634
▁decision	-9.36343
▁reference	-9.36365
▁countries	-9.36401
▁surface	-9.36458
▁iron	-9.36495
▁bridge	-9.36513
▁fund	-9.36575
▁price	-9.36594
▁elected	-9.36711
▁project	-9.3697
▁v	-9.36976
▁division	-9.37022
▁spoke	-9.37051
▁mass	-9.3718
▁prior	-9.37269
▁twelve	-9.3729
▁birds	-9.37309
▁remember	-9.37598
▁list	-9.37685
▁labor	-9.37935
▁el	-9.37935
▁bound	-9.38195
▁numerous	-9.38229
▁error	-9.38296
▁virginia	-9.38323
an	-9.3848
▁treasury	-9.38595
▁presence	-9.38614
▁aid	-9.38649
▁method	-9.38716
▁relief	-9.38801
▁origin	-9.38811
th	-9.38846
▁directed	-9.3893
▁ordinary	-9.39063
▁referred	-9.39195
▁railroad	-9.39283
▁admitted	-9.3942
▁youth	-9.39528
▁experience	-9.39597
▁gk	-9.39667
▁points	-9.39736
▁alumni	-9.39739
▁indians	-9.39957
▁greatest	-9.40034
▁usually	-9.40039
▁hon	-9.40137
▁applied	-9.4023
▁training	-9.40257
▁suppose	-9.40305
▁decided	-9.40375
▁forest	-9.40407
▁professor	-9.4054
▁simple	-9.40554
▁operation	-9.40608
▁changes	-9.40634
▁mountain	-9.40651
▁utc	-9.4068
▁tried	-9.40789
▁occasion	-9.40823
▁credit	-9.40823
▁horses	-9.40858
▁related	-9.40908
▁minister	-9.40913
▁lieutenant	-9.40975
▁organization	-9.40989
▁programs	-9.41134
▁final	-9.41156
▁finally	-9.41243
te	-9.4133
▁par	-9.41348
▁stock	-9.41356
▁temple	-9.41367
▁intended	-9.41394
▁principle	-9.41571
▁mexico	-9.41612
▁include	-9.42051
▁studies	-9.42231
▁forces	-9.42274
▁address	-9.42314
▁que	-9.42356
▁success	-9.42402
▁moral	-9.42429
▁interior	-9.42608
▁relating	-9.42752
▁lincoln	-9.4277
▁spring	-9.42808
▁questions	-9.42943
▁stories	-9.42943
▁consideration	-9.42999
on	-9.43081
▁save	-9.43098
▁ma	-9.43108
▁addition	-9.4313
▁square	-9.43206
▁northern	-9.43257
▁consider	-9.43304
▁happy	-9.43357
▁wanted	-9.43386
▁ran	-9.43457
▁pursuant	-9.43518
▁sister	-9.43528
▁considerable	-9.43706
▁major	-9.43789
▁mountains	-9.43808
▁interests	-9.44008
▁stated	-9.44367
▁appropriated	-9.44436
▁defendant	-9.44525
▁worth	-9.44573
▁heavy	-9.44594
▁wide	-9.44758
▁ninth	-9.44805
▁kjv	-9.44933
▁san	-9.45048
▁drawn	-9.45215
▁vo	-9.45243
▁serve	-9.45256
▁presented	-9.45304
▁loss	-9.45312
▁filled	-9.45317
▁lie	-9.45535
▁appearance	-9.45683
▁learned	-9.45699
▁port	-9.45714
▁mine	-9.45784
▁goods	-9.45945
▁se	-9.45987
▁trial	-9.46003
▁matric	-9.46021
▁station	-9.46053
▁parliament	-9.4614
▁winter	-9.46163
man	-9.46434
▁beauty	-9.4644
▁based	-9.46492
▁broken	-9.46579
▁summary	-9.46648
▁grace	-9.46743
▁declared	-9.46787
▁founded	-9.46997
▁fig	-9.47121
▁annual	-9.47207
▁dtpl	-9.4734
▁official	-9.47416
▁summer	-9.47432
▁honour	-9.47714
▁impossible	-9.47784
▁engaged	-9.47923
▁group	-9.47934
▁empire	-9.47955
▁size	-9.48068
▁cent	-9.48101
▁philosophy	-9.48335
▁caused	-9.48435
▁settled	-9.48453
▁lead	-9.48538
▁amendment	-9.48572
▁description	-9.4859
u	-9.48602
▁freedom	-9.48763
▁directly	-9.48798
▁relations	-9.48863
▁basis	-9.48904
▁supposed	-9.49017
▁piece	-9.49047
▁suit	-9.49114
▁purchase	-9.49151
▁figure	-9.49188
▁virtue	-9.49192
▁irish	-9.49259
▁offered	-9.49265
▁individuals	-9.49338
▁deal	-9.49482
▁created	-9.49492
▁effective	-9.49503
▁regular	-9.4953
▁please	-9.49573
▁association	-9.496
▁perfect	-9.49614
▁republic	-9.49749
▁passage	-9.49782
▁pre	-9.49793
▁working	-9.49817
▁leaves	-9.49824
▁ordered	-9.49869
▁oxonienses	-9.49878
▁railway	-9.49968
▁killed	-9.4999
▁cast	-9.50069
▁continue	-9.50091
▁sign	-9.50159
▁louis	-9.50165
▁results	-9.50211
▁removed	-9.50393
▁rock	-9.50557
▁progress	-9.50619
▁connection	-9.50752
▁throughout	-9.50928
▁importance	-9.50964
▁assembled	-9.51082
▁stage	-9.51082
▁upper	-9.51104
re	-9.51227
▁proved	-9.5127
▁lieu	-9.51337
▁convention	-9.51432
▁eastern	-9.5152
▁didn	-9.51562
▁exceed	-9.51813
▁widow	-9.51834
▁difficult	-9.51869
▁appropriation	-9.51975
▁rise	-9.52143
▁grand	-9.52159
▁statement	-9.52213
▁amendments	-9.52218
▁sub	-9.52234
▁relation	-9.52267
▁clerk	-9.523
▁delivered	-9.5232
▁contrary	-9.5235
▁fish	-9.5246
▁current	-9.5249
▁hardly	-9.52576
▁hence	-9.52668
▁level	-9.52796
▁proceedings	-9.52905
▁fully	-9.52975
▁broad	-9.52996
▁produce	-9.53086
▁exercise	-9.53103
▁movement	-9.53143
▁statute	-9.5319
▁contained	-9.5335
▁prepared	-9.53446
▁attempt	-9.53484
▁moved	-9.53671
ia	-9.53689
▁carrying	-9.53781
▁observed	-9.53866
▁compensation	-9.53867
▁emperor	-9.5395
▁somewhat	-9.53982
▁theory	-9.54108
▁africa	-9.5414
▁expression	-9.5431
▁active	-9.5447
▁bird	-9.5474
▁liberty	-9.54839
▁club	-9.54903
▁gods	-9.54976
▁allow	-9.55098
▁wrong	-9.55144
▁adopted	-9.55306
▁speech	-9.55369
▁appeal	-9.55543
▁germany	-9.55653
▁count	-9.55653
▁boat	-9.55666
▁separate	-9.55806
▁try	-9.55911
▁sleep	-9.55932
▁sold	-9.55985
▁cities	-9.56018
▁add	-9.56051
▁tom	-9.56097
▁seat	-9.56166
▁elizabeth	-9.56309
▁difference	-9.56324
▁oil	-9.56373
▁entire	-9.56414
▁naval	-9.56444
▁pope	-9.56467
▁leaving	-9.56532
▁interesting	-9.56664
▁britain	-9.56835
▁efforts	-9.56852
▁california	-9.56855
▁francis	-9.56874
▁easy	-9.57277
▁circuit	-9.57314
▁bay	-9.57399
▁appropriations	-9.57427
▁usual	-9.57555
▁gathered	-9.57612
▁secret	-9.57619
eth	-9.57674
▁crown	-9.57752
▁minutes	-9.57761
▁simply	-9.57857
▁pretty	-9.57927
▁easily	-9.57997
▁highest	-9.58113
▁instance	-9.58143
▁animal	-9.58145
▁picture	-9.58243
▁doctrine	-9.58355
▁arthur	-9.58454
▁waters	-9.58458
▁prevent	-9.58611
▁david	-9.58783
▁tho	-9.58827
▁independent	-9.58848
▁institution	-9.58877
▁vessels	-9.58933
▁send	-9.59111
▁soldiers	-9.59115
▁regarded	-9.59127
▁chap	-9.59168
▁actual	-9.59241
▁garden	-9.59308
▁park	-9.59336
▁majority	-9.59392
▁italy	-9.59415
▁previous	-9.59432
▁benefit	-9.59652
▁stay	-9.59887
▁accounts	-9.59896
▁branch	-9.59914
▁receiving	-9.6001
▁agreed	-9.60131
▁chinese	-9.60131
▁animals	-9.60292
▁vice	-9.60376
c	-9.60445
▁type	-9.60466
▁succeeded	-9.60596
▁subjects	-9.60624
▁israel	-9.6064
▁takes	-9.60672
▁educational	-9.60681
▁frequently	-9.60695
▁practical	-9.607
▁sweet	-9.60739
▁press	-9.60813
▁fresh	-9.60902
▁gentleman	-9.60992
▁plaintiff	-9.61004
▁arrived	-9.61124
▁divided	-9.61125
▁holding	-9.61213
▁students	-9.61215
▁sixty	-9.61313
▁police	-9.61371
▁reign	-9.61394
▁priest	-9.61459
▁speaking	-9.61683
▁kings	-9.61704
▁happened	-9.62032
▁ment	-9.62122
▁wise	-9.62133
▁les	-9.62169
▁require	-9.62181
▁saint	-9.62242
▁av	-9.62451
na	-9.62553
k	-9.62614
▁poet	-9.62724
▁dry	-9.62743
▁safety	-9.62873
▁step	-9.62889
▁showed	-9.62894
▁colonel	-9.63146
▁bonds	-9.63272
▁student	-9.63278
▁fight	-9.63301
▁energy	-9.63338
▁buildings	-9.63457
▁ws	-9.63464
▁di	-9.63494
▁estate	-9.63627
▁management	-9.63662
▁mar	-9.63776
▁distinguished	-9.6382
▁opportunity	-9.63858
▁visit	-9.63867
▁chance	-9.64001
▁danger	-9.64085
▁thoughts	-9.64091
▁sides	-9.64096
▁treatment	-9.64159
▁proposed	-9.64191
▁drew	-9.64249
▁changed	-9.6428
▁joy	-9.64433
▁share	-9.64495
▁der	-9.64663
▁reports	-9.64841
▁sacred	-9.64883
▁particularly	-9.64888
▁yellow	-9.64954
▁troops	-9.6496
▁edited	-9.6506
▁famous	-9.65083
▁measure	-9.65089
▁eat	-9.65106
▁china	-9.65148
▁bodies	-9.65184
▁russian	-9.65219
▁collected	-9.65224
▁scientific	-9.65232
▁sentence	-9.65252
▁reading	-9.65284
▁car	-9.65356
▁glory	-9.65411
▁limited	-9.65458
▁printed	-9.65474
▁discovered	-9.65553
▁birth	-9.65594
▁copy	-9.65597
▁guard	-9.65738
▁serious	-9.65781
▁sought	-9.65954
▁research	-9.65982
▁existing	-9.6608
▁believed	-9.66092
▁window	-9.66102
▁golden	-9.66135
▁weight	-9.6621
▁vessel	-9.66253
▁request	-9.66272
▁eighteen	-9.6629
▁literary	-9.66298
▁production	-9.66537
▁methods	-9.66975
▁seeing	-9.66985
▁contains	-9.66998
▁understood	-9.67064
▁range	-9.67086
▁connected	-9.67121
▁hot	-9.67122
▁trouble	-9.67132
▁na	-9.67158
▁glass	-9.67226
▁chair	-9.67256
▁news	-9.67389
▁housing	-9.67425
▁agencies	-9.6756
▁daily	-9.67684
▁passing	-9.67743
▁solid	-9.67782
▁ideas	-9.67812
▁economic	-9.67823
▁encyclopedia	-9.67837
▁physical	-9.67863
▁clause	-9.67884
▁reach	-9.67888
▁facilities	-9.67888
▁base	-9.67966
▁ways	-9.67981
▁counsel	-9.68012
▁leading	-9.68043
▁clearly	-9.68052
▁records	-9.6816
▁represented	-9.68274
▁lying	-9.68325
▁institutions	-9.68581
▁struck	-9.6859
ic	-9.68623
▁write	-9.68742
▁spent	-9.68781
▁quarter	-9.68808
▁attorney	-9.68817
▁occupied	-9.68824
▁excellent	-9.6903
▁market	-9.69053
▁likely	-9.6906
▁navy	-9.69063
▁lies	-9.69076
▁walls	-9.69145
▁pieces	-9.69373
▁journey	-9.69378
▁spiritual	-9.69396
ton	-9.69435
▁fort	-9.69596
▁criminal	-9.69756
▁notwithstanding	-9.69768
▁wine	-9.69989
▁silence	-9.69992
▁memory	-9.70085
▁reasonable	-9.70146
▁inhabitants	-9.70183
▁started	-9.70328
▁goes	-9.70332
▁alexander	-9.70429
▁caught	-9.70432
▁expected	-9.70456
▁effects	-9.705
▁foundation	-9.70532
▁bright	-9.70701
▁knows	-9.70762
▁russia	-9.70817
▁establishment	-9.70932
▁ne	-9.70991
▁beside	-9.71011
▁resolution	-9.71037
▁situation	-9.71089
▁lips	-9.71148
▁establish	-9.71154
▁rank	-9.71196
▁plants	-9.712
▁glad	-9.71257
▁becomes	-9.71295
▁hills	-9.71408
▁authorities	-9.71419
▁costs	-9.71485
▁jews	-9.7149
▁director	-9.71577
▁revenue	-9.71627
▁noble	-9.71636
▁es	-9.71759
▁containing	-9.71846
▁financial	-9.7187
▁accepted	-9.72122
▁xi	-9.7226
▁meant	-9.7236
▁martin	-9.72442
▁height	-9.72507
▁transfer	-9.72604
▁thinking	-9.72683
▁rd	-9.72714
▁concerned	-9.72729
▁female	-9.72736
▁difficulty	-9.72753
▁maintenance	-9.72792
▁game	-9.72806
▁whereas	-9.7284
▁products	-9.72915
▁consent	-9.73033
▁hospital	-9.73139
▁remarkable	-9.73147
▁vote	-9.73285
▁marked	-9.73311
▁wisdom	-9.73337
▁brief	-9.73373
▁fifth	-9.73425
▁stream	-9.73492
▁transportation	-9.73555
▁thence	-9.73557
▁writings	-9.73637
▁requirements	-9.73644
▁farm	-9.73743
▁insurance	-9.73843
▁agent	-9.73856
▁flowers	-9.73872
▁opposite	-9.73944
▁walk	-9.73972
▁false	-9.73998
▁prove	-9.74052
▁net	-9.74204
▁income	-9.7423
▁stop	-9.74231
▁hearing	-9.74312
▁exchange	-9.74317
▁chiefly	-9.74327
▁sit	-9.74412
▁corner	-9.7461
▁numbers	-9.74627
▁greatly	-9.74678
▁centre	-9.74745
▁decree	-9.74844
▁pure	-9.74879
▁grew	-9.74994
▁clock	-9.75006
▁fields	-9.75008
▁objects	-9.75042
▁refused	-9.75143
▁drink	-9.75181
▁belief	-9.75365
▁loan	-9.75427
▁opening	-9.75466
▁offer	-9.75507
▁province	-9.75553
▁settlement	-9.75582
▁au	-9.75607
▁spanish	-9.75685
▁minor	-9.75726
▁rep	-9.75766
▁shows	-9.75829
▁ourselves	-9.75881
▁standard	-9.75905
▁spain	-9.75915
▁constitutional	-9.75968
▁banks	-9.75973
▁shore	-9.76064
▁actually	-9.76086
▁plant	-9.76168
▁obtain	-9.76471
▁running	-9.7648
▁supply	-9.76525
▁design	-9.76711
▁prescribed	-9.7674
▁lot	-9.76832
▁peculiar	-9.76833
▁amounts	-9.76952
▁legislature	-9.77048
▁events	-9.77113
▁song	-9.77296
▁steps	-9.7731
ie	-9.77373
▁attack	-9.77455
▁learn	-9.77459
▁joint	-9.7747
▁travel	-9.77474
▁assistant	-9.77486
▁cents	-9.77547
▁sitting	-9.7765
▁wikimedia	-9.77661
▁slowly	-9.77707
▁commercial	-9.77719
▁quality	-9.77747
▁larger	-9.77818
▁scotland	-9.7789
▁permanent	-9.77977
▁pain	-9.78056
▁te	-9.78057
▁writer	-9.78091
▁survey	-9.78122
▁closed	-9.78157
▁employment	-9.78196
▁wealth	-9.78227
▁superior	-9.78278
▁snow	-9.78379
▁oregon	-9.78413
▁region	-9.78441
▁roll	-9.78466
▁fathers	-9.78497
▁rendered	-9.78546
▁equally	-9.78609
▁sections	-9.78635
▁families	-9.78637
▁male	-9.7864
▁understanding	-9.78655
▁shot	-9.78709
▁signed	-9.78819
▁projects	-9.78831
▁van	-9.78941
▁salt	-9.78995
▁ships	-9.79083
▁ah	-9.79147
▁floor	-9.79261
▁broke	-9.79279
▁actions	-9.79346
▁spoken	-9.79347
▁scene	-9.79381
▁included	-9.79398
ch	-9.7943
▁tribes	-9.795
▁formerly	-9.79548
▁translation	-9.7964
▁egypt	-9.79665
▁getting	-9.79718
▁exist	-9.79765
▁loved	-9.79846
▁advance	-9.79851
▁recent	-9.79861
▁introduced	-9.79881
▁proof	-9.79952
▁argument	-9.80057
▁growth	-9.80061
▁judicial	-9.80118
▁measures	-9.80206
▁boston	-9.80256
▁ocean	-9.80399
▁heads	-9.80486
▁cap	-9.80494
▁expressed	-9.80505
▁tis	-9.80507
▁pacific	-9.8055
▁acquired	-9.80659
▁determine	-9.80723
▁sky	-9.80728
▁european	-9.808
▁domestic	-9.80901
▁magazine	-9.80904
▁seek	-9.8092
▁revolution	-9.81054
▁needs	-9.81088
▁heat	-9.81091
▁straight	-9.81119
▁break	-9.8129
▁servants	-9.81292
▁infantry	-9.81347
▁favour	-9.81373
▁earlier	-9.81385
▁stopped	-9.8145
▁owner	-9.81547
▁grave	-9.81639
▁buried	-9.81677
▁churches	-9.81771
▁legislative	-9.81825
▁capt	-9.81885
▁sand	-9.82027
▁crime	-9.82197
▁advantage	-9.82295
▁joined	-9.82392
▁stands	-9.82462
▁train	-9.82524
▁scarcely	-9.82549
▁apparently	-9.82588
▁flesh	-9.82726
▁materials	-9.82763
▁welcome	-9.83065
▁bearing	-9.83102
▁mission	-9.83105
▁afraid	-9.83111
▁servant	-9.83176
▁adding	-9.83183
▁composed	-9.83207
▁employees	-9.83243
▁wait	-9.83266
▁wholly	-9.83274
▁bit	-9.83292
▁narrow	-9.83393
▁grey	-9.83404
▁useful	-9.83512
▁classes	-9.83548
▁treated	-9.83584
▁colour	-9.83661
▁palace	-9.83689
▁promise	-9.83734
▁administrative	-9.83776
▁parents	-9.83813
▁safe	-9.83817
▁valign	-9.83898
▁prayer	-9.84107
▁event	-9.84118
▁walked	-9.84154
▁pr	-9.84202
▁applicable	-9.84232
▁fit	-9.84235
▁determination	-9.84238
▁move	-9.84266
▁debt	-9.84271
▁effort	-9.84329
▁von	-9.84358
▁situated	-9.84479
▁double	-9.84481
▁majesty	-9.8463
or	-9.84634
▁commissioner	-9.84654
▁fame	-9.847
▁reasons	-9.84713
▁documents	-9.84735
▁spread	-9.84779
▁cry	-9.84822
▁intelligence	-9.8487
▁dog	-9.84877
as	-9.84888
▁taught	-9.84907
▁worship	-9.8492
▁extended	-9.85022
▁express	-9.85026
▁watch	-9.85077
▁begin	-9.85202
▁failed	-9.8527
▁industry	-9.85273
▁features	-9.85285
▁partly	-9.85342
▁ice	-9.85507
▁moon	-9.85523
▁operations	-9.85527
▁accept	-9.85609
▁sword	-9.85673
▁soft	-9.858
▁quickly	-9.8582
▁mile	-9.85888
▁quiet	-9.85899
▁darkness	-9.85941
▁subparagraph	-9.85963
▁prb	-9.86028
▁jury	-9.8608
▁fruit	-9.86088
▁moses	-9.86114
est	-9.86184
▁escape	-9.86281
able	-9.86301
▁enactment	-9.86306
▁girls	-9.86404
▁ones	-9.86489
▁witness	-9.86586
▁consequence	-9.86617
▁destroyed	-9.86693
▁soil	-9.86748
▁developed	-9.86849
▁advanced	-9.86864
▁drawing	-9.86877
▁interested	-9.86944
▁yourself	-9.86951
▁bread	-9.86979
▁reply	-9.87001
▁wonder	-9.87057
▁finding	-9.87103
▁conclusion	-9.87119
▁preceding	-9.87171
▁agricultural	-9.87388
▁priests	-9.87399
▁branches	-9.87429
▁defined	-9.87459
▁spot	-9.87473
ley	-9.87473
st	-9.87534
▁ng	-9.87544
▁valuable	-9.87562
▁sacrifice	-9.87637
▁recognized	-9.87656
▁independence	-9.87671
▁secure	-9.87673
▁file	-9.87719
▁necessity	-9.87766
▁vast	-9.87788
▁seal	-9.87788
▁introduction	-9.87814
▁sick	-9.87832
▁ohio	-9.8784
▁samuel	-9.87862
▁activity	-9.87992
▁judges	-9.88109
▁ib	-9.88254
▁li	-9.88309
▁poetry	-9.88435
▁beneath	-9.88462
▁fast	-9.88582
▁derived	-9.88597
▁performance	-9.88641
▁internal	-9.88682
▁associated	-9.88795
ne	-9.88951
▁patent	-9.88955
▁average	-9.88987
▁touch	-9.89046
▁grants	-9.89052
▁analysis	-9.89132
▁rates	-9.89174
▁guide	-9.89202
▁terrible	-9.8926
▁pa	-9.89284
▁benefits	-9.89407
▁baron	-9.89436
▁acting	-9.89485
▁aside	-9.89609
▁causes	-9.89612
▁committed	-9.89743
▁armed	-9.89787
▁figures	-9.89882
▁mount	-9.89889
▁views	-9.90013
▁payments	-9.90016
▁moreover	-9.90045
▁cover	-9.90078
▁permitted	-9.90357
▁gate	-9.90394
▁curious	-9.90458
▁si	-9.90466
▁ha	-9.90525
▁ear	-9.90624
▁smile	-9.90645
▁imperial	-9.90766
▁proclamation	-9.90802
▁kinds	-9.90818
▁possessed	-9.90839
▁dream	-9.90849
▁firm	-9.90852
▁unknown	-9.90907
▁demand	-9.90917
▁lo	-9.90969
▁labour	-9.91056
▁maintain	-9.9108
▁older	-9.91097
▁accordingly	-9.91099
▁queries	-9.91169
▁ms	-9.91193
▁absence	-9.91265
▁minute	-9.91287
▁punishment	-9.91294
of	-9.91413
▁forced	-9.91526
▁draw	-9.91654
▁writers	-9.91774
▁rising	-9.91803
▁wales	-9.91835
▁tr	-9.91892
▁charged	-9.91948
▁elements	-9.92034
▁waiting	-9.92132
▁philip	-9.92186
▁vain	-9.92187
▁bible	-9.92252
▁bell	-9.92295
▁behold	-9.92433
▁distinct	-9.92442
▁weather	-9.92453
▁enemies	-9.92516
▁silent	-9.9252
▁uncle	-9.92558
▁commissioners	-9.92597
▁quantity	-9.92615
▁transferred	-9.92615
▁mention	-9.92794
le	-9.92928
▁involved	-9.92955
▁grass	-9.92967
▁color	-9.9298
▁il	-9.9302
▁exactly	-9.9313
▁limits	-9.93237
▁pleasant	-9.93343
▁seventy	-9.93351
▁parish	-9.93402
▁worthy	-9.93411
▁attached	-9.9342
▁custom	-9.93444
▁testimony	-9.93512
▁cattle	-9.9358
▁worked	-9.93611
▁enjoy	-9.93663
▁specified	-9.9368
▁hast	-9.93694
▁frank	-9.93776
▁tribe	-9.93779
▁dinner	-9.93817
▁sake	-9.93854
▁agriculture	-9.93948
▁happiness	-9.93981
▁season	-9.93989
▁filed	-9.94001
▁wished	-9.94009
▁thin	-9.94033
▁turning	-9.94105
▁perfectly	-9.94126
▁pointed	-9.94145
▁agree	-9.94159
▁corps	-9.94188
▁mental	-9.94199
▁im	-9.94199
▁australia	-9.94211
▁whilst	-9.94216
▁dis	-9.94373
▁honor	-9.94401
▁contracts	-9.94436
▁woods	-9.94505
▁souls	-9.94507
▁powerful	-9.94549
▁devoted	-9.94566
▁explained	-9.94619
▁tears	-9.94628
▁altogether	-9.94655
▁problem	-9.94761
▁dress	-9.9479
▁flight	-9.94796
▁repeated	-9.94844
▁warm	-9.95072
▁fortune	-9.95073
▁execution	-9.95105
▁italian	-9.95146
ian	-9.95149
▁twice	-9.95197
▁kill	-9.95247
▁px	-9.95359
ar	-9.95425
▁slave	-9.95461
▁corn	-9.95562
▁eligible	-9.95606
▁needed	-9.95732
▁reduced	-9.9583
▁offices	-9.95831
▁performed	-9.95879
▁chosen	-9.95892
▁everywhere	-9.95983
▁fifteen	-9.96007
f	-9.9601
▁carefully	-9.96107
▁resources	-9.96178
▁disease	-9.9619
▁blessed	-9.96196
▁staff	-9.96211
▁accompanied	-9.96256
▁extraordinary	-9.96257
▁entry	-9.96284
▁reserve	-9.96369
▁start	-9.96371
▁box	-9.96542
▁fee	-9.9656
▁streets	-9.9662
▁test	-9.96648
▁spirits	-9.96713
▁discovery	-9.96724
▁neck	-9.96824
▁brothers	-9.96837
▁mercy	-9.96949
▁properly	-9.96985
▁citizen	-9.97056
▁therein	-9.9711
▁taxes	-9.97117
▁texas	-9.97154
▁highly	-9.97199
▁ages	-9.97206
▁grounds	-9.97214
▁sam	-9.9723
▁arts	-9.97257
▁sheep	-9.9726
▁proportion	-9.97343
▁gov	-9.97369
▁sudden	-9.97467
▁ti	-9.97552
▁appointment	-9.97585
▁learning	-9.97587
▁chamber	-9.97621
▁session	-9.97645
▁path	-9.97665
▁folk	-9.97687
▁earliest	-9.97781
▁sixth	-9.97783
▁grow	-9.97788
▁examination	-9.97795
▁belonging	-9.97799
▁towns	-9.97813
▁nevertheless	-9.97814
▁hat	-9.97838
▁acres	-9.9787
▁copyright	-9.98029
▁edge	-9.98185
▁growing	-9.98276
▁index	-9.98349
▁scott	-9.98366
▁universal	-9.98463
▁thick	-9.98629
▁shalt	-9.98635
▁weeks	-9.98694
▁rain	-9.98731
▁correct	-9.98772
▁naturally	-9.98799
▁voyage	-9.9889
▁deemed	-9.98915
▁ring	-9.98948
▁occurred	-9.99043
▁technical	-9.99155
▁deed	-9.99202
▁pride	-9.99202
▁commanded	-9.99231
▁failure	-9.99239
▁museum	-9.99277
▁familiar	-9.99288
▁afternoon	-9.99347
▁possibly	-9.99432
▁essays	-9.99448
▁successful	-9.9948
▁designated	-9.99518
▁distant	-9.9972
▁suggested	-9.99734
os	-9.99833
▁prison	-9.99881
▁grammar	-9.9991
▁fallen	-9.99921
▁cotton	-9.99954
▁mo	-9.99976
▁distribution	-9.99977
▁whence	-9.99995
▁defence	-10.0005
▁conversation	-10.0021
▁exception	-10.0024
▁vols	-10.0029
▁thank	-10.0032
▁customs	-10.0032
▁capacity	-10.0032
▁evidently	-10.0038
▁content	-10.005
▁thrown	-10.0053
▁inter	-10.0054
▁volunteer	-10.0062
▁bond	-10.0085
▁search	-10.009
▁amongst	-10.0092
▁confidence	-10.0096
▁surely	-10.0101
▁bureau	-10.0106
▁substance	-10.0117
▁equipment	-10.0117
▁stones	-10.012
▁completely	-10.0134
▁jewish	-10.0144
▁plate	-10.0155
▁passion	-10.0167
▁advice	-10.0169
▁finished	-10.0174
▁bulk	-10.0179
▁submitted	-10.018
▁characters	-10.0197
▁sing	-10.0197
▁academy	-10.0209
▁desired	-10.0218
▁del	-10.0223
▁anne	-10.0226
▁instruction	-10.0236
▁hearts	-10.024
▁stars	-10.0242
▁asia	-10.0244
▁consists	-10.0248
▁affected	-10.0252
▁adams	-10.0255
▁meat	-10.0261
▁gas	-10.0266
▁spite	-10.0273
▁immediate	-10.0276
▁trying	-10.0293
▁publication	-10.0303
▁tower	-10.0308
▁petition	-10.0311
▁wit	-10.0315
▁whenever	-10.0317
▁subsequent	-10.032
rs	-10.0322
▁gun	-10.0322
▁belong	-10.0326
▁obliged	-10.0327
▁data	-10.0339
g	-10.0343
▁site	-10.0345
▁obligation	-10.0352
▁grown	-10.0355
▁played	-10.036
▁coal	-10.0363
▁medicine	-10.0367
▁favor	-10.0369
▁shape	-10.0374
▁ears	-10.0389
▁legislation	-10.0393
▁contributor	-10.0404
▁structure	-10.0404
▁charges	-10.0406
▁specific	-10.0407
▁submit	-10.0408
▁regarding	-10.0408
▁approval	-10.0411
▁sell	-10.0413
▁ball	-10.0418
▁pleased	-10.0423
▁ou	-10.0425
▁suffered	-10.0426
▁bishops	-10.0428
▁representative	-10.0445
▁taste	-10.0452
▁limitations	-10.046
▁celebrated	-10.0464
▁tongue	-10.0467
▁gentlemen	-10.0472
▁tale	-10.0486
▁wonderful	-10.0489
▁choice	-10.0493
▁margaret	-10.0497
▁approach	-10.05
▁key	-10.0501
▁ending	-10.0507
▁conducted	-10.051
▁functions	-10.0524
▁expedition	-10.0527
▁preserved	-10.0533
▁laughed	-10.0534
▁completed	-10.0534
▁faithful	-10.0536
▁op	-10.054
▁missouri	-10.055
▁plays	-10.0554
it	-10.0555
▁unable	-10.0555
▁struggle	-10.0557
▁reserved	-10.0565
▁tone	-10.0577
▁cloth	-10.0578
▁task	-10.0585
▁ladies	-10.0592
▁constant	-10.0593
▁pale	-10.0598
▁clothes	-10.0601
▁pray	-10.0604
▁tools	-10.061
▁bt	-10.0613
▁editor	-10.062
▁jones	-10.0622
▁sharp	-10.0623
▁opposition	-10.0625
▁sorry	-10.0634
▁soldier	-10.0641
▁gray	-10.0651
▁administrator	-10.066
▁swift	-10.0661
▁smaller	-10.068
▁americans	-10.069
▁eighth	-10.0694
▁bore	-10.0697
▁assigned	-10.0706
▁furnished	-10.0708
▁showing	-10.071
▁keeping	-10.0715
▁courage	-10.0717
▁pennsylvania	-10.0728
▁gradually	-10.0733
▁reader	-10.0733
▁testament	-10.0752
▁margin	-10.0753
▁sugar	-10.0765
▁governments	-10.0766
▁apart	-10.0773
▁breath	-10.0773
▁improvement	-10.0776
▁transactions	-10.0782
▁percent	-10.0782
▁weak	-10.0783
▁canal	-10.0784
▁proceeded	-10.0786
j	-10.0793
▁machine	-10.0797
▁worse	-10.0802
▁visited	-10.0804
▁choose	-10.0805
▁districts	-10.0806
▁join	-10.081
▁knowing	-10.0812
▁desert	-10.0812
▁destruction	-10.0813
▁owing	-10.0819
▁satisfied	-10.0829
▁relative	-10.0831
▁pounds	-10.0831
▁saints	-10.0832
▁maintained	-10.0833
▁resource	-10.0841
▁nights	-10.0844
▁previously	-10.0857
▁instrument	-10.0857
▁fate	-10.0858
▁waste	-10.0862
▁shadow	-10.0863
▁inquiry	-10.0867
▁sa	-10.0869
▁closely	-10.0869
▁expect	-10.0875
▁regulation	-10.0877
▁image	-10.0877
▁pt	-10.0882
▁manual	-10.0883
▁matthew	-10.0889
▁teeth	-10.0896
▁ft	-10.0906
▁moving	-10.0907
▁teaching	-10.0911
▁access	-10.0921
▁opinions	-10.0924
▁devil	-10.0925
▁capable	-10.0927
▁rivers	-10.0927
▁quick	-10.0927
▁lewis	-10.0937
▁mighty	-10.0939
▁permit	-10.094
▁cf	-10.0944
▁signs	-10.0945
▁distinction	-10.0947
▁plans	-10.0947
▁cook	-10.0947
▁essential	-10.0956
▁intention	-10.0963
▁truly	-10.0965
▁observe	-10.0968
▁translated	-10.0974
▁register	-10.0978
▁alive	-10.098
▁violence	-10.0981
▁skin	-10.0981
▁wounded	-10.0987
▁gospel	-10.0988
▁esq	-10.0991
▁behalf	-10.0997
▁assumed	-10.1015
ta	-10.1018
▁noticed	-10.1029
▁promised	-10.1037
▁eternal	-10.1041
▁guilty	-10.1045
▁bag	-10.1048
▁absolute	-10.1053
▁product	-10.1062
men	-10.1065
▁creation	-10.1066
▁admit	-10.1087
▁po	-10.1092
▁blind	-10.1093
▁historic	-10.11
▁thanks	-10.1105
▁studied	-10.1108
▁protect	-10.1111
▁star	-10.1119
▁instant	-10.112
▁looks	-10.1141
▁presently	-10.115
▁million	-10.115
▁remaining	-10.1159
▁rocks	-10.1162
▁claimed	-10.117
▁band	-10.1171
▁pen	-10.1173
▁originally	-10.1181
▁aforesaid	-10.1185
▁falls	-10.1191
▁addressed	-10.1191
▁reform	-10.1205
▁ni	-10.1207
▁diocese	-10.1218
▁mi	-10.123
▁root	-10.1232
▁farther	-10.1233
▁noted	-10.124
▁retired	-10.1241
▁eighty	-10.1249
▁perform	-10.1268
▁contain	-10.1271
to	-10.1275
▁volumes	-10.1285
▁institute	-10.1288
▁pan	-10.129
▁taylor	-10.1291
▁fo	-10.1291
▁imposed	-10.1298
▁driven	-10.1307
▁jerusalem	-10.1309
▁abroad	-10.1315
▁resolved	-10.1318
▁da	-10.1326
▁cat	-10.1327
▁seized	-10.1331
▁frederick	-10.1339
▁calling	-10.134
▁providing	-10.1341
▁responsible	-10.1349
▁personnel	-10.135
ism	-10.1358
▁details	-10.1366
▁seventh	-10.1369
▁circle	-10.137
▁feelings	-10.1371
▁holds	-10.138
v	-10.1381
▁log	-10.1385
▁johnson	-10.1392
▁gain	-10.1392
▁ends	-10.1395
▁assist	-10.1402
▁pictures	-10.1406
▁defendants	-10.1413
▁slaves	-10.1414
▁fashion	-10.1423
▁dangerous	-10.1441
▁centuries	-10.1452
▁requires	-10.1464
▁expended	-10.1465
▁excess	-10.1465
▁marshall	-10.1473
▁minds	-10.1475
▁catalogue	-10.148
▁likewise	-10.1494
▁tall	-10.1495
▁lights	-10.1502
▁extreme	-10.1504
▁supported	-10.1519
ra	-10.152
▁afo	-10.1529
▁satisfaction	-10.1531
▁mode	-10.1532
▁sources	-10.154
▁groups	-10.1544
info	-10.1551
▁illinois	-10.156
am	-10.1569
p	-10.1572
▁authorization	-10.1572
▁explain	-10.1576
▁erected	-10.1578
▁habit	-10.158
▁edit	-10.1581
▁reported	-10.1588
▁pages	-10.1595
▁creek	-10.1605
▁quarterly	-10.1614
▁viz	-10.1618
▁quarters	-10.1621
▁clay	-10.1621
▁archbishop	-10.1628
▁iowa	-10.1631
▁cathedral	-10.1635
▁japanese	-10.1635
▁delight	-10.1636
▁inside	-10.1639
▁subsequently	-10.1642
▁brain	-10.1645
▁hi	-10.1646
▁proofreaders	-10.1648
▁tea	-10.1654
▁arrangement	-10.1656
▁begun	-10.1659
▁liable	-10.1674
▁faces	-10.1674
▁decide	-10.1676
▁verse	-10.169
▁shell	-10.1693
▁variety	-10.1702
▁compelled	-10.1707
▁executed	-10.1708
▁probable	-10.1719
▁clean	-10.172
▁evident	-10.1721
▁austria	-10.1724
▁build	-10.1725
et	-10.1727
▁ph	-10.1735
▁largely	-10.1736
▁michael	-10.1736
▁aunt	-10.174
▁restored	-10.1747
▁victory	-10.1747
▁dozen	-10.1755
▁contents	-10.1756
▁career	-10.1758
▁prisoners	-10.1763
▁crowd	-10.1765
▁gained	-10.1766
▁threw	-10.1771
▁forget	-10.1771
▁companion	-10.1773
▁fleet	-10.1776
▁namely	-10.1778
▁appeals	-10.1779
▁pl	-10.1779
▁lee	-10.1781
▁proceed	-10.1784
▁household	-10.1785
▁fill	-10.1786
▁possess	-10.1786
▁lose	-10.179
▁becoming	-10.1798
b	-10.1798
▁ceased	-10.1816
▁degrees	-10.1817
▁dublin	-10.1817
▁educated	-10.1818
▁job	-10.1818
▁occur	-10.1819
▁bull	-10.182
▁declaration	-10.1833
▁explanation	-10.1839
▁areas	-10.184
▁located	-10.1844
▁supplies	-10.1848
▁avoid	-10.1848
▁proceeding	-10.1851
▁abraham	-10.1851
▁marry	-10.1858
▁discussion	-10.186
▁absolutely	-10.1863
▁route	-10.1873
▁friendship	-10.1874
▁poem	-10.1876
▁fought	-10.1877
▁informed	-10.1879
▁economy	-10.1882
▁vision	-10.1883
▁jackson	-10.189
▁raise	-10.1894
▁investigation	-10.1895
at	-10.1897
▁pair	-10.1906
▁ts	-10.1914
▁exclaimed	-10.1916
▁cambridge	-10.1921
▁remembered	-10.1921
me	-10.1921
▁canada	-10.1925
▁natives	-10.1927
▁denied	-10.1929
▁sad	-10.193
▁charter	-10.1931
▁shut	-10.1941
▁standards	-10.1941
▁cal	-10.1942
▁rare	-10.195
▁blow	-10.1961
▁elsewhere	-10.1972
▁flag	-10.1981
▁sunday	-10.1982
▁counties	-10.2012
▁calls	-10.2015
▁crossed	-10.2027
▁rapidly	-10.2031
▁suffer	-10.2041
▁includes	-10.2048
▁fail	-10.2054
▁inner	-10.2058
▁brethren	-10.2064
▁edinburgh	-10.2064
▁organizations	-10.2065
▁storm	-10.2066
ii	-10.2067
▁romans	-10.208
▁plaintiffs	-10.2084
▁owned	-10.2085
▁forgotten	-10.2095
▁bow	-10.2095
▁provinces	-10.2098
▁seed	-10.2098
▁exceeding	-10.2109
▁organized	-10.2113
▁ante	-10.2114
▁dignity	-10.2117
▁ca	-10.2121
▁beasts	-10.2123
▁willing	-10.2127
▁dust	-10.2129
▁philadelphia	-10.2134
▁block	-10.214
▁walter	-10.2143
▁companies	-10.2143
▁thereby	-10.2147
▁extension	-10.2158
▁ability	-10.2159
▁fairy	-10.2163
▁exclusive	-10.2171
▁preservation	-10.2174
▁alleged	-10.2181
ment	-10.2184
▁limit	-10.2185
▁dropped	-10.2196
ns	-10.2199
▁midst	-10.22
▁tool	-10.2206
▁arose	-10.2206
▁praise	-10.221
▁yards	-10.2215
▁setting	-10.2222
▁birmingham	-10.2223
▁renamed	-10.2228
▁writ	-10.2229
▁val	-10.2229
▁philosophical	-10.2243
▁intellectual	-10.2248
▁chicago	-10.2254
▁enwikisource	-10.2259
▁teacher	-10.2263
▁today	-10.2266
▁yours	-10.2269
▁concluded	-10.2274
▁strike	-10.2276
▁morrow	-10.2277
▁demanded	-10.2278
z	-10.2286
▁anti	-10.2291
▁gift	-10.2295
▁attended	-10.2299
▁shakespeare	-10.2302
▁obligations	-10.2304
▁mad	-10.2304
▁arrival	-10.2305
▁slight	-10.2305
▁careful	-10.2312
▁roads	-10.2315
▁ap	-10.2324
▁flat	-10.2329
▁secured	-10.2332
▁shoulder	-10.2332
▁genius	-10.2337
▁pat	-10.2338
▁throne	-10.2338
▁talking	-10.2344
▁existed	-10.2346
▁carolina	-10.235
▁compact	-10.2351
▁honest	-10.2354
▁expense	-10.2355
▁su	-10.2361
▁represent	-10.2363
▁bringing	-10.2369
▁ecclesiastical	-10.2381
▁mill	-10.2382
▁hung	-10.2386
▁entrance	-10.2387
▁designed	-10.2397
▁saved	-10.2399
land	-10.2403
▁portrait	-10.2408
▁creature	-10.2414
▁reg	-10.2419
▁dated	-10.242
▁steel	-10.2424
▁coat	-10.243
▁render	-10.2437
▁agents	-10.2448
▁conviction	-10.245
▁industrial	-10.2457
▁authors	-10.2457
▁acted	-10.2473
▁ordinance	-10.2473
▁tions	-10.2485
▁wheat	-10.2496
▁conflict	-10.2496
▁illustrated	-10.2504
▁merchant	-10.2508
▁commander	-10.2516
ry	-10.2517
▁bills	-10.2522
▁motor	-10.2523
▁illustrations	-10.2523
▁younger	-10.2524
▁communication	-10.2528
▁selected	-10.2529
▁laugh	-10.2542
▁trinity	-10.2549
▁princess	-10.255
▁ar	-10.2552
▁daughters	-10.2552
▁massachusetts	-10.2558
▁aware	-10.2578
▁putting	-10.2588
▁eb	-10.2591
▁sums	-10.2592
▁mm	-10.2593
▁breast	-10.2593
▁clark	-10.2604
▁disposition	-10.2609
▁cape	-10.2612
▁tender	-10.2612
▁arranged	-10.2619
▁ter	-10.2624
▁frequent	-10.2629
▁recently	-10.2632
▁inc	-10.2637
▁committees	-10.264
▁fancy	-10.2647
▁jane	-10.2647
▁teachers	-10.265
▁impression	-10.2659
▁adam	-10.2665
▁injury	-10.2666
▁throw	-10.2667
▁falling	-10.267
▁ministers	-10.2674
▁cavalry	-10.2687
▁pour	-10.2688
▁pressure	-10.2688
▁proud	-10.2688
▁element	-10.269
▁leader	-10.2694
▁respectively	-10.27
▁flower	-10.2701
▁douglas	-10.2701
▁buy	-10.2701
▁songs	-10.2708
▁systems	-10.271
▁consciousness	-10.2712
▁selection	-10.2715
▁separated	-10.2719
▁privileges	-10.2724
▁burning	-10.2729
▁ii	-10.273
▁extend	-10.273
▁suffering	-10.2733
▁verses	-10.274
▁sufficiently	-10.2743
▁sess	-10.2747
▁surprise	-10.2753
▁correspondence	-10.2758
▁returning	-10.2765
▁bare	-10.277
▁empty	-10.2773
▁tract	-10.2774
▁respective	-10.2775
▁temporary	-10.2786
▁extensive	-10.2788
▁arch	-10.2792
▁cloud	-10.2793
▁map	-10.2799
▁rear	-10.2799
▁lest	-10.2802
▁african	-10.2805
▁discharge	-10.2807
▁ta	-10.2807
ti	-10.2808
▁listen	-10.281
▁skill	-10.2815
▁forming	-10.2817
▁risk	-10.2821
▁colony	-10.2825
▁copies	-10.2829
▁accident	-10.2835
▁cr	-10.2838
▁jack	-10.2852
▁greece	-10.2853
▁fingers	-10.2855
▁fees	-10.2856
▁wicked	-10.2859
▁reality	-10.2864
▁profession	-10.2866
▁document	-10.2871
▁destroy	-10.2873
▁reputation	-10.288
▁fighting	-10.288
▁sm	-10.2881
▁belonged	-10.2881
▁employee	-10.2885
▁legs	-10.2886
▁status	-10.2887
▁enable	-10.2887
▁und	-10.2894
▁campaign	-10.2894
▁imprisonment	-10.2895
▁thereto	-10.291
▁zealand	-10.2919
▁teach	-10.2921
▁sex	-10.2929
▁milk	-10.293
▁consequently	-10.2934
▁provides	-10.2936
▁necessarily	-10.2938
▁slavery	-10.2939
▁balance	-10.2953
▁budget	-10.2967
▁marks	-10.297
▁officials	-10.2973
▁severe	-10.2974
▁message	-10.2976
▁bent	-10.2983
▁suitable	-10.2983
▁qualified	-10.2986
son	-10.2992
▁rough	-10.2996
▁thereafter	-10.2997
▁unit	-10.2997
▁facility	-10.3001
▁printing	-10.3008
▁marine	-10.3012
▁lieut	-10.3015
▁scheme	-10.302
▁temperature	-10.3024
▁painted	-10.3027
▁bush	-10.3028
▁difficulties	-10.3035
▁slow	-10.3044
▁chapel	-10.3045
▁kent	-10.3046
▁constantly	-10.3053
▁sovereign	-10.3053
▁registration	-10.3053
▁granting	-10.3055
ies	-10.3059
▁manufacture	-10.3061
▁altar	-10.3064
▁lat	-10.3065
▁fly	-10.3068
▁tin	-10.3071
▁professional	-10.3078
▁commonly	-10.3078
▁eminent	-10.308
▁smoke	-10.3082
▁ho	-10.3096
▁fairly	-10.3097
▁gardens	-10.311
▁violation	-10.3111
▁ward	-10.3115
▁los	-10.3123
ity	-10.3137
▁sins	-10.3137
▁qui	-10.3138
▁prisoner	-10.3163
▁bought	-10.3166
▁stranger	-10.3171
▁boats	-10.3174
el	-10.3185
▁objection	-10.319
▁mail	-10.3196
▁external	-10.3197
▁catherine	-10.32
▁leaders	-10.3201
▁pocket	-10.3205
▁bears	-10.3208
▁res	-10.3209
▁shook	-10.3212
▁wouldn	-10.3213
▁preparation	-10.3229
▁mankind	-10.323
▁wa	-10.3232
▁qualities	-10.3234
▁negro	-10.3236
▁thousands	-10.3237
▁speed	-10.3237
▁responsibility	-10.3239
▁comfort	-10.324
▁wilson	-10.3245
▁finds	-10.3248
▁conference	-10.3249
ana	-10.3255
▁limitation	-10.3259
▁geography	-10.3259
▁lane	-10.3261
ist	-10.3273
▁knight	-10.3278
▁madame	-10.3278
▁nobody	-10.3294
▁couldn	-10.3297
▁sur	-10.3304
▁uniform	-10.3316
▁christians	-10.3324
▁hell	-10.3329
▁drug	-10.333
▁confirmed	-10.333
▁shoulders	-10.3338
▁certificate	-10.3343
▁occasionally	-10.3345
▁guns	-10.3357
▁characteristic	-10.3361
▁culture	-10.337
▁handsome	-10.3389
▁remove	-10.3393
▁conscience	-10.3393
▁happen	-10.3395
▁apparent	-10.3396
▁strongly	-10.3396
▁version	-10.3399
less	-10.3402
▁conception	-10.3404
▁jacob	-10.3404
▁void	-10.3416
▁occurs	-10.3419
▁scale	-10.342
▁ivan	-10.3421
▁tail	-10.3421
▁belongs	-10.3429
▁habits	-10.3429
▁imagination	-10.3444
▁opposed	-10.3455
▁brilliant	-10.3461
▁angel	-10.3462
▁anxious	-10.3471
▁steam	-10.3478
▁salaries	-10.3484
▁artist	-10.349
▁recorded	-10.3492
▁http	-10.3494
▁physician	-10.3505
▁murder	-10.3509
▁bones	-10.3515
▁angry	-10.352
▁decisions	-10.3524
▁maj	-10.3539
▁huge	-10.3541
▁shortly	-10.3551
▁attend	-10.3554
▁normal	-10.3554
▁chambers	-10.3562
▁biographical	-10.357
▁mississippi	-10.3575
▁mixed	-10.3581
▁commenced	-10.3583
▁tradition	-10.3588
▁license	-10.3588
▁sisters	-10.36
▁watched	-10.3602
▁anna	-10.3611
▁tells	-10.3614
▁touched	-10.3617
▁clouds	-10.3624
▁terror	-10.3626
▁ac	-10.3632
▁rector	-10.3635
▁contact	-10.3639
▁compared	-10.3644
▁politics	-10.3646
▁rent	-10.3651
▁ere	-10.3652
▁inch	-10.366
▁isn	-10.366
▁elder	-10.3668
▁thoroughly	-10.3674
▁lack	-10.3676
ville	-10.3679
▁regions	-10.368
▁affection	-10.3681
▁privilege	-10.3685
▁mistake	-10.3694
▁dressed	-10.3695
▁glance	-10.3701
▁beat	-10.3713
▁eggs	-10.3713
▁wherein	-10.3715
▁boundary	-10.3719
▁ensure	-10.3722
▁nay	-10.3725
▁climate	-10.3726
▁emergency	-10.3729
▁brave	-10.3736
▁visible	-10.376
▁smiled	-10.3761
▁wear	-10.3763
▁drive	-10.3763
▁oath	-10.3764
▁ibid	-10.3764
▁enforcement	-10.3766
▁surrounded	-10.3766
▁fed	-10.3772
▁channel	-10.3773
▁fool	-10.3774
▁remarks	-10.3774
▁eleven	-10.3776
▁practically	-10.3777
▁innocent	-10.378
by	-10.3782
▁cardinal	-10.3788
▁store	-10.379
▁exact	-10.3795
▁nicholas	-10.3797
▁exercised	-10.3806
▁issues	-10.3808
▁cell	-10.3812
▁aircraft	-10.3813
▁critical	-10.3821
▁navigation	-10.3823
▁bath	-10.3825
▁increasing	-10.3826
▁instruments	-10.3832
▁hereafter	-10.386
▁ra	-10.3862
▁daniel	-10.3867
▁bitter	-10.3869
ur	-10.3873
▁herein	-10.3885
▁ended	-10.3889
▁fat	-10.3889
▁develop	-10.3889
▁hamilton	-10.3891
▁pres	-10.3892
▁generation	-10.3893
▁patient	-10.3895
se	-10.3898
▁gentle	-10.3904
▁lion	-10.3909
ni	-10.3911
▁fault	-10.3911
▁instructions	-10.3919
▁ver	-10.3925
▁herbert	-10.393
▁slightly	-10.3937
▁agreements	-10.3937
▁rooms	-10.3938
▁violent	-10.3941
▁formation	-10.3944
▁removal	-10.3946
▁sole	-10.3946
▁drove	-10.3948
▁secondary	-10.3956
▁playing	-10.3957
▁win	-10.3958
▁acquisition	-10.3962
▁fr	-10.3973
▁traffic	-10.3976
▁mon	-10.3976
▁japan	-10.3976
▁sup	-10.3977
▁offence	-10.3978
▁cruel	-10.3985
▁workers	-10.3989
▁wants	-10.399
▁wings	-10.3991
▁exists	-10.3994
▁nice	-10.3998
▁ben	-10.4001
▁refer	-10.4009
▁composition	-10.401
▁consistent	-10.4016
▁adventure	-10.4018
▁novels	-10.4031
▁carriage	-10.4036
▁vs	-10.4036
▁repair	-10.4044
▁kid	-10.4044
▁wages	-10.4047
▁fur	-10.405
▁recognition	-10.405
▁va	-10.4053
▁host	-10.4053
▁lords	-10.4057
▁gent	-10.4061
▁masters	-10.4062
▁waited	-10.4063
▁constitute	-10.4065
▁highway	-10.4069
▁catch	-10.4071
▁fix	-10.4074
▁quot	-10.4075
▁merit	-10.4095
▁fraternity	-10.4104
▁profit	-10.4108
▁arise	-10.4112
▁friendly	-10.4124
▁attempted	-10.413
▁witnesses	-10.4131
▁registered	-10.4137
▁seeking	-10.4146
▁canon	-10.4152
▁foster	-10.4161
▁min	-10.4165
▁ya	-10.4167
▁colonies	-10.4174
▁talked	-10.4175
▁ri	-10.4187
▁silk	-10.419
▁definition	-10.4192
▁grain	-10.4192
▁civilization	-10.4193
▁succession	-10.4195
▁arising	-10.4196
▁imagine	-10.4197
▁delay	-10.4198
▁background	-10.4198
▁walking	-10.4206
▁andrew	-10.4211
▁artillery	-10.4212
▁worn	-10.4212
▁remarked	-10.4215
ion	-10.4225
▁bengal	-10.4226
▁autumn	-10.4233
▁hebrew	-10.4236
▁syria	-10.4239
▁hole	-10.4246
▁doubtless	-10.4247
▁trail	-10.4247
▁duly	-10.4248
▁dance	-10.425
ha	-10.425
▁hotel	-10.426
ine	-10.4262
▁williams	-10.4267
▁wars	-10.4272
li	-10.4274
▁reward	-10.4279
▁observations	-10.4279
▁prominent	-10.4285
▁dispute	-10.4286
▁fled	-10.4289
▁proceeds	-10.4294
em	-10.4295
▁harm	-10.4298
▁wi	-10.4304
▁louisiana	-10.4305
▁alike	-10.4307
▁nose	-10.4308
▁deeply	-10.4315
▁ghost	-10.4319
▁beast	-10.4325
▁sympathy	-10.4327
▁biographer	-10.433
▁ninety	-10.4338
fied	-10.4338
▁timber	-10.434
▁commonwealth	-10.4341
▁extremely	-10.4341
▁mortgage	-10.4344
▁georgia	-10.4349
▁municipal	-10.4354
▁benjamin	-10.4354
ius	-10.4359
▁incident	-10.4361
▁noise	-10.4364
▁panel	-10.4369
▁contributions	-10.4371
▁conscious	-10.4373
▁nicene	-10.4375
▁democratic	-10.4376
▁machinery	-10.4377
▁poets	-10.4383
▁virgin	-10.4383
▁dying	-10.4385
▁create	-10.4388
▁unfortunately	-10.4389
▁apr	-10.4395
▁jean	-10.4396
▁owners	-10.4399
▁maria	-10.4399
▁nearer	-10.4403
▁dutch	-10.441
▁creatures	-10.4413
▁loose	-10.4431
▁speaks	-10.4434
▁millions	-10.444
▁begins	-10.4441
▁accomplished	-10.4445
▁hidden	-10.4448
▁tobacco	-10.4459
▁hit	-10.4468
▁trans	-10.4468
▁problems	-10.4481
▁doors	-10.4482
▁cu	-10.4483
▁lifted	-10.449
▁newspaper	-10.4491
▁automated	-10.4493
▁liability	-10.4499
▁supplied	-10.4504
▁taxation	-10.4505
▁concern	-10.4513
▁procedure	-10.4513
io	-10.4514
▁gates	-10.4516
▁conquest	-10.4525
▁dogs	-10.4533
▁centum	-10.4535
▁cave	-10.4536
x	-10.4538
▁outer	-10.4539
▁disposed	-10.454
▁hide	-10.4547
▁hurt	-10.455
▁berlin	-10.4551
▁cited	-10.4553
▁hopes	-10.4559
▁lit	-10.4564
▁flying	-10.4565
▁enjoyed	-10.4567
▁serving	-10.4569
▁novel	-10.4574
▁hitherto	-10.4577
▁bold	-10.458
▁webm	-10.4581
▁affect	-10.4591
▁resident	-10.4592
▁examined	-10.4592
▁equivalent	-10.4592
▁fox	-10.4593
▁loans	-10.4594
▁primary	-10.4594
▁abbey	-10.4598
▁vested	-10.4601
▁confusion	-10.4611
▁schedule	-10.4612
▁escaped	-10.4612
ham	-10.4614
▁confined	-10.4618
▁shop	-10.4622
▁ot	-10.4623
▁clergy	-10.4627
▁largest	-10.4629
▁mutual	-10.4631
▁anger	-10.4634
▁precious	-10.4639
▁instances	-10.4644
▁ab	-10.4645
▁liberal	-10.4647
▁atlantic	-10.4651
▁abuse	-10.4652
▁ideal	-10.4663
▁everybody	-10.4668
▁entering	-10.4671
▁examples	-10.4674
▁cup	-10.468
▁travels	-10.4682
▁improvements	-10.4684
▁rode	-10.4685
▁mystery	-10.4685
▁flow	-10.4685
▁hello	-10.4686
▁stephen	-10.4696
▁cor	-10.4698
▁whereof	-10.4701
▁oak	-10.4702
▁controversy	-10.4708
▁territories	-10.4713
▁argued	-10.472
▁feast	-10.4726
▁loud	-10.475
▁thine	-10.4757
▁christianity	-10.476
▁pressed	-10.4763
▁florida	-10.4767
▁gay	-10.477
▁discuss	-10.4771
▁ann	-10.4776
▁languages	-10.4777
▁ruin	-10.4785
▁yard	-10.4789
▁directions	-10.4793
▁discretion	-10.4793
▁scattered	-10.4794
▁mid	-10.4796
▁telling	-10.4799
▁attitude	-10.481
▁eldest	-10.4811
▁ahead	-10.4812
▁function	-10.4812
▁pi	-10.4813
▁angels	-10.4816
▁deny	-10.4822
▁fond	-10.4822
▁occupation	-10.4824
▁windows	-10.4833
▁burden	-10.4837
▁worst	-10.4838
▁ain	-10.4839
▁operating	-10.484
▁uses	-10.4842
▁roof	-10.4843
▁dare	-10.4847
▁exposed	-10.4853
▁charity	-10.4857
▁treaties	-10.4886
▁declare	-10.49
▁constructed	-10.49
▁wives	-10.4904
▁prophet	-10.4907
▁peerage	-10.491
▁adventures	-10.4914
▁enterprise	-10.4914
▁pity	-10.4917
▁parallel	-10.4921
▁wore	-10.4926
▁sorrow	-10.4928
▁discipline	-10.4929
▁affair	-10.4929
▁movements	-10.493
▁detail	-10.4942
▁fever	-10.4942
▁princes	-10.4945
▁tired	-10.4947
▁satisfactory	-10.495
▁florence	-10.4956
▁specially	-10.4975
▁fundamental	-10.4977
▁cousin	-10.498
▁borne	-10.4981
▁corresponding	-10.4984
▁acquainted	-10.4986
▁deliver	-10.4998
▁vicar	-10.5004
▁penalty	-10.5009
▁allied	-10.5009
▁chairman	-10.5016
▁splendid	-10.5018
▁observation	-10.5019
▁colored	-10.5022
▁moore	-10.5025
▁layout	-10.5027
▁assume	-10.5033
▁rapid	-10.5033
▁solution	-10.5035
▁utterly	-10.5041
▁definite	-10.5047
▁immense	-10.5047
▁wishes	-10.5048
▁cease	-10.5068
▁surprised	-10.5073
▁passenger	-10.5074
▁inferior	-10.5074
▁unity	-10.5075
un	-10.5088
▁indicated	-10.5093
▁haven	-10.5096
▁singing	-10.5099
▁dick	-10.51
▁den	-10.5104
▁newspapers	-10.5106
▁universe	-10.5117
▁suits	-10.5118
▁para	-10.5122
▁treatise	-10.5128
▁pound	-10.5131
▁horn	-10.5132
▁petitioner	-10.5149
▁bi	-10.5153
▁organ	-10.5162
▁humanity	-10.5166
▁obvious	-10.5171
▁prime	-10.5173
▁primitive	-10.5175
▁heavens	-10.5176
▁debts	-10.518
▁beds	-10.5183
ter	-10.5186
▁dependent	-10.5194
ma	-10.5197
▁welfare	-10.5199
▁examine	-10.5202
▁consequences	-10.5203
▁resigned	-10.5206
▁qu	-10.521
▁portions	-10.5211
▁procedures	-10.5213
▁hay	-10.5214
▁directors	-10.5218
▁retained	-10.522
▁dawn	-10.5222
▁commons	-10.5223
▁acquaintance	-10.5227
▁recover	-10.5235
▁meanwhile	-10.5235
▁fa	-10.5238
▁improve	-10.5241
▁equity	-10.5241
▁ignorance	-10.5247
▁conferred	-10.5247
▁admiral	-10.5247
▁dean	-10.525
▁hugh	-10.5251
▁fruits	-10.5252
▁afford	-10.5252
▁clerks	-10.5254
▁extra	-10.5258
▁abandoned	-10.5267
▁watching	-10.5268
id	-10.5277
▁senator	-10.5277
▁resistance	-10.5278
▁theatre	-10.5278
▁pot	-10.5281
▁nest	-10.5283
▁manners	-10.5288
▁leg	-10.5294
ant	-10.5295
▁practices	-10.5297
▁remedy	-10.5297
▁glorious	-10.5299
▁musical	-10.5299
▁prayers	-10.5302
▁trip	-10.5303
ate	-10.5307
▁consul	-10.5312
▁prohibition	-10.5314
▁assessment	-10.5314
▁departments	-10.5315
▁occasions	-10.5315
▁hero	-10.5323
▁prepare	-10.5326
▁consisting	-10.533
▁freely	-10.5332
▁warrant	-10.5333
▁fi	-10.5333
▁specimens	-10.5334
▁regards	-10.5339
▁sail	-10.5343
▁trace	-10.5344
▁busy	-10.5352
▁juan	-10.5358
▁offering	-10.536
▁runs	-10.5361
▁supper	-10.5363
▁plates	-10.5364
▁calm	-10.5364
▁hunting	-10.5366
▁holland	-10.5375
▁representation	-10.5376
▁painting	-10.5378
▁helped	-10.538
▁landscape	-10.5381
▁protected	-10.5387
▁thinks	-10.539
▁edmund	-10.539
▁savage	-10.5396
▁deeds	-10.5396
▁quietly	-10.5398
▁ministry	-10.5405
▁memoirs	-10.5405
▁grief	-10.5412
▁drop	-10.5414
▁seated	-10.5418
▁shame	-10.542
▁solemn	-10.542
▁ease	-10.5427
▁interpretation	-10.5432
he	-10.5432
▁guess	-10.5443
▁valid	-10.5451
▁tarzan	-10.5454
▁disappeared	-10.5455
▁metal	-10.5458
▁readily	-10.5461
▁determines	-10.5463
▁merry	-10.547
▁announced	-10.5474
▁coin	-10.5477
▁combined	-10.548
ce	-10.5483
▁seldom	-10.5485
▁norway	-10.5486
▁ro	-10.549
▁purchased	-10.5502
▁unique	-10.5504
▁wherever	-10.5507
▁orleans	-10.551
▁furnish	-10.5511
▁seq	-10.5516
▁departure	-10.5516
▁ser	-10.5517
▁discover	-10.552
▁heir	-10.5522
▁accused	-10.5523
▁multitude	-10.5523
▁chain	-10.5524
▁everyone	-10.5524
▁delivery	-10.5526
▁ports	-10.5527
▁complaint	-10.5531
▁treat	-10.5536
w	-10.5536
▁crew	-10.5538
▁item	-10.5543
▁aspect	-10.5545
▁apostle	-10.5548
▁preserve	-10.5559
▁pipe	-10.5561
▁continent	-10.5566
▁por	-10.5566
▁slept	-10.5572
▁congressional	-10.5573
▁wolf	-10.5574
▁tendency	-10.5578
▁urged	-10.5586
▁lawful	-10.5586
▁landed	-10.5591
▁kentucky	-10.5597
▁companions	-10.5597
▁stations	-10.5597
▁depth	-10.5605
▁mainly	-10.5612
▁successor	-10.5613
▁sounds	-10.5617
▁amend	-10.5627
▁delicate	-10.5631
▁lectures	-10.5633
▁villages	-10.5642
▁pickwick	-10.5647
▁architecture	-10.5647
nt	-10.5657
▁pole	-10.5663
▁attained	-10.5664
▁hunt	-10.5666
▁tariff	-10.5673
▁singular	-10.5675
▁positive	-10.5675
▁meetings	-10.5679
▁russell	-10.5691
▁team	-10.5699
▁miscellaneous	-10.5703
▁dreams	-10.5705
▁recovered	-10.5707
▁lad	-10.571
▁tent	-10.5712
▁robinson	-10.5716
▁ignorant	-10.5719
▁dull	-10.5724
▁revealed	-10.5724
▁items	-10.5727
▁rural	-10.5729
▁acid	-10.5735
▁editions	-10.5741
ation	-10.5743
▁captured	-10.5745
▁employ	-10.5746
im	-10.5748
▁dave	-10.575
▁thereon	-10.5753
▁hungary	-10.5754
▁damage	-10.5758
▁deceased	-10.5761
▁intent	-10.5767
▁calendar	-10.5768
▁estimated	-10.577
▁porter	-10.577
▁cow	-10.577
▁excitement	-10.5775
▁handed	-10.5775
▁excited	-10.5778
▁veterans	-10.5778
▁numbered	-10.5779
▁revised	-10.5781
▁burst	-10.5783
▁admission	-10.5787
▁infant	-10.5789
▁lover	-10.5791
▁incurred	-10.5792
▁attacked	-10.5795
▁mounted	-10.58
▁column	-10.5804
▁poverty	-10.5805
▁ko	-10.5808
▁remainder	-10.5819
▁stick	-10.5831
▁fl	-10.5832
▁divisions	-10.5835
▁ly	-10.584
▁wheel	-10.5846
▁heading	-10.5849
▁allen	-10.5857
▁remark	-10.5858
▁presents	-10.5858
▁comparison	-10.5858
▁doth	-10.5868
▁breaking	-10.5872
▁passes	-10.5881
▁possessions	-10.5881
▁victoria	-10.5882
▁sustained	-10.5883
▁knife	-10.5888
▁deputy	-10.5888
▁ambassador	-10.5897
▁ce	-10.5902
▁gulf	-10.5904
▁kindly	-10.5905
ca	-10.5906
▁flood	-10.5908
▁hoped	-10.5912
▁aim	-10.5914
▁ride	-10.5914
▁via	-10.5929
▁copper	-10.5932
▁kansas	-10.5933
▁gregory	-10.5934
▁geological	-10.5943
▁entity	-10.5946
ite	-10.5946
▁passengers	-10.5953
▁electric	-10.5957
▁paying	-10.5958
▁fellows	-10.5959
▁describe	-10.596
▁cool	-10.5966
▁sc	-10.5966
▁protestant	-10.5967
▁username	-10.5972
▁narrative	-10.5974
▁furniture	-10.5978
▁accession	-10.5988
▁fourteen	-10.5991
▁medium	-10.5992
▁readers	-10.5994
▁tons	-10.5995
▁winds	-10.5998
▁rice	-10.6
▁gifts	-10.6003
▁combination	-10.6007
▁yield	-10.6012
age	-10.6016
▁vienna	-10.6017
▁condemned	-10.6019
▁baker	-10.6019
▁whispered	-10.6019
be	-10.6019
▁substantial	-10.6021
▁reaching	-10.6021
▁inn	-10.6028
▁restoration	-10.603
▁communications	-10.604
▁reservation	-10.6046
▁scope	-10.6052
▁contributed	-10.6059
▁inspection	-10.6059
▁covenant	-10.6061
▁infinite	-10.6067
▁consist	-10.607
▁inclined	-10.607
▁sales	-10.6073
▁phrase	-10.6075
▁damages	-10.6081
▁pulled	-10.6086
▁imports	-10.6092
▁diseases	-10.6095
▁coffee	-10.6096
▁gordon	-10.6096
▁pardon	-10.6097
▁alien	-10.6099
▁attempts	-10.6105
▁painter	-10.6105
▁refuse	-10.6106
▁roots	-10.6107
▁maid	-10.6107
de	-10.611
▁clubs	-10.6112
▁deposit	-10.6113
▁respects	-10.6118
▁turkey	-10.6118
▁payable	-10.6121
▁adopt	-10.6124
▁distributed	-10.613
▁depart	-10.6134
▁theology	-10.6138
▁expressly	-10.6141
▁mostly	-10.6148
▁considering	-10.6149
▁defeat	-10.615
▁lamp	-10.616
▁races	-10.616
▁enormous	-10.6165
▁greeks	-10.6169
▁sarah	-10.6171
▁location	-10.6171
▁minimum	-10.6175
▁settle	-10.6176
▁consult	-10.6176
▁significant	-10.6178
▁defeated	-10.6179
▁assured	-10.6181
▁rejected	-10.6183
▁perceived	-10.6184
▁hist	-10.6193
▁sixteen	-10.6194
▁managed	-10.6198
▁deck	-10.6198
▁masses	-10.6208
▁heirs	-10.6213
▁butter	-10.6214
▁humble	-10.6215
▁differences	-10.6221
▁arrangements	-10.6222
▁lately	-10.6222
▁check	-10.6224
▁hunter	-10.6225
▁smooth	-10.6235
field	-10.6236
▁assisted	-10.6241
▁beach	-10.6243
▁wing	-10.6244
▁couple	-10.6251
▁harry	-10.6255
▁luke	-10.6256
▁sect	-10.6265
▁beings	-10.6273
▁finger	-10.6275
▁surgeon	-10.6278
▁turns	-10.6287
▁lovely	-10.629
▁respecting	-10.6302
▁drinking	-10.6305
▁wet	-10.6311
▁imported	-10.6318
▁burned	-10.6318
▁dwelling	-10.6323
▁invited	-10.6329
▁surrender	-10.6329
the	-10.6332
▁triumph	-10.6332
▁plainly	-10.6338
ier	-10.6339
▁defend	-10.6339
▁stem	-10.6342
▁statements	-10.6342
▁appoint	-10.6343
▁burnt	-10.6349
▁collect	-10.6352
▁hate	-10.6356
▁collections	-10.6358
▁bone	-10.636
▁liked	-10.6361
▁identified	-10.6368
▁plenty	-10.6368
▁salvation	-10.6368
▁faint	-10.6369
▁hymns	-10.6373
▁essay	-10.6373
▁twentieth	-10.6375
▁devotion	-10.6376
▁gross	-10.6379
▁proposition	-10.6379
▁ob	-10.6381
▁participation	-10.6389
▁league	-10.6389
▁wool	-10.6393
▁select	-10.64
▁shoes	-10.6401
▁incorporated	-10.6403
▁depend	-10.6416
▁absent	-10.6417
▁howard	-10.6423
▁eating	-10.6425
ous	-10.6426
▁knees	-10.6427
▁maximum	-10.6429
▁pine	-10.6431
▁asking	-10.6432
▁scholar	-10.6437
▁asleep	-10.6437
▁mines	-10.6447
▁clothing	-10.645
▁lease	-10.6453
▁charm	-10.646
▁requested	-10.646
▁frame	-10.6462
▁engine	-10.6463
▁permission	-10.6467
▁springs	-10.6483
▁competent	-10.6491
▁excuse	-10.6491
▁elections	-10.6496
▁wound	-10.65
▁farmer	-10.6502
▁model	-10.6502
▁dent	-10.6504
▁beg	-10.6509
▁wash	-10.651
▁sue	-10.6515
▁prices	-10.6517
▁feature	-10.6518
▁treasure	-10.6521
▁criticism	-10.6522
▁lawrence	-10.6525
▁prejudice	-10.6539
▁waves	-10.6541
▁somewhere	-10.6545
▁sergeant	-10.6554
ium	-10.6554
▁semi	-10.6558
▁treasurer	-10.6559
▁ir	-10.6564
▁extending	-10.6565
▁conservation	-10.6566
▁napoleon	-10.6569
▁export	-10.6574
▁tu	-10.6574
▁evolution	-10.6577
▁spend	-10.6581
▁orange	-10.6584
chapter	-10.6584
ling	-10.6591
▁speaker	-10.6592
ey	-10.6594
▁weapons	-10.6598
▁sp	-10.66
▁lore	-10.66
▁br	-10.6601
▁doesn	-10.661
▁matt	-10.6612
▁fraud	-10.662
▁annually	-10.663
▁streams	-10.6634
▁voices	-10.6647
▁throat	-10.665
▁deposited	-10.6653
▁construed	-10.6656
▁conveyed	-10.6659
▁nekhludoff	-10.6662
ists	-10.6672
▁ruins	-10.6678
▁yesterday	-10.6683
▁botany	-10.669
▁beloved	-10.669
▁celtic	-10.6698
▁homes	-10.6699
▁temper	-10.6702
▁credited	-10.6704
▁continually	-10.6705
▁rarely	-10.6709
▁dedicated	-10.6712
ee	-10.6716
▁dollar	-10.6717
▁utmost	-10.6718
▁exhibited	-10.6721
▁technology	-10.6725
▁kindness	-10.673
▁leads	-10.6733
▁crimes	-10.6733
▁anyone	-10.6734
▁dates	-10.6735
▁plains	-10.6738
▁lawyer	-10.6739
▁governing	-10.6743
▁prosperity	-10.6746
▁cultivated	-10.6747
▁sees	-10.6747
▁disciples	-10.6751
▁wasn	-10.6755
▁sketch	-10.6758
▁drama	-10.6758
▁improved	-10.6765
▁tide	-10.6765
▁wooden	-10.6772
▁contempt	-10.6774
▁binding	-10.6778
▁promote	-10.678
▁adequate	-10.6785
▁allowance	-10.6787
▁acquire	-10.679
▁properties	-10.6795
▁sooner	-10.6797
▁knt	-10.6801
▁norman	-10.6805
▁chancellor	-10.681
▁descent	-10.681
▁indicate	-10.6811
▁simon	-10.6824
▁din	-10.6824
▁app	-10.6825
▁expenditure	-10.6829
▁gr	-10.6829
▁km	-10.6835
▁atmosphere	-10.6836
▁termination	-10.6836
▁tenth	-10.6839
▁breakfast	-10.6841
▁monument	-10.6842
▁instantly	-10.6843
▁effected	-10.6844
▁colours	-10.6844
▁affirmed	-10.686
▁widely	-10.6861
▁nervous	-10.6862
▁demands	-10.6867
▁genus	-10.6868
▁memorial	-10.6872
▁alfred	-10.6873
▁alaska	-10.6876
▁departed	-10.6877
▁riding	-10.6878
▁suggestion	-10.6879
▁release	-10.6882
▁listened	-10.6886
▁societies	-10.6887
la	-10.6887
▁receives	-10.6892
▁prevented	-10.6892
ford	-10.6893
▁requirement	-10.6894
▁marble	-10.6894
▁baby	-10.6897
ts	-10.6901
▁chronicle	-10.6908
▁convinced	-10.691
▁headed	-10.691
ler	-10.6918
▁comprehensive	-10.692
▁welsh	-10.6922
▁continuing	-10.693
▁reduction	-10.6936
▁plane	-10.6936
▁neighbourhood	-10.6937
▁hollow	-10.6939
ah	-10.6939
▁noon	-10.6939
▁weary	-10.694
▁roger	-10.6942
▁jew	-10.6953
▁pronounced	-10.6959
▁genuine	-10.6962
▁frozen	-10.6966
▁chiefs	-10.6973
▁basin	-10.6975
▁slain	-10.6979
▁magic	-10.6979
▁granite	-10.698
▁speeches	-10.6982
▁errors	-10.6984
▁possibility	-10.6987
▁cooper	-10.6987
▁precisely	-10.6989
▁baronetage	-10.6994
▁cur	-10.6996
▁capture	-10.6997
▁wave	-10.7
▁messenger	-10.7
▁brigade	-10.7
▁parent	-10.7002
▁dealing	-10.7007
▁constantinople	-10.7008
▁neglect	-10.7013
▁magnificent	-10.702
▁campbell	-10.7023
▁fatal	-10.7025
▁boundaries	-10.703
▁recognize	-10.7032
▁unusual	-10.7034
▁brings	-10.7042
co	-10.7048
▁sheriff	-10.7052
▁mayor	-10.7058
▁descended	-10.7061
▁prof	-10.7064
and	-10.7068
fe	-10.7069
▁flame	-10.707
▁operate	-10.7077
▁govern	-10.7081
▁confederate	-10.7083
▁prize	-10.7091
▁communities	-10.7095
▁salary	-10.7095
▁threatened	-10.7103
▁purple	-10.711
▁revolutionary	-10.711
▁dancing	-10.711
▁afterward	-10.7113
▁conveyance	-10.7116
▁tennessee	-10.7117
ish	-10.7118
▁prose	-10.7123
▁authorize	-10.7135
▁approached	-10.7139
den	-10.7142
▁estates	-10.7144
▁ka	-10.7145
les	-10.7146
▁maryland	-10.715
▁response	-10.7153
▁adoption	-10.7161
▁burn	-10.7165
▁farmers	-10.7168
▁naked	-10.7175
ir	-10.7175
▁bless	-10.7175
▁battles	-10.7179
▁types	-10.7181
▁diameter	-10.7182
ted	-10.7185
▁restrictions	-10.7191
▁strict	-10.7196
▁suspicion	-10.7196
▁helen	-10.7198
▁sphere	-10.7205
▁invention	-10.7208
▁merchants	-10.7208
▁knights	-10.7216
▁positions	-10.7216
▁wells	-10.7217
▁chemical	-10.7223
▁republican	-10.7226
▁francisco	-10.7227
▁miller	-10.7231
▁provincial	-10.7234
▁insisted	-10.7236
ting	-10.7237
▁contribution	-10.7241
▁seas	-10.7241
▁christmas	-10.7242
▁romance	-10.7245
▁forests	-10.7251
▁earnest	-10.7252
▁exceedingly	-10.7253
▁stronger	-10.7256
▁periods	-10.7256
▁immigration	-10.7256
▁kh	-10.7256
il	-10.7257
▁alter	-10.7258
▁isaac	-10.7258
▁wrath	-10.7261
▁experiment	-10.7262
▁interstate	-10.7263
▁poland	-10.7264
▁cutting	-10.7266
▁rail	-10.727
▁appendix	-10.7271
▁omitted	-10.7271
▁mars	-10.7277
▁senses	-10.7277
▁odd	-10.7278
▁carl	-10.728
▁purely	-10.7286
▁dwell	-10.7286
▁goethe	-10.7287
▁eve	-10.7292
ga	-10.7292
▁admiration	-10.7293
▁retirement	-10.7301
▁reduce	-10.7313
▁wuz	-10.7318
▁mistress	-10.732
ri	-10.7327
▁quoted	-10.7329
▁paragraphs	-10.733
▁sta	-10.7331
▁passages	-10.7337
▁compliance	-10.7337
▁sar	-10.7338
▁pike	-10.7343
▁ridge	-10.7344
▁differ	-10.7344
▁obedience	-10.7345
▁seriously	-10.7346
▁privy	-10.7348
ner	-10.735
▁regulate	-10.7351
▁rays	-10.7353
▁urban	-10.7359
▁richmond	-10.736
▁stevenson	-10.736
▁picked	-10.7363
▁retain	-10.7364
▁applicant	-10.7367
▁butler	-10.7369
▁determining	-10.7375
▁medal	-10.7379
ro	-10.7379
▁mysterious	-10.7387
▁pursued	-10.7392
▁yo	-10.7396
▁patience	-10.7397
▁exclusively	-10.7402
▁mechanical	-10.7402
▁identical	-10.7404
▁tomb	-10.7404
▁laughing	-10.7408
▁distinctly	-10.7411
▁westminster	-10.7412
▁undoubtedly	-10.7412
ll	-10.7416
▁realized	-10.7416
▁las	-10.7418
▁accord	-10.7422
▁siege	-10.7423
▁lamb	-10.7424
▁wm	-10.7426
▁manufactures	-10.7436
▁meal	-10.7438
▁rival	-10.7439
▁isle	-10.7441
▁accustomed	-10.7449
▁designation	-10.745
▁providence	-10.745
▁depends	-10.7452
▁stairs	-10.7456
ad	-10.746
▁engineer	-10.7465
▁theological	-10.7466
▁leaf	-10.7466
▁graduated	-10.7466
▁signal	-10.747
▁awful	-10.7479
▁gather	-10.7483
▁contracting	-10.7487
▁blake	-10.7487
▁thereupon	-10.7488
▁acknowledged	-10.7489
▁sprang	-10.7494
▁manuscript	-10.7495
▁chi	-10.7505
▁shade	-10.7506
▁victim	-10.751
▁dans	-10.751
▁arguments	-10.7511
▁gently	-10.7514
▁kitchen	-10.7517
▁refuge	-10.7519
▁tragedy	-10.7525
▁norfolk	-10.7525
▁remote	-10.7526
▁goodness	-10.7528
▁luck	-10.753
▁sailed	-10.7537
▁rufus	-10.754
▁prohibited	-10.7542
▁covering	-10.7542
▁forever	-10.7544
▁counter	-10.7544
▁prescribe	-10.7544
▁eager	-10.7544
▁dan	-10.7545
▁membership	-10.7549
▁wilt	-10.755
▁nineteen	-10.7554
▁inspector	-10.7558
▁ol	-10.7566
▁virtues	-10.757
▁applies	-10.7571
▁vehicles	-10.7575
▁maiden	-10.7576
▁kiss	-10.7581
▁raising	-10.7586
▁sciences	-10.7586
▁moments	-10.7588
▁abundant	-10.759
▁obtaining	-10.7597
▁cabin	-10.7598
ard	-10.7598
▁patron	-10.7605
▁apostles	-10.7607
▁wrought	-10.7616
▁card	-10.7617
▁abbot	-10.762
▁scottish	-10.7624
▁receipt	-10.7632
▁driving	-10.7639
▁arkansas	-10.7646
▁crop	-10.7647
▁era	-10.7647
▁cabinet	-10.7648
▁dramatic	-10.765
▁tables	-10.7653
▁sovereignty	-10.7654
▁deprived	-10.7656
▁consisted	-10.7659
▁recovery	-10.7659
▁match	-10.766
▁contrast	-10.7662
▁pupils	-10.7664
▁represents	-10.7667
▁landing	-10.7674
▁despair	-10.7677
▁quantities	-10.7685
▁machines	-10.7687
▁pit	-10.7689
▁discussed	-10.769
▁stern	-10.7691
▁modified	-10.7693
▁intercourse	-10.77
▁ge	-10.7704
▁guards	-10.7704
▁walker	-10.7708
▁pur	-10.7709
▁countenance	-10.7713
▁allies	-10.7717
▁charming	-10.7718
▁perfection	-10.7718
▁manager	-10.7719
▁prophets	-10.772
▁sentiment	-10.7726
▁ram	-10.7726
▁encourage	-10.7728
▁ments	-10.7739
▁alabama	-10.7739
▁formal	-10.774
▁dim	-10.7741
▁asserted	-10.7741
▁ray	-10.7744
▁nearest	-10.7746
▁relevant	-10.7747
▁gallery	-10.7747
▁rush	-10.7747
▁lakes	-10.7753
▁ber	-10.7754
▁patrick	-10.7763
▁coloured	-10.7765
▁angle	-10.7767
▁frontier	-10.777
▁misery	-10.777
▁comparatively	-10.7772
▁pet	-10.7778
▁doubtful	-10.7779
▁lucy	-10.7779
▁attracted	-10.7787
▁ei	-10.7793
▁strictly	-10.7796
▁preferred	-10.7801
▁premises	-10.7804
▁legend	-10.7805
▁waist	-10.7805
▁discourse	-10.7806
▁iii	-10.7807
▁ham	-10.7813
▁writes	-10.7817
▁enabled	-10.7823
▁baptism	-10.7823
▁overcome	-10.7825
▁ba	-10.7828
▁salisbury	-10.7832
▁tied	-10.7833
▁investment	-10.7833
▁warning	-10.7834
▁establishing	-10.7836
▁frightened	-10.7841
▁succeed	-10.7841
▁presidential	-10.7842
▁detailed	-10.7845
▁canterbury	-10.7855
▁notion	-10.7858
▁solely	-10.786
▁ay	-10.7862
▁experiments	-10.7864
▁ps	-10.7864
▁exceptions	-10.7867
▁whereby	-10.7867
▁zeal	-10.787
▁keen	-10.7873
▁thirteen	-10.7878
▁associations	-10.7878
▁mortal	-10.7883
▁circumstance	-10.7884
▁recommendations	-10.7887
▁laughter	-10.7887
▁pierre	-10.7889
▁punished	-10.7889
▁leather	-10.7896
▁scenes	-10.7897
▁fishing	-10.7902
▁justified	-10.7903
▁giant	-10.7905
▁exports	-10.7905
▁pub	-10.7908
ge	-10.7908
▁preparing	-10.7911
▁harmony	-10.7919
▁suggest	-10.7923
▁manufactured	-10.7924
▁dame	-10.7925
▁tribunal	-10.7928
▁spare	-10.793
wood	-10.7932
▁organs	-10.7937
▁sh	-10.7937
▁collector	-10.7938
▁marched	-10.7939
▁pink	-10.7947
▁sep	-10.7947
▁fierce	-10.7951
▁democracy	-10.7958
▁colonial	-10.7958
▁utter	-10.7958
▁convenient	-10.7963
▁sorts	-10.7965
▁wright	-10.7967
▁roy	-10.7974
▁foregoing	-10.7975
▁grade	-10.7975
▁stretched	-10.7976
▁jud	-10.7977
▁foolish	-10.7978
▁unfortunate	-10.7979
▁tie	-10.7979
▁hundreds	-10.7984
▁pushed	-10.7984
▁votes	-10.799
▁sentenced	-10.7993
▁faced	-10.7995
▁catholics	-10.7998
▁marie	-10.8001
▁characteristics	-10.8005
▁mills	-10.8007
▁therefor	-10.8008
▁generous	-10.801
▁advantages	-10.8013
▁ut	-10.8015
▁bid	-10.8017
▁intimate	-10.8018
ng	-10.8019
▁theodore	-10.802
▁jefferson	-10.8021
▁founder	-10.8024
▁attendance	-10.8029
ka	-10.8033
▁lighted	-10.8034
▁governed	-10.8041
▁merits	-10.8047
▁horror	-10.8047
▁induced	-10.8047
▁amid	-10.8047
▁annum	-10.8055
▁wanting	-10.8059
▁producing	-10.8061
▁santa	-10.8062
▁chose	-10.8064
▁trustees	-10.8065
▁profits	-10.8066
▁followers	-10.8069
▁promoted	-10.8073
▁cler	-10.8078
▁anthony	-10.808
▁palm	-10.8081
▁estimate	-10.8083
▁loves	-10.809
▁rope	-10.809
▁confess	-10.8092
▁monsieur	-10.8093
▁harvard	-10.8093
▁comm	-10.8093
▁messrs	-10.8101
▁track	-10.8105
▁strain	-10.8106
▁constituted	-10.8107
▁intelligent	-10.8114
▁nationality	-10.8117
▁feared	-10.8117
▁varied	-10.8118
▁seats	-10.812
▁plus	-10.8124
▁franklin	-10.8142
▁displayed	-10.8142
▁representing	-10.8149
▁approaching	-10.815
▁prevention	-10.815
▁basic	-10.8152
▁postal	-10.8152
▁useless	-10.8155
▁completion	-10.8157
▁users	-10.8159
▁vital	-10.816
lin	-10.8162
▁implementation	-10.8165
▁heights	-10.8174
▁factbook	-10.8182
▁favourite	-10.8184
▁images	-10.8187
▁rebellion	-10.8192
▁thrust	-10.8197
▁elementary	-10.8206
▁corporations	-10.8209
▁parcel	-10.821
▁experienced	-10.8213
▁maybe	-10.822
▁stores	-10.8221
▁anybody	-10.8223
▁ger	-10.8223
▁dismissed	-10.8224
▁audience	-10.8224
▁deserted	-10.823
▁congregation	-10.8232
▁proposal	-10.8233
ke	-10.8239
▁rolled	-10.8241
▁cells	-10.8245
▁references	-10.8245
▁sheet	-10.8246
▁arrest	-10.8248
▁dialect	-10.8252
▁phenomena	-10.8253
▁statesman	-10.8255
▁ruth	-10.8256
▁crossing	-10.8263
▁shining	-10.8263
▁curiosity	-10.8271
▁statue	-10.8275
▁rebels	-10.8277
▁hal	-10.8278
▁oriental	-10.8282
▁khan	-10.8284
▁wherefore	-10.8288
▁resulting	-10.8288
▁conceived	-10.8291
▁mud	-10.8294
▁swept	-10.8295
ty	-10.8296
▁vehicle	-10.8298
▁stepped	-10.8304
▁forgive	-10.8305
▁territorial	-10.8307
▁harbor	-10.8309
▁faculty	-10.8312
▁obey	-10.8313
▁geographical	-10.8318
▁passions	-10.8331
▁bo	-10.8334
▁vicinity	-10.8336
▁candidate	-10.834
▁firmly	-10.8343
▁convey	-10.8347
▁venture	-10.8348
▁returns	-10.8349
▁alice	-10.8349
▁controlled	-10.8353
▁ry	-10.8356
▁repealed	-10.8356
▁sq	-10.8356
▁artificial	-10.8358
▁guy	-10.8367
▁repairs	-10.8368
▁supra	-10.8372
▁consultation	-10.8372
▁hymn	-10.8372
▁egyptian	-10.8382
▁athens	-10.8387
ally	-10.8387
▁cure	-10.8388
▁gets	-10.8393
▁countess	-10.8396
▁egg	-10.8397
▁apparatus	-10.8402
▁ki	-10.8413
da	-10.8418
▁nurse	-10.8418
▁heretofore	-10.8419
▁discharged	-10.8425
▁enthusiasm	-10.8427
▁bottle	-10.8429
▁var	-10.8432
ina	-10.8437
▁superintendent	-10.8442
▁strabo	-10.8444
▁compare	-10.8449
▁contingent	-10.8452
▁senior	-10.8455
▁desires	-10.8462
▁regularly	-10.8463
▁opportunities	-10.8468
▁telephone	-10.847
▁mexican	-10.8471
▁monday	-10.8472
▁ci	-10.8476
▁lock	-10.8476
▁ordained	-10.8478
▁commanding	-10.8482
▁forbidden	-10.8485
▁feed	-10.8485
▁attributed	-10.8486
▁weakness	-10.8492
▁discussions	-10.8493
▁fragments	-10.8494
▁fol	-10.8495
▁demonstration	-10.8497
▁pop	-10.8499
▁armies	-10.8504
▁harbour	-10.8505
▁touching	-10.8507
▁smiling	-10.8507
▁opera	-10.851
▁elmer	-10.8512
▁profound	-10.8513
▁blessing	-10.8519
▁austrian	-10.8519
▁arrested	-10.8531
▁uncertain	-10.8532
▁torn	-10.8533
well	-10.8538
▁manifest	-10.8539
▁commencement	-10.8544
▁expenditures	-10.8545
▁lang	-10.8546
▁accurate	-10.8549
▁chest	-10.8553
▁fourteenth	-10.8553
▁links	-10.8555
▁device	-10.8555
▁competition	-10.8555
▁oi	-10.8557
▁monks	-10.8559
▁albert	-10.856
▁poetical	-10.8561
▁partnership	-10.8564
▁pilot	-10.8564
▁cash	-10.8566
mi	-10.8567
▁securities	-10.8569
▁separation	-10.8569
▁manor	-10.857
▁declined	-10.8572
▁planning	-10.8586
▁changing	-10.8586
▁morgan	-10.8586
▁troubled	-10.8589
▁oliver	-10.8602
▁sang	-10.8602
▁evaluation	-10.8606
▁units	-10.8613
▁revelation	-10.8614
▁census	-10.8616
▁plea	-10.8618
▁recommended	-10.8622
▁hid	-10.863
▁fitted	-10.863
▁os	-10.8632
▁import	-10.8634
▁preface	-10.8636
▁distress	-10.8637
▁davis	-10.8637
▁decisive	-10.8642
▁cultivation	-10.8644
▁motive	-10.8649
▁policies	-10.8653
▁monuments	-10.8655
▁theories	-10.8657
▁jim	-10.8657
▁rocky	-10.8658
▁tracts	-10.8665
▁despite	-10.8668
▁shepherd	-10.8674
▁judgments	-10.8675
do	-10.8678
▁alas	-10.8681
▁grandfather	-10.8682
▁classical	-10.8685
▁voluntary	-10.8687
▁powder	-10.8687
▁corruption	-10.8691
ot	-10.8697
▁protest	-10.8698
▁rushed	-10.87
▁township	-10.8701
▁hatred	-10.8704
▁trained	-10.8707
▁clement	-10.8707
▁stuff	-10.8709
▁contemporary	-10.8712
▁jersey	-10.8712
▁wondered	-10.8715
▁steady	-10.8718
▁loving	-10.872
▁somehow	-10.8722
▁bosom	-10.8726
▁engage	-10.8727
▁dreadful	-10.8728
▁michigan	-10.8729
▁shaped	-10.873
▁reversed	-10.8733
▁happens	-10.8738
▁blame	-10.8739
▁lists	-10.8744
▁sleeping	-10.8745
▁award	-10.8746
▁engineers	-10.8748
▁relationship	-10.8751
▁listening	-10.8754
▁disabilities	-10.8755
▁suspended	-10.8757
▁saxon	-10.8757
▁lowest	-10.8759
▁enforce	-10.876
▁ent	-10.8763
▁flew	-10.8773
▁missionary	-10.8773
▁adds	-10.8776
▁occupy	-10.8777
▁pharaoh	-10.8785
▁summoned	-10.8792
▁augustus	-10.8792
▁shake	-10.8792
▁rises	-10.8802
▁regret	-10.8802
▁whoever	-10.8804
▁heavenly	-10.8807
▁drank	-10.8816
▁publications	-10.882
rich	-10.8823
▁jo	-10.8824
▁comments	-10.8825
▁scripture	-10.8828
▁ff	-10.8829
▁perpetual	-10.883
▁thompson	-10.8832
▁ralph	-10.8833
▁breadth	-10.8835
▁satisfy	-10.8836
▁rt	-10.8839
▁wilderness	-10.8841
▁cows	-10.8841
▁diplomatic	-10.8851
▁slender	-10.8852
▁substantially	-10.8853
▁drunk	-10.8856
▁victims	-10.8858
▁processes	-10.8858
▁requiring	-10.8859
▁pe	-10.8863
▁thoreau	-10.8867
▁finance	-10.8868
▁bench	-10.8869
▁indiana	-10.8875
▁renewed	-10.8877
▁liquor	-10.888
▁surrounding	-10.8882
▁doctrines	-10.8882
▁fun	-10.8886
▁starting	-10.8887
▁stallman	-10.8893
▁inquired	-10.8896
▁connexion	-10.8898
▁dominion	-10.8898
▁ip	-10.8901
▁rifle	-10.8903
▁released	-10.8906
ae	-10.8909
▁adapted	-10.8911
▁fer	-10.8915
▁forehead	-10.8915
▁fuel	-10.8921
▁mis	-10.8923
▁elevation	-10.8924
▁mate	-10.8925
▁trustee	-10.8925
▁resurrection	-10.8928
▁disposal	-10.8928
▁federation	-10.8928
▁morality	-10.8929
▁seeds	-10.8931
▁equality	-10.8939
▁priv	-10.894
▁germans	-10.8941
▁invasion	-10.895
▁conspicuous	-10.8951
▁hanging	-10.8954
▁analytical	-10.8955
▁eleventh	-10.8955
▁shadows	-10.896
▁newly	-10.8961
▁arnold	-10.8963
▁print	-10.8975
▁victor	-10.8977
▁generations	-10.8977
▁ee	-10.898
▁promotion	-10.8984
▁essex	-10.8989
▁notable	-10.8992
▁retreat	-10.8994
▁exo	-10.8996
▁um	-10.9003
▁ranks	-10.9004
▁subtitle	-10.9007
▁interview	-10.9014
▁bark	-10.9014
▁vanity	-10.9016
▁describes	-10.9023
▁statistics	-10.9033
▁midnight	-10.9033
▁consecrated	-10.9034
ized	-10.9035
▁soviet	-10.9036
▁laying	-10.9036
▁afforded	-10.9039
▁shelter	-10.904
▁lodge	-10.9041
▁shirt	-10.9041
▁currency	-10.9042
▁specimen	-10.9047
▁rested	-10.9052
▁repeal	-10.9056
▁radio	-10.9058
▁baltimore	-10.9059
▁knightage	-10.906
▁mont	-10.9062
▁pursuit	-10.9065
▁perceive	-10.9067
▁measured	-10.9075
▁cheek	-10.9077
▁assets	-10.9083
▁summit	-10.9083
▁une	-10.9085
▁reception	-10.9086
▁zone	-10.9088
▁brass	-10.9088
▁supplement	-10.9091
▁findings	-10.9092
▁marshal	-10.9093
▁pick	-10.9094
▁shed	-10.9095
▁exempt	-10.9096
▁interrupted	-10.9097
▁gaze	-10.9099
▁operated	-10.9099
▁mss	-10.9107
▁inconvenience	-10.911
▁comply	-10.9111
▁reflected	-10.9116
▁hurried	-10.9118
▁baronet	-10.9119
▁clever	-10.9124
▁lessons	-10.9126
▁sending	-10.9132
▁ruled	-10.9134
▁values	-10.9135
▁succeeding	-10.9135
▁lesson	-10.9136
▁monastery	-10.9139
▁righteousness	-10.914
▁pull	-10.9141
▁commence	-10.9141
▁ark	-10.9142
▁comfortable	-10.9149
▁converted	-10.915
▁monarch	-10.9151
▁commit	-10.9153
▁bart	-10.9158
▁je	-10.9159
▁bohemia	-10.9162
▁enters	-10.9163
ci	-10.9163
▁elect	-10.9168
▁eighteenth	-10.9169
▁significance	-10.9175
▁painful	-10.9175
▁harris	-10.9181
▁investigations	-10.9183
▁similarly	-10.9183
▁raw	-10.9185
▁identify	-10.9188
▁miserable	-10.9193
▁occasional	-10.9194
▁conclude	-10.9194
▁persian	-10.9195
▁hang	-10.9197
▁herod	-10.9197
▁intervals	-10.9199
▁erect	-10.92
▁certified	-10.9202
▁dakota	-10.9203
▁pains	-10.9212
nes	-10.9215
▁regional	-10.9215
▁anywhere	-10.922
▁nowrap	-10.9221
▁collated	-10.9221
▁rod	-10.9227
▁eng	-10.9232
▁illustration	-10.9234
▁lofty	-10.9238
▁historian	-10.9245
▁mining	-10.9246
▁aggregate	-10.9251
▁legends	-10.9254
▁cars	-10.9272
▁wire	-10.9273
▁vi	-10.9273
▁revenues	-10.9275
▁score	-10.9276
▁volunteers	-10.9276
▁initial	-10.9286
▁fishes	-10.9286
▁sacrifices	-10.9287
▁crowded	-10.9291
▁rude	-10.9294
▁consumption	-10.93
▁whatsoever	-10.9301
▁circular	-10.9307
▁distinguish	-10.9307
▁unhappy	-10.9309
▁commentary	-10.931
▁decline	-10.9313
▁highways	-10.9315
▁creditors	-10.9318
▁extends	-10.9322
▁rid	-10.9323
▁expansion	-10.9327
▁concerns	-10.9331
▁hen	-10.9334
▁arctic	-10.9338
▁administered	-10.9339
▁divide	-10.9348
▁philosopher	-10.9352
▁mineral	-10.9354
▁eh	-10.9357
▁conspiracy	-10.9364
▁agreeable	-10.9365
▁kissed	-10.9369
▁thither	-10.9373
▁antiquity	-10.9373
▁resting	-10.9376
▁personally	-10.9379
▁assignment	-10.9379
▁prayed	-10.9382
▁participate	-10.9385
▁peoples	-10.9395
▁assure	-10.9395
▁pupil	-10.94
▁pas	-10.94
▁ultimately	-10.9403
▁environment	-10.9407
▁validity	-10.9412
▁unnecessary	-10.9418
▁fired	-10.9428
▁stewart	-10.9428
▁daphne	-10.9428
▁specifically	-10.9428
▁somebody	-10.9428
▁anxiety	-10.9437
▁ox	-10.945
▁portraits	-10.9452
▁refusal	-10.9455
▁sets	-10.9456
▁chaptertext	-10.9456
▁promptly	-10.9457
▁thunder	-10.9458
▁continues	-10.9462
▁arizona	-10.9464
▁advised	-10.9467
▁continuous	-10.9471
▁flour	-10.9474
que	-10.9475
▁ambition	-10.948
▁jun	-10.9484
▁sion	-10.9488
▁chapters	-10.9493
▁tour	-10.9494
▁moderate	-10.9496
▁unlike	-10.9507
▁desirable	-10.951
▁mysteries	-10.951
▁realize	-10.9515
▁irregular	-10.9516
▁alarm	-10.9519
▁rage	-10.9521
▁funeral	-10.9527
▁guardian	-10.9528
▁turgenev	-10.9529
▁twelfth	-10.9529
▁uttered	-10.9534
▁restore	-10.954
▁fires	-10.9542
▁surrey	-10.9547
▁hostile	-10.9548
▁calculated	-10.9548
▁employer	-10.9549
▁freight	-10.955
▁colleges	-10.9553
▁grows	-10.9559
▁attain	-10.956
▁counted	-10.9564
▁pending	-10.9567
▁devices	-10.9572
▁iv	-10.9579
▁delighted	-10.9581
▁prosecution	-10.9582
▁enjoyment	-10.9583
▁practicable	-10.9584
▁wisconsin	-10.9585
▁queer	-10.9587
▁paradise	-10.9589
▁alternative	-10.9589
▁picturesque	-10.959
▁charlotte	-10.9594
▁carrier	-10.9594
▁safely	-10.9602
▁apt	-10.9605
▁prefer	-10.961
▁poured	-10.9611
▁abundance	-10.9612
▁craft	-10.9617
▁conversion	-10.962
▁verdict	-10.962
▁psychology	-10.9622
▁designs	-10.9627
▁recall	-10.9631
no	-10.9631
▁communion	-10.9631
au	-10.9634
▁concealed	-10.9634
▁ga	-10.9635
▁industries	-10.9635
▁conclusions	-10.9636
▁gilbert	-10.9641
▁avenue	-10.9648
▁embraced	-10.9654
▁flora	-10.9656
▁pool	-10.9658
▁acceptance	-10.966
▁haste	-10.9663
▁mu	-10.9668
▁ancestors	-10.9672
▁scholars	-10.9674
▁expiration	-10.9678
▁manage	-10.9678
▁sardinia	-10.9685
for	-10.9687
▁excluded	-10.9689
▁liquid	-10.9692
▁parker	-10.9693
▁trembling	-10.9694
▁reverse	-10.9701
▁engines	-10.9701
▁advocate	-10.9701
▁fasti	-10.9702
▁fro	-10.9703
▁interfere	-10.9705
▁folly	-10.971
▁resist	-10.971
▁stayed	-10.9713
▁traces	-10.9715
▁dealt	-10.9715
▁jonathan	-10.9715
▁chase	-10.9717
▁sensation	-10.9721
▁olive	-10.973
▁fu	-10.973
▁intense	-10.9731
▁contest	-10.9732
▁circulation	-10.9734
▁militia	-10.9735
▁procurement	-10.9736
▁alliance	-10.9743
▁frances	-10.9747
▁hook	-10.9747
▁journals	-10.975
ez	-10.975
▁tribal	-10.9751
▁treatises	-10.9754
▁prussia	-10.9759
▁png	-10.9765
▁statutory	-10.9772
▁classification	-10.9772
▁temples	-10.9773
▁flock	-10.9774
▁mil	-10.9776
▁delightful	-10.978
▁burial	-10.9781
▁parliamentary	-10.9782
▁caesar	-10.9783
▁exhibition	-10.9784
▁caroline	-10.9789
▁titles	-10.9794
▁idle	-10.9795
▁honey	-10.9806
▁saturday	-10.9809
▁shouted	-10.9812
▁fore	-10.9815
ent	-10.982
▁garrison	-10.9824
▁lent	-10.9825
▁vague	-10.9826
▁ur	-10.9826
▁admirable	-10.9829
▁gathering	-10.9833
▁identity	-10.9839
▁advisory	-10.9839
hi	-10.984
▁neglected	-10.9844
▁repeat	-10.9848
▁justly	-10.9855
▁inspired	-10.9859
▁honourable	-10.986
▁forgot	-10.9861
▁spencer	-10.9863
▁altered	-10.9863
▁kin	-10.9884
▁musicians	-10.9885
▁researches	-10.9889
ron	-10.9895
ft	-10.9896
▁marsh	-10.9898
▁slope	-10.9909
ba	-10.991
▁cards	-10.9911
▁promises	-10.9912
▁colorado	-10.9916
▁gazetteer	-10.9918
▁saddle	-10.9919
▁considerations	-10.9924
▁bride	-10.9924
▁ford	-10.9929
▁awarded	-10.9929
▁eaten	-10.9929
▁smell	-10.993
▁maritime	-10.9935
▁ashamed	-10.9935
▁comedy	-10.9938
▁boots	-10.9938
▁archd	-10.9939
▁inconsistent	-10.9944
▁submission	-10.9944
▁acute	-10.9952
▁reformers	-10.9955
▁obscure	-10.9955
▁ow	-10.9956
▁paused	-10.9958
▁attacks	-10.9959
▁brow	-10.9963
▁paraguay	-10.9963
▁arrive	-10.9963
▁disability	-10.9964
▁scenery	-10.9965
▁dam	-10.9967
ede	-10.9974
▁ratio	-10.9979
▁canvas	-10.9983
▁ernest	-10.9984
▁columns	-10.9992
▁anderson	-10.9993
▁rover	-10.9995
▁crops	-10.9997
▁unlawful	-10.9999
▁ant	-11
▁canadian	-11.0001
▁solomon	-11.0002
▁childhood	-11.0003
ata	-11.0004
▁mistaken	-11.0005
▁beaten	-11.0007
▁encouraged	-11.0007
▁deposits	-11.0008
▁shared	-11.0008
▁planted	-11.0008
▁impulse	-11.0021
▁fiction	-11.0021
▁injured	-11.0023
▁certificates	-11.0025
▁ai	-11.0031
▁soc	-11.0034
▁proclaimed	-11.0035
▁bridges	-11.0039
▁adjustment	-11.004
▁reflection	-11.004
▁slipped	-11.0041
▁folks	-11.0041
▁outward	-11.0045
▁bend	-11.0047
▁ultimate	-11.0048
▁fe	-11.005
▁ours	-11.005
▁shores	-11.0055
▁valued	-11.0059
▁factors	-11.0059
▁dwelt	-11.0061
▁bodily	-11.0061
▁sermon	-11.0061
▁grove	-11.0063
▁tear	-11.0063
▁negroes	-11.0067
▁velocity	-11.007
▁commodities	-11.007
▁enlarged	-11.0071
▁reasoning	-11.0072
▁shares	-11.0075
▁bronze	-11.0075
▁joe	-11.0076
▁developing	-11.0078
▁preference	-11.0079
▁lift	-11.0079
▁percentage	-11.008
▁finish	-11.008
▁resumed	-11.0082
▁washed	-11.0083
▁coach	-11.0086
▁finest	-11.0089
▁designate	-11.0096
don	-11.0096
tes	-11.0099
▁assent	-11.0099
▁penalties	-11.01
▁comment	-11.01
▁guest	-11.0109
▁steamer	-11.0113
▁cheeks	-11.0113
▁ji	-11.0114
▁tribute	-11.0114
▁fome	-11.0116
▁nt	-11.0118
▁declares	-11.012
▁deer	-11.0121
▁plato	-11.0122
▁applications	-11.0124
▁relates	-11.0129
ary	-11.0129
▁almighty	-11.0129
▁absurd	-11.0135
▁exhibit	-11.0136
▁emma	-11.0142
▁stems	-11.0145
▁particulars	-11.0146
▁steep	-11.0148
▁perception	-11.0148
▁pleasures	-11.0148
▁ceremony	-11.0149
▁navigable	-11.0149
▁placing	-11.0149
▁anselm	-11.0151
▁liverpool	-11.0159
▁adjacent	-11.0159
▁heavily	-11.0159
▁preliminary	-11.0159
▁breach	-11.0162
▁subjected	-11.0165
▁pin	-11.0169
▁sweden	-11.0169
▁che	-11.017
▁disturbed	-11.0171
▁lots	-11.0172
▁tend	-11.0174
▁pause	-11.0176
▁participating	-11.0178
▁undertaking	-11.0178
▁manchester	-11.0179
▁flung	-11.0179
ol	-11.0186
▁deeper	-11.0193
▁justify	-11.0194
▁refers	-11.0195
▁indies	-11.0196
▁af	-11.0197
▁helpless	-11.0198
▁ruler	-11.0198
▁aux	-11.0202
▁hire	-11.0203
▁diet	-11.0204
▁hungarian	-11.0208
▁bowed	-11.0208
▁boards	-11.0208
▁exhausted	-11.0209
▁strangers	-11.0212
▁nat	-11.0212
▁marquis	-11.0213
▁unconscious	-11.0214
▁melancholy	-11.0218
▁prey	-11.022
▁practised	-11.022
▁inform	-11.0235
ens	-11.0239
▁answers	-11.024
▁posts	-11.0245
▁gratitude	-11.0248
▁saith	-11.0248
▁sixteenth	-11.0249
▁recognised	-11.025
▁crying	-11.0251
▁preaching	-11.0252
▁ties	-11.0254
▁attending	-11.0256
▁softly	-11.0257
▁valleys	-11.0264
▁rico	-11.0274
▁libraries	-11.0278
▁assurance	-11.0279
▁junior	-11.028
▁cyclop	-11.0282
▁aviation	-11.0287
▁oldest	-11.0288
▁beard	-11.029
▁borders	-11.0291
ibus	-11.0293
▁instituted	-11.0297
▁maine	-11.0297
▁glasgow	-11.0297
▁dried	-11.0299
▁persuaded	-11.03
▁obviously	-11.0302
▁calcutta	-11.0307
▁artistic	-11.031
▁organic	-11.0312
▁peasant	-11.0314
▁ty	-11.0317
▁chin	-11.0318
▁har	-11.0319
▁arc	-11.0328
▁voting	-11.0329
ities	-11.0336
▁essence	-11.0337
▁postmaster	-11.0338
▁roberts	-11.034
▁cannon	-11.0342
▁successors	-11.0345
▁killing	-11.0348
▁considerably	-11.0348
▁closer	-11.0349
▁slip	-11.0353
▁confession	-11.0355
▁physicians	-11.0357
▁engagement	-11.0358
▁sank	-11.036
▁transaction	-11.0368
▁bade	-11.0371
▁successfully	-11.0376
▁throwing	-11.0377
▁krishna	-11.0378
▁norwich	-11.0378
▁guests	-11.0378
ten	-11.0381
▁neighbouring	-11.0381
▁lip	-11.0384
▁possesses	-11.0384
▁creat	-11.0387
▁intellect	-11.0388
▁weekly	-11.0395
led	-11.0398
▁emily	-11.0403
▁environmental	-11.0405
▁sensible	-11.0408
▁steadily	-11.0408
▁adult	-11.0408
▁garments	-11.041
▁cleared	-11.0411
▁stamp	-11.0411
▁substances	-11.0411
▁brick	-11.0412
▁receiver	-11.0413
▁monk	-11.0415
▁cottage	-11.0419
▁prospect	-11.0419
▁awake	-11.042
▁quarrel	-11.0421
▁cries	-11.0427
▁nineteenth	-11.0429
▁mac	-11.0431
▁snake	-11.0432
▁worcester	-11.0438
▁ceremonies	-11.0438
▁biblical	-11.0438
▁destined	-11.0438
▁mixture	-11.0438
▁lonely	-11.044
▁anglo	-11.0444
▁pattern	-11.045
all	-11.0456
▁enl	-11.0459
▁dread	-11.046
▁involving	-11.0469
▁augustine	-11.0469
▁maps	-11.0469
▁peasants	-11.0472
▁nerves	-11.0478
▁cork	-11.0479
▁emotion	-11.048
▁geo	-11.0483
▁peaceful	-11.0489
▁reasonably	-11.049
▁ecclesiae	-11.049
▁suspected	-11.0492
▁levels	-11.0494
▁supp	-11.0496
▁morris	-11.0498
▁identification	-11.0499
▁horizon	-11.0499
▁ownership	-11.05
▁hungry	-11.05
▁australian	-11.05
▁maintaining	-11.0502
▁nobles	-11.0503
▁creator	-11.051
▁stared	-11.0512
▁papal	-11.0515
▁brook	-11.0516
▁collier	-11.0517
▁scarce	-11.0518
▁bury	-11.0519
▁beheld	-11.0521
si	-11.0521
▁stiff	-11.0524
▁railways	-11.0528
▁denmark	-11.053
▁certainty	-11.0534
▁locality	-11.0543
▁super	-11.0543
▁preached	-11.0544
▁deem	-11.0544
▁linen	-11.0544
▁essentially	-11.0547
▁bat	-11.0551
▁woe	-11.0555
▁inquire	-11.0555
ls	-11.0556
▁merchandise	-11.056
▁procured	-11.0564
▁lime	-11.0566
▁wearing	-11.0569
▁undertake	-11.0569
▁approximately	-11.0571
▁shock	-11.0574
▁minority	-11.0582
▁approaches	-11.0582
▁objections	-11.0583
▁venice	-11.0591
▁platform	-11.0592
▁gloucester	-11.0601
▁somerset	-11.0602
▁ross	-11.0603
▁instructed	-11.0604
▁elaborate	-11.0605
▁rational	-11.0609
▁sussex	-11.0612
▁murray	-11.0612
▁battery	-11.0612
▁owe	-11.0617
▁pursue	-11.0623
▁excessive	-11.063
▁northwest	-11.0634
▁rolling	-11.0638
▁procure	-11.064
▁traditions	-11.0641
▁negotiations	-11.0642
▁tolstoy	-11.0643
▁cooperation	-11.0643
▁globe	-11.0644
▁prevailed	-11.0646
▁buck	-11.0646
▁vigorous	-11.065
▁simplicity	-11.0653
▁academic	-11.0655
▁legitimate	-11.0661
▁brig	-11.0666
▁translations	-11.0667
▁impose	-11.0667
▁stroke	-11.0672
▁thofe	-11.0675
▁polish	-11.0676
▁shield	-11.0685
▁disaster	-11.0685
▁missing	-11.0687
▁healthy	-11.0687
▁ruined	-11.0691
▁wretched	-11.0692
▁transition	-11.0695
▁proviso	-11.0698
▁factory	-11.0699
▁anglicana	-11.0701
▁saving	-11.0702
▁seventeen	-11.0704
▁principally	-11.0706
▁factor	-11.072
▁plot	-11.072
▁severely	-11.0721
▁christopher	-11.0726
▁vanished	-11.0727
▁importation	-11.0727
▁impressed	-11.0728
▁num	-11.0728
▁bands	-11.0732
▁ruling	-11.074
▁scriptures	-11.0741
▁candle	-11.0746
▁rests	-11.075
▁canons	-11.0751
▁relate	-11.0752
▁convent	-11.0752
▁hampshire	-11.0757
▁intermediate	-11.0757
▁threat	-11.0757
▁judged	-11.0757
▁comp	-11.076
▁flows	-11.076
▁paint	-11.0763
▁resulted	-11.0767
▁courses	-11.0769
▁partner	-11.077
▁minded	-11.0771
▁max	-11.0773
▁receipts	-11.0777
▁farewell	-11.0778
▁ion	-11.0786
▁telegraph	-11.0794
▁curse	-11.0796
▁hut	-11.0798
▁swear	-11.0798
▁priesthood	-11.0799
▁nerve	-11.0801
▁newton	-11.0802
▁lecture	-11.0804
▁niosh	-11.081
▁appearing	-11.0811
fi	-11.0817
▁desperate	-11.0817
▁xx	-11.0818
▁approve	-11.0819
▁complex	-11.0819
▁adjoining	-11.082
▁someone	-11.0829
▁ukraine	-11.083
▁sport	-11.0832
▁bp	-11.0838
▁flexible	-11.0841
▁thyself	-11.0841
▁arab	-11.0845
▁rolls	-11.0846
▁handle	-11.0855
▁abstract	-11.0859
▁slightest	-11.0863
rn	-11.0864
▁facing	-11.0864
▁typical	-11.087
▁role	-11.0873
▁eyed	-11.0873
▁keeper	-11.0873
▁dod	-11.0876
▁domain	-11.0876
ea	-11.0879
▁belt	-11.0886
▁bindle	-11.0886
▁arises	-11.0893
▁pack	-11.0894
▁chorus	-11.0902
▁stout	-11.0903
▁accuracy	-11.0905
▁probability	-11.0905
▁meantime	-11.0905
▁reformation	-11.0907
▁gi	-11.0909
▁sandy	-11.091
▁rio	-11.0914
▁eventually	-11.0916
ful	-11.0919
▁withdrawn	-11.0921
▁occurring	-11.0926
▁plague	-11.0928
▁upwards	-11.093
▁eagle	-11.093
▁crisis	-11.0936
▁admiralty	-11.0937
▁angles	-11.0942
ich	-11.0944
▁comparative	-11.0944
▁conceive	-11.0948
▁ali	-11.0953
▁cum	-11.0954
▁turkish	-11.0958
▁hudson	-11.0958
▁closing	-11.0958
▁manufacturing	-11.0958
▁petty	-11.0958
▁fails	-11.0959
sa	-11.0961
▁exeter	-11.0969
▁link	-11.0969
▁portland	-11.0972
ac	-11.0972
▁traveling	-11.0973
▁bars	-11.0974
▁publish	-11.0976
▁affecting	-11.0977
▁travelling	-11.098
▁coins	-11.0981
▁font	-11.0982
▁sickness	-11.0982
▁travellers	-11.0984
▁click	-11.0984
▁badly	-11.0987
▁devon	-11.099
▁sermons	-11.0991
▁vance	-11.0991
▁expressions	-11.0993
▁flowing	-11.0998
▁anatomy	-11.1001
▁jordan	-11.1001
▁englishman	-11.1005
▁junction	-11.1011
▁invented	-11.1012
▁occurrence	-11.1013
▁filing	-11.1015
▁rightly	-11.1016
▁publ	-11.1019
▁hood	-11.1021
▁durham	-11.1022
▁conquered	-11.1024
▁respondent	-11.1024
ites	-11.1025
▁fined	-11.1025
▁gazette	-11.1026
▁harvest	-11.1034
▁wake	-11.1037
▁bot	-11.1037
▁motives	-11.1038
▁cargo	-11.1041
▁driver	-11.1041
▁entertained	-11.1047
▁publicly	-11.1047
▁bacon	-11.1047
▁stir	-11.1051
▁inevitable	-11.1054
▁rehabilitation	-11.1054
▁cultural	-11.1056
▁thread	-11.1059
▁pitch	-11.106
▁riches	-11.106
▁leo	-11.1069
▁inland	-11.107
▁hindu	-11.1072
▁endure	-11.1073
▁cart	-11.1077
▁joining	-11.1077
▁instinct	-11.1078
ji	-11.1085
▁horrible	-11.1087
▁resignation	-11.1087
▁turks	-11.1087
▁traditional	-11.109
▁imagined	-11.1094
▁unjust	-11.1095
▁limbs	-11.1097
▁neighbour	-11.1097
▁quit	-11.1099
▁wandering	-11.1102
▁thirteenth	-11.1109
▁seventeenth	-11.111
▁circles	-11.1112
▁eagerly	-11.1112
▁latest	-11.1118
▁undergraduate	-11.1119
▁das	-11.1125
▁decrees	-11.1128
responsibilities	-11.113
▁bestowed	-11.1132
▁interval	-11.1134
ians	-11.1139
▁episcopal	-11.1141
▁fulfilled	-11.1142
▁jr	-11.1145
▁jesuit	-11.1147
▁hurry	-11.1147
▁installed	-11.1152
▁relieved	-11.1155
▁cab	-11.1158
▁francs	-11.1161
▁digital	-11.1162
▁heroes	-11.1162
▁hospitals	-11.1162
▁banking	-11.1163
▁tiny	-11.1163
▁weapon	-11.1165
▁modification	-11.1165
▁corporate	-11.1165
▁negative	-11.1169
▁settlers	-11.1171
▁wikipedia	-11.1174
▁hated	-11.1176
▁abode	-11.1176
▁realm	-11.1178
▁rv	-11.1179
▁tlie	-11.118
▁sexual	-11.1181
▁performing	-11.1185
mon	-11.1186
▁poison	-11.1187
▁stomach	-11.1188
▁offers	-11.1192
▁troy	-11.1201
▁mus	-11.1206
▁burton	-11.1208
▁persecution	-11.1209
di	-11.121
pa	-11.1211
▁supporting	-11.1211
▁deity	-11.1212
▁mischief	-11.1217
▁aloud	-11.1217
▁acre	-11.1218
▁canoe	-11.1219
▁tube	-11.122
▁latitude	-11.122
▁headquarters	-11.1228
▁pious	-11.1228
oo	-11.1229
▁nominated	-11.123
▁fountain	-11.1231
▁rites	-11.1231
▁rob	-11.1234
▁lively	-11.1235
▁blank	-11.1235
▁bh	-11.1235
▁glanced	-11.1236
▁romantic	-11.1236
▁evils	-11.1238
▁ethics	-11.1245
▁buffalo	-11.1247
▁laura	-11.1247
▁grateful	-11.1247
▁carries	-11.1249
▁traced	-11.1257
▁contribute	-11.126
▁warriors	-11.1261
▁secular	-11.1262
▁reflect	-11.1266
▁losses	-11.1267
▁edgar	-11.1267
▁feeble	-11.1269
ve	-11.127
▁pointing	-11.1272
▁madras	-11.1273
▁applying	-11.1275
▁trunk	-11.1275
▁fears	-11.1276
▁depths	-11.1281
▁tan	-11.1281
▁versions	-11.1283
▁solitary	-11.1283
▁subsistence	-11.1283
▁antonio	-11.1283
▁continental	-11.1285
▁cord	-11.1292
▁partial	-11.1295
▁apostolic	-11.1297
▁illegal	-11.1302
▁bob	-11.1305
▁irrigation	-11.1305
▁lien	-11.1306
▁bind	-11.1308
▁cheerful	-11.1313
▁rat	-11.1313
▁progressive	-11.1315
▁cornwall	-11.1315
▁artists	-11.1319
▁illness	-11.1319
▁axis	-11.1321
▁lb	-11.1321
▁selling	-11.1321
▁acknowledge	-11.1323
▁lin	-11.1326
▁guidance	-11.1327
▁adjusted	-11.1329
▁serpent	-11.133
▁fifteenth	-11.133
▁efficient	-11.1335
▁shoot	-11.1336
▁fuller	-11.1336
▁connecticut	-11.1338
▁nodded	-11.1339
▁grasp	-11.1341
▁ascertained	-11.1342
▁airport	-11.1343
▁commands	-11.1345
▁puts	-11.1348
▁amsterdam	-11.1349
▁firft	-11.1349
▁logical	-11.135
▁whereupon	-11.135
▁associate	-11.1351
▁humour	-11.136
▁shone	-11.1361
▁dared	-11.1362
ul	-11.1363
▁indictment	-11.1364
▁suspect	-11.1367
ya	-11.1367
▁potential	-11.1368
▁preach	-11.137
▁landlord	-11.1375
▁proclaim	-11.1378
▁sailing	-11.138
▁convicted	-11.1384
▁mat	-11.1385
▁assumption	-11.1386
▁personality	-11.1386
▁sac	-11.1388
▁socialist	-11.1388
▁lovers	-11.1389
▁reed	-11.1394
▁equitable	-11.1394
▁harold	-11.1394
▁pledge	-11.1394
▁undertaken	-11.1398
▁revision	-11.1398
▁capitol	-11.1399
▁creed	-11.14
tis	-11.1401
▁jehovah	-11.1405
▁fertile	-11.1405
▁watson	-11.1405
▁yourselves	-11.1405
▁hare	-11.1413
▁custody	-11.1416
▁judiciary	-11.1416
▁exemption	-11.1417
▁saracen	-11.1419
▁collar	-11.142
▁aaron	-11.142
▁ample	-11.1425
▁substitute	-11.1427
▁valorem	-11.1427
▁purity	-11.1428
ino	-11.1435
▁implied	-11.1438
▁wordsworth	-11.1441
▁humor	-11.1442
▁straw	-11.1444
▁ja	-11.1445
mo	-11.1445
▁dragged	-11.145
▁dirty	-11.1452
▁games	-11.1455
▁defended	-11.1456
▁usage	-11.1456
▁trading	-11.1464
▁guarantee	-11.1468
▁tropical	-11.1473
▁pace	-11.1484
tus	-11.1485
▁dimensions	-11.149
▁twin	-11.149
▁troubles	-11.1493
▁propose	-11.1494
▁replaced	-11.1497
▁resolutions	-11.1497
▁pirates	-11.1501
▁enlisted	-11.1507
▁cl	-11.151
▁recalled	-11.1511
▁tri	-11.1512
▁wheels	-11.1514
ans	-11.1515
▁missions	-11.1517
▁nephew	-11.1521
▁outline	-11.1526
▁bal	-11.1528
▁transparent	-11.1528
▁trump	-11.1531
▁sen	-11.1532
▁monarchy	-11.1533
▁offense	-11.1533
▁challenge	-11.1534
▁med	-11.1537
▁dickens	-11.154
▁borough	-11.1542
tu	-11.1543
▁thirds	-11.1546
▁contracted	-11.1549
▁pig	-11.1551
▁descendants	-11.1554
▁exposition	-11.1555
ins	-11.1556
▁crowned	-11.1559
▁han	-11.1563
ington	-11.1563
▁attractive	-11.1564
ue	-11.157
▁governmental	-11.1571
▁sigh	-11.1571
▁supervision	-11.1574
▁rom	-11.1577
▁visitor	-11.158
▁sentences	-11.1584
▁transmitted	-11.1585
▁funding	-11.1599
ai	-11.1601
▁definitions	-11.1602
ive	-11.1604
▁string	-11.1605
▁fearful	-11.1608
▁eu	-11.161
▁condor	-11.1621
▁annexed	-11.1623
▁mild	-11.1624
▁warren	-11.1625
▁engineering	-11.1626
▁successive	-11.1628
▁liaison	-11.1631
▁believing	-11.1631
▁youngest	-11.1631
▁gallant	-11.1634
▁bach	-11.1635
▁males	-11.1637
▁resort	-11.1638
▁locked	-11.1639
▁totally	-11.1641
▁seminary	-11.1642
▁righteous	-11.1649
▁particles	-11.165
▁avail	-11.1653
▁maurice	-11.1654
▁ful	-11.1655
▁upright	-11.1655
▁introduce	-11.1656
ck	-11.1657
▁thro	-11.1662
▁seasons	-11.1664
▁indirectly	-11.1667
▁signature	-11.1669
▁incidents	-11.167
▁transport	-11.1675
▁divorce	-11.1677
▁stolen	-11.1679
▁aspects	-11.1686
ize	-11.1687
▁imprisoned	-11.1688
▁hart	-11.1692
▁sabbath	-11.1692
▁inscription	-11.1699
▁heroic	-11.1699
▁fitting	-11.1702
▁veil	-11.1704
▁dish	-11.171
▁federated	-11.1711
▁beating	-11.1713
▁fran	-11.1714
▁alfo	-11.1715
▁alcohol	-11.1722
▁exchanged	-11.1728
ay	-11.173
▁hunger	-11.1733
▁switzerland	-11.1734
▁bankruptcy	-11.1734
▁treason	-11.1734
▁preparations	-11.1735
cr	-11.1736
▁gar	-11.1739
▁shorter	-11.174
▁blocks	-11.1741
▁ornament	-11.1742
▁secondly	-11.1743
▁accomplish	-11.1745
▁easier	-11.1745
▁piety	-11.1746
▁milton	-11.1747
▁suppressed	-11.1747
▁daring	-11.1749
▁tre	-11.175
▁sheets	-11.1751
▁chains	-11.1755
▁manuscripts	-11.1756
tion	-11.1762
▁mag	-11.1766
orum	-11.1767
▁surplus	-11.1768
▁painters	-11.1768
▁archdeacon	-11.1773
▁impressions	-11.1774
▁laboratory	-11.178
▁separately	-11.1783
▁edits	-11.1784
▁assert	-11.1786
▁bernard	-11.1786
▁embrace	-11.1786
▁truths	-11.1788
▁diamond	-11.1792
ial	-11.1795
if	-11.1795
▁magistrate	-11.1796
▁assertion	-11.1797
▁feeding	-11.1798
▁holiday	-11.1799
▁deputies	-11.1803
▁integrity	-11.1805
▁delaware	-11.1808
▁residences	-11.1811
▁tight	-11.1812
▁fortunate	-11.1812
▁pays	-11.1814
▁rowspan	-11.1815
▁inheritance	-11.1815
▁favourable	-11.1817
▁rulers	-11.182
▁produces	-11.182
▁transit	-11.1824
▁micronesia	-11.1826
▁cromwell	-11.1827
▁torture	-11.1828
▁coarse	-11.1832
▁mythology	-11.1838
▁scarlet	-11.1839
▁voted	-11.1844
▁alexandria	-11.1846
▁electricity	-11.185
▁wax	-11.1851
▁sufferings	-11.1855
▁prov	-11.1855
▁markets	-11.1855
ell	-11.1856
▁lu	-11.1856
▁lasted	-11.1858
▁dh	-11.1863
▁ethical	-11.1865
▁attachment	-11.1867
▁pal	-11.1867
▁gazed	-11.1867
▁petitioners	-11.1876
▁allowances	-11.1877
▁mer	-11.1878
▁extinct	-11.1884
▁eternity	-11.1885
▁gravity	-11.1885
▁exploration	-11.189
▁injustice	-11.1893
▁punish	-11.1896
▁mob	-11.1898
▁ascertain	-11.1901
▁dost	-11.1903
▁talents	-11.1903
▁sentiments	-11.1907
ini	-11.1907
cl	-11.1908
▁begged	-11.1908
▁additions	-11.1909
▁experiences	-11.1912
ati	-11.1915
▁turner	-11.1916
▁saviour	-11.192
▁duration	-11.1921
▁symbol	-11.1921
▁ke	-11.1926
▁stages	-11.1927
ab	-11.1938
▁arabic	-11.194
▁aristotle	-11.1943
▁honorable	-11.1945
▁murmured	-11.1945
▁borrowed	-11.1946
▁pigeon	-11.1947
▁risen	-11.1949
▁stating	-11.195
▁ashes	-11.1954
▁burke	-11.1954
▁knee	-11.1957
ure	-11.196
▁injunction	-11.1961
▁tar	-11.1966
▁tam	-11.1967
▁publishing	-11.1972
▁commissioned	-11.1972
▁spaniards	-11.1974
let	-11.1975
▁sharply	-11.1976
▁heritage	-11.1979
lo	-11.1979
ship	-11.198
▁parted	-11.1984
▁lesser	-11.1985
▁assault	-11.1988
▁divinity	-11.1991
▁briefly	-11.1991
▁winchester	-11.2002
▁universities	-11.2002
▁civilized	-11.2004
▁visitors	-11.2011
▁goddess	-11.2011
▁allowing	-11.2013
▁priority	-11.2016
▁achieved	-11.2018
▁cam	-11.2018
▁talent	-11.2019
▁seize	-11.2021
▁spending	-11.2022
▁hides	-11.2024
▁hastily	-11.2026
▁sailors	-11.203
▁construct	-11.2034
▁efficiency	-11.2038
▁floating	-11.204
▁philosophers	-11.2042
▁holes	-11.2043
▁preacher	-11.2049
▁inline	-11.2054
▁excellence	-11.2055
▁codice	-11.2056
▁feathers	-11.2056
▁grandson	-11.2057
▁quoth	-11.2058
▁bohemian	-11.206
▁temporal	-11.2063
▁abandon	-11.207
▁desk	-11.2072
▁whither	-11.2074
▁travelled	-11.2075
▁notices	-11.2075
▁proportions	-11.2083
▁affections	-11.2084
▁owen	-11.2085
▁texts	-11.2086
▁invested	-11.2087
▁hadn	-11.2088
▁mentions	-11.2088
▁withdraw	-11.2095
▁annotated	-11.2098
▁corpus	-11.2098
▁pretended	-11.2101
▁justices	-11.2101
▁thorough	-11.2106
▁esteem	-11.2106
▁varying	-11.2113
▁insects	-11.2115
▁festival	-11.2115
▁respectable	-11.2117
▁load	-11.2119
▁developer	-11.2121
▁discrimination	-11.2122
res	-11.2124
▁push	-11.2125
▁slaughter	-11.2125
▁candidates	-11.2128
▁petersburg	-11.2129
▁avoided	-11.2133
▁corrupt	-11.2139
fa	-11.214
▁perish	-11.2145
▁chemistry	-11.2146
▁rs	-11.2146
▁levied	-11.2148
▁imitation	-11.2152
▁diary	-11.2153
▁drawings	-11.2153
▁compound	-11.2156
▁civilian	-11.2156
▁subsections	-11.2157
▁labours	-11.2157
▁emphasis	-11.2158
▁creating	-11.2163
▁dining	-11.2167
▁agnes	-11.2171
▁ash	-11.2174
▁basket	-11.2176
ria	-11.2176
▁hail	-11.2176
ik	-11.2181
▁securing	-11.2183
▁chancery	-11.2183
▁louisa	-11.2184
▁holmes	-11.2185
▁pastoral	-11.2185
▁accompany	-11.2189
▁lightning	-11.219
▁wept	-11.2194
▁stipulated	-11.2194
▁fastened	-11.2195
▁partners	-11.2195
nd	-11.2196
▁mirror	-11.2196
▁sez	-11.2196
▁andrews	-11.2204
▁authorizing	-11.2207
▁drugs	-11.2208
▁rendering	-11.2208
▁reporting	-11.2209
▁vacant	-11.2215
▁implement	-11.2216
▁stable	-11.2217
▁rogers	-11.2222
▁architect	-11.2225
▁precise	-11.2228
▁tip	-11.2228
▁engraved	-11.223
▁shells	-11.2236
▁hardy	-11.2238
▁poles	-11.2238
▁settlements	-11.2239
▁maker	-11.2245
▁owed	-11.2245
▁hym	-11.2246
▁amounted	-11.2246
▁cock	-11.225
ua	-11.2251
▁appealed	-11.2251
▁yea	-11.2252
▁commodity	-11.2254
▁execute	-11.2257
▁pleasing	-11.2258
▁exercises	-11.2272
ise	-11.2273
ance	-11.2274
▁redemption	-11.2279
▁councils	-11.2279
▁fin	-11.2283
▁sketches	-11.2284
▁tones	-11.2285
▁breeze	-11.2285
▁darling	-11.229
▁cared	-11.229
▁considers	-11.2291
▁wounds	-11.2296
▁tive	-11.2299
▁automatically	-11.2303
▁bounded	-11.2304
▁restricted	-11.2304
▁towers	-11.2305
▁resemblance	-11.2309
▁subdivision	-11.231
▁mood	-11.2313
▁sanction	-11.2314
▁referring	-11.2315
▁gg	-11.2315
▁elevated	-11.2316
▁endowed	-11.2316
▁karl	-11.2318
▁char	-11.2319
▁expert	-11.2322
▁grim	-11.2324
▁dragon	-11.2325
ber	-11.2326
▁portuguese	-11.2327
▁leipzig	-11.2327
▁albany	-11.2329
her	-11.2332
▁traveller	-11.2335
▁sits	-11.2339
▁graham	-11.234
▁mist	-11.234
▁julia	-11.2344
▁yielded	-11.2347
▁imperfect	-11.2349
▁revenge	-11.2349
▁nm	-11.2351
more	-11.2354
▁pearl	-11.2356
ated	-11.2356
▁philippine	-11.2357
▁regulated	-11.2359
▁flaming	-11.2359
▁sunset	-11.236
▁yorkshire	-11.2365
up	-11.2367
▁jul	-11.2369
▁immortal	-11.237
▁chester	-11.2373
▁feels	-11.2376
lan	-11.2379
▁phase	-11.2379
▁hither	-11.2381
▁reaction	-11.2385
▁intend	-11.2389
▁cruelty	-11.2389
▁dock	-11.2389
izing	-11.2391
▁anchor	-11.2391
▁wady	-11.2391
▁exile	-11.2393
▁questioned	-11.2394
▁conducting	-11.2397
▁sung	-11.2397
▁posthumous	-11.2398
▁leaning	-11.24
▁injuries	-11.2401
▁losing	-11.2408
fl	-11.2411
▁bristol	-11.2413
▁illustrious	-11.2413
▁prosper	-11.2414
▁notifications	-11.2417
ado	-11.2417
▁colors	-11.2417
▁ballads	-11.2418
▁twilight	-11.242
▁chaplain	-11.242
▁stringer	-11.242
▁suggests	-11.2423
▁horns	-11.2425
▁comptroller	-11.2426
▁assuming	-11.2426
▁palestine	-11.2426
▁browne	-11.2432
▁studying	-11.2432
od	-11.2432
▁edwards	-11.2433
▁auto	-11.2435
▁billion	-11.2436
▁nelson	-11.2439
▁exposure	-11.2445
▁indifferent	-11.2448
pe	-11.2452
▁retire	-11.2455
▁cyclopaedia	-11.2463
q	-11.2463
▁shaking	-11.2463
▁boiling	-11.2467
▁tabernacle	-11.247
▁ju	-11.2474
ula	-11.2478
▁vulgar	-11.2479
▁interference	-11.2483
▁suffolk	-11.2488
▁ller	-11.2488
▁wealthy	-11.2491
▁appellant	-11.2495
▁proprietor	-11.2495
▁seconds	-11.2497
▁reverence	-11.2498
▁deaths	-11.2498
▁draft	-11.2501
▁worlds	-11.2502
▁delegate	-11.2504
▁stuart	-11.2508
▁neighbours	-11.2508
▁eliza	-11.2509
▁middlesex	-11.2513
▁resided	-11.2516
▁ec	-11.2522
▁clarke	-11.2525
▁planned	-11.2526
▁keeps	-11.2526
▁hans	-11.2527
▁peninsula	-11.2528
▁accompanying	-11.2529
▁gal	-11.253
▁beer	-11.253
▁una	-11.2534
▁logic	-11.2535
▁ugly	-11.2539
▁jewels	-11.254
▁mask	-11.254
▁lateral	-11.2543
▁metropolitan	-11.2545
▁confused	-11.2548
sh	-11.2548
▁sealed	-11.2548
▁hind	-11.2549
▁faculties	-11.255
▁contributing	-11.255
▁impact	-11.2553
▁ufed	-11.2554
▁invitation	-11.2557
▁skull	-11.2558
▁westward	-11.2559
▁lightly	-11.2559
▁gabriel	-11.2562
▁augustin	-11.2563
▁cheap	-11.2564
▁radical	-11.2567
ou	-11.2568
▁dispose	-11.2571
▁tenant	-11.2571
▁belgium	-11.2575
▁foremost	-11.2575
▁advancing	-11.2575
▁internet	-11.2576
▁jealousy	-11.2578
▁nowhere	-11.2578
▁graceful	-11.258
▁satan	-11.2581
▁cooperative	-11.2583
▁luther	-11.2586
▁stirred	-11.2588
▁harrison	-11.2593
▁dem	-11.2594
▁workmen	-11.2594
▁bliss	-11.2596
▁collecting	-11.2596
▁eton	-11.2596
▁sounded	-11.2597
▁fortunes	-11.2598
▁flash	-11.2599
▁condemnation	-11.2601
▁penny	-11.2607
▁justification	-11.2609
▁electors	-11.2609
▁desirous	-11.2613
▁mason	-11.2614
▁termed	-11.2615
ow	-11.2615
▁indicates	-11.2616
▁reaches	-11.262
▁sessions	-11.2621
▁holder	-11.2622
▁commissions	-11.2622
▁weird	-11.263
ver	-11.2633
▁sultan	-11.2633
▁denial	-11.2633
▁criteria	-11.2638
▁sunk	-11.2642
▁arrow	-11.2645
▁inscriptions	-11.2646
▁syllable	-11.2646
▁wellington	-11.2647
der	-11.2648
▁fuch	-11.2648
▁skins	-11.265
▁suspension	-11.2651
▁debate	-11.2651
▁clothed	-11.2652
▁railroads	-11.2656
▁brand	-11.2656
▁addresses	-11.2658
▁lydia	-11.266
▁indignation	-11.2663
▁presidency	-11.2663
▁mothers	-11.2663
▁senators	-11.2664
ks	-11.2665
▁guilt	-11.2665
▁bred	-11.2666
▁ness	-11.2666
go	-11.2667
▁beef	-11.2667
▁apartment	-11.2668
▁unite	-11.2669
▁objective	-11.267
▁dissent	-11.267
▁renewal	-11.2672
▁consumer	-11.2673
▁dies	-11.2673
sen	-11.2674
▁savings	-11.2674
▁lib	-11.2675
▁incapable	-11.2676
▁vengeance	-11.2676
▁complainant	-11.2684
▁tarsus	-11.2689
▁visits	-11.2689
▁thief	-11.2696
▁electronic	-11.2696
▁transmission	-11.2697
tt	-11.2697
▁foe	-11.2698
▁ratified	-11.2702
▁nobility	-11.2703
ung	-11.2704
ston	-11.2706
▁ornaments	-11.2709
▁lace	-11.2709
▁roses	-11.2715
▁dense	-11.2717
▁md	-11.2718
▁washing	-11.2719
▁pm	-11.2724
▁ballot	-11.2726
▁residing	-11.2727
▁astonished	-11.2727
▁corrected	-11.2728
ib	-11.2729
▁fisher	-11.2731
▁clad	-11.2732
▁lean	-11.2747
tin	-11.2748
▁revolt	-11.2752
▁financing	-11.2752
▁greatness	-11.2755
▁breeding	-11.2756
▁gracious	-11.2761
▁rings	-11.2764
▁naples	-11.2765
▁staring	-11.2766
▁dissolved	-11.2766
▁procession	-11.2767
▁marion	-11.277
▁swiftly	-11.2774
▁scotch	-11.2778
▁danish	-11.2778
▁females	-11.2778
▁appl	-11.2778
▁constitutes	-11.2785
▁reimbursement	-11.2786
▁morals	-11.279
▁confirm	-11.279
▁isolated	-11.2791
▁miracle	-11.2799
▁legally	-11.28
▁hume	-11.2801
▁heap	-11.2801
▁couch	-11.2802
▁horace	-11.2803
▁martial	-11.2805
▁sch	-11.2807
▁juice	-11.2812
▁tremendous	-11.2813
ei	-11.2815
▁knox	-11.2816
▁cliff	-11.2816
▁inhabited	-11.2818
▁delegates	-11.2821
▁phil	-11.2824
▁likeness	-11.2827
▁reckon	-11.2828
▁withdrew	-11.2829
▁vocational	-11.283
▁utah	-11.2831
▁figs	-11.2833
▁cuba	-11.2833
▁shooting	-11.2834
▁rejoice	-11.2838
▁increases	-11.2843
▁groot	-11.2844
▁contended	-11.2845
▁halt	-11.2847
▁cir	-11.2849
tor	-11.2857
▁dangers	-11.2866
▁cicero	-11.2868
▁exclusion	-11.2868
▁citizenship	-11.2868
▁peak	-11.2869
▁insured	-11.2871
▁byron	-11.2871
▁moneys	-11.2872
▁foul	-11.2875
▁boxes	-11.2879
▁conformity	-11.2881
▁shipping	-11.2881
▁modest	-11.2883
▁epistle	-11.2889
▁nu	-11.2891
▁deadly	-11.2892
▁entities	-11.2894
tum	-11.2896
▁jest	-11.2902
▁stretch	-11.2903
▁padre	-11.2909
▁sworn	-11.2911
▁inspiration	-11.2915
▁apple	-11.2916
▁sailor	-11.2917
▁om	-11.2917
▁prevail	-11.292
▁logging	-11.292
▁advise	-11.2923
yn	-11.2925
▁enforced	-11.2926
▁conventions	-11.2928
▁dc	-11.2929
▁pierce	-11.2931
▁bombay	-11.2932
▁deserve	-11.2933
▁doctrinal	-11.2933
hu	-11.2939
▁bankrupt	-11.2941
▁relatively	-11.2942
▁bloody	-11.2942
▁visiting	-11.2942
▁varieties	-11.2945
▁wallace	-11.2946
▁naturalist	-11.2946
▁journalism	-11.2948
▁subordinate	-11.2951
▁spear	-11.2952
▁barren	-11.2953
▁elephant	-11.2954
▁vegetable	-11.2955
▁ance	-11.2955
▁murdered	-11.2956
▁ren	-11.2956
▁happily	-11.2959
▁filling	-11.2961
▁warwick	-11.2961
▁terminated	-11.2962
▁mas	-11.2966
▁rite	-11.2969
▁fury	-11.297
▁foreigners	-11.297
▁brazil	-11.2971
▁upward	-11.2976
▁elders	-11.2978
▁devils	-11.298
▁postage	-11.2981
▁famine	-11.2982
ix	-11.2982
▁wedding	-11.2983
▁printer	-11.2983
▁pitt	-11.2984
▁primarily	-11.2985
▁trials	-11.299
▁strengthen	-11.2993
▁adverse	-11.2996
▁mediterranean	-11.2998
gi	-11.2998
▁joshua	-11.2998
▁improving	-11.2998
▁mingled	-11.2999
▁pf	-11.2999
▁mc	-11.3
▁meets	-11.3003
▁bur	-11.3005
▁goal	-11.3006
▁stupid	-11.3008
▁spell	-11.3008
▁stanley	-11.3011
▁herd	-11.3011
▁charitable	-11.3011
▁absorbed	-11.3012
▁dove	-11.3012
▁brit	-11.3012
▁abolished	-11.3012
ney	-11.3019
▁mantle	-11.3022
▁eloquence	-11.3024
▁invariably	-11.3024
▁header	-11.3028
▁blessings	-11.3032
▁egyptians	-11.3033
▁confirmation	-11.3038
▁erection	-11.3039
▁leaned	-11.3041
▁foundations	-11.3044
▁trap	-11.3046
▁notification	-11.3047
▁detention	-11.305
▁assessed	-11.3052
▁tl	-11.3054
▁breathing	-11.3054
▁earnestly	-11.3055
▁smoking	-11.3063
▁imposing	-11.3064
ak	-11.3064
▁openly	-11.3067
rum	-11.307
aw	-11.3072
▁failing	-11.3072
▁covers	-11.3074
▁classified	-11.3079
▁combat	-11.3081
ica	-11.3081
▁sinking	-11.3081
▁boil	-11.3084
▁password	-11.309
▁corners	-11.3091
▁influences	-11.3093
▁sued	-11.3094
▁centers	-11.3095
ical	-11.3096
▁compel	-11.3098
▁toil	-11.3098
▁proves	-11.3099
▁fold	-11.3104
▁reproach	-11.3105
ada	-11.3111
▁surrendered	-11.3111
▁gu	-11.3116
▁recommend	-11.3117
▁serves	-11.3119
▁unexpected	-11.3126
▁garment	-11.3126
▁everlasting	-11.3126
▁expectation	-11.3127
▁crest	-11.3127
▁causing	-11.313
▁mathematics	-11.313
▁bon	-11.3131
▁permissions	-11.3135
▁cloak	-11.3135
▁whisper	-11.314
▁storage	-11.3143
▁evelyn	-11.3143
▁astonishment	-11.3156
▁knocked	-11.316
ny	-11.316
▁attributes	-11.3162
▁mal	-11.3165
▁leadership	-11.317
▁flames	-11.3172
▁fence	-11.3178
▁dumb	-11.3182
▁pile	-11.3183
▁startled	-11.3183
▁muttered	-11.3184
▁bu	-11.3186
▁shops	-11.3186
▁hawk	-11.3188
▁lond	-11.319
▁ea	-11.3195
▁extremity	-11.3196
▁doubts	-11.3196
▁shallow	-11.3198
▁partially	-11.3199
▁earned	-11.32
▁jealous	-11.3202
▁impeachment	-11.3206
▁folio	-11.3209
▁gantry	-11.3209
▁residents	-11.3212
bury	-11.3215
▁drops	-11.3219
▁sunshine	-11.3223
▁prague	-11.3223
▁aroused	-11.3224
▁complained	-11.3226
▁remembrance	-11.3227
▁caution	-11.3228
▁rang	-11.3232
▁invalid	-11.3233
▁exquisite	-11.3233
▁cc	-11.3237
▁peru	-11.3238
▁salmon	-11.3238
▁split	-11.3244
▁hamlet	-11.3247
▁inasmuch	-11.3249
▁annals	-11.326
▁certification	-11.326
▁eligibility	-11.3263
▁gentiles	-11.3263
▁communicated	-11.3266
▁jules	-11.3268
ised	-11.327
▁muscles	-11.3274
▁rigid	-11.3276
▁raisonn	-11.3278
▁violet	-11.3281
▁frm	-11.3286
▁virtuous	-11.3287
▁homer	-11.3289
▁reconciliation	-11.329
▁refusing	-11.329
▁structures	-11.3291
ran	-11.3293
▁bells	-11.3294
ze	-11.3295
▁mamma	-11.3297
ms	-11.33
▁incidental	-11.3304
▁clerical	-11.3305
▁weeping	-11.3307
▁gloom	-11.3313
▁etymological	-11.3317
▁antiquities	-11.3317
▁portugal	-11.3317
▁conceal	-11.3317
▁synod	-11.3326
▁dresses	-11.333
▁cemetery	-11.333
▁declaring	-11.333
▁administer	-11.3333
▁phrases	-11.3338
▁amusement	-11.3341
▁heathen	-11.3341
▁autobiography	-11.3344
▁repentance	-11.3344
▁smallest	-11.3344
▁stopping	-11.3344
▁hun	-11.3352
▁lend	-11.3353
▁epoch	-11.3355
▁camb	-11.3356
▁presentation	-11.3357
▁pastor	-11.3358
▁lastly	-11.3359
▁reckoned	-11.3361
▁spots	-11.3367
▁ala	-11.3368
▁pressing	-11.3369
▁duchess	-11.3369
▁sensitive	-11.337
▁debtor	-11.337
▁fashioned	-11.337
▁accounted	-11.3371
▁describing	-11.3371
▁ferrier	-11.3371
▁sustain	-11.3373
▁initiative	-11.3382
▁achieve	-11.3383
▁software	-11.3384
▁dressing	-11.3391
▁accounting	-11.3392
▁vivid	-11.3396
▁fir	-11.3397
▁hereditary	-11.3398
▁hastened	-11.34
▁doubted	-11.3401
▁sore	-11.3403
▁tim	-11.3404
▁warned	-11.3404
▁clashe	-11.3404
▁steward	-11.3406
▁breed	-11.3408
▁loyal	-11.3409
lt	-11.3412
▁swung	-11.3412
berg	-11.3425
▁cia	-11.3425
▁euripides	-11.3425
▁testified	-11.3425
▁fmt	-11.3426
▁sink	-11.3429
▁hue	-11.3431
▁lunch	-11.3433
▁baptist	-11.3433
▁hereford	-11.3437
▁invisible	-11.3439
▁arbitrary	-11.3439
▁inserted	-11.3442
▁vie	-11.3442
▁miracles	-11.3444
▁vary	-11.3444
▁sal	-11.3445
▁bounds	-11.3448
▁favorite	-11.3451
▁strife	-11.3453
▁resolve	-11.3455
▁wondering	-11.3455
▁brush	-11.3457
▁nile	-11.3464
gan	-11.3464
per	-11.3467
▁papa	-11.3472
▁voters	-11.3473
pur	-11.3475
ld	-11.3476
▁conjunction	-11.3477
▁borrower	-11.3479
▁hunters	-11.348
▁innumerable	-11.3482
▁precepts	-11.3482
▁sincere	-11.349
▁countrymen	-11.3494
▁crushed	-11.3496
▁disorder	-11.3498
▁manifested	-11.35
▁verb	-11.3505
▁genera	-11.3506
▁psn	-11.3508
▁crept	-11.3508
▁blows	-11.3508
ih	-11.351
▁messengers	-11.351
▁flint	-11.3511
▁knock	-11.3512
ization	-11.3514
▁hull	-11.3515
ach	-11.3516
▁captains	-11.3521
▁memories	-11.3523
▁encouragement	-11.3523
▁honours	-11.3524
▁lordship	-11.3524
▁worker	-11.3526
▁influenced	-11.353
▁wider	-11.353
▁dew	-11.353
▁conclusive	-11.3532
▁leisure	-11.3532
▁ordnance	-11.3535
▁immunity	-11.3535
▁formidable	-11.3535
▁destiny	-11.3535
▁customary	-11.3536
▁magistrates	-11.3543
▁thefe	-11.3545
▁compromise	-11.3549
▁agony	-11.355
▁biological	-11.355
▁fortress	-11.3551
▁demonstrated	-11.3552
▁dat	-11.3556
▁reside	-11.3559
▁modifications	-11.3559
▁ferdinand	-11.356
▁possessing	-11.3563
▁hereunto	-11.3564
▁motions	-11.3565
▁survived	-11.3565
▁lan	-11.3565
▁endless	-11.3571
▁convenience	-11.3574
▁repeatedly	-11.3574
▁moscow	-11.3577
▁loyalty	-11.3577
▁cer	-11.3577
▁entrusted	-11.3577
▁differs	-11.3578
▁decay	-11.3585
lv	-11.3591
▁ivory	-11.3591
▁contemplated	-11.3592
▁memb	-11.3592
▁doctors	-11.3593
▁apps	-11.3594
▁joan	-11.3595
▁earthly	-11.3596
▁believes	-11.3596
▁curtain	-11.3598
▁graves	-11.3598
▁disgrace	-11.36
so	-11.3601
▁agitation	-11.3602
▁excellency	-11.3604
▁extant	-11.3605
▁deficiency	-11.3605
▁concert	-11.3606
▁jkt	-11.3606
▁entertain	-11.3607
▁spreading	-11.361
▁default	-11.3612
▁elegant	-11.3615
▁claimant	-11.3619
▁weep	-11.3619
▁ic	-11.3624
▁xxi	-11.3627
▁treasures	-11.3627
cd	-11.363
▁shaft	-11.3632
▁literally	-11.3634
▁archives	-11.3636
▁endeavour	-11.3636
▁sites	-11.3636
▁taxable	-11.3637
▁protocol	-11.3644
▁sfmt	-11.3646
▁fide	-11.3648
▁surveys	-11.3652
▁glow	-11.3654
▁veins	-11.3656
▁relatives	-11.3656
▁trick	-11.3658
▁geographic	-11.3659
▁suited	-11.366
▁normandy	-11.366
▁complicated	-11.366
▁swan	-11.3661
▁addressing	-11.3661
▁mitchell	-11.3662
▁guided	-11.3663
▁secrets	-11.3663
▁balls	-11.3664
▁hearted	-11.3664
dy	-11.3669
▁dom	-11.367
▁auditor	-11.3675
▁undertook	-11.3675
▁silly	-11.3676
▁southwest	-11.3676
che	-11.3679
▁seeks	-11.368
▁feveral	-11.3685
▁inclination	-11.3686
▁arbitration	-11.3688
▁anyway	-11.3689
▁lawyers	-11.3693
▁reads	-11.3696
▁arrange	-11.3699
▁fluid	-11.37
▁tilde	-11.37
▁shine	-11.3701
▁enrolled	-11.3703
ki	-11.3703
▁diminished	-11.3704
▁wandered	-11.3705
▁accent	-11.3711
ida	-11.3714
▁peer	-11.3715
▁inquiries	-11.3716
▁proofs	-11.3717
▁wickedness	-11.3719
▁testing	-11.372
▁popularity	-11.372
▁rescue	-11.3729
▁supernatural	-11.373
▁favorable	-11.3732
▁deceived	-11.3733
▁admired	-11.3734
▁nigh	-11.3735
▁didst	-11.3736
▁witch	-11.3738
▁champion	-11.3742
▁investigate	-11.3744
▁dissolution	-11.3744
▁prevailing	-11.3749
▁dig	-11.375
▁robe	-11.3751
▁flies	-11.3752
▁consulted	-11.3753
▁claiming	-11.3757
▁vedic	-11.376
▁shew	-11.3761
▁jumped	-11.3762
▁compass	-11.3765
cn	-11.3769
▁limestone	-11.3771
▁purchaser	-11.3771
▁lone	-11.3772
▁jupiter	-11.3772
▁descriptions	-11.3773
▁leaped	-11.3776
▁verne	-11.3776
▁collapse	-11.3783
▁subtle	-11.3784
▁hofst	-11.3784
▁requisite	-11.3785
▁comprising	-11.3787
▁pretend	-11.3788
▁advances	-11.3791
▁bl	-11.3793
▁pasture	-11.3797
▁sample	-11.3805
▁planet	-11.3808
va	-11.3809
▁regiments	-11.3812
▁berkeley	-11.3815
▁insist	-11.3819
▁passionate	-11.3827
▁fragment	-11.3828
▁missed	-11.383
▁profitable	-11.3831
▁ku	-11.3832
▁mansion	-11.3832
▁ep	-11.3833
ani	-11.3838
▁involve	-11.3838
▁cp	-11.3838
ura	-11.3839
▁housekeeper	-11.3842
▁hawaii	-11.3843
▁hu	-11.3844
▁strip	-11.3845
▁hy	-11.3846
▁repose	-11.3848
▁rugs	-11.3855
▁erroneous	-11.3855
▁dealer	-11.3856
▁curve	-11.3857
▁guaranteed	-11.3862
▁envy	-11.3864
▁sinners	-11.3866
▁locke	-11.3867
▁players	-11.3873
▁relied	-11.3874
▁reminded	-11.3875
con	-11.3875
▁vict	-11.3884
ct	-11.3884
▁asks	-11.3884
▁quota	-11.3885
▁indifference	-11.3886
▁allah	-11.3886
▁missionaries	-11.3887
▁backward	-11.3888
▁strongest	-11.3893
▁observer	-11.3893
▁faithfully	-11.3897
▁ken	-11.39
▁roosevelt	-11.3901
▁feather	-11.3901
▁donald	-11.3901
▁supplemental	-11.3903
▁pioneer	-11.3903
▁harper	-11.3904
▁comrades	-11.3904
▁lucia	-11.3905
▁martha	-11.3906
▁jungle	-11.3913
▁kindred	-11.3917
▁encountered	-11.3918
▁clauses	-11.3924
▁loaded	-11.3934
▁lis	-11.3938
off	-11.3939
op	-11.3939
▁steal	-11.394
▁wage	-11.394
▁nutrition	-11.3943
▁appreciation	-11.3944
▁pocahontas	-11.3944
▁houston	-11.3944
▁peril	-11.3949
▁helping	-11.3949
▁pistol	-11.3949
▁patents	-11.3949
▁asiatic	-11.395
▁pond	-11.395
▁trades	-11.3951
▁reigned	-11.3953
▁litigation	-11.3958
▁stirring	-11.3958
▁johnston	-11.3959
▁exalted	-11.3959
▁ban	-11.3961
▁rushing	-11.3966
▁rounded	-11.3967
▁oc	-11.3968
rt	-11.3969
▁ave	-11.3971
▁intervention	-11.3971
▁misfortune	-11.3971
▁removing	-11.3973
▁supposing	-11.3973
▁enclosed	-11.3973
▁listed	-11.3975
▁facilitate	-11.3982
▁annie	-11.3982
▁estimates	-11.3983
▁subscription	-11.3985
▁appetite	-11.3986
eh	-11.3987
▁suppression	-11.3987
▁madness	-11.399
▁cen	-11.3994
▁whale	-11.4001
▁ammunition	-11.4001
▁constance	-11.4001
▁disappointed	-11.4002
▁ny	-11.4003
▁induce	-11.4003
▁hesitated	-11.4004
▁bushes	-11.4011
▁orthodox	-11.4012
▁darwin	-11.4013
▁stole	-11.4013
▁wagon	-11.4015
▁ranges	-11.4015
▁cas	-11.4015
▁mercury	-11.4016
za	-11.4016
▁discoveries	-11.4016
▁panama	-11.4017
▁buchanan	-11.4018
▁twisted	-11.4019
▁tory	-11.4025
▁disputes	-11.4027
▁restraint	-11.4032
▁trusted	-11.4033
▁pensions	-11.4035
▁harsh	-11.4038
om	-11.4039
▁oral	-11.4039
▁variation	-11.4044
▁lancaster	-11.4045
▁speedily	-11.4045
▁fan	-11.4046
▁straits	-11.4047
▁persia	-11.4053
ill	-11.4057
▁mor	-11.4059
▁governors	-11.4062
▁hund	-11.4067
▁perpendicular	-11.4071
▁continuation	-11.4074
▁emerson	-11.4075
▁fred	-11.4076
▁clearing	-11.4076
way	-11.4077
▁witnessed	-11.4078
▁productive	-11.4079
mg	-11.4081
era	-11.4083
▁laborers	-11.4085
▁universally	-11.4086
▁respected	-11.4086
▁warfare	-11.4089
▁boiled	-11.4093
▁tents	-11.4094
▁bitterly	-11.4096
ker	-11.4099
▁jaw	-11.41
yl	-11.4101
▁slopes	-11.4105
▁regt	-11.4111
▁media	-11.4111
▁ashore	-11.4112
▁worldly	-11.4114
▁memoir	-11.4115
▁burns	-11.4118
▁harvey	-11.4118
▁reflections	-11.4119
▁reveal	-11.4123
ere	-11.4126
▁offences	-11.4128
▁innocence	-11.4132
▁pollution	-11.4132
▁decreed	-11.4138
▁fog	-11.4141
▁recording	-11.4142
▁amateur	-11.4146
▁tuesday	-11.4147
▁vocabulary	-11.4147
▁annuity	-11.4147
▁unseen	-11.4147
▁spake	-11.4147
▁heels	-11.4153
▁privately	-11.4159
▁remedies	-11.4162
▁offspring	-11.4162
▁restless	-11.4163
▁modes	-11.4173
▁cable	-11.4173
▁aboard	-11.4176
▁leicester	-11.4176
▁vyasa	-11.4176
▁actor	-11.4179
▁io	-11.4181
▁stress	-11.4186
▁cunning	-11.4189
▁sanskrit	-11.4191
worth	-11.4201
▁elizabethan	-11.4201
▁surprising	-11.4203
▁bailey	-11.4207
ff	-11.4207
cs	-11.4215
▁carter	-11.4215
▁terminate	-11.4216
▁productions	-11.4217
▁careless	-11.4222
▁communicate	-11.4224
▁classic	-11.4224
▁exceeds	-11.4229
▁paths	-11.423
▁faults	-11.4231
▁alt	-11.4235
▁rochester	-11.4235
▁sioux	-11.4235
▁madison	-11.4235
▁cumberland	-11.4236
▁marcus	-11.4237
▁ag	-11.4237
▁cha	-11.4237
▁aided	-11.4237
▁florins	-11.4239
▁bald	-11.4239
▁youthful	-11.4241
▁vir	-11.4244
▁rider	-11.4248
▁temptation	-11.425
▁luxury	-11.425
▁sampling	-11.425
▁jimmy	-11.425
▁observing	-11.4251
▁yer	-11.4252
▁flocks	-11.4253
▁climbed	-11.4254
wa	-11.4254
▁competitive	-11.4264
▁southeast	-11.4265
▁sober	-11.4266
▁bedford	-11.4267
▁ape	-11.427
▁wasted	-11.4271
▁dug	-11.4272
▁lawfully	-11.4273
▁statues	-11.4276
▁vow	-11.4276
▁tended	-11.4276
▁objected	-11.4277
▁silently	-11.4278
▁attempting	-11.4278
▁metals	-11.4279
one	-11.428
▁drowned	-11.4281
▁ferry	-11.4281
▁contention	-11.4282
▁betrayed	-11.4283
▁option	-11.4285
▁ul	-11.429
▁chairs	-11.429
▁restriction	-11.4292
▁mast	-11.4293
▁levy	-11.4294
west	-11.4294
▁asylum	-11.4294
▁ratification	-11.4295
▁foreground	-11.4295
▁destination	-11.4295
▁occasioned	-11.4295
▁lap	-11.4295
▁relieve	-11.4298
▁peters	-11.4303
▁rel	-11.4305
▁batteries	-11.431
▁recommendation	-11.431
▁patronage	-11.4311
▁exceptional	-11.4311
▁involves	-11.4311
▁susan	-11.4314
▁stuck	-11.4314
▁handling	-11.4321
▁venus	-11.4322
▁advertising	-11.4325
▁undo	-11.4325
▁divers	-11.4325
▁esteemed	-11.433
ries	-11.433
▁rub	-11.433
▁tenants	-11.4331
▁magdalen	-11.4333
▁verda	-11.4336
iv	-11.4338
▁nationals	-11.4339
▁surveillance	-11.4339
▁geology	-11.434
▁availability	-11.434
▁clergyman	-11.4342
▁consumed	-11.4342
▁preceded	-11.4342
▁sensations	-11.4342
▁constable	-11.4342
▁warmth	-11.4343
▁dominions	-11.4346
▁correctly	-11.4352
▁variations	-11.4355
▁waiver	-11.4356
▁protecting	-11.4357
▁eleanor	-11.4365
▁wont	-11.4366
▁herefordshire	-11.437
▁cheer	-11.4381
▁cincinnati	-11.4384
▁issuance	-11.4384
▁crow	-11.4386
▁ascribed	-11.4386
▁nut	-11.4393
ring	-11.4394
▁gown	-11.4396
▁neighbors	-11.4397
▁mt	-11.4399
▁presumption	-11.4399
▁mahabharata	-11.44
▁warrior	-11.44
iy	-11.4401
▁correction	-11.4401
▁barn	-11.4403
▁seals	-11.4407
▁searching	-11.4411
▁ridiculous	-11.4412
▁amusing	-11.4415
▁tempest	-11.4415
▁aids	-11.4416
▁cruise	-11.4416
▁bolt	-11.4418
▁yale	-11.4418
▁alps	-11.442
▁collins	-11.4421
▁oo	-11.4424
▁actors	-11.4425
▁agrees	-11.4428
▁acquiring	-11.443
▁mobile	-11.4431
▁hallowe	-11.4431
▁measurement	-11.4432
▁confessed	-11.4435
▁visions	-11.4444
▁carved	-11.4446
▁daylight	-11.4446
▁acceptable	-11.4447
▁madam	-11.4448
▁critic	-11.4455
ita	-11.4456
▁lasting	-11.4457
▁discourses	-11.4458
▁schurz	-11.446
▁nonsense	-11.4461
▁complainants	-11.4465
▁cecil	-11.4466
▁piano	-11.447
▁twas	-11.4471
▁suffice	-11.4474
▁rows	-11.4475
▁sydney	-11.4475
▁moonlight	-11.4475
▁prairie	-11.4475
▁affixed	-11.4476
▁expressing	-11.4481
▁plough	-11.4482
tl	-11.4482
▁guarded	-11.4484
▁whip	-11.4484
▁vii	-11.4488
▁pleas	-11.4488
▁gerald	-11.449
▁vincent	-11.449
▁mechanism	-11.4491
▁solicitor	-11.4491
▁jail	-11.4493
▁socialism	-11.45
▁extract	-11.4501
▁carbon	-11.4503
head	-11.4503
bi	-11.4505
▁hypothesis	-11.4505
▁wrapped	-11.4506
▁batt	-11.4512
ds	-11.4516
▁univ	-11.4516
▁implies	-11.4521
▁ordinarily	-11.4521
▁examining	-11.4521
▁viewed	-11.4522
ias	-11.4524
▁terrace	-11.4525
▁ardent	-11.4525
ola	-11.4529
▁nil	-11.4531
▁shoe	-11.4531
▁commandments	-11.4532
▁context	-11.4535
▁concurrence	-11.4536
▁sicily	-11.4536
▁entertainment	-11.4537
▁newcomers	-11.4541
▁strengthened	-11.4541
▁ordinances	-11.4545
▁tutor	-11.455
▁jar	-11.4557
▁pu	-11.4558
▁ethel	-11.4563
▁horizontal	-11.4564
▁curiously	-11.4565
▁pipes	-11.4567
▁gesture	-11.4568
bo	-11.4572
▁ventured	-11.4574
▁grains	-11.4575
▁conventional	-11.4576
▁punch	-11.4578
af	-11.4578
▁glen	-11.458
▁hereinafter	-11.4583
▁strait	-11.4583
▁edges	-11.4593
▁psychological	-11.4594
▁smart	-11.4596
▁permanently	-11.4597
▁brussels	-11.4597
vi	-11.4597
▁palmer	-11.4598
▁glasses	-11.46
▁endeavoured	-11.4601
▁rim	-11.4603
▁bowl	-11.4605
▁wil	-11.461
▁tennyson	-11.4612
▁meridian	-11.4612
▁observance	-11.4613
▁arisen	-11.4621
▁gradual	-11.4626
▁supremacy	-11.4628
nus	-11.4628
▁harp	-11.4629
▁ceiling	-11.4629
▁recipient	-11.4629
▁alteration	-11.4629
▁entries	-11.4629
▁tragic	-11.463
▁tenderness	-11.4631
▁scorn	-11.4632
▁arrows	-11.4634
▁cit	-11.4638
▁pagan	-11.4643
▁sanctuary	-11.4643
▁learnt	-11.4644
▁friday	-11.4644
▁wan	-11.4647
▁ef	-11.4648
▁kar	-11.4653
▁strikes	-11.4654
▁hint	-11.4655
▁unwilling	-11.4655
▁forbid	-11.4656
▁oxen	-11.4658
▁pairs	-11.4659
▁trad	-11.4665
▁descend	-11.4666
▁cain	-11.4667
ger	-11.4668
▁baseline	-11.4676
▁neat	-11.4676
▁pleaded	-11.4677
▁patriarch	-11.4678
▁furnishing	-11.4686
▁requests	-11.4686
stone	-11.4689
▁vacancy	-11.469
ara	-11.469
▁cox	-11.4693
hill	-11.4694
▁presidents	-11.4695
▁creditor	-11.4695
▁breaks	-11.47
ub	-11.47
▁reserves	-11.4701
▁confer	-11.4701
▁blew	-11.4702
▁compilation	-11.4706
▁complain	-11.4707
▁scots	-11.4708
▁interpreted	-11.4708
▁vegetables	-11.471
▁condemn	-11.4713
▁hiding	-11.4714
▁limb	-11.4719
▁indebted	-11.472
▁gothic	-11.472
▁critics	-11.472
▁mabinogion	-11.4721
▁threatening	-11.4721
▁disappointment	-11.4722
▁celestial	-11.4722
▁deliberately	-11.4723
▁edith	-11.4724
▁gloomy	-11.4725
▁ses	-11.4726
▁martyr	-11.473
▁damp	-11.4734
▁counting	-11.4734
▁category	-11.4736
▁compositions	-11.4746
▁roar	-11.4751
iu	-11.4751
▁neighborhood	-11.4753
▁heartbreak	-11.4755
▁crystal	-11.4756
dale	-11.4762
▁parcels	-11.4767
▁dwaipay	-11.4767
▁concrete	-11.4767
▁puerto	-11.4767
town	-11.4781
▁stove	-11.4782
▁pamphlet	-11.4783
lu	-11.4783
▁arriving	-11.4783
▁homestead	-11.4785
▁roused	-11.4786
▁harriet	-11.4793
▁tests	-11.4794
▁jos	-11.4795
▁lon	-11.4797
▁pentateuch	-11.4799
▁crimson	-11.4799
▁tongues	-11.4799
▁squadron	-11.48
▁reject	-11.4805
▁coral	-11.4809
▁merciful	-11.4812
▁pamphlets	-11.4813
▁baptized	-11.4815
▁rubber	-11.4815
▁ally	-11.4817
▁grande	-11.4822
▁milan	-11.4825
▁hum	-11.4825
ire	-11.4825
▁cong	-11.4828
▁walks	-11.4828
▁button	-11.483
▁aristocracy	-11.483
▁resembling	-11.483
▁nebraska	-11.483
▁stricken	-11.483
▁continuance	-11.483
▁define	-11.4831
▁bags	-11.4833
▁carriers	-11.4834
▁comic	-11.4834
▁bor	-11.4837
▁geneva	-11.4838
▁aliens	-11.484
▁renders	-11.484
▁licensed	-11.4842
▁emotions	-11.4845
▁selfish	-11.4848
▁bis	-11.4848
▁defect	-11.485
▁qualifications	-11.4851
▁fortunately	-11.4851
▁alarmed	-11.4853
▁directing	-11.4855
han	-11.4858
▁dora	-11.486
▁forfeiture	-11.4863
▁inflicted	-11.4863
▁stake	-11.4864
aria	-11.4865
lon	-11.4866
▁curved	-11.4866
▁ideals	-11.4868
▁answering	-11.4871
▁unions	-11.4874
▁regulating	-11.4878
▁dreamed	-11.4881
ick	-11.4882
▁uni	-11.4882
▁mouse	-11.4884
▁fetch	-11.4884
▁gap	-11.4888
▁northumberland	-11.4893
▁shelley	-11.4894
ig	-11.4895
▁yearly	-11.4899
▁chalk	-11.49
▁definitely	-11.4901
▁depended	-11.4903
▁moves	-11.4905
▁yonder	-11.4909
▁anticipated	-11.4911
▁obeyed	-11.4917
▁spared	-11.4918
▁sweep	-11.492
▁lemon	-11.4921
▁glimpse	-11.4923
▁vegetation	-11.4925
▁needle	-11.4926
▁guidelines	-11.4927
▁meadow	-11.4927
▁connecting	-11.4929
▁mare	-11.4929
▁rum	-11.4935
▁ingenious	-11.4938
▁daus	-11.494
▁slew	-11.4945
▁instruct	-11.4946
▁lily	-11.4951
▁goin	-11.4957
▁perished	-11.4962
▁prohibit	-11.4965
▁experimental	-11.4966
fer	-11.4971
▁issuing	-11.4972
▁bud	-11.4975
▁regent	-11.4978
atus	-11.498
▁disturb	-11.4982
▁tain	-11.4983
▁treating	-11.4983
▁readings	-11.4988
cy	-11.4992
▁professors	-11.4992
ys	-11.4993
▁proposals	-11.4999
▁descriptive	-11.5005
▁oppose	-11.5006
▁deadline	-11.5009
▁thickness	-11.501
▁canton	-11.5011
▁pillars	-11.5013
▁aimed	-11.5015
▁thirst	-11.5018
▁editors	-11.5019
▁nonprofit	-11.502
▁refined	-11.5021
▁seizure	-11.5022
▁choir	-11.5023
▁amen	-11.5024
▁vine	-11.5024
▁ripe	-11.5025
▁contractor	-11.5028
▁grandmother	-11.5036
▁bounty	-11.5036
▁strand	-11.5037
▁consolidated	-11.5037
▁recollection	-11.5039
▁affirm	-11.5046
▁urge	-11.5049
▁yoke	-11.5055
▁percy	-11.5056
▁netherlands	-11.5057
▁implements	-11.506
▁courtesy	-11.5069
▁revived	-11.507
▁apo	-11.5071
▁planets	-11.5072
▁anterior	-11.5073
▁bet	-11.5074
like	-11.5076
▁prussian	-11.5076
▁vil	-11.5076
gh	-11.5078
▁neighbor	-11.5083
ari	-11.5083
▁embassy	-11.5085
▁exchequer	-11.5085
▁dudley	-11.5085
▁henceforth	-11.5085
▁preserving	-11.5085
ap	-11.5085
▁gravel	-11.5092
▁parke	-11.5093
▁bargain	-11.5094
▁insufficient	-11.5098
▁confident	-11.5098
▁stationed	-11.5099
▁blown	-11.5101
▁cavity	-11.5101
red	-11.5104
▁decade	-11.5105
▁castes	-11.5106
▁dissenting	-11.5106
▁mem	-11.5106
▁sighed	-11.5106
▁opponents	-11.5107
▁adm	-11.511
▁deliberate	-11.5114
tr	-11.5115
▁intensity	-11.5117
▁neutral	-11.5118
▁apprehension	-11.5119
▁edwin	-11.5125
▁surveyor	-11.5126
▁suc	-11.5126
▁exclude	-11.5132
▁abruptly	-11.5134
▁sophia	-11.5135
▁licence	-11.5136
▁forum	-11.5137
▁arabian	-11.5138
ors	-11.5141
▁associates	-11.5143
▁lined	-11.5144
▁parishes	-11.5149
▁eastward	-11.5151
▁locks	-11.5153
▁indemnity	-11.5156
ther	-11.5157
▁audit	-11.5158
▁gang	-11.5159
▁mess	-11.5163
▁easter	-11.5163
▁prudence	-11.5166
▁appellate	-11.5166
▁originated	-11.5168
▁magnitude	-11.5168
▁mint	-11.517
▁traders	-11.5171
▁blade	-11.5173
▁frost	-11.5173
▁barrel	-11.5178
▁sage	-11.518
▁allegiance	-11.5182
▁severity	-11.5182
▁pepper	-11.5184
ang	-11.5185
▁establishments	-11.5186
▁peers	-11.5189
▁ellis	-11.5194
▁vowel	-11.5195
nn	-11.5196
▁appreciate	-11.5197
▁chances	-11.5199
▁feudal	-11.5201
▁veteran	-11.5201
▁soup	-11.5203
▁shout	-11.5206
▁letting	-11.5206
▁applause	-11.5214
▁kennedy	-11.5214
▁compiled	-11.5215
▁purse	-11.5216
▁notions	-11.5217
▁programme	-11.5218
▁mouths	-11.5222
▁apollo	-11.5223
▁regardless	-11.5224
▁caste	-11.5224
▁reforms	-11.5226
▁ret	-11.5227
▁persuade	-11.5227
▁relics	-11.5229
▁archaeological	-11.5231
▁struggling	-11.5231
▁awakened	-11.5232
▁registrar	-11.5234
▁situations	-11.5234
▁holders	-11.5236
▁solemnly	-11.5238
▁appointments	-11.5241
▁cliffs	-11.5244
▁duo	-11.5245
▁plum	-11.5246
▁cricket	-11.5247
▁cellpadding	-11.5247
▁editorial	-11.5247
▁carpenter	-11.525
▁reprinted	-11.525
▁correspond	-11.525
▁sacrificed	-11.525
▁cursed	-11.5254
▁bland	-11.5254
▁swords	-11.5257
▁promoting	-11.5264
▁abide	-11.5264
▁gazing	-11.5264
▁fiery	-11.5264
▁librarian	-11.5266
▁consented	-11.5271
▁producers	-11.5273
▁ky	-11.5273
▁comprehend	-11.5274
▁zu	-11.5274
▁rem	-11.5279
▁venerable	-11.528
▁inherited	-11.5283
▁indication	-11.5283
▁prosperous	-11.5286
▁fewer	-11.5286
▁strangely	-11.5291
ning	-11.5295
▁phenomenon	-11.5296
gar	-11.5297
▁vit	-11.5297
▁presbyterian	-11.5299
▁conqueror	-11.53
▁farms	-11.53
▁legion	-11.53
▁slay	-11.53
▁dar	-11.5301
▁periodical	-11.5301
▁reminiscences	-11.5301
▁brandy	-11.5301
▁aims	-11.5302
▁gall	-11.5306
▁goat	-11.531
▁benedict	-11.531
▁gaul	-11.5311
▁muscle	-11.5312
▁scales	-11.5313
▁voluntarily	-11.5313
▁expedient	-11.5316
▁continual	-11.5317
▁patriotic	-11.5325
▁tracks	-11.5325
▁ancients	-11.5326
▁assign	-11.5326
▁prophecy	-11.5329
▁lloyd	-11.5329
▁conceded	-11.5331
▁bruce	-11.5331
▁preston	-11.5336
▁trent	-11.534
▁symptoms	-11.5354
▁indirect	-11.5354
▁ns	-11.5355
▁framed	-11.5356
▁presume	-11.5359
▁hem	-11.5361
▁swedish	-11.5362
▁fortified	-11.5363
▁savages	-11.5363
▁pos	-11.5363
▁amidst	-11.5363
▁superiority	-11.5364
▁ink	-11.5365
▁oppression	-11.5366
▁shaw	-11.5367
▁climb	-11.5371
des	-11.5375
▁gladly	-11.538
▁logged	-11.538
▁outstanding	-11.538
▁conn	-11.5382
▁responded	-11.5382
▁barr	-11.5382
mer	-11.5383
▁bro	-11.5384
▁substituted	-11.5385
▁conform	-11.5385
▁dence	-11.5389
▁turf	-11.5394
▁cm	-11.5395
▁wonders	-11.5397
▁herald	-11.5398
▁fellowship	-11.54
▁preventing	-11.5409
▁excepting	-11.5411
▁imply	-11.5411
▁nests	-11.5412
▁cream	-11.5412
▁chamberlain	-11.5412
▁unworthy	-11.5412
▁worshipped	-11.5412
▁sj	-11.5413
▁hopeless	-11.5414
▁achievement	-11.5416
▁deaf	-11.5419
▁hired	-11.5422
▁betty	-11.5423
▁grimm	-11.5424
▁tyranny	-11.5429
▁northeast	-11.5429
▁reconstruction	-11.5429
▁adorned	-11.5432
▁dep	-11.5433
cu	-11.5433
▁firing	-11.5435
▁checked	-11.5439
▁wards	-11.5439
▁praised	-11.5443
▁anniversary	-11.5446
▁thursday	-11.5446
▁nursing	-11.5446
▁indispensable	-11.5447
▁stead	-11.5452
▁hideous	-11.5452
▁admits	-11.5455
burg	-11.5457
▁sus	-11.5459
▁formally	-11.5459
mm	-11.546
▁tra	-11.5462
▁peculiarly	-11.5462
▁genesis	-11.5463
▁uncertainty	-11.5463
▁ven	-11.5464
▁admire	-11.5464
▁plunged	-11.5464
▁eminence	-11.5466
▁layer	-11.547
▁crude	-11.5475
▁illus	-11.5475
▁marvellous	-11.5476
▁reciprocal	-11.5476
▁pertaining	-11.548
▁withdrawal	-11.5484
▁barrier	-11.5484
▁publisher	-11.5486
▁correspondent	-11.5487
▁skirt	-11.5491
▁brooks	-11.5493
ui	-11.5493
▁willingly	-11.5493
▁hale	-11.5493
▁factories	-11.5497
▁swamp	-11.55
line	-11.5502
▁terminal	-11.5504
▁photograph	-11.5505
▁bullet	-11.5507
▁borrow	-11.5508
ux	-11.5508
▁pri	-11.5508
▁defects	-11.5511
▁lust	-11.5512
▁inward	-11.5512
▁vigour	-11.5513
▁cod	-11.5515
illa	-11.5518
▁longing	-11.5518
▁fielding	-11.5521
▁alternate	-11.5523
▁contra	-11.5523
▁flee	-11.5524
▁guam	-11.5525
▁filter	-11.5525
▁eden	-11.5527
▁bibliography	-11.5529
▁repository	-11.5529
▁pilgrimage	-11.5533
▁evans	-11.5541
▁channels	-11.5542
sch	-11.5543
▁repent	-11.5544
▁sector	-11.5547
▁explains	-11.5549
▁conservative	-11.555
▁speculation	-11.555
▁footsteps	-11.5551
▁peel	-11.5551
▁provisional	-11.5552
▁northward	-11.5553
▁models	-11.5554
▁deserves	-11.556
▁rebel	-11.5561
▁annex	-11.5561
▁honoured	-11.5562
▁temporarily	-11.5563
▁fisheries	-11.5564
▁enthusiastic	-11.5565
▁keys	-11.5566
▁secretly	-11.5567
▁protested	-11.5571
▁gill	-11.5573
▁complaints	-11.5578
iness	-11.5579
▁drift	-11.5579
▁lancashire	-11.558
▁swiss	-11.558
▁lecturer	-11.5582
▁puzzled	-11.5585
▁boldly	-11.5589
▁augusta	-11.559
nia	-11.559
▁skilled	-11.5594
▁medieval	-11.5597
▁ambitious	-11.5597
▁localities	-11.56
▁suggestions	-11.5601
▁tends	-11.5602
ella	-11.5607
▁presenting	-11.561
▁imposes	-11.5613
▁compulsory	-11.5614
▁melbourne	-11.5614
▁systematic	-11.5614
▁angelique	-11.5614
▁unduly	-11.5614
▁contend	-11.563
▁wishing	-11.563
▁marlborough	-11.5631
▁minnesota	-11.5631
▁diversity	-11.5631
▁scrap	-11.5632
▁kingdoms	-11.5632
▁pencil	-11.5636
▁advancement	-11.5641
ja	-11.5645
▁fork	-11.5645
▁destroying	-11.5647
▁busbecq	-11.5648
▁ture	-11.5649
▁furthermore	-11.5652
▁infinitely	-11.5656
▁positively	-11.5656
▁infants	-11.566
▁beneficial	-11.5663
▁monte	-11.5663
po	-11.5664
pr	-11.5664
▁nathaniel	-11.5665
ho	-11.5666
▁stadia	-11.5666
ps	-11.5668
▁shire	-11.5678
▁manufacturer	-11.5679
▁fools	-11.5679
▁mathematical	-11.568
▁cellspacing	-11.5682
▁purchasing	-11.5683
▁forthwith	-11.5683
▁gin	-11.5684
ile	-11.5686
▁historians	-11.5688
▁packed	-11.5689
▁vices	-11.5692
▁ploughs	-11.5699
▁hesitation	-11.5699
▁cuyp	-11.5699
▁intersection	-11.57
▁detached	-11.57
▁convert	-11.5702
▁sic	-11.5703
▁halted	-11.5705
lia	-11.5709
▁violently	-11.5709
▁precedent	-11.5709
▁winning	-11.5709
▁fare	-11.5709
▁delicious	-11.5714
▁abolition	-11.5716
▁copied	-11.5717
▁potatoes	-11.5718
▁readiness	-11.5718
▁olaf	-11.5719
ov	-11.5719
▁mourning	-11.5719
▁scholarship	-11.5721
▁anyhow	-11.5721
▁folded	-11.5722
▁sports	-11.5722
▁southward	-11.5723
▁rabbit	-11.5725
▁unpleasant	-11.573
▁cane	-11.5733
▁enumerated	-11.5735
ward	-11.574
▁counts	-11.5745
ob	-11.5747
▁jerome	-11.5751
▁pursuing	-11.5751
▁proclamations	-11.5755
▁ladder	-11.5757
lis	-11.5758
▁consequent	-11.5765
▁invite	-11.5767
▁funny	-11.5768
▁gender	-11.5769
▁dearest	-11.5774
▁deposition	-11.5775
▁isabel	-11.5775
▁lamps	-11.5776
▁ellen	-11.5779
▁patients	-11.578
▁erskine	-11.5785
▁baldwin	-11.5786
iz	-11.5787
▁bloom	-11.5787
▁rhine	-11.5788
▁monster	-11.579
▁chapman	-11.5792
▁keil	-11.5793
▁textile	-11.5793
▁kirk	-11.5794
▁attorneys	-11.5794
▁shillings	-11.5797
▁medi	-11.5797
▁tops	-11.5798
▁jesuits	-11.5799
▁velvet	-11.5799
▁replace	-11.5802
▁dorothy	-11.5803
▁cyclopedia	-11.5803
▁draws	-11.5805
▁fashionable	-11.5805
▁ud	-11.5805
▁devote	-11.5806
▁shrine	-11.5807
ien	-11.5808
▁accepting	-11.5809
▁aor	-11.581
▁lifting	-11.581
▁leagues	-11.581
oc	-11.5812
▁quo	-11.5814
▁assigns	-11.5817
▁fixing	-11.5818
▁bleak	-11.5821
▁pilgrim	-11.5825
▁schooner	-11.5825
▁handkerchief	-11.5825
▁demon	-11.5825
▁jump	-11.583
▁warn	-11.5832
▁bass	-11.5834
▁negligence	-11.5837
▁tomorrow	-11.5837
▁ned	-11.5839
▁drum	-11.584
▁indebtedness	-11.5841
▁solitude	-11.5842
▁varies	-11.5843
▁flashed	-11.5844
▁cake	-11.5847
▁tenure	-11.5848
▁barely	-11.5849
▁flor	-11.5849
▁whites	-11.585
▁gale	-11.5852
gr	-11.5854
▁fidelity	-11.5855
▁sunlight	-11.5855
▁verily	-11.5856
▁stamped	-11.5856
▁sculpture	-11.5856
law	-11.5861
▁tune	-11.5864
mus	-11.5864
kin	-11.5865
▁diana	-11.5868
ible	-11.5869
▁offerings	-11.5872
▁bathsheba	-11.5872
▁monstrous	-11.5872
▁samantha	-11.5872
▁illustrate	-11.5874
▁initiated	-11.5874
ip	-11.5877
▁diagram	-11.5877
▁playlet	-11.5877
▁commitment	-11.5878
▁doorway	-11.5879
▁occupying	-11.5881
▁accorded	-11.5882
▁ted	-11.5882
▁toll	-11.5883
▁permits	-11.5884
▁ghosts	-11.5887
▁sacrament	-11.5889
▁delitzsch	-11.589
▁pursuance	-11.589
▁sauce	-11.5895
▁directory	-11.5896
je	-11.59
▁tit	-11.59
▁dismiss	-11.5902
▁kai	-11.5903
▁sails	-11.5906
▁footing	-11.5908
▁aus	-11.5913
▁bel	-11.5914
▁dome	-11.5915
▁kr	-11.5915
▁ingredients	-11.5915
lie	-11.5918
▁lid	-11.592
▁imp	-11.5925
▁coordination	-11.5925
▁dynasty	-11.5925
▁parting	-11.5925
▁cornelius	-11.5925
▁disabled	-11.5925
▁poetic	-11.5927
▁amused	-11.5927
▁deserved	-11.5927
▁samples	-11.5929
▁sayings	-11.5935
▁intentions	-11.5936
▁ami	-11.5937
▁ord	-11.5938
▁behaviour	-11.5942
▁glenarvon	-11.5942
▁appleton	-11.5943
▁casting	-11.5946
▁ru	-11.5949
▁calmly	-11.595
▁basil	-11.5951
▁pleading	-11.5953
ides	-11.5954
▁affords	-11.5959
▁nuclear	-11.596
▁webster	-11.596
▁commentaries	-11.596
▁exterior	-11.596
▁transfers	-11.5961
▁prolonged	-11.5961
▁soap	-11.5963
▁successively	-11.5964
▁organisation	-11.5965
▁cedar	-11.5965
▁connect	-11.5971
oa	-11.5972
▁prudent	-11.5973
cha	-11.5975
▁bunch	-11.5976
▁weller	-11.5977
▁thirtieth	-11.5978
▁sticks	-11.5979
▁tempted	-11.598
▁serv	-11.5982
▁awe	-11.5982
▁troop	-11.5982
▁disturbance	-11.5983
▁computer	-11.5983
▁ascended	-11.5987
▁publishers	-11.5993
▁threats	-11.5993
▁lyons	-11.5994
we	-11.5995
▁jointly	-11.5995
▁promising	-11.5996
▁afflicted	-11.5996
▁deprive	-11.5997
▁opium	-11.5997
▁replacement	-11.5997
▁sharing	-11.5998
unconstitutional	-11.6006
▁armour	-11.6006
chi	-11.6007
▁edu	-11.6011
▁expresses	-11.6013
▁rely	-11.6015
▁techniques	-11.6015
▁tooth	-11.6016
▁pledged	-11.6019
▁pulpit	-11.602
▁heath	-11.6025
▁penal	-11.6029
▁destructive	-11.6031
▁boast	-11.6036
▁lucky	-11.6039
ek	-11.6041
lier	-11.6043
ij	-11.6043
▁blowing	-11.6048
▁afghanistan	-11.6048
▁occupies	-11.6048
cus	-11.6052
▁lantern	-11.6054
ily	-11.6055
▁shaken	-11.6055
mar	-11.6057
▁appro	-11.6061
▁midsummer	-11.6066
▁jenkins	-11.6067
▁melted	-11.6068
▁elector	-11.6069
▁prop	-11.6071
▁allotment	-11.6072
▁dad	-11.6077
▁ation	-11.6079
▁fulfil	-11.6082
▁awoke	-11.6084
▁liberties	-11.6084
▁projected	-11.6085
▁bran	-11.6086
▁heartily	-11.6086
ide	-11.6087
▁israelites	-11.6089
▁pint	-11.609
▁notify	-11.6095
▁vent	-11.6096
ement	-11.6099
▁manufacturers	-11.6099
▁freed	-11.6101
▁excluding	-11.6102
▁parte	-11.6103
▁derby	-11.6106
▁sabiri	-11.6109
withl	-11.6109
▁dialogues	-11.611
▁tat	-11.6112
▁deacon	-11.6113
▁wreck	-11.6114
▁disputed	-11.6114
▁denying	-11.6115
▁exhibits	-11.6121
▁offended	-11.6122
▁schemes	-11.6123
▁plateau	-11.6126
▁marriages	-11.6127
▁hebrews	-11.6128
▁winding	-11.6132
▁haue	-11.6133
▁opens	-11.6133
▁pose	-11.6135
▁yu	-11.6136
▁hastings	-11.6138
▁graduate	-11.614
▁accurately	-11.6143
▁warden	-11.6146
▁exported	-11.6148
tan	-11.6151
▁renaissance	-11.6155
▁enlightened	-11.6156
▁demonstrate	-11.6157
▁spectator	-11.6161
▁venetian	-11.6162
▁tur	-11.6162
▁poly	-11.6165
▁julian	-11.6167
▁belly	-11.6168
▁inherent	-11.617
▁victorious	-11.617
▁paintings	-11.6172
▁sidney	-11.6173
▁incorporation	-11.6174
▁lev	-11.6174
▁flushed	-11.6176
▁transmit	-11.6179
▁ls	-11.6183
▁commandment	-11.6183
▁goats	-11.6189
▁fre	-11.6191
▁multiplied	-11.6191
▁restrain	-11.6192
▁enjoying	-11.6196
ane	-11.6197
▁farming	-11.6202
▁tread	-11.6205
▁uncommon	-11.6206
▁buying	-11.6207
▁canoes	-11.6208
▁stall	-11.6209
▁henri	-11.6209
▁gigantic	-11.6209
▁lighting	-11.6209
▁exercising	-11.6209
▁sends	-11.621
▁routes	-11.621
▁recognise	-11.6211
▁allocation	-11.6215
▁coffin	-11.6216
▁gh	-11.6222
▁tha	-11.6223
▁brigadier	-11.6227
▁alexandra	-11.6227
▁confederation	-11.6227
▁wednesday	-11.6227
▁gaining	-11.6228
▁praying	-11.6229
▁devised	-11.623
▁breathed	-11.6231
▁od	-11.6232
▁ble	-11.6232
ating	-11.6233
▁lifetime	-11.6233
▁storms	-11.6234
ges	-11.6234
▁therewith	-11.6236
▁roughly	-11.6238
ons	-11.624
▁moss	-11.6241
▁swallow	-11.6243
▁aw	-11.6244
▁swatow	-11.6245
▁tiberius	-11.6245
▁jolly	-11.6246
▁alex	-11.6247
▁hearty	-11.6248
▁independently	-11.6249
▁topics	-11.625
▁religions	-11.625
▁screen	-11.6252
▁misses	-11.6253
▁calf	-11.6254
▁chan	-11.6256
▁tal	-11.6258
▁sublime	-11.6262
▁contented	-11.6263
▁indigenous	-11.6263
▁propriety	-11.6264
▁fatigue	-11.6266
▁lapse	-11.6266
▁violated	-11.6267
▁component	-11.627
▁installation	-11.627
▁reef	-11.6274
▁helena	-11.628
▁professed	-11.6282
▁medicare	-11.6282
▁simultaneously	-11.6283
▁worm	-11.6284
▁seeming	-11.6285
▁dashed	-11.6285
▁therefrom	-11.6286
▁manhood	-11.6286
▁lefty	-11.6286
▁horsemen	-11.6288
▁rhode	-11.6293
▁encounter	-11.6298
▁bottles	-11.6298
▁massive	-11.6298
▁crack	-11.6298
▁threshold	-11.63
▁settling	-11.63
▁ritual	-11.6306
▁liver	-11.6307
▁outcome	-11.6309
▁earnings	-11.631
hn	-11.6313
▁testify	-11.6314
iis	-11.6317
▁hostilities	-11.6318
▁villa	-11.632
▁lays	-11.632
▁argue	-11.6323
▁salem	-11.6324
▁favoured	-11.6324
▁concentration	-11.6324
▁surgeons	-11.6327
▁cares	-11.6335
▁embodied	-11.6336
▁baggage	-11.6336
▁equipped	-11.6336
▁carlyle	-11.6336
▁malice	-11.6337
▁empress	-11.6337
▁coverage	-11.6338
▁prosecuted	-11.6339
▁dioc	-11.6339
▁compassion	-11.6342
▁allows	-11.6344
▁architects	-11.6345
▁marching	-11.6351
▁compendium	-11.6355
▁heinrich	-11.6355
▁muscular	-11.6355
▁explaining	-11.6355
▁trains	-11.6355
▁lisbon	-11.6355
▁canals	-11.6357
▁signifies	-11.6358
▁duck	-11.6359
▁sack	-11.6359
▁depression	-11.6361
▁outbreak	-11.6362
▁oration	-11.6363
▁loudly	-11.6364
▁foes	-11.6364
▁excepted	-11.6365
▁modify	-11.6369
▁chill	-11.6369
▁zealous	-11.6371
my	-11.6371
▁montgomery	-11.6373
▁memorandum	-11.6373
▁cooking	-11.6374
▁weighed	-11.6376
▁lighter	-11.6378
ido	-11.6379
▁voyages	-11.6382
▁gum	-11.6382
▁rental	-11.6383
▁leap	-11.6384
ex	-11.6384
▁discussing	-11.6386
▁oz	-11.639
▁unreasonable	-11.6391
▁electoral	-11.6395
out	-11.6395
▁characterized	-11.6396
▁disciple	-11.6397
▁rifles	-11.64
▁porto	-11.6402
▁generals	-11.6407
ram	-11.6409
▁tendencies	-11.641
▁coleridge	-11.641
▁claudius	-11.641
▁decorated	-11.641
▁horseback	-11.641
▁infer	-11.6411
port	-11.6411
▁ware	-11.6414
▁altitude	-11.6416
▁lumber	-11.6416
▁polished	-11.6417
are	-11.6422
▁unequal	-11.6425
ano	-11.6427
▁electrical	-11.6428
▁vest	-11.6429
▁pockets	-11.643
▁hospitality	-11.6431
▁network	-11.6431
▁trembled	-11.6431
▁controlling	-11.6431
ban	-11.6435
▁iu	-11.6438
▁urgent	-11.6444
▁joke	-11.6446
▁windsor	-11.6448
▁hoping	-11.645
▁suffrage	-11.6451
▁costume	-11.6454
▁buddha	-11.6454
▁lf	-11.6454
▁dramas	-11.6454
fo	-11.6454
▁propositions	-11.6455
▁ers	-11.6455
▁dur	-11.6457
▁lions	-11.6458
▁files	-11.6464
▁sprung	-11.6465
▁phillips	-11.6465
▁ceded	-11.6467
▁discriminate	-11.6468
▁bitterness	-11.6468
▁tunnel	-11.6473
▁breathe	-11.6476
▁mirth	-11.6477
▁danced	-11.6478
▁remarkably	-11.6484
▁resemble	-11.6484
▁insane	-11.6484
▁drag	-11.6486
▁violations	-11.6486
▁const	-11.6487
▁socrates	-11.6488
▁stained	-11.6492
▁liquors	-11.6492
▁finer	-11.6492
▁pall	-11.6495
▁plymouth	-11.6502
▁cleveland	-11.6502
▁thames	-11.6505
▁recreation	-11.6505
▁myth	-11.6508
▁supposition	-11.6509
▁aye	-11.6509
▁beam	-11.6514
▁jacket	-11.6514
▁ropes	-11.6516
▁ley	-11.652
▁aberdeen	-11.6521
▁expensive	-11.6521
▁dun	-11.6521
▁ig	-11.6522
▁moor	-11.6527
▁repayment	-11.6528
▁doom	-11.6529
▁attraction	-11.653
ko	-11.653
▁bits	-11.6531
▁columbus	-11.6539
▁subchapter	-11.6541
▁hyde	-11.6542
▁coasts	-11.6552
▁beliefs	-11.6553
rd	-11.6555
▁spaces	-11.6556
▁utility	-11.6558
▁exportation	-11.656
▁sw	-11.6561
▁blast	-11.6562
▁heed	-11.6562
ut	-11.6564
▁effectively	-11.6564
▁superstition	-11.6565
▁prompt	-11.6566
▁hinder	-11.6566
▁brute	-11.6567
▁quote	-11.6571
▁tem	-11.6573
▁statistical	-11.6574
▁player	-11.6574
▁tiger	-11.6574
▁vn	-11.6578
▁eliot	-11.6579
▁sim	-11.658
▁heated	-11.6581
▁corinthians	-11.6583
▁particle	-11.6586
ru	-11.6595
▁swimming	-11.6595
▁hostility	-11.6595
▁desiring	-11.6596
▁amiable	-11.6596
ras	-11.6596
▁aft	-11.6596
▁alluded	-11.6599
▁goose	-11.6599
▁temperament	-11.6602
▁predecessors	-11.6603
▁hindus	-11.6605
gy	-11.6606
▁overthrow	-11.6607
▁winged	-11.6607
▁derive	-11.6609
▁ard	-11.6611
▁tubes	-11.6612
▁spy	-11.6614
▁acs	-11.6615
▁reducing	-11.6615
▁russians	-11.6615
▁rejoined	-11.6615
▁founding	-11.6616
▁attract	-11.6619
▁longitude	-11.6622
▁debates	-11.6623
▁fbi	-11.6624
▁overhead	-11.6625
▁historia	-11.6626
▁hort	-11.6628
▁eloquent	-11.663
▁hereof	-11.6633
▁mademoiselle	-11.6633
▁propaganda	-11.6633
▁jer	-11.6633
ability	-11.6635
▁faded	-11.6636
▁authentic	-11.6639
▁levi	-11.664
▁arabs	-11.664
▁spectacle	-11.6641
▁indulgence	-11.6641
▁disclosure	-11.6641
▁refrain	-11.6644
▁sera	-11.6645
▁ref	-11.6645
▁lungs	-11.6646
▁decent	-11.6646
▁porch	-11.6648
▁swell	-11.6649
▁alterations	-11.6651
▁sincerity	-11.6652
▁comprises	-11.6652
▁flanders	-11.6652
▁candles	-11.6655
▁steamers	-11.6656
▁rec	-11.6662
▁rosa	-11.6662
▁protestants	-11.6664
▁corpse	-11.6665
▁especial	-11.6665
tha	-11.6666
▁crosses	-11.6669
pl	-11.6669
▁tv	-11.667
▁mammals	-11.6674
▁styles	-11.6676
mann	-11.6678
▁lodging	-11.6679
oe	-11.668
▁tsar	-11.6684
▁insult	-11.6686
▁launch	-11.6686
▁homage	-11.669
ris	-11.6691
▁expecting	-11.6691
▁sherman	-11.6694
ena	-11.6697
▁charms	-11.6697
▁focus	-11.6697
▁awkward	-11.6705
▁festivities	-11.6708
▁editing	-11.6709
▁rents	-11.671
▁constantine	-11.6713
▁dy	-11.6715
▁eral	-11.6718
▁ix	-11.6724
▁crawford	-11.6727
▁oppressed	-11.6729
ith	-11.673
▁uk	-11.6731
ably	-11.6731
ala	-11.6731
▁corridor	-11.6735
▁resi	-11.6737
sc	-11.6737
▁shy	-11.6741
▁figured	-11.6742
▁omnibus	-11.6743
▁arches	-11.6745
▁twist	-11.6746
▁engagements	-11.6746
▁josiah	-11.6746
▁laden	-11.6747
▁bee	-11.6749
eo	-11.6749
▁descending	-11.6752
▁behavior	-11.6753
▁surroundings	-11.6755
▁pulling	-11.6757
▁juda	-11.6758
▁sqq	-11.6758
▁lar	-11.6758
▁disappear	-11.6765
▁rebecca	-11.6765
▁eugene	-11.6765
▁imaginary	-11.6765
▁folklore	-11.6765
▁reverend	-11.6766
▁holiness	-11.6766
▁racing	-11.6766
▁sheer	-11.6767
▁springfield	-11.6768
▁global	-11.6768
▁gravely	-11.6769
▁despised	-11.6769
▁cigar	-11.6773
▁furnace	-11.6774
▁cigarette	-11.6774
▁swin	-11.6775
▁balanced	-11.678
▁offensive	-11.6782
▁parks	-11.6784
▁hints	-11.6784
▁randolph	-11.6784
▁infancy	-11.6785
▁sweat	-11.6785
▁feminine	-11.6785
▁tombs	-11.6786
▁sanitary	-11.6787
▁concord	-11.6788
▁orator	-11.6792
▁contemplation	-11.6792
▁pra	-11.6795
▁regime	-11.6797
tic	-11.6803
▁incredible	-11.6804
▁disagreeable	-11.6804
▁wildlife	-11.6804
▁cycle	-11.6812
▁quotation	-11.6813
▁axe	-11.6815
su	-11.6817
▁smiles	-11.6818
▁handled	-11.6818
▁doe	-11.6822
▁vernacular	-11.6823
ings	-11.6824
▁bout	-11.6825
▁enterprises	-11.6826
▁expectations	-11.6828
▁distances	-11.6828
▁token	-11.6833
ces	-11.6834
▁proc	-11.6835
▁mit	-11.684
mont	-11.6841
▁dividing	-11.6842
▁favored	-11.6843
▁pillar	-11.6849
▁proving	-11.685
▁seamen	-11.6851
▁nn	-11.6852
▁span	-11.6853
▁tribune	-11.6854
▁highness	-11.6855
▁downward	-11.6857
▁exceeded	-11.6857
▁periodicals	-11.6858
▁indications	-11.6858
▁crowns	-11.6858
▁consuls	-11.686
▁pembroke	-11.6861
▁enquiry	-11.6861
▁accidental	-11.6864
▁raffles	-11.6865
▁pigeons	-11.6872
▁coun	-11.6874
▁oaths	-11.6876
▁polite	-11.6878
▁array	-11.6879
▁plead	-11.688
▁whitney	-11.6881
▁obligated	-11.6881
▁confessor	-11.6884
▁operational	-11.6885
▁carpet	-11.6885
▁epistles	-11.6887
▁howe	-11.689
▁plunder	-11.689
▁motionless	-11.689
▁yielding	-11.6893
▁inference	-11.6893
▁armenia	-11.6897
▁beautifully	-11.6897
▁amazing	-11.6897
▁lacking	-11.6897
▁collective	-11.6899
▁precision	-11.69
▁patriotism	-11.69
▁concentrated	-11.6901
istic	-11.6905
▁tap	-11.6909
▁materially	-11.6914
▁austin	-11.6915
▁framework	-11.6919
its	-11.6919
▁adjudged	-11.692
▁kelly	-11.6921
▁healing	-11.6924
▁afar	-11.6925
our	-11.6926
▁proprietors	-11.6927
▁spouse	-11.6928
▁menace	-11.693
▁frankly	-11.6932
▁staying	-11.6934
▁stored	-11.6934
▁dorsal	-11.6936
▁vis	-11.6937
▁syrian	-11.6938
▁vermont	-11.6939
▁supplementary	-11.6939
▁allocated	-11.6939
▁gospels	-11.694
▁curate	-11.6942
▁curtains	-11.6942
▁dale	-11.695
▁sha	-11.6958
▁dignified	-11.6958
▁passive	-11.6958
▁newcastle	-11.6959
▁insert	-11.6961
▁presumed	-11.6962
▁conjecture	-11.6963
▁xxx	-11.6964
▁glowing	-11.6965
▁lished	-11.6966
▁goals	-11.6967
▁envoy	-11.697
▁sinner	-11.697
▁ltd	-11.6973
▁brooke	-11.6974
▁nails	-11.6974
▁exit	-11.6976
▁hedge	-11.6976
▁reproduced	-11.6979
▁bigot	-11.698
▁rue	-11.6986
▁supports	-11.6987
▁ditch	-11.6987
dr	-11.6988
▁thrice	-11.7001
ology	-11.7001
▁inclusive	-11.7001
▁dic	-11.7002
▁europeans	-11.7002
▁pierced	-11.7003
▁meals	-11.7003
▁peaks	-11.7003
fc	-11.7003
▁spoil	-11.7004
▁currents	-11.7007
▁clara	-11.701
ean	-11.701
▁affirmative	-11.7014
tal	-11.7014
▁destitute	-11.7016
▁reformed	-11.7017
▁dropping	-11.7017
▁admitting	-11.7018
▁faster	-11.7018
▁deceive	-11.7019
▁giles	-11.7021
▁purchasers	-11.7023
▁compounds	-11.7026
can	-11.7028
hall	-11.7029
▁teaches	-11.703
▁flowed	-11.7033
▁beauties	-11.7036
▁contrived	-11.7038
▁astronomy	-11.7038
wick	-11.7038
▁zvo	-11.7038
▁strive	-11.7039
▁cured	-11.7043
▁pirate	-11.7044
ments	-11.7048
▁intelligible	-11.7056
▁privacy	-11.7056
▁concluding	-11.7056
ok	-11.7056
▁stark	-11.7057
▁crowds	-11.7057
▁sofa	-11.7057
▁shouldn	-11.7058
▁palms	-11.706
▁conductor	-11.7061
▁barley	-11.7062
pi	-11.7063
▁handbook	-11.7066
▁maxim	-11.7068
▁despise	-11.7069
▁rot	-11.7069
ht	-11.7073
▁fletcher	-11.7075
▁malatesta	-11.7075
▁surviving	-11.7075
▁surgery	-11.7075
▁hugo	-11.7076
▁endeavor	-11.7076
▁vows	-11.7076
▁accumulated	-11.7077
▁strata	-11.7082
▁caliph	-11.7085
▁shift	-11.7085
▁omission	-11.7086
▁coats	-11.709
▁fraudulent	-11.7092
▁slate	-11.7094
▁dif	-11.7094
▁monasteries	-11.7095
▁thomson	-11.7095
▁infringement	-11.7095
▁blair	-11.7097
▁freeman	-11.7099
▁sands	-11.7101
▁isles	-11.7101
▁booth	-11.7103
▁protector	-11.7103
▁assumes	-11.7104
▁eg	-11.7104
▁bedroom	-11.7105
▁nuns	-11.7106
▁bending	-11.7106
▁waved	-11.7106
▁representations	-11.7113
▁suspend	-11.7113
oi	-11.7114
▁swore	-11.7115
▁nevada	-11.7115
▁liquidation	-11.7116
▁easton	-11.7116
▁core	-11.7118
▁splendour	-11.7124
▁engraving	-11.7124
ax	-11.7127
▁hesitate	-11.7127
▁cuts	-11.7129
▁magnetic	-11.713
▁worry	-11.713
▁attach	-11.713
▁extracts	-11.7134
▁categories	-11.7135
▁echo	-11.7136
▁weighing	-11.7138
▁repetition	-11.7144
▁lam	-11.7146
▁englishmen	-11.7149
▁patch	-11.7152
▁completing	-11.7155
▁invaded	-11.7156
▁kant	-11.7158
▁alert	-11.7158
▁pius	-11.716
▁ticket	-11.7164
▁tyrant	-11.7164
▁backed	-11.7165
▁nomination	-11.7167
uc	-11.7168
▁encouraging	-11.7171
▁valve	-11.7173
▁merimee	-11.7174
▁clinton	-11.7174
▁measurements	-11.7174
▁ode	-11.7174
lay	-11.7175
▁oblong	-11.7176
▁earn	-11.7176
▁bowman	-11.7177
▁gran	-11.7179
▁appreciated	-11.7179
▁ely	-11.718
▁transported	-11.7181
mn	-11.7182
▁consular	-11.7182
▁bene	-11.7184
▁tending	-11.7186
▁hosts	-11.7186
▁suburbs	-11.7186
art	-11.7187
▁impatient	-11.7191
▁vicious	-11.7191
▁manu	-11.7193
▁dispatch	-11.7194
▁contemporaries	-11.7194
▁cheshire	-11.7194
▁sundry	-11.7194
▁needful	-11.7196
▁concession	-11.7202
▁appellants	-11.7202
▁byzantine	-11.7204
▁attendant	-11.7205
aba	-11.7207
▁convince	-11.7208
uoft	-11.7208
▁distinctive	-11.7212
▁czech	-11.7212
▁tristram	-11.7214
▁dawson	-11.7214
▁analogy	-11.7214
▁ze	-11.7215
▁thom	-11.7216
▁gan	-11.7217
▁faid	-11.7219
▁stocks	-11.722
▁leslie	-11.7221
▁risks	-11.7221
▁richardson	-11.7221
ira	-11.7223
▁celebration	-11.7224
nis	-11.7225
▁thumb	-11.7225
aa	-11.7225
▁combinations	-11.7226
▁resembles	-11.7229
▁posterior	-11.7231
▁centres	-11.7231
▁wuthering	-11.7234
▁accessible	-11.7234
▁gear	-11.7235
▁robin	-11.7237
▁shields	-11.7239
ph	-11.7241
▁shan	-11.7246
▁quest	-11.7248
▁unsuccessful	-11.7251
▁furious	-11.7252
▁carroll	-11.7253
▁hazlitt	-11.7254
▁memorable	-11.7254
▁stafford	-11.7254
▁whisky	-11.7254
▁conquer	-11.7256
▁detained	-11.7256
▁advent	-11.7259
▁ces	-11.7261
▁spelling	-11.7262
▁bona	-11.7264
▁dialogue	-11.7264
▁sadly	-11.7267
▁linn	-11.7268
▁mmm	-11.7268
▁rewarded	-11.7268
▁diamonds	-11.7273
▁fanny	-11.7274
▁deter	-11.7276
▁lor	-11.7278
▁ete	-11.728
br	-11.7282
▁effectiveness	-11.7283
▁decidedly	-11.7283
▁probate	-11.7284
▁delayed	-11.7289
▁repaired	-11.7289
▁sway	-11.7289
▁como	-11.729
▁barbarous	-11.7291
▁hammer	-11.7292
▁sol	-11.7293
▁indicating	-11.7294
▁diligence	-11.7295
▁deliverance	-11.7295
▁banished	-11.7296
▁monitoring	-11.7297
▁bail	-11.7297
▁welcomed	-11.7299
mu	-11.7301
▁mould	-11.7303
▁mich	-11.7304
▁protective	-11.7309
▁film	-11.7309
▁inadequate	-11.7311
▁energetic	-11.7314
▁trifling	-11.7314
▁posterity	-11.7314
▁dorset	-11.7314
▁dominant	-11.7315
▁subdued	-11.7316
▁expanded	-11.7318
▁stretching	-11.7321
▁panic	-11.7323
▁longed	-11.7324
▁mutually	-11.7324
▁resign	-11.7327
▁cy	-11.7329
▁stevens	-11.7329
▁allegations	-11.7332
▁meadows	-11.7332
▁strings	-11.7332
▁sympathetic	-11.7334
▁coronation	-11.7334
▁mg	-11.7334
ned	-11.7335
▁mah	-11.734
▁attribute	-11.7341
low	-11.7341
▁cle	-11.7343
ye	-11.735
▁fancied	-11.7354
▁wolves	-11.7354
▁reginald	-11.7354
▁subpart	-11.7358
▁heresy	-11.7358
▁cups	-11.736
▁trails	-11.7365
▁guinea	-11.7366
▁wander	-11.7366
▁scandal	-11.7368
lj	-11.737
▁barons	-11.7373
▁reclamation	-11.7375
▁bidding	-11.7375
▁epa	-11.7378
ven	-11.7379
▁molly	-11.738
▁botanical	-11.738
▁marketing	-11.7387
ique	-11.7389
▁pie	-11.739
▁diem	-11.7394
▁churchill	-11.74
▁jobs	-11.7403
▁insure	-11.7404
▁insect	-11.7406
▁billy	-11.7414
▁catching	-11.7415
▁nominal	-11.7415
▁greeted	-11.7418
▁climbing	-11.742
▁swallowed	-11.7422
▁selections	-11.7424
▁hers	-11.7424
▁veda	-11.7425
▁assistants	-11.7426
▁battalion	-11.7426
▁barred	-11.7426
▁sulphur	-11.7429
▁fitz	-11.743
▁unpaid	-11.7436
▁commencing	-11.7436
▁animated	-11.7437
▁fearing	-11.7439
mes	-11.7441
▁abbott	-11.7446
▁posted	-11.7456
▁inevitably	-11.7456
▁vein	-11.7456
▁raymond	-11.7457
▁incomplete	-11.7462
▁spines	-11.7462
▁amy	-11.7466
▁shah	-11.7472
▁maud	-11.7472
▁skilful	-11.7474
▁banner	-11.7474
▁dash	-11.7476
▁hearth	-11.7481
▁web	-11.7481
▁leonard	-11.7482
▁thorn	-11.7486
rin	-11.7486
▁henderson	-11.7497
▁robes	-11.7497
▁stipulations	-11.7497
▁secretaries	-11.7498
▁reynolds	-11.75
▁flags	-11.7503
▁thi	-11.7508
▁tissue	-11.7508
▁insight	-11.7508
▁alias	-11.7518
▁drainage	-11.7518
▁shapes	-11.752
▁clung	-11.7521
▁ascending	-11.7521
▁whit	-11.7523
▁herds	-11.7525
▁suppress	-11.7528
▁lowered	-11.7529
▁apples	-11.7531
▁honesty	-11.7534
▁swim	-11.7534
▁rm	-11.7534
▁unfair	-11.7534
▁antioch	-11.7536
▁jamaica	-11.7538
▁timothy	-11.7538
▁taiwan	-11.7538
▁confounded	-11.754
▁eo	-11.7544
▁shouting	-11.7544
▁vile	-11.7548
▁makers	-11.7548
▁variable	-11.7549
▁carriages	-11.7551
▁sleeve	-11.7551
▁extravagant	-11.7556
▁cakes	-11.7557
▁struggled	-11.7559
▁audubon	-11.7559
▁kong	-11.7559
▁measuring	-11.7559
▁julius	-11.7559
eb	-11.756
▁expired	-11.7561
▁crooked	-11.7561
▁bus	-11.7562
▁disclosed	-11.7562
▁awareness	-11.7563
▁null	-11.7568
▁mechanics	-11.7568
ato	-11.757
▁depending	-11.7572
▁inf	-11.7575
gs	-11.7575
▁temperate	-11.7578
gg	-11.7578
▁infrastructure	-11.7579
▁laurence	-11.7579
hy	-11.758
▁summons	-11.7581
▁churchyard	-11.7581
▁trousers	-11.7581
▁pork	-11.7585
▁solve	-11.7586
▁prejudices	-11.7587
eus	-11.7588
▁locomotive	-11.7591
▁pavement	-11.7591
▁deduction	-11.7591
sey	-11.7592
▁affectionate	-11.7598
▁assessments	-11.7599
▁sed	-11.76
▁montana	-11.7601
rr	-11.7602
▁frightful	-11.7602
▁tossed	-11.7602
▁mall	-11.7605
▁obstacles	-11.7608
▁disgust	-11.761
▁migration	-11.7612
▁jam	-11.7613
rie	-11.7616
▁pearls	-11.7617
▁archibald	-11.7621
▁hants	-11.7626
▁banquet	-11.7627
▁notably	-11.763
▁amounting	-11.7634
▁sexes	-11.7634
▁statesmen	-11.7636
▁gains	-11.764
▁opposing	-11.7642
▁recourse	-11.7642
▁skies	-11.7643
▁carlton	-11.7643
▁reconciled	-11.7645
▁solar	-11.7647
▁practise	-11.7653
ante	-11.7653
▁whig	-11.7654
▁betray	-11.7659
▁newman	-11.766
▁rats	-11.766
▁consolidation	-11.7662
▁licensing	-11.7662
▁upstairs	-11.7662
▁clifford	-11.7662
▁rachel	-11.7663
▁babies	-11.7663
▁dixon	-11.7663
▁apology	-11.7663
▁boone	-11.7664
▁soda	-11.7667
▁concept	-11.7668
▁cheerfully	-11.7668
▁currently	-11.7668
▁deepest	-11.767
▁pursuits	-11.7671
▁fantastic	-11.7671
▁revival	-11.7674
▁allusion	-11.7677
▁ras	-11.7679
▁amos	-11.768
▁ossendowski	-11.7683
▁allotted	-11.7684
▁horrid	-11.7684
▁epic	-11.7685
min	-11.7687
▁float	-11.7688
▁restrained	-11.7688
▁verbal	-11.7688
og	-11.7691
▁violate	-11.7693
▁taxed	-11.7694
▁vise	-11.7695
▁clare	-11.7696
▁captive	-11.7697
▁bows	-11.77
▁gifted	-11.7702
▁guides	-11.7703
▁ev	-11.7703
▁babylon	-11.7703
▁density	-11.7704
▁expelled	-11.7705
▁virtually	-11.7705
▁empowered	-11.7705
lc	-11.7707
▁beatrice	-11.771
▁sweetness	-11.7712
▁physics	-11.7713
▁ceases	-11.7714
▁singularly	-11.7714
▁fathoms	-11.7716
▁automobile	-11.7716
ates	-11.7718
▁fossil	-11.7718
▁desolate	-11.7721
▁births	-11.7722
▁aryan	-11.7722
▁viscount	-11.7724
oni	-11.7724
▁tional	-11.7724
iana	-11.7725
▁dresden	-11.7725
▁crazy	-11.7725
▁energies	-11.7725
▁diplomacy	-11.7725
▁dedication	-11.7725
▁corrections	-11.7725
▁shades	-11.7726
▁zeus	-11.7728
▁gram	-11.773
▁pigs	-11.7737
▁membrane	-11.7737
▁guessed	-11.7739
cc	-11.774
▁aren	-11.7742
▁costly	-11.7743
oh	-11.7746
▁husbands	-11.7746
▁burdens	-11.7746
▁murderer	-11.7746
▁quarantine	-11.7746
▁suicide	-11.7758
▁ella	-11.776
▁bin	-11.7761
▁singh	-11.7764
▁delights	-11.7764
▁apocrypha	-11.7765
rj	-11.7766
▁spinning	-11.7767
▁immortality	-11.7768
▁cheese	-11.7768
▁advocates	-11.777
▁dirt	-11.7772
▁janet	-11.7773
▁timely	-11.7774
gen	-11.7777
▁tricks	-11.7787
▁bearer	-11.7788
▁baxter	-11.7788
▁www	-11.7791
▁damned	-11.7792
▁libel	-11.7795
▁willie	-11.7796
▁claude	-11.7799
▁predecessor	-11.7801
▁mound	-11.7804
▁clearness	-11.7804
▁bees	-11.7804
▁anon	-11.7805
▁exciting	-11.7809
▁flourishing	-11.7813
▁disregard	-11.7813
▁forfeited	-11.7814
▁rejoiced	-11.7816
▁sweeping	-11.7816
tel	-11.7817
▁barracks	-11.7817
▁rains	-11.7818
ros	-11.7818
▁chariot	-11.782
▁trifle	-11.7821
▁cylinder	-11.7822
▁ancestor	-11.7822
▁wills	-11.7828
▁steele	-11.7828
eu	-11.7829
▁mn	-11.783
▁isaiah	-11.7831
▁voltaire	-11.7831
▁maturity	-11.7831
▁rapidity	-11.7832
▁wholesome	-11.7833
uf	-11.7833
▁petitions	-11.7834
▁bigger	-11.7834
▁finely	-11.7841
▁wits	-11.7841
▁elderly	-11.7842
▁differently	-11.7847
▁svo	-11.7848
▁jj	-11.785
▁generosity	-11.7852
▁bartholomew	-11.7852
▁gibson	-11.7852
▁madrid	-11.7852
▁jpg	-11.7854
▁patches	-11.7856
▁renew	-11.7857
▁abuses	-11.7858
▁dodge	-11.7859
▁xl	-11.7862
ees	-11.7865
▁og	-11.7869
▁tramp	-11.787
▁fabric	-11.7871
▁consecration	-11.7873
▁superseded	-11.7875
▁camps	-11.7878
▁shower	-11.788
▁cope	-11.788
ient	-11.788
▁za	-11.7882
▁esther	-11.7882
▁asserts	-11.7886
▁franchise	-11.7886
▁obstacle	-11.7886
▁kane	-11.7886
▁birch	-11.789
▁fortnight	-11.7892
▁throws	-11.7893
▁insignificant	-11.7894
▁pilate	-11.7895
▁munich	-11.7895
▁stare	-11.79
▁orderly	-11.7903
▁complexion	-11.7908
▁kan	-11.791
▁ciuszko	-11.7916
▁amazement	-11.7916
▁gardeur	-11.7916
▁embracing	-11.7916
▁emerged	-11.7918
▁physically	-11.7918
▁transformed	-11.7918
▁vernon	-11.7918
▁lowell	-11.792
▁marx	-11.7924
▁hector	-11.7925
qu	-11.7925
▁contradiction	-11.7929
▁occupations	-11.7932
▁browning	-11.7933
▁antwerp	-11.7937
▁emancipation	-11.7937
▁macmillan	-11.7937
▁apportionment	-11.7938
▁interpret	-11.7938
▁swing	-11.7938
▁remind	-11.7939
▁hasty	-11.794
ations	-11.7944
▁bowen	-11.7944
▁injure	-11.7946
▁surveyed	-11.7947
▁ale	-11.7948
▁communist	-11.7951
lf	-11.7955
▁conceptions	-11.7958
▁benevolent	-11.7959
▁bradley	-11.7959
▁labourers	-11.796
▁rubbed	-11.796
▁promulgated	-11.7961
▁hong	-11.7963
▁barton	-11.7972
▁equation	-11.7972
▁announcement	-11.7973
▁gl	-11.7973
▁pell	-11.7973
▁morn	-11.7974
▁sequence	-11.7974
▁quaint	-11.7976
▁oval	-11.7978
▁nun	-11.7981
▁wagons	-11.7982
▁abound	-11.7983
▁hol	-11.7983
▁gdp	-11.7985
aries	-11.7986
▁abundantly	-11.7988
▁rye	-11.7993
▁valuation	-11.7993
▁plantation	-11.7996
▁mails	-11.7997
gl	-11.7997
▁cathlamet	-11.8002
▁moist	-11.8002
▁thieves	-11.8002
▁violating	-11.8002
▁impv	-11.8002
tra	-11.8005
▁interim	-11.8006
▁sinful	-11.8008
▁weigh	-11.8009
▁bite	-11.8009
▁tries	-11.8015
▁edw	-11.8016
▁components	-11.8016
▁fowl	-11.8018
▁forts	-11.802
▁suspicious	-11.8021
▁introducing	-11.8024
car	-11.8024
▁effectually	-11.8027
▁scent	-11.8029
▁yorks	-11.8031
▁stockholders	-11.8034
▁rn	-11.8036
▁draught	-11.8037
▁multiple	-11.8037
tas	-11.8039
▁depot	-11.8041
▁harder	-11.8041
▁obedient	-11.8042
▁pomp	-11.8046
▁radius	-11.8046
▁nesbit	-11.8047
▁waving	-11.8048
rl	-11.8052
▁nuts	-11.8054
▁subjective	-11.8056
▁consolation	-11.8058
▁sparrow	-11.8058
▁pillow	-11.8059
▁sandstone	-11.8059
▁superficial	-11.8064
▁revolving	-11.8067
▁matilda	-11.8067
▁precedence	-11.8067
▁raven	-11.8067
▁stationery	-11.8068
▁preachers	-11.8074
▁boot	-11.8075
▁owes	-11.8078
▁knot	-11.8079
▁pretence	-11.808
▁vr	-11.8081
▁reckless	-11.8085
▁incense	-11.8085
▁sundays	-11.8086
▁talks	-11.8086
▁triumphant	-11.8086
▁kipling	-11.8089
▁portsmouth	-11.8089
▁consistency	-11.8089
▁hubert	-11.809
▁judging	-11.809
▁funded	-11.8091
▁wight	-11.8092
non	-11.8092
▁haired	-11.8092
▁oxon	-11.8094
▁heine	-11.8096
▁employers	-11.8097
▁vas	-11.81
▁hawaiian	-11.8103
uk	-11.8104
▁benson	-11.8108
▁distribute	-11.8109
▁stately	-11.8109
▁quebec	-11.811
▁assurances	-11.8111
▁enrollment	-11.8111
▁cairo	-11.8111
▁agitated	-11.8111
▁surgical	-11.8111
▁dusk	-11.8113
ric	-11.8114
▁carr	-11.8118
▁beggar	-11.8118
▁resisted	-11.812
▁crash	-11.8121
▁operator	-11.8124
▁orphan	-11.8127
▁signify	-11.8128
▁snakes	-11.8129
▁insurrection	-11.8132
▁fay	-11.8132
▁underground	-11.8134
▁startling	-11.8134
▁groves	-11.8134
▁deals	-11.8137
ative	-11.8143
▁wooded	-11.8144
▁staple	-11.8145
▁aught	-11.8146
fr	-11.8147
▁vale	-11.8149
▁castles	-11.815
▁repay	-11.8152
▁cats	-11.8155
▁hague	-11.8155
▁monastic	-11.8156
▁searched	-11.8156
▁traversed	-11.8157
▁drifted	-11.8159
▁tank	-11.816
▁designer	-11.8163
▁chart	-11.8164
▁prints	-11.8164
▁excite	-11.8165
▁extensively	-11.8167
▁transformation	-11.8169
▁salute	-11.8172
▁cage	-11.8173
▁struggles	-11.8175
▁hatteras	-11.8176
▁conrad	-11.8176
▁engaging	-11.8176
▁censure	-11.8177
▁detected	-11.8181
▁ence	-11.8183
▁swine	-11.8185
▁recollect	-11.8189
▁norton	-11.8194
▁owl	-11.8197
▁iniquity	-11.8198
▁redesignating	-11.8198
▁foliage	-11.8198
▁robbed	-11.8198
▁brutal	-11.82
▁tastes	-11.82
▁vigor	-11.8203
▁politicians	-11.8204
▁converse	-11.8207
▁thanked	-11.8207
▁disguise	-11.8208
▁bestow	-11.8208
▁concessions	-11.8209
▁mw	-11.821
▁pol	-11.8215
▁ceylon	-11.822
▁balliol	-11.822
▁automatic	-11.822
▁uniformity	-11.8221
▁haunted	-11.8222
sville	-11.8223
▁backs	-11.8223
▁fibres	-11.8223
▁hats	-11.8224
fs	-11.8225
▁minerals	-11.8227
▁gra	-11.8227
▁youths	-11.8233
▁opponent	-11.8234
▁squire	-11.8234
nan	-11.824
▁volcanic	-11.8242
▁moll	-11.8242
▁hutchinson	-11.8242
▁terrified	-11.8242
▁crawley	-11.8243
▁honorary	-11.8243
▁lbs	-11.8248
▁actively	-11.8252
▁chu	-11.8254
▁utterance	-11.8257
▁charleston	-11.8257
▁disk	-11.8258
lic	-11.8258
gate	-11.8259
▁wo	-11.826
▁ron	-11.8264
▁joys	-11.8265
▁cant	-11.8266
▁tested	-11.8268
▁wharf	-11.8268
▁democrats	-11.8271
▁constructing	-11.8272
▁dislike	-11.8272
▁tailor	-11.8273
▁thoughtful	-11.8273
▁yacht	-11.8274
▁muse	-11.8274
war	-11.8274
▁lender	-11.8277
▁caves	-11.8277
▁skeleton	-11.8278
▁managers	-11.828
▁prospects	-11.8286
▁vel	-11.8286
▁architectural	-11.8286
▁congo	-11.8287
▁marches	-11.8289
▁cou	-11.8289
▁lionel	-11.8291
▁bennett	-11.8292
▁pushing	-11.8294
▁leon	-11.8295
▁fortifications	-11.8298
▁pioneers	-11.8298
▁deficit	-11.8301
▁labors	-11.8307
▁inst	-11.8309
▁concurring	-11.8309
▁elapsed	-11.8309
▁omit	-11.8311
▁nero	-11.8315
ches	-11.8315
▁boyle	-11.8316
▁sl	-11.8317
▁objectives	-11.8317
▁lodged	-11.8318
▁inferred	-11.8321
house	-11.8322
vo	-11.8322
▁fable	-11.8323
ese	-11.8325
▁weights	-11.8326
▁hor	-11.8329
▁improper	-11.833
▁encyclopaedia	-11.8331
▁possibilities	-11.8331
▁detroit	-11.8331
▁defiance	-11.8331
▁brotherhood	-11.8331
▁tame	-11.8332
▁dn	-11.8332
▁exerted	-11.8334
▁packing	-11.8334
▁checks	-11.8335
▁parsons	-11.8335
▁pier	-11.8336
▁mistakes	-11.8336
iti	-11.8336
▁bas	-11.8337
bar	-11.8337
▁weber	-11.8337
▁elbow	-11.8342
uz	-11.8342
▁combine	-11.8343
▁ambassadors	-11.8344
▁convictions	-11.8344
▁herbs	-11.8344
▁niece	-11.8345
▁peacock	-11.8346
▁demons	-11.8352
▁felix	-11.8353
▁bradford	-11.8353
▁exaggerated	-11.8354
aj	-11.8354
els	-11.8356
▁dealings	-11.8358
▁stealing	-11.836
▁officially	-11.8361
▁experts	-11.8363
▁furnishes	-11.8364
▁rewards	-11.8364
▁gallons	-11.8367
▁orient	-11.8369
▁abu	-11.8371
tio	-11.8372
▁striving	-11.8375
▁ornithological	-11.8375
▁adjust	-11.8376
▁entre	-11.8379
▁messages	-11.8381
▁ml	-11.8383
▁accidents	-11.8383
▁attendants	-11.8387
▁siberia	-11.8389
▁rejoicing	-11.839
▁producer	-11.8391
▁nam	-11.8393
jo	-11.8394
▁confidential	-11.8395
▁laborer	-11.8395
▁shakspeare	-11.8398
▁television	-11.8398
▁barbour	-11.8398
▁sunny	-11.84
▁idaho	-11.8401
▁timid	-11.8401
▁kate	-11.8403
▁sculptors	-11.8403
▁greenland	-11.8404
▁fry	-11.8407
ence	-11.8408
▁touches	-11.841
▁collision	-11.8413
▁airports	-11.8414
▁mule	-11.8417
▁gases	-11.8417
▁gasped	-11.8422
▁poll	-11.8423
▁smote	-11.8424
▁replies	-11.8428
▁jurors	-11.8428
▁differing	-11.8433
▁histories	-11.8436
▁ey	-11.8438
▁broadcast	-11.8438
▁edict	-11.8438
▁reliance	-11.8443
▁shirley	-11.8443
▁caps	-11.8443
▁complied	-11.8443
▁genetic	-11.8444
▁terra	-11.8445
▁defective	-11.8445
▁wisely	-11.8447
▁pitched	-11.8451
ong	-11.8452
▁hanged	-11.8453
▁strained	-11.8454
▁bundle	-11.8455
▁halls	-11.8455
▁discern	-11.8457
▁consulting	-11.8458
▁handful	-11.8461
▁git	-11.8461
ice	-11.8461
▁geoffrey	-11.8465
▁terribly	-11.8465
▁ussr	-11.8466
▁comprised	-11.8469
▁massacre	-11.8477
▁ang	-11.8478
▁honestly	-11.848
▁interrogation	-11.8481
▁qualification	-11.8481
▁democrat	-11.8482
rm	-11.8483
▁tough	-11.8486
▁assisting	-11.8489
▁lance	-11.8489
▁barbara	-11.849
▁remanded	-11.8491
▁despatches	-11.8491
▁bre	-11.8492
▁evidences	-11.8494
▁proportional	-11.8495
▁modesty	-11.8495
▁mur	-11.8496
▁whichever	-11.8498
▁wor	-11.8499
▁histoire	-11.8499
▁printers	-11.8502
▁demy	-11.851
▁quod	-11.851
▁captivity	-11.8511
▁sterling	-11.8511
dan	-11.8512
▁inventions	-11.8513
wi	-11.8513
▁backwards	-11.8514
▁nancy	-11.8515
▁observes	-11.8515
▁nz	-11.8516
▁midland	-11.8517
▁mules	-11.852
▁clan	-11.8522
▁engravings	-11.8523
▁zoologist	-11.8526
▁accommodation	-11.8526
▁ounce	-11.8527
▁unnatural	-11.8531
▁brains	-11.8532
▁introductory	-11.8533
▁deciding	-11.8534
▁quitted	-11.8534
▁womb	-11.8534
ken	-11.8535
▁chesterton	-11.8535
▁scar	-11.8535
▁generated	-11.8536
uit	-11.8539
▁keepers	-11.8542
inus	-11.8545
▁fauna	-11.8549
ln	-11.855
nl	-11.8552
▁indefinite	-11.8553
▁sap	-11.8555
▁mature	-11.8555
▁alphabet	-11.8556
▁poultry	-11.8556
▁bylaws	-11.8557
▁curtis	-11.8557
▁willow	-11.8559
▁cooked	-11.8559
▁countless	-11.8559
▁credits	-11.856
▁stripped	-11.856
▁classics	-11.8563
▁endured	-11.8566
▁dental	-11.8567
▁minors	-11.8567
▁acc	-11.8569
atis	-11.857
▁accusation	-11.8572
▁respond	-11.8573
▁babylonian	-11.8574
▁notified	-11.8575
▁instructor	-11.8576
▁assemble	-11.8576
▁stamps	-11.8578
▁lonesome	-11.8579
▁oscar	-11.8579
▁heavier	-11.8579
▁compressed	-11.858
▁styled	-11.858
▁permitting	-11.8581
▁mock	-11.8582
▁warlike	-11.8585
▁cometh	-11.8587
▁traveled	-11.8588
ets	-11.8591
▁symbols	-11.8592
▁candy	-11.8594
▁gloves	-11.8598
▁plentiful	-11.8599
med	-11.86
▁arabia	-11.8601
▁effectual	-11.8601
ynge	-11.8601
▁bourgeois	-11.8601
▁exertions	-11.8603
▁allathee	-11.8603
▁municipality	-11.8603
▁spur	-11.8604
▁monroe	-11.8604
▁novelist	-11.8604
▁inability	-11.8606
▁expand	-11.861
▁grip	-11.861
▁faintly	-11.8612
▁musician	-11.8614
▁fruitful	-11.8614
▁uns	-11.8617
▁hanover	-11.8618
▁composer	-11.862
▁penetrated	-11.8628
▁murmur	-11.8632
▁tolls	-11.8633
▁orbit	-11.8637
▁founders	-11.8637
ero	-11.8639
▁impress	-11.864
sburg	-11.864
▁survival	-11.8641
▁warmly	-11.8644
▁influential	-11.8648
▁dependence	-11.8648
lm	-11.865
▁believers	-11.865
▁wherewith	-11.8651
▁fraction	-11.8651
▁maintains	-11.8652
▁remembering	-11.8653
▁targ	-11.8654
ene	-11.8658
▁repeating	-11.8658
▁sy	-11.8658
▁corp	-11.8661
▁abused	-11.8663
▁anguish	-11.8667
▁hou	-11.8669
▁unlimited	-11.8671
▁fancies	-11.8671
▁intimacy	-11.8671
▁boarding	-11.8672
▁overlooked	-11.8673
▁despatched	-11.8674
ky	-11.8679
▁bases	-11.8684
▁upset	-11.8687
▁assignee	-11.8687
lh	-11.8688
▁korea	-11.8692
▁tasks	-11.8692
▁hopkins	-11.8693
▁confessions	-11.8693
▁continuity	-11.8694
▁cologne	-11.8695
▁delhi	-11.8695
▁cadet	-11.8696
▁louise	-11.8701
▁gallia	-11.8703
▁retaining	-11.8707
▁penn	-11.8708
▁tabu	-11.8709
▁detachment	-11.871
▁forbes	-11.8711
▁bucks	-11.8715
▁chat	-11.8716
▁expeditions	-11.8717
▁wal	-11.8718
▁jacques	-11.8719
▁recited	-11.8719
▁ij	-11.872
▁blankets	-11.8722
▁inquisition	-11.8724
▁hamburg	-11.8725
▁gleam	-11.8726
▁criminals	-11.8726
▁valves	-11.8729
▁yields	-11.8731
▁newport	-11.8731
▁nsion	-11.8732
▁cole	-11.8733
▁reproduction	-11.8734
▁tibet	-11.8734
▁fits	-11.8735
▁buttons	-11.874
▁stops	-11.874
▁advisable	-11.874
▁rackham	-11.8741
▁confinement	-11.8741
▁amelie	-11.8741
▁disappearance	-11.8741
▁johns	-11.8741
▁mortality	-11.8741
▁dispersed	-11.8742
▁hardened	-11.8742
hl	-11.8743
▁cloaks	-11.8747
▁performances	-11.875
▁mina	-11.8751
▁incumbent	-11.8752
▁taxpayer	-11.8757
▁spider	-11.8757
▁deities	-11.8758
ag	-11.8758
▁barrels	-11.876
▁kil	-11.8763
▁lou	-11.8763
▁prelude	-11.8764
▁physiology	-11.8764
osa	-11.8765
▁grandeur	-11.8767
▁rejection	-11.8767
▁pots	-11.8768
▁idols	-11.877
len	-11.8772
▁harding	-11.8774
▁violin	-11.8779
▁fugitive	-11.878
imsk	-11.8782
▁emotional	-11.8782
▁reviewed	-11.8783
▁concurrent	-11.8784
▁kermit	-11.8787
▁metropolis	-11.8789
▁bravery	-11.8789
ios	-11.879
▁floated	-11.8791
▁wh	-11.8795
▁cos	-11.8797
▁tips	-11.8799
▁decrease	-11.88
▁resume	-11.8802
lg	-11.8802
▁withered	-11.8803
ale	-11.8805
▁tel	-11.8806
▁fain	-11.8806
▁strategic	-11.8809
▁tonnage	-11.881
▁scotsmen	-11.8811
▁scan	-11.8812
▁rugged	-11.8812
▁judah	-11.8812
▁vous	-11.8814
▁profess	-11.8814
▁realised	-11.8816
▁sow	-11.8817
▁administering	-11.8818
▁politician	-11.8827
▁ribbon	-11.8828
▁greeting	-11.8831
▁polk	-11.8832
▁monopoly	-11.8834
▁moisture	-11.8834
▁saturn	-11.8834
▁merged	-11.8835
▁flourished	-11.8837
▁lab	-11.8838
iel	-11.8841
▁spirited	-11.8843
▁berks	-11.8847
▁monkey	-11.8851
▁multi	-11.8853
▁injurious	-11.8854
▁adjutant	-11.8857
▁adelaide	-11.8857
▁wid	-11.8857
▁reliable	-11.8857
▁presided	-11.886
▁seemingly	-11.8861
▁literal	-11.8862
▁wot	-11.8863
▁reviews	-11.8866
▁yon	-11.8867
▁pump	-11.8868
▁harmless	-11.887
▁reservations	-11.8871
▁safeguard	-11.8874
▁onward	-11.8875
▁tab	-11.8876
▁notorious	-11.8878
▁frenchman	-11.888
▁hannah	-11.8881
▁delicacy	-11.8881
▁petroleum	-11.8881
▁dunbar	-11.8881
▁parochial	-11.8881
▁intentionally	-11.8883
▁worthless	-11.8885
▁morton	-11.8886
eau	-11.889
▁dealers	-11.8893
▁revelations	-11.8894
▁distinctions	-11.8896
▁voter	-11.8897
▁speedy	-11.8898
▁premium	-11.8898
▁disc	-11.89
▁chron	-11.8901
▁racial	-11.8902
ensis	-11.8903
▁broader	-11.8904
▁wholesale	-11.8904
▁strategy	-11.8904
▁jaws	-11.8907
▁topographical	-11.8908
▁stability	-11.8912
▁colouring	-11.8914
▁meek	-11.8915
▁cation	-11.8917
▁rhetoric	-11.8918
▁happening	-11.8918
▁ledge	-11.8919
▁franks	-11.892
com	-11.8921
▁ui	-11.8922
▁approbation	-11.8928
▁comparable	-11.8928
▁scanty	-11.893
▁polar	-11.8931
bert	-11.8933
▁projecting	-11.8933
▁prim	-11.8935
▁roaring	-11.8935
▁ada	-11.8937
▁reconcile	-11.8939
▁zo	-11.894
ila	-11.8942
▁posed	-11.8943
▁hasten	-11.8943
▁trunks	-11.8945
▁comrade	-11.8945
▁casual	-11.8949
▁noah	-11.8949
zi	-11.895
llahi	-11.895
▁sunrise	-11.8952
▁kensington	-11.8952
▁mcclure	-11.8952
zer	-11.8954
▁commandant	-11.8954
▁tartar	-11.8954
▁maude	-11.8955
▁skills	-11.896
▁reprint	-11.8961
▁throng	-11.8964
nm	-11.8968
▁transcript	-11.8969
▁triangle	-11.8969
▁accomplishment	-11.897
▁colleagues	-11.8971
▁commanders	-11.8971
▁partition	-11.8972
wan	-11.8973
▁analogous	-11.8973
▁miraculous	-11.8973
▁abilities	-11.8973
▁explanations	-11.8975
▁label	-11.8975
▁brunswick	-11.8975
▁humility	-11.8975
▁gardner	-11.8976
▁tragedies	-11.8976
▁peculiarities	-11.8977
▁cherished	-11.8977
▁justinian	-11.8979
▁punishments	-11.898
▁christi	-11.8982
cher	-11.8984
▁vera	-11.8985
▁idol	-11.8986
▁fm	-11.8988
▁bulls	-11.8989
▁adopting	-11.8991
▁virgil	-11.8992
▁indulge	-11.8994
▁constitutions	-11.8995
▁corresponds	-11.8995
▁tremble	-11.8996
▁comte	-11.8997
▁warrants	-11.8998
▁stature	-11.8999
▁intrusion	-11.8999
▁manly	-11.9004
▁conforming	-11.9005
▁emperors	-11.9006
▁nail	-11.9006
▁nos	-11.9007
▁vault	-11.9008
▁target	-11.901
tz	-11.9011
▁dante	-11.9012
▁fines	-11.9012
▁ascend	-11.9013
▁survive	-11.9013
ora	-11.9013
▁defending	-11.9014
▁ros	-11.9014
▁errand	-11.9017
▁gem	-11.9019
▁domesday	-11.9023
▁prefixed	-11.9024
▁neighboring	-11.9029
▁dishes	-11.903
fu	-11.9031
▁sib	-11.9031
▁lava	-11.9032
▁berry	-11.9034
▁hilly	-11.9044
▁purchases	-11.9046
▁photo	-11.9047
▁underneath	-11.9047
▁mutiny	-11.9047
▁speculative	-11.9047
mas	-11.9047
▁friction	-11.9047
ringla	-11.9047
▁constituting	-11.9047
▁waking	-11.905
▁entertaining	-11.9055
▁lawn	-11.9056
▁jug	-11.9065
▁earthquake	-11.9065
▁repairing	-11.9066
▁profile	-11.9067
▁tout	-11.9067
▁rotten	-11.907
▁trivial	-11.9071
▁vatican	-11.9071
▁devonshire	-11.9071
▁vasari	-11.9071
ett	-11.9071
▁ana	-11.9071
▁lanice	-11.9071
▁nick	-11.9075
▁denotes	-11.9076
▁hampton	-11.9077
ions	-11.908
▁cone	-11.9083
▁barbarians	-11.9087
▁shal	-11.909
▁cradle	-11.9091
▁vainly	-11.9092
net	-11.9095
▁admissible	-11.9095
▁denounced	-11.9097
▁anew	-11.9097
▁misfortunes	-11.9097
▁persisted	-11.9097
vis	-11.9099
▁motto	-11.9102
▁affects	-11.9103
▁ethnic	-11.9104
▁oats	-11.9104
end	-11.9106
▁barber	-11.9107
▁willis	-11.9107
▁robertson	-11.9108
uy	-11.9108
▁organize	-11.9109
▁vy	-11.9111
▁grades	-11.9116
▁colonists	-11.9123
▁dover	-11.9124
▁bir	-11.9124
▁nash	-11.9124
▁hairs	-11.9136
▁decoration	-11.9138
▁descendant	-11.9138
▁pecuniary	-11.9143
▁hercules	-11.9145
▁spe	-11.9148
ifi	-11.9152
▁dined	-11.9154
▁damn	-11.9155
▁celebrate	-11.9158
▁odes	-11.916
▁dee	-11.9162
▁alms	-11.9162
▁translator	-11.9162
▁sounding	-11.9162
▁allan	-11.9168
▁vpon	-11.9169
▁apparel	-11.917
▁blossoms	-11.917
▁nova	-11.9171
▁amdt	-11.9171
▁royalty	-11.9172
eg	-11.9172
▁lame	-11.9178
▁ether	-11.9179
oona	-11.9183
▁participants	-11.9184
▁fright	-11.9186
▁calculation	-11.9186
▁barriers	-11.9187
vin	-11.9187
▁ridicule	-11.9188
▁indignant	-11.9189
▁gotten	-11.9189
▁whistle	-11.919
▁genial	-11.9192
▁flax	-11.9195
▁authorship	-11.9195
▁wilts	-11.9195
▁withheld	-11.9195
▁gould	-11.9197
▁blacks	-11.9201
▁appearances	-11.9203
▁emil	-11.9203
ische	-11.9203
▁hazard	-11.9206
▁germ	-11.9207
▁yarn	-11.9211
▁dividends	-11.9213
▁bondage	-11.9218
▁chaos	-11.922
▁memorials	-11.9222
▁worms	-11.9222
▁creative	-11.9223
▁professions	-11.9224
▁diverse	-11.9224
▁thankful	-11.9227
▁examinations	-11.923
▁dwarf	-11.9231
▁dances	-11.9235
▁calvin	-11.9235
▁skirts	-11.9235
▁detective	-11.9236
uni	-11.9237
▁disastrous	-11.9238
▁hush	-11.924
▁humbly	-11.9241
▁buenos	-11.9243
▁magazines	-11.9245
▁tightly	-11.9246
aire	-11.9247
▁extracted	-11.9247
▁cruz	-11.9248
ade	-11.9249
▁subjection	-11.9249
▁burgh	-11.9252
▁diminish	-11.9254
▁weed	-11.9255
▁wildly	-11.9257
▁outlines	-11.9261
iff	-11.9262
▁cordial	-11.9262
▁longest	-11.9263
▁imitate	-11.9264
▁montreal	-11.9265
▁necessities	-11.9265
▁pathetic	-11.9265
▁bancroft	-11.9266
▁manning	-11.9267
▁canyon	-11.9268
▁awaiting	-11.9269
▁isabella	-11.9269
▁habitat	-11.927
▁gilt	-11.9273
rc	-11.9277
▁picking	-11.9279
▁edifice	-11.9284
▁operative	-11.9284
▁photographs	-11.9284
▁enabling	-11.9289
▁liabilities	-11.9289
▁uneasy	-11.9289
▁archive	-11.929
▁underlying	-11.929
▁fometimes	-11.929
▁besieged	-11.929
▁marrying	-11.9291
▁signified	-11.9291
▁blanket	-11.9291
cas	-11.9292
▁forgiveness	-11.9292
▁pores	-11.9292
▁chronicles	-11.9295
▁spotted	-11.9296
▁joints	-11.9299
ual	-11.9305
▁dal	-11.9307
▁loses	-11.9307
▁jl	-11.9308
▁chimney	-11.9309
▁affliction	-11.9309
▁multiply	-11.931
▁treats	-11.931
▁nesting	-11.9311
tie	-11.9311
▁dispositions	-11.9312
▁bien	-11.9313
▁beneficiary	-11.9314
▁walpole	-11.9314
▁oxygen	-11.9314
▁adultery	-11.9314
▁liar	-11.9316
▁selves	-11.9316
▁paved	-11.9318
▁theft	-11.932
▁philo	-11.9322
▁refuses	-11.9323
▁peck	-11.9324
▁sv	-11.9326
▁festivals	-11.9326
▁hughes	-11.9327
▁frog	-11.9328
lr	-11.9331
ori	-11.9334
▁mayo	-11.9335
▁bonnet	-11.9336
▁orissa	-11.9336
▁cession	-11.9337
▁extremes	-11.9338
▁unbroken	-11.9339
▁alpine	-11.9339
▁surf	-11.9341
▁provoked	-11.9341
▁bishopric	-11.9342
▁orchestra	-11.9346
ws	-11.9346
▁iraq	-11.9351
▁mystic	-11.9351
▁todd	-11.9355
▁amending	-11.9356
▁wanderings	-11.9358
▁subpoena	-11.9358
▁oratory	-11.9358
▁wu	-11.9359
har	-11.9363
▁intolerable	-11.9363
▁drummond	-11.9365
▁rouen	-11.9365
▁pliny	-11.9365
▁coinage	-11.9366
▁medals	-11.9369
ima	-11.937
uv	-11.937
▁opt	-11.9373
▁detect	-11.9374
▁subdivisions	-11.9375
▁eddy	-11.9375
▁dwellings	-11.9375
▁gossip	-11.9378
▁compliment	-11.9379
eft	-11.9379
av	-11.9381
▁economical	-11.9382
▁trumpet	-11.9383
▁pasha	-11.9383
▁sculptor	-11.9383
▁gad	-11.9384
uer	-11.9384
▁apes	-11.9385
▁grin	-11.9385
▁routine	-11.9386
▁demesne	-11.9388
▁damascus	-11.9388
▁henrietta	-11.9388
▁buckingham	-11.9388
▁baltic	-11.9389
▁sometime	-11.939
▁seizing	-11.939
▁extinguished	-11.939
▁louisville	-11.9392
▁rash	-11.9394
▁inherit	-11.9398
▁richly	-11.9403
▁wretch	-11.9406
▁robbers	-11.9408
▁shrill	-11.9409
▁assess	-11.941
▁martyrs	-11.9411
▁hip	-11.9413
▁handicapped	-11.9413
▁spacious	-11.9413
▁confederacy	-11.9413
▁rebuilt	-11.9413
▁lorenzo	-11.9413
▁talbot	-11.9413
▁woven	-11.9414
▁homeland	-11.9416
▁graph	-11.9416
▁lyon	-11.9416
▁managing	-11.9417
▁cancer	-11.9421
▁canst	-11.9423
▁expose	-11.9424
▁lanes	-11.9424
▁supplying	-11.9425
▁clasp	-11.9426
▁grapes	-11.9427
ath	-11.9428
▁delivering	-11.9431
gu	-11.9431
▁ufe	-11.9436
▁migratory	-11.9438
▁relocation	-11.9438
▁worried	-11.9438
▁civic	-11.944
▁recorder	-11.9443
▁plural	-11.9445
▁delegated	-11.9445
▁historyof	-11.9445
▁dreaming	-11.9446
▁implementing	-11.9446
▁guardians	-11.9447
▁laughs	-11.9451
▁counsels	-11.9452
▁linear	-11.9452
▁eminently	-11.9452
▁convict	-11.9454
▁parva	-11.9455
los	-11.9455
▁denote	-11.9456
▁achievements	-11.9458
▁admirably	-11.9463
▁commodore	-11.9463
▁pines	-11.9463
▁ptolemy	-11.9463
nce	-11.9463
▁bos	-11.9464
▁caius	-11.9465
▁inscribed	-11.9466
▁shipped	-11.9469
▁challenger	-11.9474
▁identifying	-11.9474
▁attacking	-11.9475
▁wears	-11.9476
▁heating	-11.9476
▁hunted	-11.9479
rus	-11.948
▁resentment	-11.9483
▁tavern	-11.9484
▁revolver	-11.9484
▁glare	-11.9487
▁tub	-11.9487
▁perry	-11.9487
▁danube	-11.9488
▁ignacio	-11.9488
▁tributary	-11.9488
▁embarked	-11.9489
▁cheers	-11.949
▁giovanni	-11.9491
olo	-11.9492
▁childish	-11.9493
▁tween	-11.9495
▁stockton	-11.9495
▁methodist	-11.9498
▁conflicts	-11.9501
▁esta	-11.9502
hm	-11.9503
▁scores	-11.9503
ait	-11.9504
▁ings	-11.9505
▁pilgrims	-11.9506
▁frederic	-11.9508
▁respondents	-11.9508
▁antarctic	-11.9509
▁licenses	-11.951
▁theoretical	-11.951
▁williamson	-11.9512
▁duncan	-11.9513
▁calamity	-11.9513
▁cho	-11.9516
▁beforehand	-11.9518
▁balances	-11.9519
▁starts	-11.9522
ded	-11.9523
▁gandhi	-11.9523
water	-11.9524
iam	-11.9527
▁ary	-11.953
▁verge	-11.953
bs	-11.9532
▁pleasantly	-11.9534
▁habitual	-11.9536
▁waive	-11.9537
▁lebanon	-11.9538
▁morocco	-11.9538
sky	-11.9538
▁wagner	-11.9538
▁schumann	-11.9538
▁sire	-11.9539
▁luis	-11.9541
▁sorrows	-11.9541
▁zero	-11.9544
▁ville	-11.9549
▁topic	-11.955
pin	-11.9552
▁lynch	-11.9556
▁deems	-11.9557
▁ceremonial	-11.9558
▁marking	-11.9558
▁dairy	-11.9559
▁repre	-11.9561
▁beau	-11.9562
▁concur	-11.9563
▁persistent	-11.9563
▁amazed	-11.9564
iest	-11.9565
▁bb	-11.9565
▁spheres	-11.9565
▁ducks	-11.9566
▁tonight	-11.9567
▁disorders	-11.9568
▁prevails	-11.9571
▁graces	-11.9571
▁noblest	-11.9575
▁suggestive	-11.9575
▁arg	-11.9583
▁impressive	-11.9585
▁patterns	-11.9587
▁prometheus	-11.9588
▁ingenuity	-11.9588
▁birthday	-11.9589
▁riders	-11.9589
▁enduring	-11.9591
▁awards	-11.9591
▁whosoever	-11.9592
▁ves	-11.9593
▁galli	-11.9595
▁brande	-11.9596
▁cro	-11.9599
▁assuredly	-11.9599
▁hiv	-11.9607
▁reparation	-11.9609
▁remnant	-11.9609
▁chapels	-11.961
▁crane	-11.961
▁woke	-11.961
▁prospective	-11.9611
▁unfinished	-11.9614
▁redress	-11.9614
▁bias	-11.9615
▁threads	-11.9615
▁alongside	-11.9616
ess	-11.9616
▁cutter	-11.9618
uch	-11.9618
▁honored	-11.9619
▁marshes	-11.9622
▁resorted	-11.9622
▁fables	-11.9625
yan	-11.9627
▁angeles	-11.9629
ette	-11.963
▁tribunals	-11.9634
▁dei	-11.9634
▁mart	-11.9635
▁pretext	-11.9635
▁mandate	-11.9635
▁wis	-11.9636
▁coward	-11.9636
▁sullivan	-11.9639
▁tidings	-11.9639
▁rainfall	-11.9639
▁compelling	-11.964
▁poisonous	-11.9641
▁litt	-11.9641
▁pulse	-11.9642
▁dire	-11.9642
▁outset	-11.9645
▁jet	-11.9645
▁vaguely	-11.9647
und	-11.9647
▁kal	-11.9648
▁sided	-11.9648
▁rivals	-11.965
bridge	-11.9657
▁groom	-11.966
▁shelf	-11.9661
▁surfaces	-11.9662
▁sown	-11.9664
▁recognizing	-11.9665
▁tort	-11.9665
▁healed	-11.967
▁mountainous	-11.9671
▁foam	-11.9671
▁pharisees	-11.9672
▁challenged	-11.9673
▁chant	-11.968
ert	-11.9682
▁imposition	-11.9685
▁appellee	-11.9687
▁pouring	-11.9689
▁avoiding	-11.969
▁chevalier	-11.969
▁messiah	-11.969
▁godfrey	-11.9691
▁urging	-11.9691
▁wy	-11.9691
ev	-11.9691
▁glittering	-11.9692
▁slavs	-11.9694
▁prick	-11.9694
▁reflecting	-11.97
▁richest	-11.9704
▁prisons	-11.9705
▁subparagraphs	-11.9707
▁inventor	-11.9707
tar	-11.9708
▁knowingly	-11.971
▁lacked	-11.971
▁falsehood	-11.9711
▁overwhelming	-11.9714
▁singapore	-11.9716
▁substituting	-11.9716
▁sutton	-11.9716
▁verified	-11.9716
▁strove	-11.9716
▁enjoined	-11.9718
▁suspicions	-11.9718
din	-11.9719
pen	-11.9721
▁grasped	-11.9725
▁redeem	-11.9726
▁distinguishing	-11.9728
▁commune	-11.9731
▁mexicans	-11.9731
▁viii	-11.9732
▁brows	-11.9732
▁employing	-11.9733
▁seller	-11.9735
▁greet	-11.9736
▁johann	-11.9737
▁planting	-11.9737
wn	-11.9739
▁spark	-11.9739
▁psalms	-11.9739
▁sour	-11.974
▁theatres	-11.974
▁knives	-11.9741
▁duchy	-11.9742
▁powell	-11.9743
▁stew	-11.9744
▁saluted	-11.9746
▁nostrils	-11.9746
▁cellar	-11.9749
▁donation	-11.9752
▁stripes	-11.9753
ama	-11.9755
▁lodgings	-11.9756
▁affidavit	-11.9763
cal	-11.9764
▁ecstasy	-11.9767
▁prevalent	-11.9767
▁plat	-11.9767
▁helps	-11.977
▁creeping	-11.977
▁prizes	-11.9771
▁orchard	-11.9771
▁bust	-11.9771
▁median	-11.9772
▁petals	-11.9773
▁linked	-11.9778
ico	-11.9779
▁traitor	-11.9781
▁ck	-11.9781
▁spectators	-11.9784
▁nh	-11.9789
las	-11.9789
▁otto	-11.9792
▁noteworthy	-11.9793
▁retiring	-11.9793
▁applicants	-11.9793
▁dennis	-11.9793
▁comparing	-11.9794
tia	-11.9794
▁scientists	-11.9795
ef	-11.9796
▁graphic	-11.9796
▁unfit	-11.9797
▁hab	-11.9798
▁concludes	-11.9802
ando	-11.9806
▁spectacles	-11.9808
▁confine	-11.9812
▁jewel	-11.9812
nr	-11.9815
▁illusion	-11.9815
▁bluff	-11.9816
▁chartered	-11.9817
ao	-11.9817
▁pens	-11.9818
▁registry	-11.9819
iii	-11.9819
▁felony	-11.982
▁spin	-11.9822
▁estab	-11.9822
▁premier	-11.9823
atum	-11.9827
▁matches	-11.9829
▁boon	-11.9829
▁sto	-11.983
▁reporter	-11.983
bu	-11.983
ito	-11.9831
▁sheltered	-11.9831
▁ribs	-11.9832
▁damaged	-11.9835
sha	-11.9838
▁tumult	-11.984
▁vineyard	-11.984
tive	-11.9841
▁potomac	-11.9844
▁presumably	-11.9844
▁reorganization	-11.9844
▁charging	-11.9846
nc	-11.9849
▁awhile	-11.9851
▁announce	-11.9852
▁forwarded	-11.9853
▁enhance	-11.9859
▁quart	-11.9861
▁challenges	-11.9861
▁escort	-11.9862
ery	-11.9867
▁recollections	-11.9867
▁eliminate	-11.9868
▁vat	-11.9869
▁smithsonian	-11.987
▁unemployment	-11.987
▁armenian	-11.9871
▁treachery	-11.9871
▁substitution	-11.9871
▁bewildered	-11.9871
▁regulatory	-11.9871
▁disclose	-11.9871
▁cleaning	-11.9872
▁shrewd	-11.9874
▁mod	-11.9876
▁vin	-11.9876
accou	-11.9877
▁metaphysical	-11.9877
▁quartz	-11.9877
▁simplest	-11.9877
▁serfs	-11.988
▁drinks	-11.9881
▁philippines	-11.9887
side	-11.9887
▁flank	-11.9888
▁scot	-11.9888
▁rc	-11.9891
▁fist	-11.9893
▁advertisement	-11.9893
▁corporal	-11.9894
ali	-11.9894
▁fibre	-11.9895
▁forcibly	-11.9896
▁radioactive	-11.9896
▁tedious	-11.9897
▁tyler	-11.9897
▁tension	-11.9897
▁fills	-11.9897
cli	-11.9898
dt	-11.9902
▁demanding	-11.9904
als	-11.9905
▁potter	-11.9909
▁vide	-11.9911
▁rr	-11.9913
▁joyous	-11.9914
▁sacraments	-11.9915
▁misdemeanor	-11.9918
▁prescription	-11.9919
▁impartial	-11.992
▁conflicting	-11.992
▁stephens	-11.9924
▁favours	-11.9926
▁hir	-11.9929
work	-11.9929
▁folds	-11.9932
▁despatch	-11.9938
▁cove	-11.9938
▁barry	-11.9938
▁exploits	-11.9941
▁discontent	-11.9945
▁manifestation	-11.9946
▁mentally	-11.9947
▁maidens	-11.9948
▁rousseau	-11.9949
▁sympathies	-11.9949
oth	-11.995
north	-11.995
▁chs	-11.9951
▁echoed	-11.9954
▁suppl	-11.9956
▁trench	-11.9959
▁precept	-11.9961
▁inclusion	-11.9961
▁distrust	-11.9963
▁ling	-11.9964
▁script	-11.9964
▁joins	-11.9969
▁hermit	-11.9971
▁commonplace	-11.9972
▁bourne	-11.9972
▁reared	-11.9972
▁melody	-11.9975
▁radiation	-11.9975
▁retorted	-11.9977
▁witty	-11.9978
▁clasped	-11.9979
▁embraces	-11.9979
▁verbs	-11.998
▁fishery	-11.9983
▁onto	-11.9985
▁unusually	-11.9985
▁jose	-11.9987
▁trim	-11.9989
▁tant	-11.9991
ster	-11.9991
▁akin	-11.9992
▁nothin	-11.9992
▁cashier	-11.9998
▁industrious	-11.9998
▁ax	-11.9999
▁mirrikh	-12.0001
▁sophocles	-12.0001
▁geometry	-12.0001
▁package	-12.0003
▁beams	-12.0004
▁abnormal	-12.0004
▁wrongs	-12.0005
▁blacksmith	-12.0005
▁ringing	-12.0008
▁trait	-12.0009
▁gerard	-12.001
▁sud	-12.0011
▁sara	-12.0016
ec	-12.0017
▁torment	-12.002
▁lic	-12.002
▁webb	-12.0024
▁radiant	-12.0025
del	-12.0026
▁interpreter	-12.0027
▁mainland	-12.0027
▁llandaff	-12.0028
▁fishermen	-12.0029
▁weren	-12.003
▁expressive	-12.003
▁metallic	-12.0032
▁roofs	-12.0033
▁doubled	-12.0034
▁praises	-12.0034
▁prin	-12.0036
▁humanitarian	-12.0037
▁watering	-12.0038
eng	-12.0041
▁liber	-12.0042
▁aws	-12.0045
▁reid	-12.0045
▁instrumental	-12.0046
▁duplicate	-12.0048
▁shepherds	-12.0048
chen	-12.005
▁adaptation	-12.0051
day	-12.0051
▁anonymous	-12.0051
▁harness	-12.0052
▁ect	-12.0053
▁tails	-12.0054
▁assemblies	-12.0054
▁wiser	-12.0055
▁abel	-12.0056
uri	-12.0059
▁fiercely	-12.0064
▁brightness	-12.0065
▁ner	-12.0068
▁pap	-12.0068
▁scream	-12.0069
▁anxiously	-12.0069
▁uniformly	-12.0069
uli	-12.007
▁crush	-12.0071
▁waiter	-12.0071
▁lads	-12.0072
elli	-12.0073
▁processing	-12.0074
ties	-12.0075
▁beseech	-12.0076
▁determinations	-12.0076
▁submarine	-12.0077
▁elle	-12.0077
▁enclosure	-12.0078
▁irresistible	-12.0081
▁leopold	-12.0081
▁ascent	-12.0081
▁baseball	-12.0081
▁civilisation	-12.0082
▁lea	-12.0083
▁lazy	-12.0083
▁rag	-12.0084
▁dip	-12.0084
▁ak	-12.0087
▁inna	-12.0088
▁della	-12.0088
bel	-12.009
▁participated	-12.0092
▁doings	-12.0093
▁indi	-12.0094
▁spoils	-12.0095
▁camel	-12.0098
var	-12.01
▁territoire	-12.0104
▁explosion	-12.0104
▁palaces	-12.0104
▁grievous	-12.0104
▁lanyard	-12.0107
▁doughty	-12.0107
▁bard	-12.0108
▁video	-12.0109
▁ern	-12.0109
ml	-12.0111
▁organism	-12.0112
▁supporters	-12.0118
▁dine	-12.0119
▁cath	-12.012
▁loading	-12.0121
▁cultivate	-12.0127
▁bridle	-12.0127
▁surname	-12.0127
▁thickly	-12.0129
▁satire	-12.0132
▁equator	-12.0134
▁dye	-12.0135
▁dismissal	-12.0136
▁cautiously	-12.0137
▁laboured	-12.014
▁perfon	-12.0142
▁pronounce	-12.0143
▁pony	-12.0143
▁amuse	-12.0145
▁gm	-12.0151
▁ranged	-12.0155
▁incentive	-12.0155
▁tsh	-12.0155
▁cautious	-12.0158
▁humorous	-12.0159
▁sects	-12.016
▁bologna	-12.0161
▁certiorari	-12.0161
▁fitzgerald	-12.0161
▁jurisprudence	-12.0161
▁brooklyn	-12.0161
▁apportioned	-12.0161
▁parson	-12.0162
▁forgiven	-12.0162
▁spenser	-12.0163
▁awaited	-12.0165
▁bethlehem	-12.0166
▁sincerely	-12.0166
▁divides	-12.0169
▁hos	-12.0173
▁contested	-12.0175
▁molecules	-12.0175
▁sighted	-12.0176
▁teachings	-12.0179
▁overland	-12.0179
▁flush	-12.018
▁penetrate	-12.0181
▁reins	-12.0181
▁unanimous	-12.0185
▁counsellor	-12.0185
▁crystals	-12.0185
▁geronimo	-12.0187
▁austen	-12.0188
▁peasantry	-12.0188
▁populations	-12.0188
▁confronted	-12.0189
▁tommy	-12.0189
▁ragged	-12.0189
▁terrorist	-12.0193
▁endeavored	-12.0193
▁swinging	-12.0193
▁hears	-12.0195
▁vigorously	-12.0195
▁fern	-12.0196
▁elephants	-12.0196
▁shocked	-12.0198
▁cubits	-12.0199
▁tc	-12.0204
▁prosecutor	-12.0212
▁collateral	-12.0212
sm	-12.0212
▁til	-12.0213
▁oklahoma	-12.0214
▁unmarried	-12.0214
▁galleries	-12.0214
shire	-12.0214
▁rainy	-12.0215
▁standpoint	-12.0215
▁highlands	-12.0216
▁realization	-12.0218
▁outlet	-12.0218
▁patriot	-12.0218
▁drunken	-12.022
▁sadness	-12.0221
▁appliances	-12.0221
▁begging	-12.0222
▁campaigns	-12.0222
▁rods	-12.0226
sk	-12.0227
▁normally	-12.0229
ud	-12.0233
▁bang	-12.0233
▁horrors	-12.0235
dis	-12.0238
▁explicit	-12.0239
▁frontiers	-12.0239
tli	-12.0239
▁honors	-12.024
▁anarchism	-12.0241
▁gertrude	-12.0242
▁blush	-12.0242
▁ensued	-12.0243
▁amanda	-12.0244
▁wiped	-12.0244
▁enact	-12.0249
▁richer	-12.0249
▁gene	-12.025
▁louder	-12.0252
▁lm	-12.0255
uta	-12.0255
rated	-12.0259
▁inlet	-12.0259
▁planes	-12.026
▁ace	-12.026
▁stan	-12.0261
gt	-12.0262
▁michel	-12.0263
iya	-12.0263
▁ida	-12.0264
▁creates	-12.0265
▁snuff	-12.0265
atio	-12.0265
▁devout	-12.0266
▁heb	-12.0266
▁astonishing	-12.0267
▁carlisle	-12.0268
▁kat	-12.0268
▁ker	-12.0271
▁forcing	-12.0272
▁builders	-12.0272
▁mak	-12.0276
ters	-12.0276
pt	-12.0279
▁bc	-12.0283
▁axes	-12.0284
▁downwards	-12.0285
▁discovering	-12.0287
lum	-12.029
▁certify	-12.0291
▁kissing	-12.0292
▁vapour	-12.0293
▁workman	-12.0293
▁bearers	-12.0294
▁wrist	-12.0294
▁ordering	-12.0295
▁gambling	-12.0296
▁questioning	-12.0296
▁ballad	-12.0296
▁sportsman	-12.0297
▁wat	-12.0297
▁undergone	-12.0298
▁ez	-12.0299
▁beads	-12.0299
▁amer	-12.03
▁godwin	-12.0303
▁devise	-12.0303
▁compose	-12.0304
▁ounces	-12.0304
▁gorge	-12.0306
▁gds	-12.0307
▁lump	-12.0307
▁bravely	-12.031
▁blossom	-12.0312
▁coastal	-12.0312
hen	-12.0313
▁loc	-12.0314
▁drain	-12.0318
▁woollen	-12.0321
▁penance	-12.0321
▁charters	-12.0322
▁abb	-12.0322
▁rabbi	-12.0322
▁simpson	-12.0323
▁detection	-12.0323
▁regretted	-12.0323
▁novelty	-12.0324
▁gorgeous	-12.0325
▁naught	-12.0325
▁utilized	-12.0326
cm	-12.0326
▁prev	-12.0326
▁doomed	-12.0329
▁shifting	-12.033
▁practiced	-12.0331
▁visa	-12.0331
▁adherents	-12.0333
vol	-12.0334
tn	-12.0334
▁dart	-12.0335
▁patiently	-12.0337
du	-12.0338
▁prob	-12.034
▁privileged	-12.0344
▁chile	-12.0345
▁envelope	-12.0347
▁dispensation	-12.0347
▁cement	-12.0348
▁sentimental	-12.0348
▁portal	-12.0348
▁norwegian	-12.035
▁punjab	-12.035
inger	-12.035
▁comme	-12.0351
ore	-12.0352
▁adjustments	-12.0352
▁respectfully	-12.0352
▁traits	-12.0354
▁bored	-12.0357
▁dice	-12.0363
▁wheeler	-12.0368
▁visual	-12.0371
▁bavaria	-12.0374
pan	-12.0375
▁signing	-12.0376
▁sheffield	-12.0377
▁monmouth	-12.0377
▁intervening	-12.0378
▁huts	-12.0378
▁procuring	-12.0378
▁ridges	-12.0378
▁hasn	-12.0378
▁improbable	-12.0378
▁avec	-12.0379
▁annexation	-12.0381
▁clayton	-12.0381
▁bv	-12.0384
▁arid	-12.0385
▁understands	-12.0386
▁nc	-12.0394
▁contemplate	-12.0398
▁inj	-12.0401
▁athenian	-12.0402
▁overseas	-12.0405
▁juniors	-12.0405
▁dreary	-12.0405
▁interposed	-12.0406
▁nursery	-12.0406
▁marvel	-12.0407
▁indulged	-12.0409
▁northampton	-12.0411
▁continuously	-12.0413
▁publick	-12.0416
▁distressed	-12.0418
▁flourish	-12.0421
▁fulfill	-12.0423
▁scheduled	-12.0423
▁pleadings	-12.0424
▁faction	-12.0425
▁episode	-12.043
▁sierra	-12.043
sley	-12.0431
▁dict	-12.0431
▁bacteria	-12.0432
▁brasenose	-12.0432
▁unquestionably	-12.0432
▁ulysses	-12.0432
▁victories	-12.0433
▁nan	-12.0434
▁impaired	-12.0435
rv	-12.0436
▁butcher	-12.0438
▁feasts	-12.0439
▁investigated	-12.0439
▁sinned	-12.0439
▁ellie	-12.0441
▁auctioneers	-12.0441
▁intending	-12.0442
zo	-12.0442
▁phases	-12.0445
▁tary	-12.0447
▁puritan	-12.0448
▁floods	-12.045
▁undergo	-12.0453
▁flute	-12.0454
▁inde	-12.0455
▁acknowledgment	-12.0457
▁jove	-12.0458
lp	-12.0458
▁limiting	-12.0458
▁scrutiny	-12.046
▁guaranty	-12.046
▁controversies	-12.046
▁fairfax	-12.046
▁hazardous	-12.046
▁shattered	-12.046
▁overruled	-12.046
▁forgetting	-12.0461
▁antiochus	-12.0462
▁grieved	-12.0462
▁peculiarity	-12.0463
▁renowned	-12.0463
▁eliminated	-12.0464
▁alternately	-12.0464
▁singer	-12.0467
▁southey	-12.047
▁wee	-12.0475
▁specie	-12.0477
▁meyer	-12.0478
▁instincts	-12.0481
▁imperative	-12.0484
hat	-12.0486
▁adults	-12.0486
▁vid	-12.0487
▁atmospheric	-12.0487
▁sacrificial	-12.0487
▁reddish	-12.0488
▁eph	-12.0488
▁annoyed	-12.0489
yng	-12.0489
▁grantee	-12.049
▁swelling	-12.0491
▁unconsciously	-12.0495
▁plantations	-12.0499
▁tablet	-12.0499
▁plaster	-12.0504
▁vch	-12.0509
▁quoting	-12.0509
▁brighter	-12.051
▁italians	-12.051
▁ascetic	-12.0511
▁reservoir	-12.0513
▁frigate	-12.0513
▁sonnets	-12.0515
▁obsolete	-12.0515
▁accords	-12.0516
▁evolved	-12.0516
▁snatched	-12.0517
▁pleases	-12.0518
▁dow	-12.0518
ela	-12.0519
▁finite	-12.052
▁ranch	-12.052
▁resembled	-12.0521
▁rotation	-12.0521
▁ous	-12.0523
▁policeman	-12.0524
▁denies	-12.0524
▁sul	-12.0525
jj	-12.0525
▁intimately	-12.0525
▁needless	-12.0525
▁persians	-12.0526
▁ste	-12.0526
▁wren	-12.0527
▁natured	-12.0528
▁apartments	-12.0529
▁tempered	-12.0531
▁veto	-12.0532
▁substantive	-12.0537
▁brewer	-12.0539
▁demurrer	-12.054
▁miniature	-12.054
▁satellite	-12.054
int	-12.0541
▁packet	-12.0541
▁involuntary	-12.0543
▁blazing	-12.0543
▁executing	-12.0543
▁hardships	-12.0543
▁rubbing	-12.0543
▁laud	-12.0545
▁banker	-12.0545
▁springing	-12.0545
▁eadi	-12.0546
▁hop	-12.0546
▁pedro	-12.0548
▁oars	-12.055
▁output	-12.0552
ren	-12.0553
▁jay	-12.0555
▁connections	-12.0563
▁screw	-12.0563
▁weaker	-12.0564
▁saga	-12.0565
▁macedonia	-12.0567
▁grotesque	-12.0568
▁fal	-12.0568
▁scientist	-12.0568
▁pendant	-12.057
▁desolation	-12.0571
▁inviting	-12.0571
▁luminous	-12.0572
▁await	-12.0575
▁similarity	-12.0577
▁porters	-12.0579
ain	-12.0579
ule	-12.058
▁resides	-12.0584
▁perth	-12.0587
▁potent	-12.0587
▁pont	-12.0588
▁camera	-12.059
▁stretches	-12.0593
eur	-12.0593
▁bathing	-12.0594
▁temperance	-12.0599
▁boyhood	-12.0599
▁computed	-12.0599
▁regis	-12.06
▁enriched	-12.06
▁hussars	-12.0605
▁roared	-12.0607
▁ple	-12.0608
▁developments	-12.0612
▁solved	-12.0613
mb	-12.0615
▁bids	-12.0615
▁registers	-12.0616
▁offenses	-12.0618
nie	-12.062
▁qualify	-12.0622
▁comma	-12.0623
▁meade	-12.0623
▁viceroy	-12.0624
nin	-12.0626
▁applicability	-12.0627
▁choosing	-12.0627
▁mishnah	-12.0627
▁clearer	-12.0632
▁boss	-12.0634
▁prohibiting	-12.0634
▁broadly	-12.0634
▁disturbing	-12.0635
▁anarchist	-12.0635
kh	-12.0636
▁strengthening	-12.0636
rf	-12.0637
▁immigrants	-12.0644
▁kick	-12.0645
▁gre	-12.0646
ser	-12.0647
▁invest	-12.0647
▁triple	-12.0649
▁specify	-12.065
▁autonomous	-12.0655
▁southampton	-12.0655
▁cre	-12.0655
▁deficient	-12.0655
▁retains	-12.0656
▁familiarity	-12.0657
▁italie	-12.0659
▁anno	-12.066
▁prompted	-12.0661
▁heal	-12.0661
▁linc	-12.0666
itt	-12.0667
▁aston	-12.067
▁derives	-12.0672
▁layers	-12.0672
oma	-12.0673
▁recovering	-12.0674
▁shouts	-12.0678
▁yankee	-12.0681
▁scandinavian	-12.0682
▁bricks	-12.0682
▁pow	-12.0682
▁calhoun	-12.0683
▁utilities	-12.0683
▁oversight	-12.0683
▁devoid	-12.0683
▁whiston	-12.0683
▁options	-12.0684
▁robbery	-12.0686
ona	-12.0687
ace	-12.0687
▁turk	-12.0692
▁guise	-12.0695
▁burg	-12.0695
▁tickets	-12.0697
▁spears	-12.0698
bat	-12.07
▁hoy	-12.07
▁warehouse	-12.0709
▁chesapeake	-12.0711
▁secrecy	-12.0711
▁begotten	-12.0711
▁forbidding	-12.0711
▁macron	-12.0713
▁kneeling	-12.0714
▁unanimously	-12.0714
▁subscribed	-12.0715
▁enhanced	-12.0715
not	-12.0717
▁deut	-12.072
▁conversations	-12.0722
▁nw	-12.0724
▁indra	-12.0726
▁widows	-12.0727
▁quotations	-12.0728
bus	-12.0728
▁garb	-12.0729
▁sandwich	-12.0736
▁republics	-12.0737
▁brahman	-12.0737
▁belgian	-12.0738
▁fasting	-12.0739
▁armstrong	-12.0739
▁pronunciation	-12.0739
▁gustavus	-12.074
▁ignored	-12.0743
▁instructive	-12.0743
▁xii	-12.0753
▁doris	-12.0755
▁leased	-12.0756
ising	-12.0757
▁cyril	-12.0758
▁plumm	-12.0766
▁servitude	-12.0768
▁auxiliary	-12.0768
▁advantageous	-12.077
▁wala	-12.077
▁regi	-12.077
par	-12.0773
▁fla	-12.0775
mis	-12.0775
▁philosophic	-12.0775
▁corrupted	-12.0777
▁manifestly	-12.0777
▁czar	-12.0778
sp	-12.078
ame	-12.0782
▁shots	-12.0788
▁mort	-12.0789
▁superb	-12.079
▁profane	-12.0792
▁petit	-12.0792
dictiona	-12.0793
▁rea	-12.0794
▁hindoo	-12.0794
▁endowment	-12.0795
▁catastrophe	-12.0796
▁defensive	-12.0796
▁impatience	-12.0796
▁soluble	-12.0796
▁happier	-12.0797
▁declining	-12.0797
[...]
