<unk>	0
<s>	0
</s>	0
_de	-3.11206
_la	-3.60602
_a	-3.72989
_et	-3.7845
_le	-3.92063
_l	-3.98512
_les	-4.05524
_il	-4.33812
_d	-4.37746
_des	-4.40974
_que	-4.44356
_en	-4.46786
_un	-4.56128
_qui	-4.71158
_est	-4.72562
_une	-4.80805
_du	-4.83384
_dans	-4.84367
_qu	-4.89747
_ne	-4.99934
_pour	-5.13414
_ce	-5.13654
_par	-5.18737
_ie	-5.19858
_pas	-5.21161
_n	-5.2208
_se	-5.22187
_au	-5.26742
_s	-5.27384
_on	-5.27854
s	-5.30044
_plus	-5.30646
_ou	-5.41397
_sur	-5.46464
_elle	-5.48122
_c	-5.50888
_son	-5.52395
_uous	-5.55243
_nous	-5.55658
_mais	-5.66725
_page	-5.68693
_i	-5.6921
_lui	-5.71956
_diuu	-5.73109
_auec	-5.74636
_sa	-5.75947
_m	-5.82534
_cette	-5.84879
_si	-5.8584
_comme	-5.87042
_ses	-5.88383
_y	-5.90603
_etait	-5.94972
_tout	-5.95171
_meme	-5.99306
_ils	-6.0858
_ces	-6.10018
_auait	-6.10717
_bien	-6.11998
_me	-6.15168
_aux	-6.16309
_leur	-6.17905
_sont	-6.1972
_deux	-6.20717
_etre	-6.2874
_sans	-6.29684
_fait	-6.40024
_t	-6.46293
_dit	-6.46427
_mon	-6.51421
_tous	-6.53818
_dont	-6.55713
_amp	-6.56125
e	-6.56482
_ont	-6.57159
_faire	-6.61314
_peut	-6.68108
_encore	-6.68212
_tome	-6.68774
_fut	-6.70884
_ete	-6.7253
_aussi	-6.74158
_autre	-6.76882
_leurs	-6.7963
_apres	-6.80676
_point	-6.80907
_ai	-6.82351
_ma	-6.84284
_peu	-6.84942
_moi	-6.86056
_tu	-6.89677
_sous	-6.90117
_homme	-6.92013
_autres	-6.92091
_e	-6.92499
_temps	-6.93833
_auoir	-6.98815
_quand	-6.99166
_toutes	-7.01978
_grand	-7.04031
_moins	-7.04048
_non	-7.0484
_entre	-7.06711
_ainsi	-7.06739
_toute	-7.07781
_dire	-7.08076
_tres	-7.09836
_rien	-7.11176
_uie	-7.12417
_notre	-7.13142
_car	-7.13553
_ni	-7.15134
_donc	-7.15145
_quelques	-7.16663
_touiours	-7.18037
_cela	-7.19401
_elles	-7.20348
_p	-7.21981
_cet	-7.27519
_iamais	-7.27768
_contre	-7.28241
_nos	-7.28313
_ceux	-7.28794
_celui	-7.2921
_iour	-7.30578
_faut	-7.31772
_quelque	-7.32542
_uers	-7.32916
_dieu	-7.33156
_etaient	-7.33734
_fois	-7.34436
_uotre	-7.34582
_eut	-7.35577
_alors	-7.3578
_soit	-7.35824
_mes	-7.36666
t	-7.37377
es	-7.37872
_iusqu	-7.38137
_uoir	-7.38414
_u	-7.39007
_monde	-7.39915
_hommes	-7.41648
_trois	-7.45248
_puis	-7.45377
_saint	-7.46832
_france	-7.47471
_chez	-7.48587
_celle	-7.48712
_grande	-7.49205
_nom	-7.4924
_trop	-7.49549
_roi	-7.53518
_depuis	-7.54755
_oeuures	-7.55915
_eux	-7.56567
_tant	-7.57298
_femme	-7.58105
_reuue	-7.58704
_paris	-7.5995
_esprit	-7.60098
_auaient	-7.60984
_fit	-7.61339
_yeux	-7.61402
_mort	-7.61886
_auant	-7.62082
_pere	-7.62165
_donne	-7.62271
_suis	-7.63255
_histoire	-7.633
_terre	-7.63505
_ii	-7.63834
_em	-7.65769
_ici	-7.65958
_deuant	-7.66559
_coeur	-7.66945
_in	-7.67011
_chose	-7.67188
_etat	-7.6722
_pays	-7.6724
_pendant	-7.67863
_assez	-7.68259
_beaucoup	-7.68301
_ans	-7.68518
a	-7.68551
_fort	-7.68908
_ieune	-7.69896
_premier	-7.70304
_te	-7.71037
_bon	-7.71104
_deia	-7.72377
_partie	-7.73744
_pres	-7.73874
_enfin	-7.73875
_formula	-7.74484
r	-7.74531
i	-7.7552
_or	-7.76397
_moment	-7.77467
_doit	-7.78067
_cote	-7.78454
_tete	-7.78581
_iours	-7.7913
_seulement	-7.79598
_porte	-7.7964
_corps	-7.79701
_mondes	-7.80474
_lieu	-7.80543
_petit	-7.81548
_trouue	-7.81687
_main	-7.81906
_seul	-7.82733
_amour	-7.84359
_uille	-7.84849
_premiere	-7.84919
_eu	-7.84962
_cependant	-7.85181
_parce	-7.8539
_fils	-7.85603
_serait	-7.86308
_part	-7.86409
_nature	-7.86609
_place	-7.88381
_mieux	-7.89883
_sera	-7.90562
_ci	-7.90644
_choses	-7.90826
_chaque	-7.91798
nt	-7.91935
_auons	-7.92128
_effet	-7.92399
_mal	-7.92828
_liure	-7.93245
_reste	-7.93464
_f	-7.93663
z	-7.93858
_r	-7.93988
_mot	-7.94796
_force	-7.94889
_plusieurs	-7.95215
ment	-7.95221
_o	-7.95754
_nombre	-7.96429
_souuent	-7.96626
_raison	-7.97699
_comment	-7.98977
_donner	-7.99531
_ame	-7.99863
_presque	-8.00322
_monsieur	-8.0102
_ua	-8.01298
_g	-8.01412
_maison	-8.01437
_fille	-8.0153
_peine	-8.01642
_forme	-8.01897
_quatre	-8.02141
_ton	-8.023
_mere	-8.02694
_pu	-8.0288
_air	-8.03403
_guerre	-8.04108
_droit	-8.04756
_sens	-8.04873
_doute	-8.05059
_ayant	-8.05376
_general	-8.05468
_personne	-8.05854
_passe	-8.06152
_madame	-8.06203
_uu	-8.06567
_auez	-8.06817
_gens	-8.07426
_coup	-8.07618
_aurait	-8.07657
_b	-8.07836
_memes	-8.07974
_uoix	-8.09244
_peuple	-8.09737
_hui	-8.10226
_bonne	-8.10322
_loin	-8.1055
_uoila	-8.1095
_nouuelle	-8.11691
_auiourd	-8.11861
_eau	-8.12591
_heure	-8.12772
_petite	-8.12977
_uos	-8.13633
_cause	-8.13664
_oui	-8.14612
_grands	-8.14634
_laquelle	-8.14856
_lettre	-8.15596
_pourquoi	-8.16117
_prendre	-8.16483
_maniere	-8.16525
_ordre	-8.1707
_ailleurs	-8.17183
_nuit	-8.17271
_nouueau	-8.17997
_surtout	-8.18477
_pouuait	-8.18807
_autant	-8.1933
_abord	-8.19718
_sorte	-8.2004
_completes	-8.20285
_maitre	-8.2037
_font	-8.20378
_iii	-8.20481
_iu	-8.20524
_mille	-8.20571
_idee	-8.2121
_quel	-8.21231
_quelle	-8.21312
_aucun	-8.21474
_fin	-8.21805
_lorsque	-8.22016
_uue	-8.22429
_style	-8.22737
_urai	-8.22859
_milieu	-8.22881
_francais	-8.22958
_quoi	-8.23218
_toi	-8.2326
_pouuoir	-8.23789
_seule	-8.23841
_cas	-8.24045
_annee	-8.24084
_bas	-8.25429
_enfant	-8.25822
_ait	-8.25825
_beau	-8.25931
n	-8.26644
_mains	-8.26822
_maintenant	-8.27319
_art	-8.27566
_ah	-8.2818
_pris	-8.28485
_belle	-8.28832
_parmi	-8.29004
_ca	-8.29085
_lettres	-8.29251
_es	-8.29804
_dessus	-8.29809
_mer	-8.29968
_heures	-8.3012
_femmes	-8.30296
_ta	-8.30791
_h	-8.3088
_tour	-8.31007
_famille	-8.3115
_siecle	-8.31366
_dix	-8.31485
_pierre	-8.31556
_suite	-8.32098
_trauail	-8.32166
_aucune	-8.32365
_gouuernement	-8.32502
_parler	-8.32565
_politique	-8.32835
_auais	-8.32869
_cinq	-8.33913
_loi	-8.34143
_moyen	-8.34243
_ueut	-8.34484
_lorsqu	-8.34724
_iean	-8.34856
_rendre	-8.35158
l	-8.35225
_dernier	-8.3549
_haut	-8.35511
_mois	-8.36234
_chapitre	-8.36259
_furent	-8.36993
_fond	-8.37316
_question	-8.37441
_auteur	-8.38335
_mettre	-8.38423
_ciel	-8.38528
_semble	-8.38697
_argent	-8.38809
_parle	-8.3894
_uerite	-8.38943
_eglise	-8.38953
_long	-8.39019
_ami	-8.3913
_bois	-8.40663
_align	-8.40744
_etc	-8.40891
_prince	-8.40977
_bras	-8.41057
_uoit	-8.41204
_aller	-8.41429
_uient	-8.41472
_chambre	-8.41885
_etant	-8.42566
is	-8.42817
_longtemps	-8.42865
_celles	-8.42952
o	-8.43117
_aime	-8.43699
_societe	-8.43744
_pensee	-8.43942
_oeuure	-8.43963
_enfants	-8.44035
_grace	-8.44085
_feu	-8.44424
_tel	-8.44457
_uieux	-8.44484
_besoin	-8.4481
_uingt	-8.44845
_sais	-8.44862
_repondit	-8.44886
_faisait	-8.44908
_mouuement	-8.45154
_liberte	-8.45749
_exemple	-8.46465
_dis	-8.46723
_suiet	-8.47065
_comte	-8.47076
_sauoir	-8.47768
_soir	-8.47875
_compte	-8.48252
_deuait	-8.48275
_idees	-8.48279
_bientot	-8.48729
_telle	-8.49037
_mots	-8.49272
_garde	-8.50201
_pauure	-8.50221
_gt	-8.50401
_laisse	-8.50677
_louis	-8.50794
_ueux	-8.51596
_cour	-8.52161
_annees	-8.52285
_propre	-8.52388
_demande	-8.53028
_age	-8.53402
_peuuent	-8.54562
_caractere	-8.54711
_trouuer	-8.54847
_contraire	-8.55161
_chacun	-8.55686
_lequel	-8.55757
_honneur	-8.55767
_mis	-8.55776
_soleil	-8.56217
_sait	-8.56294
_malgre	-8.57702
_liures	-8.5772
_uol	-8.57874
_selon	-8.57906
_arriue	-8.58359
_ed	-8.5863
_pourtant	-8.5871
_uoici	-8.58786
_autour	-8.59379
_sang	-8.59668
_ensuite	-8.60096
ait	-8.60207
_amis	-8.60696
_foi	-8.60886
_disait	-8.60889
_passer	-8.6089
_petits	-8.60906
_possible	-8.60934
_chef	-8.61006
_frere	-8.61072
_sommes	-8.61523
_marche	-8.61704
_pdf	-8.61887
_rue	-8.6213
_action	-8.62219
_armee	-8.62984
_grandes	-8.63362
_tandis	-8.63407
_eh	-8.6377
_etes	-8.63921
_pieds	-8.64131
_epoque	-8.64195
_lt	-8.64347
_ensemble	-8.65247
_tard	-8.65492
_plutot	-8.66091
_prix	-8.66249
_angleterre	-8.6642
_six	-8.66525
_parti	-8.66615
_an	-8.66723
_croire	-8.6677
_cent	-8.66851
_seigneur	-8.67012
_fer	-8.67055
_afin	-8.67158
_auoit	-8.67165
_quant	-8.67785
_right	-8.68481
_etais	-8.68641
us	-8.68661
_interet	-8.68737
_cours	-8.69113
_duc	-8.69345
_bout	-8.7018
_uit	-8.70277
_figure	-8.70329
_aura	-8.70342
_uoyez	-8.70506
_anglais	-8.7071
_uoyage	-8.71011
_matin	-8.71117
_bonheur	-8.71165
it	-8.71512
_x	-8.71754
_ui	-8.71921
_oh	-8.72369
_nouuelles	-8.7247
_plaisir	-8.72593
_mesure	-8.72781
_crois	-8.72832
_langue	-8.72908
_francaise	-8.73064
_titre	-8.73084
_pourrait	-8.73137
_tes	-8.73956
_re	-8.73998
m	-8.74042
_suiuant	-8.74616
_science	-8.74703
_paroles	-8.74917
_route	-8.7493
_heureux	-8.75078
_pied	-8.75103
_simple	-8.75193
_ecrit	-8.75267
_empire	-8.75399
_espece	-8.75571
_lit	-8.76048
_traite	-8.76784
_instant	-8.76953
_theatre	-8.77027
_dictionnaire	-8.77039
_genre	-8.77229
_certain	-8.77686
_chemin	-8.77888
_ouurage	-8.77896
_uenir	-8.78185
_marie	-8.78388
_derniere	-8.78407
_entendre	-8.78434
_ieunes	-8.78633
_etoit	-8.79077
_present	-8.79092
_sentiment	-8.79107
_rapport	-8.79636
_table	-8.79811
_facon	-8.79834
_rome	-8.8044
_lois	-8.8045
_premiers	-8.80546
_trauers	-8.80936
_obiet	-8.81057
_parait	-8.81259
_faites	-8.81292
_paix	-8.81365
_conseil	-8.81508
_k	-8.81716
_prit	-8.82086
aient	-8.822
_systeme	-8.82594
_faits	-8.82664
_demi	-8.82801
_parties	-8.83036
_mit	-8.83134
_ualeur	-8.83484
_lumiere	-8.83692
_usage	-8.83951
_armes	-8.84051
_uoulu	-8.84175
_cher	-8.84203
_iustice	-8.84266
ent	-8.84321
_nord	-8.84414
_eleue	-8.84787
_uenait	-8.84888
_fr	-8.85193
_empereur	-8.85282
_but	-8.85398
_puissance	-8.85561
_etats	-8.8569
ons	-8.85811
_seconde	-8.86296
_affaires	-8.86611
_necessaire	-8.86766
_uertu	-8.86846
_appelle	-8.8701
_public	-8.87084
_sainte	-8.87174
_huit	-8.87204
_edition	-8.87693
_europe	-8.87756
_puisque	-8.87912
_partout	-8.87971
_ioie	-8.88199
_trad	-8.88342
_allait	-8.88424
_religion	-8.89146
_put	-8.89272
_second	-8.89308
_chercher	-8.89335
_laisser	-8.89596
_aussitot	-8.89675
_face	-8.89825
_reuolution	-8.89979
_px	-8.90186
_oeil	-8.90474
_faite	-8.90723
_cheual	-8.91503
_fortune	-8.91527
_quelquefois	-8.91895
_uolonte	-8.91905
_uis	-8.92144
_existence	-8.92565
_reine	-8.92658
_egalement	-8.9272
_uolume	-8.9278
_iuste	-8.93058
_paul	-8.93067
_charge	-8.93134
_commerce	-8.93379
_ecole	-8.94227
_ancien	-8.94459
_iesus	-8.94579
_affaire	-8.94654
_charles	-8.94678
_aupres	-8.95148
_libre	-8.95549
_francs	-8.95761
_li	-8.95875
_memoire	-8.96213
_succes	-8.96228
_blanc	-8.96252
_bruit	-8.96384
_sol	-8.96606
_the	-8.96608
_gloire	-8.96724
_sept	-8.9682
_opinion	-8.96897
_uns	-8.97077
_troisieme	-8.97086
_seruice	-8.97187
_silence	-8.972
_derriere	-8.97478
_parole	-8.97494
_pense	-8.97939
_left	-8.98169
_mari	-8.98174
_puisse	-8.98223
_uint	-8.98277
_situation	-8.98332
u	-8.98426
_deuoir	-8.98464
_dame	-8.98477
_principe	-8.9848
_presente	-8.98559
_uiure	-8.9856
_connaitre	-8.98877
_guere	-8.99036
_combien	-8.99124
_fallait	-8.99266
_generale	-8.99289
_longue	-8.99414
_gout	-8.99669
_montre	-8.99721
c	-8.99751
_nomme	-8.99888
_personnes	-8.99936
_discussion	-8.99949
_uois	-8.99994
_produit	-9.00005
_christ	-9.00085
_retour	-9.0011
_certains	-9.00343
_acte	-9.00359
_propos	-9.00783
_demanda	-9.01051
_haute	-9.01097
_cesse	-9.01262
er	-9.01327
y	-9.01461
_occasion	-9.01559
_seruir	-9.01726
_uoulait	-9.01726
_forces	-9.01873
_impossible	-9.01957
_regard	-9.02053
_sort	-9.02391
d	-9.02753
rent	-9.02888
_perdu	-9.02947
_col	-9.03012
_formes	-9.03039
_morale	-9.03044
_etude	-9.03199
_influence	-9.03318
_faisant	-9.03379
re	-9.03598
_anciens	-9.0369
_beaute	-9.03728
_uisage	-9.03922
_to	-9.04028
_mariage	-9.04292
_droite	-9.04933
_gros	-9.05015
_quil	-9.05099
_trauaux	-9.0518
_matiere	-9.05362
_quoique	-9.05445
_moyens	-9.05533
_article	-9.05683
_seront	-9.05955
um	-9.06022
_uent	-9.06022
_discours	-9.06066
_doiuent	-9.06311
_uite	-9.0653
_petites	-9.06568
_soient	-9.0665
_conscience	-9.06712
_presence	-9.06721
_tenir	-9.06766
_outre	-9.06774
_mauuais	-9.06784
_philosophie	-9.07116
ra	-9.07158
_peuples	-9.07195
_bouche	-9.07426
_soin	-9.07607
_membres	-9.07788
_dehors	-9.07971
_note	-9.08083
_lors	-9.08159
_piece	-9.08481
_rouge	-9.08568
_genie	-9.08588
_ueritable	-9.08891
_semblait	-9.08941
_memoires	-9.08991
_ministre	-9.09217
_poete	-9.09728
_autorite	-9.0975
_plein	-9.09782
_principes	-9.098
_reprit	-9.0994
_allons	-9.10209
_uais	-9.10248
_animaux	-9.1045
_soeur	-9.10457
_lendemain	-9.10498
_demander	-9.10791
te	-9.10814
_role	-9.11011
_merite	-9.11055
_peur	-9.11368
_ad	-9.1143
_rencontre	-9.12013
_conditions	-9.12031
_uieille	-9.12063
_passage	-9.12097
_difficile	-9.12152
_gauche	-9.12156
_commence	-9.12406
ne	-9.12519
_fleurs	-9.12603
_prend	-9.12615
_capitaine	-9.1274
_mars	-9.13007
_ligne	-9.13122
_foule	-9.13131
_origine	-9.13391
_palais	-9.13457
_text	-9.1365
_dieux	-9.13691
_beaux	-9.13748
_expression	-9.13841
_auenir	-9.14028
_traduction	-9.1419
_droits	-9.14207
_parfois	-9.14515
_sciences	-9.14631
_scene	-9.15072
_porter	-9.15113
_plupart	-9.1523
_academie	-9.15344
_diuerses	-9.15348
_soi	-9.15792
_attention	-9.15858
_iournal	-9.1595
_cotes	-9.16491
_desir	-9.16585
_italie	-9.1659
_manque	-9.16648
_top	-9.16805
_ecria	-9.17228
_particuliere	-9.17652
_mai	-9.17658
_uenu	-9.1772
le	-9.18186
_cest	-9.18296
_uraiment	-9.18318
ront	-9.18407
_henri	-9.18558
_noir	-9.18918
_belles	-9.19026
_sortir	-9.1903
_intelligence	-9.19287
_chateau	-9.19348
ur	-9.19388
_republique	-9.19543
_don	-9.19598
_somme	-9.19608
_ieunesse	-9.19647
_agit	-9.19773
_connaissance	-9.19875
_francois	-9.19939
_diuers	-9.1995
_entrer	-9.20147
_courage	-9.20148
_tantot	-9.20161
_existe	-9.20278
_roman	-9.20592
_entendu	-9.20599
_eaux	-9.20837
_met	-9.2094
_ordinaire	-9.20974
_front	-9.21068
_soldats	-9.21104
_souuenir	-9.21187
_hors	-9.21199
_musique	-9.21203
_trente	-9.21291
_pieces	-9.21512
_ouurages	-9.21678
_cheuaux	-9.21917
_allemagne	-9.22095
on	-9.22206
_certaines	-9.22301
_recu	-9.22303
_tombe	-9.22479
_humaine	-9.22515
_souuenirs	-9.22541
_signe	-9.22635
_ancienne	-9.22704
_filles	-9.22705
_cite	-9.22725
_suiure	-9.22777
_comprendre	-9.22904
_nouueaux	-9.23045
_ennemi	-9.23266
_progres	-9.23659
_donna	-9.23695
_dun	-9.23976
_pages	-9.24195
_iuillet	-9.2424
_faueur	-9.24348
_complete	-9.24366
_riche	-9.24599
_dites	-9.24601
_docteur	-9.247
_derniers	-9.24732
oit	-9.25011
_experience	-9.25122
_w	-9.25166
_trouuait	-9.25237
_freres	-9.25254
_malheur	-9.25261
_publique	-9.25329
_texte	-9.25403
_moitie	-9.25449
_iacques	-9.25588
_regarde	-9.25658
_couleur	-9.25763
_autrefois	-9.25821
_conduite	-9.25827
_campagne	-9.25849
_uii	-9.25877
_commun	-9.25903
_width	-9.26132
_ombre	-9.265
_moindre	-9.26539
_bord	-9.2658
_uin	-9.26626
_uoie	-9.26629
_critique	-9.2677
_forte	-9.26913
_douleur	-9.26998
_passion	-9.27
_commune	-9.27449
_abbe	-9.27488
_ennemis	-9.27507
_tient	-9.27539
_uoulez	-9.27568
_coups	-9.27791
_double	-9.27908
_interieur	-9.27935
_mourir	-9.27946
_doux	-9.28009
ant	-9.28272
_dauantage	-9.28366
_iuge	-9.2843
_facile	-9.28492
_etranger	-9.28517
_aide	-9.28532
_arbres	-9.28592
_con	-9.28612
en	-9.28653
_egard	-9.28853
_confiance	-9.28864
_auance	-9.28907
_uoyant	-9.2897
_uilles	-9.29429
_ferme	-9.29697
_ile	-9.2984
_ix	-9.30194
_connu	-9.30229
_premieres	-9.30247
_regne	-9.30316
_secret	-9.30441
_particulier	-9.30468
_large	-9.30531
_lesquels	-9.30563
_plan	-9.30737
_luy	-9.30854
_differentes	-9.30879
_reue	-9.30982
_ex	-9.31232
_questions	-9.31415
_certaine	-9.31417
_ch	-9.31717
_bataille	-9.31723
_moeurs	-9.32079
_partir	-9.32083
_nation	-9.32162
_noms	-9.32166
_pratique	-9.32219
_as	-9.32385
_larmes	-9.32469
_compagnie	-9.32797
_malheureux	-9.32901
_champ	-9.32914
_auquel	-9.3307
_interets	-9.33073
_points	-9.33117
_entiere	-9.33328
_royaume	-9.33537
_triste	-9.33727
_president	-9.33743
_esprits	-9.33967
_londres	-9.3422
_faute	-9.3441
_quantite	-9.34471
_cherche	-9.34488
_border	-9.34517
_salle	-9.34585
_race	-9.34608
_enuiron	-9.34658
_arriuer	-9.34716
_lire	-9.34778
_fais	-9.34878
_propres	-9.35057
_lutte	-9.3507
_utc	-9.35083
_sud	-9.35089
_rire	-9.35094
ai	-9.35144
_croit	-9.35292
_toutefois	-9.35296
_obiets	-9.35335
_perdre	-9.35336
_necessite	-9.35475
_auis	-9.35636
_litterature	-9.35655
_attendre	-9.35839
_aurais	-9.35955
_moderne	-9.35986
_termes	-9.36108
_bons	-9.36256
_millions	-9.363
_blanche	-9.36327
_tableau	-9.36602
_receuoir	-9.36613
_quelqu	-9.36777
_chefs	-9.36821
_poesie	-9.3721
_nul	-9.37216
_education	-9.37377
_uiii	-9.37445
_neuf	-9.37492
_importance	-9.37504
_assemblee	-9.37526
_midi	-9.37531
_endroit	-9.37675
_cf	-9.37723
_circonstances	-9.37729
_chere	-9.37756
_penser	-9.379
_dela	-9.37952
_noble	-9.38006
_rend	-9.38432
_uiue	-9.38454
_center	-9.38455
_maitres	-9.38499
_cheualier	-9.38564
_reponse	-9.38875
_direction	-9.3888
_er	-9.38898
_montrer	-9.38975
_entier	-9.39146
_sauait	-9.39379
_absolument	-9.39522
ez	-9.39531
_cents	-9.39696
_siecles	-9.3974
_mademoiselle	-9.39864
_deuient	-9.40025
_naturelle	-9.40184
_pleine	-9.40201
_el	-9.40223
_rois	-9.40327
_cheueux	-9.40356
_digne	-9.40396
_secours	-9.40413
_tels	-9.40446
_ecrire	-9.40491
_trouua	-9.40567
_froid	-9.40707
_cru	-9.40714
_realite	-9.40748
_position	-9.40829
_montagnes	-9.40951
_tirer	-9.41054
_serie	-9.41317
_calme	-9.4152
_depart	-9.41609
_mm	-9.41626
_change	-9.41932
_doctrine	-9.41939
_uont	-9.42036
_puisqu	-9.42332
_actes	-9.42807
_arrete	-9.42811
_prouince	-9.42821
_traits	-9.42877
_langage	-9.42944
_sauez	-9.42968
_maisons	-9.43194
_condition	-9.43195
_colere	-9.43254
_especes	-9.43349
_parut	-9.43543
_uiens	-9.4358
_iardin	-9.43752
_port	-9.439
de	-9.43964
_danger	-9.44045
ais	-9.44046
_efforts	-9.44301
_etudes	-9.44371
_di	-9.44396
_espace	-9.44437
_russie	-9.44438
_entree	-9.44517
_pensees	-9.44576
_douze	-9.44583
_monte	-9.44699
_diable	-9.44734
_crainte	-9.44762
_cou	-9.44807
_rendu	-9.44856
_immense	-9.44941
ient	-9.4502
_su	-9.45098
_uoyait	-9.45297
_hasard	-9.45313
_ieu	-9.45343
_adresse	-9.45488
_disant	-9.45493
_lesquelles	-9.45514
_imagination	-9.45535
_image	-9.45539
_ualign	-9.45552
_pauures	-9.45734
_sourire	-9.45754
_dessous	-9.45833
_occupe	-9.46002
_patrie	-9.46187
_nombreux	-9.46299
_amitie	-9.46557
_distance	-9.46593
_considerable	-9.46596
_uoulut	-9.46633
_lune	-9.46675
_deuenir	-9.46708
_naturel	-9.46731
_repondre	-9.46795
_lignes	-9.46826
_humanite	-9.46857
_proiet	-9.46968
_temple	-9.47003
_arts	-9.47037
_sein	-9.47052
_tire	-9.47054
_suiets	-9.47076
_demeure	-9.4718
_uoltaire	-9.4728
_ceci	-9.4731
in	-9.4736
_troupes	-9.47469
_auraient	-9.47502
_prise	-9.47507
_espagne	-9.47669
_uouloir	-9.47773
_graue	-9.47837
_aout	-9.47928
_auril	-9.48023
_lu	-9.48039
_combat	-9.48285
_malade	-9.4838
_he	-9.48447
_humain	-9.48492
_siege	-9.48521
_terme	-9.4887
_oblige	-9.49016
_degre	-9.49044
_tomber	-9.49125
_unique	-9.49164
_remarque	-9.49232
_demain	-9.49242
_reconnaitre	-9.49312
_orgueil	-9.49345
_details	-9.49397
_poids	-9.49451
_douce	-9.49612
_feuilles	-9.49653
_repos	-9.49709
_theorie	-9.49959
_textes	-9.49991
_ordres	-9.50023
_sc	-9.5007
_solid	-9.50266
_qualite	-9.5028
_fera	-9.50288
_iuin	-9.50333
_union	-9.50383
_contes	-9.50436
_notes	-9.50471
_politiques	-9.50599
_pont	-9.50645
ie	-9.50753
_causes	-9.51016
_uillage	-9.51146
_celebre	-9.51377
_importe	-9.5148
_rousseau	-9.51528
_riuiere	-9.51686
_simplement	-9.51821
_per	-9.51847
_terrible	-9.5185
_allez	-9.51941
_deuint	-9.52028
_crime	-9.52113
_difference	-9.52164
_historique	-9.52388
_court	-9.52503
_seraient	-9.52617
_compose	-9.52753
_dune	-9.52785
_preuue	-9.52791
_sert	-9.52838
_tenait	-9.52918
_respect	-9.53113
_iugement	-9.53125
_aioute	-9.53141
_empecher	-9.5318
_rester	-9.53268
_chaleur	-9.53419
_enfans	-9.53436
_commencement	-9.53457
_cri	-9.5346
_nations	-9.53549
_compris	-9.53579
_presse	-9.53613
_prie	-9.53658
_rapports	-9.53801
_etrange	-9.53906
_leures	-9.53913
_uiennent	-9.53986
_centre	-9.53996
_arriuee	-9.54077
_entierement	-9.54366
_grandeur	-9.54366
_of	-9.54384
_deueloppement	-9.54389
_bonnes	-9.54432
_mme	-9.54502
_pur	-9.54526
_parfaitement	-9.54571
_pourra	-9.54621
_iournee	-9.54713
_papier	-9.54724
_peche	-9.5501
_nationale	-9.55014
_tache	-9.55062
_clair	-9.55115
_constitution	-9.55165
_pain	-9.55176
_ames	-9.553
_militaire	-9.553
_marquis	-9.55309
_octobre	-9.55384
_consequent	-9.55507
_resultat	-9.55664
_ianuier	-9.55671
_suffit	-9.55683
_xiu	-9.55781
_saurait	-9.55804
_uoyons	-9.56059
_aimer	-9.56221
_masse	-9.56258
_etendue	-9.56277
_helas	-9.56352
_autrement	-9.56495
_obtenir	-9.56672
_frappe	-9.56677
_portes	-9.56728
_permis	-9.56819
_dois	-9.56858
_faible	-9.56898
rait	-9.56932
_tort	-9.57164
_ioseph	-9.57272
_septembre	-9.57429
_frais	-9.57478
_courant	-9.57589
_paru	-9.57707
_religieux	-9.57781
_hauteur	-9.57806
_choix	-9.57821
_certainement	-9.57851
_completement	-9.57871
_regarder	-9.5795
_uisite	-9.58027
_hier	-9.58198
_seuls	-9.58234
_q	-9.58359
_auteurs	-9.58419
_recherches	-9.58498
_faisaient	-9.58624
_naissance	-9.5872
_croix	-9.58727
_mauuaise	-9.58743
_orient	-9.5879
_durant	-9.58897
_date	-9.58904
_pape	-9.59099
_dos	-9.59105
_quinze	-9.59114
_sand	-9.59184
_classe	-9.59337
_erreur	-9.59484
_alla	-9.59537
_mode	-9.59608
_firent	-9.59627
_montagne	-9.59646
_fonctions	-9.59657
_propriete	-9.59667
_deuenu	-9.59672
_	-9.59677
_recit	-9.59708
_terres	-9.59724
_lieux	-9.59851
_iusque	-9.59862
_index	-9.599
_latn	-9.59921
_ueille	-9.59949
_pouuaient	-9.59977
_obseruations	-9.60105
_taille	-9.60107
_couronne	-9.60118
_animal	-9.60152
_ut	-9.60205
que	-9.60213
_extreme	-9.60256
_effort	-9.6029
_arbre	-9.60429
_chine	-9.60608
_profonde	-9.60725
_enuers	-9.60794
_habitude	-9.60856
_oiseaux	-9.61046
_heureuse	-9.61179
_etrangers	-9.61231
_mise	-9.61329
_donnait	-9.61336
_represente	-9.61537
_eternel	-9.61636
_meilleur	-9.61737
_regle	-9.61753
_expliquer	-9.61821
_hotel	-9.61824
_accord	-9.62024
_maitresse	-9.62041
_telles	-9.62279
_talent	-9.6232
_naturellement	-9.62471
_sage	-9.62514
_grecs	-9.62544
_arriere	-9.62566
_latin	-9.62631
_utile	-9.62705
_dernieres	-9.62784
_quitter	-9.62792
_semblable	-9.62892
_assure	-9.62907
_quelles	-9.62936
_officiers	-9.6294
_espoir	-9.6297
_quarante	-9.63104
_eueque	-9.63116
_comtesse	-9.63139
_qualites	-9.63145
_uictoire	-9.63298
_effets	-9.63389
_tems	-9.63485
_methode	-9.63571
_administration	-9.63822
_cinquante	-9.6385
at	-9.6399
_population	-9.64027
_passions	-9.64139
_source	-9.64151
_pretre	-9.64262
_physique	-9.64336
ns	-9.64436
_rang	-9.64446
_sante	-9.64494
_uaste	-9.64733
_eclat	-9.64803
_champs	-9.64882
_reserue	-9.64977
_pitie	-9.65194
_chasse	-9.65266
_morts	-9.65302
_uiuant	-9.65369
_base	-9.65538
_quels	-9.65542
_xi	-9.65569
_etablir	-9.65575
_garcon	-9.65578
la	-9.65674
_tot	-9.65761
_heros	-9.65838
_mi	-9.65949
_offre	-9.66163
_faux	-9.66226
_defense	-9.66259
_tendre	-9.66266
_princesse	-9.66354
_cris	-9.6636
ia	-9.66395
_terrain	-9.66443
_arreter	-9.66584
_al	-9.66606
_quitte	-9.66672
_ouuriers	-9.66675
_raisons	-9.66984
_ministere	-9.67028
_ouest	-9.67131
_pre	-9.67139
_die	-9.67171
_hiuer	-9.67199
_padding	-9.67254
_regime	-9.67388
_maieste	-9.67465
_ioue	-9.67615
_aiouta	-9.6763
_pure	-9.67649
_trouuent	-9.68085
_grec	-9.68256
_impression	-9.6826
_parlement	-9.68309
as	-9.68344
_manger	-9.68371
_relations	-9.68502
_ur	-9.68543
_sentiments	-9.68588
_artiste	-9.68625
_songe	-9.68639
_touche	-9.68639
_uenus	-9.68803
_payer	-9.68821
_fete	-9.68959
_caracteres	-9.69012
_collection	-9.69072
_salut	-9.69294
_neanmoins	-9.69296
h	-9.69455
_commission	-9.69492
_nodots	-9.6956
_pouuons	-9.69604
_fou	-9.69674
_rose	-9.69726
_sagesse	-9.69876
_oublie	-9.69977
_uaut	-9.70098
_enuie	-9.70136
_uain	-9.70304
_xu	-9.70413
_camp	-9.70442
_decembre	-9.70444
_defendre	-9.70595
_uniuerselle	-9.70623
_actions	-9.7063
_industrie	-9.70679
ions	-9.70797
_sentir	-9.70959
_unite	-9.71032
_donnent	-9.71064
_messieurs	-9.71158
_tue	-9.71166
_passa	-9.71433
_donnee	-9.71489
_maladie	-9.71542
_iuger	-9.71559
_culte	-9.71646
_mur	-9.71666
_reuenir	-9.71696
f	-9.71708
_pierres	-9.71755
_peinture	-9.7186
_uoiture	-9.71882
_aspect	-9.71904
_haine	-9.71917
_aise	-9.72003
_peres	-9.72202
_philippe	-9.72286
_cap	-9.72289
_cabinet	-9.72318
_napoleon	-9.7236
_princes	-9.72404
_spectacle	-9.72404
_faudrait	-9.72428
_instruction	-9.72517
_connait	-9.72563
_oncle	-9.72666
_marque	-9.72859
_regards	-9.72867
_gre	-9.72924
_feurier	-9.72942
_assis	-9.72974
_recherche	-9.72987
_continue	-9.73018
_conduit	-9.73085
_deuaient	-9.73124
_couleurs	-9.73128
_pa	-9.73165
_grc	-9.73195
_fixe	-9.73205
_apprendre	-9.73232
_coin	-9.73261
_uraie	-9.73268
_cercle	-9.73295
_noire	-9.7337
_catholique	-9.73431
_portee	-9.73485
_auantage	-9.735
et	-9.73546
_desormais	-9.73648
_longues	-9.73689
_diner	-9.73716
_defaut	-9.73723
_chair	-9.73758
_parlait	-9.73991
_estime	-9.73994
_necessaires	-9.7411
_lac	-9.74151
_st	-9.74182
_do	-9.74296
_enseignement	-9.74307
_precisement	-9.74375
_aient	-9.74381
_rues	-9.74402
_bleu	-9.74469
_amerique	-9.74625
_appele	-9.7463
_surface	-9.74666
_auions	-9.74694
_disent	-9.74695
_conserue	-9.74858
_appris	-9.74886
_biens	-9.75061
oient	-9.75141
_attache	-9.75168
_uiuement	-9.75202
_prison	-9.75205
_periode	-9.7522
_z	-9.75248
_eleues	-9.75304
_inutile	-9.75369
_fini	-9.75394
_trouble	-9.75513
_treuoux	-9.75546
_murs	-9.75603
_assurer	-9.75687
_romains	-9.75716
_ber	-9.75866
_parents	-9.75897
_basse	-9.75921
_riches	-9.75929
_uierge	-9.7602
_nouembre	-9.76179
_conuersation	-9.76229
_curieux	-9.76368
_medecin	-9.76421
_emploi	-9.7646
_ose	-9.76599
_guillaume	-9.76603
_tellement	-9.76642
_pareil	-9.76862
_soins	-9.7689
_minutes	-9.76927
_immediatement	-9.77062
_couche	-9.77167
_habitants	-9.77222
_complet	-9.77233
_nulle	-9.77236
_figures	-9.77253
_etres	-9.77366
_rare	-9.77372
_groupe	-9.77549
_fleuue	-9.77585
_hugo	-9.77587
_prouue	-9.77637
_sent	-9.77652
_garder	-9.77738
_pro	-9.77782
_arriua	-9.77792
rai	-9.77806
_oreille	-9.77873
_capable	-9.77875
_charme	-9.77941
_uniuers	-9.77995
_debout	-9.78223
_egypte	-9.78249
_xii	-9.78294
_enuoye	-9.78317
mes	-9.78328
_certes	-9.78405
_litteraire	-9.78416
_it	-9.78425
_baron	-9.78529
_simples	-9.78529
_passant	-9.78534
_iadis	-9.78656
_iuifs	-9.78802
_pascal	-9.78822
_possede	-9.78924
_surprise	-9.78985
_ange	-9.79091
_energie	-9.79143
_peau	-9.79165
_intention	-9.79223
_chacune	-9.79262
_superieur	-9.79263
_seiour	-9.79285
_police	-9.79288
_xui	-9.79307
_actiuite	-9.79316
_organisation	-9.79329
_merci	-9.79406
_sombre	-9.79436
_uide	-9.79529
_poetes	-9.79657
_profond	-9.79724
_agreable	-9.79828
_eussent	-9.79841
_disposition	-9.79912
_salon	-9.80056
_apparence	-9.8006
_der	-9.80108
_iouer	-9.80118
_mission	-9.80333
_alexandre	-9.80357
_roy	-9.8041
_suiui	-9.80418
_plantes	-9.80431
_romain	-9.80456
_deuxieme	-9.80518
_uolontiers	-9.80627
_bel	-9.80716
_dumas	-9.80776
_ia	-9.80844
_gouuerneur	-9.81026
_diuine	-9.81032
_fenetre	-9.81071
_robert	-9.81105
_ieter	-9.81132
_rappelle	-9.81177
_culture	-9.81225
_sinon	-9.816
_michel	-9.81664
_execution	-9.81698
_coupe	-9.81839
_chretiens	-9.81908
_bonte	-9.81909
_supreme	-9.81972
_cure	-9.81983
_souuerain	-9.8204
_xiii	-9.82045
x	-9.8205
_mont	-9.82078
_restait	-9.82085
_paraitre	-9.82209
_proces	-9.82219
_produits	-9.82279
_esperance	-9.82294
_cesar	-9.82404
_compter	-9.82412
_serieux	-9.82437
_trompe	-9.82452
_aimait	-9.82485
_fleur	-9.825
_semblables	-9.82584
_robe	-9.82587
_sortes	-9.8259
_attaque	-9.82633
_membre	-9.82634
_suit	-9.82638
_appeler	-9.82686
_puissant	-9.82687
_triomphe	-9.82696
_tente	-9.828
_elements	-9.82908
_philosophique	-9.82925
au	-9.82925
_pareille	-9.83104
_facilement	-9.83202
_religieuse	-9.83212
_chute	-9.83298
_capitale	-9.83377
_ecrits	-9.83537
_resultats	-9.83913
_entend	-9.83919
_fidele	-9.84034
_suppose	-9.84146
_etoient	-9.84195
_trone	-9.84208
_chant	-9.84235
_professeur	-9.84316
_places	-9.84531
_prouinces	-9.84536
_pouuez	-9.84589
_appartient	-9.8464
_difficultes	-9.84805
_poitrine	-9.84818
_probablement	-9.85022
_repond	-9.85162
_epouse	-9.85234
_generalement	-9.85429
_peux	-9.85457
_emotion	-9.85582
_sociale	-9.85599
_uenue	-9.85651
_explique	-9.85709
_pousse	-9.85795
_mesures	-9.85816
_tre	-9.85867
_rendit	-9.86013
_espere	-9.86015
_philosophe	-9.86193
_officier	-9.86214
_prenant	-9.86217
ta	-9.86282
_fruits	-9.86371
_section	-9.86463
_aiouter	-9.86516
_personnages	-9.86617
_retraite	-9.8663
_sommeil	-9.86675
_uif	-9.86799
_phenomenes	-9.86819
_changer	-9.86865
_chien	-9.86881
_euidemment	-9.86892
_dames	-9.86904
_leon	-9.86977
_former	-9.87035
_portait	-9.87061
_perte	-9.87144
_declare	-9.87308
_extraordinaire	-9.87314
_longueur	-9.87342
_fus	-9.8742
_misere	-9.87455
_po	-9.87546
_remarquer	-9.87643
_quoiqu	-9.87698
_quatrieme	-9.87865
_ac	-9.87899
_chretienne	-9.879
_seruices	-9.87915
_ueulent	-9.87918
_adieu	-9.87924
_ouurir	-9.88003
_conduire	-9.88027
_correspondance	-9.88036
_ailes	-9.88228
_bourgeois	-9.8824
_considere	-9.8826
_iolie	-9.88329
_partis	-9.88333
_peintre	-9.88344
_auparauant	-9.88368
_inde	-9.88443
_fis	-9.88458
_paraissait	-9.88581
_produire	-9.88661
_trace	-9.88669
_genoux	-9.88689
_cache	-9.88816
_oublier	-9.88882
_poste	-9.88894
_parlant	-9.88905
_eleuer	-9.88974
_entra	-9.89026
_gautier	-9.89089
_agir	-9.89185
_lecture	-9.89243
_conseruer	-9.89254
_train	-9.89365
_fussent	-9.89366
_epee	-9.89382
_consequence	-9.89424
_pale	-9.89547
_absence	-9.8957
_auguste	-9.89663
_obseruation	-9.89668
_laissa	-9.89723
_generaux	-9.89733
_nest	-9.8981
_colonel	-9.89925
_profit	-9.89931
_etions	-9.89951
_sensible	-9.90032
_retrouue	-9.90071
_croyez	-9.90084
_lord	-9.90088
_mourut	-9.90165
_oiseau	-9.90187
_passait	-9.90228
_id	-9.90231
_plaisirs	-9.90274
_populaire	-9.90291
_connais	-9.90372
_craindre	-9.90414
_soldat	-9.90426
_george	-9.90504
_changement	-9.90512
_capital	-9.90571
_unis	-9.90632
_portant	-9.9065
_ardeur	-9.90704
_geste	-9.90719
_uoyages	-9.90732
_allemand	-9.90777
_bibliotheque	-9.90784
_classes	-9.9093
_amie	-9.91023
_uoudrais	-9.91108
_cardinal	-9.91143
_soixante	-9.91252
_proposition	-9.91273
_uienne	-9.9134
_nombreuses	-9.91388
_richesse	-9.91426
_fatigue	-9.91439
_debut	-9.91504
_croyait	-9.91527
_uictor	-9.91621
_publie	-9.91645
_trait	-9.91704
_compagnons	-9.91726
_principaux	-9.91745
_dents	-9.91886
_differents	-9.91969
_euiter	-9.92035
_nez	-9.92161
_foret	-9.92252
_propose	-9.92366
_opera	-9.92408
_exactement	-9.92455
_honte	-9.92525
_chemins	-9.92577
_pretres	-9.92617
_superieure	-9.92678
_probleme	-9.92689
_theologie	-9.92757
_mouuements	-9.9288
_uertus	-9.92969
_charges	-9.92979
_iure	-9.93099
_citoyens	-9.93147
_secretaire	-9.93195
_pointe	-9.93199
_sauuages	-9.93205
_conseils	-9.93252
_aimable	-9.93352
_uiolence	-9.93359
_auxquels	-9.9338
_iambes	-9.93407
_bretagne	-9.93408
_pret	-9.93465
_noirs	-9.93628
_ment	-9.93629
_rapide	-9.93633
_ciuilisation	-9.93649
_affection	-9.93714
_prete	-9.93861
me	-9.93866
_humeur	-9.93897
_gagner	-9.94093
_dut	-9.94138
ts	-9.94188
_sauant	-9.94471
_tiens	-9.94505
_souffle	-9.94524
_soudain	-9.9453
_distingue	-9.9467
_fig	-9.94706
_offrir	-9.94766
_ul	-9.94838
_rapporte	-9.94851
_pose	-9.94895
_ministres	-9.94898
les	-9.94959
_iules	-9.94969
os	-9.95068
_destinee	-9.95088
_decide	-9.95167
_os	-9.95183
_ecoles	-9.95337
_no	-9.95446
_portrait	-9.95493
_difficulte	-9.95576
_recueil	-9.9564
_longs	-9.95649
_bible	-9.95655
_serui	-9.95699
_uice	-9.95753
_uoile	-9.95763
_atteint	-9.95852
_amant	-9.9589
_branches	-9.95916
_douceur	-9.96052
_is	-9.96071
_modele	-9.96119
_continua	-9.96173
_besoins	-9.96211
_poesies	-9.96224
_iournaux	-9.96301
_fonds	-9.96316
_comprend	-9.96357
se	-9.96359
_fasse	-9.96426
_cousin	-9.9649
_principal	-9.96543
_egale	-9.96572
_exces	-9.96665
_metres	-9.96684
_duree	-9.96688
_royal	-9.96842
_raconte	-9.9687
_modernes	-9.96901
_epaules	-9.96937
_anglaise	-9.96968
_annonce	-9.97067
_antoine	-9.9719
_tenu	-9.97204
_uieillard	-9.97285
_royale	-9.97327
_nuits	-9.97378
_mepris	-9.97383
_economie	-9.97425
_introduction	-9.97457
_russe	-9.97472
_echapper	-9.97484
_opposition	-9.97485
_dedans	-9.97498
_appelait	-9.9754
_monter	-9.97541
_honnete	-9.97657
_sire	-9.97725
_conuient	-9.97809
_consiste	-9.97812
_abandonne	-9.97868
_fruit	-9.97922
_parfaite	-9.9797
_horreur	-9.97981
_recut	-9.98007
_tranquille	-9.98035
_egal	-9.98038
_souffrir	-9.98041
_poeme	-9.98103
_soutenir	-9.98156
_uallee	-9.98221
_rayons	-9.98335
_ressources	-9.98343
em	-9.98391
_leue	-9.98409
_sauuage	-9.98415
_sauuer	-9.98472
_ouuerte	-9.98478
_reflexions	-9.98492
iez	-9.985
_resistance	-9.98542
_laissant	-9.98547
_domaine	-9.9857
_garnier	-9.98643
_semblent	-9.98683
_inconnu	-9.98699
_ti	-9.98705
_indique	-9.98765
_marechal	-9.98791
_auoient	-9.9888
_leua	-9.98906
_armees	-9.98907
_commenca	-9.98982
_dignite	-9.98986
_uert	-9.98998
_pluie	-9.99022
_enfance	-9.99039
_ab	-9.99209
_comedie	-9.99307
_sentait	-9.99418
_gagne	-9.9943
_possession	-9.99521
_absolue	-9.99552
_eurent	-9.99559
_andre	-9.99681
_bords	-9.99831
_description	-9.99905
_attendant	-9.99937
_occuper	-9.99941
_marcher	-9.99963
_ecoute	-9.99965
_dispositions	-9.99995
_apporte	-10.0002
_grece	-10.0009
_noblesse	-10.0012
_resta	-10.0013
_opinions	-10.0014
_ay	-10.0019
_bete	-10.0019
_admirable	-10.0029
_curiosite	-10.003
_matieres	-10.003
_chap	-10.0031
_sacrifice	-10.0035
_suiuante	-10.0038
_reellement	-10.005
_reuint	-10.005
_composition	-10.0054
_quelconque	-10.0054
_braue	-10.0055
_ecriture	-10.0061
_rares	-10.0064
ux	-10.0065
_priere	-10.0073
_queue	-10.008
_doigts	-10.0081
_ordinairement	-10.0082
_rapidement	-10.0084
_plait	-10.0085
_romans	-10.0086
_precieux	-10.0089
_ri	-10.0089
_euenements	-10.0091
_esclaues	-10.0107
_nicolas	-10.0108
_chinois	-10.0109
_and	-10.0113
_etablissement	-10.0121
_presenter	-10.0129
_appel	-10.0134
_hist	-10.0136
_procede	-10.0137
_doucement	-10.0137
_meilleure	-10.0138
_reuenu	-10.0144
_ecriuains	-10.0145
_uan	-10.0146
_regardait	-10.0147
_quon	-10.0147
_indiuidu	-10.0148
_familles	-10.0148
_personnage	-10.0151
na	-10.0154
_examen	-10.0159
_donnant	-10.0173
_credit	-10.0175
_etabli	-10.018
_leuer	-10.0183
_ideal	-10.0184
_diuision	-10.0188
_utilisateur	-10.0191
_diuin	-10.0192
_decouurir	-10.0194
_atteindre	-10.0195
_expose	-10.0195
_antique	-10.0201
_tableaux	-10.0206
_decouuerte	-10.0214
_maurice	-10.0216
_ruine	-10.0219
_zele	-10.0221
_ualides	-10.0225
_pl	-10.0243
_cree	-10.0245
_images	-10.025
_lentement	-10.0251
_exprimer	-10.0252
_tourne	-10.026
_folie	-10.0262
_na	-10.0267
_admiration	-10.0268
_illustre	-10.0269
_etonne	-10.029
_obseruer	-10.0293
_reconnaissance	-10.0296
_instrument	-10.031
_iustement	-10.0312
_faculte	-10.0314
_trauailler	-10.0316
_articles	-10.0319
_christianisme	-10.032
_dure	-10.0324
_uerre	-10.0327
_desire	-10.0331
_forment	-10.0341
_lieutenant	-10.036
_desert	-10.0365
_eprouue	-10.037
_analyse	-10.037
_boire	-10.0371
_from	-10.038
_plume	-10.0381
_tendresse	-10.0383
_tradition	-10.0385
_creation	-10.0401
ont	-10.0403
_frederic	-10.0406
_production	-10.0407
_ferait	-10.0407
_ieanne	-10.0416
_deuons	-10.0423
_condamne	-10.0425
_faiblesse	-10.0426
_morceau	-10.0431
_israel	-10.0434
_ierusalem	-10.0435
_signifie	-10.0437
_finit	-10.0437
_explication	-10.0444
_lyon	-10.0445
_sauf	-10.0446
_lieues	-10.045
_metier	-10.0452
_degres	-10.0468
_thomas	-10.0469
_partage	-10.0474
_necessairement	-10.0474
_martin	-10.0475
_reproche	-10.0481
_canada	-10.0482
_social	-10.0491
_betes	-10.0491
_enuirons	-10.0495
_directeur	-10.0495
_racine	-10.0498
_reuient	-10.0501
_important	-10.0503
_reprendre	-10.0504
_coeurs	-10.0511
_iette	-10.0512
_extremite	-10.0513
_reputation	-10.0518
_approche	-10.0524
_nauire	-10.0526
_maux	-10.0533
_permet	-10.0533
_arc	-10.0536
_prepare	-10.0542
_be	-10.0544
_regles	-10.0548
_moral	-10.0549
_hautes	-10.0553
_surpris	-10.056
_phrase	-10.0567
_courir	-10.0569
_detail	-10.0576
_oreilles	-10.0578
_brise	-10.058
_dauid	-10.0581
_xuiii	-10.0594
_attendait	-10.0597
_comptes	-10.0603
_auenture	-10.0609
_duquel	-10.061
_malheureusement	-10.061
_dessein	-10.0611
_anciennes	-10.0615
_gris	-10.0633
_prenait	-10.0633
_remarquable	-10.0634
_substance	-10.0637
_blancs	-10.0644
ti	-10.0644
_tuer	-10.0656
_mine	-10.0657
_portent	-10.066
_auoue	-10.0661
_artistes	-10.0665
_iaune	-10.067
_catherine	-10.0671
_auront	-10.0675
_desespoir	-10.0677
_autriche	-10.0681
_contient	-10.0685
_type	-10.0689
_tresor	-10.0692
_employe	-10.0693
_discuter	-10.0695
_maiorite	-10.0704
_independance	-10.071
_territoire	-10.0711
_ecriuain	-10.0717
_morte	-10.0721
_essai	-10.0722
_auantages	-10.0731
_comite	-10.0739
_epoux	-10.0745
_nobles	-10.0749
_exemples	-10.0751
_ny	-10.0752
_euenement	-10.076
_uenez	-10.0762
_rappeler	-10.0764
_neige	-10.0769
_faim	-10.0769
_absolu	-10.0774
_proprement	-10.0781
_sable	-10.0784
_quart	-10.0791
_accepter	-10.0794
_couuert	-10.0799
_exprime	-10.0804
_sommet	-10.0805
_allemands	-10.0807
_heureusement	-10.0809
_enthousiasme	-10.0818
_proiets	-10.0822
_consequences	-10.0834
_profondement	-10.0835
_regardant	-10.0836
_uoisins	-10.0837
_malheurs	-10.0843
_ble	-10.0843
_drame	-10.0853
_limites	-10.0862
_ieta	-10.0866
_construction	-10.0884
_uniuersel	-10.0886
b	-10.0892
_mystere	-10.0893
_lecteur	-10.0894
_soyez	-10.0895
_duchesse	-10.0907
_leger	-10.0908
_corneille	-10.092
_desirs	-10.0925
k	-10.0926
_carriere	-10.0927
_pretexte	-10.0933
_grosse	-10.0934
_manieres	-10.0935
_glace	-10.0937
_naitre	-10.0937
_iesuites	-10.0938
_fil	-10.0938
_representation	-10.0942
_reduit	-10.0946
_protection	-10.0951
_plante	-10.0955
_testament	-10.0963
_attitude	-10.0982
_marguerite	-10.0992
_directement	-10.0994
urs	-10.1001
il	-10.1005
_signes	-10.1006
_parfait	-10.1015
ssent	-10.1016
_resolution	-10.1021
_plaine	-10.1021
_refuse	-10.1022
_alliance	-10.1035
_bureau	-10.1042
_maior	-10.105
_simon	-10.1052
_uues	-10.1063
_esclaue	-10.1065
_sortit	-10.1068
_amoureux	-10.1079
_gr	-10.1081
_chapeau	-10.1082
_sacre	-10.1083
_different	-10.109
_uenaient	-10.1092
_marc	-10.1095
_circonstance	-10.1098
_deuenue	-10.1104
_richesses	-10.1106
_formation	-10.1116
_uc	-10.1116
al	-10.1117
_ere	-10.1124
_arme	-10.1127
_appui	-10.1137
_monnaie	-10.1144
_application	-10.1147
_fonction	-10.1148
_iles	-10.115
_uerne	-10.1155
_arreta	-10.1156
_fieure	-10.1162
_henry	-10.1172
ue	-10.1183
_retrouuer	-10.1188
_guide	-10.1189
_coucher	-10.1197
_ouuert	-10.1201
_romaine	-10.1201
_ruines	-10.1207
tte	-10.1211
_indiuidus	-10.1214
_seroit	-10.1215
_ignore	-10.1217
_sir	-10.1217
_nourriture	-10.122
_institutions	-10.1221
_tolstoi	-10.1223
_societes	-10.1232
_aisement	-10.1235
_mele	-10.1235
_cerueau	-10.1235
_remplir	-10.124
ge	-10.1245
ce	-10.125
_habitans	-10.1253
_empeche	-10.126
_repas	-10.1273
_lecons	-10.1275
_nu	-10.1282
_seuere	-10.129
_descendre	-10.1291
_magnifique	-10.1294
_langues	-10.1296
_reconnu	-10.1298
_tristesse	-10.1299
_emporte	-10.1301
_reuolutionnaire	-10.1302
_chagrin	-10.1302
_enuoyer	-10.1303
_troupe	-10.1308
_coupable	-10.1309
_maman	-10.131
_iai	-10.1311
_horizon	-10.1311
_solution	-10.134
_commandant	-10.1347
_connaissait	-10.1352
_serai	-10.1356
_employer	-10.1374
_logique	-10.1376
_franc	-10.1377
_infini	-10.1382
_etoiles	-10.1384
_conception	-10.139
_ouure	-10.1391
_libres	-10.1391
_pi	-10.1412
_albert	-10.1414
_serais	-10.1415
_amene	-10.1423
ite	-10.1424
_auxquelles	-10.1427
_ambition	-10.1428
_motif	-10.143
_deuoirs	-10.1435
_uague	-10.1436
_harmonie	-10.1442
_national	-10.1445
_enorme	-10.1446
_resulte	-10.1452
_chretien	-10.1453
_hate	-10.146
_philosophes	-10.1465
_cum	-10.1466
_da	-10.1475
_legere	-10.1481
_georges	-10.149
_concours	-10.1493
_reforme	-10.1496
_sois	-10.1501
_commis	-10.1507
_toucher	-10.1509
_cacher	-10.1511
_ignorance	-10.152
_equilibre	-10.1524
_uapeur	-10.1526
_und	-10.1526
_connue	-10.153
_iete	-10.1536
_laissait	-10.1539
_accorde	-10.154
_placer	-10.1543
_chapelle	-10.1547
_assurement	-10.1547
_eloigne	-10.1551
_tante	-10.1562
_tenant	-10.1572
_riue	-10.1574
_satisfaction	-10.1575
_faudra	-10.1578
_echappe	-10.1579
_operation	-10.1585
_preuues	-10.1593
_region	-10.1593
_printemps	-10.1601
_seruent	-10.1608
_menace	-10.1613
_oppose	-10.1616
_obserue	-10.162
_prononce	-10.1621
_iuges	-10.1622
_solide	-10.1623
_prouuer	-10.1635
_bal	-10.1637
_ridicule	-10.164
_conquete	-10.1649
_sentimens	-10.165
_termine	-10.1655
_intime	-10.166
_edit	-10.1662
_allaient	-10.1677
_canon	-10.1677
_miss	-10.1692
_entreprise	-10.1696
_aueugle	-10.1707
_demandait	-10.1714
tes	-10.1716
_quartier	-10.1716
_ha	-10.1719
_brusquement	-10.1722
_platon	-10.174
_considerer	-10.1751
_fontaine	-10.1755
_habile	-10.1756
g	-10.1766
_uarietes	-10.1767
_pardon	-10.1776
_college	-10.1777
_recoit	-10.1781
_trauaille	-10.1791
_encyclopedie	-10.1802
_regarda	-10.1807
_combattre	-10.181
_conclusion	-10.1813
_excellent	-10.1813
_crut	-10.1819
_eus	-10.1822
p	-10.1828
_temoignage	-10.1831
_soumis	-10.1832
_charmante	-10.1847
_nouuel	-10.1847
_successiuement	-10.1853
_terreur	-10.1872
_habitudes	-10.1885
_personnel	-10.1896
_choisir	-10.1897
_graues	-10.1897
_proie	-10.1899
_exercice	-10.1899
_blesse	-10.1901
_tetes	-10.1904
_ar	-10.1904
_remettre	-10.1917
_habit	-10.1922
_fideles	-10.1922
_balzac	-10.1924
_equation	-10.1925
_coutume	-10.1928
_singulier	-10.1937
_fa	-10.1939
_toit	-10.194
_fauorable	-10.1947
_entends	-10.1952
_inspire	-10.1971
_charite	-10.1976
_scientifique	-10.1983
_melange	-10.1983
_tours	-10.1985
_gardes	-10.1989
_pourraient	-10.1998
_reunion	-10.2006
ine	-10.2008
_liste	-10.2009
_marbre	-10.2009
_legende	-10.2012
_rendus	-10.2013
_uoyageurs	-10.2015
_saints	-10.2016
_claire	-10.2017
_communes	-10.2018
_afrique	-10.2023
_com	-10.2029
_applique	-10.203
_aristote	-10.2033
_nullement	-10.2043
_uniquement	-10.2046
_accompagne	-10.2049
_saisir	-10.205
_fureur	-10.206
_semaine	-10.2062
_essais	-10.2064
_militaires	-10.2072
_formule	-10.2075
_prusse	-10.2078
_statue	-10.2079
_puissances	-10.2081
_laissez	-10.2082
_uigueur	-10.2096
_pouuais	-10.2096
_graces	-10.2098
_autel	-10.2099
_donnees	-10.2106
_bold	-10.2106
_determine	-10.2118
_precedent	-10.2119
_operations	-10.212
_element	-10.2122
ier	-10.2125
_retirer	-10.2129
_groupes	-10.2135
an	-10.2138
_anges	-10.2141
_aurez	-10.2147
_semaines	-10.215
_rouges	-10.2157
_depit	-10.2161
_separe	-10.2163
_mysteres	-10.2171
_meilleurs	-10.2174
_retourner	-10.2174
_perfection	-10.2179
_pouuant	-10.2185
_co	-10.2188
_senat	-10.2189
_historiques	-10.219
_miserable	-10.2197
_echange	-10.2204
_ferai	-10.2205
_ouurit	-10.2214
_conuention	-10.2216
_suisse	-10.2216
_uecu	-10.2218
_instinct	-10.2234
_auentures	-10.2236
am	-10.2236
_manifeste	-10.225
_escalier	-10.2254
_decouuert	-10.2256
_ue	-10.2262
_religieuses	-10.2262
_inquietude	-10.2268
_soie	-10.2274
_promis	-10.2275
_gorge	-10.2277
_etudier	-10.2294
_repete	-10.2298
_chiens	-10.2301
_reflexion	-10.2325
_pouruu	-10.2326
_fi	-10.2328
_traites	-10.2329
_xuii	-10.233
_reelle	-10.2335
_erreurs	-10.2341
_prennent	-10.2343
raient	-10.235
_luxe	-10.2366
sse	-10.2366
_domestique	-10.237
_diderot	-10.2379
_fausse	-10.2381
_exterieur	-10.2393
_im	-10.2407
_machine	-10.2411
_bernard	-10.2413
_berlin	-10.2414
_header	-10.2418
_liu	-10.242
_dangereux	-10.2425
_barbe	-10.2426
_flamme	-10.2432
_dispose	-10.2435
_fier	-10.2441
ou	-10.2444
_prudence	-10.2448
_ecriuait	-10.2459
_etrangeres	-10.247
_esperer	-10.2473
_trauerse	-10.2475
_chants	-10.2477
_ressemble	-10.2479
ut	-10.2486
_distinction	-10.2493
ni	-10.2496
_herbe	-10.2497
_uieilles	-10.2506
_exige	-10.2506
_eglises	-10.2507
_retire	-10.251
_phenomene	-10.2516
_course	-10.2518
_lon	-10.2523
_embarras	-10.2528
_disparu	-10.253
ot	-10.2535
_sauue	-10.2536
_marine	-10.2536
_augustin	-10.2536
_preu	-10.2539
_endroits	-10.2543
_conte	-10.2543
_attend	-10.2546
_proportion	-10.2548
_uentre	-10.2549
_banque	-10.2551
_uoisin	-10.2555
_chanson	-10.2556
_probable	-10.2563
_commandement	-10.257
_preparer	-10.2572
_rentrer	-10.2574
_perd	-10.2577
_nauires	-10.2578
_admettre	-10.259
_constitue	-10.2594
_sou	-10.26
_liurer	-10.26
_restes	-10.2602
_trou	-10.2608
_uenons	-10.261
_designe	-10.2611
st	-10.2613
_medecine	-10.262
_maintenir	-10.2625
_forets	-10.2636
_surete	-10.2641
_douter	-10.2641
_dirai	-10.2646
_tombeau	-10.2649
_rencontrer	-10.2656
_estre	-10.2659
_agriculture	-10.2664
_clerge	-10.2669
_cieux	-10.2669
_continuer	-10.2681
to	-10.2685
_ouurier	-10.269
_engage	-10.2692
_particuliers	-10.2692
_richard	-10.2695
_riant	-10.2696
_ordonne	-10.2697
_saison	-10.2697
_bar	-10.2698
_depenses	-10.2699
_moyenne	-10.2713
_uengeance	-10.2715
io	-10.2717
_detruire	-10.2719
_renferme	-10.273
_reussi	-10.2731
_fournir	-10.2739
_representant	-10.2743
_distinguer	-10.2752
_rarement	-10.2756
li	-10.2761
_ouuerture	-10.2778
_morceaux	-10.2782
_marquise	-10.2783
_importante	-10.2795
_paysans	-10.2798
_roses	-10.2807
_abandonner	-10.2807
_creer	-10.2812
_sauent	-10.2813
_interieure	-10.2815
_fallut	-10.2835
_uolumes	-10.2837
_experiences	-10.2845
_eternelle	-10.2848
_titres	-10.2851
_deurait	-10.2856
_temoin	-10.2865
_motifs	-10.2871
_pretend	-10.2877
_tourner	-10.2877
_content	-10.2881
_trouuaient	-10.2883
_prends	-10.2902
_representer	-10.2905
ius	-10.2906
_antiquite	-10.291
_traiter	-10.2921
_commencer	-10.2923
_penetrer	-10.2923
_paraissent	-10.2925
_lie	-10.2928
_pouces	-10.2932
_fortement	-10.2933
_lance	-10.2938
_actuelle	-10.2941
_comparaison	-10.2958
_branche	-10.2962
_fameux	-10.2964
_prieres	-10.2965
_proprietaire	-10.2969
_sauons	-10.2973
_solitude	-10.2974
_temperature	-10.2974
_citoyen	-10.298
_courte	-10.2988
_utilite	-10.2989
_scenes	-10.2991
_chante	-10.2995
_reuoir	-10.3001
_tiennent	-10.3002
_profession	-10.3014
_ueuue	-10.3014
_poemes	-10.3017
_uictime	-10.3018
_flots	-10.3025
_couches	-10.3028
_mettait	-10.3037
_ocean	-10.3039
_regret	-10.3047
_uenise	-10.3053
_etend	-10.3056
_estoit	-10.3058
_asie	-10.307
_globe	-10.3072
ri	-10.3076
_uoulant	-10.3077
_ir	-10.3083
_patience	-10.3085
_illusion	-10.3085
_aurai	-10.3086
_cria	-10.3089
_physionomie	-10.3096
_uoyageur	-10.3096
_exception	-10.3097
_rempli	-10.31
_prenez	-10.3102
rez	-10.3104
_montra	-10.3116
_association	-10.3124
_communication	-10.3128
_tomba	-10.3133
_chaine	-10.3136
_tiers	-10.3136
_dirait	-10.3137
_accuse	-10.3143
_uaisseaux	-10.3143
_generation	-10.3145
ter	-10.3145
_etrangere	-10.3152
_abri	-10.3154
_enueloppe	-10.3155
_charmant	-10.3157
_fallu	-10.3157
_apporter	-10.3164
_ben	-10.317
_doigt	-10.3173
_pr	-10.3181
_sienne	-10.3181
_poussiere	-10.3188
_alle	-10.3207
_char	-10.3209
_pensait	-10.3214
_reuolte	-10.3218
_cuiure	-10.3219
_entoure	-10.3222
_dimanche	-10.3223
_menage	-10.323
_blanches	-10.3235
_publics	-10.3236
_racines	-10.3237
_eleuee	-10.3237
_traces	-10.324
_apprend	-10.3243
_critiques	-10.3244
_hypothese	-10.3248
_costume	-10.3248
_crimes	-10.325
_populaires	-10.325
_us	-10.3257
_belgique	-10.3257
_emile	-10.3268
_foyer	-10.3269
_italien	-10.3271
_abus	-10.3272
_accepte	-10.3274
_uagues	-10.3274
_manquer	-10.328
_compagnon	-10.3285
_fetes	-10.3285
_uniuersite	-10.3286
_exerce	-10.3287
_utiles	-10.329
age	-10.3291
_leuy	-10.3294
_mines	-10.3311
_hebreu	-10.3315
_connaissances	-10.3315
isme	-10.3316
_expedition	-10.3318
_annales	-10.3341
_actuel	-10.3345
_examiner	-10.3346
_uanite	-10.3347
_ra	-10.3354
_reues	-10.3357
_couuent	-10.3357
_seigneurs	-10.3358
_alfred	-10.3361
_frapper	-10.3369
_uer	-10.3383
_egalite	-10.3387
_limite	-10.3389
_facilite	-10.3391
_fu	-10.3392
_essence	-10.3398
_eugene	-10.3399
_apercut	-10.3399
_enuoya	-10.34
_fol	-10.3407
el	-10.3418
_trouuera	-10.3419
_cinquieme	-10.3424
_determiner	-10.3425
_sel	-10.3426
_procurer	-10.3427
_commande	-10.343
_fenetres	-10.3432
_songer	-10.3433
_catholiques	-10.3435
_singuliere	-10.3441
_penible	-10.3445
_notamment	-10.3449
_impose	-10.3457
_obtenu	-10.3459
_feuille	-10.3462
_uoeux	-10.3462
_ieux	-10.3468
_acheter	-10.3469
_proprietes	-10.3485
_reel	-10.3486
_penetre	-10.3489
_imagine	-10.3495
_lion	-10.3502
_fortes	-10.3504
_guerres	-10.3507
_deputes	-10.351
_marchand	-10.3512
_adam	-10.3517
_recits	-10.3519
_litteraires	-10.3519
_dira	-10.3519
_orleans	-10.3521
_enfer	-10.3524
_prophete	-10.3532
_humaines	-10.3534
_etonnement	-10.3538
_tenebres	-10.3538
_publiques	-10.3547
_rayon	-10.3549
_attribue	-10.355
aux	-10.3552
_poudre	-10.3558
_regions	-10.3558
_puissante	-10.3566
_battre	-10.3568
_mange	-10.3573
ois	-10.3579
_genereux	-10.3585
_principales	-10.3588
_prises	-10.3597
_simplicite	-10.3603
_entraine	-10.3605
_pleins	-10.3615
_domestiques	-10.3625
_constamment	-10.3632
_precede	-10.3635
_tribunal	-10.3641
_sortie	-10.3642
_larges	-10.3646
_iohn	-10.3648
_serez	-10.3656
_size	-10.3656
_bottom	-10.3662
_colonies	-10.3665
_purement	-10.3666
_rendait	-10.3671
_moy	-10.3671
_sources	-10.3678
_abondance	-10.3679
_malheureuse	-10.3681
_entretien	-10.3689
_iouir	-10.3691
_masses	-10.3697
_legitime	-10.3703
_affreux	-10.3714
_entendait	-10.3716
_permettre	-10.3724
_uitesse	-10.3725
_cor	-10.3733
_clarte	-10.3737
_uaisseau	-10.374
_euident	-10.374
_bande	-10.3743
_recompense	-10.3749
_depend	-10.3751
_leuant	-10.3764
_aperceuoir	-10.3765
_lo	-10.3767
_sm	-10.3767
_canal	-10.3769
_anatole	-10.377
_enseigne	-10.3772
_soeurs	-10.3772
_ioli	-10.3782
_acquis	-10.3788
_entendit	-10.3792
_rochers	-10.38
_traduit	-10.3801
_desordre	-10.3804
res	-10.382
_chambres	-10.3823
_adi	-10.3825
_mene	-10.383
_exercer	-10.3832
_monarchie	-10.3839
_toile	-10.3846
_constantinople	-10.3853
_auouer	-10.3853
_reg	-10.3862
_fuite	-10.3868
_secrets	-10.3869
rons	-10.3871
_paye	-10.3878
_ecouter	-10.3881
ui	-10.3882
_fautes	-10.3884
_supposer	-10.3891
ee	-10.3891
_sublime	-10.3899
_murmura	-10.3903
_monseigneur	-10.3907
_reunis	-10.3909
_concerne	-10.3911
_lamartine	-10.3915
_passent	-10.3917
_chanter	-10.3917
_destine	-10.3918
_coute	-10.3924
_repliqua	-10.3924
_principale	-10.3928
_perdue	-10.3931
_relation	-10.3943
_esperances	-10.3945
_fonde	-10.3945
_auocat	-10.3949
_loge	-10.395
_rtl	-10.3952
_sages	-10.396
_allemande	-10.3966
_citer	-10.3968
_securite	-10.3973
_geneue	-10.3973
_boniour	-10.3973
_comprends	-10.3974
_amours	-10.3974
_ali	-10.3974
_dessin	-10.3986
_dur	-10.3986
_uostre	-10.3987
_ibid	-10.3988
_releue	-10.399
_marchands	-10.3991
_retenir	-10.3999
_sec	-10.4002
_acheue	-10.4008
_facultes	-10.4009
_maupassant	-10.4013
_connus	-10.4013
_black	-10.4013
_carte	-10.4016
_satisfaire	-10.4017
_rage	-10.4019
_prochain	-10.4019
_declaration	-10.4029
_tromper	-10.403
_next	-10.4036
_tr	-10.4037
_crise	-10.4043
_principalement	-10.4043
_choisi	-10.4044
uille	-10.4045
_rendez	-10.4047
_debris	-10.4052
_pan	-10.4059
_multitude	-10.406
tre	-10.4062
_organes	-10.4062
_legerement	-10.4062
_poisson	-10.4064
_uoies	-10.4067
_soiree	-10.4067
_claude	-10.4067
_sincere	-10.4074
_differens	-10.4076
_europeens	-10.4079
_lecon	-10.4083
_prononcer	-10.4091
_tribu	-10.4094
_enuoie	-10.4098
_enleue	-10.4101
_eloquence	-10.4107
_chaud	-10.4109
_apparait	-10.411
_barbares	-10.4119
_extremement	-10.4124
_manteau	-10.4125
_forts	-10.4126
_nuages	-10.4132
_comble	-10.4149
_louise	-10.4151
_angle	-10.4153
_repris	-10.4156
lle	-10.4158
_bec	-10.4161
_anne	-10.4164
_impressions	-10.4172
_seine	-10.4176
_aduersaires	-10.4179
_odeur	-10.4187
_obscurite	-10.4192
_semblaient	-10.4193
_metaphysique	-10.42
_ciuile	-10.4204
_doctrines	-10.4208
_xix	-10.4208
_communaute	-10.4209
_historiens	-10.4212
_rendent	-10.422
_contributions	-10.4225
_appartement	-10.4232
_huile	-10.4232
_eclaire	-10.4232
_economique	-10.4233
_relatiuement	-10.4237
_contente	-10.4242
_peines	-10.4245
_chronique	-10.4254
_conclure	-10.4261
_accorder	-10.4271
_sut	-10.4273
_dangers	-10.4277
_uerra	-10.4279
_dite	-10.4286
_destinees	-10.4292
_composee	-10.4293
_epreuue	-10.4293
_prose	-10.4302
_horrible	-10.4316
_russes	-10.4317
_xx	-10.4319
_naturelles	-10.4322
_saisit	-10.4327
_gen	-10.4328
_tosection	-10.433
_fixer	-10.4332
_uiuent	-10.4333
_corde	-10.4334
_considerables	-10.4334
_amener	-10.4336
_brillant	-10.4338
_uerbe	-10.4351
_celeste	-10.4352
_marchandises	-10.4354
_prisonnier	-10.4355
_seance	-10.436
_uoisine	-10.4372
_colonnes	-10.4372
_peril	-10.4375
_uendre	-10.4377
_contact	-10.4379
_disciples	-10.4379
_indes	-10.4382
_uenant	-10.4386
_auroit	-10.4391
_plaindre	-10.4395
_abime	-10.4402
_arriuait	-10.4403
_procedes	-10.4406
_relatiue	-10.4409
_resister	-10.4412
_refuser	-10.4413
use	-10.4417
_fromsection	-10.4417
_prisonniers	-10.4423
_iulien	-10.4427
_depense	-10.4428
_messe	-10.4432
_acide	-10.4434
_commencait	-10.4439
_souriant	-10.444
_habits	-10.444
_brule	-10.4448
_aider	-10.4449
_emploie	-10.445
_asseoir	-10.4455
_poetique	-10.4456
_uas	-10.4457
_uersailles	-10.4469
_essaye	-10.4471
_fumee	-10.4472
_pousser	-10.4474
_seules	-10.4475
_infiniment	-10.4478
_chiffre	-10.4488
_encor	-10.449
_ialoux	-10.4497
_epaule	-10.45
_folle	-10.4502
_arret	-10.4504
_paradis	-10.4506
_deuenait	-10.4506
_resoudre	-10.4506
_tend	-10.4509
_qua	-10.4511
_marches	-10.4513
_plaire	-10.452
_employes	-10.4523
_actuellement	-10.4524
_executer	-10.4527
_contemporains	-10.4527
_malades	-10.4531
_appliquer	-10.4532
_consideration	-10.4534
_pe	-10.4535
_peintres	-10.4545
_renoncer	-10.4548
_enleuer	-10.4552
_lait	-10.4552
_froide	-10.4561
_soif	-10.4561
_puissent	-10.4561
_acces	-10.4566
_uoudrait	-10.4568
_sensibilite	-10.4572
_atmosphere	-10.4577
_lien	-10.4578
_agissait	-10.4581
_plat	-10.4584
_temoins	-10.4585
_lumieres	-10.4587
_ant	-10.4588
_supporter	-10.459
_resolu	-10.4605
_generales	-10.4605
_certitude	-10.4606
ii	-10.4606
_entr	-10.461
_clairement	-10.4615
_traditions	-10.462
_promenade	-10.4634
_deuiennent	-10.4635
_finir	-10.4637
_sauants	-10.4641
_excepte	-10.4644
_rocher	-10.4648
_tenez	-10.4658
_prier	-10.4659
_races	-10.466
_pie	-10.4661
_deieuner	-10.4664
_poissons	-10.4669
_merueilleux	-10.4676
_planches	-10.4682
_poche	-10.4687
_reconnait	-10.4688
_sac	-10.469
_baiser	-10.4691
_milles	-10.4692
_euolution	-10.4698
_passages	-10.4718
_euangile	-10.472
_francaises	-10.4722
_xixe	-10.4728
_grant	-10.4731
rie	-10.4734
_manuscrit	-10.4741
_roland	-10.4743
_augmente	-10.4747
isation	-10.4755
_mesme	-10.4755
_uulgaire	-10.476
_sentit	-10.476
ma	-10.4774
_congres	-10.4779
_original	-10.4782
_architecture	-10.4786
_biographie	-10.4788
ique	-10.4795
_concile	-10.4798
_ordinaires	-10.4799
_prefere	-10.4803
_fuir	-10.4808
_iapon	-10.481
_preuenir	-10.481
_remede	-10.4812
_musee	-10.482
_superbe	-10.4833
_etablit	-10.4833
_decret	-10.4836
_resume	-10.4849
_madeleine	-10.4849
_creature	-10.4851
_particulieres	-10.4853
_exposer	-10.4858
_euenemens	-10.4859
_sensation	-10.4864
_minute	-10.4866
_europeenne	-10.4867
_grecque	-10.4878
_obstacle	-10.488
_pourrais	-10.4881
_indiquer	-10.4883
_mathematiques	-10.4884
ans	-10.4886
_uoulais	-10.4893
_exacte	-10.4896
ing	-10.49
_che	-10.4905
_ualeurs	-10.4906
_cheualiers	-10.4908
_finances	-10.4912
_uainqueur	-10.4919
_serment	-10.4921
_risque	-10.4921
_institution	-10.4924
_colonie	-10.4928
_causer	-10.4931
_laissent	-10.4931
_ueritables	-10.4932
_defauts	-10.4935
_chaise	-10.4944
_parla	-10.4946
_consacre	-10.4947
_hab	-10.4951
_excellence	-10.4951
_aine	-10.4958
_preface	-10.4959
_humble	-10.4961
_raconter	-10.4963
_moise	-10.4963
_profondeur	-10.4976
ch	-10.4978
_nostre	-10.499
_san	-10.4994
_domine	-10.4995
_onze	-10.4997
_edifice	-10.4997
_moine	-10.4999
_campagnes	-10.501
_donnez	-10.5019
_ge	-10.5021
_aimee	-10.5023
_moments	-10.5024
_elisabeth	-10.5025
_ioyeux	-10.5025
_nettement	-10.5032
_restent	-10.5042
_hi	-10.5045
_appareil	-10.5046
_sien	-10.5049
_fine	-10.5051
_ioues	-10.506
_fusil	-10.506
_etoile	-10.5061
_indiens	-10.5064
_brun	-10.5069
roit	-10.5069
_souffrance	-10.5072
_sympathie	-10.5072
_diuinite	-10.5078
_disparaitre	-10.508
_liens	-10.5081
_urais	-10.5086
ard	-10.5088
_uon	-10.5089
_bu	-10.5097
_aurore	-10.5097
_choeur	-10.5102
_nrf	-10.5104
_gene	-10.5104
_guizot	-10.5104
_crains	-10.5106
_neueu	-10.5111
_chansons	-10.5115
_sauais	-10.5118
_histoires	-10.5121
ir	-10.5127
_hommage	-10.5127
_signification	-10.5127
_monument	-10.5129
_quod	-10.5129
_wa	-10.5138
_parlez	-10.514
_indigne	-10.5141
_cafe	-10.5143
_recemment	-10.5144
_ecriuit	-10.5144
_suiuit	-10.5145
_accomplir	-10.5145
_suiuie	-10.5148
_imaginer	-10.5149
_gentilhomme	-10.5149
_milliers	-10.5151
_inuention	-10.5157
_differente	-10.5163
_sacrifices	-10.5164
_niueau	-10.5169
_uertical	-10.5169
_morales	-10.517
_chance	-10.5176
_decision	-10.5177
_etudie	-10.5178
_thin	-10.5178
_caualerie	-10.5184
_remis	-10.5184
_cuisine	-10.5188
_uente	-10.5189
_courbe	-10.5189
_releuer	-10.5191
_uinrent	-10.5193
_maladies	-10.5193
_sorti	-10.5198
_partit	-10.52
_paysan	-10.52
_admis	-10.5201
_largeur	-10.5206
_bourse	-10.5208
_rangs	-10.5216
_mettent	-10.5221
_etroite	-10.5225
_propositions	-10.5226
_regiment	-10.5226
_confusion	-10.5233
_eloge	-10.5234
_calcul	-10.5239
_repondu	-10.5244
_automne	-10.5244
_ronde	-10.5245
_modeste	-10.5245
_remplace	-10.5247
_turcs	-10.5247
_conseiller	-10.5247
_wagner	-10.5248
_subir	-10.5252
_domination	-10.5254
_montrant	-10.526
_camarades	-10.526
_flotte	-10.526
_proche	-10.526
_dormir	-10.5265
_uictimes	-10.5268
_poser	-10.527
_iuan	-10.5277
_accent	-10.5277
_immobile	-10.5294
_historien	-10.5295
_colonne	-10.5302
_nat	-10.5303
_pleurer	-10.5311
_monuments	-10.5317
_serieusement	-10.5319
_presentent	-10.5325
_conuenable	-10.5326
_porta	-10.5327
_deuouement	-10.5332
_embrasse	-10.5338
_rude	-10.534
_bateau	-10.534
_eueques	-10.536
_impatience	-10.536
_permission	-10.5362
_priuilege	-10.5365
_rigueur	-10.5365
_honneurs	-10.5369
_new	-10.5373
ibus	-10.5377
_mettant	-10.5382
_apparition	-10.5386
_aie	-10.5386
_quils	-10.5388
_allais	-10.5394
_papa	-10.54
_tournant	-10.5401
_fantaisie	-10.5401
_manquait	-10.5403
_colspan	-10.5407
_feux	-10.5408
_male	-10.5411
_hollande	-10.5413
_reuele	-10.542
_uices	-10.5428
_inferieure	-10.5442
_repose	-10.5442
_ecrite	-10.5443
_separer	-10.5456
_souper	-10.5456
_retourne	-10.5456
_faisons	-10.5458
mens	-10.5464
_definition	-10.5469
_augmenter	-10.5482
_exposition	-10.5495
_ayez	-10.5497
_sue	-10.55
_uariete	-10.55
_pologne	-10.551
ner	-10.551
_engager	-10.5512
_uote	-10.5516
_merueilleuse	-10.5519
_exclusiuement	-10.5521
_touchant	-10.5523
_souci	-10.5523
_arabes	-10.553
_iardins	-10.5539
_francoise	-10.5542
_cadre	-10.5548
_assise	-10.5549
_uents	-10.5549
_uiuait	-10.5557
rum	-10.5559
_manuscrits	-10.5576
_seuil	-10.5577
_adopte	-10.5581
_mysterieux	-10.5583
_plu	-10.5587
_borne	-10.5587
_decouuertes	-10.5588
_reunir	-10.559
_iuif	-10.5592
_portraits	-10.5592
_faibles	-10.5594
_deueloppe	-10.5596
_attire	-10.5598
_florence	-10.5598
_arabe	-10.5605
_circulation	-10.5609
_ecoutez	-10.561
_roche	-10.5614
_obeir	-10.5625
_souffrances	-10.5627
_serieuse	-10.5627
_apprit	-10.563
_marin	-10.563
_discipline	-10.563
_pratiques	-10.5631
_pensez	-10.5631
_rentre	-10.5647
_occident	-10.565
_gaz	-10.5655
_eue	-10.5659
_priue	-10.566
ion	-10.5663
or	-10.5665
ca	-10.5666
_allant	-10.5666
_entretenir	-10.5667
_cha	-10.567
_speciale	-10.5671
_pouuoirs	-10.5671
_grains	-10.5674
_cic	-10.5674
_audace	-10.5678
_pis	-10.5684
_indifference	-10.5688
_seruiteur	-10.5689
_ion	-10.5694
_inutiles	-10.5704
_mers	-10.5704
_expressions	-10.5706
_apotres	-10.5707
_programme	-10.5709
_editeur	-10.571
_poetiques	-10.5714
_uoisinage	-10.572
_decider	-10.5725
_sultan	-10.5725
_tribus	-10.5729
_mac	-10.5733
_io	-10.5734
_souffre	-10.5735
_sexe	-10.5737
_uision	-10.5741
_destruction	-10.5755
_promptement	-10.5758
_paroisse	-10.576
_trouuant	-10.5763
_uisiter	-10.5764
_appellent	-10.5766
_kilometres	-10.5768
_papiers	-10.5771
_ialousie	-10.5771
_cherchait	-10.5774
_personnelle	-10.5775
_so	-10.5781
_depasse	-10.5783
_differences	-10.579
_auiez	-10.5794
_suffisamment	-10.5804
_fondee	-10.5814
_ramener	-10.5817
_promesse	-10.5821
_precedente	-10.5827
ua	-10.5828
_uetements	-10.583
_succession	-10.5833
_dirige	-10.5836
_imposer	-10.584
_mauuaises	-10.5841
_imprime	-10.5842
_interesse	-10.5844
_ane	-10.5846
ton	-10.5847
_epouser	-10.5853
_douleurs	-10.5861
_remplacer	-10.5861
_nommer	-10.5865
_deuine	-10.587
_office	-10.587
_recours	-10.5871
no	-10.5871
_arracher	-10.5885
_mirent	-10.5896
_instruments	-10.5897
_superiorite	-10.5897
_bref	-10.5898
_appelee	-10.5905
_embrasser	-10.5912
_tragedie	-10.5914
_oliuier	-10.5924
_etendu	-10.5928
_ier	-10.5928
_sil	-10.5932
_craint	-10.5933
_dignes	-10.5935
_contree	-10.5936
_uiues	-10.5936
_uiendra	-10.5938
_primitiue	-10.5942
_importantes	-10.5948
_ueritablement	-10.5954
_zola	-10.5955
_rhin	-10.5956
_inuasion	-10.5957
_senti	-10.5957
_tint	-10.5965
_edouard	-10.5966
_baton	-10.5973
_peint	-10.5978
_diriger	-10.5978
_intitule	-10.5979
_destin	-10.598
_pareils	-10.5986
_parc	-10.5989
_retourna	-10.5992
_uieil	-10.6
_priuee	-10.6
_honore	-10.6003
_reioindre	-10.6003
_uoulons	-10.6004
_consul	-10.6006
_inspiration	-10.6011
ure	-10.6012
_reuanche	-10.6014
_gustaue	-10.6015
des	-10.6015
_apercoit	-10.602
_cathedrale	-10.602
_contrees	-10.6027
_indigenes	-10.6028
_cruelle	-10.6031
_numero	-10.6056
_sucre	-10.6056
_intentions	-10.6076
_indispensable	-10.6076
_athenes	-10.6077
_cruel	-10.608
_essayer	-10.6081
_sachant	-10.6083
_aurons	-10.6087
_billet	-10.6087
_rene	-10.6088
_galerie	-10.6089
_fournit	-10.6096
_bat	-10.6096
_decadence	-10.6096
_partager	-10.6098
_ceinture	-10.6105
_sen	-10.6105
_deuelopper	-10.6108
_mets	-10.6112
_montrait	-10.6112
_transport	-10.6115
_iupiter	-10.6124
_feual	-10.6128
_situee	-10.613
_tenue	-10.613
_miracle	-10.6132
_uoy	-10.6132
_um	-10.6132
ien	-10.6136
_seances	-10.6139
_preiuges	-10.6145
_peindre	-10.6146
_attendu	-10.6155
_charmes	-10.6155
_th	-10.616
_documents	-10.6164
_honorable	-10.6167
_lecteurs	-10.6169
_etienne	-10.6175
_demontre	-10.6176
_etendre	-10.6177
_ceremonie	-10.6189
_crie	-10.6191
_quebec	-10.6196
_charpentier	-10.6199
_bornes	-10.6202
_brillante	-10.6203
_inconnue	-10.6213
_attaquer	-10.6221
_interuention	-10.6221
_pleure	-10.6227
w	-10.6228
_ru	-10.6228
_systemes	-10.6229
_seruiteurs	-10.6229
_artillerie	-10.6229
_raisonnable	-10.624
_elemens	-10.624
_habite	-10.6242
ar	-10.6246
_miroir	-10.6249
_interessant	-10.6252
_tempete	-10.6267
_actiue	-10.6268
_ter	-10.6269
_capables	-10.6277
_concernant	-10.6279
_siens	-10.6284
_cherchant	-10.6287
_fe	-10.6292
_detruit	-10.6297
_prouidence	-10.6302
_pleurs	-10.6304
_parlent	-10.631
_conuaincu	-10.6311
_meurt	-10.6314
_aueu	-10.6315
_quiconque	-10.6318
_lache	-10.6322
_piete	-10.6322
ium	-10.6324
_reaction	-10.6328
_allies	-10.6329
_aile	-10.6332
_effroi	-10.6341
_illustres	-10.6343
_responsabilite	-10.6345
_grosses	-10.6346
_routes	-10.635
_fidelite	-10.6353
_assister	-10.6353
_machines	-10.6354
_nauigation	-10.6358
_attribuer	-10.6358
_profiter	-10.6361
_for	-10.6364
_declara	-10.6364
_precis	-10.6374
_frontiere	-10.6379
_exterieure	-10.6384
_planche	-10.6385
_naples	-10.6386
_affirme	-10.6395
_fauteuil	-10.6397
_monta	-10.6405
_uel	-10.6405
_uerte	-10.6408
_conceuoir	-10.6409
_ho	-10.6419
_elu	-10.642
_goncourt	-10.642
_realiser	-10.642
_mercure	-10.642
_tira	-10.6428
_accident	-10.6432
_fixes	-10.6435
tus	-10.6436
_croient	-10.6439
_bassin	-10.644
_ennui	-10.6441
_obstacles	-10.6441
_toilette	-10.6442
nes	-10.6443
_oit	-10.6452
_instants	-10.6459
_ardent	-10.6461
_sure	-10.6464
_repeter	-10.6474
_publication	-10.6479
_serre	-10.6483
_uisible	-10.649
_existait	-10.6494
_baie	-10.6496
_uiuante	-10.6496
_appartiennent	-10.65
_color	-10.6502
_bourg	-10.6504
_pot	-10.6505
_populations	-10.6508
_ro	-10.6509
_dramatique	-10.651
_pourront	-10.6513
_impot	-10.6515
_notion	-10.6517
_immenses	-10.6518
_moines	-10.6521
_ecclesiastique	-10.6522
_soumettre	-10.6523
_quitta	-10.6527
ual	-10.6527
_departement	-10.6533
bot	-10.6533
_cartes	-10.6539
_auancer	-10.654
_enormes	-10.6543
_uillages	-10.6549
_mouuemens	-10.6557
_aiment	-10.6558
_profondes	-10.6562
_tendance	-10.6562
_prochaine	-10.6562
_fermes	-10.6571
_mienne	-10.6571
_uaincu	-10.6572
_seruait	-10.6576
_uoient	-10.6576
_paruenir	-10.6578
iens	-10.6578
_uiolent	-10.6578
_croyance	-10.6579
_futur	-10.6579
_shakespeare	-10.658
_ualet	-10.6585
_diuise	-10.6585
_considerations	-10.6586
_mo	-10.6586
_equations	-10.6591
_uoulaient	-10.6592
_uaincre	-10.6592
_ages	-10.6593
_arriues	-10.6594
_partisans	-10.6595
_placee	-10.6602
_allusion	-10.6603
_arthur	-10.6603
_eloigner	-10.6604
_bizarre	-10.661
_definitiue	-10.6611
_tristes	-10.6612
_montrent	-10.6613
_adresser	-10.6616
_combats	-10.6616
_genres	-10.6618
_hauts	-10.6618
_editions	-10.6622
_mensonge	-10.6623
_uiolente	-10.663
_interualle	-10.6637
_constant	-10.6638
_lis	-10.6639
_oubli	-10.6641
_incapable	-10.6649
_excellente	-10.6656
_uarie	-10.666
_sensations	-10.666
_archeueque	-10.6661
_separation	-10.6661
_pression	-10.6662
_batiment	-10.6663
da	-10.6665
ire	-10.6666
_reduire	-10.6673
orum	-10.6675
_constante	-10.6677
_democratie	-10.6678
_ambassadeur	-10.6679
_metal	-10.6681
_str	-10.6685
_conuiction	-10.669
_redoutable	-10.669
_plumes	-10.6704
_parts	-10.6704
_socrate	-10.6711
_uastes	-10.6716
_preter	-10.6719
_sortant	-10.6727
_pensa	-10.673
_desirer	-10.673
_orage	-10.673
_contenant	-10.6731
_luc	-10.6734
_billets	-10.6734
_prophetes	-10.6739
_mecanique	-10.6739
_entreprises	-10.6742
_habilete	-10.6742
_portion	-10.6742
_disaient	-10.6744
_apercu	-10.6747
_phrases	-10.6748
_constater	-10.675
_reuenus	-10.6752
_ancetres	-10.6754
_riuage	-10.6755
_constate	-10.6756
_seize	-10.6757
_refus	-10.6758
_legendes	-10.676
_pardonne	-10.6769
_souffert	-10.6773
_paysage	-10.6774
_donnes	-10.6774
_medecins	-10.6777
_paille	-10.6777
_interpretation	-10.6784
_prosperite	-10.6784
_germain	-10.6794
_ordonnance	-10.6796
_conference	-10.6801
_theories	-10.6807
_croyons	-10.6808
_chat	-10.6808
_anti	-10.6808
_affirmer	-10.6811
_special	-10.6811
_attente	-10.6813
_ki	-10.6816
q	-10.6818
_taire	-10.682
_uerites	-10.6822
_continent	-10.6825
_analogue	-10.6825
_prirent	-10.6826
_sophie	-10.6831
_moindres	-10.6835
_deuez	-10.6835
_election	-10.6837
_ressort	-10.6839
ci	-10.6841
_banc	-10.6842
_remonter	-10.6842
_perir	-10.6843
_lady	-10.6844
_grauite	-10.6846
_lin	-10.6847
_royaute	-10.6849
_troubles	-10.6849
_aduersaire	-10.6849
_descend	-10.6852
_tenter	-10.6853
_supplice	-10.6855
_precision	-10.6856
_imperiale	-10.6857
_celebres	-10.6858
_eusse	-10.686
_possedait	-10.6861
_opposer	-10.6872
_furieux	-10.6873
_uiande	-10.6874
_pareilles	-10.6877
_anime	-10.6877
_denis	-10.6878
_approcher	-10.6884
_epais	-10.6886
_antiques	-10.6887
_gestes	-10.6892
_mechant	-10.6895
_res	-10.6901
_satisfait	-10.6901
_nus	-10.6902
_climat	-10.6903
_mien	-10.6907
_copie	-10.6914
_attirer	-10.6915
_conge	-10.6916
_uus	-10.6917
_passee	-10.6921
_terribles	-10.6922
_lame	-10.6924
_materiel	-10.6925
_formules	-10.693
_clef	-10.6936
_retira	-10.6938
_disons	-10.6942
_demon	-10.6943
_tables	-10.6944
_fables	-10.6944
_bi	-10.695
_maria	-10.6951
_op	-10.6957
_naturels	-10.6957
_agitation	-10.6958
_magistrats	-10.6958
_autrui	-10.6958
_etroit	-10.6959
_reussit	-10.6959
_croyant	-10.6962
_esclauage	-10.6962
_uoiles	-10.6964
_modeles	-10.6965
_uo	-10.6967
_bonnet	-10.6969
_serpent	-10.697
_deuil	-10.697
_remarques	-10.6975
_humains	-10.6975
_mallarme	-10.698
_situe	-10.698
_chimie	-10.698
_origines	-10.6983
_barre	-10.699
_proprietaires	-10.699
_iustes	-10.699
_murailles	-10.6992
_depute	-10.6998
_canton	-10.6998
_rapporter	-10.6999
_uar	-10.7004
_rit	-10.7006
_isabelle	-10.701
_perse	-10.7014
_noires	-10.7015
_dresse	-10.7016
_purete	-10.7021
tis	-10.7023
_desquels	-10.7028
_rompre	-10.7034
_specialement	-10.7038
_ecrie	-10.705
_uole	-10.7051
_liquide	-10.7051
man	-10.7055
_ombres	-10.7057
si	-10.706
_inquiete	-10.7067
_initial	-10.7069
_funeste	-10.7072
_oeufs	-10.7072
_riuieres	-10.7073
_secrete	-10.7074
_uicomte	-10.7076
_boite	-10.7076
_decrit	-10.7076
_carre	-10.708
_conforme	-10.7095
_spirituelle	-10.71
_raisonnement	-10.7105
_italiens	-10.7106
_merueille	-10.7106
_buffon	-10.7107
_enceinte	-10.7109
_epoques	-10.7111
_espagnols	-10.7111
_crier	-10.7112
_sauueur	-10.7116
_marais	-10.7118
_code	-10.7119
_uenger	-10.7125
_cho	-10.7126
_echelle	-10.7127
_exil	-10.7128
_peches	-10.7128
_abrege	-10.7129
ras	-10.7129
_proportions	-10.7132
iste	-10.7134
_reprises	-10.7137
_croyais	-10.7137
_intellectuelle	-10.7137
_saisi	-10.714
_lueur	-10.714
_epreuues	-10.7142
_acquerir	-10.7143
_deuenus	-10.7146
_canons	-10.7146
_airs	-10.7147
_iustifier	-10.7149
_arago	-10.7149
_breton	-10.7153
_precautions	-10.7153
_repondait	-10.7153
_uniforme	-10.7154
_comparer	-10.7155
ly	-10.7156
_disais	-10.7157
_espagnol	-10.7157
_eprouuer	-10.7165
_ioindre	-10.7167
_contenu	-10.7175
tum	-10.7176
_laurent	-10.7177
_ot	-10.7178
_remit	-10.7179
_etablie	-10.718
_meubles	-10.7187
_couper	-10.7189
_obscur	-10.7189
_logis	-10.7191
_ob	-10.7194
ac	-10.7195
_attacher	-10.7199
_traitement	-10.7201
_pouuoit	-10.7204
_roches	-10.7205
_remplit	-10.7227
_suiuantes	-10.7228
_total	-10.7229
_archiues	-10.723
_heritage	-10.7231
_inter	-10.7232
_europeen	-10.7236
_eleuation	-10.7238
_comique	-10.7239
_surement	-10.7255
_accompli	-10.7265
_honnetes	-10.7266
_iusqua	-10.7269
_signale	-10.7273
_admirer	-10.7274
_innocent	-10.7284
iu	-10.7288
_usages	-10.729
_marier	-10.7302
_epouuante	-10.7305
_demonstration	-10.7312
_obligation	-10.7318
_remords	-10.7329
_changements	-10.733
_solitaire	-10.7333
sa	-10.7335
_bnf	-10.7342
_plans	-10.7343
_pen	-10.7345
_preference	-10.7349
_directe	-10.735
_iuda	-10.7354
_italienne	-10.7358
_construire	-10.7359
_caracteristique	-10.7365
_suiuent	-10.7373
ement	-10.7374
_offrent	-10.7375
_coule	-10.7376
_poursuiure	-10.7377
rais	-10.7378
ro	-10.738
_marseille	-10.7384
_helene	-10.7385
_contradiction	-10.7393
go	-10.7399
_chargee	-10.74
_librement	-10.7411
_obtint	-10.7415
_superieurs	-10.7423
_comptait	-10.7428
_souuerains	-10.7432
_demeurer	-10.7434
_minuit	-10.7436
_construit	-10.7436
_imitation	-10.7437
_manuel	-10.7439
_ceder	-10.7439
ies	-10.7439
_trauerser	-10.7447
_offrait	-10.7453
_cit	-10.7459
_concert	-10.7461
_ioint	-10.7463
_contraires	-10.7464
_contribue	-10.7466
_budget	-10.7469
_braues	-10.747
_tion	-10.747
_delicate	-10.7471
_moliere	-10.7478
_essentiellement	-10.748
_attaques	-10.7488
_fur	-10.7489
che	-10.7491
_monstre	-10.7491
_use	-10.7496
_bandes	-10.7496
_dict	-10.7502
_miracles	-10.7506
_uraisemblable	-10.7507
_iournees	-10.7508
_nue	-10.7514
_indignation	-10.7516
_rouen	-10.7516
_sache	-10.7517
_singulierement	-10.7521
_terrestre	-10.7522
_sourit	-10.7523
co	-10.7527
_mener	-10.7532
_iacob	-10.7533
_compagnies	-10.7533
_balance	-10.7534
_uerse	-10.7544
_ressemblance	-10.7551
_bo	-10.7559
_ceste	-10.7565
_bloquer	-10.7569
_consommation	-10.7571
_reclame	-10.7576
_possibilite	-10.7577
_renseignements	-10.7579
_regrette	-10.758
_admire	-10.7584
_cimetiere	-10.759
_transformation	-10.7596
_br	-10.76
_colline	-10.7603
_conseruation	-10.7605
_marques	-10.7605
_statues	-10.7611
_laine	-10.7613
_menaces	-10.7613
_loue	-10.7616
_nourrir	-10.7618
_demontrer	-10.7619
_restee	-10.7619
_plomb	-10.7621
_deuiner	-10.7621
_felicite	-10.7621
_appela	-10.7622
_cheminee	-10.7625
_zu	-10.7629
_fosse	-10.763
_angoisse	-10.7635
uer	-10.7637
_concurrence	-10.7643
_bordeaux	-10.7643
_uase	-10.7646
_bertrand	-10.765
_presenta	-10.7656
_lor	-10.7668
istes	-10.7672
_annoncer	-10.7673
_franchise	-10.7674
_rente	-10.7678
_patron	-10.768
_asile	-10.7681
_sociales	-10.7682
_declarer	-10.7684
_rapidite	-10.7688
_caualiers	-10.7693
_confie	-10.7696
lin	-10.7705
uit	-10.7708
_abandon	-10.7711
_mu	-10.7712
_hote	-10.7712
_connaissez	-10.7721
_execute	-10.7722
_dist	-10.7723
_contraste	-10.7724
_marins	-10.7725
_occupait	-10.7728
_nier	-10.7728
_man	-10.7732
_grain	-10.7737
_fourni	-10.7737
_pures	-10.7738
_appartenant	-10.774
ens	-10.7742
_insectes	-10.7744
_loup	-10.7745
_anonyme	-10.7745
_bonaparte	-10.7746
_contenir	-10.7746
_tenaient	-10.7748
_uoute	-10.7751
_masque	-10.7752
_tapis	-10.7753
_lampe	-10.7754
_mention	-10.7756
_renaissance	-10.7759
_reposer	-10.7759
_posseder	-10.7766
_mou	-10.7769
_trouuons	-10.7772
_melee	-10.7779
_parfum	-10.7781
_tentatiue	-10.7784
_sphere	-10.7785
_difficiles	-10.779
tion	-10.7791
_philosophiques	-10.7795
_uainement	-10.7801
ry	-10.7801
_epaisseur	-10.7801
lo	-10.7804
_agite	-10.7808
_echo	-10.7813
_perpetuel	-10.7816
_reproches	-10.7824
_querelle	-10.7826
_donnera	-10.7831
_ietant	-10.7832
_clement	-10.7834
_symbole	-10.7837
_differe	-10.7848
_precise	-10.7858
_achete	-10.787
_mar	-10.7871
do	-10.7872
tur	-10.7873
_ardente	-10.7874
_gaules	-10.7875
_etranges	-10.7875
_goutte	-10.788
_ei	-10.7884
_cristo	-10.7885
_trouuai	-10.7889
_sixieme	-10.789
_por	-10.7892
_beuue	-10.7907
son	-10.7914
_etage	-10.7917
_modifications	-10.7922
_couure	-10.7928
_instruit	-10.7929
_introduit	-10.7929
_uoyais	-10.7937
_spirituel	-10.7947
_prets	-10.7949
_preuoir	-10.7949
_essentiel	-10.7953
_mobile	-10.7955
_couurir	-10.7957
_sicile	-10.7959
_bleus	-10.7961
_gai	-10.7966
_depens	-10.7967
_pag	-10.7969
_tom	-10.7975
_uerrez	-10.7977
_flot	-10.7978
_ramene	-10.7979
_formee	-10.798
_ba	-10.798
_agent	-10.798
_exact	-10.7981
_atelier	-10.7981
_latine	-10.7987
ae	-10.7988
_assurance	-10.7995
_produisent	-10.7996
_contrat	-10.7998
_sembla	-10.8
_elan	-10.8006
_normal	-10.8007
_quatorze	-10.8008
_uiuacite	-10.8008
_institut	-10.801
_obliges	-10.8016
_azur	-10.8022
ll	-10.8023
_pente	-10.8025
_equipage	-10.8028
_reconnut	-10.8035
_classique	-10.8035
ins	-10.8036
_trouuerent	-10.8038
_eueille	-10.8041
mi	-10.8046
_ioug	-10.8046
_tourna	-10.8054
_pus	-10.8066
_cede	-10.8067
_huitieme	-10.8069
_uersion	-10.8072
_couuerte	-10.8082
_golfe	-10.8082
_uoudra	-10.8087
_sieur	-10.8087
_fierte	-10.8088
_muraille	-10.8089
_approcha	-10.8098
_subi	-10.8107
_prefet	-10.8116
_glorieux	-10.8122
_diuisions	-10.8125
_consulter	-10.8128
_frequemment	-10.8129
_reussir	-10.813
_imiter	-10.8131
_by	-10.8132
_chasser	-10.8136
_suffisante	-10.8138
_bleue	-10.8142
_book	-10.8143
_orateur	-10.8144
_inuite	-10.8149
_exactitude	-10.8149
_plaintes	-10.8151
_argument	-10.8153
_temples	-10.8153
_bes	-10.8161
_occasions	-10.8162
_camille	-10.8163
_intermediaire	-10.8176
_gaiete	-10.8177
_maire	-10.8178
_emprunte	-10.8183
_petersbourg	-10.8189
_uerrons	-10.819
_uieillesse	-10.8192
_imprimeurs	-10.8193
_aimez	-10.8194
_totale	-10.8195
_pieux	-10.82
_pourroit	-10.8201
_remarquables	-10.8201
_york	-10.8203
_cadaure	-10.8204
_fiere	-10.8205
_abbaye	-10.8211
_octe	-10.8214
_trouuee	-10.8218
_niece	-10.8218
_organe	-10.8218
_etiez	-10.8218
_defaite	-10.822
_inferieur	-10.8225
_apprecier	-10.8226
_puits	-10.8237
_flaubert	-10.8244
_reparer	-10.8245
_couteau	-10.8247
_mince	-10.8248
_promesses	-10.8249
_cl	-10.8251
_besogne	-10.8252
_bourgogne	-10.8257
_issue	-10.8262
_uoeu	-10.8265
_frontieres	-10.8267
_opere	-10.8269
_depose	-10.827
_ierome	-10.8274
_retard	-10.8279
_extrait	-10.8281
_poussa	-10.8287
_repeta	-10.8288
_lourd	-10.8293
im	-10.8296
_sombres	-10.8298
_these	-10.8301
_signal	-10.8308
_relatifs	-10.8308
_keraban	-10.8312
_passes	-10.8316
_naguere	-10.8319
_montreal	-10.832
_pire	-10.833
_comprit	-10.8333
_controle	-10.8334
_renard	-10.8335
_diminue	-10.8335
_allee	-10.8338
_problemes	-10.8339
_caualier	-10.8342
_assemblees	-10.8343
_fable	-10.8345
_pou	-10.8349
un	-10.8352
_soupir	-10.8353
_cites	-10.836
_repondis	-10.836
_tranquillement	-10.8362
_nombres	-10.8366
_demeura	-10.8368
_conformement	-10.8371
_reuolutions	-10.8374
_iuliette	-10.8374
_tresors	-10.8387
_uariations	-10.8389
_charbon	-10.8391
_pleines	-10.8392
_fragments	-10.8393
_merueilles	-10.8393
_offrit	-10.8395
be	-10.84
_delicatesse	-10.8404
_longuement	-10.841
_partant	-10.8412
_uoisines	-10.8414
_roger	-10.8426
_manquent	-10.8427
_douces	-10.8429
_emu	-10.8429
_transporte	-10.8434
_appartenait	-10.8436
_physiques	-10.8443
_pretentions	-10.8443
_legislation	-10.8452
_plaines	-10.8453
_generations	-10.8453
_defendu	-10.8455
_innombrables	-10.8461
_reuenait	-10.8464
_arriuent	-10.847
_emporter	-10.8473
_murmure	-10.8475
_pic	-10.8478
_existent	-10.8482
_sacres	-10.8495
di	-10.85
_hetzel	-10.8506
_attends	-10.8507
_pauillon	-10.8508
_flammes	-10.8508
_maigre	-10.851
_definitiuement	-10.851
_methodique	-10.8512
_chiffres	-10.8513
_septante	-10.8514
_men	-10.8515
_enquete	-10.8516
_meurtre	-10.8516
_kant	-10.8516
_acheuer	-10.8517
_courut	-10.8519
_bruxelles	-10.852
_concu	-10.852
_primitif	-10.8522
_recueillir	-10.8528
_pipe	-10.8532
_reformes	-10.8552
_trauailleurs	-10.8552
_pauurete	-10.8553
_terrains	-10.8554
_precaution	-10.8557
_relatiues	-10.8563
_caisse	-10.8573
_interrompit	-10.8576
_tyrannie	-10.8579
_instruire	-10.8583
_ual	-10.8584
_hopital	-10.859
_austen	-10.859
_robot	-10.859
_nombreuse	-10.8591
_meilleures	-10.86
_drapeau	-10.8604
_luttes	-10.8605
_createur	-10.8607
_connues	-10.8608
_persuade	-10.8616
_sub	-10.8617
_gouuerner	-10.8618
_bouquet	-10.8619
_iniuste	-10.8624
_librairie	-10.8625
_portaient	-10.8625
_emotions	-10.8626
_suiuait	-10.8626
_herbes	-10.8628
_rapides	-10.8631
_merimee	-10.8632
_pasteur	-10.8634
_chaude	-10.8638
_extremites	-10.8639
_restauration	-10.8642
_entrant	-10.8643
_curieuse	-10.8646
_leipzig	-10.8646
_introduire	-10.8647
_apotre	-10.8648
_uolupte	-10.8649
_consolation	-10.8649
_innocence	-10.8654
_cordes	-10.8656
_liaison	-10.8657
_manche	-10.867
_mlle	-10.8671
_regrets	-10.8672
_replace	-10.8672
_imperial	-10.868
_proteger	-10.8681
_mediocre	-10.8681
_tendances	-10.8683
_impots	-10.8684
_nuage	-10.8687
_rapproche	-10.8687
_harpe	-10.8688
_creux	-10.8688
_goethe	-10.8696
_decouure	-10.8696
_remonte	-10.8697
_attaches	-10.8697
_descartes	-10.8703
_barque	-10.8715
_reuelation	-10.8721
_fermete	-10.873
_rowspan	-10.8732
_communs	-10.8732
_bronze	-10.8735
_wikisource	-10.8739
_iniustice	-10.8742
_cousine	-10.8744
_notions	-10.8748
_relief	-10.875
_plutarque	-10.8753
_fins	-10.8757
_americain	-10.8758
_lointain	-10.8759
_fatigues	-10.8761
_feront	-10.8761
_orientale	-10.8765
_compare	-10.8766
_affections	-10.8766
_elections	-10.8768
_obeissance	-10.8768
_posterite	-10.8768
_aiguille	-10.8772
_combinaisons	-10.8773
_analogues	-10.8774
_barbare	-10.8778
_examine	-10.8778
_elegance	-10.8779
_tranquillite	-10.8782
_commode	-10.8789
_leglise	-10.8797
_subitement	-10.8798
_fache	-10.8799
_centrale	-10.8799
_dirent	-10.8801
_degout	-10.8803
_serons	-10.8808
_battu	-10.8812
_guerir	-10.8817
_boutique	-10.8817
_recommande	-10.8818
_rechercher	-10.882
_alpes	-10.8821
_fraiche	-10.883
_irai	-10.8831
_bapteme	-10.8832
_amoureuse	-10.8834
_boeufs	-10.8842
_prouerbes	-10.8844
_renommee	-10.8845
_souuiens	-10.8847
_ecarter	-10.885
_adore	-10.8851
_auois	-10.8852
_collines	-10.8853
_monarque	-10.8854
_blesses	-10.8854
_dor	-10.8862
_montant	-10.8868
_auberge	-10.8873
_reflechir	-10.8875
_ira	-10.8878
_miseres	-10.8883
_parlons	-10.8885
_iustine	-10.8889
_nerfs	-10.889
_comprenait	-10.889
_recus	-10.8894
_tou	-10.8896
_commentaire	-10.8896
_uigoureux	-10.8898
_demarche	-10.8902
_coupables	-10.8905
_teint	-10.8905
_excuse	-10.8907
_defend	-10.8909
_corruption	-10.8909
ere	-10.892
_meprise	-10.8922
_chers	-10.8928
_accompagner	-10.8931
_deesse	-10.8931
_possibles	-10.8932
_souhaite	-10.8932
_mortel	-10.8939
_delicat	-10.8939
_dessins	-10.8939
_seruit	-10.894
_repandre	-10.8944
_garcons	-10.8957
_aurions	-10.8959
_perdit	-10.8964
_bruits	-10.8966
_decrire	-10.8967
_demoiselle	-10.8967
_louer	-10.8969
_septieme	-10.8971
_uiuants	-10.8972
_donnaient	-10.8973
_substances	-10.8976
_protege	-10.8976
_iuresse	-10.8977
_remercie	-10.8979
_disposer	-10.8979
_metaux	-10.898
_designer	-10.8984
_compatriotes	-10.8984
_tas	-10.8987
_renonce	-10.8992
_central	-10.8997
_guise	-10.9005
_berceau	-10.9007
_ciceron	-10.9007
_ports	-10.9011
_politesse	-10.9012
_musset	-10.9015
_chatiment	-10.9019
_pittoresque	-10.9023
_heroique	-10.9023
_eclair	-10.9028
_loisir	-10.9036
_marchait	-10.9038
_fermer	-10.904
_pretendu	-10.904
_inuisible	-10.9049
_precipite	-10.9053
_magistrat	-10.9055
_auriez	-10.9057
_solides	-10.9059
_interdit	-10.9059
_couuerts	-10.9062
_lib	-10.9063
_delai	-10.9063
_creatures	-10.9064
_destines	-10.9064
_homere	-10.9067
_modes	-10.9069
_amiral	-10.9072
_fonctionnaires	-10.9072
_offert	-10.9073
_conuaincre	-10.9074
_reprend	-10.9078
_temperament	-10.9079
_soigneusement	-10.9081
_orchestre	-10.9094
_capitaux	-10.9096
_renuerse	-10.9101
_ciuil	-10.9102
_mariee	-10.9103
_uigne	-10.9104
ed	-10.9107
_arriuant	-10.9113
_incendie	-10.9115
_frappa	-10.9122
_instructions	-10.9123
_delices	-10.9124
_geographie	-10.9125
ka	-10.913
ation	-10.913
_paragraphe	-10.9131
ler	-10.9132
_epuise	-10.9135
_lutter	-10.9137
_seruante	-10.9137
_egards	-10.9139
_roule	-10.914
_eleua	-10.9141
_arrache	-10.9143
_boeuf	-10.9145
_briser	-10.9148
_guerriers	-10.9154
_poursuit	-10.9158
_autorites	-10.9159
_britannique	-10.916
_bis	-10.9161
_sincerite	-10.9163
_faisoit	-10.9167
_accroissement	-10.9168
_gras	-10.9174
_commissaire	-10.9175
_syrie	-10.9178
_ipg	-10.9179
_user	-10.918
_conflit	-10.9183
_uisites	-10.9185
_americains	-10.9189
_plateau	-10.9193
ron	-10.9194
_admet	-10.9203
_daniel	-10.9207
_chapitres	-10.9211
_paruenu	-10.9212
_lourde	-10.9219
_melancolie	-10.9221
_quun	-10.9221
_cooper	-10.9223
_chaines	-10.9234
_demie	-10.9235
_esthetique	-10.9236
_latins	-10.9241
_piano	-10.9242
_fl	-10.9243
_reuenant	-10.9244
_tan	-10.9246
_prononca	-10.9251
_etablissemens	-10.926
_garantie	-10.926
_bourgeoisie	-10.9264
_pourpre	-10.9266
_grammaire	-10.9266
_acier	-10.9267
_explications	-10.9268
_riues	-10.9271
_publia	-10.9272
_materiaux	-10.9275
_souueraine	-10.9277
_ref	-10.9278
ise	-10.9286
_subit	-10.9287
_continuait	-10.9289
_ueines	-10.9294
_eclairer	-10.9295
_magnifiques	-10.9296
_humide	-10.9296
_mystique	-10.9304
_egyptiens	-10.9306
_neglige	-10.9308
du	-10.931
_pensant	-10.9311
_retablir	-10.9321
_conuenir	-10.9323
_sortent	-10.9324
_cul	-10.9325
_tragique	-10.9331
_chene	-10.9333
_seche	-10.9334
_eo	-10.9341
_exploitation	-10.9342
_representations	-10.9345
_xxii	-10.9346
_troubler	-10.9349
_blessure	-10.9357
_euidence	-10.9358
_empressement	-10.9361
_uelours	-10.9366
_aube	-10.9367
_alexandrie	-10.9368
_formidable	-10.9373
_franchement	-10.9376
_etonnant	-10.9377
_ez	-10.9377
_uni	-10.9378
_excite	-10.9379
_fondement	-10.9381
_iusques	-10.9382
_priuileges	-10.9383
_tombent	-10.9386
_inspirer	-10.9389
_penchant	-10.939
_drole	-10.9391
_energique	-10.9392
_descendit	-10.9399
_ruisseau	-10.9404
_heluetius	-10.9404
_occupation	-10.9411
_sacree	-10.9412
_informe	-10.9412
_publier	-10.9413
_uolontaire	-10.9415
_ruse	-10.9416
_eternite	-10.9419
_finesse	-10.9421
_ulen	-10.9421
_representent	-10.9425
_communiquer	-10.9428
_ours	-10.943
_actif	-10.9434
_delicieux	-10.9435
_epaisse	-10.9439
_inscriptions	-10.944
_cesser	-10.944
_entrainer	-10.9441
_boue	-10.9443
_meres	-10.9444
_assiste	-10.9445
_epargne	-10.9449
_piegel	-10.9452
_tyran	-10.9457
_diametre	-10.9457
_aigle	-10.9461
_if	-10.9463
_maxime	-10.9466
_odieux	-10.9466
_oc	-10.9466
_sed	-10.9467
_dangereuse	-10.9469
_ent	-10.947
_remplie	-10.9475
_confession	-10.9479
_beautes	-10.9481
_transporter	-10.9484
_dom	-10.9484
_miserables	-10.9486
_taches	-10.9486
_reunit	-10.9487
_ressemblent	-10.9488
_camarade	-10.9494
_baisers	-10.9495
_chances	-10.9499
_ordonna	-10.9501
_fantome	-10.9503
_diminuer	-10.9504
_paroit	-10.9511
_extraordinaires	-10.9511
_uins	-10.9514
_correspondant	-10.9516
_regler	-10.9518
_generosite	-10.9519
_contenter	-10.9526
_etablis	-10.9531
mont	-10.9537
_sus	-10.9539
_xxi	-10.9541
_absurde	-10.9551
_uies	-10.9562
_pacifique	-10.9562
able	-10.9564
_ernest	-10.9566
_productions	-10.9567
_atteinte	-10.9567
_pate	-10.9573
_composent	-10.9573
_initiatiue	-10.9574
_habiles	-10.9575
_repousse	-10.9576
_dimensions	-10.9577
_frappant	-10.9581
_trahison	-10.9582
_maximes	-10.9583
_descendant	-10.9585
_precieuses	-10.9586
_souleue	-10.9592
_haleine	-10.9597
_procureur	-10.9598
_obscure	-10.9619
_pretention	-10.9621
_perce	-10.9631
_roue	-10.9631
_esse	-10.9632
_ecus	-10.9636
_presentait	-10.9639
_quoy	-10.9642
_etonner	-10.9643
fe	-10.9646
_lhomme	-10.9646
_iambe	-10.9648
_dise	-10.9651
_foudre	-10.9652
_torrent	-10.9653
_connaissent	-10.9653
_decida	-10.9659
_treize	-10.966
_songeait	-10.966
_quai	-10.9661
_ineuitable	-10.9664
_arbitraire	-10.9664
_conduisit	-10.9668
_angles	-10.967
_attachement	-10.9673
_distribution	-10.9676
_pension	-10.9687
_apercus	-10.9687
_nommee	-10.9689
_ualoir	-10.9691
_chancelier	-10.9692
_coton	-10.9695
_incident	-10.97
uin	-10.9704
_exister	-10.9705
_salomon	-10.9707
_sale	-10.9708
_negres	-10.971
_fraicheur	-10.971
_composes	-10.9716
_restera	-10.9719
_fous	-10.9721
_bienueillance	-10.9723
_chroniques	-10.9733
_choisis	-10.9733
_nuances	-10.9734
_egales	-10.9734
_paisible	-10.9735
_marquer	-10.9737
_monts	-10.9739
_meler	-10.974
_rendue	-10.9741
ide	-10.9743
_bl	-10.9744
_egaux	-10.9746
_paruint	-10.9747
_temoignages	-10.9747
_lundi	-10.975
_grise	-10.9751
_prairies	-10.9752
_lautre	-10.9753
_croyances	-10.9755
_accueil	-10.9755
_uoleurs	-10.9755
_soumission	-10.9763
_pese	-10.9764
_deura	-10.9764
_methodes	-10.9767
_nerueux	-10.977
_notaire	-10.9771
_preparation	-10.9771
_conuenu	-10.9776
_dramatiques	-10.9779
_punir	-10.9782
_desseins	-10.9784
_ironie	-10.9786
_irrite	-10.9795
_depot	-10.9797
_miel	-10.9801
_refusa	-10.9807
_iames	-10.9807
_raphael	-10.981
_hercule	-10.9811
_sensibles	-10.9813
ale	-10.9815
_notice	-10.9818
_peri	-10.9826
_modifier	-10.983
_deuais	-10.983
_perdus	-10.9831
_benefice	-10.9835
_dynastie	-10.9835
_permettez	-10.9835
_ceremonies	-10.9837
_autorise	-10.9837
_sortait	-10.9838
_iud	-10.984
_christophe	-10.9842
_uirgile	-10.9842
_entreprendre	-10.9843
_cuir	-10.9843
_milan	-10.9843
_tombes	-10.9851
_soutenu	-10.9855
_alphonse	-10.9858
_inquiet	-10.9858
_liberal	-10.9859
_lut	-10.9863
_professeurs	-10.9864
_uoitures	-10.9865
_bpt	-10.9867
_hoc	-10.9868
_infinie	-10.987
_axe	-10.9872
_adressee	-10.9873
_douloureux	-10.9874
_scandale	-10.9874
_dogme	-10.9874
_adressant	-10.9877
_acteurs	-10.9879
_superieures	-10.9885
_psychologie	-10.989
_appeles	-10.9891
_ecrites	-10.9893
_tait	-10.9901
_caprice	-10.9905
_bienfaits	-10.9906
_contiennent	-10.9906
_barriere	-10.9907
_uerdure	-10.9907
_montesquieu	-10.9914
_corriger	-10.9921
_uetement	-10.9923
_astres	-10.9932
_hauteurs	-10.9933
_rendant	-10.9935
_parens	-10.9937
_eleuait	-10.994
_seruant	-10.9945
_patriotisme	-10.9946
_combinaison	-10.9947
_fatal	-10.9949
_reuer	-10.9953
_enferme	-10.9955
_troupeaux	-10.9955
_plonge	-10.9957
_montait	-10.9968
_entrait	-10.9968
_raoul	-10.9969
_choc	-10.997
_terminer	-10.9972
_fausses	-10.9973
_reglement	-10.9976
_indien	-10.9977
_uilla	-10.9982
_insurrection	-10.9989
_illusions	-10.9991
_iaponais	-10.9991
_chinoise	-10.9992
_affecte	-10.9992
_confondre	-10.9996
_interprete	-10.9996
_oi	-10.9997
_eleuees	-11.0001
ke	-11.0003
_future	-11.001
_proudhon	-11.001
_desquelles	-11.0011
_indifferent	-11.0013
_marchant	-11.0014
_delire	-11.0015
_muse	-11.0019
_proposer	-11.0019
_tombee	-11.0019
_terminee	-11.002
_personnalite	-11.0021
_bruler	-11.0025
_consoler	-11.0033
_approbation	-11.0035
_constance	-11.0035
_indiuiduelle	-11.0038
_deliure	-11.0039
_contemporaine	-11.004
_peintures	-11.0042
qu	-11.0044
_cy	-11.0044
_intimes	-11.0046
_conclut	-11.0048
_regardez	-11.0053
_fonder	-11.0053
_uiures	-11.0054
_consentement	-11.006
_demandent	-11.0061
_eleuent	-11.0062
_dette	-11.0064
_seuigne	-11.0065
_commencent	-11.0066
_comprenant	-11.0068
_augmentation	-11.007
_fatale	-11.0072
_tombait	-11.0072
_noel	-11.0073
_auanca	-11.0075
_exercices	-11.0076
_cherchent	-11.0078
ille	-11.0079
_pecheurs	-11.0083
men	-11.0084
_imprimer	-11.0089
_basses	-11.0093
_ecclesiastiques	-11.0094
_nou	-11.0095
_all	-11.0096
_fondation	-11.0097
_iouissance	-11.0103
_bases	-11.0106
_uil	-11.0107
_gosselin	-11.0109
_pudeur	-11.0109
_tri	-11.0111
_talents	-11.0111
_sentier	-11.0115
_troupeau	-11.0118
_thiers	-11.0118
_oter	-11.0119
_tonnerre	-11.0119
_formant	-11.0122
_nil	-11.0124
_uallees	-11.0126
_emparer	-11.0132
_plainte	-11.0134
_timide	-11.0141
_continuellement	-11.0143
_aristocratie	-11.0144
_fai	-11.0149
_desespere	-11.015
ix	-11.0151
_entreuue	-11.0155
_repentir	-11.0159
_accusation	-11.0161
_recue	-11.0162
_dons	-11.0167
_disciple	-11.0168
_creuse	-11.0168
_tourmente	-11.0169
_rentra	-11.0169
_rapprocher	-11.0173
_ecarte	-11.0175
_empereurs	-11.0176
_dialogue	-11.0177
_moulin	-11.0178
_internationale	-11.0186
_hongrie	-11.0191
_trouuerait	-11.0192
_respecter	-11.0194
_lente	-11.0194
_uincent	-11.0195
_flancs	-11.0198
_permit	-11.0199
_gouts	-11.0205
_dedain	-11.0205
_canadiens	-11.0205
_mysterieuse	-11.0207
_terrasse	-11.0207
_nid	-11.0215
_constituent	-11.0215
_estomac	-11.0218
land	-11.0218
_irresistible	-11.0219
_cloche	-11.0222
_trouues	-11.0223
_largement	-11.0227
_compagne	-11.0228
_entrent	-11.0229
_disparut	-11.0233
_occupee	-11.0233
_permettent	-11.0234
_capacite	-11.0235
_uetu	-11.0239
_quantites	-11.0244
_discussions	-11.0245
_reueil	-11.0245
_dore	-11.0249
_interualles	-11.025
_presents	-11.0251
_amertume	-11.0252
_gregoire	-11.0257
_charlotte	-11.0258
_religions	-11.0258
_ze	-11.0264
_fuit	-11.0267
_uegetation	-11.0269
_purent	-11.0271
_fabrique	-11.0274
_gare	-11.0277
_inscription	-11.0277
_pretendre	-11.0281
eur	-11.0283
_reserues	-11.0284
_tra	-11.0287
_tendres	-11.029
_geometrie	-11.0291
_inuente	-11.0292
_choisies	-11.0293
_successeur	-11.0294
iques	-11.0295
_operer	-11.0296
_parent	-11.0306
_xxiii	-11.031
_analogie	-11.0311
_sacrifier	-11.0313
_segur	-11.0314
_apparente	-11.0314
_greue	-11.0314
_richelieu	-11.0316
_condamnes	-11.0316
_conuersion	-11.0319
_instincts	-11.032
_horace	-11.0324
_gouuerne	-11.0331
_feconde	-11.0332
_inconuenient	-11.0336
_eclate	-11.0338
_separes	-11.0346
_persuader	-11.0347
_imperatrice	-11.0349
_etoffe	-11.0349
_publiee	-11.0353
iere	-11.0356
_teinte	-11.0357
_permettait	-11.0358
_orne	-11.0358
pe	-11.0363
_uirent	-11.0366
_uoler	-11.0373
_determinee	-11.0375
_ain	-11.0376
_rond	-11.0378
_obiection	-11.0378
_franchir	-11.0382
_precieuse	-11.0383
_bonhomme	-11.0384
_reueille	-11.0384
_eloges	-11.0386
_canot	-11.0386
_reception	-11.0387
_missionnaires	-11.039
_reprocher	-11.0393
_associations	-11.0395
_debat	-11.0397
_resurrection	-11.04
_normandie	-11.04
_iouait	-11.0401
_sq	-11.0403
_entendez	-11.0403
_auances	-11.0404
_ouuerts	-11.0408
_blaise	-11.0409
_montaigne	-11.0409
_demandez	-11.0409
_reuers	-11.0413
_gabriel	-11.0416
_aimes	-11.0419
_cruaute	-11.0421
_deliurer	-11.0425
_nait	-11.0429
_heritier	-11.043
mer	-11.0431
_impuissance	-11.0434
_isolement	-11.0437
_regulierement	-11.0437
_maintien	-11.0447
ze	-11.0447
_bateaux	-11.0452
_agents	-11.0452
_promener	-11.0453
_centaines	-11.0455
_conuersations	-11.0458
_neant	-11.0472
_exigences	-11.0476
_mat	-11.0478
_secondes	-11.0484
_ps	-11.0488
_demandai	-11.0488
_reclamer	-11.0489
eau	-11.0491
_supprimer	-11.0492
_uulgate	-11.0493
_chasseurs	-11.0495
_faict	-11.0497
_protecteur	-11.0497
_nietzsche	-11.0501
_ioyeuse	-11.0503
_agreables	-11.0503
_perspectiue	-11.0506
_expres	-11.0507
_pattes	-11.0508
_prouisions	-11.0509
_communique	-11.051
_moderation	-11.051
_nie	-11.0511
_electrique	-11.0515
_mary	-11.0518
_turquie	-11.0519
_occupent	-11.0519
_embarrasse	-11.0522
_cortege	-11.0523
_douloureuse	-11.0527
_essaya	-11.053
_passaient	-11.0534
_fauorables	-11.0535
_rideau	-11.0535
_surueillance	-11.0536
_sortis	-11.0539
_eloignes	-11.054
_melancolique	-11.054
_poing	-11.0544
_prudent	-11.0547
_soutient	-11.0547
_daudet	-11.055
_crus	-11.055
_post	-11.0552
_interessante	-11.0553
_demandant	-11.0554
_dou	-11.056
_loix	-11.0563
_mettez	-11.0564
ues	-11.0565
_kil	-11.0569
_apparences	-11.0571
_sade	-11.0574
_flandre	-11.0575
_courses	-11.0577
_xxu	-11.058
_matelots	-11.0588
_duel	-11.0592
ienne	-11.0592
_fleuues	-11.0593
_profite	-11.0593
_gracieux	-11.0596
_confier	-11.0599
_bouleuard	-11.0601
_suiuants	-11.0601
_germe	-11.0602
_riual	-11.0604
_stock	-11.0605
_apollon	-11.0606
_dresser	-11.0606
_sentant	-11.0611
_obtient	-11.0613
_degage	-11.0616
_forcer	-11.062
_cornes	-11.0622
_indent	-11.0625
_loire	-11.0627
_conclusions	-11.0631
_pomme	-11.0634
_paiens	-11.0635
art	-11.0637
_cleopatre	-11.0639
_intensite	-11.0639
_tribunaux	-11.0639
_lou	-11.064
_honteux	-11.064
_gouter	-11.0641
_impossibilite	-11.0644
_enseigner	-11.0654
th	-11.0657
ck	-11.0657
_muet	-11.0657
_dommage	-11.0659
_anna	-11.0662
_aimant	-11.0663
_muscles	-11.0669
_legeres	-11.0669
_signature	-11.067
_ecosse	-11.0674
_originalite	-11.0675
ten	-11.0676
_relatif	-11.0679
_connaissons	-11.0683
_caresses	-11.0685
_auertir	-11.0686
_determination	-11.0688
_fameuse	-11.0688
_allure	-11.0688
_hardi	-11.0691
_ioies	-11.0694
_consulte	-11.0695
_receuait	-11.07
_amuse	-11.0703
_doue	-11.0708
_mil	-11.0711
_demeurait	-11.0711
_bou	-11.0713
_cau	-11.0714
_depouille	-11.0716
_go	-11.0718
_anglaises	-11.0722
_eclater	-11.0728
_casse	-11.073
_exciter	-11.0731
_turc	-11.0734
_intelligent	-11.0739
_ressource	-11.074
_mises	-11.0744
_ke	-11.0746
_imprimerie	-11.0758
_surprendre	-11.0758
_ap	-11.076
ic	-11.0763
_nantes	-11.0765
_enuoyes	-11.0765
_garnison	-11.0765
_parente	-11.0772
_cendre	-11.0775
_tirant	-11.0777
_couler	-11.0779
id	-11.0781
_saurais	-11.0783
_demandes	-11.0784
_mecanisme	-11.0784
_cheuelure	-11.0784
_gilbert	-11.0787
_lumineux	-11.0787
_uaincus	-11.0789
_temoigne	-11.0789
_dura	-11.0791
_transports	-11.0792
tio	-11.0794
_succede	-11.0796
_misericorde	-11.0796
ay	-11.0796
_uacant	-11.0799
_barbarie	-11.08
_triple	-11.0802
_poli	-11.0803
_mathilde	-11.0805
_infortune	-11.0806
_theodore	-11.081
_debats	-11.0811
_scientifiques	-11.0812
_chateaubriand	-11.0813
_messire	-11.0814
per	-11.082
_ote	-11.0821
_composer	-11.0822
_charger	-11.0823
_sr	-11.0826
_musicien	-11.0832
_contrainte	-11.0833
_genereuse	-11.0834
_fermee	-11.0839
_hesite	-11.0842
_transforme	-11.0846
_formaient	-11.085
_orange	-11.085
_iob	-11.0855
_communion	-11.0856
_parcourir	-11.0858
_captiuite	-11.0858
_regulier	-11.0859
_realise	-11.0861
_theologiens	-11.0863
_arrondissement	-11.0864
_couuerture	-11.0864
_bancs	-11.0866
_pique	-11.0867
_coins	-11.0868
_repandu	-11.0872
_chaire	-11.0872
_souuerainete	-11.0873
_linge	-11.0873
_ligue	-11.0873
_intimite	-11.0875
qui	-11.0876
_am	-11.0876
_impulsion	-11.0882
_prestige	-11.0882
_anglo	-11.0886
_ius	-11.0887
_iulie	-11.0888
tant	-11.089
_planete	-11.0893
_concoit	-11.0893
_glaces	-11.0895
_four	-11.0897
_ueiller	-11.0899
_types	-11.0899
ance	-11.0906
_habitation	-11.091
_sonne	-11.0911
_hebreux	-11.0912
_rai	-11.0913
_agi	-11.0918
_silencieux	-11.092
_mourant	-11.0921
_gardien	-11.0922
_iniures	-11.0924
_paquet	-11.094
_document	-11.0941
_obiections	-11.0943
_surplus	-11.0943
_representants	-11.0946
_beurre	-11.0947
_reguliere	-11.0948
_brusque	-11.0952
_drap	-11.0954
_facons	-11.0955
_poison	-11.0956
_uertueux	-11.0956
_salons	-11.0963
_uiolemment	-11.0964
_pp	-11.0968
_puissants	-11.0979
_assises	-11.0979
_appetit	-11.098
_detresse	-11.0983
_sunt	-11.0985
_lucien	-11.0987
_william	-11.0988
_neuuieme	-11.0991
_douteux	-11.0991
_bulletin	-11.1007
_criant	-11.101
_laissons	-11.1011
_pretendent	-11.1014
_dispute	-11.1014
ff	-11.102
_ualait	-11.1022
_pommes	-11.1022
_tribune	-11.1023
_deuotion	-11.1026
_lorraine	-11.1026
_exemplaires	-11.103
_mr	-11.1033
_regardent	-11.1034
_cens	-11.1034
_presentes	-11.1035
_commander	-11.1039
_iaunes	-11.1042
_exterieures	-11.1044
_reduite	-11.1044
_completer	-11.1046
_outils	-11.1049
_adopter	-11.1051
_suppression	-11.1052
_baisse	-11.1056
_contempler	-11.1062
_conseille	-11.1063
_contenait	-11.1063
pa	-11.1063
_independante	-11.1064
_seras	-11.1066
_contraint	-11.1069
_sauter	-11.1071
_grauement	-11.1072
_walter	-11.1072
_empr	-11.1073
_procure	-11.1073
_sy	-11.1073
_reponds	-11.1074
_efficace	-11.1076
_intellectuel	-11.1081
_assit	-11.1084
_detourner	-11.1086
_sot	-11.1089
_infanterie	-11.109
_recoiuent	-11.1091
ina	-11.1097
_chemise	-11.1099
_perles	-11.11
_tige	-11.1101
let	-11.1108
_traduire	-11.1108
_resiste	-11.1112
_correction	-11.1115
_belge	-11.1115
_conquis	-11.1115
tu	-11.1116
_stendhal	-11.1117
_trous	-11.1118
_brune	-11.1119
_cire	-11.112
_obligations	-11.1123
_mouton	-11.1129
_economiques	-11.1129
_sentais	-11.1129
_maistre	-11.1131
_confus	-11.1131
_poursuiuit	-11.1131
_mesurer	-11.1133
_hache	-11.1143
_uisages	-11.1144
_net	-11.1145
_condamner	-11.1145
_christine	-11.1148
_ueuille	-11.1149
_susceptible	-11.1152
_decidement	-11.1156
_cendres	-11.1157
_parallele	-11.1159
_salue	-11.1159
_ecorce	-11.1161
_inuolontaire	-11.1171
_faciles	-11.1172
_prolonge	-11.1179
_hollandais	-11.1189
_legers	-11.119
_prouoque	-11.1192
_fabrication	-11.1199
_influences	-11.12
_quam	-11.12
_ferez	-11.1201
_salaire	-11.1204
_gaulois	-11.1204
_dan	-11.121
_signaler	-11.1212
_isle	-11.1212
_parlementaire	-11.1217
_quinzaine	-11.1217
_egoisme	-11.1218
_habitant	-11.1218
_epitre	-11.1226
_astronomie	-11.1227
_extension	-11.1227
_intendant	-11.1227
_frequentes	-11.1231
_tronc	-11.1231
_recourir	-11.1236
_neuue	-11.1241
_lhistoire	-11.1244
_indications	-11.1249
nn	-11.1249
_seruitude	-11.1254
_affreuse	-11.1259
_complaisance	-11.1263
_khan	-11.1263
don	-11.1264
mo	-11.1265
_suede	-11.1267
_choisit	-11.1269
_monumens	-11.1273
_smith	-11.1273
_serieuses	-11.1273
_peaux	-11.1278
_her	-11.1279
_collegues	-11.1281
_uolontes	-11.1282
_blonde	-11.1284
_ouuertes	-11.1288
_calculs	-11.1294
_suffisait	-11.13
_assistance	-11.13
_tentatiues	-11.1302
_aioutait	-11.1308
_glisser	-11.1309
_blame	-11.1309
_bismarck	-11.131
_bouteille	-11.131
_pensent	-11.1312
_quarts	-11.1315
_remplis	-11.1316
_republicain	-11.1316
_docteurs	-11.1321
_figurer	-11.1326
_sauoie	-11.1327
_inconnus	-11.1327
iii	-11.133
_hein	-11.1336
_pompe	-11.1342
_craignait	-11.1347
_arriuerent	-11.1351
_allume	-11.1353
_celuy	-11.1354
_utiliser	-11.1355
_splendeur	-11.1355
_sanctuaire	-11.1355
_cauerne	-11.1355
_therese	-11.1356
_pacha	-11.1357
_ep	-11.1362
_defiance	-11.1364
_mahomet	-11.1368
_abandonnee	-11.1371
_sculpture	-11.1374
_reproduire	-11.1374
_hachette	-11.1375
_corn	-11.1375
_craintes	-11.1377
_postes	-11.1386
_chasseur	-11.1388
_accuser	-11.1392
_appuyer	-11.1392
_femelle	-11.1393
_suzanne	-11.1393
_ecart	-11.1394
_blessures	-11.1395
_entieres	-11.1395
_aisance	-11.1398
_gui	-11.14
_iouit	-11.1404
_cessa	-11.1405
ray	-11.1406
_hume	-11.1407
_saintes	-11.141
_passionne	-11.1411
ad	-11.1411
_palestine	-11.1412
_respecte	-11.1415
_district	-11.1421
_calcaire	-11.1421
_ressemblait	-11.1421
_astre	-11.1422
_xxui	-11.1423
_recolte	-11.1424
_tut	-11.1425
ls	-11.1429
_fossiles	-11.143
_xxiu	-11.143
_abraham	-11.143
_loc	-11.143
roient	-11.1431
_annoncait	-11.1432
_commettre	-11.1432
_roux	-11.1433
_empreinte	-11.1433
_uaine	-11.1435
_rencontra	-11.1437
_immediate	-11.1441
_renan	-11.1441
_regnait	-11.1441
_engagement	-11.1448
_rappelait	-11.1452
_malice	-11.1453
_negociations	-11.1454
_batir	-11.1458
_pouce	-11.1458
_tabac	-11.1459
_ecoutait	-11.146
ante	-11.146
_confirme	-11.1462
_excuser	-11.1465
_rennes	-11.1467
_modestie	-11.1468
_tt	-11.1469
_deuiendra	-11.1472
_guy	-11.1473
_admirables	-11.1474
_ferons	-11.1475
_diane	-11.1482
_uir	-11.1483
_domaines	-11.1486
_repousser	-11.1486
_retenu	-11.1486
_bati	-11.1487
_felix	-11.1487
_residence	-11.1487
_uieillards	-11.1488
_gerard	-11.1489
_passerent	-11.1493
_algerie	-11.1493
_reunies	-11.1493
_roc	-11.1498
_bain	-11.1501
_class	-11.1502
_irene	-11.1502
_aimais	-11.1503
_sauaient	-11.1506
_outrage	-11.1508
_flatte	-11.1513
_coutumes	-11.1514
_identite	-11.1515
_gage	-11.1522
_comedies	-11.1523
_uases	-11.1523
za	-11.1524
_refuge	-11.1525
_clos	-11.1525
lu	-11.1528
_sourd	-11.1529
_act	-11.1539
_manifestation	-11.1544
_soupcons	-11.1549
_attachee	-11.1551
ty	-11.1552
_monastere	-11.1553
_redaction	-11.1554
_chercha	-11.1554
_impr	-11.1554
_bourbon	-11.1555
_precedentes	-11.1557
_uerres	-11.1557
_occidentale	-11.1558
_americaine	-11.1563
_preuention	-11.1563
_elite	-11.1566
_chi	-11.1572
_consideree	-11.1573
_uides	-11.1575
_tentes	-11.1578
_structure	-11.1581
_pria	-11.1582
_nationaux	-11.1583
_uoleur	-11.1586
_nen	-11.1588
_supplie	-11.1589
_rou	-11.1591
_faisais	-11.1596
_constitutionnel	-11.1597
nis	-11.1597
_liuree	-11.1597
_henriette	-11.1601
_deuore	-11.1603
_theatres	-11.1604
_lamour	-11.1604
_ouurait	-11.1607
_occupes	-11.1608
_officiel	-11.1609
_lisant	-11.1615
_eteint	-11.1616
_hospitalite	-11.1619
_farouche	-11.162
_constituer	-11.1624
_poussant	-11.1624
_obligee	-11.1625
_uend	-11.1626
_iehouah	-11.1629
_entendant	-11.1631
_pompee	-11.1631
_enchante	-11.1638
_perception	-11.1639
_socialisme	-11.1639
_marquee	-11.164
_moutons	-11.164
_raisonne	-11.1646
_pardonner	-11.1651
_eclatante	-11.1653
_degager	-11.1655
_ris	-11.1656
_posee	-11.1657
he	-11.1666
_perils	-11.1669
_remise	-11.1669
_auenement	-11.167
_durer	-11.1671
_lisait	-11.1672
_berger	-11.1672
_tarda	-11.1674
_poursuite	-11.1676
_farine	-11.1677
_forteresse	-11.1678
_publies	-11.168
_connoitre	-11.1683
_commentaires	-11.1684
_saintete	-11.1684
_amuser	-11.1688
_intrigue	-11.169
_paraissaient	-11.1696
_conquetes	-11.1699
_reconnaissant	-11.17
_constructions	-11.1705
_didot	-11.1706
_facheux	-11.1706
_detre	-11.1708
_poussee	-11.1709
_glisse	-11.1713
iers	-11.1715
_diminution	-11.1715
_sueur	-11.1716
_fluide	-11.1717
_louure	-11.1723
_anneau	-11.1727
_plate	-11.1728
rt	-11.173
_uictoires	-11.1731
_zone	-11.1732
_detache	-11.1734
_samedi	-11.1737
_donnerent	-11.1742
_communications	-11.1749
_prussiens	-11.1751
_saura	-11.1751
_manifestations	-11.1753
_desirait	-11.176
_magasin	-11.1765
_condamnation	-11.1765
_apparut	-11.1766
_bre	-11.1771
_supposons	-11.1773
_latitude	-11.1777
_lempire	-11.178
_chaux	-11.1786
_rattache	-11.179
_ien	-11.1794
_rat	-11.1797
_dettes	-11.1799
_traine	-11.1801
_benefices	-11.1801
_doutes	-11.1803
_cant	-11.1808
_tons	-11.1809
_plis	-11.181
_tit	-11.1817
_errant	-11.1818
_galant	-11.1822
_ignorant	-11.1824
_nationales	-11.1825
_dirigea	-11.1825
_seme	-11.1827
ias	-11.1827
_quittant	-11.1828
_soumise	-11.1831
_regretter	-11.1832
_baptiste	-11.1833
_guerrier	-11.1833
_colons	-11.1834
_ornement	-11.1838
_autorisation	-11.1843
_prou	-11.1851
_regner	-11.1852
_mortels	-11.1857
_mouche	-11.1857
_depeche	-11.1858
_ferdinand	-11.1861
_dauphin	-11.1861
_assaut	-11.1863
_flanc	-11.1868
_ouurant	-11.1869
_noces	-11.1871
_offense	-11.1874
_rosee	-11.1874
_ka	-11.1876
_canaux	-11.1881
_parfums	-11.1882
_semblant	-11.1886
_resolut	-11.1886
_respirer	-11.1893
_edifices	-11.1896
_representee	-11.1899
_aborder	-11.19
_ambitieux	-11.19
_criait	-11.1904
_uapeurs	-11.1904
_spectateurs	-11.1906
_souliers	-11.191
_ignorer	-11.1911
_cle	-11.1912
_amants	-11.1915
_fee	-11.192
_seuerite	-11.1922
_preiuge	-11.1923
_exiger	-11.1925
_accable	-11.1926
_prouoquer	-11.1928
_background	-11.1929
_despotisme	-11.1929
_materielle	-11.193
_pensais	-11.1932
_fouet	-11.1934
_pin	-11.1937
_fo	-11.1937
_consacrer	-11.1939
_reproduit	-11.1942
_sentence	-11.1942
_dissimuler	-11.1948
_tacite	-11.1957
_melanges	-11.1958
_hypotheses	-11.1962
_negre	-11.1969
_fleche	-11.1973
ung	-11.1973
_intrigues	-11.1977
_essentielle	-11.1979
_denrees	-11.1986
_pui	-11.1986
_gentil	-11.1987
_auancait	-11.199
_cachee	-11.1992
_isole	-11.1993
_allerent	-11.1996
_fragment	-11.1997
_quartiers	-11.2001
_difficilement	-11.2007
_mexique	-11.2008
_incertitude	-11.2011
_lisez	-11.2013
_madrid	-11.2018
_anarchie	-11.2018
_recente	-11.2019
_eprouuait	-11.2021
_possedent	-11.2023
_suffi	-11.203
_elus	-11.2032
_meriter	-11.2033
_elegante	-11.2034
_momens	-11.2039
_fers	-11.204
_taux	-11.2042
_criminel	-11.2043
_paue	-11.2043
_pecheur	-11.2046
_amas	-11.2051
_efforce	-11.2054
_electricite	-11.2058
ble	-11.2067
_ualmore	-11.2068
_comporte	-11.2072
_proclame	-11.2074
_diuersite	-11.2074
_moscou	-11.2077
fa	-11.2081
_communement	-11.2084
_hebdomadaires	-11.2087
_massacre	-11.2089
_sinistre	-11.2091
_repand	-11.2092
_maudit	-11.2092
_lasse	-11.2093
_deserte	-11.2094
_ondine	-11.2095
_tuileries	-11.21
_positif	-11.2101
_moralite	-11.2105
_reconnais	-11.2107
_morne	-11.2107
_pair	-11.2109
_erudition	-11.2109
_bottes	-11.2109
_funebre	-11.2111
ret	-11.2114
_circulaire	-11.2116
_entouree	-11.2117
_ingenieur	-11.2121
_matinee	-11.2125
_suffire	-11.2126
_crane	-11.2128
_tasse	-11.2129
_secte	-11.213
_finalement	-11.2131
_uisions	-11.2133
_gal	-11.2137
_indulgence	-11.2142
_eclairee	-11.2142
_brille	-11.2142
_catalogue	-11.2142
ini	-11.2144
_deuoit	-11.2145
_chaussee	-11.2146
_occupations	-11.215
lie	-11.215
_deuoue	-11.2154
_cadaures	-11.2157
_causa	-11.2162
_ietait	-11.2162
nce	-11.2163
_forma	-11.2165
_perpendiculaire	-11.2168
_toulouse	-11.2168
_ib	-11.2169
_trouuerez	-11.217
_mande	-11.217
iou	-11.2171
_lacs	-11.2172
_reprise	-11.2173
aire	-11.2174
_sourcils	-11.2177
_etudiant	-11.2178
_naquit	-11.2178
_conquerir	-11.2178
_compromis	-11.2179
_gaule	-11.2181
_definir	-11.2185
_promet	-11.2186
_aille	-11.2187
_passees	-11.2188
_uigouroux	-11.2188
_ingenieux	-11.2188
_quae	-11.2192
_realisation	-11.2192
ques	-11.2196
_rupture	-11.2199
_theophile	-11.2199
_meridionale	-11.2207
_prouisoire	-11.2209
_distinctes	-11.2212
_fumes	-11.2213
_discretion	-11.2218
_effectiuement	-11.222
_batiments	-11.222
_querelles	-11.2221
_legerete	-11.2221
_espagnole	-11.2222
lis	-11.2222
_sacrement	-11.2223
_bacon	-11.2224
_successeurs	-11.2225
_za	-11.2228
_heureuses	-11.2233
_ayons	-11.2234
_adressa	-11.2237
_deliurance	-11.2239
_inuincible	-11.2239
_caprices	-11.2239
_edmond	-11.224
_modifie	-11.2242
_bah	-11.2244
_couple	-11.2244
_ualent	-11.2245
_scott	-11.2249
_didier	-11.2249
_insensible	-11.225
_socialistes	-11.225
_couchant	-11.2252
_brillantes	-11.2257
_eternellement	-11.2259
_desbordes	-11.2259
_musiciens	-11.2263
_remercier	-11.2267
_ker	-11.2269
_preparatifs	-11.227
_entendement	-11.2272
_sauans	-11.2274
_rom	-11.2277
_emprunt	-11.2279
_tam	-11.2283
_filet	-11.2287
_tumulte	-11.229
_robes	-11.2298
_importants	-11.2299
_menton	-11.2302
_eclatant	-11.2302
_iolies	-11.2303
_promenades	-11.2309
_mediterranee	-11.2309
_iugements	-11.2311
_reuni	-11.2313
_debarrasser	-11.2319
_formait	-11.2323
_contemporain	-11.2326
uis	-11.2328
_talens	-11.2331
_michelet	-11.2334
_ol	-11.2338
_manoeuure	-11.2339
aud	-11.2341
_soupcon	-11.2341
_entrailles	-11.2341
_portugais	-11.2342
_etroites	-11.2343
_materialisme	-11.2351
_collier	-11.2353
_celestes	-11.2353
_cultiue	-11.2355
_galop	-11.2356
_rem	-11.2356
_souleuer	-11.2362
_paginet	-11.2362
_humilite	-11.2362
_trouuez	-11.2366
_ridicules	-11.2369
_rt	-11.237
_rencontrent	-11.2371
_batailles	-11.2371
_parisienne	-11.2373
_mor	-11.2374
_lun	-11.2375
_cos	-11.2375
_procedure	-11.2376
ct	-11.2378
cha	-11.2382
_dechire	-11.2385
_rends	-11.2386
isse	-11.2387
_uraies	-11.2396
_inegalite	-11.2397
_incontestable	-11.24
_gouuernements	-11.24
_reponses	-11.2401
_compassion	-11.2403
_interesser	-11.2407
_uaillant	-11.241
_message	-11.241
_champagne	-11.2413
_marthe	-11.2413
_gardait	-11.2416
_iniure	-11.2419
_irlande	-11.2423
_danser	-11.2424
_prenaient	-11.2424
_ponts	-11.2425
_officielle	-11.2426
_station	-11.2427
_signer	-11.2429
_proceder	-11.2429
fi	-11.2431
_pole	-11.2432
_preoccupe	-11.2433
_positiue	-11.2435
_eloignee	-11.2437
_arbitre	-11.2439
_embouchure	-11.2439
_agricole	-11.2439
_approuue	-11.2439
_appliquees	-11.2439
_originale	-11.2443
_nai	-11.2443
_habitue	-11.2448
_canne	-11.245
_hotes	-11.2458
_balle	-11.2458
_plaisanterie	-11.246
_durable	-11.2464
_disparait	-11.2464
_tomes	-11.2466
_ennemie	-11.2467
_can	-11.2472
_manie	-11.2473
_arguments	-11.2475
are	-11.2477
_iustifie	-11.2477
_pourrai	-11.2478
_efface	-11.248
_secretes	-11.2484
tor	-11.2487
_ff	-11.249
_employee	-11.2494
_assassin	-11.2495
_traitre	-11.2496
hi	-11.2497
_restaient	-11.25
tin	-11.2501
_releua	-11.2502
ana	-11.2502
_arriuera	-11.2505
_cecile	-11.2506
_dickens	-11.2506
_super	-11.2507
_pline	-11.2509
_ga	-11.2517
_fiancee	-11.2519
_correspond	-11.252
_extremes	-11.252
_pauline	-11.252
_germanique	-11.2522
_conclu	-11.2523
_dicte	-11.2526
ul	-11.2527
_unir	-11.2527
_uerts	-11.2527
_effraye	-11.253
_dissolution	-11.2533
_menager	-11.2536
_gouuernemens	-11.2538
_babylone	-11.2539
_conferences	-11.2539
_chretiennes	-11.2546
_ein	-11.2547
_craignant	-11.2548
iam	-11.2551
_constantin	-11.2551
_incomparable	-11.2554
_demons	-11.2559
_soustraire	-11.2559
_fauori	-11.2565
_reueiller	-11.2566
rions	-11.2568
_charlemagne	-11.2569
ga	-11.2572
uen	-11.2573
_obseruateur	-11.2575
_uache	-11.2577
_luther	-11.2579
_darwin	-11.2579
_eclats	-11.2582
_dort	-11.2583
_rites	-11.2584
_liqueur	-11.2584
_dautres	-11.2587
_anno	-11.2589
_placees	-11.2589
_uoyaient	-11.2594
_organiser	-11.2596
_suffisant	-11.2597
_zo	-11.26
_uenerable	-11.2606
_infame	-11.2607
_poignee	-11.2608
den	-11.2611
her	-11.2611
_cymr	-11.2611
_cu	-11.2611
riez	-11.2611
_republicains	-11.2612
_paysages	-11.2613
_uouloit	-11.2622
_produisit	-11.2622
_pri	-11.2622
_brigands	-11.2623
_censure	-11.2625
_penitence	-11.2628
_leuee	-11.263
_proposa	-11.2634
_cellule	-11.2638
_produite	-11.2641
if	-11.2644
_reins	-11.2646
_tremble	-11.2646
_penche	-11.265
_muette	-11.2651
_mirbeau	-11.2653
_supprime	-11.2656
_nette	-11.2656
_gar	-11.2657
_poil	-11.266
_file	-11.2661
_suiu	-11.2666
_apparaitre	-11.2669
_libraire	-11.267
ha	-11.2678
_naufrage	-11.2681
_fardeau	-11.2685
_xuie	-11.2685
_apportait	-11.2687
_substituer	-11.2687
_preuu	-11.2688
_relache	-11.2693
_absorbe	-11.2693
_lucie	-11.2701
_sauraient	-11.2701
_douzaine	-11.2702
_legislatif	-11.2713
_soyons	-11.2718
ssait	-11.2719
_nourrit	-11.2723
_celtique	-11.2724
_filets	-11.2724
_nuance	-11.2726
_inferieurs	-11.2727
_parurent	-11.2731
_recommencer	-11.2732
_sincerement	-11.2736
_danube	-11.2738
_cara	-11.2741
_engagea	-11.2742
_hardiesse	-11.2745
_mechants	-11.2748
_osait	-11.2748
_croyaient	-11.275
_strasbourg	-11.2751
_reduits	-11.2752
_eteindre	-11.2752
ik	-11.2754
uses	-11.2754
_cocher	-11.2754
uel	-11.2756
_paupieres	-11.2764
_brouillard	-11.2765
_sabre	-11.2768
_laissee	-11.2768
_gracieuse	-11.2771
_aut	-11.2771
_infinite	-11.2776
_multiplier	-11.2776
_regardaient	-11.2776
_uicaire	-11.2777
_arrangement	-11.278
_physiologie	-11.2781
_theme	-11.2785
_associe	-11.2785
_inconnues	-11.2786
_respectable	-11.2789
_poignard	-11.2791
uo	-11.2791
_grille	-11.2792
_accroitre	-11.2792
ba	-11.2793
_disposes	-11.2797
our	-11.2799
_coq	-11.28
_sp	-11.2802
_esperait	-11.2803
_catastrophe	-11.2809
_plaie	-11.281
ites	-11.2811
_desagreable	-11.2819
_raui	-11.282
_habitent	-11.2825
_scrupule	-11.2828
_disoit	-11.283
_organisme	-11.2831
_franche	-11.2833
_interroge	-11.2833
_marcel	-11.2833
_ieudi	-11.2834
_comprenez	-11.2835
_songes	-11.2835
_loups	-11.2838
ees	-11.2838
_zarathoustra	-11.2846
_xxx	-11.2847
_caue	-11.2849
_entendent	-11.2852
_louanges	-11.2852
_nommes	-11.2853
_approchant	-11.2858
_admirablement	-11.2858
_sentent	-11.2859
_faubourg	-11.2861
_uiolon	-11.2861
_crete	-11.2863
_boheme	-11.2864
_independant	-11.2865
_seue	-11.2865
_arretes	-11.2867
_chenier	-11.2868
_num	-11.2868
_biere	-11.2868
_commencerent	-11.287
_comp	-11.2872
_trembler	-11.2873
_uainqueurs	-11.2874
_meritent	-11.2877
elle	-11.2877
_aperceuait	-11.2878
_respire	-11.2879
_compromettre	-11.2879
_peste	-11.2879
teur	-11.288
_saute	-11.2881
_attendaient	-11.2882
ya	-11.2883
_prouuent	-11.2883
_das	-11.2884
_fondre	-11.2886
_concessions	-11.2886
_sitot	-11.2887
_portugal	-11.2889
_brebis	-11.2889
_prime	-11.2894
_pertes	-11.2895
_nuire	-11.2899
_debauche	-11.2899
_allai	-11.2901
_lancer	-11.2902
_forcee	-11.2905
_agens	-11.2906
iue	-11.2906
_etoffes	-11.2906
_exemplaire	-11.2907
rs	-11.2907
_luxembourg	-11.2911
_uendredi	-11.2913
_promit	-11.2915
_genes	-11.2917
_triompher	-11.2917
_rougir	-11.2919
_coquilles	-11.292
_accomplissement	-11.2922
_cetait	-11.2923
_club	-11.2932
_lemerre	-11.2932
_iudiciaire	-11.294
_oeuf	-11.294
_marty	-11.294
_tissu	-11.2943
_not	-11.2943
_annonca	-11.2944
ette	-11.2947
_conde	-11.2948
_mie	-11.2949
_feuillage	-11.2951
_doiue	-11.2951
_echec	-11.2953
_toiles	-11.2961
_speculation	-11.2962
_feminin	-11.2963
_gentilshommes	-11.2965
_decisions	-11.2969
_fixee	-11.2972
_prouenant	-11.2976
_insu	-11.2979
_arretee	-11.298
_rio	-11.2981
_merites	-11.2981
ger	-11.2984
_legislateur	-11.2984
_architecte	-11.2984
_prenne	-11.2987
_reproduction	-11.2995
_dauphine	-11.2995
_lanterne	-11.2996
_transformer	-11.3004
_bourreau	-11.301
_calmer	-11.3014
nier	-11.3015
_appuye	-11.3018
_elegant	-11.3018
_plaint	-11.3021
_anterieure	-11.3022
_coupes	-11.3025
_tendant	-11.3029
_ualentin	-11.3032
_maieure	-11.3034
_legion	-11.3037
_cruellement	-11.3038
_remedes	-11.3038
_soupe	-11.3042
_garantir	-11.3044
der	-11.3044
_faueurs	-11.3045
sch	-11.3047
_grade	-11.3048
_anglois	-11.3049
_reseau	-11.3052
lt	-11.3058
_mirabeau	-11.3064
con	-11.3069
_habituelle	-11.3069
_quo	-11.307
_beni	-11.3071
_uierges	-11.3074
_antoinette	-11.3076
_dubois	-11.3083
_quasi	-11.3083
_secondaire	-11.3084
_mousse	-11.3086
_uifs	-11.3087
tt	-11.3088
_tigre	-11.3095
_abbadie	-11.3097
_michaud	-11.3097
_orientales	-11.3097
_bride	-11.3097
_barres	-11.3097
_geant	-11.3098
_abattre	-11.3099
_metiers	-11.3103
_categorie	-11.3105
_uariation	-11.3105
_gue	-11.3108
_pleinement	-11.3111
mm	-11.3111
_temoigner	-11.3114
_flatter	-11.3115
_sain	-11.3116
_nomination	-11.3117
_tentation	-11.3118
_messager	-11.3121
_positions	-11.3122
_attendent	-11.3124
_selle	-11.3125
_ub	-11.3125
_sacrements	-11.3126
_democratique	-11.3127
_maritime	-11.3128
_empare	-11.313
_musulmans	-11.3131
_reuetu	-11.3132
_subsiste	-11.3134
_exterieurs	-11.3134
_tristement	-11.3144
_faces	-11.3147
_etroitement	-11.3149
_decrets	-11.315
ser	-11.3152
_rabelais	-11.3152
_rendra	-11.3157
_conduits	-11.3158
_symptomes	-11.3158
_rencontres	-11.3159
_couuertes	-11.3162
ica	-11.3164
une	-11.3166
_exposes	-11.3168
_uolontairement	-11.3168
_redoute	-11.3171
_colle	-11.3173
_entrepris	-11.3173
_prouence	-11.3175
_deuinrent	-11.3175
_couronnes	-11.3178
nie	-11.3179
bi	-11.3181
_notres	-11.3182
_frayeur	-11.3184
_egare	-11.3185
_bot	-11.3185
_ignorait	-11.3186
_ecris	-11.3187
_ecume	-11.3188
_trouuais	-11.3191
ino	-11.3191
_souris	-11.3199
_uictoria	-11.3201
_iustesse	-11.3202
_dot	-11.3209
_ciuiles	-11.3209
_tendit	-11.3216
_attentif	-11.3217
_froidement	-11.3218
ah	-11.3218
_destination	-11.3221
_dante	-11.3223
_entiers	-11.3224
_renomme	-11.3226
_oe	-11.3227
_liberaux	-11.3231
_entente	-11.3233
_hausse	-11.3234
_tendent	-11.3235
_preoccupation	-11.3239
_amer	-11.324
_uiolentes	-11.3243
_acquise	-11.3246
_suffrage	-11.3251
_bourgeoise	-11.3251
_robespierre	-11.3253
_laueaux	-11.3254
_sentis	-11.3259
oe	-11.3259
_pourrions	-11.3259
_diamant	-11.3262
_arrange	-11.3264
_ancre	-11.3266
rat	-11.3267
_posa	-11.3268
_banques	-11.3277
_considerant	-11.3289
_preceptes	-11.3289
_contribuer	-11.3289
_sic	-11.3289
_inquieter	-11.3292
_recule	-11.3292
_accompagnee	-11.3292
_excessiue	-11.3292
_grossier	-11.3296
_electeurs	-11.3298
_planetes	-11.3303
_conceptions	-11.3305
_baudelaire	-11.3309
_console	-11.3309
_opposee	-11.3309
_courait	-11.331
_attendez	-11.3312
_ouuertement	-11.3312
_malot	-11.3318
_courants	-11.3321
ft	-11.3321
_laissaient	-11.3322
_solidite	-11.3324
_mathematique	-11.333
_inuitation	-11.333
_symboles	-11.3334
_etablissements	-11.3337
lier	-11.3337
_flute	-11.3338
_auto	-11.334
_classiques	-11.3344
_sensiblement	-11.3347
cu	-11.3348
_restant	-11.335
_pales	-11.335
_chagrins	-11.3352
_fondateur	-11.3354
_uoudrez	-11.3354
_uaines	-11.3356
_emue	-11.3357
_malaise	-11.3358
_gouttes	-11.336
_suiuis	-11.3362
_anc	-11.3364
_cop	-11.3365
_nues	-11.3365
_uegetaux	-11.3366
_plaisait	-11.3366
_sommets	-11.3375
_bataillon	-11.3376
_aueugles	-11.3376
_incline	-11.3376
_lucrece	-11.3377
_resignation	-11.3377
_apporta	-11.3381
_exagere	-11.3381
_abondante	-11.3382
_pareillement	-11.3382
_caresse	-11.3382
_assuree	-11.3382
_inquietudes	-11.3383
_rendaient	-11.3387
_artagnan	-11.3388
_familier	-11.339
_polonais	-11.3392
_amies	-11.3393
_prodigue	-11.3395
_rhetorique	-11.34
_ateliers	-11.3401
_soupconner	-11.3401
_tremblant	-11.3403
_secondaires	-11.3404
_recueilli	-11.3405
_occupa	-11.3406
_compositions	-11.3407
_reflechi	-11.3409
_million	-11.3411
_organise	-11.3412
_ferais	-11.3412
_embrassa	-11.3413
_ras	-11.3419
_tribut	-11.342
_uenues	-11.3421
_escorte	-11.3423
_fines	-11.3424
_repetait	-11.3426
_identique	-11.3429
_tendrement	-11.343
_corrige	-11.3431
cr	-11.3438
_tienne	-11.344
tique	-11.3441
_tombant	-11.3448
_corne	-11.3448
po	-11.3449
_rompu	-11.3449
_demeures	-11.3451
od	-11.3453
_absent	-11.3453
_lier	-11.3454
_israelites	-11.3454
_deuraient	-11.3455
_esquisse	-11.3455
_betail	-11.3457
_personnelles	-11.3459
_salles	-11.3463
_epousa	-11.3463
_fleches	-11.3466
_renuerser	-11.3466
_sourde	-11.3467
_audience	-11.3467
_arche	-11.3468
_apparemment	-11.3468
_robuste	-11.3469
_frequente	-11.3471
_cage	-11.3473
_libertes	-11.3475
_effroyable	-11.3475
_serra	-11.3476
_chantant	-11.3479
_lisle	-11.3484
_uendu	-11.3486
_direct	-11.3487
_euidente	-11.349
_contemplation	-11.3491
_durent	-11.3491
_batimens	-11.3492
_concilier	-11.3495
_ueuillez	-11.3496
ist	-11.3496
_gou	-11.3496
_iuoire	-11.3497
_resolutions	-11.3499
_prosper	-11.3502
_wikimedia	-11.3503
_delicates	-11.3506
_etouffe	-11.3507
ian	-11.3507
_emplois	-11.3511
_mouches	-11.3512
_prendra	-11.3515
_croirait	-11.3517
_desole	-11.352
_publiquement	-11.352
_martyre	-11.3521
_briller	-11.3523
_confederation	-11.3525
_nosup	-11.3529
_essor	-11.3532
_repondent	-11.3534
_satan	-11.3534
_installe	-11.3536
_autels	-11.3536
_ante	-11.3537
_contra	-11.3539
_iam	-11.354
_torture	-11.3543
_reflet	-11.3544
_calomnie	-11.3545
_splendide	-11.3545
_reieter	-11.3546
_adrien	-11.3548
_attrait	-11.3549
_equipe	-11.3553
_donnerait	-11.3557
_diuines	-11.356
_commerciale	-11.3562
_naiue	-11.3565
_ko	-11.3566
_ecrase	-11.3568
nte	-11.3568
_accepta	-11.3571
_hesitation	-11.3572
_dependance	-11.3572
_duplessis	-11.3572
_prompt	-11.3572
_entendis	-11.3573
_eueiller	-11.3574
_incroyable	-11.3583
_garda	-11.3587
_ouurieres	-11.3588
_robin	-11.3589
_gu	-11.3591
_tiree	-11.3592
_atheniens	-11.3593
_trauersee	-11.3594
_reculer	-11.3594
_mouchoir	-11.3595
_pli	-11.3596
_tristan	-11.3597
_comptant	-11.3597
_cercles	-11.3601
_uante	-11.3602
_uerue	-11.3604
_mineure	-11.3605
_epouuantable	-11.3607
_commissaires	-11.361
_poussait	-11.3611
_inuerse	-11.3616
_alsace	-11.3619
_supposant	-11.3619
_souhaiter	-11.362
_zinc	-11.3623
_obeit	-11.3623
ig	-11.3625
_deplorable	-11.3627
_socialiste	-11.3631
_rideaux	-11.3631
ru	-11.3632
_moyennant	-11.3632
_sergent	-11.3633
_comprise	-11.3644
net	-11.3645
_letat	-11.3649
_incessamment	-11.3654
_rachilde	-11.3654
_purs	-11.3657
_gres	-11.3658
_reu	-11.3661
_festin	-11.3664
_groulx	-11.3665
_instrumens	-11.3665
_octaue	-11.3665
_uecut	-11.3666
_representait	-11.3666
_naissent	-11.3666
_mardi	-11.367
_faure	-11.3673
_xuiiie	-11.3674
_rentes	-11.3674
_agrement	-11.3677
_catholicisme	-11.3677
_profonds	-11.3679
ttes	-11.3681
_feraient	-11.3686
_auertissement	-11.3687
_saluer	-11.3689
_preparait	-11.369
_tarde	-11.369
_tombeaux	-11.3693
_hautement	-11.3695
_deposer	-11.3695
_mandat	-11.3698
_faciliter	-11.3699
_maximum	-11.3701
_respiration	-11.3701
_auenue	-11.3702
_marne	-11.3704
_etendait	-11.3707
rois	-11.3708
_sommaire	-11.3709
_hesiter	-11.371
_frisson	-11.3712
_milord	-11.3712
_agonie	-11.3712
_patriarche	-11.3712
_presqu	-11.3714
_pleurant	-11.3716
_gain	-11.3716
_osa	-11.3717
_opposes	-11.3717
_sam	-11.3718
_aspirations	-11.3719
_rapportent	-11.3723
_tran	-11.3723
_graines	-11.3723
_speciales	-11.3723
_dormait	-11.3724
_cherie	-11.3727
_honorer	-11.3731
_repandue	-11.3731
_foy	-11.3734
_surueiller	-11.3735
_saisons	-11.3736
_lanessan	-11.3736
_cil	-11.3736
_plut	-11.3738
_brillants	-11.3738
_bayle	-11.3738
_caluin	-11.3739
_lieue	-11.374
_romaines	-11.374
_uerser	-11.3741
_ethiopie	-11.3742
_subsister	-11.3742
_chimique	-11.3744
_aimables	-11.3745
_profondeurs	-11.3746
_consomme	-11.3746
_humidite	-11.3748
_appartenir	-11.3748
_precedemment	-11.3748
ries	-11.3748
_han	-11.3753
_ste	-11.3753
_cabane	-11.3754
_rapprochement	-11.3754
_reunions	-11.3759
_modification	-11.376
_grauure	-11.376
_reduction	-11.376
_sceau	-11.3764
_celebrer	-11.3767
_insiste	-11.377
_ambassade	-11.377
_mouuoir	-11.3771
_nourrice	-11.3773
_mortelle	-11.3773
_tir	-11.3773
_perdent	-11.3777
_salaires	-11.3777
_sui	-11.3778
par	-11.3781
_presentant	-11.3782
_wallon	-11.3783
_fauoriser	-11.3784
_coree	-11.3785
_treue	-11.3786
_normale	-11.3787
_raconta	-11.3787
_pretendait	-11.3789
_songez	-11.3791
_trauaillent	-11.3796
cher	-11.3798
_paie	-11.3798
_local	-11.38
_riz	-11.3806
_fatalite	-11.3808
_fees	-11.381
_soupirs	-11.3816
_habiter	-11.3818
_depots	-11.3819
_toits	-11.3819
_conducteur	-11.3819
_rappele	-11.3819
_effacer	-11.382
_bureaux	-11.3821
_recettes	-11.3824
_tranche	-11.3826
_ueu	-11.3826
_shakspeare	-11.3831
_appuie	-11.3833
_attentiuement	-11.3833
_necessites	-11.3852
_entourent	-11.3854
_bizarres	-11.3856
_piege	-11.3857
non	-11.3858
_iuridiction	-11.3859
_fiel	-11.3859
_uulg	-11.386
_preuenu	-11.386
_saine	-11.3864
_preside	-11.3865
_souuient	-11.3866
_demission	-11.3866
_balles	-11.3867
_prolonger	-11.3867
_sterile	-11.3867
_regent	-11.3868
_grele	-11.3878
_ea	-11.3882
_renouueler	-11.3887
_prisons	-11.3887
_scribe	-11.3891
_girardin	-11.3891
_distances	-11.3891
_leonard	-11.3892
_suspendu	-11.3896
_puni	-11.3898
_finie	-11.39
_facade	-11.3901
_luzel	-11.3903
_serions	-11.3904
_tremblante	-11.3906
_enfonce	-11.3907
_continu	-11.3909
_riait	-11.391
_acteur	-11.391
_iahue	-11.3914
_conuenait	-11.3914
_accoutume	-11.3915
_bastiat	-11.3915
_abstraction	-11.3915
_benediction	-11.392
_gate	-11.392
_habitait	-11.3921
_explosion	-11.3927
_locales	-11.3928
_tires	-11.3934
_parcouru	-11.3937
of	-11.3939
_crepuscule	-11.394
tra	-11.394
era	-11.3949
_clemence	-11.395
_consentir	-11.395
_decouurit	-11.395
_interroger	-11.3954
_grosseur	-11.3957
_appliquee	-11.396
_musicale	-11.396
_paternelle	-11.3961
_altesse	-11.3963
_brulant	-11.3969
_delicieuse	-11.3972
_ialouse	-11.3973
_suc	-11.3974
_inspecteur	-11.3976
_continuation	-11.3976
_durete	-11.3977
_ph	-11.3979
ys	-11.3979
_dominer	-11.3984
_leblanc	-11.3984
ges	-11.3986
_bibliographie	-11.3986
_parlaient	-11.3987
_deriue	-11.3989
_parois	-11.3989
_sonner	-11.399
uu	-11.3991
_om	-11.3991
_allie	-11.3993
_feroces	-11.3994
_turin	-11.3994
_comm	-11.3995
_confreres	-11.3996
_refaire	-11.3999
_reconnue	-11.4
_frappes	-11.4
_lazare	-11.4009
_pluies	-11.4009
_prenons	-11.4011
_fertile	-11.4012
_sonore	-11.4013
_dixieme	-11.4013
_matth	-11.4013
ari	-11.4013
_humbles	-11.4015
_reuerie	-11.4016
_iuiue	-11.4016
_pourrez	-11.4018
_halte	-11.4019
_xxuiii	-11.4019
_cloches	-11.402
ments	-11.4021
_interuenir	-11.4023
_eliane	-11.4023
_detroit	-11.4023
_sacrifie	-11.4024
_roues	-11.4024
_lyrique	-11.4024
_metallique	-11.4024
_prompte	-11.4027
_amsterdam	-11.4035
_inferieures	-11.4035
ile	-11.4036
_eclaires	-11.4036
_soucis	-11.4037
_placa	-11.4039
_allees	-11.4039
_hater	-11.4045
_seueres	-11.4045
_tua	-11.4047
las	-11.4048
ol	-11.4054
_males	-11.4057
ho	-11.4058
_defenseurs	-11.406
_nec	-11.4061
_moule	-11.4061
_administratif	-11.4061
_genies	-11.4064
_manoeuures	-11.4066
mon	-11.4069
ides	-11.407
_soupconne	-11.4071
_martineau	-11.4072
_plafond	-11.4073
_superstition	-11.4073
_comparee	-11.4084
_naif	-11.4087
_poursuiui	-11.409
_armand	-11.4091
_separee	-11.4093
_sauante	-11.4095
mann	-11.4097
_bossuet	-11.4097
_insulte	-11.4097
_exploits	-11.4099
eurs	-11.4099
_uocation	-11.411
_auantageux	-11.411
_artistique	-11.411
_accomplie	-11.4112
_informations	-11.4114
_chantait	-11.4118
_tenus	-11.4119
_soutenue	-11.4119
_labbe	-11.4119
_empara	-11.4119
_dogmes	-11.4119
_bains	-11.4122
_legislatiue	-11.4122
_respectueuse	-11.4123
_royaumes	-11.4125
_mentionne	-11.4126
_sanglots	-11.4126
_nourri	-11.4129
_ecritures	-11.4129
_redouter	-11.413
_duche	-11.4132
_prodigieux	-11.4133
_repugnance	-11.4135
_alice	-11.4135
_fermier	-11.4138
_tirait	-11.4144
_courtes	-11.4144
_glaiue	-11.4147
_noeud	-11.4147
_descendait	-11.4149
_onde	-11.415
_replique	-11.4152
_croissant	-11.4153
_defini	-11.4155
_glorieuse	-11.4156
_geneuieue	-11.4157
_cristal	-11.4158
_goute	-11.4159
ines	-11.4163
ye	-11.4164
_uenais	-11.4168
_greues	-11.4178
mus	-11.418
_prodigieuse	-11.4181
_auiourdhui	-11.4182
_perpetuelle	-11.4183
_eclata	-11.4187
_distingues	-11.4189
_reueler	-11.4189
_plai	-11.4189
_ouuriere	-11.419
_rebelles	-11.419
_arr	-11.4192
_tambour	-11.4195
_paralleles	-11.4196
_auras	-11.4197
_rappelant	-11.4198
_sin	-11.4199
_lits	-11.4199
_quune	-11.4202
_multiples	-11.4202
_trempe	-11.4202
_aioutant	-11.4202
_etouffer	-11.4202
_successiues	-11.4206
_biioux	-11.4207
_trauaillait	-11.4208
_ualets	-11.4209
_ietee	-11.4215
_extraits	-11.4217
_aperceuant	-11.4219
_apparaissent	-11.4219
_tournee	-11.4219
_solennel	-11.422
_rade	-11.422
_prairie	-11.4221
_gaite	-11.4224
_cerf	-11.4225
_inutilement	-11.4225
ste	-11.4225
_repartit	-11.423
_cui	-11.4231
_altere	-11.4233
ssant	-11.4235
_scrupules	-11.4236
_commencant	-11.4237
_pele	-11.4237
nne	-11.4238
_industrielle	-11.4239
_formees	-11.424
_seneque	-11.4244
_contredit	-11.4244
_garanties	-11.4249
_suites	-11.4251
_precedents	-11.4253
_diplomatie	-11.4257
_uolontaires	-11.4257
_ualentine	-11.4259
ani	-11.426
_promene	-11.4263
_serif	-11.4268
_auerti	-11.4268
_fui	-11.4268
_anatomie	-11.4269
_imite	-11.427
_thibet	-11.427
_paresse	-11.4271
_magie	-11.4272
_cellules	-11.4274
_aliments	-11.4276
_derober	-11.4276
_mercier	-11.4276
pi	-11.4277
_banquet	-11.4279
_ranger	-11.428
_fortunes	-11.4282
_rite	-11.4284
_uacances	-11.4286
_reconnus	-11.4286
_idole	-11.4287
_conuentions	-11.4288
_uisiblement	-11.4288
_renuoyer	-11.4291
_plaque	-11.4292
_abeilles	-11.4292
_chimiques	-11.4293
_antonio	-11.4294
_solennelle	-11.4294
_unie	-11.4295
_primaire	-11.4296
_afflige	-11.4297
_auise	-11.4298
ach	-11.4299
_maree	-11.4303
_heretiques	-11.4304
oi	-11.4305
_consacree	-11.4306
_priues	-11.4306
_alain	-11.4312
cs	-11.4316
_parisiens	-11.4316
_beniamin	-11.4318
_pyrenees	-11.4318
_tartarie	-11.4318
_cachait	-11.4321
_fidelement	-11.4323
_dabord	-11.4325
_lange	-11.4328
_bresil	-11.4329
_magasins	-11.4329
_apre	-11.433
_supposition	-11.4334
_suiuirent	-11.4337
_netait	-11.4338
_pais	-11.4343
_conuiues	-11.4343
_labeur	-11.4347
_iouissances	-11.4352
_amende	-11.4354
_systematique	-11.4359
lia	-11.4363
_pesant	-11.4367
_disparition	-11.4368
_canadien	-11.437
_preoccupations	-11.4371
_centres	-11.4371
_negliger	-11.4373
_saxe	-11.4373
_tacher	-11.4375
_concession	-11.4381
_moque	-11.4383
_bles	-11.4384
_tournure	-11.4384
_saisissant	-11.4388
_engendre	-11.4388
_damas	-11.439
_emplacement	-11.4393
_situations	-11.4394
_ser	-11.4396
_banquier	-11.4397
_chateaux	-11.4399
_ist	-11.4399
_grossiere	-11.44
_etablies	-11.4402
_songeant	-11.4402
_amena	-11.4403
_say	-11.4404
_boucher	-11.4404
_independamment	-11.4406
_offrant	-11.4406
_totalite	-11.4408
_uogue	-11.441
_magique	-11.4411
_trans	-11.4416
_maris	-11.4417
_propagande	-11.4419
_seruaient	-11.4419
_descendants	-11.442
_iosephe	-11.4424
_abuse	-11.4425
_tendu	-11.4425
_sermon	-11.4425
_haure	-11.4425
_changea	-11.4428
_attendit	-11.4429
_poincare	-11.4431
_demeurent	-11.4431
_soirs	-11.4435
_implique	-11.4435
_collin	-11.4436
_auancee	-11.4438
_cruels	-11.4438
_caracterise	-11.4439
_ueau	-11.4439
_blancheur	-11.444
_innocente	-11.444
the	-11.4441
_leo	-11.4442
_changemens	-11.4446
_nauarre	-11.4446
_iouant	-11.4447
_persecution	-11.4448
_massif	-11.4448
_hardiment	-11.4449
_demarches	-11.445
_courrier	-11.4453
_oser	-11.4455
_plats	-11.4456
_interieures	-11.4457
_domicile	-11.4457
_edgar	-11.4457
_crea	-11.4459
_delphine	-11.4461
_elance	-11.4461
_detourne	-11.4463
lon	-11.4465
_funestes	-11.4466
_immortalite	-11.4469
_transition	-11.4473
_pouruoir	-11.4473
_iura	-11.448
_ger	-11.4483
_rudes	-11.4485
mp	-11.4486
_angoisses	-11.4486
_salutaire	-11.4487
_cultiuer	-11.4488
_lenteur	-11.4488
rc	-11.449
_fiers	-11.4491
_uaches	-11.4491
_aspects	-11.4491
_chaste	-11.4492
_suffisent	-11.4496
_nouueaute	-11.4496
_emmanuel	-11.4507
ley	-11.4508
_finale	-11.4511
_conseillers	-11.4511
_gendre	-11.4512
_deniers	-11.4513
_episodes	-11.4515
_hou	-11.4515
_moult	-11.4518
_series	-11.4519
_recouure	-11.4521
_confessions	-11.4521
_technique	-11.4523
_remarqua	-11.4524
_missiues	-11.4526
_descendu	-11.4526
_rappela	-11.4527
_empresse	-11.4529
iis	-11.4531
ris	-11.4531
_rendirent	-11.4533
_iourdain	-11.4534
_causait	-11.4535
_profits	-11.4537
_milliards	-11.4537
_depouilles	-11.4538
_uor	-11.4542
_retournant	-11.4542
_stupide	-11.4544
_his	-11.4544
_ressortir	-11.4545
_gaston	-11.4546
_chargea	-11.4546
_bouches	-11.455
oc	-11.4551
_lot	-11.4554
_endormi	-11.4558
_serenite	-11.4558
_rosny	-11.4558
_saisie	-11.4559
_penibles	-11.456
_arranger	-11.4572
_uignes	-11.4577
_obus	-11.458
_elementaires	-11.4581
_download	-11.4584
mar	-11.4584
bo	-11.4585
_spectateur	-11.4588
_failli	-11.459
_lies	-11.4592
_bouillon	-11.4594
_pois	-11.4596
_cercueil	-11.4601
_rustique	-11.4601
_idem	-11.4603
_percer	-11.4605
_montee	-11.4607
_resterent	-11.4607
_renferment	-11.4608
_inconueniens	-11.461
_we	-11.4612
_espaces	-11.4613
_argile	-11.4614
_carres	-11.4614
_immediat	-11.4615
_frein	-11.4615
_galeries	-11.4617
_hans	-11.4619
lles	-11.462
_abolition	-11.4623
_rameaux	-11.4623
_periodes	-11.4624
_pretendue	-11.4625
_marcha	-11.4626
_magnificence	-11.4627
_sections	-11.4628
_rebelle	-11.4635
_rei	-11.4636
_maintes	-11.4637
_fonctionnement	-11.4637
_boule	-11.4638
_detacher	-11.4638
_reguliers	-11.4639
_complexe	-11.4641
_deserts	-11.4641
_publiees	-11.4646
_gendarmes	-11.4646
_epargner	-11.4647
_abandonna	-11.4648
_acheua	-11.465
_pointes	-11.4652
_teintes	-11.4654
_accordee	-11.4654
_lagrange	-11.4658
_eius	-11.4661
_louange	-11.4662
_benoit	-11.4664
_participe	-11.4667
_feminine	-11.4671
_mobiles	-11.4675
_marteau	-11.4676
_garni	-11.4677
_laue	-11.4677
_implacable	-11.4679
_rentree	-11.4687
_gibier	-11.4687
_insensiblement	-11.4692
_extase	-11.4692
_sion	-11.4693
_totalement	-11.4694
_permettra	-11.4697
_seriez	-11.4702
_molecules	-11.4702
_dr	-11.4703
_phases	-11.4707
_batie	-11.4709
_tetu	-11.471
_intelligente	-11.4713
_iouent	-11.4713
_equite	-11.4714
_uilain	-11.4718
_ele	-11.4718
_diocese	-11.4718
_meditation	-11.4718
_episode	-11.4718
_manufactures	-11.4721
_rythme	-11.4722
_fraternite	-11.4726
_reuiennent	-11.4727
_exquis	-11.4728
ata	-11.4729
_ita	-11.473
ssaient	-11.473
_diligence	-11.4731
_sollicitude	-11.4731
_punition	-11.4732
_donnerai	-11.4732
_uariees	-11.4734
cou	-11.4734
_confond	-11.4736
_eloignement	-11.474
_nommait	-11.4741
sen	-11.4741
nu	-11.4741
_pies	-11.4743
_adu	-11.4744
_gothique	-11.4744
_artifice	-11.4745
_auditeurs	-11.4745
eu	-11.4748
_decor	-11.4749
_plaira	-11.475
_fontainebleau	-11.4752
_origene	-11.4752
_dorante	-11.4753
_feroce	-11.4754
_gueri	-11.4757
_prouerbe	-11.4758
_administratiue	-11.4758
_prelat	-11.4759
_ualu	-11.4764
_houssiaux	-11.4765
_uillars	-11.4766
_app	-11.4766
_poe	-11.4766
_encourager	-11.4767
_profil	-11.4768
_andrea	-11.477
_contradictions	-11.4772
_crop	-11.4774
_muni	-11.4774
ang	-11.4775
_multiplie	-11.4775
_peser	-11.4776
_prieur	-11.4776
_pinceau	-11.4778
_exaltation	-11.4779
_fecondite	-11.4779
_appuyant	-11.4781
_decisiue	-11.4784
_fauorise	-11.4784
_pardonnez	-11.4786
_maconnerie	-11.4792
_battait	-11.4792
_lise	-11.4794
_locale	-11.4795
_costumes	-11.4796
_entendue	-11.4797
_lemaitre	-11.4805
_conduisait	-11.4805
tat	-11.4807
ita	-11.4807
_hu	-11.4808
_salua	-11.4809
_affirmation	-11.481
_imprudence	-11.481
_anxiete	-11.481
_entretiens	-11.4817
_coude	-11.4818
cl	-11.4821
_discute	-11.4823
_courbes	-11.4823
_imbecile	-11.4823
_geographique	-11.4823
_organiques	-11.4825
_ag	-11.4829
_editeurs	-11.483
_priori	-11.4831
_aliment	-11.4835
_entreuoir	-11.4835
ster	-11.4836
_continuant	-11.4837
bus	-11.4837
_rolland	-11.4844
_satin	-11.4844
ber	-11.4846
_lointaine	-11.4848
_responsable	-11.485
gen	-11.485
_essaie	-11.485
_personnellement	-11.4854
_descente	-11.4856
_direz	-11.4857
_speciaux	-11.4857
_cadet	-11.4858
_suffirait	-11.4859
_rad	-11.486
_moisson	-11.4862
_dupe	-11.4862
_durs	-11.4865
_taxe	-11.4868
_fondamentale	-11.4871
_cooperation	-11.4871
_appelant	-11.4871
_leconte	-11.4871
_legitimes	-11.4882
_habilement	-11.4883
_comprennent	-11.4898
_deuenues	-11.4898
_sun	-11.4899
_entrerent	-11.49
_commencee	-11.4901
_lyre	-11.4903
_uertes	-11.4903
_hymne	-11.4905
_paire	-11.4909
_insister	-11.491
_reuiens	-11.491
_promettre	-11.491
_redige	-11.4913
_gigantesque	-11.4916
_pelerinage	-11.4916
_guerison	-11.4917
_bouquets	-11.4918
_atomes	-11.4919
_grecques	-11.4919
_cheri	-11.4922
_miens	-11.4925
_aboutir	-11.4927
_metz	-11.4928
_austere	-11.493
ran	-11.4931
_seigneurie	-11.4931
_secretement	-11.4933
_caches	-11.4933
_uerlaine	-11.4937
_commandait	-11.4938
_diamants	-11.4939
_eq	-11.4943
_organique	-11.4943
_aix	-11.4944
_obliger	-11.4945
_arles	-11.4949
_ic	-11.4954
_ceruelle	-11.4956
_complice	-11.4956
_famine	-11.4957
_emilie	-11.4962
_syn	-11.4962
_approchait	-11.4968
_prop	-11.4969
_uolcan	-11.4973
_singe	-11.4975
_lances	-11.4976
_ren	-11.4976
_trinite	-11.4977
_figaro	-11.4977
_craignez	-11.4977
_orateurs	-11.4977
_inspirait	-11.4977
_ecoule	-11.498
_rac	-11.498
_malin	-11.4981
_carauane	-11.4983
_phase	-11.4984
_patriotes	-11.4984
_ecuyer	-11.4986
_enfuit	-11.4989
_ronsard	-11.499
_rhone	-11.499
_distraire	-11.499
_sables	-11.4991
_fournissent	-11.4991
_accomplit	-11.4992
_eleuant	-11.4997
_lointains	-11.4998
_consentit	-11.5001
_septentrionale	-11.5001
_rr	-11.5001
_idoles	-11.5002
_seuerement	-11.5004
_adorer	-11.5006
_accidents	-11.5007
_amere	-11.5011
_bloc	-11.5013
_preseruer	-11.5016
_estant	-11.5017
_renaud	-11.5018
_connut	-11.5018
min	-11.5023
_charmantes	-11.5023
lot	-11.5027
_arretait	-11.503
_disputer	-11.5034
_trauersant	-11.5035
_fantastique	-11.5037
_repartition	-11.5038
_ioui	-11.504
_faust	-11.5044
_ensuit	-11.5044
_touchante	-11.5045
_line	-11.5047
_rouler	-11.5047
_folies	-11.5048
_puissantes	-11.5049
_ban	-11.5049
_uiendrait	-11.5049
_attraction	-11.505
_primitiues	-11.5052
_honnetete	-11.5054
_athos	-11.5056
_solidarite	-11.5057
_meles	-11.5058
_uerifier	-11.5058
_foire	-11.5059
_supporte	-11.5063
_molle	-11.5064
_anarchiste	-11.5064
_figuier	-11.5067
_plaies	-11.5068
_adieux	-11.5074
_caisses	-11.508
_amateurs	-11.5081
aires	-11.5084
_fiance	-11.5085
_profane	-11.5086
_har	-11.5088
_serrant	-11.5088
_barbier	-11.5092
_appelaient	-11.5092
_lambert	-11.5093
_indispensables	-11.5093
_plancher	-11.5094
_confuse	-11.5094
_sorbonne	-11.5097
_candidats	-11.5099
_pussent	-11.5099
_pile	-11.51
_clerc	-11.5104
_equiuoque	-11.5104
_melodie	-11.5105
_ordonnances	-11.511
_taureau	-11.511
_loger	-11.5111
_galland	-11.5111
_incapables	-11.5112
_sexes	-11.5112
_iettent	-11.5113
_adorable	-11.5115
_insense	-11.5126
_corse	-11.5126
_attendais	-11.5127
_roles	-11.5127
_couurait	-11.5128
_tirent	-11.5128
_mortes	-11.5129
_encens	-11.5131
_concue	-11.5133
_alarme	-11.5133
_trahir	-11.514
_trauersa	-11.5141
ud	-11.5142
_tracer	-11.5142
_ueine	-11.5144
_remuer	-11.5145
_hostile	-11.5146
_habitues	-11.5146
_lourds	-11.515
_uegetale	-11.5152
ures	-11.5153
gi	-11.5155
_perfide	-11.5155
_attributs	-11.5156
_abat	-11.5156
_souple	-11.5159
_definitif	-11.5159
_sentiers	-11.5162
_xl	-11.5163
_opposees	-11.5163
_grotte	-11.5164
_chrysostome	-11.5165
_cailloux	-11.5165
_aueuglement	-11.5166
_moraux	-11.5166
_uoulurent	-11.5168
_delegues	-11.5168
_categories	-11.5168
ub	-11.5169
_auare	-11.5173
_probabilite	-11.5174
_chou	-11.5174
_saisis	-11.5174
_manifester	-11.5177
_separent	-11.5178
_heroisme	-11.5179
_theologien	-11.5181
_etois	-11.5183
_fusion	-11.5185
_cahier	-11.5187
_barons	-11.519
_secourir	-11.5192
_exprimait	-11.5193
_adressait	-11.5195
_criminelle	-11.5197
_sanglante	-11.5197
_naiuete	-11.5199
_financier	-11.52
_parisien	-11.5201
gue	-11.5202
_ornements	-11.5204
_intelligences	-11.5206
_accueilli	-11.5206
_apprenant	-11.5206
_deuront	-11.5207
_icy	-11.5208
ule	-11.5211
_tournait	-11.5213
_ondes	-11.5216
_bauiere	-11.522
_uiuaient	-11.522
_lourdes	-11.5221
_suiuaient	-11.5221
_pleurait	-11.5222
_emporta	-11.5222
_legumes	-11.5224
_etendues	-11.5225
_pourriez	-11.5226
_resolue	-11.5227
_assassinat	-11.5233
_martyrs	-11.5234
ow	-11.5235
fort	-11.5236
_chaos	-11.5238
_cloitre	-11.5241
_intense	-11.5241
_serres	-11.5243
_boit	-11.5243
_cantons	-11.5246
_applications	-11.5247
_presidence	-11.5247
_plaisant	-11.5249
_rigoureusement	-11.525
_delicats	-11.5253
_tiges	-11.5253
_meurs	-11.5255
_uariable	-11.5255
_catechisme	-11.5255
_angelique	-11.5255
_indication	-11.5255
_puy	-11.5255
_bill	-11.5256
_haines	-11.5259
_laisses	-11.5261
_xxuii	-11.5265
_nau	-11.5266
_tdm	-11.5267
_perdait	-11.5267
ade	-11.5268
_indigene	-11.5269
_uiolences	-11.5271
_composa	-11.5272
_proposait	-11.5272
_remet	-11.5276
_empechait	-11.5276
_mad	-11.528
_ten	-11.528
_dirons	-11.5281
_uains	-11.5284
_tremblement	-11.5287
_orig	-11.5289
_habituellement	-11.5293
_pratiquer	-11.5293
_demoiselles	-11.5294
_dragon	-11.5294
_apologie	-11.5297
_fabriques	-11.5297
_eust	-11.5297
_lueurs	-11.5299
_caluaire	-11.5302
_riuaux	-11.5302
_rozier	-11.5302
_interne	-11.5304
_soufre	-11.5306
by	-11.5308
_anuers	-11.5311
_dissertation	-11.5312
_froment	-11.5316
_laure	-11.5318
_euite	-11.5319
_sympathies	-11.5322
_radical	-11.5323
_mach	-11.5323
_romantique	-11.5325
_allemandes	-11.5326
_alger	-11.5329
_tyrans	-11.5331
dit	-11.5332
_reciproque	-11.5334
_troublee	-11.5335
_claires	-11.5336
_defi	-11.534
_pourrons	-11.534
uni	-11.5341
_ode	-11.5341
_protestant	-11.5342
_fortifier	-11.5343
_efficacite	-11.5343
_ainee	-11.5347
_reciproquement	-11.5347
_songea	-11.5347
ak	-11.5348
_insupportable	-11.5352
_exquise	-11.5358
_solidement	-11.5359
_capitaines	-11.536
_menacant	-11.5361
_silencieuse	-11.5362
_uetus	-11.5363
_ameliorer	-11.5371
_eloigna	-11.5371
_tourbillon	-11.5373
_samuel	-11.5373
_courageux	-11.5376
_protestants	-11.5377
_sceptre	-11.538
_berthe	-11.5383
_mepriser	-11.5383
_climats	-11.5383
_intermediaires	-11.5384
_bestiaux	-11.5385
_tolerance	-11.5385
_legale	-11.5389
_suffira	-11.5389
_amelioration	-11.5394
_psychologique	-11.5394
_obscurs	-11.5394
_sculpteur	-11.5394
_ruisseaux	-11.54
_toy	-11.5401
_indiquee	-11.5402
_gagna	-11.5404
_paien	-11.5408
_auroient	-11.5408
_fonte	-11.541
_paleontologie	-11.5413
_hippolyte	-11.5413
_taine	-11.5415
_habitations	-11.5417
_daigne	-11.5418
_lointaines	-11.5419
_experimentale	-11.5419
_enuoi	-11.5424
_franco	-11.5426
tas	-11.543
_heur	-11.5431
_cur	-11.5431
_terrestres	-11.5434
_echanges	-11.5435
_obseruatoire	-11.5436
_desordres	-11.5437
_dissiper	-11.5438
_fac	-11.5438
_froissart	-11.5441
_laurence	-11.5441
_min	-11.5442
_normant	-11.5442
_lauer	-11.5449
_decoration	-11.545
_pairs	-11.545
_lys	-11.5453
_reside	-11.5454
_newton	-11.5454
_audacieux	-11.5455
_iustification	-11.5455
_prouient	-11.5456
_desastre	-11.5457
_mutuellement	-11.5458
_concitoyens	-11.5458
_quid	-11.546
_enuoyait	-11.5462
_nocturne	-11.5464
asse	-11.5464
_oubliez	-11.5465
_connaissaient	-11.5469
_iolis	-11.547
_expressement	-11.547
_confirmer	-11.5471
_humides	-11.5472
_meurtrier	-11.5472
_carton	-11.5472
_noter	-11.5473
_inuentions	-11.5474
_eft	-11.5475
_composees	-11.5475
_missions	-11.5476
_franchi	-11.5477
_pantalon	-11.5478
_imaginaires	-11.548
_macedoine	-11.5483
_haie	-11.5484
_ecoutant	-11.5485
_nomma	-11.5488
ologie	-11.549
_inedits	-11.5491
_diplomatique	-11.5492
_europeennes	-11.5493
_contemple	-11.5494
rn	-11.5494
_froideur	-11.5496
_agitee	-11.5497
_confidences	-11.5497
_regularite	-11.5497
_emancipation	-11.5497
_uaguement	-11.5497
_instruits	-11.5498
_bonsoir	-11.5499
_distinguent	-11.5501
_penetrant	-11.5505
_laplace	-11.5506
_ongles	-11.5508
_traiet	-11.5512
_excellents	-11.5512
_cesarine	-11.5513
_auersion	-11.5515
_exercent	-11.5515
_fusils	-11.5518
_phare	-11.5519
_oriental	-11.5522
_tost	-11.5523
ches	-11.5528
_adoptee	-11.5529
_etages	-11.5531
_separees	-11.5532
_adoration	-11.5535
_dependent	-11.5535
_leau	-11.5536
_fanatisme	-11.5539
_apud	-11.554
_timbre	-11.554
_gueux	-11.554
_session	-11.5544
_fosses	-11.5544
_eclairs	-11.5544
_irait	-11.5548
_sympathique	-11.5549
_geologique	-11.5549
_lesprit	-11.5549
_tranquilles	-11.5553
_corrections	-11.5556
_combattu	-11.5559
_ees	-11.5559
_eminent	-11.5559
_sonnet	-11.5563
_reels	-11.5569
_alexis	-11.5569
_changeant	-11.5569
_auide	-11.557
ain	-11.557
_rappellent	-11.5573
_interessantes	-11.5575
_refusait	-11.5575
_butin	-11.5575
_abuser	-11.5578
_loges	-11.5579
_nationalite	-11.5579
_appuyee	-11.558
_hierarchie	-11.5582
_fantomes	-11.5583
_abaisse	-11.5583
_susceptibles	-11.5584
_genou	-11.559
_consenti	-11.5593
_mercredi	-11.5596
_lebrun	-11.5597
_uingtaine	-11.5599
_uerbal	-11.5601
_draps	-11.5602
_clocher	-11.5602
_francis	-11.5604
_spectacles	-11.5605
_courts	-11.5607
_retient	-11.5611
_pluriel	-11.5613
_serrer	-11.5615
_citadelle	-11.562
_tube	-11.5623
_temeraire	-11.5631
_baronne	-11.5631
_remparts	-11.5633
_gaillard	-11.5636
_materiels	-11.5636
_souriait	-11.5639
_liberale	-11.5642
_lanca	-11.5645
_mentir	-11.5646
toit	-11.5646
_gardez	-11.5647
_ascension	-11.5648
_primitifs	-11.5648
_collectif	-11.5649
_noeuds	-11.565
_remue	-11.5652
_aire	-11.5652
_ecriuant	-11.5653
_redoutables	-11.5653
_amelie	-11.5657
_trahi	-11.5657
_heroiques	-11.5658
_bac	-11.5658
_encre	-11.566
_fonce	-11.5666
_mardrus	-11.5667
_souffrait	-11.5667
_connaissant	-11.5667
_froids	-11.5671
ane	-11.5672
_solde	-11.5673
_menard	-11.5674
_appelons	-11.5674
_hardie	-11.5675
bre	-11.5678
_king	-11.5681
_reprenant	-11.5681
tr	-11.5683
_bruno	-11.5684
fer	-11.5686
_rez	-11.5688
yn	-11.5688
_perit	-11.5689
_airain	-11.5691
_compensation	-11.5692
_uerrait	-11.5694
_remedier	-11.5696
_geologie	-11.5696
_diuisee	-11.5697
_dessine	-11.5699
_coniure	-11.5699
_uen	-11.5709
_google	-11.571
_falloit	-11.571
_ingrat	-11.5712
_ire	-11.5713
_ecu	-11.5715
_uingts	-11.5715
_paleur	-11.5716
_ennuis	-11.5716
_iesuite	-11.5719
_exageration	-11.572
_imposant	-11.5721
met	-11.5729
_arriuaient	-11.573
atur	-11.5733
_passera	-11.5734
_intuition	-11.5735
_cal	-11.5738
_emprunter	-11.574
_consulat	-11.574
_effrayant	-11.5745
_monstres	-11.5748
_etendit	-11.5748
_buisson	-11.5749
_consuelo	-11.5753
_botanique	-11.5753
_folles	-11.5755
_gardent	-11.5759
oir	-11.576
_cyr	-11.5762
_encourage	-11.5763
_ecurie	-11.5764
_connaissais	-11.5767
_auditoire	-11.5768
_reflets	-11.5768
_derobe	-11.577
_retomber	-11.577
_deueloppee	-11.5771
_clouis	-11.5772
_inuisibles	-11.5773
_gent	-11.5773
_allures	-11.5773
_ement	-11.5774
_centimetres	-11.5775
_pillage	-11.5776
_boucles	-11.5777
_succedent	-11.5777
_xxix	-11.5777
issent	-11.5779
_cachet	-11.5781
_scipion	-11.5782
_lions	-11.5782
_uoire	-11.5783
_engagee	-11.5785
_passons	-11.5785
_conuertir	-11.5787
_logement	-11.579
_iures	-11.5796
_mettaient	-11.5797
_fleau	-11.5797
_informer	-11.5799
_eg	-11.5801
_laide	-11.5802
_acquitter	-11.5803
_addition	-11.5804
_promets	-11.5806
_cruelles	-11.5807
_negligence	-11.5808
_ouide	-11.5809
_uestibule	-11.5811
_repondirent	-11.5811
_ascendant	-11.5811
_raymond	-11.5814
_fondees	-11.5816
_presser	-11.5816
_ouurent	-11.5817
_iugez	-11.5817
_diete	-11.5818
_tais	-11.582
_feuillet	-11.5821
_accordent	-11.5822
_echafaud	-11.5822
_synthese	-11.5822
_senateur	-11.5823
_assassine	-11.5823
_tues	-11.5824
_diuins	-11.5825
_uocabulaire	-11.5825
mu	-11.5828
_dome	-11.5832
_utilise	-11.5834
_meuble	-11.5834
ok	-11.5839
_gueule	-11.584
_preciser	-11.584
_contentement	-11.584
_suspect	-11.584
_touchait	-11.5842
_aboutit	-11.5843
_couuertures	-11.5845
_rappel	-11.5845
_etendent	-11.5847
_decidee	-11.5848
_isoles	-11.5851
_ft	-11.5854
_risquer	-11.5854
_aimerais	-11.5855
_representans	-11.5855
_courroux	-11.5855
_decharge	-11.5855
_mechante	-11.5857
_indo	-11.5858
_dirigee	-11.5859
_exposee	-11.586
_inuoque	-11.586
_serge	-11.5861
_brume	-11.5864
so	-11.5864
tn	-11.5865
_egoiste	-11.5866
_breche	-11.5869
_riuages	-11.5869
_auarice	-11.5869
_oppression	-11.587
_connoissance	-11.5881
_supplices	-11.5882
_separement	-11.5883
_kilom	-11.5885
_paiement	-11.5885
_muses	-11.5885
_dangereuses	-11.5885
_epris	-11.5885
ham	-11.589
_nef	-11.589
_alteration	-11.5895
_pontife	-11.5896
_documens	-11.5898
_milieux	-11.5899
_celt	-11.59
_montres	-11.5901
_ios	-11.5902
_lampes	-11.5902
_abominable	-11.5906
_tch	-11.5906
_cime	-11.5907
_bretons	-11.5909
ura	-11.5909
_hom	-11.591
_ptolemee	-11.591
_pressant	-11.591
_croissante	-11.5912
_passagers	-11.5912
_semence	-11.5913
_exercee	-11.5914
_charte	-11.5916
_associes	-11.5919
_comtes	-11.5921
ces	-11.5921
_marchent	-11.5924
_australie	-11.5924
_monotone	-11.5925
_diables	-11.5925
_caroline	-11.5925
_aioutez	-11.5926
_suspendue	-11.5927
_habille	-11.5928
_composait	-11.5929
_suicide	-11.593
_gages	-11.593
_enterre	-11.5931
_pacte	-11.5931
_impreuu	-11.5935
_perron	-11.5937
_ecraser	-11.5939
_recommandation	-11.594
_naturaliste	-11.594
_pistolet	-11.594
_omnibus	-11.5942
_souplesse	-11.5944
_mecontentement	-11.5944
tti	-11.5945
_paruenus	-11.5946
_touches	-11.5949
_equiualent	-11.5949
_rentrant	-11.5953
_uulgaires	-11.5953
_sottise	-11.5954
_romanesque	-11.5955
_ego	-11.5955
_guides	-11.5956
_modere	-11.5956
_deuise	-11.5957
_popularite	-11.5957
_fromage	-11.5958
_diuorce	-11.5959
_compliment	-11.5961
_hommages	-11.5963
_soc	-11.5967
_spectre	-11.5969
_pins	-11.597
_uenge	-11.5971
_stupeur	-11.5972
_directeurs	-11.5973
_epars	-11.5973
_preferer	-11.5973
pin	-11.5976
_deteste	-11.5976
_personnels	-11.5977
_imprimee	-11.5979
_photographie	-11.598
_atteste	-11.598
_proclamer	-11.5984
_byron	-11.5987
_essentiels	-11.5988
_messie	-11.599
_amy	-11.5993
_uoyager	-11.5993
_aigu	-11.5998
onstitutionnelle	-11.5998
_nicole	-11.6
_perdues	-11.6001
_ornee	-11.6001
_detachement	-11.6004
erie	-11.6007
_my	-11.6007
_soumises	-11.6009
_sublimes	-11.601
_normand	-11.6011
_gra	-11.6011
_auancant	-11.6014
_monnaies	-11.6016
_range	-11.6019
_proches	-11.6021
_lugubre	-11.6025
_iury	-11.6027
_lacroix	-11.6031
nc	-11.6031
_condorcet	-11.6031
_loyaute	-11.6031
_deluge	-11.6031
_tousiours	-11.6032
_rougit	-11.6033
_dunbar	-11.6034
_uoutes	-11.6035
_cherchez	-11.6036
_portees	-11.604
_conter	-11.6041
_procession	-11.6043
_romancier	-11.6043
_directions	-11.6044
eg	-11.6044
_neron	-11.6046
_malherbe	-11.6046
_poule	-11.6047
_fracas	-11.6047
_rassemble	-11.6048
_associer	-11.6051
_cyrus	-11.6051
_financiere	-11.6052
_seroient	-11.6055
_commanda	-11.6056
_echoue	-11.6059
_manqua	-11.6059
_supplement	-11.606
_flambeau	-11.606
_ambassadeurs	-11.6062
_mare	-11.6062
_substitue	-11.6062
_expriment	-11.6066
_conseruent	-11.6072
_conseruateur	-11.6073
_perseuerance	-11.6075
ki	-11.6078
_ribot	-11.6078
_cures	-11.6081
_tendait	-11.6081
_dispense	-11.6081
_emmener	-11.6083
_rigoureuse	-11.6085
_broche	-11.6088
_ueste	-11.6089
_gazon	-11.6091
_commencaient	-11.6095
_uniuersites	-11.6095
_denomination	-11.6097
_accomplis	-11.6098
_hata	-11.6098
_granit	-11.6102
_lart	-11.6102
_premierement	-11.6103
_charrue	-11.6103
_marchandise	-11.6103
_confesseur	-11.6104
_reconnaissait	-11.6105
ate	-11.6112
_aumone	-11.6112
_diuinites	-11.6112
ieu	-11.6115
_rassurer	-11.6116
_tim	-11.6116
_seu	-11.6117
_fraction	-11.6117
_mistress	-11.612
_menacait	-11.6121
_agissent	-11.6123
_max	-11.6125
_huc	-11.6126
_isaie	-11.6127
_trainer	-11.6131
_poches	-11.6133
_trafic	-11.6135
_rigoureux	-11.6135
_orgueilleux	-11.6135
_muller	-11.6136
_francfort	-11.6136
_eternelles	-11.6136
_occupaient	-11.6136
_forge	-11.6137
_diuiser	-11.6139
_leu	-11.614
_iugea	-11.614
_enrichir	-11.6142
_descendent	-11.6144
tou	-11.6146
_precher	-11.6147
_gouffre	-11.6148
_ombrage	-11.6149
_elanca	-11.615
_chan	-11.6151
_mettra	-11.6151
_fantaisies	-11.6152
_preparee	-11.6153
_poils	-11.6157
_ec	-11.6158
_requete	-11.6163
_laquais	-11.6165
_timidite	-11.6165
_probite	-11.6165
_uerbes	-11.6166
_impie	-11.6167
lli	-11.617
_passionnee	-11.6171
_porteur	-11.6172
_reelles	-11.6172
_curieuses	-11.6174
_excellentes	-11.6177
_enuironne	-11.6177
_reiette	-11.6177
fl	-11.6179
_preiudice	-11.618
_ietes	-11.6182
_ledit	-11.6182
_medicis	-11.6186
_centimes	-11.6187
_liura	-11.6189
_rassembler	-11.6191
_accords	-11.6193
_acheuee	-11.6194
_integrale	-11.6194
_aniou	-11.6197
_brisee	-11.6198
lio	-11.6199
_cahiers	-11.6202
_appareils	-11.6202
dis	-11.6203
_reclus	-11.6207
_appendice	-11.6209
lan	-11.6209
_debuts	-11.6212
_presses	-11.6212
_ance	-11.6214
ira	-11.6216
_creme	-11.6223
_lachete	-11.6225
_apparaissait	-11.6225
_solaire	-11.6226
_regence	-11.6226
_musical	-11.6226
_sieges	-11.6228
eux	-11.6228
_grandeurs	-11.6228
_xxxi	-11.6228
_compliments	-11.6228
_international	-11.623
_perfectionne	-11.6233
_emprunts	-11.6234
_superbes	-11.6236
_blesser	-11.6237
_sociaux	-11.6241
_irlandais	-11.6243
_uaries	-11.6246
_detour	-11.6247
_sales	-11.6253
nm	-11.6254
_rotation	-11.6255
_gazette	-11.6255
_cuirasse	-11.6256
_soigner	-11.6256
_paruient	-11.6256
_monstrueux	-11.6256
_hilaire	-11.6256
_candidat	-11.6259
_fontaines	-11.6261
_ecriai	-11.6262
_fassent	-11.6262
_uoulus	-11.6264
_termina	-11.6265
_tragedies	-11.6266
_recommence	-11.6267
_porc	-11.6271
_boileau	-11.6271
nant	-11.6275
_subite	-11.6282
_liege	-11.6282
tions	-11.6284
_attira	-11.6284
_inclination	-11.6286
_uerhaeren	-11.6286
_panier	-11.6287
_epi	-11.6288
_aspire	-11.6288
tam	-11.6289
_arretant	-11.629
_pet	-11.6292
_pentes	-11.6293
_seduit	-11.6295
_touchent	-11.6296
_apaiser	-11.6297
_couru	-11.63
_adultere	-11.6302
_kou	-11.6302
nus	-11.6302
ip	-11.6302
_recues	-11.6303
_ferry	-11.6305
_montent	-11.6305
ara	-11.6312
_estimer	-11.6314
_oratoire	-11.6316
_inuites	-11.6316
_chasses	-11.6319
_animee	-11.632
_fabre	-11.6321
_echos	-11.6321
_ieurs	-11.6322
_exalte	-11.6323
_cordon	-11.6325
_repondant	-11.6325
_montes	-11.6325
_territoires	-11.6326
_hereditaire	-11.6327
_interruption	-11.6331
_matelot	-11.6331
bu	-11.6332
_gibbon	-11.6332
_uiuantes	-11.6333
_considerait	-11.6333
_proposee	-11.6334
_clairs	-11.634
_boutons	-11.6342
_presentee	-11.6344
_dialogues	-11.6344
_eprouua	-11.6346
_frappee	-11.6346
_repetition	-11.6346
_unies	-11.6346
_adoption	-11.6347
_mazarin	-11.635
_racontait	-11.6351
_transparent	-11.6357
_natures	-11.6361
_licence	-11.6362
_maturite	-11.6362
_chamfort	-11.6363
_secoue	-11.6363
_publications	-11.6366
_final	-11.6367
_reprimer	-11.637
_etiam	-11.6371
_auf	-11.6371
_reseruee	-11.6373
_doree	-11.6376
_gand	-11.6377
_forcement	-11.638
_coste	-11.6381
enne	-11.6382
_sinceres	-11.6384
_grandement	-11.639
_portier	-11.6392
_beethouen	-11.6393
_littoral	-11.6393
_seduire	-11.6393
_fau	-11.6398
_essayait	-11.6398
_rosette	-11.6407
_courtisans	-11.6408
_contribution	-11.6408
_glenaruan	-11.6409
_graisse	-11.6409
_noce	-11.6411
_horribles	-11.6411
ables	-11.6413
_chaudes	-11.6413
_ferma	-11.6415
_superflu	-11.6423
_distraction	-11.6423
_adolphe	-11.6424
_mythologie	-11.6424
_doubles	-11.6425
_conduisent	-11.6425
_conserues	-11.6427
_uise	-11.6427
_ladite	-11.6431
_plaisanteries	-11.6432
_lectures	-11.6432
_colombe	-11.6435
_metropole	-11.6439
_pouuions	-11.6439
om	-11.6442
line	-11.6443
_tirees	-11.6447
_auocats	-11.6448
_crayon	-11.6448
_platre	-11.645
_hon	-11.6451
_tourment	-11.6452
_hum	-11.6452
_inuenter	-11.6453
_carrosse	-11.6455
_candeur	-11.6455
_leuait	-11.6456
_croises	-11.6458
_royales	-11.6458
_auxiliaires	-11.6461
_actuels	-11.6461
_bienfait	-11.6461
_bour	-11.6461
_parrain	-11.6463
_hair	-11.6466
_defunt	-11.6467
_uanter	-11.6467
_electeur	-11.647
_munitions	-11.6474
_eloignees	-11.6474
_heritiers	-11.6479
_notables	-11.6481
_dures	-11.6482
_penses	-11.6483
_egyptien	-11.6484
_mette	-11.6484
_exportation	-11.6485
_calcaires	-11.6486
_tien	-11.6489
op	-11.6489
_sest	-11.649
_enfermer	-11.6491
_chenes	-11.6492
_creanciers	-11.6492
_trompes	-11.6496
_sum	-11.6499
_estoient	-11.6499
_hic	-11.65
_elephant	-11.6501
_triangle	-11.6501
_brochure	-11.6501
_sauantes	-11.6501
_stratigraphique	-11.6501
_hypocrisie	-11.6501
_swann	-11.6501
_contenta	-11.6503
_bond	-11.6504
ales	-11.6504
_transformations	-11.6507
_soudaine	-11.6507
_creee	-11.6508
_plin	-11.6509
_exceptions	-11.651
_reuelations	-11.651
_obligatoire	-11.6513
_futurs	-11.6514
_courent	-11.6515
len	-11.6517
_protestation	-11.6517
_bologne	-11.6517
_alcool	-11.6517
_ruban	-11.6518
_reuision	-11.6519
_orages	-11.652
_metre	-11.6524
_time	-11.6524
_complices	-11.6525
_gi	-11.6526
_preferable	-11.6529
_anecdote	-11.6532
_insuffisance	-11.6532
_mozart	-11.6532
_brauoure	-11.6533
_contenue	-11.6536
_ecossais	-11.6542
_predecesseurs	-11.6544
_coubertin	-11.6548
_donnons	-11.6549
_spontanement	-11.655
_bienheureux	-11.655
_colomb	-11.656
_auignon	-11.6562
_surnom	-11.6562
_circonference	-11.6564
_rollinat	-11.6564
_gide	-11.6566
_preuot	-11.6566
_mendiant	-11.6567
_ample	-11.6569
_reueur	-11.6575
_municipal	-11.6575
_rn	-11.6579
_lausanne	-11.6579
_confidence	-11.6579
_cologne	-11.658
_manoir	-11.6582
_frappait	-11.6583
_architectes	-11.6584
_rappelez	-11.6585
_arcs	-11.659
_mena	-11.6591
_that	-11.6592
_syluestre	-11.6595
_hesita	-11.6596
_enclos	-11.6596
_plage	-11.6602
_yues	-11.6602
bon	-11.6606
_balsamo	-11.6611
_aioutons	-11.6611
_achille	-11.6611
_antioche	-11.6615
_karl	-11.6615
rou	-11.6617
_apparent	-11.6618
_tiede	-11.6618
_adoucir	-11.6623
_nickleby	-11.6626
_compositeur	-11.6627
_batterie	-11.6627
_uaudrait	-11.6627
_drapeaux	-11.6628
_mensonges	-11.6628
_fauorite	-11.6628
_changent	-11.6629
_agricoles	-11.6635
_localites	-11.6636
_dentu	-11.6637
_graine	-11.6639
unt	-11.6641
_deces	-11.6641
_grauures	-11.6642
_mechancete	-11.6643
tz	-11.6644
_apportent	-11.6646
_pol	-11.6646
court	-11.6654
_furieuse	-11.6655
_peniblement	-11.6655
tie	-11.6656
car	-11.6657
_prodige	-11.6659
bat	-11.6659
_uoudraient	-11.666
_torts	-11.6663
_parfume	-11.6663
_meurent	-11.6664
_dollars	-11.6666
_enuisager	-11.6667
_causalite	-11.6674
_promise	-11.6674
_abattu	-11.6675
_obtenus	-11.6676
_orientaux	-11.6676
_rires	-11.6676
_precises	-11.6677
_buissons	-11.6678
_condamnee	-11.668
_fauoris	-11.668
_poussent	-11.668
_wo	-11.6681
_distincte	-11.6682
_monopole	-11.6687
_bouclier	-11.669
_ecarts	-11.669
_actrice	-11.6691
_dispenser	-11.6691
_puise	-11.6696
_rc	-11.6697
_priant	-11.67
_criminels	-11.6701
_xuiie	-11.6702
_atroce	-11.6703
_martyr	-11.6703
out	-11.6704
_reueries	-11.6705
_allegresse	-11.6706
_familiere	-11.6706
_analytique	-11.6706
_habituel	-11.6709
_poules	-11.6711
_constituante	-11.6713
_png	-11.6717
_impitoyable	-11.6718
_reprenait	-11.6722
ati	-11.6722
_psaumes	-11.6722
_portefeuille	-11.6722
_allah	-11.6724
_recent	-11.6726
_imp	-11.6726
_enuoyee	-11.673
_mediocres	-11.6731
_conuenablement	-11.6732
_nappe	-11.6733
_federal	-11.6734
_indice	-11.6735
_solutions	-11.6736
_carthage	-11.6736
_attributions	-11.6737
_fanny	-11.6737
_sepulture	-11.6738
_minorite	-11.6738
_eugenie	-11.6739
_allumer	-11.674
_coffre	-11.6743
_meut	-11.6743
nee	-11.6744
_dar	-11.6744
_fraiches	-11.6745
_possessions	-11.6749
_mill	-11.675
_infaillible	-11.675
_mineur	-11.6753
_executif	-11.6753
_statistique	-11.6754
_enigme	-11.6754
_rassure	-11.6759
_arretent	-11.676
_lunettes	-11.6761
_numeros	-11.6764
_essentielles	-11.6766
_dine	-11.6768
_annuelle	-11.6768
_prodiges	-11.6769
_barthelemy	-11.6769
_plenitude	-11.6769
_chirurgien	-11.6773
_negation	-11.6776
_etudiants	-11.6779
_conserua	-11.6782
_animes	-11.6785
_protestations	-11.6785
tif	-11.6785
_bouts	-11.6786
_seminaire	-11.6786
_bataillons	-11.6787
_raisonner	-11.6788
_gaiement	-11.6789
ori	-11.679
_dirais	-11.6791
_indiuiduel	-11.6798
_negatiue	-11.6799
_cabaret	-11.68
_uersions	-11.6801
_retentit	-11.6803
illon	-11.6803
_pesanteur	-11.6804
_uou	-11.6805
_enim	-11.6809
_remplies	-11.681
_offices	-11.6813
_restreint	-11.6814
_dudit	-11.6814
_prendrait	-11.6816
_honteuse	-11.6816
_complot	-11.6816
_huysmans	-11.6817
_dietrich	-11.6817
_dauoir	-11.6818
_continuite	-11.6818
_enuisage	-11.6818
_conuenance	-11.6818
_secheresse	-11.6818
_allions	-11.6819
_recentes	-11.6819
_obserua	-11.6821
_employees	-11.6823
_couurent	-11.6826
_reuenue	-11.6826
_immortel	-11.6831
_mutuelle	-11.6832
_bouc	-11.6833
_collaboration	-11.6833
_hector	-11.6833
_familiers	-11.6835
ich	-11.6838
_fran	-11.6839
_subtil	-11.684
_manches	-11.6843
_consideres	-11.6843
_traductions	-11.6845
_ether	-11.6846
_souleua	-11.6847
_sch	-11.6847
_gaie	-11.6848
_maitresses	-11.6849
zi	-11.6849
_far	-11.6849
_paternel	-11.6849
_contenance	-11.6849
_emouuoir	-11.685
_interieurs	-11.685
_opium	-11.685
_celebrite	-11.6851
_coquetterie	-11.6851
_pendre	-11.6852
_soulagement	-11.6852
_tranchee	-11.6853
_aimons	-11.6853
_accusations	-11.686
iz	-11.6861
_parure	-11.6864
_dates	-11.6865
_receuant	-11.6866
_entouraient	-11.6867
_red	-11.6867
_resterait	-11.6867
_mouret	-11.6867
_grenier	-11.6868
_succombe	-11.687
_campement	-11.687
_succeda	-11.687
_sortirent	-11.6872
_mariages	-11.6875
_animale	-11.6875
_actuelles	-11.6878
_precipiter	-11.6882
_rancune	-11.6883
_choisie	-11.6883
_nettete	-11.6883
_coquille	-11.6884
_depasser	-11.6886
_coupee	-11.6886
_montraient	-11.6887
_interrompu	-11.6896
_rgb	-11.6898
_pieuse	-11.6898
_prophetie	-11.6899
_assiette	-11.6899
uz	-11.6899
_reuiure	-11.6899
_bouton	-11.69
_pendu	-11.6902
_defendit	-11.6903
ime	-11.6907
_concierge	-11.6913
_asiatique	-11.6915
_iniquite	-11.6916
_decouragement	-11.6918
_tombaient	-11.6918
_belges	-11.6918
_gardiens	-11.6918
_tact	-11.6918
_uoter	-11.6923
_cheure	-11.6923
_meditations	-11.6924
_descriptions	-11.6925
bar	-11.6925
_hardis	-11.6925
_ins	-11.6928
_industriels	-11.6929
_nage	-11.6929
_traducteur	-11.6929
_appreciation	-11.693
_abandonnes	-11.693
_contours	-11.6931
_plane	-11.6932
_disgrace	-11.6932
_noe	-11.6933
_eclaircir	-11.6934
_hai	-11.6942
_euangiles	-11.6943
_appelez	-11.6943
one	-11.6944
_reuerend	-11.6944
_ramasse	-11.6944
mis	-11.6944
_nerueuse	-11.6944
_signifier	-11.6946
_deuenaient	-11.6946
ex	-11.6946
_patriotique	-11.6948
_prefecture	-11.6948
_indefiniment	-11.6948
_distincts	-11.6949
_buste	-11.695
_menu	-11.6951
_margin	-11.6952
_detruite	-11.6955
_flore	-11.6959
_reparation	-11.6965
_siennes	-11.6966
_immobiles	-11.6966
_reuoltes	-11.6968
_orgue	-11.6973
_larme	-11.6973
_surmonte	-11.6975
_peinte	-11.6978
_schopenhauer	-11.6979
_complique	-11.698
_alphabet	-11.698
_archipel	-11.6981
_collegue	-11.6981
_sollicite	-11.6983
_rencontrait	-11.6985
_ballon	-11.6985
_folio	-11.6986
uc	-11.6991
ek	-11.6992
_nouuellement	-11.6992
_annuel	-11.6995
_exile	-11.6996
_tions	-11.6997
_lumineuse	-11.6997
_sacrilege	-11.6998
_puissans	-11.6998
_epees	-11.7003
_endormir	-11.7006
wa	-11.7008
_rauir	-11.7011
_sterling	-11.7012
_industriel	-11.7012
_peruersite	-11.7012
igne	-11.7013
_agissant	-11.7015
_droites	-11.7015
_sor	-11.7015
_depouiller	-11.7018
_saueur	-11.702
_consacres	-11.7021
_priuees	-11.7024
_natale	-11.7026
_minces	-11.7026
_ingratitude	-11.7028
_respectueux	-11.7028
_calcule	-11.7028
_ueneration	-11.7028
_concept	-11.7029
_resolus	-11.7029
_ordonner	-11.7029
_confesse	-11.7029
_prouision	-11.703
_ressentiment	-11.7032
quin	-11.7033
_langueur	-11.7033
_mgr	-11.7035
_etendus	-11.7036
_elie	-11.7039
_continuent	-11.7039
_uarier	-11.7039
_zi	-11.7039
_atteignit	-11.7044
_uraisemblance	-11.7044
_you	-11.7044
_conspiration	-11.7047
_mol	-11.7049
_republicaine	-11.7056
_presens	-11.7057
_cons	-11.7059
_conquerant	-11.7059
_germains	-11.706
_existant	-11.706
_poitiers	-11.7061
_uiuans	-11.7061
dan	-11.7062
_chartres	-11.7064
_uisibles	-11.7064
_attacha	-11.7066
_chantent	-11.7068
_sectes	-11.7068
_reflechit	-11.707
_artisans	-11.7074
_lxx	-11.7075
_retablissement	-11.7077
_eumes	-11.7077
hu	-11.7078
_dedaigne	-11.7079
nd	-11.708
_immortelle	-11.7082
_aurois	-11.7083
ko	-11.7085
_defaire	-11.709
_bru	-11.7091
_industries	-11.7093
_conseruee	-11.7093
_gauthier	-11.7093
_orthographe	-11.7093
_parer	-11.7094
_pensons	-11.7094
_eusebe	-11.7094
_conuiennent	-11.7095
_lamme	-11.7095
_fonctionnaire	-11.7096
_recteur	-11.7097
_attitudes	-11.7097
_patrons	-11.7099
_ahmet	-11.7107
_recompenses	-11.7109
_cadeau	-11.711
_dy	-11.711
_uictorieux	-11.711
_resumer	-11.7111
_seches	-11.7111
_battant	-11.7112
_pasteurs	-11.7112
lum	-11.7113
_tor	-11.7117
_larousse	-11.7118
_recommander	-11.7121
_laches	-11.7124
_plains	-11.7126
_echappent	-11.7127
_consistait	-11.7127
_meunier	-11.7127
_santa	-11.7128
_ambitions	-11.7129
_grossiers	-11.7129
_raillerie	-11.7131
_allonge	-11.7134
_publicite	-11.7134
_isolee	-11.7135
_demeurant	-11.7136
_empecha	-11.7138
_expliqua	-11.7142
_soutiennent	-11.7144
_cherchaient	-11.7145
_ennuie	-11.7149
ria	-11.7152
_gau	-11.7153
_sg	-11.7156
_interrompre	-11.716
_subsistance	-11.7163
_biblique	-11.7163
_chargees	-11.7166
_horloge	-11.7166
_iugeait	-11.7167
cus	-11.7168
bas	-11.7169
_ioueur	-11.717
_fillette	-11.7173
_garnie	-11.7175
ers	-11.7176
_prealable	-11.7176
_uladimir	-11.7176
_sagacite	-11.7176
_clarisse	-11.7176
_reliques	-11.7176
_laboratoire	-11.7179
_uiolette	-11.718
_ressembler	-11.7186
_bleues	-11.7187
_uernet	-11.7191
_ingenieuse	-11.7192
_immensite	-11.7193
_prononciation	-11.7193
_isaac	-11.7193
_distinguait	-11.7195
_ieremie	-11.7195
_heresie	-11.7196
_maternel	-11.7197
_finance	-11.7197
lc	-11.7199
_ebranle	-11.72
lus	-11.7205
_secoua	-11.7208
_oxford	-11.721
_iouissait	-11.721
_saut	-11.721
_atque	-11.7211
_coiffe	-11.7211
_corridor	-11.7213
_polemique	-11.7213
_classification	-11.7213
_grandiose	-11.7213
_apostolique	-11.7213
_releuant	-11.7215
_crises	-11.7216
_paroi	-11.7218
_fist	-11.7219
_tsar	-11.7219
_enleua	-11.722
_reuinrent	-11.7226
_suisses	-11.7229
_bai	-11.7229
_nach	-11.723
_faisoient	-11.7233
_chaises	-11.7236
_croitre	-11.724
_retombe	-11.724
_uigoureuse	-11.7243
_height	-11.7243
_grange	-11.7243
_uoi	-11.7244
_patient	-11.7245
_maritimes	-11.7247
_apprecie	-11.7249
_excuses	-11.7251
bel	-11.7254
_siam	-11.7255
_perle	-11.7256
_attentiue	-11.726
_coquette	-11.726
_paresseux	-11.726
_prescrit	-11.7263
_laid	-11.7263
_commerciales	-11.7266
_organisee	-11.7266
_predit	-11.7275
_etonnante	-11.7276
_aborde	-11.7277
_lambeaux	-11.7277
_fusse	-11.728
_assertion	-11.728
_imaginaire	-11.728
_uray	-11.7282
dre	-11.7286
_retenue	-11.7287
iennes	-11.7288
_maigres	-11.7289
_regna	-11.729
_boisson	-11.729
_cuire	-11.7296
_ciuils	-11.7299
_modestes	-11.7299
_rattacher	-11.7304
_iudas	-11.7305
_sauua	-11.7309
chi	-11.7309
_anthologie	-11.731
_fayette	-11.731
_etang	-11.7311
_uenoit	-11.7312
_marius	-11.7312
ous	-11.7313
_chanoine	-11.7313
_parlementaires	-11.7313
_naturalistes	-11.7313
_pal	-11.7314
_cycle	-11.7316
_loti	-11.7316
_indignes	-11.7317
_priuer	-11.7318
antes	-11.7318
cy	-11.7318
_defenseur	-11.732
_anterieures	-11.7321
_boutiques	-11.7322
ks	-11.7323
_guerin	-11.7324
_natal	-11.7325
_equateur	-11.7327
_plumage	-11.7327
_anterieur	-11.7328
_remontant	-11.733
_ef	-11.7332
_litt	-11.7336
_aieux	-11.7336
_emmene	-11.7338
_boulanger	-11.7339
_habiller	-11.734
cc	-11.7341
_romantisme	-11.7344
_repandit	-11.7347
ole	-11.7348
_missionnaire	-11.7348
dem	-11.735
_tissus	-11.735
_penetra	-11.7354
_sua	-11.7354
_trompee	-11.7355
_transactions	-11.7356
_sachez	-11.7359
_transmis	-11.7359
_horreurs	-11.736
_recoltes	-11.7361
_cre	-11.7362
_bell	-11.7362
_cors	-11.7365
_amateur	-11.7365
_gueules	-11.7365
_maint	-11.7367
_superficie	-11.7368
_surpasse	-11.7369
_prae	-11.737
_fust	-11.7371
_echappa	-11.7373
_resolument	-11.7373
_uerrai	-11.7375
_forgeron	-11.7377
_rameau	-11.7377
_eteinte	-11.7378
_immobilite	-11.7378
_nerciat	-11.7378
_incertaine	-11.7379
_fernand	-11.7379
_identiques	-11.738
_hy	-11.7381
lant	-11.7382
_confrere	-11.7382
_emploient	-11.7384
_lionel	-11.7388
_borner	-11.7389
_eloquent	-11.7389
_ducs	-11.7392
_moulins	-11.7392
_demandaient	-11.7393
ano	-11.7393
_inattendue	-11.7394
_fraude	-11.7394
_poele	-11.7394
_beaumarchais	-11.7395
_pousses	-11.7395
_brutale	-11.7395
_uiuons	-11.7396
_remplissent	-11.7397
_foin	-11.7398
_reims	-11.7399
_elementaire	-11.7399
_hor	-11.7399
_rancon	-11.74
_comediens	-11.7401
_sels	-11.7403
_contradictoires	-11.7407
iser	-11.7408
lem	-11.741
ng	-11.7411
_blas	-11.7412
_irritation	-11.7412
_anecdotes	-11.7413
_installer	-11.7413
_uetue	-11.7413
_eleuaient	-11.7414
_amusant	-11.7414
_interpreter	-11.7415
_hostilite	-11.7416
_plier	-11.7419
_briques	-11.7424
_interesses	-11.7424
_uallon	-11.7424
_leopold	-11.7427
_funerailles	-11.7429
_fichier	-11.7429
_idolatrie	-11.7429
_cymrique	-11.7429
_noyau	-11.7429
_deuiendrait	-11.7433
_exclusif	-11.7433
_ledition	-11.7434
_foyers	-11.7434
_incarnation	-11.7435
_indifferente	-11.7436
_grandi	-11.7436
num	-11.7437
dou	-11.7438
_combler	-11.7444
est	-11.7445
_steriles	-11.7445
_bau	-11.7446
_lampieur	-11.7446
_leontine	-11.7446
_infatigable	-11.745
_conflits	-11.745
_instituteur	-11.7451
_pendule	-11.7453
_iointes	-11.7454
ph	-11.7454
_arch	-11.7456
_pecher	-11.7457
_fuyant	-11.7461
_couchee	-11.7462
ida	-11.7462
_peninsule	-11.7463
_alector	-11.7463
_iouissent	-11.7464
_expeditions	-11.7467
_reuues	-11.7472
_coster	-11.7473
_rapporteur	-11.7476
_conteste	-11.7477
_poses	-11.7478
_fauue	-11.7481
_sanglant	-11.7484
_senateurs	-11.7485
_confiee	-11.7486
_exceptionnelle	-11.7487
_euoque	-11.7489
_exigeait	-11.7489
_pharaon	-11.7493
_camps	-11.7494
_bague	-11.7494
_din	-11.7494
_inuiter	-11.7495
_brises	-11.7496
_surcroit	-11.7497
_gil	-11.75
_commissions	-11.7501
_medaille	-11.7502
_durement	-11.7503
_iournaliste	-11.7505
_etrangement	-11.7512
_ardemment	-11.7514
_notices	-11.7515
_particularites	-11.7515
_delit	-11.7515
_facheuse	-11.7516
_collections	-11.752
_genese	-11.752
_tempetes	-11.7521
_fermees	-11.7521
_enflamme	-11.7527
_aucunement	-11.7527
_siberie	-11.7528
_parquet	-11.7528
_unit	-11.753
_hygiene	-11.7532
_incertain	-11.7533
_galanterie	-11.7533
_realites	-11.7535
_formellement	-11.7536
_supra	-11.7537
_iardinier	-11.7538
_quittait	-11.754
_imposee	-11.754
_souffrent	-11.7543
_proportionnelle	-11.7545
_instances	-11.7547
_acquiert	-11.7549
_selection	-11.755
_continuelle	-11.7554
_pedagogique	-11.7554
_autem	-11.7558
_sacs	-11.7558
_mitten	-11.7559
_tomberent	-11.756
_drames	-11.756
_grammes	-11.7561
_continuel	-11.7562
_mesmes	-11.7565
_zofloya	-11.7566
_parbleu	-11.7566
_dessiner	-11.7566
_ferueur	-11.7567
_densite	-11.7567
_manquaient	-11.7567
_apprennent	-11.7568
_theorique	-11.7568
_mobilier	-11.7569
_propice	-11.7571
_acquisition	-11.7571
_halle	-11.7571
_balcon	-11.7572
_faillit	-11.7572
_sauta	-11.7578
_antiquites	-11.7579
uil	-11.7581
_coniectures	-11.7584
_stael	-11.7584
_aneantir	-11.7584
_annette	-11.7586
_haye	-11.7587
_silhouette	-11.7589
_solennite	-11.7589
_inuentaire	-11.7589
bert	-11.7591
_satisfaite	-11.7593
_compagnes	-11.7595
_aui	-11.7598
_guillaumin	-11.7601
_demandons	-11.7601
_notable	-11.7603
_rubens	-11.7604
_echanger	-11.7606
_aristocratique	-11.7606
_canadienne	-11.7607
_deplacement	-11.7609
_ruses	-11.7611
_gilles	-11.7612
_pra	-11.7614
_payes	-11.7615
_rauages	-11.7615
_raisin	-11.7617
_uiendront	-11.7618
_participation	-11.7618
_mathieu	-11.7619
_epines	-11.7619
tm	-11.7619
_distinctement	-11.7622
_staff	-11.7623
_slaues	-11.7623
_adressees	-11.7624
ames	-11.7626
_raynal	-11.7628
_aussy	-11.7628
_soirees	-11.763
_etape	-11.763
_brauer	-11.7631
_surnaturel	-11.7634
_preuoyance	-11.7636
_minimum	-11.7636
_affectation	-11.7636
_foible	-11.7638
_decisif	-11.7641
_uertige	-11.7641
_figurent	-11.7641
_abel	-11.7643
_mus	-11.7644
_trouueront	-11.7646
_dissipe	-11.7646
_baise	-11.7648
_laborieux	-11.7653
_souuenez	-11.7653
_faiblesses	-11.7654
_constitutions	-11.7662
_obei	-11.7665
_cultes	-11.7667
_barrieres	-11.7668
_kal	-11.7668
_ressorts	-11.7669
_exigent	-11.7669
_permanente	-11.767
_clemenceau	-11.7671
_talon	-11.7672
_mecontent	-11.7672
_solennellement	-11.7675
_declarait	-11.7676
_confesser	-11.7677
_aides	-11.7677
_sculpteurs	-11.7677
_frele	-11.7679
_frequent	-11.7681
_flux	-11.7683
_glissa	-11.7684
_rangees	-11.7685
xi	-11.7687
_intimement	-11.7688
_prononcee	-11.7691
_acides	-11.7691
_roussel	-11.7692
_prussien	-11.7692
rin	-11.7693
_infidele	-11.7694
_ecriait	-11.7699
_massacres	-11.77
_legions	-11.7702
_mouille	-11.7703
_laissera	-11.7704
_alerte	-11.7704
_yahweh	-11.7705
_originaux	-11.7705
_desolation	-11.7706
_bagages	-11.7706
_proprete	-11.7708
_professe	-11.7708
los	-11.7709
_succeder	-11.771
_neiges	-11.7712
_rende	-11.7714
_demonstrations	-11.7715
_sit	-11.7716
_iudee	-11.7717
_reporte	-11.7718
_will	-11.772
_iane	-11.772
_blamer	-11.7721
_unanimite	-11.7723
_saturne	-11.7723
_promettait	-11.7723
_antiochus	-11.7723
ault	-11.7724
_lille	-11.7725
_orge	-11.7725
_authentique	-11.7725
_preche	-11.7726
_cirque	-11.7729
_registres	-11.7732
_inconuenients	-11.7733
uet	-11.7734
_interpretes	-11.7737
nr	-11.7737
_brutal	-11.7738
_breiz	-11.7741
_meritait	-11.7741
_brute	-11.7742
_inclina	-11.7744
_solitaires	-11.775
_tartares	-11.7751
_tl	-11.7754
_dominant	-11.7757
_precipitamment	-11.7758
_minerue	-11.7759
_sceaux	-11.7759
_accompagnait	-11.776
_acre	-11.7761
_inscrit	-11.7763
gne	-11.7763
_coalition	-11.7764
_trauaillant	-11.7766
_finissent	-11.7766
_defile	-11.7767
_pt	-11.7772
_galilee	-11.7775
_gouuerneurs	-11.7775
_puissamment	-11.7776
_importait	-11.7776
_resigne	-11.7777
_epaisses	-11.7778
_sepulcre	-11.7778
_captifs	-11.7779
_uerras	-11.7781
_enthousiaste	-11.7782
ola	-11.7782
_assigne	-11.7784
_fantastiques	-11.7784
_manier	-11.7785
_ram	-11.7787
_deuienne	-11.779
_sourires	-11.7791
_engages	-11.7793
_elliot	-11.7793
_ioueurs	-11.7794
_recueillis	-11.7795
_litteralement	-11.7795
tl	-11.7798
_zero	-11.7798
_uitres	-11.78
_uariables	-11.7801
cm	-11.7802
_aioutent	-11.7809
_come	-11.7811
_desesperee	-11.7813
_formelle	-11.7813
_magistrature	-11.7818
_auertit	-11.782
_ibn	-11.7821
_marge	-11.7821
_consuls	-11.7822
_gay	-11.7823
_duual	-11.7824
_metamorphose	-11.7828
_spinoza	-11.7829
_papes	-11.7829
_darcy	-11.7829
_citations	-11.7832
_lames	-11.7839
_anterieurs	-11.7843
tier	-11.7845
_permettant	-11.7848
_olympe	-11.7849
_odieuse	-11.785
_perses	-11.785
hou	-11.7851
_facteur	-11.7853
_theologique	-11.7854
_passants	-11.7854
_bur	-11.7854
_muets	-11.7854
_energiquement	-11.7855
_uisiteurs	-11.7855
_presentement	-11.7855
_uimes	-11.7862
_agneau	-11.7864
_lassitude	-11.7864
_coni	-11.7864
_fra	-11.7867
_calculer	-11.7867
_tactique	-11.7867
_tragiques	-11.7868
_surnomme	-11.7869
aille	-11.7874
arum	-11.7874
_reclamations	-11.7876
_trame	-11.7877
_liee	-11.7882
_uatican	-11.7882
_weil	-11.7884
_cordialement	-11.7884
_greffe	-11.7885
_ardents	-11.7886
_reposent	-11.7891
_construite	-11.7892
_partirent	-11.7893
_dau	-11.7899
_remplissait	-11.7901
_semer	-11.7902
tim	-11.7903
_adresses	-11.7906
_gardant	-11.7906
_poi	-11.7907
_rossignol	-11.7907
_entretient	-11.7909
_gener	-11.791
_dirigeait	-11.7911
_meridien	-11.7911
_barques	-11.7911
_nomment	-11.7912
_sagement	-11.7913
_liquides	-11.7914
uant	-11.7917
_berry	-11.7918
_semestre	-11.7919
_ih	-11.7919
_ubi	-11.792
_baigne	-11.7923
_geruaise	-11.7923
_redacteur	-11.7925
_usines	-11.7927
_surprenant	-11.7928
_nacre	-11.7928
_chauue	-11.7931
_mangent	-11.7933
_imperieux	-11.7936
_portez	-11.7938
_empressa	-11.7938
_careme	-11.794
_sortaient	-11.7941
_rempart	-11.7943
ieux	-11.7944
_fortifie	-11.7944
_distribue	-11.7946
_faille	-11.7946
_unanime	-11.7947
_infideles	-11.7948
_ouuertures	-11.7952
_carree	-11.7954
_seruira	-11.7954
_gars	-11.7955
_plon	-11.7955
_casque	-11.7957
_tarder	-11.7957
_suffrages	-11.7957
_saincte	-11.7958
ici	-11.7959
_abaissement	-11.7959
_desastres	-11.796
_chimere	-11.7961
_marchande	-11.7963
_obstine	-11.7965
_acquit	-11.7966
_conuoi	-11.7967
_reglements	-11.7969
_distribuer	-11.7971
uf	-11.7973
_quint	-11.7974
erent	-11.7975
_moreau	-11.7978
_grandir	-11.7979
_emigration	-11.7979
_calice	-11.798
_insecte	-11.798
_proteste	-11.7981
_fortifications	-11.7982
_affranchir	-11.7982
_trompette	-11.7983
_fierement	-11.7983
ric	-11.7983
sinteressement	-11.7983
_admise	-11.7986
_roulant	-11.7988
_pantagruel	-11.799
_xxxii	-11.799
_anneaux	-11.7993
_derange	-11.7995
_ieannin	-11.7996
_expliquent	-11.7997
_portions	-11.7997
_arreterent	-11.7997
_lia	-11.7997
_chauds	-11.7997
_localite	-11.7998
_guet	-11.8002
_guider	-11.8004
_grasse	-11.8004
_dose	-11.8007
_braddon	-11.8008
_cherchons	-11.8008
_tremblait	-11.8009
_mineurs	-11.8009
_ranges	-11.801
ben	-11.8012
_cheres	-11.8014
_effrayante	-11.8014
_breue	-11.8018
_distrait	-11.8019
_satire	-11.8019
_esperant	-11.8023
_iacobins	-11.8023
_washington	-11.8026
_designant	-11.8029
_phil	-11.8029
_mole	-11.803
_grossieres	-11.8031
_more	-11.8032
_ideale	-11.8032
_patriote	-11.8033
_obiectif	-11.8033
_predication	-11.8034
_enleuee	-11.8034
_enchaine	-11.8034
_hostiles	-11.8034
_endormie	-11.8034
_trahit	-11.8035
dam	-11.8036
_tendue	-11.8037
_adolescent	-11.8037
_comete	-11.8038
_houille	-11.804
_accompagnent	-11.8044
_feydeau	-11.8044
_impunement	-11.8044
_fondu	-11.8045
_declin	-11.8045
_sots	-11.8048
_appartements	-11.8049
_successifs	-11.8054
oni	-11.8057
_maintient	-11.8059
_clefs	-11.806
_pers	-11.8061
_bei	-11.8062
_contraindre	-11.8062
_integrite	-11.8062
_harmonieux	-11.8065
_indiquent	-11.8066
_specifique	-11.8066
_suppleer	-11.8069
_excitation	-11.807
_enfoncer	-11.8071
_inf	-11.8071
_blocs	-11.8071
_tenta	-11.8071
_faction	-11.8074
_presentation	-11.8074
_sermons	-11.8076
_infernal	-11.8078
_fibres	-11.8079
_intitulee	-11.8079
_crees	-11.8079
_flottante	-11.8079
_deroute	-11.8079
_leibniz	-11.808
_hoffmann	-11.8081
_interieurement	-11.8081
_merueilleuses	-11.8081
_exercait	-11.8082
cri	-11.8086
_intelligible	-11.8088
_comparable	-11.8088
_inuenteur	-11.809
_froides	-11.8092
_abaisser	-11.8093
_medailles	-11.8094
_trouuees	-11.8095
_depeches	-11.8095
_recurent	-11.8096
_pagnerre	-11.8099
_conciliation	-11.8099
_pouuoient	-11.8099
_renseignemens	-11.8099
_contrairement	-11.8099
_femelles	-11.8099
_gaspard	-11.8099
nel	-11.8099
_decore	-11.81
_oubliant	-11.8104
_melees	-11.8106
_etonnee	-11.8116
_ressentir	-11.8117
_poursuiuait	-11.8117
_patte	-11.8117
ny	-11.812
_placant	-11.8123
_epopee	-11.8125
_agreablement	-11.8125
_errer	-11.8133
_atlantique	-11.8135
_enumeration	-11.8135
_directoire	-11.8135
_disparaissent	-11.8136
_tonneaux	-11.8136
_reiouir	-11.8138
_rampe	-11.8138
_arrestation	-11.8143
illa	-11.8143
ban	-11.8145
_desertes	-11.8147
_retabli	-11.815
_gants	-11.8151
ico	-11.8153
_sabbat	-11.8154
_cueillir	-11.8156
_detours	-11.8156
_matthieu	-11.8158
_soumet	-11.816
_recueils	-11.816
_agitait	-11.8161
_excursion	-11.8162
_immuable	-11.8162
_saul	-11.8162
_dizaine	-11.8162
_declarations	-11.8163
_plaisante	-11.8164
_cham	-11.8165
_bale	-11.8165
oa	-11.8166
iae	-11.8166
_hall	-11.8167
_mesdames	-11.8172
_arrets	-11.8172
_uanier	-11.8174
_pressait	-11.8176
_deranger	-11.8177
ea	-11.8178
lic	-11.8179
_maintenu	-11.8179
_deliberation	-11.818
_parcours	-11.8182
nou	-11.8182
_risques	-11.8183
_pau	-11.8185
_singulieres	-11.8186
_iroquois	-11.8189
rant	-11.819
_archiac	-11.819
_retint	-11.8191
_alt	-11.8195
_tai	-11.8196
_taxil	-11.8197
uan	-11.8197
_masculin	-11.8197
_aigue	-11.8198
_diplomate	-11.8199
_effrayer	-11.8199
_attachent	-11.82
_blanqui	-11.8203
_perfectionner	-11.821
_surfaces	-11.8211
_paques	-11.8214
_mandarins	-11.8215
_repandus	-11.8217
_situees	-11.8218
_noix	-11.8221
_rendrait	-11.8222
_scepticisme	-11.8227
_offraient	-11.8227
_rondes	-11.8227
_dedie	-11.8227
_adele	-11.8228
_brillait	-11.8228
_reunissent	-11.8228
_glandes	-11.8229
_laisserent	-11.8231
iim	-11.8232
_naiuement	-11.8233
_penseur	-11.8234
_singes	-11.8235
uent	-11.8235
pt	-11.8235
_negociation	-11.8236
_fat	-11.8236
_casser	-11.8236
_orbite	-11.8237
_herode	-11.8237
_contracte	-11.8237
_pencha	-11.8243
_uaincue	-11.8243
_reiete	-11.8244
_copies	-11.8244
_conuenances	-11.8244
_bob	-11.8245
_carmontelle	-11.8246
_cornique	-11.8246
_entourait	-11.8248
_colleges	-11.8248
_dominante	-11.8251
ei	-11.8252
ab	-11.8254
_entendons	-11.8256
_pelerins	-11.826
_fermiers	-11.8261
_mainte	-11.8261
_accidens	-11.8264
_promenait	-11.8265
_fonda	-11.8265
_chapeaux	-11.8268
_enfuir	-11.827
uk	-11.827
_lauriers	-11.8271
_chau	-11.8272
_indiuidualite	-11.8273
_stuart	-11.8273
_fumier	-11.8273
_souhait	-11.8274
_germes	-11.8275
_fabriquer	-11.8275
_obeissant	-11.8275
_interessent	-11.8277
_plaques	-11.8278
_ruiner	-11.8279
_cultures	-11.8281
_maternelle	-11.8281
_soutenait	-11.8283
_hideux	-11.8283
_scauoir	-11.8283
_bussy	-11.8283
_emportait	-11.8285
_danton	-11.8286
_laborieuse	-11.8288
lit	-11.829
_paisiblement	-11.8291
br	-11.8291
_piquant	-11.8292
_baguette	-11.8292
_partent	-11.8294
_recueille	-11.8297
_combattant	-11.8298
_planter	-11.8299
_alembert	-11.8301
_beranger	-11.8301
ndo	-11.8301
_reuenons	-11.8302
_banuille	-11.8302
_tin	-11.8304
_teste	-11.8305
_spheres	-11.8306
_ext	-11.8306
_uoue	-11.8308
_tonnes	-11.8309
_baisser	-11.8309
_depouruu	-11.8309
_discerner	-11.8312
_uero	-11.8313
_deuoues	-11.8314
_commandeur	-11.8316
_bergers	-11.8318
_uersant	-11.8318
nage	-11.832
_sebastien	-11.832
_renaitre	-11.832
_soulager	-11.8321
_tur	-11.8322
_claes	-11.8323
_approuuer	-11.8323
_arriuames	-11.8324
_uolant	-11.8326
_longitude	-11.8329
tri	-11.8331
gar	-11.8332
_legal	-11.8333
_ebranler	-11.8335
_defie	-11.8337
_tailleur	-11.8338
_auuergne	-11.8339
_assentiment	-11.8339
_sully	-11.8339
_imposait	-11.834
_alloit	-11.8342
_precipita	-11.8343
_familiarite	-11.8348
_melent	-11.8351
uy	-11.8352
mode	-11.8353
_deca	-11.8355
_partons	-11.8357
_admettant	-11.8358
_aimaient	-11.8359
_trauersait	-11.836
_feroit	-11.8362
_entrainement	-11.8363
_rentrait	-11.8363
_etendant	-11.8365
_manon	-11.8365
_tenons	-11.8365
_antichambre	-11.8366
_debarrasse	-11.8367
_consultation	-11.8367
rm	-11.8368
_menteur	-11.8368
_mbr	-11.8368
_dossier	-11.8369
_confondu	-11.8369
_controuerse	-11.8374
off	-11.8374
_exod	-11.8375
_expansion	-11.8376
_transmettre	-11.8376
_marchaient	-11.8378
_puissions	-11.8379
_entrez	-11.8379
_abandonnant	-11.8381
_etincelle	-11.8382
_rattachent	-11.8383
_accorda	-11.8383
_posant	-11.8383
_mir	-11.8383
_porteurs	-11.8384
_ecouta	-11.8384
_loyal	-11.8385
_soy	-11.8386
_cantique	-11.8386
_bailli	-11.8387
_persecutions	-11.8389
_ambroise	-11.8395
illes	-11.8397
_tortures	-11.8397
_assura	-11.8397
_mettons	-11.8399
_uiole	-11.84
_couraient	-11.8401
_maures	-11.8402
_farce	-11.8404
_naissant	-11.8404
_trainant	-11.8405
_egyptienne	-11.8405
_acceptee	-11.8409
_penetration	-11.8414
_rase	-11.8418
_clara	-11.8422
_registre	-11.8424
rit	-11.8424
ato	-11.8425
_amities	-11.8426
_philo	-11.8427
_situes	-11.843
_consistance	-11.8432
_ennuyeux	-11.8433
_participer	-11.8433
_cessait	-11.8436
tfng	-11.8439
_partait	-11.844
_concerts	-11.8441
_assassins	-11.8442
_affiche	-11.8442
_clameurs	-11.8442
_laboureur	-11.8443
_craie	-11.8443
_taxes	-11.8445
_raisonnements	-11.8446
_couronnement	-11.8449
_soigne	-11.845
_caire	-11.8451
_heredite	-11.8451
_clermont	-11.8451
_rubans	-11.8452
_mattia	-11.8452
_fixa	-11.8452
_antilles	-11.8452
_iointe	-11.8452
_soucieux	-11.8452
_reconnaissent	-11.8452
hy	-11.8453
_bienuenue	-11.8453
tit	-11.8454
ef	-11.8454
uie	-11.8456
_lieure	-11.8458
_surgir	-11.8458
_passez	-11.8459
_blonds	-11.8459
_curiosites	-11.8463
_larticle	-11.8466
_uariante	-11.8466
_coquin	-11.8467
_pend	-11.8468
ib	-11.8468
_produites	-11.8469
_dupleix	-11.847
_gentleman	-11.847
_radicaux	-11.847
_calomnies	-11.8471
_ine	-11.8471
_bouteilles	-11.8471
_oublies	-11.8472
_ramasser	-11.8472
_menait	-11.8476
_embrassant	-11.8477
_tarif	-11.8478
_inexplicable	-11.848
_rauin	-11.8482
_resulter	-11.8483
_achat	-11.8483
_usine	-11.8483
nl	-11.8484
_sich	-11.8485
cum	-11.8486
dy	-11.8487
_with	-11.8487
_maximilien	-11.8489
_enuahi	-11.8492
_attachait	-11.8492
_communisme	-11.8494
_financiers	-11.8497
_era	-11.8501
_deurais	-11.8501
_epis	-11.8503
_danemark	-11.8508
_seizieme	-11.8508
_fragmens	-11.8508
_cereales	-11.851
_pilote	-11.851
_strictement	-11.851
_souille	-11.8511
_liber	-11.8512
_pourquoy	-11.8513
_cheualerie	-11.8514
_infortunes	-11.8514
_syllabes	-11.8516
_raisonnables	-11.8516
_impatient	-11.8517
_butte	-11.8518
_competence	-11.8518
_reliefs	-11.8518
_moelle	-11.8523
nda	-11.8525
_chapelles	-11.8525
_demetrius	-11.8527
_dreyfus	-11.8527
_sacerdoce	-11.8527
_liberalisme	-11.8528
_rauie	-11.8528
_disposee	-11.8529
_montemont	-11.8529
_energiques	-11.853
_borel	-11.853
_picard	-11.8531
hen	-11.8533
_uigny	-11.8534
_menacee	-11.8535
_electriques	-11.8536
_douceurs	-11.8537
_impassible	-11.8537
_administrateur	-11.8537
_interrogea	-11.8539
_inuoquer	-11.8539
_uiandes	-11.8544
_sauine	-11.8544
_london	-11.8545
iiu	-11.8545
_multiplication	-11.8546
_perche	-11.8546
_nourris	-11.8556
_maine	-11.8559
_imprimeur	-11.856
_intellectuelles	-11.856
_bandits	-11.8562
_gelee	-11.8565
_piliers	-11.8566
_pretendant	-11.8566
_indiquait	-11.8566
tii	-11.8567
_renuoie	-11.8567
_troncs	-11.8567
_ions	-11.8568
_departements	-11.8569
_couurit	-11.8569
_lard	-11.857
_paquets	-11.857
_beaumont	-11.8571
_physiologique	-11.8576
_persiste	-11.8578
ensis	-11.8579
illy	-11.8581
_impatiente	-11.8583
_sacrees	-11.8583
_batteries	-11.8584
pplaudissements	-11.8585
_abimes	-11.8586
_alternatiuement	-11.8587
_emir	-11.8589
_executes	-11.8589
_malle	-11.8593
_infamie	-11.8595
_primitiuement	-11.8597
_ian	-11.8597
_renom	-11.8598
_fenelon	-11.8603
_apercois	-11.8603
_battit	-11.8604
_maintenon	-11.8604
_bastille	-11.8604
_uirginie	-11.8606
_assezat	-11.8607
lam	-11.8608
_renouuelle	-11.8611
_gigantesques	-11.8614
_oracles	-11.8614
_congregation	-11.8614
_ronge	-11.8615
_lycee	-11.8615
_peints	-11.8616
_talons	-11.8619
_exploiter	-11.862
_heritiere	-11.8621
_bakounine	-11.8623
_arithmetique	-11.8623
_furetiere	-11.8623
_separait	-11.8624
_iack	-11.8631
_inattendu	-11.8633
_accessoires	-11.8633
_uariant	-11.8634
_fiction	-11.8634
_centaine	-11.8635
_resultant	-11.8635
_tite	-11.8637
_exempt	-11.8637
_auancement	-11.8637
_fecond	-11.8638
ssiez	-11.8638
_officiels	-11.864
_resigner	-11.8641
_eniure	-11.8642
_cupidite	-11.8642
_bacchus	-11.8642
_reposait	-11.8642
_nont	-11.8642
_baissa	-11.8644
_diuan	-11.8645
_ku	-11.8646
_sanction	-11.8647
_dormi	-11.8647
_institue	-11.8648
_bretonne	-11.8649
_carrieres	-11.8649
_tranchees	-11.865
_cimes	-11.865
_contingent	-11.8652
_sorcier	-11.8652
_dimension	-11.8653
_statuts	-11.8653
_los	-11.8653
_recette	-11.8654
_secher	-11.8654
_retrouua	-11.8654
_relie	-11.8655
_desirable	-11.8655
_neutre	-11.8659
_deception	-11.8662
_coloris	-11.8662
_retiree	-11.8663
_brin	-11.8663
_eussiez	-11.8666
_partisan	-11.8667
_moderes	-11.8668
_ya	-11.867
_oracle	-11.8671
_bucher	-11.8671
_comites	-11.8673
tel	-11.8673
_employa	-11.8674
_languedoc	-11.8674
_dissimule	-11.8674
_racheter	-11.8674
_sinistres	-11.8674
_contester	-11.8676
_gentils	-11.8679
tc	-11.8681
_chameaux	-11.8681
_esperons	-11.8681
_precipitation	-11.8681
_castille	-11.8681
ath	-11.8682
_griefs	-11.8682
_plateaux	-11.8683
_originaire	-11.8688
_compliquee	-11.8688
_deference	-11.8689
_profita	-11.8689
_onces	-11.869
ren	-11.8691
gu	-11.8694
_secouer	-11.8694
_souche	-11.8695
_lauteur	-11.8695
_trauailleur	-11.8698
_remarquez	-11.8699
_paraissant	-11.87
_moteur	-11.87
_consent	-11.8702
_iugemens	-11.8703
_cuuier	-11.8704
_inuariable	-11.8707
_appuya	-11.8708
_auoine	-11.8708
pie	-11.8709
_richement	-11.871
_embarcation	-11.8711
_pressentiment	-11.8712
_collet	-11.8712
_materielles	-11.8716
_agitations	-11.8717
_propheties	-11.8718
oh	-11.8719
_calendrier	-11.8719
_suspendre	-11.8721
_regardais	-11.8721
_unites	-11.8722
_exclusion	-11.8723
_wi	-11.8724
_collectiue	-11.8727
_reformer	-11.8727
pre	-11.8729
_offensiue	-11.873
_chariot	-11.8731
_pater	-11.8736
_erre	-11.8736
_imaginations	-11.8736
_caton	-11.8738
_ralph	-11.8739
_stabilite	-11.8739
_ure	-11.8742
_moyennes	-11.8746
inus	-11.8746
_creuser	-11.8748
_negociant	-11.8751
_durand	-11.8751
_nauait	-11.8752
_aiguillon	-11.8755
_fourneau	-11.8758
_paturages	-11.8758
_boulogne	-11.8758
_conseruateurs	-11.8761
_pires	-11.8764
_communautes	-11.8764
_blond	-11.8766
_essayant	-11.8766
_sonna	-11.8766
_insolence	-11.877
_indemnite	-11.877
_ermite	-11.877
olo	-11.877
_tailles	-11.8772
_republiques	-11.8773
_iurisprudence	-11.8778
_phedre	-11.8778
_aurele	-11.8778
_rebellion	-11.8779
_lordre	-11.878
_etonnes	-11.8781
_sotte	-11.8782
_outil	-11.8782
_conuaincus	-11.8785
_humiliation	-11.8789
_irons	-11.8791
wi	-11.8791
_deuions	-11.8792
_diu	-11.8793
_marbres	-11.8794
_domini	-11.8794
_abstraite	-11.8795
_xxxu	-11.8796
ndi	-11.8796
_photius	-11.8797
_instans	-11.8797
_pekin	-11.8797
_accusait	-11.8798
_bassins	-11.8802
_abondantes	-11.8804
_paruenue	-11.8805
_perdant	-11.8805
_armer	-11.8808
_cochon	-11.8809
_charrette	-11.8809
_syllabe	-11.8809
_rudement	-11.8811
_regis	-11.8813
_tuyau	-11.8816
_cardinaux	-11.8817
_psychanalyse	-11.8817
_meconnaitre	-11.8817
_conuictions	-11.8818
_mens	-11.8818
iet	-11.882
nia	-11.8822
_prouinciale	-11.8824
_uictorieuse	-11.8825
_puiser	-11.8825
_iustin	-11.8827
_permanent	-11.8829
_complement	-11.8829
cre	-11.8831
tres	-11.8831
_serpents	-11.8833
_close	-11.8833
_semi	-11.8835
_conformite	-11.8836
_hydrogene	-11.8836
_importans	-11.8836
_chaumont	-11.8837
_montaient	-11.8838
_confere	-11.8839
tan	-11.8844
_ration	-11.8844
_constituee	-11.8846
tta	-11.8846
_synode	-11.8848
_orthodoxe	-11.8849
_oubliee	-11.8851
_suiuies	-11.8853
_comprendra	-11.8855
ila	-11.8855
_torrents	-11.8856
_outrages	-11.8856
_conformer	-11.8856
_bibliotheques	-11.8859
_confirmation	-11.8859
_reuiendra	-11.8859
_diion	-11.8861
_serue	-11.8863
goog	-11.8864
_ironique	-11.8865
_quest	-11.8865
_deliberations	-11.8867
_auxiliaire	-11.8868
_brest	-11.8869
_hectares	-11.8871
_berne	-11.8871
_attribuee	-11.8872
ln	-11.8874
_dentelles	-11.8874
_decomposition	-11.8876
_croquis	-11.8876
_melait	-11.8877
_soutien	-11.8877
hon	-11.8878
_dirigeant	-11.8878
_fremir	-11.8878
_mystiques	-11.8879
_traitee	-11.888
su	-11.8882
_accuses	-11.8884
ose	-11.8884
_docile	-11.8884
_demeler	-11.8887
_italiennes	-11.8888
_instituteurs	-11.8891
_decourage	-11.8891
_cc	-11.8892
_determines	-11.8893
_obstination	-11.8895
_taillis	-11.8896
_determinees	-11.8899
ker	-11.89
_secouant	-11.89
ore	-11.89
_impies	-11.8901
_chairs	-11.8902
_riuale	-11.8902
_symbolique	-11.8904
_federale	-11.8905
_zeus	-11.8907
_offrande	-11.8908
_retentir	-11.8908
_sta	-11.8908
_may	-11.8909
_paulin	-11.8914
_ulenspiegel	-11.8915
fr	-11.8915
_transmission	-11.8916
_locaux	-11.8916
_cauernes	-11.8916
_brauo	-11.8917
_chats	-11.8917
_organises	-11.8917
_idealisme	-11.8918
_desireux	-11.8919
_protester	-11.8919
_regardee	-11.8924
_deuorer	-11.8924
_commercial	-11.8925
_donnoit	-11.8927
_inflexible	-11.8928
_symphonie	-11.8928
_armoire	-11.8928
_changee	-11.8929
_bertin	-11.8934
_abondamment	-11.8935
_uetemens	-11.8935
_ioignant	-11.8935
_hugues	-11.8935
_momentanement	-11.8936
_emeute	-11.8936
_uiolents	-11.8937
ete	-11.8939
_fondements	-11.8939
_munich	-11.894
_eclairait	-11.894
_romantiques	-11.8944
_mihi	-11.8944
_chimeres	-11.8947
_sonnets	-11.8947
_comptoir	-11.8948
_proclamation	-11.8948
_aima	-11.8948
_progression	-11.8948
_rangee	-11.8949
_ressuscite	-11.8949
_empires	-11.895
_caserne	-11.8951
_uernis	-11.8951
_penseurs	-11.8953
_anniuersaire	-11.8955
_reporter	-11.8955
_grandit	-11.8956
_cadres	-11.8956
_occupant	-11.8957
_cheuet	-11.896
_bulle	-11.896
_speculations	-11.8961
_has	-11.8967
text	-11.8967
_detestable	-11.8967
_eclipse	-11.8971
ey	-11.8974
_robustes	-11.8974
_montpellier	-11.8975
_mrs	-11.8975
_roseaux	-11.8978
_affront	-11.8978
_basile	-11.898
_cm	-11.8981
_detenus	-11.8981
_sols	-11.8986
_oise	-11.8987
_ingenieurs	-11.8988
_prouinciales	-11.8988
_mandarin	-11.8988
ele	-11.8989
_prepares	-11.8991
_cultiuateurs	-11.8992
_economistes	-11.8993
_mod	-11.8993
_regulieres	-11.8993
_emma	-11.8993
_brigadier	-11.8995
_realisme	-11.8995
_entreprit	-11.8998
_gronde	-11.9
incomprehensible	-11.9001
_dernierement	-11.9001
_charmants	-11.9003
_soucie	-11.9003
_fumer	-11.9004
_alarmes	-11.9004
_liurent	-11.9007
_installation	-11.9008
_mysterieuses	-11.9008
_emission	-11.901
_plie	-11.9011
_doyen	-11.9016
_libertin	-11.9017
_parlerai	-11.9018
nam	-11.9023
_gemir	-11.9025
_etiquette	-11.9028
_grenade	-11.9028
_xxxiii	-11.9029
_iournalistes	-11.9032
_mentale	-11.9033
pu	-11.9033
_thierry	-11.9034
_paganisme	-11.9035
ome	-11.9035
_simultanement	-11.9035
_remy	-11.9039
_bro	-11.9041
_offerte	-11.9044
_conuerti	-11.9045
_moquer	-11.9046
_saillie	-11.9047
_exclamation	-11.9048
_iugee	-11.9054
_calmes	-11.9054
_gorki	-11.9055
_tibere	-11.9055
_aramis	-11.9055
_creations	-11.9055
_emulation	-11.9056
_regagner	-11.9056
_constantes	-11.9056
_arrose	-11.9057
_macon	-11.9059
_enchainement	-11.9059
han	-11.906
_annoncant	-11.9061
_fermement	-11.9063
_tyr	-11.9064
_lamentable	-11.9064
_exactes	-11.9065
_monarchique	-11.9065
_denonce	-11.9068
_bouge	-11.9069
_arabie	-11.907
_dechirer	-11.9071
roy	-11.9074
_equipages	-11.9075
_disposees	-11.9076
aut	-11.9077
_coulait	-11.908
_calc	-11.908
_aieul	-11.9081
_grades	-11.9082
_lents	-11.9086
_attentat	-11.9087
_oo	-11.9088
_assemblage	-11.9088
_oraison	-11.9089
_alles	-11.909
_inuraisemblable	-11.9095
_abstrait	-11.9096
_denouement	-11.9096
_imprimes	-11.9099
_toucha	-11.9099
_malte	-11.9101
_dass	-11.9104
ero	-11.9104
_suggere	-11.9107
_eminence	-11.9108
_milice	-11.9109
_toscane	-11.9109
_patrimoine	-11.9115
_uigilance	-11.9115
_apprentissage	-11.9115
_hippocrate	-11.9115
_brulait	-11.9116
_foie	-11.9118
_paraitra	-11.9118
_antonin	-11.9119
_conuenables	-11.9119
_infailliblement	-11.9119
_aisee	-11.912
_oie	-11.9125
_psychique	-11.9129
_lacademie	-11.9129
_indienne	-11.9135
_cachees	-11.9135
_crue	-11.9136
_recois	-11.9136
ity	-11.9136
_entendus	-11.9136
_chanteurs	-11.9138
_turque	-11.9138
_uigoureusement	-11.9139
_deborde	-11.914
_liurait	-11.9142
_sursaut	-11.9144
_usure	-11.9148
_creue	-11.9148
_limpide	-11.9149
_haies	-11.9151
_cachot	-11.9152
_retarder	-11.9152
_egarer	-11.9152
_exprimee	-11.9153
_agiter	-11.9154
_auidite	-11.9155
tiques	-11.9157
_perou	-11.9158
_ayder	-11.9159
_ioua	-11.916
berg	-11.916
_douteuse	-11.9163
_comptent	-11.9163
rus	-11.9163
_signee	-11.9163
_pop	-11.9164
_demandais	-11.9164
_consciences	-11.9165
_laurier	-11.9165
_intrepide	-11.9166
_malo	-11.9169
_cuue	-11.9169
_temerite	-11.9169
_inclinaison	-11.9169
_reuerence	-11.917
_humblement	-11.917
_sapins	-11.9175
_inferiorite	-11.9176
_deduire	-11.9176
_considerons	-11.9176
_emportant	-11.9181
we	-11.9183
_sk	-11.9183
_deplace	-11.9184
_iou	-11.9185
_embarquer	-11.9188
ios	-11.919
_pathetique	-11.919
_brigade	-11.919
ih	-11.9192
_conformes	-11.9193
irent	-11.9194
_reuu	-11.9194
_paganel	-11.9196
_fauche	-11.9198
_christian	-11.92
_masques	-11.9201
_nain	-11.9202
_entendais	-11.9202
_nancy	-11.9203
_amenes	-11.9205
_primes	-11.9207
_attribut	-11.9207
_artificielle	-11.9207
_inspirations	-11.9208
_gel	-11.9209
_portiere	-11.921
_rumeur	-11.921
_prescriptions	-11.9211
_cuisses	-11.9213
_representes	-11.9214
rer	-11.9215
_fureurs	-11.9215
eh	-11.9215
_obscures	-11.9216
_uiolation	-11.9217
_concorde	-11.9218
_inedites	-11.9219
pou	-11.922
_suiuez	-11.922
_feliciter	-11.9221
_palme	-11.9221
_defendait	-11.9221
_apocalypse	-11.9222
_tourments	-11.9222
bal	-11.9223
_inspiree	-11.9225
igny	-11.9226
_mefiance	-11.9232
tard	-11.9233
_parme	-11.9234
_raide	-11.9237
_entourage	-11.9237
_machinalement	-11.9237
_dominait	-11.9237
_extra	-11.9239
_paz	-11.9242
oui	-11.9243
dia	-11.9249
_ang	-11.9249
cere	-11.9253
_desirez	-11.9253
_tunique	-11.9258
_enui	-11.926
_retrouuait	-11.9261
_restez	-11.9263
isant	-11.9263
_captiue	-11.9264
_ieterent	-11.9265
_gro	-11.9267
_profitant	-11.9268
_hymnes	-11.9269
ages	-11.9271
_dedicace	-11.9272
_heroine	-11.9272
_entraina	-11.9272
_uertueuse	-11.9273
_mordaunt	-11.9278
_mediocrite	-11.9278
_graduellement	-11.9279
uri	-11.928
_erudit	-11.9281
_officiellement	-11.9285
_slaue	-11.9285
_serree	-11.9287
lui	-11.9287
_mortier	-11.9289
_porterent	-11.9291
_inebranlable	-11.9292
_precepteur	-11.9293
_finira	-11.9295
_seruie	-11.9297
_ml	-11.9297
_deguise	-11.9297
_corbeau	-11.9298
_propagation	-11.9298
_soutint	-11.9298
_incomplete	-11.9299
_mollesse	-11.93
_enchantement	-11.93
_maitrise	-11.9305
_restai	-11.9305
tia	-11.9306
_arene	-11.931
fc	-11.9311
_entraues	-11.9312
_authentiques	-11.9312
_bouleuerse	-11.9312
_tablier	-11.9313
_acception	-11.9313
lat	-11.9314
_flatteur	-11.9315
_professions	-11.9318
_cellspacing	-11.9319
_hopitaux	-11.9319
_insouciance	-11.9319
_fondamental	-11.9321
_humilie	-11.9322
oie	-11.9323
chant	-11.9324
_white	-11.9325
_obseruant	-11.9325
_tum	-11.9326
_pretes	-11.9326
_cessent	-11.9327
_rousse	-11.9329
_epuisee	-11.933
_battus	-11.933
_meure	-11.9333
_retranche	-11.9333
_nuisible	-11.9334
mt	-11.9334
_enonce	-11.9336
_mun	-11.9339
_iupe	-11.9339
_wilson	-11.9339
_casimir	-11.934
_appartenaient	-11.934
_solliciter	-11.9342
nin	-11.9343
_marees	-11.9345
ula	-11.9347
_royalistes	-11.9351
_xxxiu	-11.9354
_bey	-11.9354
_excessif	-11.9355
_inconscient	-11.9355
_douane	-11.9355
_guette	-11.9356
_demanderent	-11.9357
_couloir	-11.9358
_papillon	-11.9358
_coran	-11.9359
_uassaux	-11.936
_medite	-11.9362
_gite	-11.9363
_sauuee	-11.9365
lor	-11.9367
_dragons	-11.9369
_wie	-11.9369
_honorables	-11.937
_poings	-11.937
_optique	-11.9376
_narration	-11.9376
_uoyelle	-11.9376
_designes	-11.9378
_int	-11.938
_limitee	-11.938
_mignonne	-11.9381
_doutait	-11.9382
_secs	-11.9382
_nicht	-11.9383
_ualois	-11.9384
ken	-11.9384
af	-11.9385
gon	-11.9386
_reuait	-11.9386
_formel	-11.9389
_lile	-11.9389
_triomphant	-11.9393
_humeurs	-11.9395
_negatif	-11.9396
_fie	-11.9397
euse	-11.9397
_enseueli	-11.9397
_indices	-11.9401
_ioignit	-11.9402
_concentration	-11.9402
_uestiges	-11.9403
gra	-11.9405
_cat	-11.9405
_forca	-11.9407
_marianne	-11.9408
_dores	-11.9408
_contemporaines	-11.9409
_loisirs	-11.9409
ec	-11.9409
_ioyeusement	-11.941
_arm	-11.941
_ip	-11.9414
_precepte	-11.9416
_combine	-11.9416
_illustration	-11.9417
_spirituelles	-11.9418
_offres	-11.942
_uizir	-11.9423
_empechent	-11.9423
_liberales	-11.9423
_qe	-11.9424
_examinant	-11.9426
_refugie	-11.9426
_uisiteur	-11.9428
_tournent	-11.9428
_sf	-11.9429
dt	-11.9429
_champion	-11.9431
_ite	-11.9433
_consume	-11.9434
_war	-11.9436
aw	-11.9437
_assemble	-11.944
_pref	-11.9442
_af	-11.9442
_dictature	-11.9443
_uerge	-11.9447
_lande	-11.9449
die	-11.9452
_gilet	-11.9454
_citerons	-11.9454
lii	-11.9455
_qi	-11.9455
_reuetir	-11.9456
iw	-11.9456
_eme	-11.9458
_pennes	-11.9459
_repertoire	-11.9459
_fermentation	-11.9459
_releuee	-11.946
_gomme	-11.9463
_aride	-11.9465
_posees	-11.9465
_imprudent	-11.9467
gan	-11.9468
_definie	-11.9471
_combattants	-11.9475
_copier	-11.9477
_agitent	-11.9478
_dogmatique	-11.948
_sentinelle	-11.948
_site	-11.9482
_recueillies	-11.9484
_oasis	-11.9485
_clientele	-11.9485
_economies	-11.9486
_uoyelles	-11.9491
_arriuerait	-11.9491
_geants	-11.9492
cro	-11.9498
_liaisons	-11.9498
ants	-11.9502
_confiant	-11.9504
_toises	-11.9504
_rurale	-11.9504
_alex	-11.9505
_sabots	-11.9505
_pensions	-11.9505
_coteaux	-11.9505
_predilection	-11.9506
_alliances	-11.9508
_nan	-11.9509
oy	-11.9511
ute	-11.9514
_deployer	-11.9514
_narines	-11.9514
_dona	-11.952
_charpente	-11.9522
_tyrannique	-11.9522
ora	-11.9523
_cylindre	-11.9523
har	-11.9523
_eueche	-11.9524
_ennemies	-11.9524
_durkheim	-11.9527
_adroitement	-11.9529
_promenant	-11.9529
_imagina	-11.9529
_uicissitudes	-11.953
_normands	-11.953
_sibi	-11.9531
_cis	-11.9532
_galles	-11.9533
_fatalement	-11.9537
_rime	-11.9537
_feras	-11.9537
_positiues	-11.9538
_interrompue	-11.954
_pans	-11.954
_concentre	-11.9542
_friuole	-11.9543
_fragile	-11.9543
_culotte	-11.9545
_restitution	-11.9548
_departemens	-11.9548
_dumont	-11.9549
_preserue	-11.955
_indirectement	-11.955
_maudite	-11.9551
pour	-11.9552
_semences	-11.9552
_ardentes	-11.9552
eo	-11.9553
_accents	-11.9553
_mats	-11.9556
_passionnement	-11.9556
_oubliait	-11.9557
_caste	-11.9557
_rougeur	-11.9561
ros	-11.9561
_droiture	-11.9561
_doues	-11.9562
_leroy	-11.9564
_inepuisable	-11.9564
_federation	-11.9564
_substitution	-11.9564
_sanglantes	-11.9565
_faussete	-11.9565
_arsenal	-11.9569
_possedons	-11.9569
_faudroit	-11.9569
_geoffroy	-11.9569
_alimentation	-11.9569
ili	-11.957
_dominique	-11.957
_flambeaux	-11.957
_bourreaux	-11.957
_barbey	-11.9571
_eprouuent	-11.9572
_enuieux	-11.9573
_sorties	-11.9575
_paroitre	-11.9577
oun	-11.9581
_repetant	-11.9581
oth	-11.9581
_emble	-11.9583
_secousse	-11.9583
_our	-11.9583
_estat	-11.9584
_traitait	-11.9584
_lempereur	-11.9585
_adhesion	-11.9585
_couuercle	-11.9585
_lue	-11.9586
_scelerat	-11.9587
_metalliques	-11.9587
bach	-11.9589
_oisiuete	-11.9591
_gallica	-11.9592
cle	-11.9592
_iw	-11.9593
_delegue	-11.9594
_iaillir	-11.9594
_prouincial	-11.9594
_restees	-11.9595
_iurer	-11.9595
_suspension	-11.9595
_cun	-11.9595
_positiuement	-11.9597
_clercs	-11.96
lement	-11.9601
_persan	-11.9601
del	-11.9602
_seduction	-11.9602
_liqueurs	-11.9602
_facteurs	-11.9604
_disperses	-11.9605
_imposante	-11.9606
_parages	-11.9607
onne	-11.9609
_mord	-11.9609
_huissier	-11.961
_sourds	-11.9611
_refutation	-11.9612
_engagemens	-11.9613
_poumons	-11.9613
_brutus	-11.9613
_spirituels	-11.9613
_lexique	-11.9613
_efforcait	-11.9613
_disette	-11.9614
_applaudir	-11.9614
_rayonnement	-11.9615
_chars	-11.9619
_prima	-11.962
_accueillit	-11.9621
_ecolier	-11.9628
_clan	-11.9628
_maroc	-11.9628
_aptitude	-11.9628
ntes	-11.9629
_declarant	-11.9631
_confia	-11.9631
_coi	-11.9639
iel	-11.9639
_prolongee	-11.9642
_etreinte	-11.9642
_etale	-11.9645
ao	-11.9647
_tn	-11.9648
_progressiue	-11.9651
_adroit	-11.9652
_lytton	-11.9654
_bontes	-11.9654
_hambourg	-11.9654
_obtenue	-11.9654
lou	-11.9655
_disposait	-11.9656
_disputes	-11.9659
_finis	-11.9666
lla	-11.9667
_timides	-11.9669
_pretait	-11.967
_alcan	-11.967
_moustache	-11.9671
_parterre	-11.9671
_courante	-11.9672
_souterrain	-11.9676
_patois	-11.9676
_uinci	-11.9677
my	-11.968
_sauiez	-11.9682
_appelees	-11.9682
dor	-11.9684
ali	-11.9686
lius	-11.9688
_distinct	-11.9689
_accompagnes	-11.9692
_accordait	-11.9696
_persuasion	-11.9697
_colonisation	-11.9697
_apparitions	-11.97
_expliquait	-11.97
_sobre	-11.97
_renfermer	-11.9701
_distinctions	-11.9702
_ecoulement	-11.9703
_preliminaires	-11.9705
_repartir	-11.9705
_enueloppes	-11.9705
_originel	-11.9706
_pressent	-11.9706
_portail	-11.9708
bou	-11.971
_pretendus	-11.9713
_aug	-11.9715
_etourdi	-11.9715
_immortels	-11.9716
_brulante	-11.9717
_preualoir	-11.9718
_french	-11.9718
_delacroix	-11.9718
_introduisit	-11.9718
_porthos	-11.9718
_craignent	-11.9719
_consecration	-11.9719
_rats	-11.9719
_indiquant	-11.9721
_etain	-11.9721
_spontanee	-11.9724
_ferment	-11.9724
_diplomatiques	-11.9725
_plonger	-11.973
_futures	-11.9734
_fatiguee	-11.9734
_frappent	-11.9736
_fluides	-11.9737
_biiou	-11.9738
_auch	-11.9738
_scrutin	-11.9739
_poursuiuant	-11.9739
_erasme	-11.974
_promettant	-11.974
_conformation	-11.974
_nerual	-11.9741
_possedant	-11.9741
_depenser	-11.9742
_hemon	-11.9745
_soupira	-11.9748
_alterer	-11.9748
_repondez	-11.9748
_aidant	-11.9749
_prospere	-11.976
_cheures	-11.9761
_bene	-11.9761
_uilliers	-11.9761
_carreaux	-11.9762
_etroits	-11.9762
_employait	-11.9764
zel	-11.9765
_escompte	-11.9766
_roubles	-11.9766
_citation	-11.9767
_marines	-11.9767
_elans	-11.977
_mau	-11.977
_reueilla	-11.9771
_god	-11.9771
_innocents	-11.9773
_nymphe	-11.9774
_iulia	-11.9776
tiue	-11.9776
iac	-11.9777
_irreprochable	-11.9779
_refrain	-11.9779
_ciuilise	-11.9779
_odes	-11.9781
_menus	-11.9782
_reconciliation	-11.9783
_echappait	-11.9785
_priuations	-11.9786
_fimes	-11.9787
_rie	-11.9789
_conseruant	-11.9789
_entour	-11.9791
_tonneau	-11.9792
_engrais	-11.9795
_uera	-11.9796
_graueur	-11.9798
atus	-11.9798
_dailleurs	-11.98
_setait	-11.98
_pensif	-11.98
_captif	-11.9801
_souffler	-11.9801
_tranchant	-11.9803
_deuenant	-11.9804
_exprima	-11.9805
_cale	-11.9805
_poiure	-11.9806
sk	-11.9809
and	-11.9809
_desaccord	-11.9811
_amerement	-11.9811
_succomber	-11.9812
_sereine	-11.9814
_cabinets	-11.9817
_noyer	-11.9818
_colin	-11.9821
_presume	-11.9821
_cloture	-11.9822
_animer	-11.9824
_rosa	-11.9825
_house	-11.9825
ssons	-11.9826
_ges	-11.9826
_harpagon	-11.9826
_attraits	-11.9827
_circule	-11.9828
_effrayee	-11.9829
int	-11.9829
_correspondent	-11.9829
_sine	-11.9829
_foules	-11.983
_entourer	-11.9832
tius	-11.9833
_refusent	-11.9833
_maries	-11.9833
_plaise	-11.9836
_accompagna	-11.9838
_causant	-11.9839
_pains	-11.984
_funebres	-11.984
_crurent	-11.9841
_terra	-11.9842
_dominent	-11.9845
_priuation	-11.9845
_arriuons	-11.9847
_uicieux	-11.9848
_assurait	-11.9851
_iust	-11.9852
ag	-11.9853
_douanes	-11.9853
_discrete	-11.9854
_apprends	-11.9855
_pittoresques	-11.9855
_dementi	-11.9857
_lourdement	-11.9858
quet	-11.9859
_fume	-11.9859
_refusant	-11.9861
_equitable	-11.9862
ill	-11.9862
_pots	-11.9862
atio	-11.9863
_ranimer	-11.9864
_orgueilleuse	-11.9866
_lustre	-11.9867
_entrain	-11.9868
_dapres	-11.9868
_digitized	-11.9869
_gratitude	-11.9869
_uerbaux	-11.9869
_petitot	-11.9869
_produisait	-11.9869
_gerardmer	-11.9869
_resultent	-11.987
[...]
