<unk>	0
<s>	0
</s>	0
▁de	-3.11206
▁la	-3.60602
▁a	-3.72989
▁et	-3.7845
▁le	-3.92063
▁l	-3.98512
▁les	-4.05524
▁il	-4.33812
▁d	-4.37746
▁des	-4.40974
▁que	-4.44356
▁en	-4.46786
▁un	-4.56128
▁qui	-4.71158
▁est	-4.72562
▁une	-4.80805
▁du	-4.83384
▁dans	-4.84367
▁qu	-4.89747
▁ne	-4.99934
▁pour	-5.13414
▁ce	-5.13654
▁par	-5.18737
▁ie	-5.19858
▁pas	-5.21161
▁n	-5.2208
▁se	-5.22187
▁au	-5.26742
▁s	-5.27384
▁on	-5.27854
s	-5.30044
▁plus	-5.30646
▁ou	-5.41397
▁sur	-5.46464
▁elle	-5.48122
▁c	-5.50888
▁son	-5.52395
▁uous	-5.55243
▁nous	-5.55658
▁mais	-5.66725
▁page	-5.68693
▁i	-5.6921
▁lui	-5.71956
▁diuu	-5.73109
▁auec	-5.74636
▁sa	-5.75947
▁m	-5.82534
▁cette	-5.84879
▁si	-5.8584
▁comme	-5.87042
▁ses	-5.88383
▁y	-5.90603
▁etait	-5.94972
▁tout	-5.95171
▁meme	-5.99306
▁ils	-6.0858
▁ces	-6.10018
▁auait	-6.10717
▁bien	-6.11998
▁me	-6.15168
▁aux	-6.16309
▁leur	-6.17905
▁sont	-6.1972
▁deux	-6.20717
▁etre	-6.2874
▁sans	-6.29684
▁fait	-6.40024
▁t	-6.46293
▁dit	-6.46427
▁mon	-6.51421
▁tous	-6.53818
▁dont	-6.55713
▁amp	-6.56125
e	-6.56482
▁ont	-6.57159
▁faire	-6.61314
▁peut	-6.68108
▁encore	-6.68212
▁tome	-6.68774
▁fut	-6.70884
▁ete	-6.7253
▁aussi	-6.74158
▁autre	-6.76882
▁leurs	-6.7963
▁apres	-6.80676
▁point	-6.80907
▁ai	-6.82351
▁ma	-6.84284
▁peu	-6.84942
▁moi	-6.86056
▁tu	-6.89677
▁sous	-6.90117
▁homme	-6.92013
▁autres	-6.92091
▁e	-6.92499
▁temps	-6.93833
▁auoir	-6.98815
▁quand	-6.99166
▁toutes	-7.01978
▁grand	-7.04031
▁moins	-7.04048
▁non	-7.0484
▁entre	-7.06711
▁ainsi	-7.06739
▁toute	-7.07781
▁dire	-7.08076
▁tres	-7.09836
▁rien	-7.11176
▁uie	-7.12417
▁notre	-7.13142
▁car	-7.13553
▁ni	-7.15134
▁donc	-7.15145
▁quelques	-7.16663
▁touiours	-7.18037
▁cela	-7.19401
▁elles	-7.20348
▁p	-7.21981
▁cet	-7.27519
▁iamais	-7.27768
▁contre	-7.28241
▁nos	-7.28313
▁ceux	-7.28794
▁celui	-7.2921
▁iour	-7.30578
▁faut	-7.31772
▁quelque	-7.32542
▁uers	-7.32916
▁dieu	-7.33156
▁etaient	-7.33734
▁fois	-7.34436
▁uotre	-7.34582
▁eut	-7.35577
▁alors	-7.3578
▁soit	-7.35824
▁mes	-7.36666
t	-7.37377
es	-7.37872
▁iusqu	-7.38137
▁uoir	-7.38414
▁u	-7.39007
▁monde	-7.39915
▁hommes	-7.41648
▁trois	-7.45248
▁puis	-7.45377
▁saint	-7.46832
▁france	-7.47471
▁chez	-7.48587
▁celle	-7.48712
▁grande	-7.49205
▁nom	-7.4924
▁trop	-7.49549
▁roi	-7.53518
▁depuis	-7.54755
▁oeuures	-7.55915
▁eux	-7.56567
▁tant	-7.57298
▁femme	-7.58105
▁reuue	-7.58704
▁paris	-7.5995
▁esprit	-7.60098
▁auaient	-7.60984
▁fit	-7.61339
▁yeux	-7.61402
▁mort	-7.61886
▁auant	-7.62082
▁pere	-7.62165
▁donne	-7.62271
▁suis	-7.63255
▁histoire	-7.633
▁terre	-7.63505
▁ii	-7.63834
▁em	-7.65769
▁ici	-7.65958
▁deuant	-7.66559
▁coeur	-7.66945
▁in	-7.67011
▁chose	-7.67188
▁etat	-7.6722
▁pays	-7.6724
▁pendant	-7.67863
▁assez	-7.68259
▁beaucoup	-7.68301
▁ans	-7.68518
a	-7.68551
▁fort	-7.68908
▁ieune	-7.69896
▁premier	-7.70304
▁te	-7.71037
▁bon	-7.71104
▁deia	-7.72377
▁partie	-7.73744
▁pres	-7.73874
▁enfin	-7.73875
▁formula	-7.74484
r	-7.74531
i	-7.7552
▁or	-7.76397
▁moment	-7.77467
▁doit	-7.78067
▁cote	-7.78454
▁tete	-7.78581
▁iours	-7.7913
▁seulement	-7.79598
▁porte	-7.7964
▁corps	-7.79701
▁mondes	-7.80474
▁lieu	-7.80543
▁petit	-7.81548
▁trouue	-7.81687
▁main	-7.81906
▁seul	-7.82733
▁amour	-7.84359
▁uille	-7.84849
▁premiere	-7.84919
▁eu	-7.84962
▁cependant	-7.85181
▁parce	-7.8539
▁fils	-7.85603
▁serait	-7.86308
▁part	-7.86409
▁nature	-7.86609
▁place	-7.88381
▁mieux	-7.89883
▁sera	-7.90562
▁ci	-7.90644
▁choses	-7.90826
▁chaque	-7.91798
nt	-7.91935
▁auons	-7.92128
▁effet	-7.92399
▁mal	-7.92828
▁liure	-7.93245
▁reste	-7.93464
▁f	-7.93663
z	-7.93858
▁r	-7.93988
▁mot	-7.94796
▁force	-7.94889
▁plusieurs	-7.95215
ment	-7.95221
▁o	-7.95754
▁nombre	-7.96429
▁souuent	-7.96626
▁raison	-7.97699
▁comment	-7.98977
▁donner	-7.99531
▁ame	-7.99863
▁presque	-8.00322
▁monsieur	-8.0102
▁ua	-8.01298
▁g	-8.01412
▁maison	-8.01437
▁fille	-8.0153
▁peine	-8.01642
▁forme	-8.01897
▁quatre	-8.02141
▁ton	-8.023
▁mere	-8.02694
▁pu	-8.0288
▁air	-8.03403
▁guerre	-8.04108
▁droit	-8.04756
▁sens	-8.04873
▁doute	-8.05059
▁ayant	-8.05376
▁general	-8.05468
▁personne	-8.05854
▁passe	-8.06152
▁madame	-8.06203
▁uu	-8.06567
▁auez	-8.06817
▁gens	-8.07426
▁coup	-8.07618
▁aurait	-8.07657
▁b	-8.07836
▁memes	-8.07974
▁uoix	-8.09244
▁peuple	-8.09737
▁hui	-8.10226
▁bonne	-8.10322
▁loin	-8.1055
▁uoila	-8.1095
▁nouuelle	-8.11691
▁auiourd	-8.11861
▁eau	-8.12591
▁heure	-8.12772
▁petite	-8.12977
▁uos	-8.13633
▁cause	-8.13664
▁oui	-8.14612
▁grands	-8.14634
▁laquelle	-8.14856
▁lettre	-8.15596
▁pourquoi	-8.16117
▁prendre	-8.16483
▁maniere	-8.16525
▁ordre	-8.1707
▁ailleurs	-8.17183
▁nuit	-8.17271
▁nouueau	-8.17997
▁surtout	-8.18477
▁pouuait	-8.18807
▁autant	-8.1933
▁abord	-8.19718
▁sorte	-8.2004
▁completes	-8.20285
▁maitre	-8.2037
▁font	-8.20378
▁iii	-8.20481
▁iu	-8.20524
▁mille	-8.20571
▁idee	-8.2121
▁quel	-8.21231
▁quelle	-8.21312
▁aucun	-8.21474
▁fin	-8.21805
▁lorsque	-8.22016
▁uue	-8.22429
▁style	-8.22737
▁urai	-8.22859
▁milieu	-8.22881
▁francais	-8.22958
▁quoi	-8.23218
▁toi	-8.2326
▁pouuoir	-8.23789
▁seule	-8.23841
▁cas	-8.24045
▁annee	-8.24084
▁bas	-8.25429
▁enfant	-8.25822
▁ait	-8.25825
▁beau	-8.25931
n	-8.26644
▁mains	-8.26822
▁maintenant	-8.27319
▁art	-8.27566
▁ah	-8.2818
▁pris	-8.28485
▁belle	-8.28832
▁parmi	-8.29004
▁ca	-8.29085
▁lettres	-8.29251
▁es	-8.29804
▁dessus	-8.29809
▁mer	-8.29968
▁heures	-8.3012
▁femmes	-8.30296
▁ta	-8.30791
▁h	-8.3088
▁tour	-8.31007
▁famille	-8.3115
▁siecle	-8.31366
▁dix	-8.31485
▁pierre	-8.31556
▁suite	-8.32098
▁trauail	-8.32166
▁aucune	-8.32365
▁gouuernement	-8.32502
▁parler	-8.32565
▁politique	-8.32835
▁auais	-8.32869
▁cinq	-8.33913
▁loi	-8.34143
▁moyen	-8.34243
▁ueut	-8.34484
▁lorsqu	-8.34724
▁iean	-8.34856
▁rendre	-8.35158
l	-8.35225
▁dernier	-8.3549
▁haut	-8.35511
▁mois	-8.36234
▁chapitre	-8.36259
▁furent	-8.36993
▁fond	-8.37316
▁question	-8.37441
▁auteur	-8.38335
▁mettre	-8.38423
▁ciel	-8.38528
▁semble	-8.38697
▁argent	-8.38809
▁parle	-8.3894
▁uerite	-8.38943
▁eglise	-8.38953
▁long	-8.39019
▁ami	-8.3913
▁bois	-8.40663
▁align	-8.40744
▁etc	-8.40891
▁prince	-8.40977
▁bras	-8.41057
▁uoit	-8.41204
▁aller	-8.41429
▁uient	-8.41472
▁chambre	-8.41885
▁etant	-8.42566
is	-8.42817
▁longtemps	-8.42865
▁celles	-8.42952
o	-8.43117
▁aime	-8.43699
▁societe	-8.43744
▁pensee	-8.43942
▁oeuure	-8.43963
▁enfants	-8.44035
▁grace	-8.44085
▁feu	-8.44424
▁tel	-8.44457
▁uieux	-8.44484
▁besoin	-8.4481
▁uingt	-8.44845
▁sais	-8.44862
▁repondit	-8.44886
▁faisait	-8.44908
▁mouuement	-8.45154
▁liberte	-8.45749
▁exemple	-8.46465
▁dis	-8.46723
▁suiet	-8.47065
▁comte	-8.47076
▁sauoir	-8.47768
▁soir	-8.47875
▁compte	-8.48252
▁deuait	-8.48275
▁idees	-8.48279
▁bientot	-8.48729
▁telle	-8.49037
▁mots	-8.49272
▁garde	-8.50201
▁pauure	-8.50221
▁gt	-8.50401
▁laisse	-8.50677
▁louis	-8.50794
▁ueux	-8.51596
▁cour	-8.52161
▁annees	-8.52285
▁propre	-8.52388
▁demande	-8.53028
▁age	-8.53402
▁peuuent	-8.54562
▁caractere	-8.54711
▁trouuer	-8.54847
▁contraire	-8.55161
▁chacun	-8.55686
▁lequel	-8.55757
▁honneur	-8.55767
▁mis	-8.55776
▁soleil	-8.56217
▁sait	-8.56294
▁malgre	-8.57702
▁liures	-8.5772
▁uol	-8.57874
▁selon	-8.57906
▁arriue	-8.58359
▁ed	-8.5863
▁pourtant	-8.5871
▁uoici	-8.58786
▁autour	-8.59379
▁sang	-8.59668
▁ensuite	-8.60096
ait	-8.60207
▁amis	-8.60696
▁foi	-8.60886
▁disait	-8.60889
▁passer	-8.6089
▁petits	-8.60906
▁possible	-8.60934
▁chef	-8.61006
▁frere	-8.61072
▁sommes	-8.61523
▁marche	-8.61704
▁pdf	-8.61887
▁rue	-8.6213
▁action	-8.62219
▁armee	-8.62984
▁grandes	-8.63362
▁tandis	-8.63407
▁eh	-8.6377
▁etes	-8.63921
▁pieds	-8.64131
▁epoque	-8.64195
▁lt	-8.64347
▁ensemble	-8.65247
▁tard	-8.65492
▁plutot	-8.66091
▁prix	-8.66249
▁angleterre	-8.6642
▁six	-8.66525
▁parti	-8.66615
▁an	-8.66723
▁croire	-8.6677
▁cent	-8.66851
▁seigneur	-8.67012
▁fer	-8.67055
▁afin	-8.67158
▁auoit	-8.67165
▁quant	-8.67785
▁right	-8.68481
▁etais	-8.68641
us	-8.68661
▁interet	-8.68737
▁cours	-8.69113
▁duc	-8.69345
▁bout	-8.7018
▁uit	-8.70277
▁figure	-8.70329
▁aura	-8.70342
▁uoyez	-8.70506
▁anglais	-8.7071
▁uoyage	-8.71011
▁matin	-8.71117
▁bonheur	-8.71165
it	-8.71512
▁x	-8.71754
▁ui	-8.71921
▁oh	-8.72369
▁nouuelles	-8.7247
▁plaisir	-8.72593
▁mesure	-8.72781
▁crois	-8.72832
▁langue	-8.72908
▁francaise	-8.73064
▁titre	-8.73084
▁pourrait	-8.73137
▁tes	-8.73956
▁re	-8.73998
m	-8.74042
▁suiuant	-8.74616
▁science	-8.74703
▁paroles	-8.74917
▁route	-8.7493
▁heureux	-8.75078
▁pied	-8.75103
▁simple	-8.75193
▁ecrit	-8.75267
▁empire	-8.75399
▁espece	-8.75571
▁lit	-8.76048
▁traite	-8.76784
▁instant	-8.76953
▁theatre	-8.77027
▁dictionnaire	-8.77039
▁genre	-8.77229
▁certain	-8.77686
▁chemin	-8.77888
▁ouurage	-8.77896
▁uenir	-8.78185
▁marie	-8.78388
▁derniere	-8.78407
▁entendre	-8.78434
▁ieunes	-8.78633
▁etoit	-8.79077
▁present	-8.79092
▁sentiment	-8.79107
▁rapport	-8.79636
▁table	-8.79811
▁facon	-8.79834
▁rome	-8.8044
▁lois	-8.8045
▁premiers	-8.80546
▁trauers	-8.80936
▁obiet	-8.81057
▁parait	-8.81259
▁faites	-8.81292
▁paix	-8.81365
▁conseil	-8.81508
▁k	-8.81716
▁prit	-8.82086
aient	-8.822
▁systeme	-8.82594
▁faits	-8.82664
▁demi	-8.82801
▁parties	-8.83036
▁mit	-8.83134
▁ualeur	-8.83484
▁lumiere	-8.83692
▁usage	-8.83951
▁armes	-8.84051
▁uoulu	-8.84175
▁cher	-8.84203
▁iustice	-8.84266
ent	-8.84321
▁nord	-8.84414
▁eleue	-8.84787
▁uenait	-8.84888
▁fr	-8.85193
▁empereur	-8.85282
▁but	-8.85398
▁puissance	-8.85561
▁etats	-8.8569
ons	-8.85811
▁seconde	-8.86296
▁affaires	-8.86611
▁necessaire	-8.86766
▁uertu	-8.86846
▁appelle	-8.8701
▁public	-8.87084
▁sainte	-8.87174
▁huit	-8.87204
▁edition	-8.87693
▁europe	-8.87756
▁puisque	-8.87912
▁partout	-8.87971
▁ioie	-8.88199
▁trad	-8.88342
▁allait	-8.88424
▁religion	-8.89146
▁put	-8.89272
▁second	-8.89308
▁chercher	-8.89335
▁laisser	-8.89596
▁aussitot	-8.89675
▁face	-8.89825
▁reuolution	-8.89979
▁px	-8.90186
▁oeil	-8.90474
▁faite	-8.90723
▁cheual	-8.91503
▁fortune	-8.91527
▁quelquefois	-8.91895
▁uolonte	-8.91905
▁uis	-8.92144
▁existence	-8.92565
▁reine	-8.92658
▁egalement	-8.9272
▁uolume	-8.9278
▁iuste	-8.93058
▁paul	-8.93067
▁charge	-8.93134
▁commerce	-8.93379
▁ecole	-8.94227
▁ancien	-8.94459
▁iesus	-8.94579
▁affaire	-8.94654
▁charles	-8.94678
▁aupres	-8.95148
▁libre	-8.95549
▁francs	-8.95761
▁li	-8.95875
▁memoire	-8.96213
▁succes	-8.96228
▁blanc	-8.96252
▁bruit	-8.96384
▁sol	-8.96606
▁the	-8.96608
▁gloire	-8.96724
▁sept	-8.9682
▁opinion	-8.96897
▁uns	-8.97077
▁troisieme	-8.97086
▁seruice	-8.97187
▁silence	-8.972
▁derriere	-8.97478
▁parole	-8.97494
▁pense	-8.97939
▁left	-8.98169
▁mari	-8.98174
▁puisse	-8.98223
▁uint	-8.98277
▁situation	-8.98332
u	-8.98426
▁deuoir	-8.98464
▁dame	-8.98477
▁principe	-8.9848
▁presente	-8.98559
▁uiure	-8.9856
▁connaitre	-8.98877
▁guere	-8.99036
▁combien	-8.99124
▁fallait	-8.99266
▁generale	-8.99289
▁longue	-8.99414
▁gout	-8.99669
▁montre	-8.99721
c	-8.99751
▁nomme	-8.99888
▁personnes	-8.99936
▁discussion	-8.99949
▁uois	-8.99994
▁produit	-9.00005
▁christ	-9.00085
▁retour	-9.0011
▁certains	-9.00343
▁acte	-9.00359
▁propos	-9.00783
▁demanda	-9.01051
▁haute	-9.01097
▁cesse	-9.01262
er	-9.01327
y	-9.01461
▁occasion	-9.01559
▁seruir	-9.01726
▁uoulait	-9.01726
▁forces	-9.01873
▁impossible	-9.01957
▁regard	-9.02053
▁sort	-9.02391
d	-9.02753
rent	-9.02888
▁perdu	-9.02947
▁col	-9.03012
▁formes	-9.03039
▁morale	-9.03044
▁etude	-9.03199
▁influence	-9.03318
▁faisant	-9.03379
re	-9.03598
▁anciens	-9.0369
▁beaute	-9.03728
▁uisage	-9.03922
▁to	-9.04028
▁mariage	-9.04292
▁droite	-9.04933
▁gros	-9.05015
▁quil	-9.05099
▁trauaux	-9.0518
▁matiere	-9.05362
▁quoique	-9.05445
▁moyens	-9.05533
▁article	-9.05683
▁seront	-9.05955
um	-9.06022
▁uent	-9.06022
▁discours	-9.06066
▁doiuent	-9.06311
▁uite	-9.0653
▁petites	-9.06568
▁soient	-9.0665
▁conscience	-9.06712
▁presence	-9.06721
▁tenir	-9.06766
▁outre	-9.06774
▁mauuais	-9.06784
▁philosophie	-9.07116
ra	-9.07158
▁peuples	-9.07195
▁bouche	-9.07426
▁soin	-9.07607
▁membres	-9.07788
▁dehors	-9.07971
▁note	-9.08083
▁lors	-9.08159
▁piece	-9.08481
▁rouge	-9.08568
▁genie	-9.08588
▁ueritable	-9.08891
▁semblait	-9.08941
▁memoires	-9.08991
▁ministre	-9.09217
▁poete	-9.09728
▁autorite	-9.0975
▁plein	-9.09782
▁principes	-9.098
▁reprit	-9.0994
▁allons	-9.10209
▁uais	-9.10248
▁animaux	-9.1045
▁soeur	-9.10457
▁lendemain	-9.10498
▁demander	-9.10791
te	-9.10814
▁role	-9.11011
▁merite	-9.11055
▁peur	-9.11368
▁ad	-9.1143
▁rencontre	-9.12013
▁conditions	-9.12031
▁uieille	-9.12063
▁passage	-9.12097
▁difficile	-9.12152
▁gauche	-9.12156
▁commence	-9.12406
ne	-9.12519
▁fleurs	-9.12603
▁prend	-9.12615
▁capitaine	-9.1274
▁mars	-9.13007
▁ligne	-9.13122
▁foule	-9.13131
▁origine	-9.13391
▁palais	-9.13457
▁text	-9.1365
▁dieux	-9.13691
▁beaux	-9.13748
▁expression	-9.13841
▁auenir	-9.14028
▁traduction	-9.1419
▁droits	-9.14207
▁parfois	-9.14515
▁sciences	-9.14631
▁scene	-9.15072
▁porter	-9.15113
▁plupart	-9.1523
▁academie	-9.15344
▁diuerses	-9.15348
▁soi	-9.15792
▁attention	-9.15858
▁iournal	-9.1595
▁cotes	-9.16491
▁desir	-9.16585
▁italie	-9.1659
▁manque	-9.16648
▁top	-9.16805
▁ecria	-9.17228
▁particuliere	-9.17652
▁mai	-9.17658
▁uenu	-9.1772
le	-9.18186
▁cest	-9.18296
▁uraiment	-9.18318
ront	-9.18407
▁henri	-9.18558
▁noir	-9.18918
▁belles	-9.19026
▁sortir	-9.1903
▁intelligence	-9.19287
▁chateau	-9.19348
ur	-9.19388
▁republique	-9.19543
▁don	-9.19598
▁somme	-9.19608
▁ieunesse	-9.19647
▁agit	-9.19773
▁connaissance	-9.19875
▁francois	-9.19939
▁diuers	-9.1995
▁entrer	-9.20147
▁courage	-9.20148
▁tantot	-9.20161
▁existe	-9.20278
▁roman	-9.20592
▁entendu	-9.20599
▁eaux	-9.20837
▁met	-9.2094
▁ordinaire	-9.20974
▁front	-9.21068
▁soldats	-9.21104
▁souuenir	-9.21187
▁hors	-9.21199
▁musique	-9.21203
▁trente	-9.21291
▁pieces	-9.21512
▁ouurages	-9.21678
▁cheuaux	-9.21917
▁allemagne	-9.22095
on	-9.22206
▁certaines	-9.22301
▁recu	-9.22303
▁tombe	-9.22479
▁humaine	-9.22515
▁souuenirs	-9.22541
▁signe	-9.22635
▁ancienne	-9.22704
▁filles	-9.22705
▁cite	-9.22725
▁suiure	-9.22777
▁comprendre	-9.22904
▁nouueaux	-9.23045
▁ennemi	-9.23266
▁progres	-9.23659
▁donna	-9.23695
▁dun	-9.23976
▁pages	-9.24195
▁iuillet	-9.2424
▁faueur	-9.24348
▁complete	-9.24366
▁riche	-9.24599
▁dites	-9.24601
▁docteur	-9.247
▁derniers	-9.24732
oit	-9.25011
▁experience	-9.25122
▁w	-9.25166
▁trouuait	-9.25237
▁freres	-9.25254
▁malheur	-9.25261
▁publique	-9.25329
▁texte	-9.25403
▁moitie	-9.25449
▁iacques	-9.25588
▁regarde	-9.25658
▁couleur	-9.25763
▁autrefois	-9.25821
▁conduite	-9.25827
▁campagne	-9.25849
▁uii	-9.25877
▁commun	-9.25903
▁width	-9.26132
▁ombre	-9.265
▁moindre	-9.26539
▁bord	-9.2658
▁uin	-9.26626
▁uoie	-9.26629
▁critique	-9.2677
▁forte	-9.26913
▁douleur	-9.26998
▁passion	-9.27
▁commune	-9.27449
▁abbe	-9.27488
▁ennemis	-9.27507
▁tient	-9.27539
▁uoulez	-9.27568
▁coups	-9.27791
▁double	-9.27908
▁interieur	-9.27935
▁mourir	-9.27946
▁doux	-9.28009
ant	-9.28272
▁dauantage	-9.28366
▁iuge	-9.2843
▁facile	-9.28492
▁etranger	-9.28517
▁aide	-9.28532
▁arbres	-9.28592
▁con	-9.28612
en	-9.28653
▁egard	-9.28853
▁confiance	-9.28864
▁auance	-9.28907
▁uoyant	-9.2897
▁uilles	-9.29429
▁ferme	-9.29697
▁ile	-9.2984
▁ix	-9.30194
▁connu	-9.30229
▁premieres	-9.30247
▁regne	-9.30316
▁secret	-9.30441
▁particulier	-9.30468
▁large	-9.30531
▁lesquels	-9.30563
▁plan	-9.30737
▁luy	-9.30854
▁differentes	-9.30879
▁reue	-9.30982
▁ex	-9.31232
▁questions	-9.31415
▁certaine	-9.31417
▁ch	-9.31717
▁bataille	-9.31723
▁moeurs	-9.32079
▁partir	-9.32083
▁nation	-9.32162
▁noms	-9.32166
▁pratique	-9.32219
▁as	-9.32385
▁larmes	-9.32469
▁compagnie	-9.32797
▁malheureux	-9.32901
▁champ	-9.32914
▁auquel	-9.3307
▁interets	-9.33073
▁points	-9.33117
▁entiere	-9.33328
▁royaume	-9.33537
▁triste	-9.33727
▁president	-9.33743
▁esprits	-9.33967
▁londres	-9.3422
▁faute	-9.3441
▁quantite	-9.34471
▁cherche	-9.34488
▁border	-9.34517
▁salle	-9.34585
▁race	-9.34608
▁enuiron	-9.34658
▁arriuer	-9.34716
▁lire	-9.34778
▁fais	-9.34878
▁propres	-9.35057
▁lutte	-9.3507
▁utc	-9.35083
▁sud	-9.35089
▁rire	-9.35094
ai	-9.35144
▁croit	-9.35292
▁toutefois	-9.35296
▁obiets	-9.35335
▁perdre	-9.35336
▁necessite	-9.35475
▁auis	-9.35636
▁litterature	-9.35655
▁attendre	-9.35839
▁aurais	-9.35955
▁moderne	-9.35986
▁termes	-9.36108
▁bons	-9.36256
▁millions	-9.363
▁blanche	-9.36327
▁tableau	-9.36602
▁receuoir	-9.36613
▁quelqu	-9.36777
▁chefs	-9.36821
▁poesie	-9.3721
▁nul	-9.37216
▁education	-9.37377
▁uiii	-9.37445
▁neuf	-9.37492
▁importance	-9.37504
▁assemblee	-9.37526
▁midi	-9.37531
▁endroit	-9.37675
▁cf	-9.37723
▁circonstances	-9.37729
▁chere	-9.37756
▁penser	-9.379
▁dela	-9.37952
▁noble	-9.38006
▁rend	-9.38432
▁uiue	-9.38454
▁center	-9.38455
▁maitres	-9.38499
▁cheualier	-9.38564
▁reponse	-9.38875
▁direction	-9.3888
▁er	-9.38898
▁montrer	-9.38975
▁entier	-9.39146
▁sauait	-9.39379
▁absolument	-9.39522
ez	-9.39531
▁cents	-9.39696
▁siecles	-9.3974
▁mademoiselle	-9.39864
▁deuient	-9.40025
▁naturelle	-9.40184
▁pleine	-9.40201
▁el	-9.40223
▁rois	-9.40327
▁cheueux	-9.40356
▁digne	-9.40396
▁secours	-9.40413
▁tels	-9.40446
▁ecrire	-9.40491
▁trouua	-9.40567
▁froid	-9.40707
▁cru	-9.40714
▁realite	-9.40748
▁position	-9.40829
▁montagnes	-9.40951
▁tirer	-9.41054
▁serie	-9.41317
▁calme	-9.4152
▁depart	-9.41609
▁mm	-9.41626
▁change	-9.41932
▁doctrine	-9.41939
▁uont	-9.42036
▁puisqu	-9.42332
▁actes	-9.42807
▁arrete	-9.42811
▁prouince	-9.42821
▁traits	-9.42877
▁langage	-9.42944
▁sauez	-9.42968
▁maisons	-9.43194
▁condition	-9.43195
▁colere	-9.43254
▁especes	-9.43349
▁parut	-9.43543
▁uiens	-9.4358
▁iardin	-9.43752
▁port	-9.439
de	-9.43964
▁danger	-9.44045
ais	-9.44046
▁efforts	-9.44301
▁etudes	-9.44371
▁di	-9.44396
▁espace	-9.44437
▁russie	-9.44438
▁entree	-9.44517
▁pensees	-9.44576
▁douze	-9.44583
▁monte	-9.44699
▁diable	-9.44734
▁crainte	-9.44762
▁cou	-9.44807
▁rendu	-9.44856
▁immense	-9.44941
ient	-9.4502
▁su	-9.45098
▁uoyait	-9.45297
▁hasard	-9.45313
▁ieu	-9.45343
▁adresse	-9.45488
▁disant	-9.45493
▁lesquelles	-9.45514
▁imagination	-9.45535
▁image	-9.45539
▁ualign	-9.45552
▁pauures	-9.45734
▁sourire	-9.45754
▁dessous	-9.45833
▁occupe	-9.46002
▁patrie	-9.46187
▁nombreux	-9.46299
▁amitie	-9.46557
▁distance	-9.46593
▁considerable	-9.46596
▁uoulut	-9.46633
▁lune	-9.46675
▁deuenir	-9.46708
▁naturel	-9.46731
▁repondre	-9.46795
▁lignes	-9.46826
▁humanite	-9.46857
▁proiet	-9.46968
▁temple	-9.47003
▁arts	-9.47037
▁sein	-9.47052
▁tire	-9.47054
▁suiets	-9.47076
▁demeure	-9.4718
▁uoltaire	-9.4728
▁ceci	-9.4731
in	-9.4736
▁troupes	-9.47469
▁auraient	-9.47502
▁prise	-9.47507
▁espagne	-9.47669
▁uouloir	-9.47773
▁graue	-9.47837
▁aout	-9.47928
▁auril	-9.48023
▁lu	-9.48039
▁combat	-9.48285
▁malade	-9.4838
▁he	-9.48447
▁humain	-9.48492
▁siege	-9.48521
▁terme	-9.4887
▁oblige	-9.49016
▁degre	-9.49044
▁tomber	-9.49125
▁unique	-9.49164
▁remarque	-9.49232
▁demain	-9.49242
▁reconnaitre	-9.49312
▁orgueil	-9.49345
▁details	-9.49397
▁poids	-9.49451
▁douce	-9.49612
▁feuilles	-9.49653
▁repos	-9.49709
▁theorie	-9.49959
▁textes	-9.49991
▁ordres	-9.50023
▁sc	-9.5007
▁solid	-9.50266
▁qualite	-9.5028
▁fera	-9.50288
▁iuin	-9.50333
▁union	-9.50383
▁contes	-9.50436
▁notes	-9.50471
▁politiques	-9.50599
▁pont	-9.50645
ie	-9.50753
▁causes	-9.51016
▁uillage	-9.51146
▁celebre	-9.51377
▁importe	-9.5148
▁rousseau	-9.51528
▁riuiere	-9.51686
▁simplement	-9.51821
▁per	-9.51847
▁terrible	-9.5185
▁allez	-9.51941
▁deuint	-9.52028
▁crime	-9.52113
▁difference	-9.52164
▁historique	-9.52388
▁court	-9.52503
▁seraient	-9.52617
▁compose	-9.52753
▁dune	-9.52785
▁preuue	-9.52791
▁sert	-9.52838
▁tenait	-9.52918
▁respect	-9.53113
▁iugement	-9.53125
▁aioute	-9.53141
▁empecher	-9.5318
▁rester	-9.53268
▁chaleur	-9.53419
▁enfans	-9.53436
▁commencement	-9.53457
▁cri	-9.5346
▁nations	-9.53549
▁compris	-9.53579
▁presse	-9.53613
▁prie	-9.53658
▁rapports	-9.53801
▁etrange	-9.53906
▁leures	-9.53913
▁uiennent	-9.53986
▁centre	-9.53996
▁arriuee	-9.54077
▁entierement	-9.54366
▁grandeur	-9.54366
▁of	-9.54384
▁deueloppement	-9.54389
▁bonnes	-9.54432
▁mme	-9.54502
▁pur	-9.54526
▁parfaitement	-9.54571
▁pourra	-9.54621
▁iournee	-9.54713
▁papier	-9.54724
▁peche	-9.5501
▁nationale	-9.55014
▁tache	-9.55062
▁clair	-9.55115
▁constitution	-9.55165
▁pain	-9.55176
▁ames	-9.553
▁militaire	-9.553
▁marquis	-9.55309
▁octobre	-9.55384
▁consequent	-9.55507
▁resultat	-9.55664
▁ianuier	-9.55671
▁suffit	-9.55683
▁xiu	-9.55781
▁saurait	-9.55804
▁uoyons	-9.56059
▁aimer	-9.56221
▁masse	-9.56258
▁etendue	-9.56277
▁helas	-9.56352
▁autrement	-9.56495
▁obtenir	-9.56672
▁frappe	-9.56677
▁portes	-9.56728
▁permis	-9.56819
▁dois	-9.56858
▁faible	-9.56898
rait	-9.56932
▁tort	-9.57164
▁ioseph	-9.57272
▁septembre	-9.57429
▁frais	-9.57478
▁courant	-9.57589
▁paru	-9.57707
▁religieux	-9.57781
▁hauteur	-9.57806
▁choix	-9.57821
▁certainement	-9.57851
▁completement	-9.57871
▁regarder	-9.5795
▁uisite	-9.58027
▁hier	-9.58198
▁seuls	-9.58234
▁q	-9.58359
▁auteurs	-9.58419
▁recherches	-9.58498
▁faisaient	-9.58624
▁naissance	-9.5872
▁croix	-9.58727
▁mauuaise	-9.58743
▁orient	-9.5879
▁durant	-9.58897
▁date	-9.58904
▁pape	-9.59099
▁dos	-9.59105
▁quinze	-9.59114
▁sand	-9.59184
▁classe	-9.59337
▁erreur	-9.59484
▁alla	-9.59537
▁mode	-9.59608
▁firent	-9.59627
▁montagne	-9.59646
▁fonctions	-9.59657
▁propriete	-9.59667
▁deuenu	-9.59672
▁	-9.59677
▁recit	-9.59708
▁terres	-9.59724
▁lieux	-9.59851
▁iusque	-9.59862
▁index	-9.599
▁latn	-9.59921
▁ueille	-9.59949
▁pouuaient	-9.59977
▁obseruations	-9.60105
▁taille	-9.60107
▁couronne	-9.60118
▁animal	-9.60152
▁ut	-9.60205
que	-9.60213
▁extreme	-9.60256
▁effort	-9.6029
▁arbre	-9.60429
▁chine	-9.60608
▁profonde	-9.60725
▁enuers	-9.60794
▁habitude	-9.60856
▁oiseaux	-9.61046
▁heureuse	-9.61179
▁etrangers	-9.61231
▁mise	-9.61329
▁donnait	-9.61336
▁represente	-9.61537
▁eternel	-9.61636
▁meilleur	-9.61737
▁regle	-9.61753
▁expliquer	-9.61821
▁hotel	-9.61824
▁accord	-9.62024
▁maitresse	-9.62041
▁telles	-9.62279
▁talent	-9.6232
▁naturellement	-9.62471
▁sage	-9.62514
▁grecs	-9.62544
▁arriere	-9.62566
▁latin	-9.62631
▁utile	-9.62705
▁dernieres	-9.62784
▁quitter	-9.62792
▁semblable	-9.62892
▁assure	-9.62907
▁quelles	-9.62936
▁officiers	-9.6294
▁espoir	-9.6297
▁quarante	-9.63104
▁eueque	-9.63116
▁comtesse	-9.63139
▁qualites	-9.63145
▁uictoire	-9.63298
▁effets	-9.63389
▁tems	-9.63485
▁methode	-9.63571
▁administration	-9.63822
▁cinquante	-9.6385
at	-9.6399
▁population	-9.64027
▁passions	-9.64139
▁source	-9.64151
▁pretre	-9.64262
▁physique	-9.64336
ns	-9.64436
▁rang	-9.64446
▁sante	-9.64494
▁uaste	-9.64733
▁eclat	-9.64803
▁champs	-9.64882
▁reserue	-9.64977
▁pitie	-9.65194
▁chasse	-9.65266
▁morts	-9.65302
▁uiuant	-9.65369
▁base	-9.65538
▁quels	-9.65542
▁xi	-9.65569
▁etablir	-9.65575
▁garcon	-9.65578
la	-9.65674
▁tot	-9.65761
▁heros	-9.65838
▁mi	-9.65949
▁offre	-9.66163
▁faux	-9.66226
▁defense	-9.66259
▁tendre	-9.66266
▁princesse	-9.66354
▁cris	-9.6636
ia	-9.66395
▁terrain	-9.66443
▁arreter	-9.66584
▁al	-9.66606
▁quitte	-9.66672
▁ouuriers	-9.66675
▁raisons	-9.66984
▁ministere	-9.67028
▁ouest	-9.67131
▁pre	-9.67139
▁die	-9.67171
▁hiuer	-9.67199
▁padding	-9.67254
▁regime	-9.67388
▁maieste	-9.67465
▁ioue	-9.67615
▁aiouta	-9.6763
▁pure	-9.67649
▁trouuent	-9.68085
▁grec	-9.68256
▁impression	-9.6826
▁parlement	-9.68309
as	-9.68344
▁manger	-9.68371
▁relations	-9.68502
▁ur	-9.68543
▁sentiments	-9.68588
▁artiste	-9.68625
▁songe	-9.68639
▁touche	-9.68639
▁uenus	-9.68803
▁payer	-9.68821
▁fete	-9.68959
▁caracteres	-9.69012
▁collection	-9.69072
▁salut	-9.69294
▁neanmoins	-9.69296
h	-9.69455
▁commission	-9.69492
▁nodots	-9.6956
▁pouuons	-9.69604
▁fou	-9.69674
▁rose	-9.69726
▁sagesse	-9.69876
▁oublie	-9.69977
▁uaut	-9.70098
▁enuie	-9.70136
▁uain	-9.70304
▁xu	-9.70413
▁camp	-9.70442
▁decembre	-9.70444
▁defendre	-9.70595
▁uniuerselle	-9.70623
▁actions	-9.7063
▁industrie	-9.70679
ions	-9.70797
▁sentir	-9.70959
▁unite	-9.71032
▁donnent	-9.71064
▁messieurs	-9.71158
▁tue	-9.71166
▁passa	-9.71433
▁donnee	-9.71489
▁maladie	-9.71542
▁iuger	-9.71559
▁culte	-9.71646
▁mur	-9.71666
▁reuenir	-9.71696
f	-9.71708
▁pierres	-9.71755
▁peinture	-9.7186
▁uoiture	-9.71882
▁aspect	-9.71904
▁haine	-9.71917
▁aise	-9.72003
▁peres	-9.72202
▁philippe	-9.72286
▁cap	-9.72289
▁cabinet	-9.72318
▁napoleon	-9.7236
▁princes	-9.72404
▁spectacle	-9.72404
▁faudrait	-9.72428
▁instruction	-9.72517
▁connait	-9.72563
▁oncle	-9.72666
▁marque	-9.72859
▁regards	-9.72867
▁gre	-9.72924
▁feurier	-9.72942
▁assis	-9.72974
▁recherche	-9.72987
▁continue	-9.73018
▁conduit	-9.73085
▁deuaient	-9.73124
▁couleurs	-9.73128
▁pa	-9.73165
▁grc	-9.73195
▁fixe	-9.73205
▁apprendre	-9.73232
▁coin	-9.73261
▁uraie	-9.73268
▁cercle	-9.73295
▁noire	-9.7337
▁catholique	-9.73431
▁portee	-9.73485
▁auantage	-9.735
et	-9.73546
▁desormais	-9.73648
▁longues	-9.73689
▁diner	-9.73716
▁defaut	-9.73723
▁chair	-9.73758
▁parlait	-9.73991
▁estime	-9.73994
▁necessaires	-9.7411
▁lac	-9.74151
▁st	-9.74182
▁do	-9.74296
▁enseignement	-9.74307
▁precisement	-9.74375
▁aient	-9.74381
▁rues	-9.74402
▁bleu	-9.74469
▁amerique	-9.74625
▁appele	-9.7463
▁surface	-9.74666
▁auions	-9.74694
▁disent	-9.74695
▁conserue	-9.74858
▁appris	-9.74886
▁biens	-9.75061
oient	-9.75141
▁attache	-9.75168
▁uiuement	-9.75202
▁prison	-9.75205
▁periode	-9.7522
▁z	-9.75248
▁eleues	-9.75304
▁inutile	-9.75369
▁fini	-9.75394
▁trouble	-9.75513
▁treuoux	-9.75546
▁murs	-9.75603
▁assurer	-9.75687
▁romains	-9.75716
▁ber	-9.75866
▁parents	-9.75897
▁basse	-9.75921
▁riches	-9.75929
▁uierge	-9.7602
▁nouembre	-9.76179
▁conuersation	-9.76229
▁curieux	-9.76368
▁medecin	-9.76421
▁emploi	-9.7646
▁ose	-9.76599
▁guillaume	-9.76603
▁tellement	-9.76642
▁pareil	-9.76862
▁soins	-9.7689
▁minutes	-9.76927
▁immediatement	-9.77062
▁couche	-9.77167
▁habitants	-9.77222
▁complet	-9.77233
▁nulle	-9.77236
▁figures	-9.77253
▁etres	-9.77366
▁rare	-9.77372
▁groupe	-9.77549
▁fleuue	-9.77585
▁hugo	-9.77587
▁prouue	-9.77637
▁sent	-9.77652
▁garder	-9.77738
▁pro	-9.77782
▁arriua	-9.77792
rai	-9.77806
▁oreille	-9.77873
▁capable	-9.77875
▁charme	-9.77941
▁uniuers	-9.77995
▁debout	-9.78223
▁egypte	-9.78249
▁xii	-9.78294
▁enuoye	-9.78317
mes	-9.78328
▁certes	-9.78405
▁litteraire	-9.78416
▁it	-9.78425
▁baron	-9.78529
▁simples	-9.78529
▁passant	-9.78534
▁iadis	-9.78656
▁iuifs	-9.78802
▁pascal	-9.78822
▁possede	-9.78924
▁surprise	-9.78985
▁ange	-9.79091
▁energie	-9.79143
▁peau	-9.79165
▁intention	-9.79223
▁chacune	-9.79262
▁superieur	-9.79263
▁seiour	-9.79285
▁police	-9.79288
▁xui	-9.79307
▁actiuite	-9.79316
▁organisation	-9.79329
▁merci	-9.79406
▁sombre	-9.79436
▁uide	-9.79529
▁poetes	-9.79657
▁profond	-9.79724
▁agreable	-9.79828
▁eussent	-9.79841
▁disposition	-9.79912
▁salon	-9.80056
▁apparence	-9.8006
▁der	-9.80108
▁iouer	-9.80118
▁mission	-9.80333
▁alexandre	-9.80357
▁roy	-9.8041
▁suiui	-9.80418
▁plantes	-9.80431
▁romain	-9.80456
▁deuxieme	-9.80518
▁uolontiers	-9.80627
▁bel	-9.80716
▁dumas	-9.80776
▁ia	-9.80844
▁gouuerneur	-9.81026
▁diuine	-9.81032
▁fenetre	-9.81071
▁robert	-9.81105
▁ieter	-9.81132
▁rappelle	-9.81177
▁culture	-9.81225
▁sinon	-9.816
▁michel	-9.81664
▁execution	-9.81698
▁coupe	-9.81839
▁chretiens	-9.81908
▁bonte	-9.81909
▁supreme	-9.81972
▁cure	-9.81983
▁souuerain	-9.8204
▁xiii	-9.82045
x	-9.8205
▁mont	-9.82078
▁restait	-9.82085
▁paraitre	-9.82209
▁proces	-9.82219
▁produits	-9.82279
▁esperance	-9.82294
▁cesar	-9.82404
▁compter	-9.82412
▁serieux	-9.82437
▁trompe	-9.82452
▁aimait	-9.82485
▁fleur	-9.825
▁semblables	-9.82584
▁robe	-9.82587
▁sortes	-9.8259
▁attaque	-9.82633
▁membre	-9.82634
▁suit	-9.82638
▁appeler	-9.82686
▁puissant	-9.82687
▁triomphe	-9.82696
▁tente	-9.828
▁elements	-9.82908
▁philosophique	-9.82925
au	-9.82925
▁pareille	-9.83104
▁facilement	-9.83202
▁religieuse	-9.83212
▁chute	-9.83298
▁capitale	-9.83377
▁ecrits	-9.83537
▁resultats	-9.83913
▁entend	-9.83919
▁fidele	-9.84034
▁suppose	-9.84146
▁etoient	-9.84195
▁trone	-9.84208
▁chant	-9.84235
▁professeur	-9.84316
▁places	-9.84531
▁prouinces	-9.84536
▁pouuez	-9.84589
▁appartient	-9.8464
▁difficultes	-9.84805
▁poitrine	-9.84818
▁probablement	-9.85022
▁repond	-9.85162
▁epouse	-9.85234
▁generalement	-9.85429
▁peux	-9.85457
▁emotion	-9.85582
▁sociale	-9.85599
▁uenue	-9.85651
▁explique	-9.85709
▁pousse	-9.85795
▁mesures	-9.85816
▁tre	-9.85867
▁rendit	-9.86013
▁espere	-9.86015
▁philosophe	-9.86193
▁officier	-9.86214
▁prenant	-9.86217
ta	-9.86282
▁fruits	-9.86371
▁section	-9.86463
▁aiouter	-9.86516
▁personnages	-9.86617
▁retraite	-9.8663
▁sommeil	-9.86675
▁uif	-9.86799
▁phenomenes	-9.86819
▁changer	-9.86865
▁chien	-9.86881
▁euidemment	-9.86892
▁dames	-9.86904
▁leon	-9.86977
▁former	-9.87035
▁portait	-9.87061
▁perte	-9.87144
▁declare	-9.87308
▁extraordinaire	-9.87314
▁longueur	-9.87342
▁fus	-9.8742
▁misere	-9.87455
▁po	-9.87546
▁remarquer	-9.87643
▁quoiqu	-9.87698
▁quatrieme	-9.87865
▁ac	-9.87899
▁chretienne	-9.879
▁seruices	-9.87915
▁ueulent	-9.87918
▁adieu	-9.87924
▁ouurir	-9.88003
▁conduire	-9.88027
▁correspondance	-9.88036
▁ailes	-9.88228
▁bourgeois	-9.8824
▁considere	-9.8826
▁iolie	-9.88329
▁partis	-9.88333
▁peintre	-9.88344
▁auparauant	-9.88368
▁inde	-9.88443
▁fis	-9.88458
▁paraissait	-9.88581
▁produire	-9.88661
▁trace	-9.88669
▁genoux	-9.88689
▁cache	-9.88816
▁oublier	-9.88882
▁poste	-9.88894
▁parlant	-9.88905
▁eleuer	-9.88974
▁entra	-9.89026
▁gautier	-9.89089
▁agir	-9.89185
▁lecture	-9.89243
▁conseruer	-9.89254
▁train	-9.89365
▁fussent	-9.89366
▁epee	-9.89382
▁consequence	-9.89424
▁pale	-9.89547
▁absence	-9.8957
▁auguste	-9.89663
▁obseruation	-9.89668
▁laissa	-9.89723
▁generaux	-9.89733
▁nest	-9.8981
▁colonel	-9.89925
▁profit	-9.89931
▁etions	-9.89951
▁sensible	-9.90032
▁retrouue	-9.90071
▁croyez	-9.90084
▁lord	-9.90088
▁mourut	-9.90165
▁oiseau	-9.90187
▁passait	-9.90228
▁id	-9.90231
▁plaisirs	-9.90274
▁populaire	-9.90291
▁connais	-9.90372
▁craindre	-9.90414
▁soldat	-9.90426
▁george	-9.90504
▁changement	-9.90512
▁capital	-9.90571
▁unis	-9.90632
▁portant	-9.9065
▁ardeur	-9.90704
▁geste	-9.90719
▁uoyages	-9.90732
▁allemand	-9.90777
▁bibliotheque	-9.90784
▁classes	-9.9093
▁amie	-9.91023
▁uoudrais	-9.91108
▁cardinal	-9.91143
▁soixante	-9.91252
▁proposition	-9.91273
▁uienne	-9.9134
▁nombreuses	-9.91388
▁richesse	-9.91426
▁fatigue	-9.91439
▁debut	-9.91504
▁croyait	-9.91527
▁uictor	-9.91621
▁publie	-9.91645
▁trait	-9.91704
▁compagnons	-9.91726
▁principaux	-9.91745
▁dents	-9.91886
▁differents	-9.91969
▁euiter	-9.92035
▁nez	-9.92161
▁foret	-9.92252
▁propose	-9.92366
▁opera	-9.92408
▁exactement	-9.92455
▁honte	-9.92525
▁chemins	-9.92577
▁pretres	-9.92617
▁superieure	-9.92678
▁probleme	-9.92689
▁theologie	-9.92757
▁mouuements	-9.9288
▁uertus	-9.92969
▁charges	-9.92979
▁iure	-9.93099
▁citoyens	-9.93147
▁secretaire	-9.93195
▁pointe	-9.93199
▁sauuages	-9.93205
▁conseils	-9.93252
▁aimable	-9.93352
▁uiolence	-9.93359
▁auxquels	-9.9338
▁iambes	-9.93407
▁bretagne	-9.93408
▁pret	-9.93465
▁noirs	-9.93628
▁ment	-9.93629
▁rapide	-9.93633
▁ciuilisation	-9.93649
▁affection	-9.93714
▁prete	-9.93861
me	-9.93866
▁humeur	-9.93897
▁gagner	-9.94093
▁dut	-9.94138
ts	-9.94188
▁sauant	-9.94471
▁tiens	-9.94505
▁souffle	-9.94524
▁soudain	-9.9453
▁distingue	-9.9467
▁fig	-9.94706
▁offrir	-9.94766
▁ul	-9.94838
▁rapporte	-9.94851
▁pose	-9.94895
▁ministres	-9.94898
les	-9.94959
▁iules	-9.94969
os	-9.95068
▁destinee	-9.95088
▁decide	-9.95167
▁os	-9.95183
▁ecoles	-9.95337
▁no	-9.95446
▁portrait	-9.95493
▁difficulte	-9.95576
▁recueil	-9.9564
▁longs	-9.95649
▁bible	-9.95655
▁serui	-9.95699
▁uice	-9.95753
▁uoile	-9.95763
▁atteint	-9.95852
▁amant	-9.9589
▁branches	-9.95916
▁douceur	-9.96052
▁is	-9.96071
▁modele	-9.96119
▁continua	-9.96173
▁besoins	-9.96211
▁poesies	-9.96224
▁iournaux	-9.96301
▁fonds	-9.96316
▁comprend	-9.96357
se	-9.96359
▁fasse	-9.96426
▁cousin	-9.9649
▁principal	-9.96543
▁egale	-9.96572
▁exces	-9.96665
▁metres	-9.96684
▁duree	-9.96688
▁royal	-9.96842
▁raconte	-9.9687
▁modernes	-9.96901
▁epaules	-9.96937
▁anglaise	-9.96968
▁annonce	-9.97067
▁antoine	-9.9719
▁tenu	-9.97204
▁uieillard	-9.97285
▁royale	-9.97327
▁nuits	-9.97378
▁mepris	-9.97383
▁economie	-9.97425
▁introduction	-9.97457
▁russe	-9.97472
▁echapper	-9.97484
▁opposition	-9.97485
▁dedans	-9.97498
▁appelait	-9.9754
▁monter	-9.97541
▁honnete	-9.97657
▁sire	-9.97725
▁conuient	-9.97809
▁consiste	-9.97812
▁abandonne	-9.97868
▁fruit	-9.97922
▁parfaite	-9.9797
▁horreur	-9.97981
▁recut	-9.98007
▁tranquille	-9.98035
▁egal	-9.98038
▁souffrir	-9.98041
▁poeme	-9.98103
▁soutenir	-9.98156
▁uallee	-9.98221
▁rayons	-9.98335
▁ressources	-9.98343
em	-9.98391
▁leue	-9.98409
▁sauuage	-9.98415
▁sauuer	-9.98472
▁ouuerte	-9.98478
▁reflexions	-9.98492
iez	-9.985
▁resistance	-9.98542
▁laissant	-9.98547
▁domaine	-9.9857
▁garnier	-9.98643
▁semblent	-9.98683
▁inconnu	-9.98699
▁ti	-9.98705
▁indique	-9.98765
▁marechal	-9.98791
▁auoient	-9.9888
▁leua	-9.98906
▁armees	-9.98907
▁commenca	-9.98982
▁dignite	-9.98986
▁uert	-9.98998
▁pluie	-9.99022
▁enfance	-9.99039
▁ab	-9.99209
▁comedie	-9.99307
▁sentait	-9.99418
▁gagne	-9.9943
▁possession	-9.99521
▁absolue	-9.99552
▁eurent	-9.99559
▁andre	-9.99681
▁bords	-9.99831
▁description	-9.99905
▁attendant	-9.99937
▁occuper	-9.99941
▁marcher	-9.99963
▁ecoute	-9.99965
▁dispositions	-9.99995
▁apporte	-10.0002
▁grece	-10.0009
▁noblesse	-10.0012
▁resta	-10.0013
▁opinions	-10.0014
▁ay	-10.0019
▁bete	-10.0019
▁admirable	-10.0029
▁curiosite	-10.003
▁matieres	-10.003
▁chap	-10.0031
▁sacrifice	-10.0035
▁suiuante	-10.0038
▁reellement	-10.005
▁reuint	-10.005
▁composition	-10.0054
▁quelconque	-10.0054
▁braue	-10.0055
▁ecriture	-10.0061
▁rares	-10.0064
ux	-10.0065
▁priere	-10.0073
▁queue	-10.008
▁doigts	-10.0081
▁ordinairement	-10.0082
▁rapidement	-10.0084
▁plait	-10.0085
▁romans	-10.0086
▁precieux	-10.0089
▁ri	-10.0089
▁euenements	-10.0091
▁esclaues	-10.0107
▁nicolas	-10.0108
▁chinois	-10.0109
▁and	-10.0113
▁etablissement	-10.0121
▁presenter	-10.0129
▁appel	-10.0134
▁hist	-10.0136
▁procede	-10.0137
▁doucement	-10.0137
▁meilleure	-10.0138
▁reuenu	-10.0144
▁ecriuains	-10.0145
▁uan	-10.0146
▁regardait	-10.0147
▁quon	-10.0147
▁indiuidu	-10.0148
▁familles	-10.0148
▁personnage	-10.0151
na	-10.0154
▁examen	-10.0159
▁donnant	-10.0173
▁credit	-10.0175
▁etabli	-10.018
▁leuer	-10.0183
▁ideal	-10.0184
▁diuision	-10.0188
▁utilisateur	-10.0191
▁diuin	-10.0192
▁decouurir	-10.0194
▁atteindre	-10.0195
▁expose	-10.0195
▁antique	-10.0201
▁tableaux	-10.0206
▁decouuerte	-10.0214
▁maurice	-10.0216
▁ruine	-10.0219
▁zele	-10.0221
▁ualides	-10.0225
▁pl	-10.0243
▁cree	-10.0245
▁images	-10.025
▁lentement	-10.0251
▁exprimer	-10.0252
▁tourne	-10.026
▁folie	-10.0262
▁na	-10.0267
▁admiration	-10.0268
▁illustre	-10.0269
▁etonne	-10.029
▁obseruer	-10.0293
▁reconnaissance	-10.0296
▁instrument	-10.031
▁iustement	-10.0312
▁faculte	-10.0314
▁trauailler	-10.0316
▁articles	-10.0319
▁christianisme	-10.032
▁dure	-10.0324
▁uerre	-10.0327
▁desire	-10.0331
▁forment	-10.0341
▁lieutenant	-10.036
▁desert	-10.0365
▁eprouue	-10.037
▁analyse	-10.037
▁boire	-10.0371
▁from	-10.038
▁plume	-10.0381
▁tendresse	-10.0383
▁tradition	-10.0385
▁creation	-10.0401
ont	-10.0403
▁frederic	-10.0406
▁production	-10.0407
▁ferait	-10.0407
▁ieanne	-10.0416
▁deuons	-10.0423
▁condamne	-10.0425
▁faiblesse	-10.0426
▁morceau	-10.0431
▁israel	-10.0434
▁ierusalem	-10.0435
▁signifie	-10.0437
▁finit	-10.0437
▁explication	-10.0444
▁lyon	-10.0445
▁sauf	-10.0446
▁lieues	-10.045
▁metier	-10.0452
▁degres	-10.0468
▁thomas	-10.0469
▁partage	-10.0474
▁necessairement	-10.0474
▁martin	-10.0475
▁reproche	-10.0481
▁canada	-10.0482
▁social	-10.0491
▁betes	-10.0491
▁enuirons	-10.0495
▁directeur	-10.0495
▁racine	-10.0498
▁reuient	-10.0501
▁important	-10.0503
▁reprendre	-10.0504
▁coeurs	-10.0511
▁iette	-10.0512
▁extremite	-10.0513
▁reputation	-10.0518
▁approche	-10.0524
▁nauire	-10.0526
▁maux	-10.0533
▁permet	-10.0533
▁arc	-10.0536
▁prepare	-10.0542
▁be	-10.0544
▁regles	-10.0548
▁moral	-10.0549
▁hautes	-10.0553
▁surpris	-10.056
▁phrase	-10.0567
▁courir	-10.0569
▁detail	-10.0576
▁oreilles	-10.0578
▁brise	-10.058
▁dauid	-10.0581
▁xuiii	-10.0594
▁attendait	-10.0597
▁comptes	-10.0603
▁auenture	-10.0609
▁duquel	-10.061
▁malheureusement	-10.061
▁dessein	-10.0611
▁anciennes	-10.0615
▁gris	-10.0633
▁prenait	-10.0633
▁remarquable	-10.0634
▁substance	-10.0637
▁blancs	-10.0644
ti	-10.0644
▁tuer	-10.0656
▁mine	-10.0657
▁portent	-10.066
▁auoue	-10.0661
▁artistes	-10.0665
▁iaune	-10.067
▁catherine	-10.0671
▁auront	-10.0675
▁desespoir	-10.0677
▁autriche	-10.0681
▁contient	-10.0685
▁type	-10.0689
▁tresor	-10.0692
▁employe	-10.0693
▁discuter	-10.0695
▁maiorite	-10.0704
▁independance	-10.071
▁territoire	-10.0711
▁ecriuain	-10.0717
▁morte	-10.0721
▁essai	-10.0722
▁auantages	-10.0731
▁comite	-10.0739
▁epoux	-10.0745
▁nobles	-10.0749
▁exemples	-10.0751
▁ny	-10.0752
▁euenement	-10.076
▁uenez	-10.0762
▁rappeler	-10.0764
▁neige	-10.0769
▁faim	-10.0769
▁absolu	-10.0774
▁proprement	-10.0781
▁sable	-10.0784
▁quart	-10.0791
▁accepter	-10.0794
▁couuert	-10.0799
▁exprime	-10.0804
▁sommet	-10.0805
▁allemands	-10.0807
▁heureusement	-10.0809
▁enthousiasme	-10.0818
▁proiets	-10.0822
▁consequences	-10.0834
▁profondement	-10.0835
▁regardant	-10.0836
▁uoisins	-10.0837
▁malheurs	-10.0843
▁ble	-10.0843
▁drame	-10.0853
▁limites	-10.0862
▁ieta	-10.0866
▁construction	-10.0884
▁uniuersel	-10.0886
b	-10.0892
▁mystere	-10.0893
▁lecteur	-10.0894
▁soyez	-10.0895
▁duchesse	-10.0907
▁leger	-10.0908
▁corneille	-10.092
▁desirs	-10.0925
k	-10.0926
▁carriere	-10.0927
▁pretexte	-10.0933
▁grosse	-10.0934
▁manieres	-10.0935
▁glace	-10.0937
▁naitre	-10.0937
▁iesuites	-10.0938
▁fil	-10.0938
▁representation	-10.0942
▁reduit	-10.0946
▁protection	-10.0951
▁plante	-10.0955
▁testament	-10.0963
▁attitude	-10.0982
▁marguerite	-10.0992
▁directement	-10.0994
urs	-10.1001
il	-10.1005
▁signes	-10.1006
▁parfait	-10.1015
ssent	-10.1016
▁resolution	-10.1021
▁plaine	-10.1021
▁refuse	-10.1022
▁alliance	-10.1035
▁bureau	-10.1042
▁maior	-10.105
▁simon	-10.1052
▁uues	-10.1063
▁esclaue	-10.1065
▁sortit	-10.1068
▁amoureux	-10.1079
▁gr	-10.1081
▁chapeau	-10.1082
▁sacre	-10.1083
▁different	-10.109
▁uenaient	-10.1092
▁marc	-10.1095
▁circonstance	-10.1098
▁deuenue	-10.1104
▁richesses	-10.1106
▁formation	-10.1116
▁uc	-10.1116
al	-10.1117
▁ere	-10.1124
▁arme	-10.1127
▁appui	-10.1137
▁monnaie	-10.1144
▁application	-10.1147
▁fonction	-10.1148
▁iles	-10.115
▁uerne	-10.1155
▁arreta	-10.1156
▁fieure	-10.1162
▁henry	-10.1172
ue	-10.1183
▁retrouuer	-10.1188
▁guide	-10.1189
▁coucher	-10.1197
▁ouuert	-10.1201
▁romaine	-10.1201
▁ruines	-10.1207
tte	-10.1211
▁indiuidus	-10.1214
▁seroit	-10.1215
▁ignore	-10.1217
▁sir	-10.1217
▁nourriture	-10.122
▁institutions	-10.1221
▁tolstoi	-10.1223
▁societes	-10.1232
▁aisement	-10.1235
▁mele	-10.1235
▁cerueau	-10.1235
▁remplir	-10.124
ge	-10.1245
ce	-10.125
▁habitans	-10.1253
▁empeche	-10.126
▁repas	-10.1273
▁lecons	-10.1275
▁nu	-10.1282
▁seuere	-10.129
▁descendre	-10.1291
▁magnifique	-10.1294
▁langues	-10.1296
▁reconnu	-10.1298
▁tristesse	-10.1299
▁emporte	-10.1301
▁reuolutionnaire	-10.1302
▁chagrin	-10.1302
▁enuoyer	-10.1303
▁troupe	-10.1308
▁coupable	-10.1309
▁maman	-10.131
▁iai	-10.1311
▁horizon	-10.1311
▁solution	-10.134
▁commandant	-10.1347
▁connaissait	-10.1352
▁serai	-10.1356
▁employer	-10.1374
▁logique	-10.1376
▁franc	-10.1377
▁infini	-10.1382
▁etoiles	-10.1384
▁conception	-10.139
▁ouure	-10.1391
▁libres	-10.1391
▁pi	-10.1412
▁albert	-10.1414
▁serais	-10.1415
▁amene	-10.1423
ite	-10.1424
▁auxquelles	-10.1427
▁ambition	-10.1428
▁motif	-10.143
▁deuoirs	-10.1435
▁uague	-10.1436
▁harmonie	-10.1442
▁national	-10.1445
▁enorme	-10.1446
▁resulte	-10.1452
▁chretien	-10.1453
▁hate	-10.146
▁philosophes	-10.1465
▁cum	-10.1466
▁da	-10.1475
▁legere	-10.1481
▁georges	-10.149
▁concours	-10.1493
▁reforme	-10.1496
▁sois	-10.1501
▁commis	-10.1507
▁toucher	-10.1509
▁cacher	-10.1511
▁ignorance	-10.152
▁equilibre	-10.1524
▁uapeur	-10.1526
▁und	-10.1526
▁connue	-10.153
▁iete	-10.1536
▁laissait	-10.1539
▁accorde	-10.154
▁placer	-10.1543
▁chapelle	-10.1547
▁assurement	-10.1547
▁eloigne	-10.1551
▁tante	-10.1562
▁tenant	-10.1572
▁riue	-10.1574
▁satisfaction	-10.1575
▁faudra	-10.1578
▁echappe	-10.1579
▁operation	-10.1585
▁preuues	-10.1593
▁region	-10.1593
▁printemps	-10.1601
▁seruent	-10.1608
▁menace	-10.1613
▁oppose	-10.1616
▁obserue	-10.162
▁prononce	-10.1621
▁iuges	-10.1622
▁solide	-10.1623
▁prouuer	-10.1635
▁bal	-10.1637
▁ridicule	-10.164
▁conquete	-10.1649
▁sentimens	-10.165
▁termine	-10.1655
▁intime	-10.166
▁edit	-10.1662
▁allaient	-10.1677
▁canon	-10.1677
▁miss	-10.1692
▁entreprise	-10.1696
▁aueugle	-10.1707
▁demandait	-10.1714
tes	-10.1716
▁quartier	-10.1716
▁ha	-10.1719
▁brusquement	-10.1722
▁platon	-10.174
▁considerer	-10.1751
▁fontaine	-10.1755
▁habile	-10.1756
g	-10.1766
▁uarietes	-10.1767
▁pardon	-10.1776
▁college	-10.1777
▁recoit	-10.1781
▁trauaille	-10.1791
▁encyclopedie	-10.1802
▁regarda	-10.1807
▁combattre	-10.181
▁conclusion	-10.1813
▁excellent	-10.1813
▁crut	-10.1819
▁eus	-10.1822
p	-10.1828
▁temoignage	-10.1831
▁soumis	-10.1832
▁charmante	-10.1847
▁nouuel	-10.1847
▁successiuement	-10.1853
▁terreur	-10.1872
▁habitudes	-10.1885
▁personnel	-10.1896
▁choisir	-10.1897
▁graues	-10.1897
▁proie	-10.1899
▁exercice	-10.1899
▁blesse	-10.1901
▁tetes	-10.1904
▁ar	-10.1904
▁remettre	-10.1917
▁habit	-10.1922
▁fideles	-10.1922
▁balzac	-10.1924
▁equation	-10.1925
▁coutume	-10.1928
▁singulier	-10.1937
▁fa	-10.1939
▁toit	-10.194
▁fauorable	-10.1947
▁entends	-10.1952
▁inspire	-10.1971
▁charite	-10.1976
▁scientifique	-10.1983
▁melange	-10.1983
▁tours	-10.1985
▁gardes	-10.1989
▁pourraient	-10.1998
▁reunion	-10.2006
ine	-10.2008
▁liste	-10.2009
▁marbre	-10.2009
▁legende	-10.2012
▁rendus	-10.2013
▁uoyageurs	-10.2015
▁saints	-10.2016
▁claire	-10.2017
▁communes	-10.2018
▁afrique	-10.2023
▁com	-10.2029
▁applique	-10.203
▁aristote	-10.2033
▁nullement	-10.2043
▁uniquement	-10.2046
▁accompagne	-10.2049
▁saisir	-10.205
▁fureur	-10.206
▁semaine	-10.2062
▁essais	-10.2064
▁militaires	-10.2072
▁formule	-10.2075
▁prusse	-10.2078
▁statue	-10.2079
▁puissances	-10.2081
▁laissez	-10.2082
▁uigueur	-10.2096
▁pouuais	-10.2096
▁graces	-10.2098
▁autel	-10.2099
▁donnees	-10.2106
▁bold	-10.2106
▁determine	-10.2118
▁precedent	-10.2119
▁operations	-10.212
▁element	-10.2122
ier	-10.2125
▁retirer	-10.2129
▁groupes	-10.2135
an	-10.2138
▁anges	-10.2141
▁aurez	-10.2147
▁semaines	-10.215
▁rouges	-10.2157
▁depit	-10.2161
▁separe	-10.2163
▁mysteres	-10.2171
▁meilleurs	-10.2174
▁retourner	-10.2174
▁perfection	-10.2179
▁pouuant	-10.2185
▁co	-10.2188
▁senat	-10.2189
▁historiques	-10.219
▁miserable	-10.2197
▁echange	-10.2204
▁ferai	-10.2205
▁ouurit	-10.2214
▁conuention	-10.2216
▁suisse	-10.2216
▁uecu	-10.2218
▁instinct	-10.2234
▁auentures	-10.2236
am	-10.2236
▁manifeste	-10.225
▁escalier	-10.2254
▁decouuert	-10.2256
▁ue	-10.2262
▁religieuses	-10.2262
▁inquietude	-10.2268
▁soie	-10.2274
▁promis	-10.2275
▁gorge	-10.2277
▁etudier	-10.2294
▁repete	-10.2298
▁chiens	-10.2301
▁reflexion	-10.2325
▁pouruu	-10.2326
▁fi	-10.2328
▁traites	-10.2329
▁xuii	-10.233
▁reelle	-10.2335
▁erreurs	-10.2341
▁prennent	-10.2343
raient	-10.235
▁luxe	-10.2366
sse	-10.2366
▁domestique	-10.237
▁diderot	-10.2379
▁fausse	-10.2381
▁exterieur	-10.2393
▁im	-10.2407
▁machine	-10.2411
▁bernard	-10.2413
▁berlin	-10.2414
▁header	-10.2418
▁liu	-10.242
▁dangereux	-10.2425
▁barbe	-10.2426
▁flamme	-10.2432
▁dispose	-10.2435
▁fier	-10.2441
ou	-10.2444
▁prudence	-10.2448
▁ecriuait	-10.2459
▁etrangeres	-10.247
▁esperer	-10.2473
▁trauerse	-10.2475
▁chants	-10.2477
▁ressemble	-10.2479
ut	-10.2486
▁distinction	-10.2493
ni	-10.2496
▁herbe	-10.2497
▁uieilles	-10.2506
▁exige	-10.2506
▁eglises	-10.2507
▁retire	-10.251
▁phenomene	-10.2516
▁course	-10.2518
▁lon	-10.2523
▁embarras	-10.2528
▁disparu	-10.253
ot	-10.2535
▁sauue	-10.2536
▁marine	-10.2536
▁augustin	-10.2536
▁preu	-10.2539
▁endroits	-10.2543
▁conte	-10.2543
▁attend	-10.2546
▁proportion	-10.2548
▁uentre	-10.2549
▁banque	-10.2551
▁uoisin	-10.2555
▁chanson	-10.2556
▁probable	-10.2563
▁commandement	-10.257
▁preparer	-10.2572
▁rentrer	-10.2574
▁perd	-10.2577
▁nauires	-10.2578
▁admettre	-10.259
▁constitue	-10.2594
▁sou	-10.26
▁liurer	-10.26
▁restes	-10.2602
▁trou	-10.2608
▁uenons	-10.261
▁designe	-10.2611
st	-10.2613
▁medecine	-10.262
▁maintenir	-10.2625
▁forets	-10.2636
▁surete	-10.2641
▁douter	-10.2641
▁dirai	-10.2646
▁tombeau	-10.2649
▁rencontrer	-10.2656
▁estre	-10.2659
▁agriculture	-10.2664
▁clerge	-10.2669
▁cieux	-10.2669
▁continuer	-10.2681
to	-10.2685
▁ouurier	-10.269
▁engage	-10.2692
▁particuliers	-10.2692
▁richard	-10.2695
▁riant	-10.2696
▁ordonne	-10.2697
▁saison	-10.2697
▁bar	-10.2698
▁depenses	-10.2699
▁moyenne	-10.2713
▁uengeance	-10.2715
io	-10.2717
▁detruire	-10.2719
▁renferme	-10.273
▁reussi	-10.2731
▁fournir	-10.2739
▁representant	-10.2743
▁distinguer	-10.2752
▁rarement	-10.2756
li	-10.2761
▁ouuerture	-10.2778
▁morceaux	-10.2782
▁marquise	-10.2783
▁importante	-10.2795
▁paysans	-10.2798
▁roses	-10.2807
▁abandonner	-10.2807
▁creer	-10.2812
▁sauent	-10.2813
▁interieure	-10.2815
▁fallut	-10.2835
▁uolumes	-10.2837
▁experiences	-10.2845
▁eternelle	-10.2848
▁titres	-10.2851
▁deurait	-10.2856
▁temoin	-10.2865
▁motifs	-10.2871
▁pretend	-10.2877
▁tourner	-10.2877
▁content	-10.2881
▁trouuaient	-10.2883
▁prends	-10.2902
▁representer	-10.2905
ius	-10.2906
▁antiquite	-10.291
▁traiter	-10.2921
▁commencer	-10.2923
▁penetrer	-10.2923
▁paraissent	-10.2925
▁lie	-10.2928
▁pouces	-10.2932
▁fortement	-10.2933
▁lance	-10.2938
▁actuelle	-10.2941
▁comparaison	-10.2958
▁branche	-10.2962
▁fameux	-10.2964
▁prieres	-10.2965
▁proprietaire	-10.2969
▁sauons	-10.2973
▁solitude	-10.2974
▁temperature	-10.2974
▁citoyen	-10.298
▁courte	-10.2988
▁utilite	-10.2989
▁scenes	-10.2991
▁chante	-10.2995
▁reuoir	-10.3001
▁tiennent	-10.3002
▁profession	-10.3014
▁ueuue	-10.3014
▁poemes	-10.3017
▁uictime	-10.3018
▁flots	-10.3025
▁couches	-10.3028
▁mettait	-10.3037
▁ocean	-10.3039
▁regret	-10.3047
▁uenise	-10.3053
▁etend	-10.3056
▁estoit	-10.3058
▁asie	-10.307
▁globe	-10.3072
ri	-10.3076
▁uoulant	-10.3077
▁ir	-10.3083
▁patience	-10.3085
▁illusion	-10.3085
▁aurai	-10.3086
▁cria	-10.3089
▁physionomie	-10.3096
▁uoyageur	-10.3096
▁exception	-10.3097
▁rempli	-10.31
▁prenez	-10.3102
rez	-10.3104
▁montra	-10.3116
▁association	-10.3124
▁communication	-10.3128
▁tomba	-10.3133
▁chaine	-10.3136
▁tiers	-10.3136
▁dirait	-10.3137
▁accuse	-10.3143
▁uaisseaux	-10.3143
▁generation	-10.3145
ter	-10.3145
▁etrangere	-10.3152
▁abri	-10.3154
▁enueloppe	-10.3155
▁charmant	-10.3157
▁fallu	-10.3157
▁apporter	-10.3164
▁ben	-10.317
▁doigt	-10.3173
▁pr	-10.3181
▁sienne	-10.3181
▁poussiere	-10.3188
▁alle	-10.3207
▁char	-10.3209
▁pensait	-10.3214
▁reuolte	-10.3218
▁cuiure	-10.3219
▁entoure	-10.3222
▁dimanche	-10.3223
▁menage	-10.323
▁blanches	-10.3235
▁publics	-10.3236
▁racines	-10.3237
▁eleuee	-10.3237
▁traces	-10.324
▁apprend	-10.3243
▁critiques	-10.3244
▁hypothese	-10.3248
▁costume	-10.3248
▁crimes	-10.325
▁populaires	-10.325
▁us	-10.3257
▁belgique	-10.3257
▁emile	-10.3268
▁foyer	-10.3269
▁italien	-10.3271
▁abus	-10.3272
▁accepte	-10.3274
▁uagues	-10.3274
▁manquer	-10.328
▁compagnon	-10.3285
▁fetes	-10.3285
▁uniuersite	-10.3286
▁exerce	-10.3287
▁utiles	-10.329
age	-10.3291
▁leuy	-10.3294
▁mines	-10.3311
▁hebreu	-10.3315
▁connaissances	-10.3315
isme	-10.3316
▁expedition	-10.3318
▁annales	-10.3341
▁actuel	-10.3345
▁examiner	-10.3346
▁uanite	-10.3347
▁ra	-10.3354
▁reues	-10.3357
▁couuent	-10.3357
▁seigneurs	-10.3358
▁alfred	-10.3361
▁frapper	-10.3369
▁uer	-10.3383
▁egalite	-10.3387
▁limite	-10.3389
▁facilite	-10.3391
▁fu	-10.3392
▁essence	-10.3398
▁eugene	-10.3399
▁apercut	-10.3399
▁enuoya	-10.34
▁fol	-10.3407
el	-10.3418
▁trouuera	-10.3419
▁cinquieme	-10.3424
▁determiner	-10.3425
▁sel	-10.3426
▁procurer	-10.3427
▁commande	-10.343
▁fenetres	-10.3432
▁songer	-10.3433
▁catholiques	-10.3435
▁singuliere	-10.3441
▁penible	-10.3445
▁notamment	-10.3449
▁impose	-10.3457
▁obtenu	-10.3459
▁feuille	-10.3462
▁uoeux	-10.3462
▁ieux	-10.3468
▁acheter	-10.3469
▁proprietes	-10.3485
▁reel	-10.3486
▁penetre	-10.3489
▁imagine	-10.3495
▁lion	-10.3502
▁fortes	-10.3504
▁guerres	-10.3507
▁deputes	-10.351
▁marchand	-10.3512
▁adam	-10.3517
▁recits	-10.3519
▁litteraires	-10.3519
▁dira	-10.3519
▁orleans	-10.3521
▁enfer	-10.3524
▁prophete	-10.3532
▁humaines	-10.3534
▁etonnement	-10.3538
▁tenebres	-10.3538
▁publiques	-10.3547
▁rayon	-10.3549
▁attribue	-10.355
aux	-10.3552
▁poudre	-10.3558
▁regions	-10.3558
▁puissante	-10.3566
▁battre	-10.3568
▁mange	-10.3573
ois	-10.3579
▁genereux	-10.3585
▁principales	-10.3588
▁prises	-10.3597
▁simplicite	-10.3603
▁entraine	-10.3605
▁pleins	-10.3615
▁domestiques	-10.3625
▁constamment	-10.3632
▁precede	-10.3635
▁tribunal	-10.3641
▁sortie	-10.3642
▁larges	-10.3646
▁iohn	-10.3648
▁serez	-10.3656
▁size	-10.3656
▁bottom	-10.3662
▁colonies	-10.3665
▁purement	-10.3666
▁rendait	-10.3671
▁moy	-10.3671
▁sources	-10.3678
▁abondance	-10.3679
▁malheureuse	-10.3681
▁entretien	-10.3689
▁iouir	-10.3691
▁masses	-10.3697
▁legitime	-10.3703
▁affreux	-10.3714
▁entendait	-10.3716
▁permettre	-10.3724
▁uitesse	-10.3725
▁cor	-10.3733
▁clarte	-10.3737
▁uaisseau	-10.374
▁euident	-10.374
▁bande	-10.3743
▁recompense	-10.3749
▁depend	-10.3751
▁leuant	-10.3764
▁aperceuoir	-10.3765
▁lo	-10.3767
▁sm	-10.3767
▁canal	-10.3769
▁anatole	-10.377
▁enseigne	-10.3772
▁soeurs	-10.3772
▁ioli	-10.3782
▁acquis	-10.3788
▁entendit	-10.3792
▁rochers	-10.38
▁traduit	-10.3801
▁desordre	-10.3804
res	-10.382
▁chambres	-10.3823
▁adi	-10.3825
▁mene	-10.383
▁exercer	-10.3832
▁monarchie	-10.3839
▁toile	-10.3846
▁constantinople	-10.3853
▁auouer	-10.3853
▁reg	-10.3862
▁fuite	-10.3868
▁secrets	-10.3869
rons	-10.3871
▁paye	-10.3878
▁ecouter	-10.3881
ui	-10.3882
▁fautes	-10.3884
▁supposer	-10.3891
ee	-10.3891
▁sublime	-10.3899
▁murmura	-10.3903
▁monseigneur	-10.3907
▁reunis	-10.3909
▁concerne	-10.3911
▁lamartine	-10.3915
▁passent	-10.3917
▁chanter	-10.3917
▁destine	-10.3918
▁coute	-10.3924
▁repliqua	-10.3924
▁principale	-10.3928
▁perdue	-10.3931
▁relation	-10.3943
▁esperances	-10.3945
▁fonde	-10.3945
▁auocat	-10.3949
▁loge	-10.395
▁rtl	-10.3952
▁sages	-10.396
▁allemande	-10.3966
▁citer	-10.3968
▁securite	-10.3973
▁geneue	-10.3973
▁boniour	-10.3973
▁comprends	-10.3974
▁amours	-10.3974
▁ali	-10.3974
▁dessin	-10.3986
▁dur	-10.3986
▁uostre	-10.3987
▁ibid	-10.3988
▁releue	-10.399
▁marchands	-10.3991
▁retenir	-10.3999
▁sec	-10.4002
▁acheue	-10.4008
▁facultes	-10.4009
▁maupassant	-10.4013
▁connus	-10.4013
▁black	-10.4013
▁carte	-10.4016
▁satisfaire	-10.4017
▁rage	-10.4019
▁prochain	-10.4019
▁declaration	-10.4029
▁tromper	-10.403
▁next	-10.4036
▁tr	-10.4037
▁crise	-10.4043
▁principalement	-10.4043
▁choisi	-10.4044
uille	-10.4045
▁rendez	-10.4047
▁debris	-10.4052
▁pan	-10.4059
▁multitude	-10.406
tre	-10.4062
▁organes	-10.4062
▁legerement	-10.4062
▁poisson	-10.4064
▁uoies	-10.4067
▁soiree	-10.4067
▁claude	-10.4067
▁sincere	-10.4074
▁differens	-10.4076
▁europeens	-10.4079
▁lecon	-10.4083
▁prononcer	-10.4091
▁tribu	-10.4094
▁enuoie	-10.4098
▁enleue	-10.4101
▁eloquence	-10.4107
▁chaud	-10.4109
▁apparait	-10.411
▁barbares	-10.4119
▁extremement	-10.4124
▁manteau	-10.4125
▁forts	-10.4126
▁nuages	-10.4132
▁comble	-10.4149
▁louise	-10.4151
▁angle	-10.4153
▁repris	-10.4156
lle	-10.4158
▁bec	-10.4161
▁anne	-10.4164
▁impressions	-10.4172
▁seine	-10.4176
▁aduersaires	-10.4179
▁odeur	-10.4187
▁obscurite	-10.4192
▁semblaient	-10.4193
▁metaphysique	-10.42
▁ciuile	-10.4204
▁doctrines	-10.4208
▁xix	-10.4208
▁communaute	-10.4209
▁historiens	-10.4212
▁rendent	-10.422
▁contributions	-10.4225
▁appartement	-10.4232
▁huile	-10.4232
▁eclaire	-10.4232
▁economique	-10.4233
▁relatiuement	-10.4237
▁contente	-10.4242
▁peines	-10.4245
▁chronique	-10.4254
▁conclure	-10.4261
▁accorder	-10.4271
▁sut	-10.4273
▁dangers	-10.4277
▁uerra	-10.4279
▁dite	-10.4286
▁destinees	-10.4292
▁composee	-10.4293
▁epreuue	-10.4293
▁prose	-10.4302
▁horrible	-10.4316
▁russes	-10.4317
▁xx	-10.4319
▁naturelles	-10.4322
▁saisit	-10.4327
▁gen	-10.4328
▁tosection	-10.433
▁fixer	-10.4332
▁uiuent	-10.4333
▁corde	-10.4334
▁considerables	-10.4334
▁amener	-10.4336
▁brillant	-10.4338
▁uerbe	-10.4351
▁celeste	-10.4352
▁marchandises	-10.4354
▁prisonnier	-10.4355
▁seance	-10.436
▁uoisine	-10.4372
▁colonnes	-10.4372
▁peril	-10.4375
▁uendre	-10.4377
▁contact	-10.4379
▁disciples	-10.4379
▁indes	-10.4382
▁uenant	-10.4386
▁auroit	-10.4391
▁plaindre	-10.4395
▁abime	-10.4402
▁arriuait	-10.4403
▁procedes	-10.4406
▁relatiue	-10.4409
▁resister	-10.4412
▁refuser	-10.4413
use	-10.4417
▁fromsection	-10.4417
▁prisonniers	-10.4423
▁iulien	-10.4427
▁depense	-10.4428
▁messe	-10.4432
▁acide	-10.4434
▁commencait	-10.4439
▁souriant	-10.444
▁habits	-10.444
▁brule	-10.4448
▁aider	-10.4449
▁emploie	-10.445
▁asseoir	-10.4455
▁poetique	-10.4456
▁uas	-10.4457
▁uersailles	-10.4469
▁essaye	-10.4471
▁fumee	-10.4472
▁pousser	-10.4474
▁seules	-10.4475
▁infiniment	-10.4478
▁chiffre	-10.4488
▁encor	-10.449
▁ialoux	-10.4497
▁epaule	-10.45
▁folle	-10.4502
▁arret	-10.4504
▁paradis	-10.4506
▁deuenait	-10.4506
▁resoudre	-10.4506
▁tend	-10.4509
▁qua	-10.4511
▁marches	-10.4513
▁plaire	-10.452
▁employes	-10.4523
▁actuellement	-10.4524
▁executer	-10.4527
▁contemporains	-10.4527
▁malades	-10.4531
▁appliquer	-10.4532
▁consideration	-10.4534
▁pe	-10.4535
▁peintres	-10.4545
▁renoncer	-10.4548
▁enleuer	-10.4552
▁lait	-10.4552
▁froide	-10.4561
▁soif	-10.4561
▁puissent	-10.4561
▁acces	-10.4566
▁uoudrait	-10.4568
▁sensibilite	-10.4572
▁atmosphere	-10.4577
▁lien	-10.4578
▁agissait	-10.4581
▁plat	-10.4584
▁temoins	-10.4585
▁lumieres	-10.4587
▁ant	-10.4588
▁supporter	-10.459
▁resolu	-10.4605
▁generales	-10.4605
▁certitude	-10.4606
ii	-10.4606
▁entr	-10.461
▁clairement	-10.4615
▁traditions	-10.462
▁promenade	-10.4634
▁deuiennent	-10.4635
▁finir	-10.4637
▁sauants	-10.4641
▁excepte	-10.4644
▁rocher	-10.4648
▁tenez	-10.4658
▁prier	-10.4659
▁races	-10.466
▁pie	-10.4661
▁deieuner	-10.4664
▁poissons	-10.4669
▁merueilleux	-10.4676
▁planches	-10.4682
▁poche	-10.4687
▁reconnait	-10.4688
▁sac	-10.469
▁baiser	-10.4691
▁milles	-10.4692
▁euolution	-10.4698
▁passages	-10.4718
▁euangile	-10.472
▁francaises	-10.4722
▁xixe	-10.4728
▁grant	-10.4731
rie	-10.4734
▁manuscrit	-10.4741
▁roland	-10.4743
▁augmente	-10.4747
isation	-10.4755
▁mesme	-10.4755
▁uulgaire	-10.476
▁sentit	-10.476
ma	-10.4774
▁congres	-10.4779
▁original	-10.4782
▁architecture	-10.4786
▁biographie	-10.4788
ique	-10.4795
▁concile	-10.4798
▁ordinaires	-10.4799
▁prefere	-10.4803
▁fuir	-10.4808
▁iapon	-10.481
▁preuenir	-10.481
▁remede	-10.4812
▁musee	-10.482
▁superbe	-10.4833
▁etablit	-10.4833
▁decret	-10.4836
▁resume	-10.4849
▁madeleine	-10.4849
▁creature	-10.4851
▁particulieres	-10.4853
▁exposer	-10.4858
▁euenemens	-10.4859
▁sensation	-10.4864
▁minute	-10.4866
▁europeenne	-10.4867
▁grecque	-10.4878
▁obstacle	-10.488
▁pourrais	-10.4881
▁indiquer	-10.4883
▁mathematiques	-10.4884
ans	-10.4886
▁uoulais	-10.4893
▁exacte	-10.4896
ing	-10.49
▁che	-10.4905
▁ualeurs	-10.4906
▁cheualiers	-10.4908
▁finances	-10.4912
▁uainqueur	-10.4919
▁serment	-10.4921
▁risque	-10.4921
▁institution	-10.4924
▁colonie	-10.4928
▁causer	-10.4931
▁laissent	-10.4931
▁ueritables	-10.4932
▁defauts	-10.4935
▁chaise	-10.4944
▁parla	-10.4946
▁consacre	-10.4947
▁hab	-10.4951
▁excellence	-10.4951
▁aine	-10.4958
▁preface	-10.4959
▁humble	-10.4961
▁raconter	-10.4963
▁moise	-10.4963
▁profondeur	-10.4976
ch	-10.4978
▁nostre	-10.499
▁san	-10.4994
▁domine	-10.4995
▁onze	-10.4997
▁edifice	-10.4997
▁moine	-10.4999
▁campagnes	-10.501
▁donnez	-10.5019
▁ge	-10.5021
▁aimee	-10.5023
▁moments	-10.5024
▁elisabeth	-10.5025
▁ioyeux	-10.5025
▁nettement	-10.5032
▁restent	-10.5042
▁hi	-10.5045
▁appareil	-10.5046
▁sien	-10.5049
▁fine	-10.5051
▁ioues	-10.506
▁fusil	-10.506
▁etoile	-10.5061
▁indiens	-10.5064
▁brun	-10.5069
roit	-10.5069
▁souffrance	-10.5072
▁sympathie	-10.5072
▁diuinite	-10.5078
▁disparaitre	-10.508
▁liens	-10.5081
▁urais	-10.5086
ard	-10.5088
▁uon	-10.5089
▁bu	-10.5097
▁aurore	-10.5097
▁choeur	-10.5102
▁nrf	-10.5104
▁gene	-10.5104
▁guizot	-10.5104
▁crains	-10.5106
▁neueu	-10.5111
▁chansons	-10.5115
▁sauais	-10.5118
▁histoires	-10.5121
ir	-10.5127
▁hommage	-10.5127
▁signification	-10.5127
▁monument	-10.5129
▁quod	-10.5129
▁wa	-10.5138
▁parlez	-10.514
▁indigne	-10.5141
▁cafe	-10.5143
▁recemment	-10.5144
▁ecriuit	-10.5144
▁suiuit	-10.5145
▁accomplir	-10.5145
▁suiuie	-10.5148
▁imaginer	-10.5149
▁gentilhomme	-10.5149
▁milliers	-10.5151
▁inuention	-10.5157
▁differente	-10.5163
▁sacrifices	-10.5164
▁niueau	-10.5169
▁uertical	-10.5169
▁morales	-10.517
▁chance	-10.5176
▁decision	-10.5177
▁etudie	-10.5178
▁thin	-10.5178
▁caualerie	-10.5184
▁remis	-10.5184
▁cuisine	-10.5188
▁uente	-10.5189
▁courbe	-10.5189
▁releuer	-10.5191
▁uinrent	-10.5193
▁maladies	-10.5193
▁sorti	-10.5198
▁partit	-10.52
▁paysan	-10.52
▁admis	-10.5201
▁largeur	-10.5206
▁bourse	-10.5208
▁rangs	-10.5216
▁mettent	-10.5221
▁etroite	-10.5225
▁propositions	-10.5226
▁regiment	-10.5226
▁confusion	-10.5233
▁eloge	-10.5234
▁calcul	-10.5239
▁repondu	-10.5244
▁automne	-10.5244
▁ronde	-10.5245
▁modeste	-10.5245
▁remplace	-10.5247
▁turcs	-10.5247
▁conseiller	-10.5247
▁wagner	-10.5248
▁subir	-10.5252
▁domination	-10.5254
▁montrant	-10.526
▁camarades	-10.526
▁flotte	-10.526
▁proche	-10.526
▁dormir	-10.5265
▁uictimes	-10.5268
▁poser	-10.527
▁iuan	-10.5277
▁accent	-10.5277
▁immobile	-10.5294
▁historien	-10.5295
▁colonne	-10.5302
▁nat	-10.5303
▁pleurer	-10.5311
▁monuments	-10.5317
▁serieusement	-10.5319
▁presentent	-10.5325
▁conuenable	-10.5326
▁porta	-10.5327
▁deuouement	-10.5332
▁embrasse	-10.5338
▁rude	-10.534
▁bateau	-10.534
▁eueques	-10.536
▁impatience	-10.536
▁permission	-10.5362
▁priuilege	-10.5365
▁rigueur	-10.5365
▁honneurs	-10.5369
▁new	-10.5373
ibus	-10.5377
▁mettant	-10.5382
▁apparition	-10.5386
▁aie	-10.5386
▁quils	-10.5388
▁allais	-10.5394
▁papa	-10.54
▁tournant	-10.5401
▁fantaisie	-10.5401
▁manquait	-10.5403
▁colspan	-10.5407
▁feux	-10.5408
▁male	-10.5411
▁hollande	-10.5413
▁reuele	-10.542
▁uices	-10.5428
▁inferieure	-10.5442
▁repose	-10.5442
▁ecrite	-10.5443
▁separer	-10.5456
▁souper	-10.5456
▁retourne	-10.5456
▁faisons	-10.5458
mens	-10.5464
▁definition	-10.5469
▁augmenter	-10.5482
▁exposition	-10.5495
▁ayez	-10.5497
▁sue	-10.55
▁uariete	-10.55
▁pologne	-10.551
ner	-10.551
▁engager	-10.5512
▁uote	-10.5516
▁merueilleuse	-10.5519
▁exclusiuement	-10.5521
▁touchant	-10.5523
▁souci	-10.5523
▁arabes	-10.553
▁iardins	-10.5539
▁francoise	-10.5542
▁cadre	-10.5548
▁assise	-10.5549
▁uents	-10.5549
▁uiuait	-10.5557
rum	-10.5559
▁manuscrits	-10.5576
▁seuil	-10.5577
▁adopte	-10.5581
▁mysterieux	-10.5583
▁plu	-10.5587
▁borne	-10.5587
▁decouuertes	-10.5588
▁reunir	-10.559
▁iuif	-10.5592
▁portraits	-10.5592
▁faibles	-10.5594
▁deueloppe	-10.5596
▁attire	-10.5598
▁florence	-10.5598
▁arabe	-10.5605
▁circulation	-10.5609
▁ecoutez	-10.561
▁roche	-10.5614
▁obeir	-10.5625
▁souffrances	-10.5627
▁serieuse	-10.5627
▁apprit	-10.563
▁marin	-10.563
▁discipline	-10.563
▁pratiques	-10.5631
▁pensez	-10.5631
▁rentre	-10.5647
▁occident	-10.565
▁gaz	-10.5655
▁eue	-10.5659
▁priue	-10.566
ion	-10.5663
or	-10.5665
ca	-10.5666
▁allant	-10.5666
▁entretenir	-10.5667
▁cha	-10.567
▁speciale	-10.5671
▁pouuoirs	-10.5671
▁grains	-10.5674
▁cic	-10.5674
▁audace	-10.5678
▁pis	-10.5684
▁indifference	-10.5688
▁seruiteur	-10.5689
▁ion	-10.5694
▁inutiles	-10.5704
▁mers	-10.5704
▁expressions	-10.5706
▁apotres	-10.5707
▁programme	-10.5709
▁editeur	-10.571
▁poetiques	-10.5714
▁uoisinage	-10.572
▁decider	-10.5725
▁sultan	-10.5725
▁tribus	-10.5729
▁mac	-10.5733
▁io	-10.5734
▁souffre	-10.5735
▁sexe	-10.5737
▁uision	-10.5741
▁destruction	-10.5755
▁promptement	-10.5758
▁paroisse	-10.576
▁trouuant	-10.5763
▁uisiter	-10.5764
▁appellent	-10.5766
▁kilometres	-10.5768
▁papiers	-10.5771
▁ialousie	-10.5771
▁cherchait	-10.5774
▁personnelle	-10.5775
▁so	-10.5781
▁depasse	-10.5783
▁differences	-10.579
▁auiez	-10.5794
▁suffisamment	-10.5804
▁fondee	-10.5814
▁ramener	-10.5817
▁promesse	-10.5821
▁precedente	-10.5827
ua	-10.5828
▁uetements	-10.583
▁succession	-10.5833
▁dirige	-10.5836
▁imposer	-10.584
▁mauuaises	-10.5841
▁imprime	-10.5842
▁interesse	-10.5844
▁ane	-10.5846
ton	-10.5847
▁epouser	-10.5853
▁douleurs	-10.5861
▁remplacer	-10.5861
▁nommer	-10.5865
▁deuine	-10.587
▁office	-10.587
▁recours	-10.5871
no	-10.5871
▁arracher	-10.5885
▁mirent	-10.5896
▁instruments	-10.5897
▁superiorite	-10.5897
▁bref	-10.5898
▁appelee	-10.5905
▁embrasser	-10.5912
▁tragedie	-10.5914
▁oliuier	-10.5924
▁etendu	-10.5928
▁ier	-10.5928
▁sil	-10.5932
▁craint	-10.5933
▁dignes	-10.5935
▁contree	-10.5936
▁uiues	-10.5936
▁uiendra	-10.5938
▁primitiue	-10.5942
▁importantes	-10.5948
▁ueritablement	-10.5954
▁zola	-10.5955
▁rhin	-10.5956
▁inuasion	-10.5957
▁senti	-10.5957
▁tint	-10.5965
▁edouard	-10.5966
▁baton	-10.5973
▁peint	-10.5978
▁diriger	-10.5978
▁intitule	-10.5979
▁destin	-10.598
▁pareils	-10.5986
▁parc	-10.5989
▁retourna	-10.5992
▁uieil	-10.6
▁priuee	-10.6
▁honore	-10.6003
▁reioindre	-10.6003
▁uoulons	-10.6004
▁consul	-10.6006
▁inspiration	-10.6011
ure	-10.6012
▁reuanche	-10.6014
▁gustaue	-10.6015
des	-10.6015
▁apercoit	-10.602
▁cathedrale	-10.602
▁contrees	-10.6027
▁indigenes	-10.6028
▁cruelle	-10.6031
▁numero	-10.6056
▁sucre	-10.6056
▁intentions	-10.6076
▁indispensable	-10.6076
▁athenes	-10.6077
▁cruel	-10.608
▁essayer	-10.6081
▁sachant	-10.6083
▁aurons	-10.6087
▁billet	-10.6087
▁rene	-10.6088
▁galerie	-10.6089
▁fournit	-10.6096
▁bat	-10.6096
▁decadence	-10.6096
▁partager	-10.6098
▁ceinture	-10.6105
▁sen	-10.6105
▁deuelopper	-10.6108
▁mets	-10.6112
▁montrait	-10.6112
▁transport	-10.6115
▁iupiter	-10.6124
▁feual	-10.6128
▁situee	-10.613
▁tenue	-10.613
▁miracle	-10.6132
▁uoy	-10.6132
▁um	-10.6132
ien	-10.6136
▁seances	-10.6139
▁preiuges	-10.6145
▁peindre	-10.6146
▁attendu	-10.6155
▁charmes	-10.6155
▁th	-10.616
▁documents	-10.6164
▁honorable	-10.6167
▁lecteurs	-10.6169
▁etienne	-10.6175
▁demontre	-10.6176
▁etendre	-10.6177
▁ceremonie	-10.6189
▁crie	-10.6191
▁quebec	-10.6196
▁charpentier	-10.6199
▁bornes	-10.6202
▁brillante	-10.6203
▁inconnue	-10.6213
▁attaquer	-10.6221
▁interuention	-10.6221
▁pleure	-10.6227
w	-10.6228
▁ru	-10.6228
▁systemes	-10.6229
▁seruiteurs	-10.6229
▁artillerie	-10.6229
▁raisonnable	-10.624
▁elemens	-10.624
▁habite	-10.6242
ar	-10.6246
▁miroir	-10.6249
▁interessant	-10.6252
▁tempete	-10.6267
▁actiue	-10.6268
▁ter	-10.6269
▁capables	-10.6277
▁concernant	-10.6279
▁siens	-10.6284
▁cherchant	-10.6287
▁fe	-10.6292
▁detruit	-10.6297
▁prouidence	-10.6302
▁pleurs	-10.6304
▁parlent	-10.631
▁conuaincu	-10.6311
▁meurt	-10.6314
▁aueu	-10.6315
▁quiconque	-10.6318
▁lache	-10.6322
▁piete	-10.6322
ium	-10.6324
▁reaction	-10.6328
▁allies	-10.6329
▁aile	-10.6332
▁effroi	-10.6341
▁illustres	-10.6343
▁responsabilite	-10.6345
▁grosses	-10.6346
▁routes	-10.635
▁fidelite	-10.6353
▁assister	-10.6353
▁machines	-10.6354
▁nauigation	-10.6358
▁attribuer	-10.6358
▁profiter	-10.6361
▁for	-10.6364
▁declara	-10.6364
▁precis	-10.6374
▁frontiere	-10.6379
▁exterieure	-10.6384
▁planche	-10.6385
▁naples	-10.6386
▁affirme	-10.6395
▁fauteuil	-10.6397
▁monta	-10.6405
▁uel	-10.6405
▁uerte	-10.6408
▁conceuoir	-10.6409
▁ho	-10.6419
▁elu	-10.642
▁goncourt	-10.642
▁realiser	-10.642
▁mercure	-10.642
▁tira	-10.6428
▁accident	-10.6432
▁fixes	-10.6435
tus	-10.6436
▁croient	-10.6439
▁bassin	-10.644
▁ennui	-10.6441
▁obstacles	-10.6441
▁toilette	-10.6442
nes	-10.6443
▁oit	-10.6452
▁instants	-10.6459
▁ardent	-10.6461
▁sure	-10.6464
▁repeter	-10.6474
▁publication	-10.6479
▁serre	-10.6483
▁uisible	-10.649
▁existait	-10.6494
▁baie	-10.6496
▁uiuante	-10.6496
▁appartiennent	-10.65
▁color	-10.6502
▁bourg	-10.6504
▁pot	-10.6505
▁populations	-10.6508
▁ro	-10.6509
▁dramatique	-10.651
▁pourront	-10.6513
▁impot	-10.6515
▁notion	-10.6517
▁immenses	-10.6518
▁moines	-10.6521
▁ecclesiastique	-10.6522
▁soumettre	-10.6523
▁quitta	-10.6527
ual	-10.6527
▁departement	-10.6533
bot	-10.6533
▁cartes	-10.6539
▁auancer	-10.654
▁enormes	-10.6543
▁uillages	-10.6549
▁mouuemens	-10.6557
▁aiment	-10.6558
▁profondes	-10.6562
▁tendance	-10.6562
▁prochaine	-10.6562
▁fermes	-10.6571
▁mienne	-10.6571
▁uaincu	-10.6572
▁seruait	-10.6576
▁uoient	-10.6576
▁paruenir	-10.6578
iens	-10.6578
▁uiolent	-10.6578
▁croyance	-10.6579
▁futur	-10.6579
▁shakespeare	-10.658
▁ualet	-10.6585
▁diuise	-10.6585
▁considerations	-10.6586
▁mo	-10.6586
▁equations	-10.6591
▁uoulaient	-10.6592
▁uaincre	-10.6592
▁ages	-10.6593
▁arriues	-10.6594
▁partisans	-10.6595
▁placee	-10.6602
▁allusion	-10.6603
▁arthur	-10.6603
▁eloigner	-10.6604
▁bizarre	-10.661
▁definitiue	-10.6611
▁tristes	-10.6612
▁montrent	-10.6613
▁adresser	-10.6616
▁combats	-10.6616
▁genres	-10.6618
▁hauts	-10.6618
▁editions	-10.6622
▁mensonge	-10.6623
▁uiolente	-10.663
▁interualle	-10.6637
▁constant	-10.6638
▁lis	-10.6639
▁oubli	-10.6641
▁incapable	-10.6649
▁excellente	-10.6656
▁uarie	-10.666
▁sensations	-10.666
▁archeueque	-10.6661
▁separation	-10.6661
▁pression	-10.6662
▁batiment	-10.6663
da	-10.6665
ire	-10.6666
▁reduire	-10.6673
orum	-10.6675
▁constante	-10.6677
▁democratie	-10.6678
▁ambassadeur	-10.6679
▁metal	-10.6681
▁str	-10.6685
▁conuiction	-10.669
▁redoutable	-10.669
▁plumes	-10.6704
▁parts	-10.6704
▁socrate	-10.6711
▁uastes	-10.6716
▁preter	-10.6719
▁sortant	-10.6727
▁pensa	-10.673
▁desirer	-10.673
▁orage	-10.673
▁contenant	-10.6731
▁luc	-10.6734
▁billets	-10.6734
▁prophetes	-10.6739
▁mecanique	-10.6739
▁entreprises	-10.6742
▁habilete	-10.6742
▁portion	-10.6742
▁disaient	-10.6744
▁apercu	-10.6747
▁phrases	-10.6748
▁constater	-10.675
▁reuenus	-10.6752
▁ancetres	-10.6754
▁riuage	-10.6755
▁constate	-10.6756
▁seize	-10.6757
▁refus	-10.6758
▁legendes	-10.676
▁pardonne	-10.6769
▁souffert	-10.6773
▁paysage	-10.6774
▁donnes	-10.6774
▁medecins	-10.6777
▁paille	-10.6777
▁interpretation	-10.6784
▁prosperite	-10.6784
▁germain	-10.6794
▁ordonnance	-10.6796
▁conference	-10.6801
▁theories	-10.6807
▁croyons	-10.6808
▁chat	-10.6808
▁anti	-10.6808
▁affirmer	-10.6811
▁special	-10.6811
▁attente	-10.6813
▁ki	-10.6816
q	-10.6818
▁taire	-10.682
▁uerites	-10.6822
▁continent	-10.6825
▁analogue	-10.6825
▁prirent	-10.6826
▁sophie	-10.6831
▁moindres	-10.6835
▁deuez	-10.6835
▁election	-10.6837
▁ressort	-10.6839
ci	-10.6841
▁banc	-10.6842
▁remonter	-10.6842
▁perir	-10.6843
▁lady	-10.6844
▁grauite	-10.6846
▁lin	-10.6847
▁royaute	-10.6849
▁troubles	-10.6849
▁aduersaire	-10.6849
▁descend	-10.6852
▁tenter	-10.6853
▁supplice	-10.6855
▁precision	-10.6856
▁imperiale	-10.6857
▁celebres	-10.6858
▁eusse	-10.686
▁possedait	-10.6861
▁opposer	-10.6872
▁furieux	-10.6873
▁uiande	-10.6874
▁pareilles	-10.6877
▁anime	-10.6877
▁denis	-10.6878
▁approcher	-10.6884
▁epais	-10.6886
▁antiques	-10.6887
▁gestes	-10.6892
▁mechant	-10.6895
▁res	-10.6901
▁satisfait	-10.6901
▁nus	-10.6902
▁climat	-10.6903
▁mien	-10.6907
▁copie	-10.6914
▁attirer	-10.6915
▁conge	-10.6916
▁uus	-10.6917
▁passee	-10.6921
▁terribles	-10.6922
▁lame	-10.6924
▁materiel	-10.6925
▁formules	-10.693
▁clef	-10.6936
▁retira	-10.6938
▁disons	-10.6942
▁demon	-10.6943
▁tables	-10.6944
▁fables	-10.6944
▁bi	-10.695
▁maria	-10.6951
▁op	-10.6957
▁naturels	-10.6957
▁agitation	-10.6958
▁magistrats	-10.6958
▁autrui	-10.6958
▁etroit	-10.6959
▁reussit	-10.6959
▁croyant	-10.6962
▁esclauage	-10.6962
▁uoiles	-10.6964
▁modeles	-10.6965
▁uo	-10.6967
▁bonnet	-10.6969
▁serpent	-10.697
▁deuil	-10.697
▁remarques	-10.6975
▁humains	-10.6975
▁mallarme	-10.698
▁situe	-10.698
▁chimie	-10.698
▁origines	-10.6983
▁barre	-10.699
▁proprietaires	-10.699
▁iustes	-10.699
▁murailles	-10.6992
▁depute	-10.6998
▁canton	-10.6998
▁rapporter	-10.6999
▁uar	-10.7004
▁rit	-10.7006
▁isabelle	-10.701
▁perse	-10.7014
▁noires	-10.7015
▁dresse	-10.7016
▁purete	-10.7021
tis	-10.7023
▁desquels	-10.7028
▁rompre	-10.7034
▁specialement	-10.7038
▁ecrie	-10.705
▁uole	-10.7051
▁liquide	-10.7051
man	-10.7055
▁ombres	-10.7057
si	-10.706
▁inquiete	-10.7067
▁initial	-10.7069
▁funeste	-10.7072
▁oeufs	-10.7072
▁riuieres	-10.7073
▁secrete	-10.7074
▁uicomte	-10.7076
▁boite	-10.7076
▁decrit	-10.7076
▁carre	-10.708
▁conforme	-10.7095
▁spirituelle	-10.71
▁raisonnement	-10.7105
▁italiens	-10.7106
▁merueille	-10.7106
▁buffon	-10.7107
▁enceinte	-10.7109
▁epoques	-10.7111
▁espagnols	-10.7111
▁crier	-10.7112
▁sauueur	-10.7116
▁marais	-10.7118
▁code	-10.7119
▁uenger	-10.7125
▁cho	-10.7126
▁echelle	-10.7127
▁exil	-10.7128
▁peches	-10.7128
▁abrege	-10.7129
ras	-10.7129
▁proportions	-10.7132
iste	-10.7134
▁reprises	-10.7137
▁croyais	-10.7137
▁intellectuelle	-10.7137
▁saisi	-10.714
▁lueur	-10.714
▁epreuues	-10.7142
▁acquerir	-10.7143
▁deuenus	-10.7146
▁canons	-10.7146
▁airs	-10.7147
▁iustifier	-10.7149
▁arago	-10.7149
▁breton	-10.7153
▁precautions	-10.7153
▁repondait	-10.7153
▁uniforme	-10.7154
▁comparer	-10.7155
ly	-10.7156
▁disais	-10.7157
▁espagnol	-10.7157
▁eprouuer	-10.7165
▁ioindre	-10.7167
▁contenu	-10.7175
tum	-10.7176
▁laurent	-10.7177
▁ot	-10.7178
▁remit	-10.7179
▁etablie	-10.718
▁meubles	-10.7187
▁couper	-10.7189
▁obscur	-10.7189
▁logis	-10.7191
▁ob	-10.7194
ac	-10.7195
▁attacher	-10.7199
▁traitement	-10.7201
▁pouuoit	-10.7204
▁roches	-10.7205
▁remplit	-10.7227
▁suiuantes	-10.7228
▁total	-10.7229
▁archiues	-10.723
▁heritage	-10.7231
▁inter	-10.7232
▁europeen	-10.7236
▁eleuation	-10.7238
▁comique	-10.7239
▁surement	-10.7255
▁accompli	-10.7265
▁honnetes	-10.7266
▁iusqua	-10.7269
▁signale	-10.7273
▁admirer	-10.7274
▁innocent	-10.7284
iu	-10.7288
▁usages	-10.729
▁marier	-10.7302
▁epouuante	-10.7305
▁demonstration	-10.7312
▁obligation	-10.7318
▁remords	-10.7329
▁changements	-10.733
▁solitaire	-10.7333
sa	-10.7335
▁bnf	-10.7342
▁plans	-10.7343
▁pen	-10.7345
▁preference	-10.7349
▁directe	-10.735
▁iuda	-10.7354
▁italienne	-10.7358
▁construire	-10.7359
▁caracteristique	-10.7365
▁suiuent	-10.7373
ement	-10.7374
▁offrent	-10.7375
▁coule	-10.7376
▁poursuiure	-10.7377
rais	-10.7378
ro	-10.738
▁marseille	-10.7384
▁helene	-10.7385
▁contradiction	-10.7393
go	-10.7399
▁chargee	-10.74
▁librement	-10.7411
▁obtint	-10.7415
▁superieurs	-10.7423
▁comptait	-10.7428
▁souuerains	-10.7432
▁demeurer	-10.7434
▁minuit	-10.7436
▁construit	-10.7436
▁imitation	-10.7437
▁manuel	-10.7439
▁ceder	-10.7439
ies	-10.7439
▁trauerser	-10.7447
▁offrait	-10.7453
▁cit	-10.7459
▁concert	-10.7461
▁ioint	-10.7463
▁contraires	-10.7464
▁contribue	-10.7466
▁budget	-10.7469
▁braues	-10.747
▁tion	-10.747
▁delicate	-10.7471
▁moliere	-10.7478
▁essentiellement	-10.748
▁attaques	-10.7488
▁fur	-10.7489
che	-10.7491
▁monstre	-10.7491
▁use	-10.7496
▁bandes	-10.7496
▁dict	-10.7502
▁miracles	-10.7506
▁uraisemblable	-10.7507
▁iournees	-10.7508
▁nue	-10.7514
▁indignation	-10.7516
▁rouen	-10.7516
▁sache	-10.7517
▁singulierement	-10.7521
▁terrestre	-10.7522
▁sourit	-10.7523
co	-10.7527
▁mener	-10.7532
▁iacob	-10.7533
▁compagnies	-10.7533
▁balance	-10.7534
▁uerse	-10.7544
▁ressemblance	-10.7551
▁bo	-10.7559
▁ceste	-10.7565
▁bloquer	-10.7569
▁consommation	-10.7571
▁reclame	-10.7576
▁possibilite	-10.7577
▁renseignements	-10.7579
▁regrette	-10.758
▁admire	-10.7584
▁cimetiere	-10.759
▁transformation	-10.7596
▁br	-10.76
▁colline	-10.7603
▁conseruation	-10.7605
▁marques	-10.7605
▁statues	-10.7611
▁laine	-10.7613
▁menaces	-10.7613
▁loue	-10.7616
▁nourrir	-10.7618
▁demontrer	-10.7619
▁restee	-10.7619
▁plomb	-10.7621
▁deuiner	-10.7621
▁felicite	-10.7621
▁appela	-10.7622
▁cheminee	-10.7625
▁zu	-10.7629
▁fosse	-10.763
▁angoisse	-10.7635
uer	-10.7637
▁concurrence	-10.7643
▁bordeaux	-10.7643
▁uase	-10.7646
▁bertrand	-10.765
▁presenta	-10.7656
▁lor	-10.7668
istes	-10.7672
▁annoncer	-10.7673
▁franchise	-10.7674
▁rente	-10.7678
▁patron	-10.768
▁asile	-10.7681
▁sociales	-10.7682
▁declarer	-10.7684
▁rapidite	-10.7688
▁caualiers	-10.7693
▁confie	-10.7696
lin	-10.7705
uit	-10.7708
▁abandon	-10.7711
▁mu	-10.7712
▁hote	-10.7712
▁connaissez	-10.7721
▁execute	-10.7722
▁dist	-10.7723
▁contraste	-10.7724
▁marins	-10.7725
▁occupait	-10.7728
▁nier	-10.7728
▁man	-10.7732
▁grain	-10.7737
▁fourni	-10.7737
▁pures	-10.7738
▁appartenant	-10.774
ens	-10.7742
▁insectes	-10.7744
▁loup	-10.7745
▁anonyme	-10.7745
▁bonaparte	-10.7746
▁contenir	-10.7746
▁tenaient	-10.7748
▁uoute	-10.7751
▁masque	-10.7752
▁tapis	-10.7753
▁lampe	-10.7754
▁mention	-10.7756
▁renaissance	-10.7759
▁reposer	-10.7759
▁posseder	-10.7766
▁mou	-10.7769
▁trouuons	-10.7772
▁melee	-10.7779
▁parfum	-10.7781
▁tentatiue	-10.7784
▁sphere	-10.7785
▁difficiles	-10.779
tion	-10.7791
▁philosophiques	-10.7795
▁uainement	-10.7801
ry	-10.7801
▁epaisseur	-10.7801
lo	-10.7804
▁agite	-10.7808
▁echo	-10.7813
▁perpetuel	-10.7816
▁reproches	-10.7824
▁querelle	-10.7826
▁donnera	-10.7831
▁ietant	-10.7832
▁clement	-10.7834
▁symbole	-10.7837
▁differe	-10.7848
▁precise	-10.7858
▁achete	-10.787
▁mar	-10.7871
do	-10.7872
tur	-10.7873
▁ardente	-10.7874
▁gaules	-10.7875
▁etranges	-10.7875
▁goutte	-10.788
▁ei	-10.7884
▁cristo	-10.7885
▁trouuai	-10.7889
▁sixieme	-10.789
▁por	-10.7892
▁beuue	-10.7907
son	-10.7914
▁etage	-10.7917
▁modifications	-10.7922
▁couure	-10.7928
▁instruit	-10.7929
▁introduit	-10.7929
▁uoyais	-10.7937
▁spirituel	-10.7947
▁prets	-10.7949
▁preuoir	-10.7949
▁essentiel	-10.7953
▁mobile	-10.7955
▁couurir	-10.7957
▁sicile	-10.7959
▁bleus	-10.7961
▁gai	-10.7966
▁depens	-10.7967
▁pag	-10.7969
▁tom	-10.7975
▁uerrez	-10.7977
▁flot	-10.7978
▁ramene	-10.7979
▁formee	-10.798
▁ba	-10.798
▁agent	-10.798
▁exact	-10.7981
▁atelier	-10.7981
▁latine	-10.7987
ae	-10.7988
▁assurance	-10.7995
▁produisent	-10.7996
▁contrat	-10.7998
▁sembla	-10.8
▁elan	-10.8006
▁normal	-10.8007
▁quatorze	-10.8008
▁uiuacite	-10.8008
▁institut	-10.801
▁obliges	-10.8016
▁azur	-10.8022
ll	-10.8023
▁pente	-10.8025
▁equipage	-10.8028
▁reconnut	-10.8035
▁classique	-10.8035
ins	-10.8036
▁trouuerent	-10.8038
▁eueille	-10.8041
mi	-10.8046
▁ioug	-10.8046
▁tourna	-10.8054
▁pus	-10.8066
▁cede	-10.8067
▁huitieme	-10.8069
▁uersion	-10.8072
▁couuerte	-10.8082
▁golfe	-10.8082
▁uoudra	-10.8087
▁sieur	-10.8087
▁fierte	-10.8088
▁muraille	-10.8089
▁approcha	-10.8098
▁subi	-10.8107
▁prefet	-10.8116
▁glorieux	-10.8122
▁diuisions	-10.8125
▁consulter	-10.8128
▁frequemment	-10.8129
▁reussir	-10.813
▁imiter	-10.8131
▁by	-10.8132
▁chasser	-10.8136
▁suffisante	-10.8138
▁bleue	-10.8142
▁book	-10.8143
▁orateur	-10.8144
▁inuite	-10.8149
▁exactitude	-10.8149
▁plaintes	-10.8151
▁argument	-10.8153
▁temples	-10.8153
▁bes	-10.8161
▁occasions	-10.8162
▁camille	-10.8163
▁intermediaire	-10.8176
▁gaiete	-10.8177
▁maire	-10.8178
▁emprunte	-10.8183
▁petersbourg	-10.8189
▁uerrons	-10.819
▁uieillesse	-10.8192
▁imprimeurs	-10.8193
▁aimez	-10.8194
▁totale	-10.8195
▁pieux	-10.82
▁pourroit	-10.8201
▁remarquables	-10.8201
▁york	-10.8203
▁cadaure	-10.8204
▁fiere	-10.8205
▁abbaye	-10.8211
▁octe	-10.8214
▁trouuee	-10.8218
▁niece	-10.8218
▁organe	-10.8218
▁etiez	-10.8218
▁defaite	-10.822
▁inferieur	-10.8225
▁apprecier	-10.8226
▁puits	-10.8237
▁flaubert	-10.8244
▁reparer	-10.8245
▁couteau	-10.8247
▁mince	-10.8248
▁promesses	-10.8249
▁cl	-10.8251
▁besogne	-10.8252
▁bourgogne	-10.8257
▁issue	-10.8262
▁uoeu	-10.8265
▁frontieres	-10.8267
▁opere	-10.8269
▁depose	-10.827
▁ierome	-10.8274
▁retard	-10.8279
▁extrait	-10.8281
▁poussa	-10.8287
▁repeta	-10.8288
▁lourd	-10.8293
im	-10.8296
▁sombres	-10.8298
▁these	-10.8301
▁signal	-10.8308
▁relatifs	-10.8308
▁keraban	-10.8312
▁passes	-10.8316
▁naguere	-10.8319
▁montreal	-10.832
▁pire	-10.833
▁comprit	-10.8333
▁controle	-10.8334
▁renard	-10.8335
▁diminue	-10.8335
▁allee	-10.8338
▁problemes	-10.8339
▁caualier	-10.8342
▁assemblees	-10.8343
▁fable	-10.8345
▁pou	-10.8349
un	-10.8352
▁soupir	-10.8353
▁cites	-10.836
▁repondis	-10.836
▁tranquillement	-10.8362
▁nombres	-10.8366
▁demeura	-10.8368
▁conformement	-10.8371
▁reuolutions	-10.8374
▁iuliette	-10.8374
▁tresors	-10.8387
▁uariations	-10.8389
▁charbon	-10.8391
▁pleines	-10.8392
▁fragments	-10.8393
▁merueilles	-10.8393
▁offrit	-10.8395
be	-10.84
▁delicatesse	-10.8404
▁longuement	-10.841
▁partant	-10.8412
▁uoisines	-10.8414
▁roger	-10.8426
▁manquent	-10.8427
▁douces	-10.8429
▁emu	-10.8429
▁transporte	-10.8434
▁appartenait	-10.8436
▁physiques	-10.8443
▁pretentions	-10.8443
▁legislation	-10.8452
▁plaines	-10.8453
▁generations	-10.8453
▁defendu	-10.8455
▁innombrables	-10.8461
▁reuenait	-10.8464
▁arriuent	-10.847
▁emporter	-10.8473
▁murmure	-10.8475
▁pic	-10.8478
▁existent	-10.8482
▁sacres	-10.8495
di	-10.85
▁hetzel	-10.8506
▁attends	-10.8507
▁pauillon	-10.8508
▁flammes	-10.8508
▁maigre	-10.851
▁definitiuement	-10.851
▁methodique	-10.8512
▁chiffres	-10.8513
▁septante	-10.8514
▁men	-10.8515
▁enquete	-10.8516
▁meurtre	-10.8516
▁kant	-10.8516
▁acheuer	-10.8517
▁courut	-10.8519
▁bruxelles	-10.852
▁concu	-10.852
▁primitif	-10.8522
▁recueillir	-10.8528
▁pipe	-10.8532
▁reformes	-10.8552
▁trauailleurs	-10.8552
▁pauurete	-10.8553
▁terrains	-10.8554
▁precaution	-10.8557
▁relatiues	-10.8563
▁caisse	-10.8573
▁interrompit	-10.8576
▁tyrannie	-10.8579
▁instruire	-10.8583
▁ual	-10.8584
▁hopital	-10.859
▁austen	-10.859
▁robot	-10.859
▁nombreuse	-10.8591
▁meilleures	-10.86
▁drapeau	-10.8604
▁luttes	-10.8605
▁createur	-10.8607
▁connues	-10.8608
▁persuade	-10.8616
▁sub	-10.8617
▁gouuerner	-10.8618
▁bouquet	-10.8619
▁iniuste	-10.8624
▁librairie	-10.8625
▁portaient	-10.8625
▁emotions	-10.8626
▁suiuait	-10.8626
▁herbes	-10.8628
▁rapides	-10.8631
▁merimee	-10.8632
▁pasteur	-10.8634
▁chaude	-10.8638
▁extremites	-10.8639
▁restauration	-10.8642
▁entrant	-10.8643
▁curieuse	-10.8646
▁leipzig	-10.8646
▁introduire	-10.8647
▁apotre	-10.8648
▁uolupte	-10.8649
▁consolation	-10.8649
▁innocence	-10.8654
▁cordes	-10.8656
▁liaison	-10.8657
▁manche	-10.867
▁mlle	-10.8671
▁regrets	-10.8672
▁replace	-10.8672
▁imperial	-10.868
▁proteger	-10.8681
▁mediocre	-10.8681
▁tendances	-10.8683
▁impots	-10.8684
▁nuage	-10.8687
▁rapproche	-10.8687
▁harpe	-10.8688
▁creux	-10.8688
▁goethe	-10.8696
▁decouure	-10.8696
▁remonte	-10.8697
▁attaches	-10.8697
▁descartes	-10.8703
▁barque	-10.8715
▁reuelation	-10.8721
▁fermete	-10.873
▁rowspan	-10.8732
▁communs	-10.8732
▁bronze	-10.8735
▁wikisource	-10.8739
▁iniustice	-10.8742
▁cousine	-10.8744
▁notions	-10.8748
▁relief	-10.875
▁plutarque	-10.8753
▁fins	-10.8757
▁americain	-10.8758
▁lointain	-10.8759
▁fatigues	-10.8761
▁feront	-10.8761
▁orientale	-10.8765
▁compare	-10.8766
▁affections	-10.8766
▁elections	-10.8768
▁obeissance	-10.8768
▁posterite	-10.8768
▁aiguille	-10.8772
▁combinaisons	-10.8773
▁analogues	-10.8774
▁barbare	-10.8778
▁examine	-10.8778
▁elegance	-10.8779
▁tranquillite	-10.8782
▁commode	-10.8789
▁leglise	-10.8797
▁subitement	-10.8798
▁fache	-10.8799
▁centrale	-10.8799
▁dirent	-10.8801
▁degout	-10.8803
▁serons	-10.8808
▁battu	-10.8812
▁guerir	-10.8817
▁boutique	-10.8817
▁recommande	-10.8818
▁rechercher	-10.882
▁alpes	-10.8821
▁fraiche	-10.883
▁irai	-10.8831
▁bapteme	-10.8832
▁amoureuse	-10.8834
▁boeufs	-10.8842
▁prouerbes	-10.8844
▁renommee	-10.8845
▁souuiens	-10.8847
▁ecarter	-10.885
▁adore	-10.8851
▁auois	-10.8852
▁collines	-10.8853
▁monarque	-10.8854
▁blesses	-10.8854
▁dor	-10.8862
▁montant	-10.8868
▁auberge	-10.8873
▁reflechir	-10.8875
▁ira	-10.8878
▁miseres	-10.8883
▁parlons	-10.8885
▁iustine	-10.8889
▁nerfs	-10.889
▁comprenait	-10.889
▁recus	-10.8894
▁tou	-10.8896
▁commentaire	-10.8896
▁uigoureux	-10.8898
▁demarche	-10.8902
▁coupables	-10.8905
▁teint	-10.8905
▁excuse	-10.8907
▁defend	-10.8909
▁corruption	-10.8909
ere	-10.892
▁meprise	-10.8922
▁chers	-10.8928
▁accompagner	-10.8931
▁deesse	-10.8931
▁possibles	-10.8932
▁souhaite	-10.8932
▁mortel	-10.8939
▁delicat	-10.8939
▁dessins	-10.8939
▁seruit	-10.894
▁repandre	-10.8944
▁garcons	-10.8957
▁aurions	-10.8959
▁perdit	-10.8964
▁bruits	-10.8966
▁decrire	-10.8967
▁demoiselle	-10.8967
▁louer	-10.8969
▁septieme	-10.8971
▁uiuants	-10.8972
▁donnaient	-10.8973
▁substances	-10.8976
▁protege	-10.8976
▁iuresse	-10.8977
▁remercie	-10.8979
▁disposer	-10.8979
▁metaux	-10.898
▁designer	-10.8984
▁compatriotes	-10.8984
▁tas	-10.8987
▁renonce	-10.8992
▁central	-10.8997
▁guise	-10.9005
▁berceau	-10.9007
▁ciceron	-10.9007
▁ports	-10.9011
▁politesse	-10.9012
▁musset	-10.9015
▁chatiment	-10.9019
▁pittoresque	-10.9023
▁heroique	-10.9023
▁eclair	-10.9028
▁loisir	-10.9036
▁marchait	-10.9038
▁fermer	-10.904
▁pretendu	-10.904
▁inuisible	-10.9049
▁precipite	-10.9053
▁magistrat	-10.9055
▁auriez	-10.9057
▁solides	-10.9059
▁interdit	-10.9059
▁couuerts	-10.9062
▁lib	-10.9063
▁delai	-10.9063
▁creatures	-10.9064
▁destines	-10.9064
▁homere	-10.9067
▁modes	-10.9069
▁amiral	-10.9072
▁fonctionnaires	-10.9072
▁offert	-10.9073
▁conuaincre	-10.9074
▁reprend	-10.9078
▁temperament	-10.9079
▁soigneusement	-10.9081
▁orchestre	-10.9094
▁capitaux	-10.9096
▁renuerse	-10.9101
▁ciuil	-10.9102
▁mariee	-10.9103
▁uigne	-10.9104
ed	-10.9107
▁arriuant	-10.9113
▁incendie	-10.9115
▁frappa	-10.9122
▁instructions	-10.9123
▁delices	-10.9124
▁geographie	-10.9125
ka	-10.913
ation	-10.913
▁paragraphe	-10.9131
ler	-10.9132
▁epuise	-10.9135
▁lutter	-10.9137
▁seruante	-10.9137
▁egards	-10.9139
▁roule	-10.914
▁eleua	-10.9141
▁arrache	-10.9143
▁boeuf	-10.9145
▁briser	-10.9148
▁guerriers	-10.9154
▁poursuit	-10.9158
▁autorites	-10.9159
▁britannique	-10.916
▁bis	-10.9161
▁sincerite	-10.9163
▁faisoit	-10.9167
▁accroissement	-10.9168
▁gras	-10.9174
▁commissaire	-10.9175
▁syrie	-10.9178
▁ipg	-10.9179
▁user	-10.918
▁conflit	-10.9183
▁uisites	-10.9185
▁americains	-10.9189
▁plateau	-10.9193
ron	-10.9194
▁admet	-10.9203
▁daniel	-10.9207
▁chapitres	-10.9211
▁paruenu	-10.9212
▁lourde	-10.9219
▁melancolie	-10.9221
▁quun	-10.9221
▁cooper	-10.9223
▁chaines	-10.9234
▁demie	-10.9235
▁esthetique	-10.9236
▁latins	-10.9241
▁piano	-10.9242
▁fl	-10.9243
▁reuenant	-10.9244
▁tan	-10.9246
▁prononca	-10.9251
▁etablissemens	-10.926
▁garantie	-10.926
▁bourgeoisie	-10.9264
▁pourpre	-10.9266
▁grammaire	-10.9266
▁acier	-10.9267
▁explications	-10.9268
▁riues	-10.9271
▁publia	-10.9272
▁materiaux	-10.9275
▁souueraine	-10.9277
▁ref	-10.9278
ise	-10.9286
▁subit	-10.9287
▁continuait	-10.9289
▁ueines	-10.9294
▁eclairer	-10.9295
▁magnifiques	-10.9296
▁humide	-10.9296
▁mystique	-10.9304
▁egyptiens	-10.9306
▁neglige	-10.9308
du	-10.931
▁pensant	-10.9311
▁retablir	-10.9321
▁conuenir	-10.9323
▁sortent	-10.9324
▁cul	-10.9325
▁tragique	-10.9331
▁chene	-10.9333
▁seche	-10.9334
▁eo	-10.9341
▁exploitation	-10.9342
▁representations	-10.9345
▁xxii	-10.9346
▁troubler	-10.9349
▁blessure	-10.9357
▁euidence	-10.9358
▁empressement	-10.9361
▁uelours	-10.9366
▁aube	-10.9367
▁alexandrie	-10.9368
▁formidable	-10.9373
▁franchement	-10.9376
▁etonnant	-10.9377
▁ez	-10.9377
▁uni	-10.9378
▁excite	-10.9379
▁fondement	-10.9381
▁iusques	-10.9382
▁priuileges	-10.9383
▁tombent	-10.9386
▁inspirer	-10.9389
▁penchant	-10.939
▁drole	-10.9391
▁energique	-10.9392
▁descendit	-10.9399
▁ruisseau	-10.9404
▁heluetius	-10.9404
▁occupation	-10.9411
▁sacree	-10.9412
▁informe	-10.9412
▁publier	-10.9413
▁uolontaire	-10.9415
▁ruse	-10.9416
▁eternite	-10.9419
▁finesse	-10.9421
▁ulen	-10.9421
▁representent	-10.9425
▁communiquer	-10.9428
▁ours	-10.943
▁actif	-10.9434
▁delicieux	-10.9435
▁epaisse	-10.9439
▁inscriptions	-10.944
▁cesser	-10.944
▁entrainer	-10.9441
▁boue	-10.9443
▁meres	-10.9444
▁assiste	-10.9445
▁epargne	-10.9449
▁piegel	-10.9452
▁tyran	-10.9457
▁diametre	-10.9457
▁aigle	-10.9461
▁if	-10.9463
▁maxime	-10.9466
▁odieux	-10.9466
▁oc	-10.9466
▁sed	-10.9467
▁dangereuse	-10.9469
▁ent	-10.947
▁remplie	-10.9475
▁confession	-10.9479
▁beautes	-10.9481
▁transporter	-10.9484
▁dom	-10.9484
▁miserables	-10.9486
▁taches	-10.9486
▁reunit	-10.9487
▁ressemblent	-10.9488
▁camarade	-10.9494
▁baisers	-10.9495
▁chances	-10.9499
▁ordonna	-10.9501
▁fantome	-10.9503
▁diminuer	-10.9504
▁paroit	-10.9511
▁extraordinaires	-10.9511
▁uins	-10.9514
▁correspondant	-10.9516
▁regler	-10.9518
▁generosite	-10.9519
▁contenter	-10.9526
▁etablis	-10.9531
mont	-10.9537
▁sus	-10.9539
▁xxi	-10.9541
▁absurde	-10.9551
▁uies	-10.9562
▁pacifique	-10.9562
able	-10.9564
▁ernest	-10.9566
▁productions	-10.9567
▁atteinte	-10.9567
▁pate	-10.9573
▁composent	-10.9573
▁initiatiue	-10.9574
▁habiles	-10.9575
▁repousse	-10.9576
▁dimensions	-10.9577
▁frappant	-10.9581
▁trahison	-10.9582
▁maximes	-10.9583
▁descendant	-10.9585
▁precieuses	-10.9586
▁souleue	-10.9592
▁haleine	-10.9597
▁procureur	-10.9598
▁obscure	-10.9619
▁pretention	-10.9621
▁perce	-10.9631
▁roue	-10.9631
▁esse	-10.9632
▁ecus	-10.9636
▁presentait	-10.9639
▁quoy	-10.9642
▁etonner	-10.9643
fe	-10.9646
▁lhomme	-10.9646
▁iambe	-10.9648
▁dise	-10.9651
▁foudre	-10.9652
▁torrent	-10.9653
▁connaissent	-10.9653
▁decida	-10.9659
▁treize	-10.966
▁songeait	-10.966
▁quai	-10.9661
▁ineuitable	-10.9664
▁arbitraire	-10.9664
▁conduisit	-10.9668
▁angles	-10.967
▁attachement	-10.9673
▁distribution	-10.9676
▁pension	-10.9687
▁apercus	-10.9687
▁nommee	-10.9689
▁ualoir	-10.9691
▁chancelier	-10.9692
▁coton	-10.9695
▁incident	-10.97
uin	-10.9704
▁exister	-10.9705
▁salomon	-10.9707
▁sale	-10.9708
▁negres	-10.971
▁fraicheur	-10.971
▁composes	-10.9716
▁restera	-10.9719
▁fous	-10.9721
▁bienueillance	-10.9723
▁chroniques	-10.9733
▁choisis	-10.9733
▁nuances	-10.9734
▁egales	-10.9734
▁paisible	-10.9735
▁marquer	-10.9737
▁monts	-10.9739
▁meler	-10.974
▁rendue	-10.9741
ide	-10.9743
▁bl	-10.9744
▁egaux	-10.9746
▁paruint	-10.9747
▁temoignages	-10.9747
▁lundi	-10.975
▁grise	-10.9751
▁prairies	-10.9752
▁lautre	-10.9753
▁croyances	-10.9755
▁accueil	-10.9755
▁uoleurs	-10.9755
▁soumission	-10.9763
▁pese	-10.9764
▁deura	-10.9764
▁methodes	-10.9767
▁nerueux	-10.977
▁notaire	-10.9771
▁preparation	-10.9771
▁conuenu	-10.9776
▁dramatiques	-10.9779
▁punir	-10.9782
▁desseins	-10.9784
▁ironie	-10.9786
▁irrite	-10.9795
▁depot	-10.9797
▁miel	-10.9801
▁refusa	-10.9807
▁iames	-10.9807
▁raphael	-10.981
▁hercule	-10.9811
▁sensibles	-10.9813
ale	-10.9815
▁notice	-10.9818
▁peri	-10.9826
▁modifier	-10.983
▁deuais	-10.983
▁perdus	-10.9831
▁benefice	-10.9835
▁dynastie	-10.9835
▁permettez	-10.9835
▁ceremonies	-10.9837
▁autorise	-10.9837
▁sortait	-10.9838
▁iud	-10.984
▁christophe	-10.9842
▁uirgile	-10.9842
▁entreprendre	-10.9843
▁cuir	-10.9843
▁milan	-10.9843
▁tombes	-10.9851
▁soutenu	-10.9855
▁alphonse	-10.9858
▁inquiet	-10.9858
▁liberal	-10.9859
▁lut	-10.9863
▁professeurs	-10.9864
▁uoitures	-10.9865
▁bpt	-10.9867
▁hoc	-10.9868
▁infinie	-10.987
▁axe	-10.9872
▁adressee	-10.9873
▁douloureux	-10.9874
▁scandale	-10.9874
▁dogme	-10.9874
▁adressant	-10.9877
▁acteurs	-10.9879
▁superieures	-10.9885
▁psychologie	-10.989
▁appeles	-10.9891
▁ecrites	-10.9893
▁tait	-10.9901
▁caprice	-10.9905
▁bienfaits	-10.9906
▁contiennent	-10.9906
▁barriere	-10.9907
▁uerdure	-10.9907
▁montesquieu	-10.9914
▁corriger	-10.9921
▁uetement	-10.9923
▁astres	-10.9932
▁hauteurs	-10.9933
▁rendant	-10.9935
▁parens	-10.9937
▁eleuait	-10.994
▁seruant	-10.9945
▁patriotisme	-10.9946
▁combinaison	-10.9947
▁fatal	-10.9949
▁reuer	-10.9953
▁enferme	-10.9955
▁troupeaux	-10.9955
▁plonge	-10.9957
▁montait	-10.9968
▁entrait	-10.9968
▁raoul	-10.9969
▁choc	-10.997
▁terminer	-10.9972
▁fausses	-10.9973
▁reglement	-10.9976
▁indien	-10.9977
▁uilla	-10.9982
▁insurrection	-10.9989
▁illusions	-10.9991
▁iaponais	-10.9991
▁chinoise	-10.9992
▁affecte	-10.9992
▁confondre	-10.9996
▁interprete	-10.9996
▁oi	-10.9997
▁eleuees	-11.0001
ke	-11.0003
▁future	-11.001
▁proudhon	-11.001
▁desquelles	-11.0011
▁indifferent	-11.0013
▁marchant	-11.0014
▁delire	-11.0015
▁muse	-11.0019
▁proposer	-11.0019
▁tombee	-11.0019
▁terminee	-11.002
▁personnalite	-11.0021
▁bruler	-11.0025
▁consoler	-11.0033
▁approbation	-11.0035
▁constance	-11.0035
▁indiuiduelle	-11.0038
▁deliure	-11.0039
▁contemporaine	-11.004
▁peintures	-11.0042
qu	-11.0044
▁cy	-11.0044
▁intimes	-11.0046
▁conclut	-11.0048
▁regardez	-11.0053
▁fonder	-11.0053
▁uiures	-11.0054
▁consentement	-11.006
▁demandent	-11.0061
▁eleuent	-11.0062
▁dette	-11.0064
▁seuigne	-11.0065
▁commencent	-11.0066
▁comprenant	-11.0068
▁augmentation	-11.007
▁fatale	-11.0072
▁tombait	-11.0072
▁noel	-11.0073
▁auanca	-11.0075
▁exercices	-11.0076
▁cherchent	-11.0078
ille	-11.0079
▁pecheurs	-11.0083
men	-11.0084
▁imprimer	-11.0089
▁basses	-11.0093
▁ecclesiastiques	-11.0094
▁nou	-11.0095
▁all	-11.0096
▁fondation	-11.0097
▁iouissance	-11.0103
▁bases	-11.0106
▁uil	-11.0107
▁gosselin	-11.0109
▁pudeur	-11.0109
▁tri	-11.0111
▁talents	-11.0111
▁sentier	-11.0115
▁troupeau	-11.0118
▁thiers	-11.0118
▁oter	-11.0119
▁tonnerre	-11.0119
▁formant	-11.0122
▁nil	-11.0124
▁uallees	-11.0126
▁emparer	-11.0132
▁plainte	-11.0134
▁timide	-11.0141
▁continuellement	-11.0143
▁aristocratie	-11.0144
▁fai	-11.0149
▁desespere	-11.015
ix	-11.0151
▁entreuue	-11.0155
▁repentir	-11.0159
▁accusation	-11.0161
▁recue	-11.0162
▁dons	-11.0167
▁disciple	-11.0168
▁creuse	-11.0168
▁tourmente	-11.0169
▁rentra	-11.0169
▁rapprocher	-11.0173
▁ecarte	-11.0175
▁empereurs	-11.0176
▁dialogue	-11.0177
▁moulin	-11.0178
▁internationale	-11.0186
▁hongrie	-11.0191
▁trouuerait	-11.0192
▁respecter	-11.0194
▁lente	-11.0194
▁uincent	-11.0195
▁flancs	-11.0198
▁permit	-11.0199
▁gouts	-11.0205
▁dedain	-11.0205
▁canadiens	-11.0205
▁mysterieuse	-11.0207
▁terrasse	-11.0207
▁nid	-11.0215
▁constituent	-11.0215
▁estomac	-11.0218
land	-11.0218
▁irresistible	-11.0219
▁cloche	-11.0222
▁trouues	-11.0223
▁largement	-11.0227
▁compagne	-11.0228
▁entrent	-11.0229
▁disparut	-11.0233
▁occupee	-11.0233
▁permettent	-11.0234
▁capacite	-11.0235
▁uetu	-11.0239
▁quantites	-11.0244
▁discussions	-11.0245
▁reueil	-11.0245
▁dore	-11.0249
▁interualles	-11.025
▁presents	-11.0251
▁amertume	-11.0252
▁gregoire	-11.0257
▁charlotte	-11.0258
▁religions	-11.0258
▁ze	-11.0264
▁fuit	-11.0267
▁uegetation	-11.0269
▁purent	-11.0271
▁fabrique	-11.0274
▁gare	-11.0277
▁inscription	-11.0277
▁pretendre	-11.0281
eur	-11.0283
▁reserues	-11.0284
▁tra	-11.0287
▁tendres	-11.029
▁geometrie	-11.0291
▁inuente	-11.0292
▁choisies	-11.0293
▁successeur	-11.0294
iques	-11.0295
▁operer	-11.0296
▁parent	-11.0306
▁xxiii	-11.031
▁analogie	-11.0311
▁sacrifier	-11.0313
▁segur	-11.0314
▁apparente	-11.0314
▁greue	-11.0314
▁richelieu	-11.0316
▁condamnes	-11.0316
▁conuersion	-11.0319
▁instincts	-11.032
▁horace	-11.0324
▁gouuerne	-11.0331
▁feconde	-11.0332
▁inconuenient	-11.0336
▁eclate	-11.0338
▁separes	-11.0346
▁persuader	-11.0347
▁imperatrice	-11.0349
▁etoffe	-11.0349
▁publiee	-11.0353
iere	-11.0356
▁teinte	-11.0357
▁permettait	-11.0358
▁orne	-11.0358
pe	-11.0363
▁uirent	-11.0366
▁uoler	-11.0373
▁determinee	-11.0375
▁ain	-11.0376
▁rond	-11.0378
▁obiection	-11.0378
▁franchir	-11.0382
▁precieuse	-11.0383
▁bonhomme	-11.0384
▁reueille	-11.0384
▁eloges	-11.0386
▁canot	-11.0386
▁reception	-11.0387
▁missionnaires	-11.039
▁reprocher	-11.0393
▁associations	-11.0395
▁debat	-11.0397
▁resurrection	-11.04
▁normandie	-11.04
▁iouait	-11.0401
▁sq	-11.0403
▁entendez	-11.0403
▁auances	-11.0404
▁ouuerts	-11.0408
▁blaise	-11.0409
▁montaigne	-11.0409
▁demandez	-11.0409
▁reuers	-11.0413
▁gabriel	-11.0416
▁aimes	-11.0419
▁cruaute	-11.0421
▁deliurer	-11.0425
▁nait	-11.0429
▁heritier	-11.043
mer	-11.0431
▁impuissance	-11.0434
▁isolement	-11.0437
▁regulierement	-11.0437
▁maintien	-11.0447
ze	-11.0447
▁bateaux	-11.0452
▁agents	-11.0452
▁promener	-11.0453
▁centaines	-11.0455
▁conuersations	-11.0458
▁neant	-11.0472
▁exigences	-11.0476
▁mat	-11.0478
▁secondes	-11.0484
▁ps	-11.0488
▁demandai	-11.0488
▁reclamer	-11.0489
eau	-11.0491
▁supprimer	-11.0492
▁uulgate	-11.0493
▁chasseurs	-11.0495
▁faict	-11.0497
▁protecteur	-11.0497
▁nietzsche	-11.0501
▁ioyeuse	-11.0503
▁agreables	-11.0503
▁perspectiue	-11.0506
▁expres	-11.0507
▁pattes	-11.0508
▁prouisions	-11.0509
▁communique	-11.051
▁moderation	-11.051
▁nie	-11.0511
▁electrique	-11.0515
▁mary	-11.0518
▁turquie	-11.0519
▁occupent	-11.0519
▁embarrasse	-11.0522
▁cortege	-11.0523
▁douloureuse	-11.0527
▁essaya	-11.053
▁passaient	-11.0534
▁fauorables	-11.0535
▁rideau	-11.0535
▁surueillance	-11.0536
▁sortis	-11.0539
▁eloignes	-11.054
▁melancolique	-11.054
▁poing	-11.0544
▁prudent	-11.0547
▁soutient	-11.0547
▁daudet	-11.055
▁crus	-11.055
▁post	-11.0552
▁interessante	-11.0553
▁demandant	-11.0554
▁dou	-11.056
▁loix	-11.0563
▁mettez	-11.0564
ues	-11.0565
▁kil	-11.0569
▁apparences	-11.0571
▁sade	-11.0574
▁flandre	-11.0575
▁courses	-11.0577
▁xxu	-11.058
▁matelots	-11.0588
▁duel	-11.0592
ienne	-11.0592
▁fleuues	-11.0593
▁profite	-11.0593
▁gracieux	-11.0596
▁confier	-11.0599
▁bouleuard	-11.0601
▁suiuants	-11.0601
▁germe	-11.0602
▁riual	-11.0604
▁stock	-11.0605
▁apollon	-11.0606
▁dresser	-11.0606
▁sentant	-11.0611
▁obtient	-11.0613
▁degage	-11.0616
▁forcer	-11.062
▁cornes	-11.0622
▁indent	-11.0625
▁loire	-11.0627
▁conclusions	-11.0631
▁pomme	-11.0634
▁paiens	-11.0635
art	-11.0637
▁cleopatre	-11.0639
▁intensite	-11.0639
▁tribunaux	-11.0639
▁lou	-11.064
▁honteux	-11.064
▁gouter	-11.0641
▁impossibilite	-11.0644
▁enseigner	-11.0654
th	-11.0657
ck	-11.0657
▁muet	-11.0657
▁dommage	-11.0659
▁anna	-11.0662
▁aimant	-11.0663
▁muscles	-11.0669
▁legeres	-11.0669
▁signature	-11.067
▁ecosse	-11.0674
▁originalite	-11.0675
ten	-11.0676
▁relatif	-11.0679
▁connaissons	-11.0683
▁caresses	-11.0685
▁auertir	-11.0686
▁determination	-11.0688
▁fameuse	-11.0688
▁allure	-11.0688
▁hardi	-11.0691
▁ioies	-11.0694
▁consulte	-11.0695
▁receuait	-11.07
▁amuse	-11.0703
▁doue	-11.0708
▁mil	-11.0711
▁demeurait	-11.0711
▁bou	-11.0713
▁cau	-11.0714
▁depouille	-11.0716
▁go	-11.0718
▁anglaises	-11.0722
▁eclater	-11.0728
▁casse	-11.073
▁exciter	-11.0731
▁turc	-11.0734
▁intelligent	-11.0739
▁ressource	-11.074
▁mises	-11.0744
▁ke	-11.0746
▁imprimerie	-11.0758
▁surprendre	-11.0758
▁ap	-11.076
ic	-11.0763
▁nantes	-11.0765
▁enuoyes	-11.0765
▁garnison	-11.0765
▁parente	-11.0772
▁cendre	-11.0775
▁tirant	-11.0777
▁couler	-11.0779
id	-11.0781
▁saurais	-11.0783
▁demandes	-11.0784
▁mecanisme	-11.0784
▁cheuelure	-11.0784
▁gilbert	-11.0787
▁lumineux	-11.0787
▁uaincus	-11.0789
▁temoigne	-11.0789
▁dura	-11.0791
▁transports	-11.0792
tio	-11.0794
▁succede	-11.0796
▁misericorde	-11.0796
ay	-11.0796
▁uacant	-11.0799
▁barbarie	-11.08
▁triple	-11.0802
▁poli	-11.0803
▁mathilde	-11.0805
▁infortune	-11.0806
▁theodore	-11.081
▁debats	-11.0811
▁scientifiques	-11.0812
▁chateaubriand	-11.0813
▁messire	-11.0814
per	-11.082
▁ote	-11.0821
▁composer	-11.0822
▁charger	-11.0823
▁sr	-11.0826
▁musicien	-11.0832
▁contrainte	-11.0833
▁genereuse	-11.0834
▁fermee	-11.0839
▁hesite	-11.0842
▁transforme	-11.0846
▁formaient	-11.085
▁orange	-11.085
▁iob	-11.0855
▁communion	-11.0856
▁parcourir	-11.0858
▁captiuite	-11.0858
▁regulier	-11.0859
▁realise	-11.0861
▁theologiens	-11.0863
▁arrondissement	-11.0864
▁couuerture	-11.0864
▁bancs	-11.0866
▁pique	-11.0867
▁coins	-11.0868
▁repandu	-11.0872
▁chaire	-11.0872
▁souuerainete	-11.0873
▁linge	-11.0873
▁ligue	-11.0873
▁intimite	-11.0875
qui	-11.0876
▁am	-11.0876
▁impulsion	-11.0882
▁prestige	-11.0882
▁anglo	-11.0886
▁ius	-11.0887
▁iulie	-11.0888
tant	-11.089
▁planete	-11.0893
▁concoit	-11.0893
▁glaces	-11.0895
▁four	-11.0897
▁ueiller	-11.0899
▁types	-11.0899
ance	-11.0906
▁habitation	-11.091
▁sonne	-11.0911
▁hebreux	-11.0912
▁rai	-11.0913
▁agi	-11.0918
▁silencieux	-11.092
▁mourant	-11.0921
▁gardien	-11.0922
▁iniures	-11.0924
▁paquet	-11.094
▁document	-11.0941
▁obiections	-11.0943
▁surplus	-11.0943
▁representants	-11.0946
▁beurre	-11.0947
▁reguliere	-11.0948
▁brusque	-11.0952
▁drap	-11.0954
▁facons	-11.0955
▁poison	-11.0956
▁uertueux	-11.0956
▁salons	-11.0963
▁uiolemment	-11.0964
▁pp	-11.0968
▁puissants	-11.0979
▁assises	-11.0979
▁appetit	-11.098
▁detresse	-11.0983
▁sunt	-11.0985
▁lucien	-11.0987
▁william	-11.0988
▁neuuieme	-11.0991
▁douteux	-11.0991
▁bulletin	-11.1007
▁criant	-11.101
▁laissons	-11.1011
▁pretendent	-11.1014
▁dispute	-11.1014
ff	-11.102
▁ualait	-11.1022
▁pommes	-11.1022
▁tribune	-11.1023
▁deuotion	-11.1026
▁lorraine	-11.1026
▁exemplaires	-11.103
▁mr	-11.1033
▁regardent	-11.1034
▁cens	-11.1034
▁presentes	-11.1035
▁commander	-11.1039
▁iaunes	-11.1042
▁exterieures	-11.1044
▁reduite	-11.1044
▁completer	-11.1046
▁outils	-11.1049
▁adopter	-11.1051
▁suppression	-11.1052
▁baisse	-11.1056
▁contempler	-11.1062
▁conseille	-11.1063
▁contenait	-11.1063
pa	-11.1063
▁independante	-11.1064
▁seras	-11.1066
▁contraint	-11.1069
▁sauter	-11.1071
▁grauement	-11.1072
▁walter	-11.1072
▁empr	-11.1073
▁procure	-11.1073
▁sy	-11.1073
▁reponds	-11.1074
▁efficace	-11.1076
▁intellectuel	-11.1081
▁assit	-11.1084
▁detourner	-11.1086
▁sot	-11.1089
▁infanterie	-11.109
▁recoiuent	-11.1091
ina	-11.1097
▁chemise	-11.1099
▁perles	-11.11
▁tige	-11.1101
let	-11.1108
▁traduire	-11.1108
▁resiste	-11.1112
▁correction	-11.1115
▁belge	-11.1115
▁conquis	-11.1115
tu	-11.1116
▁stendhal	-11.1117
▁trous	-11.1118
▁brune	-11.1119
▁cire	-11.112
▁obligations	-11.1123
▁mouton	-11.1129
▁economiques	-11.1129
▁sentais	-11.1129
▁maistre	-11.1131
▁confus	-11.1131
▁poursuiuit	-11.1131
▁mesurer	-11.1133
▁hache	-11.1143
▁uisages	-11.1144
▁net	-11.1145
▁condamner	-11.1145
▁christine	-11.1148
▁ueuille	-11.1149
▁susceptible	-11.1152
▁decidement	-11.1156
▁cendres	-11.1157
▁parallele	-11.1159
▁salue	-11.1159
▁ecorce	-11.1161
▁inuolontaire	-11.1171
▁faciles	-11.1172
▁prolonge	-11.1179
▁hollandais	-11.1189
▁legers	-11.119
▁prouoque	-11.1192
▁fabrication	-11.1199
▁influences	-11.12
▁quam	-11.12
▁ferez	-11.1201
▁salaire	-11.1204
▁gaulois	-11.1204
▁dan	-11.121
▁signaler	-11.1212
▁isle	-11.1212
▁parlementaire	-11.1217
▁quinzaine	-11.1217
▁egoisme	-11.1218
▁habitant	-11.1218
▁epitre	-11.1226
▁astronomie	-11.1227
▁extension	-11.1227
▁intendant	-11.1227
▁frequentes	-11.1231
▁tronc	-11.1231
▁recourir	-11.1236
▁neuue	-11.1241
▁lhistoire	-11.1244
▁indications	-11.1249
nn	-11.1249
▁seruitude	-11.1254
▁affreuse	-11.1259
▁complaisance	-11.1263
▁khan	-11.1263
don	-11.1264
mo	-11.1265
▁suede	-11.1267
▁choisit	-11.1269
▁monumens	-11.1273
▁smith	-11.1273
▁serieuses	-11.1273
▁peaux	-11.1278
▁her	-11.1279
▁collegues	-11.1281
▁uolontes	-11.1282
▁blonde	-11.1284
▁ouuertes	-11.1288
▁calculs	-11.1294
▁suffisait	-11.13
▁assistance	-11.13
▁tentatiues	-11.1302
▁aioutait	-11.1308
▁glisser	-11.1309
▁blame	-11.1309
▁bismarck	-11.131
▁bouteille	-11.131
▁pensent	-11.1312
▁quarts	-11.1315
▁remplis	-11.1316
▁republicain	-11.1316
▁docteurs	-11.1321
▁figurer	-11.1326
▁sauoie	-11.1327
▁inconnus	-11.1327
iii	-11.133
▁hein	-11.1336
▁pompe	-11.1342
▁craignait	-11.1347
▁arriuerent	-11.1351
▁allume	-11.1353
▁celuy	-11.1354
▁utiliser	-11.1355
▁splendeur	-11.1355
▁sanctuaire	-11.1355
▁cauerne	-11.1355
▁therese	-11.1356
▁pacha	-11.1357
▁ep	-11.1362
▁defiance	-11.1364
▁mahomet	-11.1368
▁abandonnee	-11.1371
▁sculpture	-11.1374
▁reproduire	-11.1374
▁hachette	-11.1375
▁corn	-11.1375
▁craintes	-11.1377
▁postes	-11.1386
▁chasseur	-11.1388
▁accuser	-11.1392
▁appuyer	-11.1392
▁femelle	-11.1393
▁suzanne	-11.1393
▁ecart	-11.1394
▁blessures	-11.1395
▁entieres	-11.1395
▁aisance	-11.1398
▁gui	-11.14
▁iouit	-11.1404
▁cessa	-11.1405
ray	-11.1406
▁hume	-11.1407
▁saintes	-11.141
▁passionne	-11.1411
ad	-11.1411
▁palestine	-11.1412
▁respecte	-11.1415
▁district	-11.1421
▁calcaire	-11.1421
▁ressemblait	-11.1421
▁astre	-11.1422
▁xxui	-11.1423
▁recolte	-11.1424
▁tut	-11.1425
ls	-11.1429
▁fossiles	-11.143
▁xxiu	-11.143
▁abraham	-11.143
▁loc	-11.143
roient	-11.1431
▁annoncait	-11.1432
▁commettre	-11.1432
▁roux	-11.1433
▁empreinte	-11.1433
▁uaine	-11.1435
▁rencontra	-11.1437
▁immediate	-11.1441
▁renan	-11.1441
▁regnait	-11.1441
▁engagement	-11.1448
▁rappelait	-11.1452
▁malice	-11.1453
▁negociations	-11.1454
▁batir	-11.1458
▁pouce	-11.1458
▁tabac	-11.1459
▁ecoutait	-11.146
ante	-11.146
▁confirme	-11.1462
▁excuser	-11.1465
▁rennes	-11.1467
▁modestie	-11.1468
▁tt	-11.1469
▁deuiendra	-11.1472
▁guy	-11.1473
▁admirables	-11.1474
▁ferons	-11.1475
▁diane	-11.1482
▁uir	-11.1483
▁domaines	-11.1486
▁repousser	-11.1486
▁retenu	-11.1486
▁bati	-11.1487
▁felix	-11.1487
▁residence	-11.1487
▁uieillards	-11.1488
▁gerard	-11.1489
▁passerent	-11.1493
▁algerie	-11.1493
▁reunies	-11.1493
▁roc	-11.1498
▁bain	-11.1501
▁class	-11.1502
▁irene	-11.1502
▁aimais	-11.1503
▁sauaient	-11.1506
▁outrage	-11.1508
▁flatte	-11.1513
▁coutumes	-11.1514
▁identite	-11.1515
▁gage	-11.1522
▁comedies	-11.1523
▁uases	-11.1523
za	-11.1524
▁refuge	-11.1525
▁clos	-11.1525
lu	-11.1528
▁sourd	-11.1529
▁act	-11.1539
▁manifestation	-11.1544
▁soupcons	-11.1549
▁attachee	-11.1551
ty	-11.1552
▁monastere	-11.1553
▁redaction	-11.1554
▁chercha	-11.1554
▁impr	-11.1554
▁bourbon	-11.1555
▁precedentes	-11.1557
▁uerres	-11.1557
▁occidentale	-11.1558
▁americaine	-11.1563
▁preuention	-11.1563
▁elite	-11.1566
▁chi	-11.1572
▁consideree	-11.1573
▁uides	-11.1575
▁tentes	-11.1578
▁structure	-11.1581
▁pria	-11.1582
▁nationaux	-11.1583
▁uoleur	-11.1586
▁nen	-11.1588
▁supplie	-11.1589
▁rou	-11.1591
▁faisais	-11.1596
▁constitutionnel	-11.1597
nis	-11.1597
▁liuree	-11.1597
▁henriette	-11.1601
▁deuore	-11.1603
▁theatres	-11.1604
▁lamour	-11.1604
▁ouurait	-11.1607
▁occupes	-11.1608
▁officiel	-11.1609
▁lisant	-11.1615
▁eteint	-11.1616
▁hospitalite	-11.1619
▁farouche	-11.162
▁constituer	-11.1624
▁poussant	-11.1624
▁obligee	-11.1625
▁uend	-11.1626
▁iehouah	-11.1629
▁entendant	-11.1631
▁pompee	-11.1631
▁enchante	-11.1638
▁perception	-11.1639
▁socialisme	-11.1639
▁marquee	-11.164
▁moutons	-11.164
▁raisonne	-11.1646
▁pardonner	-11.1651
▁eclatante	-11.1653
▁degager	-11.1655
▁ris	-11.1656
▁posee	-11.1657
he	-11.1666
▁perils	-11.1669
▁remise	-11.1669
▁auenement	-11.167
▁durer	-11.1671
▁lisait	-11.1672
▁berger	-11.1672
▁tarda	-11.1674
▁poursuite	-11.1676
▁farine	-11.1677
▁forteresse	-11.1678
▁publies	-11.168
▁connoitre	-11.1683
▁commentaires	-11.1684
▁saintete	-11.1684
▁amuser	-11.1688
▁intrigue	-11.169
▁paraissaient	-11.1696
▁conquetes	-11.1699
▁reconnaissant	-11.17
▁constructions	-11.1705
▁didot	-11.1706
▁facheux	-11.1706
▁detre	-11.1708
▁poussee	-11.1709
▁glisse	-11.1713
iers	-11.1715
▁diminution	-11.1715
▁sueur	-11.1716
▁fluide	-11.1717
▁louure	-11.1723
▁anneau	-11.1727
▁plate	-11.1728
rt	-11.173
▁uictoires	-11.1731
▁zone	-11.1732
▁detache	-11.1734
▁samedi	-11.1737
▁donnerent	-11.1742
▁communications	-11.1749
▁prussiens	-11.1751
▁saura	-11.1751
▁manifestations	-11.1753
▁desirait	-11.176
▁magasin	-11.1765
▁condamnation	-11.1765
▁apparut	-11.1766
▁bre	-11.1771
▁supposons	-11.1773
▁latitude	-11.1777
▁lempire	-11.178
▁chaux	-11.1786
▁rattache	-11.179
▁ien	-11.1794
▁rat	-11.1797
▁dettes	-11.1799
▁traine	-11.1801
▁benefices	-11.1801
▁doutes	-11.1803
▁cant	-11.1808
▁tons	-11.1809
▁plis	-11.181
▁tit	-11.1817
▁errant	-11.1818
▁galant	-11.1822
▁ignorant	-11.1824
▁nationales	-11.1825
▁dirigea	-11.1825
▁seme	-11.1827
ias	-11.1827
▁quittant	-11.1828
▁soumise	-11.1831
▁regretter	-11.1832
▁baptiste	-11.1833
▁guerrier	-11.1833
▁colons	-11.1834
▁ornement	-11.1838
▁autorisation	-11.1843
▁prou	-11.1851
▁regner	-11.1852
▁mortels	-11.1857
▁mouche	-11.1857
▁depeche	-11.1858
▁ferdinand	-11.1861
▁dauphin	-11.1861
▁assaut	-11.1863
▁flanc	-11.1868
▁ouurant	-11.1869
▁noces	-11.1871
▁offense	-11.1874
▁rosee	-11.1874
▁ka	-11.1876
▁canaux	-11.1881
▁parfums	-11.1882
▁semblant	-11.1886
▁resolut	-11.1886
▁respirer	-11.1893
▁edifices	-11.1896
▁representee	-11.1899
▁aborder	-11.19
▁ambitieux	-11.19
▁criait	-11.1904
▁uapeurs	-11.1904
▁spectateurs	-11.1906
▁souliers	-11.191
▁ignorer	-11.1911
▁cle	-11.1912
▁amants	-11.1915
▁fee	-11.192
▁seuerite	-11.1922
▁preiuge	-11.1923
▁exiger	-11.1925
▁accable	-11.1926
▁prouoquer	-11.1928
▁background	-11.1929
▁despotisme	-11.1929
▁materielle	-11.193
▁pensais	-11.1932
▁fouet	-11.1934
▁pin	-11.1937
▁fo	-11.1937
▁consacrer	-11.1939
▁reproduit	-11.1942
▁sentence	-11.1942
▁dissimuler	-11.1948
▁tacite	-11.1957
▁melanges	-11.1958
▁hypotheses	-11.1962
▁negre	-11.1969
▁fleche	-11.1973
ung	-11.1973
▁intrigues	-11.1977
▁essentielle	-11.1979
▁denrees	-11.1986
▁pui	-11.1986
▁gentil	-11.1987
▁auancait	-11.199
▁cachee	-11.1992
▁isole	-11.1993
▁allerent	-11.1996
▁fragment	-11.1997
▁quartiers	-11.2001
▁difficilement	-11.2007
▁mexique	-11.2008
▁incertitude	-11.2011
▁lisez	-11.2013
▁madrid	-11.2018
▁anarchie	-11.2018
▁recente	-11.2019
▁eprouuait	-11.2021
▁possedent	-11.2023
▁suffi	-11.203
▁elus	-11.2032
▁meriter	-11.2033
▁elegante	-11.2034
▁momens	-11.2039
▁fers	-11.204
▁taux	-11.2042
▁criminel	-11.2043
▁paue	-11.2043
▁pecheur	-11.2046
▁amas	-11.2051
▁efforce	-11.2054
▁electricite	-11.2058
ble	-11.2067
▁ualmore	-11.2068
▁comporte	-11.2072
▁proclame	-11.2074
▁diuersite	-11.2074
▁moscou	-11.2077
fa	-11.2081
▁communement	-11.2084
▁hebdomadaires	-11.2087
▁massacre	-11.2089
▁sinistre	-11.2091
▁repand	-11.2092
▁maudit	-11.2092
▁lasse	-11.2093
▁deserte	-11.2094
▁ondine	-11.2095
▁tuileries	-11.21
▁positif	-11.2101
▁moralite	-11.2105
▁reconnais	-11.2107
▁morne	-11.2107
▁pair	-11.2109
▁erudition	-11.2109
▁bottes	-11.2109
▁funebre	-11.2111
ret	-11.2114
▁circulaire	-11.2116
▁entouree	-11.2117
▁ingenieur	-11.2121
▁matinee	-11.2125
▁suffire	-11.2126
▁crane	-11.2128
▁tasse	-11.2129
▁secte	-11.213
▁finalement	-11.2131
▁uisions	-11.2133
▁gal	-11.2137
▁indulgence	-11.2142
▁eclairee	-11.2142
▁brille	-11.2142
▁catalogue	-11.2142
ini	-11.2144
▁deuoit	-11.2145
▁chaussee	-11.2146
▁occupations	-11.215
lie	-11.215
▁deuoue	-11.2154
▁cadaures	-11.2157
▁causa	-11.2162
▁ietait	-11.2162
nce	-11.2163
▁forma	-11.2165
▁perpendiculaire	-11.2168
▁toulouse	-11.2168
▁ib	-11.2169
▁trouuerez	-11.217
▁mande	-11.217
iou	-11.2171
▁lacs	-11.2172
▁reprise	-11.2173
aire	-11.2174
▁sourcils	-11.2177
▁etudiant	-11.2178
▁naquit	-11.2178
▁conquerir	-11.2178
▁compromis	-11.2179
▁gaule	-11.2181
▁definir	-11.2185
▁promet	-11.2186
▁aille	-11.2187
▁passees	-11.2188
▁uigouroux	-11.2188
▁ingenieux	-11.2188
▁quae	-11.2192
▁realisation	-11.2192
ques	-11.2196
▁rupture	-11.2199
▁theophile	-11.2199
▁meridionale	-11.2207
▁prouisoire	-11.2209
▁distinctes	-11.2212
▁fumes	-11.2213
▁discretion	-11.2218
▁effectiuement	-11.222
▁batiments	-11.222
▁querelles	-11.2221
▁legerete	-11.2221
▁espagnole	-11.2222
lis	-11.2222
▁sacrement	-11.2223
▁bacon	-11.2224
▁successeurs	-11.2225
▁za	-11.2228
▁heureuses	-11.2233
▁ayons	-11.2234
▁adressa	-11.2237
▁deliurance	-11.2239
▁inuincible	-11.2239
▁caprices	-11.2239
▁edmond	-11.224
▁modifie	-11.2242
▁bah	-11.2244
▁couple	-11.2244
▁ualent	-11.2245
▁scott	-11.2249
▁didier	-11.2249
▁insensible	-11.225
▁socialistes	-11.225
▁couchant	-11.2252
▁brillantes	-11.2257
▁eternellement	-11.2259
▁desbordes	-11.2259
▁musiciens	-11.2263
▁remercier	-11.2267
▁ker	-11.2269
▁preparatifs	-11.227
▁entendement	-11.2272
▁sauans	-11.2274
▁rom	-11.2277
▁emprunt	-11.2279
▁tam	-11.2283
▁filet	-11.2287
▁tumulte	-11.229
▁robes	-11.2298
▁importants	-11.2299
▁menton	-11.2302
▁eclatant	-11.2302
▁iolies	-11.2303
▁promenades	-11.2309
▁mediterranee	-11.2309
▁iugements	-11.2311
▁reuni	-11.2313
▁debarrasser	-11.2319
▁formait	-11.2323
▁contemporain	-11.2326
uis	-11.2328
▁talens	-11.2331
▁michelet	-11.2334
▁ol	-11.2338
▁manoeuure	-11.2339
aud	-11.2341
▁soupcon	-11.2341
▁entrailles	-11.2341
▁portugais	-11.2342
▁etroites	-11.2343
▁materialisme	-11.2351
▁collier	-11.2353
▁celestes	-11.2353
▁cultiue	-11.2355
▁galop	-11.2356
▁rem	-11.2356
▁souleuer	-11.2362
▁paginet	-11.2362
▁humilite	-11.2362
▁trouuez	-11.2366
▁ridicules	-11.2369
▁rt	-11.237
▁rencontrent	-11.2371
▁batailles	-11.2371
▁parisienne	-11.2373
▁mor	-11.2374
▁lun	-11.2375
▁cos	-11.2375
▁procedure	-11.2376
ct	-11.2378
cha	-11.2382
▁dechire	-11.2385
▁rends	-11.2386
isse	-11.2387
▁uraies	-11.2396
▁inegalite	-11.2397
▁incontestable	-11.24
▁gouuernements	-11.24
▁reponses	-11.2401
▁compassion	-11.2403
▁interesser	-11.2407
▁uaillant	-11.241
▁message	-11.241
▁champagne	-11.2413
▁marthe	-11.2413
▁gardait	-11.2416
▁iniure	-11.2419
▁irlande	-11.2423
▁danser	-11.2424
▁prenaient	-11.2424
▁ponts	-11.2425
▁officielle	-11.2426
▁station	-11.2427
▁signer	-11.2429
▁proceder	-11.2429
fi	-11.2431
▁pole	-11.2432
▁preoccupe	-11.2433
▁positiue	-11.2435
▁eloignee	-11.2437
▁arbitre	-11.2439
▁embouchure	-11.2439
▁agricole	-11.2439
▁approuue	-11.2439
▁appliquees	-11.2439
▁originale	-11.2443
▁nai	-11.2443
▁habitue	-11.2448
▁canne	-11.245
▁hotes	-11.2458
▁balle	-11.2458
▁plaisanterie	-11.246
▁durable	-11.2464
▁disparait	-11.2464
▁tomes	-11.2466
▁ennemie	-11.2467
▁can	-11.2472
▁manie	-11.2473
▁arguments	-11.2475
are	-11.2477
▁iustifie	-11.2477
▁pourrai	-11.2478
▁efface	-11.248
▁secretes	-11.2484
tor	-11.2487
▁ff	-11.249
▁employee	-11.2494
▁assassin	-11.2495
▁traitre	-11.2496
hi	-11.2497
▁restaient	-11.25
tin	-11.2501
▁releua	-11.2502
ana	-11.2502
▁arriuera	-11.2505
▁cecile	-11.2506
▁dickens	-11.2506
▁super	-11.2507
▁pline	-11.2509
▁ga	-11.2517
▁fiancee	-11.2519
▁correspond	-11.252
▁extremes	-11.252
▁pauline	-11.252
▁germanique	-11.2522
▁conclu	-11.2523
▁dicte	-11.2526
ul	-11.2527
▁unir	-11.2527
▁uerts	-11.2527
▁effraye	-11.253
▁dissolution	-11.2533
▁menager	-11.2536
▁gouuernemens	-11.2538
▁babylone	-11.2539
▁conferences	-11.2539
▁chretiennes	-11.2546
▁ein	-11.2547
▁craignant	-11.2548
iam	-11.2551
▁constantin	-11.2551
▁incomparable	-11.2554
▁demons	-11.2559
▁soustraire	-11.2559
▁fauori	-11.2565
▁reueiller	-11.2566
rions	-11.2568
▁charlemagne	-11.2569
ga	-11.2572
uen	-11.2573
▁obseruateur	-11.2575
▁uache	-11.2577
▁luther	-11.2579
▁darwin	-11.2579
▁eclats	-11.2582
▁dort	-11.2583
▁rites	-11.2584
▁liqueur	-11.2584
▁dautres	-11.2587
▁anno	-11.2589
▁placees	-11.2589
▁uoyaient	-11.2594
▁organiser	-11.2596
▁suffisant	-11.2597
▁zo	-11.26
▁uenerable	-11.2606
▁infame	-11.2607
▁poignee	-11.2608
den	-11.2611
her	-11.2611
▁cymr	-11.2611
▁cu	-11.2611
riez	-11.2611
▁republicains	-11.2612
▁paysages	-11.2613
▁uouloit	-11.2622
▁produisit	-11.2622
▁pri	-11.2622
▁brigands	-11.2623
▁censure	-11.2625
▁penitence	-11.2628
▁leuee	-11.263
▁proposa	-11.2634
▁cellule	-11.2638
▁produite	-11.2641
if	-11.2644
▁reins	-11.2646
▁tremble	-11.2646
▁penche	-11.265
▁muette	-11.2651
▁mirbeau	-11.2653
▁supprime	-11.2656
▁nette	-11.2656
▁gar	-11.2657
▁poil	-11.266
▁file	-11.2661
▁suiu	-11.2666
▁apparaitre	-11.2669
▁libraire	-11.267
ha	-11.2678
▁naufrage	-11.2681
▁fardeau	-11.2685
▁xuie	-11.2685
▁apportait	-11.2687
▁substituer	-11.2687
▁preuu	-11.2688
▁relache	-11.2693
▁absorbe	-11.2693
▁lucie	-11.2701
▁sauraient	-11.2701
▁douzaine	-11.2702
▁legislatif	-11.2713
▁soyons	-11.2718
ssait	-11.2719
▁nourrit	-11.2723
▁celtique	-11.2724
▁filets	-11.2724
▁nuance	-11.2726
▁inferieurs	-11.2727
▁parurent	-11.2731
▁recommencer	-11.2732
▁sincerement	-11.2736
▁danube	-11.2738
▁cara	-11.2741
▁engagea	-11.2742
▁hardiesse	-11.2745
▁mechants	-11.2748
▁osait	-11.2748
▁croyaient	-11.275
▁strasbourg	-11.2751
▁reduits	-11.2752
▁eteindre	-11.2752
ik	-11.2754
uses	-11.2754
▁cocher	-11.2754
uel	-11.2756
▁paupieres	-11.2764
▁brouillard	-11.2765
▁sabre	-11.2768
▁laissee	-11.2768
▁gracieuse	-11.2771
▁aut	-11.2771
▁infinite	-11.2776
▁multiplier	-11.2776
▁regardaient	-11.2776
▁uicaire	-11.2777
▁arrangement	-11.278
▁physiologie	-11.2781
▁theme	-11.2785
▁associe	-11.2785
▁inconnues	-11.2786
▁respectable	-11.2789
▁poignard	-11.2791
uo	-11.2791
▁grille	-11.2792
▁accroitre	-11.2792
ba	-11.2793
▁disposes	-11.2797
our	-11.2799
▁coq	-11.28
▁sp	-11.2802
▁esperait	-11.2803
▁catastrophe	-11.2809
▁plaie	-11.281
ites	-11.2811
▁desagreable	-11.2819
▁raui	-11.282
▁habitent	-11.2825
▁scrupule	-11.2828
▁disoit	-11.283
▁organisme	-11.2831
▁franche	-11.2833
▁interroge	-11.2833
▁marcel	-11.2833
▁ieudi	-11.2834
▁comprenez	-11.2835
▁songes	-11.2835
▁loups	-11.2838
ees	-11.2838
▁zarathoustra	-11.2846
▁xxx	-11.2847
▁caue	-11.2849
▁entendent	-11.2852
▁louanges	-11.2852
▁nommes	-11.2853
▁approchant	-11.2858
▁admirablement	-11.2858
▁sentent	-11.2859
▁faubourg	-11.2861
▁uiolon	-11.2861
▁crete	-11.2863
▁boheme	-11.2864
▁independant	-11.2865
▁seue	-11.2865
▁arretes	-11.2867
▁chenier	-11.2868
▁num	-11.2868
▁biere	-11.2868
▁commencerent	-11.287
▁comp	-11.2872
▁trembler	-11.2873
▁uainqueurs	-11.2874
▁meritent	-11.2877
elle	-11.2877
▁aperceuait	-11.2878
▁respire	-11.2879
▁compromettre	-11.2879
▁peste	-11.2879
teur	-11.288
▁saute	-11.2881
▁attendaient	-11.2882
ya	-11.2883
▁prouuent	-11.2883
▁das	-11.2884
▁fondre	-11.2886
▁concessions	-11.2886
▁sitot	-11.2887
▁portugal	-11.2889
▁brebis	-11.2889
▁prime	-11.2894
▁pertes	-11.2895
▁nuire	-11.2899
▁debauche	-11.2899
▁allai	-11.2901
▁lancer	-11.2902
▁forcee	-11.2905
▁agens	-11.2906
iue	-11.2906
▁etoffes	-11.2906
▁exemplaire	-11.2907
rs	-11.2907
▁luxembourg	-11.2911
▁uendredi	-11.2913
▁promit	-11.2915
▁genes	-11.2917
▁triompher	-11.2917
▁rougir	-11.2919
▁coquilles	-11.292
▁accomplissement	-11.2922
▁cetait	-11.2923
▁club	-11.2932
▁lemerre	-11.2932
▁iudiciaire	-11.294
▁oeuf	-11.294
▁marty	-11.294
▁tissu	-11.2943
▁not	-11.2943
▁annonca	-11.2944
ette	-11.2947
▁conde	-11.2948
▁mie	-11.2949
▁feuillage	-11.2951
▁doiue	-11.2951
▁echec	-11.2953
▁toiles	-11.2961
▁speculation	-11.2962
▁feminin	-11.2963
▁gentilshommes	-11.2965
▁decisions	-11.2969
▁fixee	-11.2972
▁prouenant	-11.2976
▁insu	-11.2979
▁arretee	-11.298
▁rio	-11.2981
▁merites	-11.2981
ger	-11.2984
▁legislateur	-11.2984
▁architecte	-11.2984
▁prenne	-11.2987
▁reproduction	-11.2995
▁dauphine	-11.2995
▁lanterne	-11.2996
▁transformer	-11.3004
▁bourreau	-11.301
▁calmer	-11.3014
nier	-11.3015
▁appuye	-11.3018
▁elegant	-11.3018
▁plaint	-11.3021
▁anterieure	-11.3022
▁coupes	-11.3025
▁tendant	-11.3029
▁ualentin	-11.3032
▁maieure	-11.3034
▁legion	-11.3037
▁cruellement	-11.3038
▁remedes	-11.3038
▁soupe	-11.3042
▁garantir	-11.3044
der	-11.3044
▁faueurs	-11.3045
sch	-11.3047
▁grade	-11.3048
▁anglois	-11.3049
▁reseau	-11.3052
lt	-11.3058
▁mirabeau	-11.3064
con	-11.3069
▁habituelle	-11.3069
▁quo	-11.307
▁beni	-11.3071
▁uierges	-11.3074
▁antoinette	-11.3076
▁dubois	-11.3083
▁quasi	-11.3083
▁secondaire	-11.3084
▁mousse	-11.3086
▁uifs	-11.3087
tt	-11.3088
▁tigre	-11.3095
▁abbadie	-11.3097
▁michaud	-11.3097
▁orientales	-11.3097
▁bride	-11.3097
▁barres	-11.3097
▁geant	-11.3098
▁abattre	-11.3099
▁metiers	-11.3103
▁categorie	-11.3105
▁uariation	-11.3105
▁gue	-11.3108
▁pleinement	-11.3111
mm	-11.3111
▁temoigner	-11.3114
▁flatter	-11.3115
▁sain	-11.3116
▁nomination	-11.3117
▁tentation	-11.3118
▁messager	-11.3121
▁positions	-11.3122
▁attendent	-11.3124
▁selle	-11.3125
▁ub	-11.3125
▁sacrements	-11.3126
▁democratique	-11.3127
▁maritime	-11.3128
▁empare	-11.313
▁musulmans	-11.3131
▁reuetu	-11.3132
▁subsiste	-11.3134
▁exterieurs	-11.3134
▁tristement	-11.3144
▁faces	-11.3147
▁etroitement	-11.3149
▁decrets	-11.315
ser	-11.3152
▁rabelais	-11.3152
▁rendra	-11.3157
▁conduits	-11.3158
▁symptomes	-11.3158
▁rencontres	-11.3159
▁couuertes	-11.3162
ica	-11.3164
une	-11.3166
▁exposes	-11.3168
▁uolontairement	-11.3168
▁redoute	-11.3171
▁colle	-11.3173
▁entrepris	-11.3173
▁prouence	-11.3175
▁deuinrent	-11.3175
▁couronnes	-11.3178
nie	-11.3179
bi	-11.3181
▁notres	-11.3182
▁frayeur	-11.3184
▁egare	-11.3185
▁bot	-11.3185
▁ignorait	-11.3186
▁ecris	-11.3187
▁ecume	-11.3188
▁trouuais	-11.3191
ino	-11.3191
▁souris	-11.3199
▁uictoria	-11.3201
▁iustesse	-11.3202
▁dot	-11.3209
▁ciuiles	-11.3209
▁tendit	-11.3216
▁attentif	-11.3217
▁froidement	-11.3218
ah	-11.3218
▁destination	-11.3221
▁dante	-11.3223
▁entiers	-11.3224
▁renomme	-11.3226
▁oe	-11.3227
▁liberaux	-11.3231
▁entente	-11.3233
▁hausse	-11.3234
▁tendent	-11.3235
▁preoccupation	-11.3239
▁amer	-11.324
▁uiolentes	-11.3243
▁acquise	-11.3246
▁suffrage	-11.3251
▁bourgeoise	-11.3251
▁robespierre	-11.3253
▁laueaux	-11.3254
▁sentis	-11.3259
oe	-11.3259
▁pourrions	-11.3259
▁diamant	-11.3262
▁arrange	-11.3264
▁ancre	-11.3266
rat	-11.3267
▁posa	-11.3268
▁banques	-11.3277
▁considerant	-11.3289
▁preceptes	-11.3289
▁contribuer	-11.3289
▁sic	-11.3289
▁inquieter	-11.3292
▁recule	-11.3292
▁accompagnee	-11.3292
▁excessiue	-11.3292
▁grossier	-11.3296
▁electeurs	-11.3298
▁planetes	-11.3303
▁conceptions	-11.3305
▁baudelaire	-11.3309
▁console	-11.3309
▁opposee	-11.3309
▁courait	-11.331
▁attendez	-11.3312
▁ouuertement	-11.3312
▁malot	-11.3318
▁courants	-11.3321
ft	-11.3321
▁laissaient	-11.3322
▁solidite	-11.3324
▁mathematique	-11.333
▁inuitation	-11.333
▁symboles	-11.3334
▁etablissements	-11.3337
lier	-11.3337
▁flute	-11.3338
▁auto	-11.334
▁classiques	-11.3344
▁sensiblement	-11.3347
cu	-11.3348
▁restant	-11.335
▁pales	-11.335
▁chagrins	-11.3352
▁fondateur	-11.3354
▁uoudrez	-11.3354
▁uaines	-11.3356
▁emue	-11.3357
▁malaise	-11.3358
▁gouttes	-11.336
▁suiuis	-11.3362
▁anc	-11.3364
▁cop	-11.3365
▁nues	-11.3365
▁uegetaux	-11.3366
▁plaisait	-11.3366
▁sommets	-11.3375
▁bataillon	-11.3376
▁aueugles	-11.3376
▁incline	-11.3376
▁lucrece	-11.3377
▁resignation	-11.3377
▁apporta	-11.3381
▁exagere	-11.3381
▁abondante	-11.3382
▁pareillement	-11.3382
▁caresse	-11.3382
▁assuree	-11.3382
▁inquietudes	-11.3383
▁rendaient	-11.3387
▁artagnan	-11.3388
▁familier	-11.339
▁polonais	-11.3392
▁amies	-11.3393
▁prodigue	-11.3395
▁rhetorique	-11.34
▁ateliers	-11.3401
▁soupconner	-11.3401
▁tremblant	-11.3403
▁secondaires	-11.3404
▁recueilli	-11.3405
▁occupa	-11.3406
▁compositions	-11.3407
▁reflechi	-11.3409
▁million	-11.3411
▁organise	-11.3412
▁ferais	-11.3412
▁embrassa	-11.3413
▁ras	-11.3419
▁tribut	-11.342
▁uenues	-11.3421
▁escorte	-11.3423
▁fines	-11.3424
▁repetait	-11.3426
▁identique	-11.3429
▁tendrement	-11.343
▁corrige	-11.3431
cr	-11.3438
▁tienne	-11.344
tique	-11.3441
▁tombant	-11.3448
▁corne	-11.3448
po	-11.3449
▁rompu	-11.3449
▁demeures	-11.3451
od	-11.3453
▁absent	-11.3453
▁lier	-11.3454
▁israelites	-11.3454
▁deuraient	-11.3455
▁esquisse	-11.3455
▁betail	-11.3457
▁personnelles	-11.3459
▁salles	-11.3463
▁epousa	-11.3463
▁fleches	-11.3466
▁renuerser	-11.3466
▁sourde	-11.3467
▁audience	-11.3467
▁arche	-11.3468
▁apparemment	-11.3468
▁robuste	-11.3469
▁frequente	-11.3471
▁cage	-11.3473
▁libertes	-11.3475
▁effroyable	-11.3475
▁serra	-11.3476
▁chantant	-11.3479
▁lisle	-11.3484
▁uendu	-11.3486
▁direct	-11.3487
▁euidente	-11.349
▁contemplation	-11.3491
▁durent	-11.3491
▁batimens	-11.3492
▁concilier	-11.3495
▁ueuillez	-11.3496
ist	-11.3496
▁gou	-11.3496
▁iuoire	-11.3497
▁resolutions	-11.3499
▁prosper	-11.3502
▁wikimedia	-11.3503
▁delicates	-11.3506
▁etouffe	-11.3507
ian	-11.3507
▁emplois	-11.3511
▁mouches	-11.3512
▁prendra	-11.3515
▁croirait	-11.3517
▁desole	-11.352
▁publiquement	-11.352
▁martyre	-11.3521
▁briller	-11.3523
▁confederation	-11.3525
▁nosup	-11.3529
▁essor	-11.3532
▁repondent	-11.3534
▁satan	-11.3534
▁installe	-11.3536
▁autels	-11.3536
▁ante	-11.3537
▁contra	-11.3539
▁iam	-11.354
▁torture	-11.3543
▁reflet	-11.3544
▁calomnie	-11.3545
▁splendide	-11.3545
▁reieter	-11.3546
▁adrien	-11.3548
▁attrait	-11.3549
▁equipe	-11.3553
▁donnerait	-11.3557
▁diuines	-11.356
▁commerciale	-11.3562
▁naiue	-11.3565
▁ko	-11.3566
▁ecrase	-11.3568
nte	-11.3568
▁accepta	-11.3571
▁hesitation	-11.3572
▁dependance	-11.3572
▁duplessis	-11.3572
▁prompt	-11.3572
▁entendis	-11.3573
▁eueiller	-11.3574
▁incroyable	-11.3583
▁garda	-11.3587
▁ouurieres	-11.3588
▁robin	-11.3589
▁gu	-11.3591
▁tiree	-11.3592
▁atheniens	-11.3593
▁trauersee	-11.3594
▁reculer	-11.3594
▁mouchoir	-11.3595
▁pli	-11.3596
▁tristan	-11.3597
▁comptant	-11.3597
▁cercles	-11.3601
▁uante	-11.3602
▁uerue	-11.3604
▁mineure	-11.3605
▁epouuantable	-11.3607
▁commissaires	-11.361
▁poussait	-11.3611
▁inuerse	-11.3616
▁alsace	-11.3619
▁supposant	-11.3619
▁souhaiter	-11.362
▁zinc	-11.3623
▁obeit	-11.3623
ig	-11.3625
▁deplorable	-11.3627
▁socialiste	-11.3631
▁rideaux	-11.3631
ru	-11.3632
▁moyennant	-11.3632
▁sergent	-11.3633
▁comprise	-11.3644
net	-11.3645
▁letat	-11.3649
▁incessamment	-11.3654
▁rachilde	-11.3654
▁purs	-11.3657
▁gres	-11.3658
▁reu	-11.3661
▁festin	-11.3664
▁groulx	-11.3665
▁instrumens	-11.3665
▁octaue	-11.3665
▁uecut	-11.3666
▁representait	-11.3666
▁naissent	-11.3666
▁mardi	-11.367
▁faure	-11.3673
▁xuiiie	-11.3674
▁rentes	-11.3674
▁agrement	-11.3677
▁catholicisme	-11.3677
▁profonds	-11.3679
ttes	-11.3681
▁feraient	-11.3686
▁auertissement	-11.3687
▁saluer	-11.3689
▁preparait	-11.369
▁tarde	-11.369
▁tombeaux	-11.3693
▁hautement	-11.3695
▁deposer	-11.3695
▁mandat	-11.3698
▁faciliter	-11.3699
▁maximum	-11.3701
▁respiration	-11.3701
▁auenue	-11.3702
▁marne	-11.3704
▁etendait	-11.3707
rois	-11.3708
▁sommaire	-11.3709
▁hesiter	-11.371
▁frisson	-11.3712
▁milord	-11.3712
▁agonie	-11.3712
▁patriarche	-11.3712
▁presqu	-11.3714
▁pleurant	-11.3716
▁gain	-11.3716
▁osa	-11.3717
▁opposes	-11.3717
▁sam	-11.3718
▁aspirations	-11.3719
▁rapportent	-11.3723
▁tran	-11.3723
▁graines	-11.3723
▁speciales	-11.3723
▁dormait	-11.3724
▁cherie	-11.3727
▁honorer	-11.3731
▁repandue	-11.3731
▁foy	-11.3734
▁surueiller	-11.3735
▁saisons	-11.3736
▁lanessan	-11.3736
▁cil	-11.3736
▁plut	-11.3738
▁brillants	-11.3738
▁bayle	-11.3738
▁caluin	-11.3739
▁lieue	-11.374
▁romaines	-11.374
▁uerser	-11.3741
▁ethiopie	-11.3742
▁subsister	-11.3742
▁chimique	-11.3744
▁aimables	-11.3745
▁profondeurs	-11.3746
▁consomme	-11.3746
▁humidite	-11.3748
▁appartenir	-11.3748
▁precedemment	-11.3748
ries	-11.3748
▁han	-11.3753
▁ste	-11.3753
▁cabane	-11.3754
▁rapprochement	-11.3754
▁reunions	-11.3759
▁modification	-11.376
▁grauure	-11.376
▁reduction	-11.376
▁sceau	-11.3764
▁celebrer	-11.3767
▁insiste	-11.377
▁ambassade	-11.377
▁mouuoir	-11.3771
▁nourrice	-11.3773
▁mortelle	-11.3773
▁tir	-11.3773
▁perdent	-11.3777
▁salaires	-11.3777
▁sui	-11.3778
par	-11.3781
▁presentant	-11.3782
▁wallon	-11.3783
▁fauoriser	-11.3784
▁coree	-11.3785
▁treue	-11.3786
▁normale	-11.3787
▁raconta	-11.3787
▁pretendait	-11.3789
▁songez	-11.3791
▁trauaillent	-11.3796
cher	-11.3798
▁paie	-11.3798
▁local	-11.38
▁riz	-11.3806
▁fatalite	-11.3808
▁fees	-11.381
▁soupirs	-11.3816
▁habiter	-11.3818
▁depots	-11.3819
▁toits	-11.3819
▁conducteur	-11.3819
▁rappele	-11.3819
▁effacer	-11.382
▁bureaux	-11.3821
▁recettes	-11.3824
▁tranche	-11.3826
▁ueu	-11.3826
▁shakspeare	-11.3831
▁appuie	-11.3833
▁attentiuement	-11.3833
▁necessites	-11.3852
▁entourent	-11.3854
▁bizarres	-11.3856
▁piege	-11.3857
non	-11.3858
▁iuridiction	-11.3859
▁fiel	-11.3859
▁uulg	-11.386
▁preuenu	-11.386
▁saine	-11.3864
▁preside	-11.3865
▁souuient	-11.3866
▁demission	-11.3866
▁balles	-11.3867
▁prolonger	-11.3867
▁sterile	-11.3867
▁regent	-11.3868
▁grele	-11.3878
▁ea	-11.3882
▁renouueler	-11.3887
▁prisons	-11.3887
▁scribe	-11.3891
▁girardin	-11.3891
▁distances	-11.3891
▁leonard	-11.3892
▁suspendu	-11.3896
▁puni	-11.3898
▁finie	-11.39
▁facade	-11.3901
▁luzel	-11.3903
▁serions	-11.3904
▁tremblante	-11.3906
▁enfonce	-11.3907
▁continu	-11.3909
▁riait	-11.391
▁acteur	-11.391
▁iahue	-11.3914
▁conuenait	-11.3914
▁accoutume	-11.3915
▁bastiat	-11.3915
▁abstraction	-11.3915
▁benediction	-11.392
▁gate	-11.392
▁habitait	-11.3921
▁explosion	-11.3927
▁locales	-11.3928
▁tires	-11.3934
▁parcouru	-11.3937
of	-11.3939
▁crepuscule	-11.394
tra	-11.394
era	-11.3949
▁clemence	-11.395
▁consentir	-11.395
▁decouurit	-11.395
▁interroger	-11.3954
▁grosseur	-11.3957
▁appliquee	-11.396
▁musicale	-11.396
▁paternelle	-11.3961
▁altesse	-11.3963
▁brulant	-11.3969
▁delicieuse	-11.3972
▁ialouse	-11.3973
▁suc	-11.3974
▁inspecteur	-11.3976
▁continuation	-11.3976
▁durete	-11.3977
▁ph	-11.3979
ys	-11.3979
▁dominer	-11.3984
▁leblanc	-11.3984
ges	-11.3986
▁bibliographie	-11.3986
▁parlaient	-11.3987
▁deriue	-11.3989
▁parois	-11.3989
▁sonner	-11.399
uu	-11.3991
▁om	-11.3991
▁allie	-11.3993
▁feroces	-11.3994
▁turin	-11.3994
▁comm	-11.3995
▁confreres	-11.3996
▁refaire	-11.3999
▁reconnue	-11.4
▁frappes	-11.4
▁lazare	-11.4009
▁pluies	-11.4009
▁prenons	-11.4011
▁fertile	-11.4012
▁sonore	-11.4013
▁dixieme	-11.4013
▁matth	-11.4013
ari	-11.4013
▁humbles	-11.4015
▁reuerie	-11.4016
▁iuiue	-11.4016
▁pourrez	-11.4018
▁halte	-11.4019
▁xxuiii	-11.4019
▁cloches	-11.402
ments	-11.4021
▁interuenir	-11.4023
▁eliane	-11.4023
▁detroit	-11.4023
▁sacrifie	-11.4024
▁roues	-11.4024
▁lyrique	-11.4024
▁metallique	-11.4024
▁prompte	-11.4027
▁amsterdam	-11.4035
▁inferieures	-11.4035
ile	-11.4036
▁eclaires	-11.4036
▁soucis	-11.4037
▁placa	-11.4039
▁allees	-11.4039
▁hater	-11.4045
▁seueres	-11.4045
▁tua	-11.4047
las	-11.4048
ol	-11.4054
▁males	-11.4057
ho	-11.4058
▁defenseurs	-11.406
▁nec	-11.4061
▁moule	-11.4061
▁administratif	-11.4061
▁genies	-11.4064
▁manoeuures	-11.4066
mon	-11.4069
ides	-11.407
▁soupconne	-11.4071
▁martineau	-11.4072
▁plafond	-11.4073
▁superstition	-11.4073
▁comparee	-11.4084
▁naif	-11.4087
▁poursuiui	-11.409
▁armand	-11.4091
▁separee	-11.4093
▁sauante	-11.4095
mann	-11.4097
▁bossuet	-11.4097
▁insulte	-11.4097
▁exploits	-11.4099
eurs	-11.4099
▁uocation	-11.411
▁auantageux	-11.411
▁artistique	-11.411
▁accomplie	-11.4112
▁informations	-11.4114
▁chantait	-11.4118
▁tenus	-11.4119
▁soutenue	-11.4119
▁labbe	-11.4119
▁empara	-11.4119
▁dogmes	-11.4119
▁bains	-11.4122
▁legislatiue	-11.4122
▁respectueuse	-11.4123
▁royaumes	-11.4125
▁mentionne	-11.4126
▁sanglots	-11.4126
▁nourri	-11.4129
▁ecritures	-11.4129
▁redouter	-11.413
▁duche	-11.4132
▁prodigieux	-11.4133
▁repugnance	-11.4135
▁alice	-11.4135
▁fermier	-11.4138
▁tirait	-11.4144
▁courtes	-11.4144
▁glaiue	-11.4147
▁noeud	-11.4147
▁descendait	-11.4149
▁onde	-11.415
▁replique	-11.4152
▁croissant	-11.4153
▁defini	-11.4155
▁glorieuse	-11.4156
▁geneuieue	-11.4157
▁cristal	-11.4158
▁goute	-11.4159
ines	-11.4163
ye	-11.4164
▁uenais	-11.4168
▁greues	-11.4178
mus	-11.418
▁prodigieuse	-11.4181
▁auiourdhui	-11.4182
▁perpetuelle	-11.4183
▁eclata	-11.4187
▁distingues	-11.4189
▁reueler	-11.4189
▁plai	-11.4189
▁ouuriere	-11.419
▁rebelles	-11.419
▁arr	-11.4192
▁tambour	-11.4195
▁paralleles	-11.4196
▁auras	-11.4197
▁rappelant	-11.4198
▁sin	-11.4199
▁lits	-11.4199
▁quune	-11.4202
▁multiples	-11.4202
▁trempe	-11.4202
▁aioutant	-11.4202
▁etouffer	-11.4202
▁successiues	-11.4206
▁biioux	-11.4207
▁trauaillait	-11.4208
▁ualets	-11.4209
▁ietee	-11.4215
▁extraits	-11.4217
▁aperceuant	-11.4219
▁apparaissent	-11.4219
▁tournee	-11.4219
▁solennel	-11.422
▁rade	-11.422
▁prairie	-11.4221
▁gaite	-11.4224
▁cerf	-11.4225
▁inutilement	-11.4225
ste	-11.4225
▁repartit	-11.423
▁cui	-11.4231
▁altere	-11.4233
ssant	-11.4235
▁scrupules	-11.4236
▁commencant	-11.4237
▁pele	-11.4237
nne	-11.4238
▁industrielle	-11.4239
▁formees	-11.424
▁seneque	-11.4244
▁contredit	-11.4244
▁garanties	-11.4249
▁suites	-11.4251
▁precedents	-11.4253
▁diplomatie	-11.4257
▁uolontaires	-11.4257
▁ualentine	-11.4259
ani	-11.426
▁promene	-11.4263
▁serif	-11.4268
▁auerti	-11.4268
▁fui	-11.4268
▁anatomie	-11.4269
▁imite	-11.427
▁thibet	-11.427
▁paresse	-11.4271
▁magie	-11.4272
▁cellules	-11.4274
▁aliments	-11.4276
▁derober	-11.4276
▁mercier	-11.4276
pi	-11.4277
▁banquet	-11.4279
▁ranger	-11.428
▁fortunes	-11.4282
▁rite	-11.4284
▁uacances	-11.4286
▁reconnus	-11.4286
▁idole	-11.4287
▁conuentions	-11.4288
▁uisiblement	-11.4288
▁renuoyer	-11.4291
▁plaque	-11.4292
▁abeilles	-11.4292
▁chimiques	-11.4293
▁antonio	-11.4294
▁solennelle	-11.4294
▁unie	-11.4295
▁primaire	-11.4296
▁afflige	-11.4297
▁auise	-11.4298
ach	-11.4299
▁maree	-11.4303
▁heretiques	-11.4304
oi	-11.4305
▁consacree	-11.4306
▁priues	-11.4306
▁alain	-11.4312
cs	-11.4316
▁parisiens	-11.4316
▁beniamin	-11.4318
▁pyrenees	-11.4318
▁tartarie	-11.4318
▁cachait	-11.4321
▁fidelement	-11.4323
▁dabord	-11.4325
▁lange	-11.4328
▁bresil	-11.4329
▁magasins	-11.4329
▁apre	-11.433
▁supposition	-11.4334
▁suiuirent	-11.4337
▁netait	-11.4338
▁pais	-11.4343
▁conuiues	-11.4343
▁labeur	-11.4347
▁iouissances	-11.4352
▁amende	-11.4354
▁systematique	-11.4359
lia	-11.4363
▁pesant	-11.4367
▁disparition	-11.4368
▁canadien	-11.437
▁preoccupations	-11.4371
▁centres	-11.4371
▁negliger	-11.4373
▁saxe	-11.4373
▁tacher	-11.4375
▁concession	-11.4381
▁moque	-11.4383
▁bles	-11.4384
▁tournure	-11.4384
▁saisissant	-11.4388
▁engendre	-11.4388
▁damas	-11.439
▁emplacement	-11.4393
▁situations	-11.4394
▁ser	-11.4396
▁banquier	-11.4397
▁chateaux	-11.4399
▁ist	-11.4399
▁grossiere	-11.44
▁etablies	-11.4402
▁songeant	-11.4402
▁amena	-11.4403
▁say	-11.4404
▁boucher	-11.4404
▁independamment	-11.4406
▁offrant	-11.4406
▁totalite	-11.4408
▁uogue	-11.441
▁magique	-11.4411
▁trans	-11.4416
▁maris	-11.4417
▁propagande	-11.4419
▁seruaient	-11.4419
▁descendants	-11.442
▁iosephe	-11.4424
▁abuse	-11.4425
▁tendu	-11.4425
▁sermon	-11.4425
▁haure	-11.4425
▁changea	-11.4428
▁attendit	-11.4429
▁poincare	-11.4431
▁demeurent	-11.4431
▁soirs	-11.4435
▁implique	-11.4435
▁collin	-11.4436
▁auancee	-11.4438
▁cruels	-11.4438
▁caracterise	-11.4439
▁ueau	-11.4439
▁blancheur	-11.444
▁innocente	-11.444
the	-11.4441
▁leo	-11.4442
▁changemens	-11.4446
▁nauarre	-11.4446
▁iouant	-11.4447
▁persecution	-11.4448
▁massif	-11.4448
▁hardiment	-11.4449
▁demarches	-11.445
▁courrier	-11.4453
▁oser	-11.4455
▁plats	-11.4456
▁interieures	-11.4457
▁domicile	-11.4457
▁edgar	-11.4457
▁crea	-11.4459
▁delphine	-11.4461
▁elance	-11.4461
▁detourne	-11.4463
lon	-11.4465
▁funestes	-11.4466
▁immortalite	-11.4469
▁transition	-11.4473
▁pouruoir	-11.4473
▁iura	-11.448
▁ger	-11.4483
▁rudes	-11.4485
mp	-11.4486
▁angoisses	-11.4486
▁salutaire	-11.4487
▁cultiuer	-11.4488
▁lenteur	-11.4488
rc	-11.449
▁fiers	-11.4491
▁uaches	-11.4491
▁aspects	-11.4491
▁chaste	-11.4492
▁suffisent	-11.4496
▁nouueaute	-11.4496
▁emmanuel	-11.4507
ley	-11.4508
▁finale	-11.4511
▁conseillers	-11.4511
▁gendre	-11.4512
▁deniers	-11.4513
▁episodes	-11.4515
▁hou	-11.4515
▁moult	-11.4518
▁series	-11.4519
▁recouure	-11.4521
▁confessions	-11.4521
▁technique	-11.4523
▁remarqua	-11.4524
▁missiues	-11.4526
▁descendu	-11.4526
▁rappela	-11.4527
▁empresse	-11.4529
iis	-11.4531
ris	-11.4531
▁rendirent	-11.4533
▁iourdain	-11.4534
▁causait	-11.4535
▁profits	-11.4537
▁milliards	-11.4537
▁depouilles	-11.4538
▁uor	-11.4542
▁retournant	-11.4542
▁stupide	-11.4544
▁his	-11.4544
▁ressortir	-11.4545
▁gaston	-11.4546
▁chargea	-11.4546
▁bouches	-11.455
oc	-11.4551
▁lot	-11.4554
▁endormi	-11.4558
▁serenite	-11.4558
▁rosny	-11.4558
▁saisie	-11.4559
▁penibles	-11.456
▁arranger	-11.4572
▁uignes	-11.4577
▁obus	-11.458
▁elementaires	-11.4581
▁download	-11.4584
mar	-11.4584
bo	-11.4585
▁spectateur	-11.4588
▁failli	-11.459
▁lies	-11.4592
▁bouillon	-11.4594
▁pois	-11.4596
▁cercueil	-11.4601
▁rustique	-11.4601
▁idem	-11.4603
▁percer	-11.4605
▁montee	-11.4607
▁resterent	-11.4607
▁renferment	-11.4608
▁inconueniens	-11.461
▁we	-11.4612
▁espaces	-11.4613
▁argile	-11.4614
▁carres	-11.4614
▁immediat	-11.4615
▁frein	-11.4615
▁galeries	-11.4617
▁hans	-11.4619
lles	-11.462
▁abolition	-11.4623
▁rameaux	-11.4623
▁periodes	-11.4624
▁pretendue	-11.4625
▁marcha	-11.4626
▁magnificence	-11.4627
▁sections	-11.4628
▁rebelle	-11.4635
▁rei	-11.4636
▁maintes	-11.4637
▁fonctionnement	-11.4637
▁boule	-11.4638
▁detacher	-11.4638
▁reguliers	-11.4639
▁complexe	-11.4641
▁deserts	-11.4641
▁publiees	-11.4646
▁gendarmes	-11.4646
▁epargner	-11.4647
▁abandonna	-11.4648
▁acheua	-11.465
▁pointes	-11.4652
▁teintes	-11.4654
▁accordee	-11.4654
▁lagrange	-11.4658
▁eius	-11.4661
▁louange	-11.4662
▁benoit	-11.4664
▁participe	-11.4667
▁feminine	-11.4671
▁mobiles	-11.4675
▁marteau	-11.4676
▁garni	-11.4677
▁laue	-11.4677
▁implacable	-11.4679
▁rentree	-11.4687
▁gibier	-11.4687
▁insensiblement	-11.4692
▁extase	-11.4692
▁sion	-11.4693
▁totalement	-11.4694
▁permettra	-11.4697
▁seriez	-11.4702
▁molecules	-11.4702
▁dr	-11.4703
▁phases	-11.4707
▁batie	-11.4709
▁tetu	-11.471
▁intelligente	-11.4713
▁iouent	-11.4713
▁equite	-11.4714
▁uilain	-11.4718
▁ele	-11.4718
▁diocese	-11.4718
▁meditation	-11.4718
▁episode	-11.4718
▁manufactures	-11.4721
▁rythme	-11.4722
▁fraternite	-11.4726
▁reuiennent	-11.4727
▁exquis	-11.4728
ata	-11.4729
▁ita	-11.473
ssaient	-11.473
▁diligence	-11.4731
▁sollicitude	-11.4731
▁punition	-11.4732
▁donnerai	-11.4732
▁uariees	-11.4734
cou	-11.4734
▁confond	-11.4736
▁eloignement	-11.474
▁nommait	-11.4741
sen	-11.4741
nu	-11.4741
▁pies	-11.4743
▁adu	-11.4744
▁gothique	-11.4744
▁artifice	-11.4745
▁auditeurs	-11.4745
eu	-11.4748
▁decor	-11.4749
▁plaira	-11.475
▁fontainebleau	-11.4752
▁origene	-11.4752
▁dorante	-11.4753
▁feroce	-11.4754
▁gueri	-11.4757
▁prouerbe	-11.4758
▁administratiue	-11.4758
▁prelat	-11.4759
▁ualu	-11.4764
▁houssiaux	-11.4765
▁uillars	-11.4766
▁app	-11.4766
▁poe	-11.4766
▁encourager	-11.4767
▁profil	-11.4768
▁andrea	-11.477
▁contradictions	-11.4772
▁crop	-11.4774
▁muni	-11.4774
ang	-11.4775
▁multiplie	-11.4775
▁peser	-11.4776
▁prieur	-11.4776
▁pinceau	-11.4778
▁exaltation	-11.4779
▁fecondite	-11.4779
▁appuyant	-11.4781
▁decisiue	-11.4784
▁fauorise	-11.4784
▁pardonnez	-11.4786
▁maconnerie	-11.4792
▁battait	-11.4792
▁lise	-11.4794
▁locale	-11.4795
▁costumes	-11.4796
▁entendue	-11.4797
▁lemaitre	-11.4805
▁conduisait	-11.4805
tat	-11.4807
ita	-11.4807
▁hu	-11.4808
▁salua	-11.4809
▁affirmation	-11.481
▁imprudence	-11.481
▁anxiete	-11.481
▁entretiens	-11.4817
▁coude	-11.4818
cl	-11.4821
▁discute	-11.4823
▁courbes	-11.4823
▁imbecile	-11.4823
▁geographique	-11.4823
▁organiques	-11.4825
▁ag	-11.4829
▁editeurs	-11.483
▁priori	-11.4831
▁aliment	-11.4835
▁entreuoir	-11.4835
ster	-11.4836
▁continuant	-11.4837
bus	-11.4837
▁rolland	-11.4844
▁satin	-11.4844
ber	-11.4846
▁lointaine	-11.4848
▁responsable	-11.485
gen	-11.485
▁essaie	-11.485
▁personnellement	-11.4854
▁descente	-11.4856
▁direz	-11.4857
▁speciaux	-11.4857
▁cadet	-11.4858
▁suffirait	-11.4859
▁rad	-11.486
▁moisson	-11.4862
▁dupe	-11.4862
▁durs	-11.4865
▁taxe	-11.4868
▁fondamentale	-11.4871
▁cooperation	-11.4871
▁appelant	-11.4871
▁leconte	-11.4871
▁legitimes	-11.4882
▁habilement	-11.4883
▁comprennent	-11.4898
▁deuenues	-11.4898
▁sun	-11.4899
▁entrerent	-11.49
▁commencee	-11.4901
▁lyre	-11.4903
▁uertes	-11.4903
▁hymne	-11.4905
▁paire	-11.4909
▁insister	-11.491
▁reuiens	-11.491
▁promettre	-11.491
▁redige	-11.4913
▁gigantesque	-11.4916
▁pelerinage	-11.4916
▁guerison	-11.4917
▁bouquets	-11.4918
▁atomes	-11.4919
▁grecques	-11.4919
▁cheri	-11.4922
▁miens	-11.4925
▁aboutir	-11.4927
▁metz	-11.4928
▁austere	-11.493
ran	-11.4931
▁seigneurie	-11.4931
▁secretement	-11.4933
▁caches	-11.4933
▁uerlaine	-11.4937
▁commandait	-11.4938
▁diamants	-11.4939
▁eq	-11.4943
▁organique	-11.4943
▁aix	-11.4944
▁obliger	-11.4945
▁arles	-11.4949
▁ic	-11.4954
▁ceruelle	-11.4956
▁complice	-11.4956
▁famine	-11.4957
▁emilie	-11.4962
▁syn	-11.4962
▁approchait	-11.4968
▁prop	-11.4969
▁uolcan	-11.4973
▁singe	-11.4975
▁lances	-11.4976
▁ren	-11.4976
▁trinite	-11.4977
▁figaro	-11.4977
▁craignez	-11.4977
▁orateurs	-11.4977
▁inspirait	-11.4977
▁ecoule	-11.498
▁rac	-11.498
▁malin	-11.4981
▁carauane	-11.4983
▁phase	-11.4984
▁patriotes	-11.4984
▁ecuyer	-11.4986
▁enfuit	-11.4989
▁ronsard	-11.499
▁rhone	-11.499
▁distraire	-11.499
▁sables	-11.4991
▁fournissent	-11.4991
▁accomplit	-11.4992
▁eleuant	-11.4997
▁lointains	-11.4998
▁consentit	-11.5001
▁septentrionale	-11.5001
▁rr	-11.5001
▁idoles	-11.5002
▁seuerement	-11.5004
▁adorer	-11.5006
▁accidents	-11.5007
▁amere	-11.5011
▁bloc	-11.5013
▁preseruer	-11.5016
▁estant	-11.5017
▁renaud	-11.5018
▁connut	-11.5018
min	-11.5023
▁charmantes	-11.5023
lot	-11.5027
▁arretait	-11.503
▁disputer	-11.5034
▁trauersant	-11.5035
▁fantastique	-11.5037
▁repartition	-11.5038
▁ioui	-11.504
▁faust	-11.5044
▁ensuit	-11.5044
▁touchante	-11.5045
▁line	-11.5047
▁rouler	-11.5047
▁folies	-11.5048
▁puissantes	-11.5049
▁ban	-11.5049
▁uiendrait	-11.5049
▁attraction	-11.505
▁primitiues	-11.5052
▁honnetete	-11.5054
▁athos	-11.5056
▁solidarite	-11.5057
▁meles	-11.5058
▁uerifier	-11.5058
▁foire	-11.5059
▁supporte	-11.5063
▁molle	-11.5064
▁anarchiste	-11.5064
▁figuier	-11.5067
▁plaies	-11.5068
▁adieux	-11.5074
▁caisses	-11.508
▁amateurs	-11.5081
aires	-11.5084
▁fiance	-11.5085
▁profane	-11.5086
▁har	-11.5088
▁serrant	-11.5088
▁barbier	-11.5092
▁appelaient	-11.5092
▁lambert	-11.5093
▁indispensables	-11.5093
▁plancher	-11.5094
▁confuse	-11.5094
▁sorbonne	-11.5097
▁candidats	-11.5099
▁pussent	-11.5099
▁pile	-11.51
▁clerc	-11.5104
▁equiuoque	-11.5104
▁melodie	-11.5105
▁ordonnances	-11.511
▁taureau	-11.511
▁loger	-11.5111
▁galland	-11.5111
▁incapables	-11.5112
▁sexes	-11.5112
▁iettent	-11.5113
▁adorable	-11.5115
▁insense	-11.5126
▁corse	-11.5126
▁attendais	-11.5127
▁roles	-11.5127
▁couurait	-11.5128
▁tirent	-11.5128
▁mortes	-11.5129
▁encens	-11.5131
▁concue	-11.5133
▁alarme	-11.5133
▁trahir	-11.514
▁trauersa	-11.5141
ud	-11.5142
▁tracer	-11.5142
▁ueine	-11.5144
▁remuer	-11.5145
▁hostile	-11.5146
▁habitues	-11.5146
▁lourds	-11.515
▁uegetale	-11.5152
ures	-11.5153
gi	-11.5155
▁perfide	-11.5155
▁attributs	-11.5156
▁abat	-11.5156
▁souple	-11.5159
▁definitif	-11.5159
▁sentiers	-11.5162
▁xl	-11.5163
▁opposees	-11.5163
▁grotte	-11.5164
▁chrysostome	-11.5165
▁cailloux	-11.5165
▁aueuglement	-11.5166
▁moraux	-11.5166
▁uoulurent	-11.5168
▁delegues	-11.5168
▁categories	-11.5168
ub	-11.5169
▁auare	-11.5173
▁probabilite	-11.5174
▁chou	-11.5174
▁saisis	-11.5174
▁manifester	-11.5177
▁separent	-11.5178
▁heroisme	-11.5179
▁theologien	-11.5181
▁etois	-11.5183
▁fusion	-11.5185
▁cahier	-11.5187
▁barons	-11.519
▁secourir	-11.5192
▁exprimait	-11.5193
▁adressait	-11.5195
▁criminelle	-11.5197
▁sanglante	-11.5197
▁naiuete	-11.5199
▁financier	-11.52
▁parisien	-11.5201
gue	-11.5202
▁ornements	-11.5204
▁intelligences	-11.5206
▁accueilli	-11.5206
▁apprenant	-11.5206
▁deuront	-11.5207
▁icy	-11.5208
ule	-11.5211
▁tournait	-11.5213
▁ondes	-11.5216
▁bauiere	-11.522
▁uiuaient	-11.522
▁lourdes	-11.5221
▁suiuaient	-11.5221
▁pleurait	-11.5222
▁emporta	-11.5222
▁legumes	-11.5224
▁etendues	-11.5225
▁pourriez	-11.5226
▁resolue	-11.5227
▁assassinat	-11.5233
▁martyrs	-11.5234
ow	-11.5235
fort	-11.5236
▁chaos	-11.5238
▁cloitre	-11.5241
▁intense	-11.5241
▁serres	-11.5243
▁boit	-11.5243
▁cantons	-11.5246
▁applications	-11.5247
▁presidence	-11.5247
▁plaisant	-11.5249
▁rigoureusement	-11.525
▁delicats	-11.5253
▁tiges	-11.5253
▁meurs	-11.5255
▁uariable	-11.5255
▁catechisme	-11.5255
▁angelique	-11.5255
▁indication	-11.5255
▁puy	-11.5255
▁bill	-11.5256
▁haines	-11.5259
▁laisses	-11.5261
▁xxuii	-11.5265
▁nau	-11.5266
▁tdm	-11.5267
▁perdait	-11.5267
ade	-11.5268
▁indigene	-11.5269
▁uiolences	-11.5271
▁composa	-11.5272
▁proposait	-11.5272
▁remet	-11.5276
▁empechait	-11.5276
▁mad	-11.528
▁ten	-11.528
▁dirons	-11.5281
▁uains	-11.5284
▁tremblement	-11.5287
▁orig	-11.5289
▁habituellement	-11.5293
▁pratiquer	-11.5293
▁demoiselles	-11.5294
▁dragon	-11.5294
▁apologie	-11.5297
▁fabriques	-11.5297
▁eust	-11.5297
▁lueurs	-11.5299
▁caluaire	-11.5302
▁riuaux	-11.5302
▁rozier	-11.5302
▁interne	-11.5304
▁soufre	-11.5306
by	-11.5308
▁anuers	-11.5311
▁dissertation	-11.5312
▁froment	-11.5316
▁laure	-11.5318
▁euite	-11.5319
▁sympathies	-11.5322
▁radical	-11.5323
▁mach	-11.5323
▁romantique	-11.5325
▁allemandes	-11.5326
▁alger	-11.5329
▁tyrans	-11.5331
dit	-11.5332
▁reciproque	-11.5334
▁troublee	-11.5335
▁claires	-11.5336
▁defi	-11.534
▁pourrons	-11.534
uni	-11.5341
▁ode	-11.5341
▁protestant	-11.5342
▁fortifier	-11.5343
▁efficacite	-11.5343
▁ainee	-11.5347
▁reciproquement	-11.5347
▁songea	-11.5347
ak	-11.5348
▁insupportable	-11.5352
▁exquise	-11.5358
▁solidement	-11.5359
▁capitaines	-11.536
▁menacant	-11.5361
▁silencieuse	-11.5362
▁uetus	-11.5363
▁ameliorer	-11.5371
▁eloigna	-11.5371
▁tourbillon	-11.5373
▁samuel	-11.5373
▁courageux	-11.5376
▁protestants	-11.5377
▁sceptre	-11.538
▁berthe	-11.5383
▁mepriser	-11.5383
▁climats	-11.5383
▁intermediaires	-11.5384
▁bestiaux	-11.5385
▁tolerance	-11.5385
▁legale	-11.5389
▁suffira	-11.5389
▁amelioration	-11.5394
▁psychologique	-11.5394
▁obscurs	-11.5394
▁sculpteur	-11.5394
▁ruisseaux	-11.54
▁toy	-11.5401
▁indiquee	-11.5402
▁gagna	-11.5404
▁paien	-11.5408
▁auroient	-11.5408
▁fonte	-11.541
▁paleontologie	-11.5413
▁hippolyte	-11.5413
▁taine	-11.5415
▁habitations	-11.5417
▁daigne	-11.5418
▁lointaines	-11.5419
▁experimentale	-11.5419
▁enuoi	-11.5424
▁franco	-11.5426
tas	-11.543
▁heur	-11.5431
▁cur	-11.5431
▁terrestres	-11.5434
▁echanges	-11.5435
▁obseruatoire	-11.5436
▁desordres	-11.5437
▁dissiper	-11.5438
▁fac	-11.5438
▁froissart	-11.5441
▁laurence	-11.5441
▁min	-11.5442
▁normant	-11.5442
▁lauer	-11.5449
▁decoration	-11.545
▁pairs	-11.545
▁lys	-11.5453
▁reside	-11.5454
▁newton	-11.5454
▁audacieux	-11.5455
▁iustification	-11.5455
▁prouient	-11.5456
▁desastre	-11.5457
▁mutuellement	-11.5458
▁concitoyens	-11.5458
▁quid	-11.546
▁enuoyait	-11.5462
▁nocturne	-11.5464
asse	-11.5464
▁oubliez	-11.5465
▁connaissaient	-11.5469
▁iolis	-11.547
▁expressement	-11.547
▁confirmer	-11.5471
▁humides	-11.5472
▁meurtrier	-11.5472
▁carton	-11.5472
▁noter	-11.5473
▁inuentions	-11.5474
▁eft	-11.5475
▁composees	-11.5475
▁missions	-11.5476
▁franchi	-11.5477
▁pantalon	-11.5478
▁imaginaires	-11.548
▁macedoine	-11.5483
▁haie	-11.5484
▁ecoutant	-11.5485
▁nomma	-11.5488
ologie	-11.549
▁inedits	-11.5491
▁diplomatique	-11.5492
▁europeennes	-11.5493
▁contemple	-11.5494
rn	-11.5494
▁froideur	-11.5496
▁agitee	-11.5497
▁confidences	-11.5497
▁regularite	-11.5497
▁emancipation	-11.5497
▁uaguement	-11.5497
▁instruits	-11.5498
▁bonsoir	-11.5499
▁distinguent	-11.5501
▁penetrant	-11.5505
▁laplace	-11.5506
▁ongles	-11.5508
▁traiet	-11.5512
▁excellents	-11.5512
▁cesarine	-11.5513
▁auersion	-11.5515
▁exercent	-11.5515
▁fusils	-11.5518
▁phare	-11.5519
▁oriental	-11.5522
▁tost	-11.5523
ches	-11.5528
▁adoptee	-11.5529
▁etages	-11.5531
▁separees	-11.5532
▁adoration	-11.5535
▁dependent	-11.5535
▁leau	-11.5536
▁fanatisme	-11.5539
▁apud	-11.554
▁timbre	-11.554
▁gueux	-11.554
▁session	-11.5544
▁fosses	-11.5544
▁eclairs	-11.5544
▁irait	-11.5548
▁sympathique	-11.5549
▁geologique	-11.5549
▁lesprit	-11.5549
▁tranquilles	-11.5553
▁corrections	-11.5556
▁combattu	-11.5559
▁ees	-11.5559
▁eminent	-11.5559
▁sonnet	-11.5563
▁reels	-11.5569
▁alexis	-11.5569
▁changeant	-11.5569
▁auide	-11.557
ain	-11.557
▁rappellent	-11.5573
▁interessantes	-11.5575
▁refusait	-11.5575
▁butin	-11.5575
▁abuser	-11.5578
▁loges	-11.5579
▁nationalite	-11.5579
▁appuyee	-11.558
▁hierarchie	-11.5582
▁fantomes	-11.5583
▁abaisse	-11.5583
▁susceptibles	-11.5584
▁genou	-11.559
▁consenti	-11.5593
▁mercredi	-11.5596
▁lebrun	-11.5597
▁uingtaine	-11.5599
▁uerbal	-11.5601
▁draps	-11.5602
▁clocher	-11.5602
▁francis	-11.5604
▁spectacles	-11.5605
▁courts	-11.5607
▁retient	-11.5611
▁pluriel	-11.5613
▁serrer	-11.5615
▁citadelle	-11.562
▁tube	-11.5623
▁temeraire	-11.5631
▁baronne	-11.5631
▁remparts	-11.5633
▁gaillard	-11.5636
▁materiels	-11.5636
▁souriait	-11.5639
▁liberale	-11.5642
▁lanca	-11.5645
▁mentir	-11.5646
toit	-11.5646
▁gardez	-11.5647
▁ascension	-11.5648
▁primitifs	-11.5648
▁collectif	-11.5649
▁noeuds	-11.565
▁remue	-11.5652
▁aire	-11.5652
▁ecriuant	-11.5653
▁redoutables	-11.5653
▁amelie	-11.5657
▁trahi	-11.5657
▁heroiques	-11.5658
▁bac	-11.5658
▁encre	-11.566
▁fonce	-11.5666
▁mardrus	-11.5667
▁souffrait	-11.5667
▁connaissant	-11.5667
▁froids	-11.5671
ane	-11.5672
▁solde	-11.5673
▁menard	-11.5674
▁appelons	-11.5674
▁hardie	-11.5675
bre	-11.5678
▁king	-11.5681
▁reprenant	-11.5681
tr	-11.5683
▁bruno	-11.5684
fer	-11.5686
▁rez	-11.5688
yn	-11.5688
▁perit	-11.5689
▁airain	-11.5691
▁compensation	-11.5692
▁uerrait	-11.5694
▁remedier	-11.5696
▁geologie	-11.5696
▁diuisee	-11.5697
▁dessine	-11.5699
▁coniure	-11.5699
▁uen	-11.5709
▁google	-11.571
▁falloit	-11.571
▁ingrat	-11.5712
▁ire	-11.5713
▁ecu	-11.5715
▁uingts	-11.5715
▁paleur	-11.5716
▁ennuis	-11.5716
▁iesuite	-11.5719
▁exageration	-11.572
▁imposant	-11.5721
met	-11.5729
▁arriuaient	-11.573
atur	-11.5733
▁passera	-11.5734
▁intuition	-11.5735
▁cal	-11.5738
▁emprunter	-11.574
▁consulat	-11.574
▁effrayant	-11.5745
▁monstres	-11.5748
▁etendit	-11.5748
▁buisson	-11.5749
▁consuelo	-11.5753
▁botanique	-11.5753
▁folles	-11.5755
▁gardent	-11.5759
oir	-11.576
▁cyr	-11.5762
▁encourage	-11.5763
▁ecurie	-11.5764
▁connaissais	-11.5767
▁auditoire	-11.5768
▁reflets	-11.5768
▁derobe	-11.577
▁retomber	-11.577
▁deueloppee	-11.5771
▁clouis	-11.5772
▁inuisibles	-11.5773
▁gent	-11.5773
▁allures	-11.5773
▁ement	-11.5774
▁centimetres	-11.5775
▁pillage	-11.5776
▁boucles	-11.5777
▁succedent	-11.5777
▁xxix	-11.5777
issent	-11.5779
▁cachet	-11.5781
▁scipion	-11.5782
▁lions	-11.5782
▁uoire	-11.5783
▁engagee	-11.5785
▁passons	-11.5785
▁conuertir	-11.5787
▁logement	-11.579
▁iures	-11.5796
▁mettaient	-11.5797
▁fleau	-11.5797
▁informer	-11.5799
▁eg	-11.5801
▁laide	-11.5802
▁acquitter	-11.5803
▁addition	-11.5804
▁promets	-11.5806
▁cruelles	-11.5807
▁negligence	-11.5808
▁ouide	-11.5809
▁uestibule	-11.5811
▁repondirent	-11.5811
▁ascendant	-11.5811
▁raymond	-11.5814
▁fondees	-11.5816
▁presser	-11.5816
▁ouurent	-11.5817
▁iugez	-11.5817
▁diete	-11.5818
▁tais	-11.582
▁feuillet	-11.5821
▁accordent	-11.5822
▁echafaud	-11.5822
▁synthese	-11.5822
▁senateur	-11.5823
▁assassine	-11.5823
▁tues	-11.5824
▁diuins	-11.5825
▁uocabulaire	-11.5825
mu	-11.5828
▁dome	-11.5832
▁utilise	-11.5834
▁meuble	-11.5834
ok	-11.5839
▁gueule	-11.584
▁preciser	-11.584
▁contentement	-11.584
▁suspect	-11.584
▁touchait	-11.5842
▁aboutit	-11.5843
▁couuertures	-11.5845
▁rappel	-11.5845
▁etendent	-11.5847
▁decidee	-11.5848
▁isoles	-11.5851
▁ft	-11.5854
▁risquer	-11.5854
▁aimerais	-11.5855
▁representans	-11.5855
▁courroux	-11.5855
▁decharge	-11.5855
▁mechante	-11.5857
▁indo	-11.5858
▁dirigee	-11.5859
▁exposee	-11.586
▁inuoque	-11.586
▁serge	-11.5861
▁brume	-11.5864
so	-11.5864
tn	-11.5865
▁egoiste	-11.5866
▁breche	-11.5869
▁riuages	-11.5869
▁auarice	-11.5869
▁oppression	-11.587
▁connoissance	-11.5881
▁supplices	-11.5882
▁separement	-11.5883
▁kilom	-11.5885
▁paiement	-11.5885
▁muses	-11.5885
▁dangereuses	-11.5885
▁epris	-11.5885
ham	-11.589
▁nef	-11.589
▁alteration	-11.5895
▁pontife	-11.5896
▁documens	-11.5898
▁milieux	-11.5899
▁celt	-11.59
▁montres	-11.5901
▁ios	-11.5902
▁lampes	-11.5902
▁abominable	-11.5906
▁tch	-11.5906
▁cime	-11.5907
▁bretons	-11.5909
ura	-11.5909
▁hom	-11.591
▁ptolemee	-11.591
▁pressant	-11.591
▁croissante	-11.5912
▁passagers	-11.5912
▁semence	-11.5913
▁exercee	-11.5914
▁charte	-11.5916
▁associes	-11.5919
▁comtes	-11.5921
ces	-11.5921
▁marchent	-11.5924
▁australie	-11.5924
▁monotone	-11.5925
▁diables	-11.5925
▁caroline	-11.5925
▁aioutez	-11.5926
▁suspendue	-11.5927
▁habille	-11.5928
▁composait	-11.5929
▁suicide	-11.593
▁gages	-11.593
▁enterre	-11.5931
▁pacte	-11.5931
▁impreuu	-11.5935
▁perron	-11.5937
▁ecraser	-11.5939
▁recommandation	-11.594
▁naturaliste	-11.594
▁pistolet	-11.594
▁omnibus	-11.5942
▁souplesse	-11.5944
▁mecontentement	-11.5944
tti	-11.5945
▁paruenus	-11.5946
▁touches	-11.5949
▁equiualent	-11.5949
▁rentrant	-11.5953
▁uulgaires	-11.5953
▁sottise	-11.5954
▁romanesque	-11.5955
▁ego	-11.5955
▁guides	-11.5956
▁modere	-11.5956
▁deuise	-11.5957
▁popularite	-11.5957
▁fromage	-11.5958
▁diuorce	-11.5959
▁compliment	-11.5961
▁hommages	-11.5963
▁soc	-11.5967
▁spectre	-11.5969
▁pins	-11.597
▁uenge	-11.5971
▁stupeur	-11.5972
▁directeurs	-11.5973
▁epars	-11.5973
▁preferer	-11.5973
pin	-11.5976
▁deteste	-11.5976
▁personnels	-11.5977
▁imprimee	-11.5979
▁photographie	-11.598
▁atteste	-11.598
▁proclamer	-11.5984
▁byron	-11.5987
▁essentiels	-11.5988
▁messie	-11.599
▁amy	-11.5993
▁uoyager	-11.5993
▁aigu	-11.5998
onstitutionnelle	-11.5998
▁nicole	-11.6
▁perdues	-11.6001
▁ornee	-11.6001
▁detachement	-11.6004
erie	-11.6007
▁my	-11.6007
▁soumises	-11.6009
▁sublimes	-11.601
▁normand	-11.6011
▁gra	-11.6011
▁auancant	-11.6014
▁monnaies	-11.6016
▁range	-11.6019
▁proches	-11.6021
▁lugubre	-11.6025
▁iury	-11.6027
▁lacroix	-11.6031
nc	-11.6031
▁condorcet	-11.6031
▁loyaute	-11.6031
▁deluge	-11.6031
▁tousiours	-11.6032
▁rougit	-11.6033
▁dunbar	-11.6034
▁uoutes	-11.6035
▁cherchez	-11.6036
▁portees	-11.604
▁conter	-11.6041
▁procession	-11.6043
▁romancier	-11.6043
▁directions	-11.6044
eg	-11.6044
▁neron	-11.6046
▁malherbe	-11.6046
▁poule	-11.6047
▁fracas	-11.6047
▁rassemble	-11.6048
▁associer	-11.6051
▁cyrus	-11.6051
▁financiere	-11.6052
▁seroient	-11.6055
▁commanda	-11.6056
▁echoue	-11.6059
▁manqua	-11.6059
▁supplement	-11.606
▁flambeau	-11.606
▁ambassadeurs	-11.6062
▁mare	-11.6062
▁substitue	-11.6062
▁expriment	-11.6066
▁conseruent	-11.6072
▁conseruateur	-11.6073
▁perseuerance	-11.6075
ki	-11.6078
▁ribot	-11.6078
▁cures	-11.6081
▁tendait	-11.6081
▁dispense	-11.6081
▁emmener	-11.6083
▁rigoureuse	-11.6085
▁broche	-11.6088
▁ueste	-11.6089
▁gazon	-11.6091
▁commencaient	-11.6095
▁uniuersites	-11.6095
▁denomination	-11.6097
▁accomplis	-11.6098
▁hata	-11.6098
▁granit	-11.6102
▁lart	-11.6102
▁premierement	-11.6103
▁charrue	-11.6103
▁marchandise	-11.6103
▁confesseur	-11.6104
▁reconnaissait	-11.6105
ate	-11.6112
▁aumone	-11.6112
▁diuinites	-11.6112
ieu	-11.6115
▁rassurer	-11.6116
▁tim	-11.6116
▁seu	-11.6117
▁fraction	-11.6117
▁mistress	-11.612
▁menacait	-11.6121
▁agissent	-11.6123
▁max	-11.6125
▁huc	-11.6126
▁isaie	-11.6127
▁trainer	-11.6131
▁poches	-11.6133
▁trafic	-11.6135
▁rigoureux	-11.6135
▁orgueilleux	-11.6135
▁muller	-11.6136
▁francfort	-11.6136
▁eternelles	-11.6136
▁occupaient	-11.6136
▁forge	-11.6137
▁diuiser	-11.6139
▁leu	-11.614
▁iugea	-11.614
▁enrichir	-11.6142
▁descendent	-11.6144
tou	-11.6146
▁precher	-11.6147
▁gouffre	-11.6148
▁ombrage	-11.6149
▁elanca	-11.615
▁chan	-11.6151
▁mettra	-11.6151
▁fantaisies	-11.6152
▁preparee	-11.6153
▁poils	-11.6157
▁ec	-11.6158
▁requete	-11.6163
▁laquais	-11.6165
▁timidite	-11.6165
▁probite	-11.6165
▁uerbes	-11.6166
▁impie	-11.6167
lli	-11.617
▁passionnee	-11.6171
▁porteur	-11.6172
▁reelles	-11.6172
▁curieuses	-11.6174
▁excellentes	-11.6177
▁enuironne	-11.6177
▁reiette	-11.6177
fl	-11.6179
▁preiudice	-11.618
▁ietes	-11.6182
▁ledit	-11.6182
▁medicis	-11.6186
▁centimes	-11.6187
▁liura	-11.6189
▁rassembler	-11.6191
▁accords	-11.6193
▁acheuee	-11.6194
▁integrale	-11.6194
▁aniou	-11.6197
▁brisee	-11.6198
lio	-11.6199
▁cahiers	-11.6202
▁appareils	-11.6202
dis	-11.6203
▁reclus	-11.6207
▁appendice	-11.6209
lan	-11.6209
▁debuts	-11.6212
▁presses	-11.6212
▁ance	-11.6214
ira	-11.6216
▁creme	-11.6223
▁lachete	-11.6225
▁apparaissait	-11.6225
▁solaire	-11.6226
▁regence	-11.6226
▁musical	-11.6226
▁sieges	-11.6228
eux	-11.6228
▁grandeurs	-11.6228
▁xxxi	-11.6228
▁compliments	-11.6228
▁international	-11.623
▁perfectionne	-11.6233
▁emprunts	-11.6234
▁superbes	-11.6236
▁blesser	-11.6237
▁sociaux	-11.6241
▁irlandais	-11.6243
▁uaries	-11.6246
▁detour	-11.6247
▁sales	-11.6253
nm	-11.6254
▁rotation	-11.6255
▁gazette	-11.6255
▁cuirasse	-11.6256
▁soigner	-11.6256
▁paruient	-11.6256
▁monstrueux	-11.6256
▁hilaire	-11.6256
▁candidat	-11.6259
▁fontaines	-11.6261
▁ecriai	-11.6262
▁fassent	-11.6262
▁uoulus	-11.6264
▁termina	-11.6265
▁tragedies	-11.6266
▁recommence	-11.6267
▁porc	-11.6271
▁boileau	-11.6271
nant	-11.6275
▁subite	-11.6282
▁liege	-11.6282
tions	-11.6284
▁attira	-11.6284
▁inclination	-11.6286
▁uerhaeren	-11.6286
▁panier	-11.6287
▁epi	-11.6288
▁aspire	-11.6288
tam	-11.6289
▁arretant	-11.629
▁pet	-11.6292
▁pentes	-11.6293
▁seduit	-11.6295
▁touchent	-11.6296
▁apaiser	-11.6297
▁couru	-11.63
▁adultere	-11.6302
▁kou	-11.6302
nus	-11.6302
ip	-11.6302
▁recues	-11.6303
▁ferry	-11.6305
▁montent	-11.6305
ara	-11.6312
▁estimer	-11.6314
▁oratoire	-11.6316
▁inuites	-11.6316
▁chasses	-11.6319
▁animee	-11.632
▁fabre	-11.6321
▁echos	-11.6321
▁ieurs	-11.6322
▁exalte	-11.6323
▁cordon	-11.6325
▁repondant	-11.6325
▁montes	-11.6325
▁territoires	-11.6326
▁hereditaire	-11.6327
▁interruption	-11.6331
▁matelot	-11.6331
bu	-11.6332
▁gibbon	-11.6332
▁uiuantes	-11.6333
▁considerait	-11.6333
▁proposee	-11.6334
▁clairs	-11.634
▁boutons	-11.6342
▁presentee	-11.6344
▁dialogues	-11.6344
▁eprouua	-11.6346
▁frappee	-11.6346
▁repetition	-11.6346
▁unies	-11.6346
▁adoption	-11.6347
▁mazarin	-11.635
▁racontait	-11.6351
▁transparent	-11.6357
▁natures	-11.6361
▁licence	-11.6362
▁maturite	-11.6362
▁chamfort	-11.6363
▁secoue	-11.6363
▁publications	-11.6366
▁final	-11.6367
▁reprimer	-11.637
▁etiam	-11.6371
▁auf	-11.6371
▁reseruee	-11.6373
▁doree	-11.6376
▁gand	-11.6377
▁forcement	-11.638
▁coste	-11.6381
enne	-11.6382
▁sinceres	-11.6384
▁grandement	-11.639
▁portier	-11.6392
▁beethouen	-11.6393
▁littoral	-11.6393
▁seduire	-11.6393
▁fau	-11.6398
▁essayait	-11.6398
▁rosette	-11.6407
▁courtisans	-11.6408
▁contribution	-11.6408
▁glenaruan	-11.6409
▁graisse	-11.6409
▁noce	-11.6411
▁horribles	-11.6411
ables	-11.6413
▁chaudes	-11.6413
▁ferma	-11.6415
▁superflu	-11.6423
▁distraction	-11.6423
▁adolphe	-11.6424
▁mythologie	-11.6424
▁doubles	-11.6425
▁conduisent	-11.6425
▁conserues	-11.6427
▁uise	-11.6427
▁ladite	-11.6431
▁plaisanteries	-11.6432
▁lectures	-11.6432
▁colombe	-11.6435
▁metropole	-11.6439
▁pouuions	-11.6439
om	-11.6442
line	-11.6443
▁tirees	-11.6447
▁auocats	-11.6448
▁crayon	-11.6448
▁platre	-11.645
▁hon	-11.6451
▁tourment	-11.6452
▁hum	-11.6452
▁inuenter	-11.6453
▁carrosse	-11.6455
▁candeur	-11.6455
▁leuait	-11.6456
▁croises	-11.6458
▁royales	-11.6458
▁auxiliaires	-11.6461
▁actuels	-11.6461
▁bienfait	-11.6461
▁bour	-11.6461
▁parrain	-11.6463
▁hair	-11.6466
▁defunt	-11.6467
▁uanter	-11.6467
▁electeur	-11.647
▁munitions	-11.6474
▁eloignees	-11.6474
▁heritiers	-11.6479
▁notables	-11.6481
▁dures	-11.6482
▁penses	-11.6483
▁egyptien	-11.6484
▁mette	-11.6484
▁exportation	-11.6485
▁calcaires	-11.6486
▁tien	-11.6489
op	-11.6489
▁sest	-11.649
▁enfermer	-11.6491
▁chenes	-11.6492
▁creanciers	-11.6492
▁trompes	-11.6496
▁sum	-11.6499
▁estoient	-11.6499
▁hic	-11.65
▁elephant	-11.6501
▁triangle	-11.6501
▁brochure	-11.6501
▁sauantes	-11.6501
▁stratigraphique	-11.6501
▁hypocrisie	-11.6501
▁swann	-11.6501
▁contenta	-11.6503
▁bond	-11.6504
ales	-11.6504
▁transformations	-11.6507
▁soudaine	-11.6507
▁creee	-11.6508
▁plin	-11.6509
▁exceptions	-11.651
▁reuelations	-11.651
▁obligatoire	-11.6513
▁futurs	-11.6514
▁courent	-11.6515
len	-11.6517
▁protestation	-11.6517
▁bologne	-11.6517
▁alcool	-11.6517
▁ruban	-11.6518
▁reuision	-11.6519
▁orages	-11.652
▁metre	-11.6524
▁time	-11.6524
▁complices	-11.6525
▁gi	-11.6526
▁preferable	-11.6529
▁anecdote	-11.6532
▁insuffisance	-11.6532
▁mozart	-11.6532
▁brauoure	-11.6533
▁contenue	-11.6536
▁ecossais	-11.6542
▁predecesseurs	-11.6544
▁coubertin	-11.6548
▁donnons	-11.6549
▁spontanement	-11.655
▁bienheureux	-11.655
▁colomb	-11.656
▁auignon	-11.6562
▁surnom	-11.6562
▁circonference	-11.6564
▁rollinat	-11.6564
▁gide	-11.6566
▁preuot	-11.6566
▁mendiant	-11.6567
▁ample	-11.6569
▁reueur	-11.6575
▁municipal	-11.6575
▁rn	-11.6579
▁lausanne	-11.6579
▁confidence	-11.6579
▁cologne	-11.658
▁manoir	-11.6582
▁frappait	-11.6583
▁architectes	-11.6584
▁rappelez	-11.6585
▁arcs	-11.659
▁mena	-11.6591
▁that	-11.6592
▁syluestre	-11.6595
▁hesita	-11.6596
▁enclos	-11.6596
▁plage	-11.6602
▁yues	-11.6602
bon	-11.6606
▁balsamo	-11.6611
▁aioutons	-11.6611
▁achille	-11.6611
▁antioche	-11.6615
▁karl	-11.6615
rou	-11.6617
▁apparent	-11.6618
▁tiede	-11.6618
▁adoucir	-11.6623
▁nickleby	-11.6626
▁compositeur	-11.6627
▁batterie	-11.6627
▁uaudrait	-11.6627
▁drapeaux	-11.6628
▁mensonges	-11.6628
▁fauorite	-11.6628
▁changent	-11.6629
▁agricoles	-11.6635
▁localites	-11.6636
▁dentu	-11.6637
▁graine	-11.6639
unt	-11.6641
▁deces	-11.6641
▁grauures	-11.6642
▁mechancete	-11.6643
tz	-11.6644
▁apportent	-11.6646
▁pol	-11.6646
court	-11.6654
▁furieuse	-11.6655
▁peniblement	-11.6655
tie	-11.6656
car	-11.6657
▁prodige	-11.6659
bat	-11.6659
▁uoudraient	-11.666
▁torts	-11.6663
▁parfume	-11.6663
▁meurent	-11.6664
▁dollars	-11.6666
▁enuisager	-11.6667
▁causalite	-11.6674
▁promise	-11.6674
▁abattu	-11.6675
▁obtenus	-11.6676
▁orientaux	-11.6676
▁rires	-11.6676
▁precises	-11.6677
▁buissons	-11.6678
▁condamnee	-11.668
▁fauoris	-11.668
▁poussent	-11.668
▁wo	-11.6681
▁distincte	-11.6682
▁monopole	-11.6687
▁bouclier	-11.669
▁ecarts	-11.669
▁actrice	-11.6691
▁dispenser	-11.6691
▁puise	-11.6696
▁rc	-11.6697
▁priant	-11.67
▁criminels	-11.6701
▁xuiie	-11.6702
▁atroce	-11.6703
▁martyr	-11.6703
out	-11.6704
▁reueries	-11.6705
▁allegresse	-11.6706
▁familiere	-11.6706
▁analytique	-11.6706
▁habituel	-11.6709
▁poules	-11.6711
▁constituante	-11.6713
▁png	-11.6717
▁impitoyable	-11.6718
▁reprenait	-11.6722
ati	-11.6722
▁psaumes	-11.6722
▁portefeuille	-11.6722
▁allah	-11.6724
▁recent	-11.6726
▁imp	-11.6726
▁enuoyee	-11.673
▁mediocres	-11.6731
▁conuenablement	-11.6732
▁nappe	-11.6733
▁federal	-11.6734
▁indice	-11.6735
▁solutions	-11.6736
▁carthage	-11.6736
▁attributions	-11.6737
▁fanny	-11.6737
▁sepulture	-11.6738
▁minorite	-11.6738
▁eugenie	-11.6739
▁allumer	-11.674
▁coffre	-11.6743
▁meut	-11.6743
nee	-11.6744
▁dar	-11.6744
▁fraiches	-11.6745
▁possessions	-11.6749
▁mill	-11.675
▁infaillible	-11.675
▁mineur	-11.6753
▁executif	-11.6753
▁statistique	-11.6754
▁enigme	-11.6754
▁rassure	-11.6759
▁arretent	-11.676
▁lunettes	-11.6761
▁numeros	-11.6764
▁essentielles	-11.6766
▁dine	-11.6768
▁annuelle	-11.6768
▁prodiges	-11.6769
▁barthelemy	-11.6769
▁plenitude	-11.6769
▁chirurgien	-11.6773
▁negation	-11.6776
▁etudiants	-11.6779
▁conserua	-11.6782
▁animes	-11.6785
▁protestations	-11.6785
tif	-11.6785
▁bouts	-11.6786
▁seminaire	-11.6786
▁bataillons	-11.6787
▁raisonner	-11.6788
▁gaiement	-11.6789
ori	-11.679
▁dirais	-11.6791
▁indiuiduel	-11.6798
▁negatiue	-11.6799
▁cabaret	-11.68
▁uersions	-11.6801
▁retentit	-11.6803
illon	-11.6803
▁pesanteur	-11.6804
▁uou	-11.6805
▁enim	-11.6809
▁remplies	-11.681
▁offices	-11.6813
▁restreint	-11.6814
▁dudit	-11.6814
▁prendrait	-11.6816
▁honteuse	-11.6816
▁complot	-11.6816
▁huysmans	-11.6817
▁dietrich	-11.6817
▁dauoir	-11.6818
▁continuite	-11.6818
▁enuisage	-11.6818
▁conuenance	-11.6818
▁secheresse	-11.6818
▁allions	-11.6819
▁recentes	-11.6819
▁obserua	-11.6821
▁employees	-11.6823
▁couurent	-11.6826
▁reuenue	-11.6826
▁immortel	-11.6831
▁mutuelle	-11.6832
▁bouc	-11.6833
▁collaboration	-11.6833
▁hector	-11.6833
▁familiers	-11.6835
ich	-11.6838
▁fran	-11.6839
▁subtil	-11.684
▁manches	-11.6843
▁consideres	-11.6843
▁traductions	-11.6845
▁ether	-11.6846
▁souleua	-11.6847
▁sch	-11.6847
▁gaie	-11.6848
▁maitresses	-11.6849
zi	-11.6849
▁far	-11.6849
▁paternel	-11.6849
▁contenance	-11.6849
▁emouuoir	-11.685
▁interieurs	-11.685
▁opium	-11.685
▁celebrite	-11.6851
▁coquetterie	-11.6851
▁pendre	-11.6852
▁soulagement	-11.6852
▁tranchee	-11.6853
▁aimons	-11.6853
▁accusations	-11.686
iz	-11.6861
▁parure	-11.6864
▁dates	-11.6865
▁receuant	-11.6866
▁entouraient	-11.6867
▁red	-11.6867
▁resterait	-11.6867
▁mouret	-11.6867
▁grenier	-11.6868
▁succombe	-11.687
▁campement	-11.687
▁succeda	-11.687
▁sortirent	-11.6872
▁mariages	-11.6875
▁animale	-11.6875
▁actuelles	-11.6878
▁precipiter	-11.6882
▁rancune	-11.6883
▁choisie	-11.6883
▁nettete	-11.6883
▁coquille	-11.6884
▁depasser	-11.6886
▁coupee	-11.6886
▁montraient	-11.6887
▁interrompu	-11.6896
▁rgb	-11.6898
▁pieuse	-11.6898
▁prophetie	-11.6899
▁assiette	-11.6899
uz	-11.6899
▁reuiure	-11.6899
▁bouton	-11.69
▁pendu	-11.6902
▁defendit	-11.6903
ime	-11.6907
▁concierge	-11.6913
▁asiatique	-11.6915
▁iniquite	-11.6916
▁decouragement	-11.6918
▁tombaient	-11.6918
▁belges	-11.6918
▁gardiens	-11.6918
▁tact	-11.6918
▁uoter	-11.6923
▁cheure	-11.6923
▁meditations	-11.6924
▁descriptions	-11.6925
bar	-11.6925
▁hardis	-11.6925
▁ins	-11.6928
▁industriels	-11.6929
▁nage	-11.6929
▁traducteur	-11.6929
▁appreciation	-11.693
▁abandonnes	-11.693
▁contours	-11.6931
▁plane	-11.6932
▁disgrace	-11.6932
▁noe	-11.6933
▁eclaircir	-11.6934
▁hai	-11.6942
▁euangiles	-11.6943
▁appelez	-11.6943
one	-11.6944
▁reuerend	-11.6944
▁ramasse	-11.6944
mis	-11.6944
▁nerueuse	-11.6944
▁signifier	-11.6946
▁deuenaient	-11.6946
ex	-11.6946
▁patriotique	-11.6948
▁prefecture	-11.6948
▁indefiniment	-11.6948
▁distincts	-11.6949
▁buste	-11.695
▁menu	-11.6951
▁margin	-11.6952
▁detruite	-11.6955
▁flore	-11.6959
▁reparation	-11.6965
▁siennes	-11.6966
▁immobiles	-11.6966
▁reuoltes	-11.6968
▁orgue	-11.6973
▁larme	-11.6973
▁surmonte	-11.6975
▁peinte	-11.6978
▁schopenhauer	-11.6979
▁complique	-11.698
▁alphabet	-11.698
▁archipel	-11.6981
▁collegue	-11.6981
▁sollicite	-11.6983
▁rencontrait	-11.6985
▁ballon	-11.6985
▁folio	-11.6986
uc	-11.6991
ek	-11.6992
▁nouuellement	-11.6992
▁annuel	-11.6995
▁exile	-11.6996
▁tions	-11.6997
▁lumineuse	-11.6997
▁sacrilege	-11.6998
▁puissans	-11.6998
▁epees	-11.7003
▁endormir	-11.7006
wa	-11.7008
▁rauir	-11.7011
▁sterling	-11.7012
▁industriel	-11.7012
▁peruersite	-11.7012
igne	-11.7013
▁agissant	-11.7015
▁droites	-11.7015
▁sor	-11.7015
▁depouiller	-11.7018
▁saueur	-11.702
▁consacres	-11.7021
▁priuees	-11.7024
▁natale	-11.7026
▁minces	-11.7026
▁ingratitude	-11.7028
▁respectueux	-11.7028
▁calcule	-11.7028
▁ueneration	-11.7028
▁concept	-11.7029
▁resolus	-11.7029
▁ordonner	-11.7029
▁confesse	-11.7029
▁prouision	-11.703
▁ressentiment	-11.7032
quin	-11.7033
▁langueur	-11.7033
▁mgr	-11.7035
▁etendus	-11.7036
▁elie	-11.7039
▁continuent	-11.7039
▁uarier	-11.7039
▁zi	-11.7039
▁atteignit	-11.7044
▁uraisemblance	-11.7044
▁you	-11.7044
▁conspiration	-11.7047
▁mol	-11.7049
▁republicaine	-11.7056
▁presens	-11.7057
▁cons	-11.7059
▁conquerant	-11.7059
▁germains	-11.706
▁existant	-11.706
▁poitiers	-11.7061
▁uiuans	-11.7061
dan	-11.7062
▁chartres	-11.7064
▁uisibles	-11.7064
▁attacha	-11.7066
▁chantent	-11.7068
▁sectes	-11.7068
▁reflechit	-11.707
▁artisans	-11.7074
▁lxx	-11.7075
▁retablissement	-11.7077
▁eumes	-11.7077
hu	-11.7078
▁dedaigne	-11.7079
nd	-11.708
▁immortelle	-11.7082
▁aurois	-11.7083
ko	-11.7085
▁defaire	-11.709
▁bru	-11.7091
▁industries	-11.7093
▁conseruee	-11.7093
▁gauthier	-11.7093
▁orthographe	-11.7093
▁parer	-11.7094
▁pensons	-11.7094
▁eusebe	-11.7094
▁conuiennent	-11.7095
▁lamme	-11.7095
▁fonctionnaire	-11.7096
▁recteur	-11.7097
▁attitudes	-11.7097
▁patrons	-11.7099
▁ahmet	-11.7107
▁recompenses	-11.7109
▁cadeau	-11.711
▁dy	-11.711
▁uictorieux	-11.711
▁resumer	-11.7111
▁seches	-11.7111
▁battant	-11.7112
▁pasteurs	-11.7112
lum	-11.7113
▁tor	-11.7117
▁larousse	-11.7118
▁recommander	-11.7121
▁laches	-11.7124
▁plains	-11.7126
▁echappent	-11.7127
▁consistait	-11.7127
▁meunier	-11.7127
▁santa	-11.7128
▁ambitions	-11.7129
▁grossiers	-11.7129
▁raillerie	-11.7131
▁allonge	-11.7134
▁publicite	-11.7134
▁isolee	-11.7135
▁demeurant	-11.7136
▁empecha	-11.7138
▁expliqua	-11.7142
▁soutiennent	-11.7144
▁cherchaient	-11.7145
▁ennuie	-11.7149
ria	-11.7152
▁gau	-11.7153
▁sg	-11.7156
▁interrompre	-11.716
▁subsistance	-11.7163
▁biblique	-11.7163
▁chargees	-11.7166
▁horloge	-11.7166
▁iugeait	-11.7167
cus	-11.7168
bas	-11.7169
▁ioueur	-11.717
▁fillette	-11.7173
▁garnie	-11.7175
ers	-11.7176
▁prealable	-11.7176
▁uladimir	-11.7176
▁sagacite	-11.7176
▁clarisse	-11.7176
▁reliques	-11.7176
▁laboratoire	-11.7179
▁uiolette	-11.718
▁ressembler	-11.7186
▁bleues	-11.7187
▁uernet	-11.7191
▁ingenieuse	-11.7192
▁immensite	-11.7193
▁prononciation	-11.7193
▁isaac	-11.7193
▁distinguait	-11.7195
▁ieremie	-11.7195
▁heresie	-11.7196
▁maternel	-11.7197
▁finance	-11.7197
lc	-11.7199
▁ebranle	-11.72
lus	-11.7205
▁secoua	-11.7208
▁oxford	-11.721
▁iouissait	-11.721
▁saut	-11.721
▁atque	-11.7211
▁coiffe	-11.7211
▁corridor	-11.7213
▁polemique	-11.7213
▁classification	-11.7213
▁grandiose	-11.7213
▁apostolique	-11.7213
▁releuant	-11.7215
▁crises	-11.7216
▁paroi	-11.7218
▁fist	-11.7219
▁tsar	-11.7219
▁enleua	-11.722
▁reuinrent	-11.7226
▁suisses	-11.7229
▁bai	-11.7229
▁nach	-11.723
▁faisoient	-11.7233
▁chaises	-11.7236
▁croitre	-11.724
▁retombe	-11.724
▁uigoureuse	-11.7243
▁height	-11.7243
▁grange	-11.7243
▁uoi	-11.7244
▁patient	-11.7245
▁maritimes	-11.7247
▁apprecie	-11.7249
▁excuses	-11.7251
bel	-11.7254
▁siam	-11.7255
▁perle	-11.7256
▁attentiue	-11.726
▁coquette	-11.726
▁paresseux	-11.726
▁prescrit	-11.7263
▁laid	-11.7263
▁commerciales	-11.7266
▁organisee	-11.7266
▁predit	-11.7275
▁etonnante	-11.7276
▁aborde	-11.7277
▁lambeaux	-11.7277
▁fusse	-11.728
▁assertion	-11.728
▁imaginaire	-11.728
▁uray	-11.7282
dre	-11.7286
▁retenue	-11.7287
iennes	-11.7288
▁maigres	-11.7289
▁regna	-11.729
▁boisson	-11.729
▁cuire	-11.7296
▁ciuils	-11.7299
▁modestes	-11.7299
▁rattacher	-11.7304
▁iudas	-11.7305
▁sauua	-11.7309
chi	-11.7309
▁anthologie	-11.731
▁fayette	-11.731
▁etang	-11.7311
▁uenoit	-11.7312
▁marius	-11.7312
ous	-11.7313
▁chanoine	-11.7313
▁parlementaires	-11.7313
▁naturalistes	-11.7313
▁pal	-11.7314
▁cycle	-11.7316
▁loti	-11.7316
▁indignes	-11.7317
▁priuer	-11.7318
antes	-11.7318
cy	-11.7318
▁defenseur	-11.732
▁anterieures	-11.7321
▁boutiques	-11.7322
ks	-11.7323
▁guerin	-11.7324
▁natal	-11.7325
▁equateur	-11.7327
▁plumage	-11.7327
▁anterieur	-11.7328
▁remontant	-11.733
▁ef	-11.7332
▁litt	-11.7336
▁aieux	-11.7336
▁emmene	-11.7338
▁boulanger	-11.7339
▁habiller	-11.734
cc	-11.7341
▁romantisme	-11.7344
▁repandit	-11.7347
ole	-11.7348
▁missionnaire	-11.7348
dem	-11.735
▁tissus	-11.735
▁penetra	-11.7354
▁sua	-11.7354
▁trompee	-11.7355
▁transactions	-11.7356
▁sachez	-11.7359
▁transmis	-11.7359
▁horreurs	-11.736
▁recoltes	-11.7361
▁cre	-11.7362
▁bell	-11.7362
▁cors	-11.7365
▁amateur	-11.7365
▁gueules	-11.7365
▁maint	-11.7367
▁superficie	-11.7368
▁surpasse	-11.7369
▁prae	-11.737
▁fust	-11.7371
▁echappa	-11.7373
▁resolument	-11.7373
▁uerrai	-11.7375
▁forgeron	-11.7377
▁rameau	-11.7377
▁eteinte	-11.7378
▁immobilite	-11.7378
▁nerciat	-11.7378
▁incertaine	-11.7379
▁fernand	-11.7379
▁identiques	-11.738
▁hy	-11.7381
lant	-11.7382
▁confrere	-11.7382
▁emploient	-11.7384
▁lionel	-11.7388
▁borner	-11.7389
▁eloquent	-11.7389
▁ducs	-11.7392
▁moulins	-11.7392
▁demandaient	-11.7393
ano	-11.7393
▁inattendue	-11.7394
▁fraude	-11.7394
▁poele	-11.7394
▁beaumarchais	-11.7395
▁pousses	-11.7395
▁brutale	-11.7395
▁uiuons	-11.7396
▁remplissent	-11.7397
▁foin	-11.7398
▁reims	-11.7399
▁elementaire	-11.7399
▁hor	-11.7399
▁rancon	-11.74
▁comediens	-11.7401
▁sels	-11.7403
▁contradictoires	-11.7407
iser	-11.7408
lem	-11.741
ng	-11.7411
▁blas	-11.7412
▁irritation	-11.7412
▁anecdotes	-11.7413
▁installer	-11.7413
▁uetue	-11.7413
▁eleuaient	-11.7414
▁amusant	-11.7414
▁interpreter	-11.7415
▁hostilite	-11.7416
▁plier	-11.7419
▁briques	-11.7424
▁interesses	-11.7424
▁uallon	-11.7424
▁leopold	-11.7427
▁funerailles	-11.7429
▁fichier	-11.7429
▁idolatrie	-11.7429
▁cymrique	-11.7429
▁noyau	-11.7429
▁deuiendrait	-11.7433
▁exclusif	-11.7433
▁ledition	-11.7434
▁foyers	-11.7434
▁incarnation	-11.7435
▁indifferente	-11.7436
▁grandi	-11.7436
num	-11.7437
dou	-11.7438
▁combler	-11.7444
est	-11.7445
▁steriles	-11.7445
▁bau	-11.7446
▁lampieur	-11.7446
▁leontine	-11.7446
▁infatigable	-11.745
▁conflits	-11.745
▁instituteur	-11.7451
▁pendule	-11.7453
▁iointes	-11.7454
ph	-11.7454
▁arch	-11.7456
▁pecher	-11.7457
▁fuyant	-11.7461
▁couchee	-11.7462
ida	-11.7462
▁peninsule	-11.7463
▁alector	-11.7463
▁iouissent	-11.7464
▁expeditions	-11.7467
▁reuues	-11.7472
▁coster	-11.7473
▁rapporteur	-11.7476
▁conteste	-11.7477
▁poses	-11.7478
▁fauue	-11.7481
▁sanglant	-11.7484
▁senateurs	-11.7485
▁confiee	-11.7486
▁exceptionnelle	-11.7487
▁euoque	-11.7489
▁exigeait	-11.7489
▁pharaon	-11.7493
▁camps	-11.7494
▁bague	-11.7494
▁din	-11.7494
▁inuiter	-11.7495
▁brises	-11.7496
▁surcroit	-11.7497
▁gil	-11.75
▁commissions	-11.7501
▁medaille	-11.7502
▁durement	-11.7503
▁iournaliste	-11.7505
▁etrangement	-11.7512
▁ardemment	-11.7514
▁notices	-11.7515
▁particularites	-11.7515
▁delit	-11.7515
▁facheuse	-11.7516
▁collections	-11.752
▁genese	-11.752
▁tempetes	-11.7521
▁fermees	-11.7521
▁enflamme	-11.7527
▁aucunement	-11.7527
▁siberie	-11.7528
▁parquet	-11.7528
▁unit	-11.753
▁hygiene	-11.7532
▁incertain	-11.7533
▁galanterie	-11.7533
▁realites	-11.7535
▁formellement	-11.7536
▁supra	-11.7537
▁iardinier	-11.7538
▁quittait	-11.754
▁imposee	-11.754
▁souffrent	-11.7543
▁proportionnelle	-11.7545
▁instances	-11.7547
▁acquiert	-11.7549
▁selection	-11.755
▁continuelle	-11.7554
▁pedagogique	-11.7554
▁autem	-11.7558
▁sacs	-11.7558
▁mitten	-11.7559
▁tomberent	-11.756
▁drames	-11.756
▁grammes	-11.7561
▁continuel	-11.7562
▁mesmes	-11.7565
▁zofloya	-11.7566
▁parbleu	-11.7566
▁dessiner	-11.7566
▁ferueur	-11.7567
▁densite	-11.7567
▁manquaient	-11.7567
▁apprennent	-11.7568
▁theorique	-11.7568
▁mobilier	-11.7569
▁propice	-11.7571
▁acquisition	-11.7571
▁halle	-11.7571
▁balcon	-11.7572
▁faillit	-11.7572
▁sauta	-11.7578
▁antiquites	-11.7579
uil	-11.7581
▁coniectures	-11.7584
▁stael	-11.7584
▁aneantir	-11.7584
▁annette	-11.7586
▁haye	-11.7587
▁silhouette	-11.7589
▁solennite	-11.7589
▁inuentaire	-11.7589
bert	-11.7591
▁satisfaite	-11.7593
▁compagnes	-11.7595
▁aui	-11.7598
▁guillaumin	-11.7601
▁demandons	-11.7601
▁notable	-11.7603
▁rubens	-11.7604
▁echanger	-11.7606
▁aristocratique	-11.7606
▁canadienne	-11.7607
▁deplacement	-11.7609
▁ruses	-11.7611
▁gilles	-11.7612
▁pra	-11.7614
▁payes	-11.7615
▁rauages	-11.7615
▁raisin	-11.7617
▁uiendront	-11.7618
▁participation	-11.7618
▁mathieu	-11.7619
▁epines	-11.7619
tm	-11.7619
▁distinctement	-11.7622
▁staff	-11.7623
▁slaues	-11.7623
▁adressees	-11.7624
ames	-11.7626
▁raynal	-11.7628
▁aussy	-11.7628
▁soirees	-11.763
▁etape	-11.763
▁brauer	-11.7631
▁surnaturel	-11.7634
▁preuoyance	-11.7636
▁minimum	-11.7636
▁affectation	-11.7636
▁foible	-11.7638
▁decisif	-11.7641
▁uertige	-11.7641
▁figurent	-11.7641
▁abel	-11.7643
▁mus	-11.7644
▁trouueront	-11.7646
▁dissipe	-11.7646
▁baise	-11.7648
▁laborieux	-11.7653
▁souuenez	-11.7653
▁faiblesses	-11.7654
▁constitutions	-11.7662
▁obei	-11.7665
▁cultes	-11.7667
▁barrieres	-11.7668
▁kal	-11.7668
▁ressorts	-11.7669
▁exigent	-11.7669
▁permanente	-11.767
▁clemenceau	-11.7671
▁talon	-11.7672
▁mecontent	-11.7672
▁solennellement	-11.7675
▁declarait	-11.7676
▁confesser	-11.7677
▁aides	-11.7677
▁sculpteurs	-11.7677
▁frele	-11.7679
▁frequent	-11.7681
▁flux	-11.7683
▁glissa	-11.7684
▁rangees	-11.7685
xi	-11.7687
▁intimement	-11.7688
▁prononcee	-11.7691
▁acides	-11.7691
▁roussel	-11.7692
▁prussien	-11.7692
rin	-11.7693
▁infidele	-11.7694
▁ecriait	-11.7699
▁massacres	-11.77
▁legions	-11.7702
▁mouille	-11.7703
▁laissera	-11.7704
▁alerte	-11.7704
▁yahweh	-11.7705
▁originaux	-11.7705
▁desolation	-11.7706
▁bagages	-11.7706
▁proprete	-11.7708
▁professe	-11.7708
los	-11.7709
▁succeder	-11.771
▁neiges	-11.7712
▁rende	-11.7714
▁demonstrations	-11.7715
▁sit	-11.7716
▁iudee	-11.7717
▁reporte	-11.7718
▁will	-11.772
▁iane	-11.772
▁blamer	-11.7721
▁unanimite	-11.7723
▁saturne	-11.7723
▁promettait	-11.7723
▁antiochus	-11.7723
ault	-11.7724
▁lille	-11.7725
▁orge	-11.7725
▁authentique	-11.7725
▁preche	-11.7726
▁cirque	-11.7729
▁registres	-11.7732
▁inconuenients	-11.7733
uet	-11.7734
▁interpretes	-11.7737
nr	-11.7737
▁brutal	-11.7738
▁breiz	-11.7741
▁meritait	-11.7741
▁brute	-11.7742
▁inclina	-11.7744
▁solitaires	-11.775
▁tartares	-11.7751
▁tl	-11.7754
▁dominant	-11.7757
▁precipitamment	-11.7758
▁minerue	-11.7759
▁sceaux	-11.7759
▁accompagnait	-11.776
▁acre	-11.7761
▁inscrit	-11.7763
gne	-11.7763
▁coalition	-11.7764
▁trauaillant	-11.7766
▁finissent	-11.7766
▁defile	-11.7767
▁pt	-11.7772
▁galilee	-11.7775
▁gouuerneurs	-11.7775
▁puissamment	-11.7776
▁importait	-11.7776
▁resigne	-11.7777
▁epaisses	-11.7778
▁sepulcre	-11.7778
▁captifs	-11.7779
▁uerras	-11.7781
▁enthousiaste	-11.7782
ola	-11.7782
▁assigne	-11.7784
▁fantastiques	-11.7784
▁manier	-11.7785
▁ram	-11.7787
▁deuienne	-11.779
▁sourires	-11.7791
▁engages	-11.7793
▁elliot	-11.7793
▁ioueurs	-11.7794
▁recueillis	-11.7795
▁litteralement	-11.7795
tl	-11.7798
▁zero	-11.7798
▁uitres	-11.78
▁uariables	-11.7801
cm	-11.7802
▁aioutent	-11.7809
▁come	-11.7811
▁desesperee	-11.7813
▁formelle	-11.7813
▁magistrature	-11.7818
▁auertit	-11.782
▁ibn	-11.7821
▁marge	-11.7821
▁consuls	-11.7822
▁gay	-11.7823
▁duual	-11.7824
▁metamorphose	-11.7828
▁spinoza	-11.7829
▁papes	-11.7829
▁darcy	-11.7829
▁citations	-11.7832
▁lames	-11.7839
▁anterieurs	-11.7843
tier	-11.7845
▁permettant	-11.7848
▁olympe	-11.7849
▁odieuse	-11.785
▁perses	-11.785
hou	-11.7851
▁facteur	-11.7853
▁theologique	-11.7854
▁passants	-11.7854
▁bur	-11.7854
▁muets	-11.7854
▁energiquement	-11.7855
▁uisiteurs	-11.7855
▁presentement	-11.7855
▁uimes	-11.7862
▁agneau	-11.7864
▁lassitude	-11.7864
▁coni	-11.7864
▁fra	-11.7867
▁calculer	-11.7867
▁tactique	-11.7867
▁tragiques	-11.7868
▁surnomme	-11.7869
aille	-11.7874
arum	-11.7874
▁reclamations	-11.7876
▁trame	-11.7877
▁liee	-11.7882
▁uatican	-11.7882
▁weil	-11.7884
▁cordialement	-11.7884
▁greffe	-11.7885
▁ardents	-11.7886
▁reposent	-11.7891
▁construite	-11.7892
▁partirent	-11.7893
▁dau	-11.7899
▁remplissait	-11.7901
▁semer	-11.7902
tim	-11.7903
▁adresses	-11.7906
▁gardant	-11.7906
▁poi	-11.7907
▁rossignol	-11.7907
▁entretient	-11.7909
▁gener	-11.791
▁dirigeait	-11.7911
▁meridien	-11.7911
▁barques	-11.7911
▁nomment	-11.7912
▁sagement	-11.7913
▁liquides	-11.7914
uant	-11.7917
▁berry	-11.7918
▁semestre	-11.7919
▁ih	-11.7919
▁ubi	-11.792
▁baigne	-11.7923
▁geruaise	-11.7923
▁redacteur	-11.7925
▁usines	-11.7927
▁surprenant	-11.7928
▁nacre	-11.7928
▁chauue	-11.7931
▁mangent	-11.7933
▁imperieux	-11.7936
▁portez	-11.7938
▁empressa	-11.7938
▁careme	-11.794
▁sortaient	-11.7941
▁rempart	-11.7943
ieux	-11.7944
▁fortifie	-11.7944
▁distribue	-11.7946
▁faille	-11.7946
▁unanime	-11.7947
▁infideles	-11.7948
▁ouuertures	-11.7952
▁carree	-11.7954
▁seruira	-11.7954
▁gars	-11.7955
▁plon	-11.7955
▁casque	-11.7957
▁tarder	-11.7957
▁suffrages	-11.7957
▁saincte	-11.7958
ici	-11.7959
▁abaissement	-11.7959
▁desastres	-11.796
▁chimere	-11.7961
▁marchande	-11.7963
▁obstine	-11.7965
▁acquit	-11.7966
▁conuoi	-11.7967
▁reglements	-11.7969
▁distribuer	-11.7971
uf	-11.7973
▁quint	-11.7974
erent	-11.7975
▁moreau	-11.7978
▁grandir	-11.7979
▁emigration	-11.7979
▁calice	-11.798
▁insecte	-11.798
▁proteste	-11.7981
▁fortifications	-11.7982
▁affranchir	-11.7982
▁trompette	-11.7983
▁fierement	-11.7983
ric	-11.7983
sinteressement	-11.7983
▁admise	-11.7986
▁roulant	-11.7988
▁pantagruel	-11.799
▁xxxii	-11.799
▁anneaux	-11.7993
▁derange	-11.7995
▁ieannin	-11.7996
▁expliquent	-11.7997
▁portions	-11.7997
▁arreterent	-11.7997
▁lia	-11.7997
▁chauds	-11.7997
▁localite	-11.7998
▁guet	-11.8002
▁guider	-11.8004
▁grasse	-11.8004
▁dose	-11.8007
▁braddon	-11.8008
▁cherchons	-11.8008
▁tremblait	-11.8009
▁mineurs	-11.8009
▁ranges	-11.801
ben	-11.8012
▁cheres	-11.8014
▁effrayante	-11.8014
▁breue	-11.8018
▁distrait	-11.8019
▁satire	-11.8019
▁esperant	-11.8023
▁iacobins	-11.8023
▁washington	-11.8026
▁designant	-11.8029
▁phil	-11.8029
▁mole	-11.803
▁grossieres	-11.8031
▁more	-11.8032
▁ideale	-11.8032
▁patriote	-11.8033
▁obiectif	-11.8033
▁predication	-11.8034
▁enleuee	-11.8034
▁enchaine	-11.8034
▁hostiles	-11.8034
▁endormie	-11.8034
▁trahit	-11.8035
dam	-11.8036
▁tendue	-11.8037
▁adolescent	-11.8037
▁comete	-11.8038
▁houille	-11.804
▁accompagnent	-11.8044
▁feydeau	-11.8044
▁impunement	-11.8044
▁fondu	-11.8045
▁declin	-11.8045
▁sots	-11.8048
▁appartements	-11.8049
▁successifs	-11.8054
oni	-11.8057
▁maintient	-11.8059
▁clefs	-11.806
▁pers	-11.8061
▁bei	-11.8062
▁contraindre	-11.8062
▁integrite	-11.8062
▁harmonieux	-11.8065
▁indiquent	-11.8066
▁specifique	-11.8066
▁suppleer	-11.8069
▁excitation	-11.807
▁enfoncer	-11.8071
▁inf	-11.8071
▁blocs	-11.8071
▁tenta	-11.8071
▁faction	-11.8074
▁presentation	-11.8074
▁sermons	-11.8076
▁infernal	-11.8078
▁fibres	-11.8079
▁intitulee	-11.8079
▁crees	-11.8079
▁flottante	-11.8079
▁deroute	-11.8079
▁leibniz	-11.808
▁hoffmann	-11.8081
▁interieurement	-11.8081
▁merueilleuses	-11.8081
▁exercait	-11.8082
cri	-11.8086
▁intelligible	-11.8088
▁comparable	-11.8088
▁inuenteur	-11.809
▁froides	-11.8092
▁abaisser	-11.8093
▁medailles	-11.8094
▁trouuees	-11.8095
▁depeches	-11.8095
▁recurent	-11.8096
▁pagnerre	-11.8099
▁conciliation	-11.8099
▁pouuoient	-11.8099
▁renseignemens	-11.8099
▁contrairement	-11.8099
▁femelles	-11.8099
▁gaspard	-11.8099
nel	-11.8099
▁decore	-11.81
▁oubliant	-11.8104
▁melees	-11.8106
▁etonnee	-11.8116
▁ressentir	-11.8117
▁poursuiuait	-11.8117
▁patte	-11.8117
ny	-11.812
▁placant	-11.8123
▁epopee	-11.8125
▁agreablement	-11.8125
▁errer	-11.8133
▁atlantique	-11.8135
▁enumeration	-11.8135
▁directoire	-11.8135
▁disparaissent	-11.8136
▁tonneaux	-11.8136
▁reiouir	-11.8138
▁rampe	-11.8138
▁arrestation	-11.8143
illa	-11.8143
ban	-11.8145
▁desertes	-11.8147
▁retabli	-11.815
▁gants	-11.8151
ico	-11.8153
▁sabbat	-11.8154
▁cueillir	-11.8156
▁detours	-11.8156
▁matthieu	-11.8158
▁soumet	-11.816
▁recueils	-11.816
▁agitait	-11.8161
▁excursion	-11.8162
▁immuable	-11.8162
▁saul	-11.8162
▁dizaine	-11.8162
▁declarations	-11.8163
▁plaisante	-11.8164
▁cham	-11.8165
▁bale	-11.8165
oa	-11.8166
iae	-11.8166
▁hall	-11.8167
▁mesdames	-11.8172
▁arrets	-11.8172
▁uanier	-11.8174
▁pressait	-11.8176
▁deranger	-11.8177
ea	-11.8178
lic	-11.8179
▁maintenu	-11.8179
▁deliberation	-11.818
▁parcours	-11.8182
nou	-11.8182
▁risques	-11.8183
▁pau	-11.8185
▁singulieres	-11.8186
▁iroquois	-11.8189
rant	-11.819
▁archiac	-11.819
▁retint	-11.8191
▁alt	-11.8195
▁tai	-11.8196
▁taxil	-11.8197
uan	-11.8197
▁masculin	-11.8197
▁aigue	-11.8198
▁diplomate	-11.8199
▁effrayer	-11.8199
▁attachent	-11.82
▁blanqui	-11.8203
▁perfectionner	-11.821
▁surfaces	-11.8211
▁paques	-11.8214
▁mandarins	-11.8215
▁repandus	-11.8217
▁situees	-11.8218
▁noix	-11.8221
▁rendrait	-11.8222
▁scepticisme	-11.8227
▁offraient	-11.8227
▁rondes	-11.8227
▁dedie	-11.8227
▁adele	-11.8228
▁brillait	-11.8228
▁reunissent	-11.8228
▁glandes	-11.8229
▁laisserent	-11.8231
iim	-11.8232
▁naiuement	-11.8233
▁penseur	-11.8234
▁singes	-11.8235
uent	-11.8235
pt	-11.8235
▁negociation	-11.8236
▁fat	-11.8236
▁casser	-11.8236
▁orbite	-11.8237
▁herode	-11.8237
▁contracte	-11.8237
▁pencha	-11.8243
▁uaincue	-11.8243
▁reiete	-11.8244
▁copies	-11.8244
▁conuenances	-11.8244
▁bob	-11.8245
▁carmontelle	-11.8246
▁cornique	-11.8246
▁entourait	-11.8248
▁colleges	-11.8248
▁dominante	-11.8251
ei	-11.8252
ab	-11.8254
▁entendons	-11.8256
▁pelerins	-11.826
▁fermiers	-11.8261
▁mainte	-11.8261
▁accidens	-11.8264
▁promenait	-11.8265
▁fonda	-11.8265
▁chapeaux	-11.8268
▁enfuir	-11.827
uk	-11.827
▁lauriers	-11.8271
▁chau	-11.8272
▁indiuidualite	-11.8273
▁stuart	-11.8273
▁fumier	-11.8273
▁souhait	-11.8274
▁germes	-11.8275
▁fabriquer	-11.8275
▁obeissant	-11.8275
▁interessent	-11.8277
▁plaques	-11.8278
▁ruiner	-11.8279
▁cultures	-11.8281
▁maternelle	-11.8281
▁soutenait	-11.8283
▁hideux	-11.8283
▁scauoir	-11.8283
▁bussy	-11.8283
▁emportait	-11.8285
▁danton	-11.8286
▁laborieuse	-11.8288
lit	-11.829
▁paisiblement	-11.8291
br	-11.8291
▁piquant	-11.8292
▁baguette	-11.8292
▁partent	-11.8294
▁recueille	-11.8297
▁combattant	-11.8298
▁planter	-11.8299
▁alembert	-11.8301
▁beranger	-11.8301
ndo	-11.8301
▁reuenons	-11.8302
▁banuille	-11.8302
▁tin	-11.8304
▁teste	-11.8305
▁spheres	-11.8306
▁ext	-11.8306
▁uoue	-11.8308
▁tonnes	-11.8309
▁baisser	-11.8309
▁depouruu	-11.8309
▁discerner	-11.8312
▁uero	-11.8313
▁deuoues	-11.8314
▁commandeur	-11.8316
▁bergers	-11.8318
▁uersant	-11.8318
nage	-11.832
▁sebastien	-11.832
▁renaitre	-11.832
▁soulager	-11.8321
▁tur	-11.8322
▁claes	-11.8323
▁approuuer	-11.8323
▁arriuames	-11.8324
▁uolant	-11.8326
▁longitude	-11.8329
tri	-11.8331
gar	-11.8332
▁legal	-11.8333
▁ebranler	-11.8335
▁defie	-11.8337
▁tailleur	-11.8338
▁auuergne	-11.8339
▁assentiment	-11.8339
▁sully	-11.8339
▁imposait	-11.834
▁alloit	-11.8342
▁precipita	-11.8343
▁familiarite	-11.8348
▁melent	-11.8351
uy	-11.8352
mode	-11.8353
▁deca	-11.8355
▁partons	-11.8357
▁admettant	-11.8358
▁aimaient	-11.8359
▁trauersait	-11.836
▁feroit	-11.8362
▁entrainement	-11.8363
▁rentrait	-11.8363
▁etendant	-11.8365
▁manon	-11.8365
▁tenons	-11.8365
▁antichambre	-11.8366
▁debarrasse	-11.8367
▁consultation	-11.8367
rm	-11.8368
▁menteur	-11.8368
▁mbr	-11.8368
▁dossier	-11.8369
▁confondu	-11.8369
▁controuerse	-11.8374
off	-11.8374
▁exod	-11.8375
▁expansion	-11.8376
▁transmettre	-11.8376
▁marchaient	-11.8378
▁puissions	-11.8379
▁entrez	-11.8379
▁abandonnant	-11.8381
▁etincelle	-11.8382
▁rattachent	-11.8383
▁accorda	-11.8383
▁posant	-11.8383
▁mir	-11.8383
▁porteurs	-11.8384
▁ecouta	-11.8384
▁loyal	-11.8385
▁soy	-11.8386
▁cantique	-11.8386
▁bailli	-11.8387
▁persecutions	-11.8389
▁ambroise	-11.8395
illes	-11.8397
▁tortures	-11.8397
▁assura	-11.8397
▁mettons	-11.8399
▁uiole	-11.84
▁couraient	-11.8401
▁maures	-11.8402
▁farce	-11.8404
▁naissant	-11.8404
▁trainant	-11.8405
▁egyptienne	-11.8405
▁acceptee	-11.8409
▁penetration	-11.8414
▁rase	-11.8418
▁clara	-11.8422
▁registre	-11.8424
rit	-11.8424
ato	-11.8425
▁amities	-11.8426
▁philo	-11.8427
▁situes	-11.843
▁consistance	-11.8432
▁ennuyeux	-11.8433
▁participer	-11.8433
▁cessait	-11.8436
tfng	-11.8439
▁partait	-11.844
▁concerts	-11.8441
▁assassins	-11.8442
▁affiche	-11.8442
▁clameurs	-11.8442
▁laboureur	-11.8443
▁craie	-11.8443
▁taxes	-11.8445
▁raisonnements	-11.8446
▁couronnement	-11.8449
▁soigne	-11.845
▁caire	-11.8451
▁heredite	-11.8451
▁clermont	-11.8451
▁rubans	-11.8452
▁mattia	-11.8452
▁fixa	-11.8452
▁antilles	-11.8452
▁iointe	-11.8452
▁soucieux	-11.8452
▁reconnaissent	-11.8452
hy	-11.8453
▁bienuenue	-11.8453
tit	-11.8454
ef	-11.8454
uie	-11.8456
▁lieure	-11.8458
▁surgir	-11.8458
▁passez	-11.8459
▁blonds	-11.8459
▁curiosites	-11.8463
▁larticle	-11.8466
▁uariante	-11.8466
▁coquin	-11.8467
▁pend	-11.8468
ib	-11.8468
▁produites	-11.8469
▁dupleix	-11.847
▁gentleman	-11.847
▁radicaux	-11.847
▁calomnies	-11.8471
▁ine	-11.8471
▁bouteilles	-11.8471
▁oublies	-11.8472
▁ramasser	-11.8472
▁menait	-11.8476
▁embrassant	-11.8477
▁tarif	-11.8478
▁inexplicable	-11.848
▁rauin	-11.8482
▁resulter	-11.8483
▁achat	-11.8483
▁usine	-11.8483
nl	-11.8484
▁sich	-11.8485
cum	-11.8486
dy	-11.8487
▁with	-11.8487
▁maximilien	-11.8489
▁enuahi	-11.8492
▁attachait	-11.8492
▁communisme	-11.8494
▁financiers	-11.8497
▁era	-11.8501
▁deurais	-11.8501
▁epis	-11.8503
▁danemark	-11.8508
▁seizieme	-11.8508
▁fragmens	-11.8508
▁cereales	-11.851
▁pilote	-11.851
▁strictement	-11.851
▁souille	-11.8511
▁liber	-11.8512
▁pourquoy	-11.8513
▁cheualerie	-11.8514
▁infortunes	-11.8514
▁syllabes	-11.8516
▁raisonnables	-11.8516
▁impatient	-11.8517
▁butte	-11.8518
▁competence	-11.8518
▁reliefs	-11.8518
▁moelle	-11.8523
nda	-11.8525
▁chapelles	-11.8525
▁demetrius	-11.8527
▁dreyfus	-11.8527
▁sacerdoce	-11.8527
▁liberalisme	-11.8528
▁rauie	-11.8528
▁disposee	-11.8529
▁montemont	-11.8529
▁energiques	-11.853
▁borel	-11.853
▁picard	-11.8531
hen	-11.8533
▁uigny	-11.8534
▁menacee	-11.8535
▁electriques	-11.8536
▁douceurs	-11.8537
▁impassible	-11.8537
▁administrateur	-11.8537
▁interrogea	-11.8539
▁inuoquer	-11.8539
▁uiandes	-11.8544
▁sauine	-11.8544
▁london	-11.8545
iiu	-11.8545
▁multiplication	-11.8546
▁perche	-11.8546
▁nourris	-11.8556
▁maine	-11.8559
▁imprimeur	-11.856
▁intellectuelles	-11.856
▁bandits	-11.8562
▁gelee	-11.8565
▁piliers	-11.8566
▁pretendant	-11.8566
▁indiquait	-11.8566
tii	-11.8567
▁renuoie	-11.8567
▁troncs	-11.8567
▁ions	-11.8568
▁departements	-11.8569
▁couurit	-11.8569
▁lard	-11.857
▁paquets	-11.857
▁beaumont	-11.8571
▁physiologique	-11.8576
▁persiste	-11.8578
ensis	-11.8579
illy	-11.8581
▁impatiente	-11.8583
▁sacrees	-11.8583
▁batteries	-11.8584
pplaudissements	-11.8585
▁abimes	-11.8586
▁alternatiuement	-11.8587
▁emir	-11.8589
▁executes	-11.8589
▁malle	-11.8593
▁infamie	-11.8595
▁primitiuement	-11.8597
▁ian	-11.8597
▁renom	-11.8598
▁fenelon	-11.8603
▁apercois	-11.8603
▁battit	-11.8604
▁maintenon	-11.8604
▁bastille	-11.8604
▁uirginie	-11.8606
▁assezat	-11.8607
lam	-11.8608
▁renouuelle	-11.8611
▁gigantesques	-11.8614
▁oracles	-11.8614
▁congregation	-11.8614
▁ronge	-11.8615
▁lycee	-11.8615
▁peints	-11.8616
▁talons	-11.8619
▁exploiter	-11.862
▁heritiere	-11.8621
▁bakounine	-11.8623
▁arithmetique	-11.8623
▁furetiere	-11.8623
▁separait	-11.8624
▁iack	-11.8631
▁inattendu	-11.8633
▁accessoires	-11.8633
▁uariant	-11.8634
▁fiction	-11.8634
▁centaine	-11.8635
▁resultant	-11.8635
▁tite	-11.8637
▁exempt	-11.8637
▁auancement	-11.8637
▁fecond	-11.8638
ssiez	-11.8638
▁officiels	-11.864
▁resigner	-11.8641
▁eniure	-11.8642
▁cupidite	-11.8642
▁bacchus	-11.8642
▁reposait	-11.8642
▁nont	-11.8642
▁baissa	-11.8644
▁diuan	-11.8645
▁ku	-11.8646
▁sanction	-11.8647
▁dormi	-11.8647
▁institue	-11.8648
▁bretonne	-11.8649
▁carrieres	-11.8649
▁tranchees	-11.865
▁cimes	-11.865
▁contingent	-11.8652
▁sorcier	-11.8652
▁dimension	-11.8653
▁statuts	-11.8653
▁los	-11.8653
▁recette	-11.8654
▁secher	-11.8654
▁retrouua	-11.8654
▁relie	-11.8655
▁desirable	-11.8655
▁neutre	-11.8659
▁deception	-11.8662
▁coloris	-11.8662
▁retiree	-11.8663
▁brin	-11.8663
▁eussiez	-11.8666
▁partisan	-11.8667
▁moderes	-11.8668
▁ya	-11.867
▁oracle	-11.8671
▁bucher	-11.8671
▁comites	-11.8673
tel	-11.8673
▁employa	-11.8674
▁languedoc	-11.8674
▁dissimule	-11.8674
▁racheter	-11.8674
▁sinistres	-11.8674
▁contester	-11.8676
▁gentils	-11.8679
tc	-11.8681
▁chameaux	-11.8681
▁esperons	-11.8681
▁precipitation	-11.8681
▁castille	-11.8681
ath	-11.8682
▁griefs	-11.8682
▁plateaux	-11.8683
▁originaire	-11.8688
▁compliquee	-11.8688
▁deference	-11.8689
▁profita	-11.8689
▁onces	-11.869
ren	-11.8691
gu	-11.8694
▁secouer	-11.8694
▁souche	-11.8695
▁lauteur	-11.8695
▁trauailleur	-11.8698
▁remarquez	-11.8699
▁paraissant	-11.87
▁moteur	-11.87
▁consent	-11.8702
▁iugemens	-11.8703
▁cuuier	-11.8704
▁inuariable	-11.8707
▁appuya	-11.8708
▁auoine	-11.8708
pie	-11.8709
▁richement	-11.871
▁embarcation	-11.8711
▁pressentiment	-11.8712
▁collet	-11.8712
▁materielles	-11.8716
▁agitations	-11.8717
▁propheties	-11.8718
oh	-11.8719
▁calendrier	-11.8719
▁suspendre	-11.8721
▁regardais	-11.8721
▁unites	-11.8722
▁exclusion	-11.8723
▁wi	-11.8724
▁collectiue	-11.8727
▁reformer	-11.8727
pre	-11.8729
▁offensiue	-11.873
▁chariot	-11.8731
▁pater	-11.8736
▁erre	-11.8736
▁imaginations	-11.8736
▁caton	-11.8738
▁ralph	-11.8739
▁stabilite	-11.8739
▁ure	-11.8742
▁moyennes	-11.8746
inus	-11.8746
▁creuser	-11.8748
▁negociant	-11.8751
▁durand	-11.8751
▁nauait	-11.8752
▁aiguillon	-11.8755
▁fourneau	-11.8758
▁paturages	-11.8758
▁boulogne	-11.8758
▁conseruateurs	-11.8761
▁pires	-11.8764
▁communautes	-11.8764
▁blond	-11.8766
▁essayant	-11.8766
▁sonna	-11.8766
▁insolence	-11.877
▁indemnite	-11.877
▁ermite	-11.877
olo	-11.877
▁tailles	-11.8772
▁republiques	-11.8773
▁iurisprudence	-11.8778
▁phedre	-11.8778
▁aurele	-11.8778
▁rebellion	-11.8779
▁lordre	-11.878
▁etonnes	-11.8781
▁sotte	-11.8782
▁outil	-11.8782
▁conuaincus	-11.8785
▁humiliation	-11.8789
▁irons	-11.8791
wi	-11.8791
▁deuions	-11.8792
▁diu	-11.8793
▁marbres	-11.8794
▁domini	-11.8794
▁abstraite	-11.8795
▁xxxu	-11.8796
ndi	-11.8796
▁photius	-11.8797
▁instans	-11.8797
▁pekin	-11.8797
▁accusait	-11.8798
▁bassins	-11.8802
▁abondantes	-11.8804
▁paruenue	-11.8805
▁perdant	-11.8805
▁armer	-11.8808
▁cochon	-11.8809
▁charrette	-11.8809
▁syllabe	-11.8809
▁rudement	-11.8811
▁regis	-11.8813
▁tuyau	-11.8816
▁cardinaux	-11.8817
▁psychanalyse	-11.8817
▁meconnaitre	-11.8817
▁conuictions	-11.8818
▁mens	-11.8818
iet	-11.882
nia	-11.8822
▁prouinciale	-11.8824
▁uictorieuse	-11.8825
▁puiser	-11.8825
▁iustin	-11.8827
▁permanent	-11.8829
▁complement	-11.8829
cre	-11.8831
tres	-11.8831
▁serpents	-11.8833
▁close	-11.8833
▁semi	-11.8835
▁conformite	-11.8836
▁hydrogene	-11.8836
▁importans	-11.8836
▁chaumont	-11.8837
▁montaient	-11.8838
▁confere	-11.8839
tan	-11.8844
▁ration	-11.8844
▁constituee	-11.8846
tta	-11.8846
▁synode	-11.8848
▁orthodoxe	-11.8849
▁oubliee	-11.8851
▁suiuies	-11.8853
▁comprendra	-11.8855
ila	-11.8855
▁torrents	-11.8856
▁outrages	-11.8856
▁conformer	-11.8856
▁bibliotheques	-11.8859
▁confirmation	-11.8859
▁reuiendra	-11.8859
▁diion	-11.8861
▁serue	-11.8863
goog	-11.8864
▁ironique	-11.8865
▁quest	-11.8865
▁deliberations	-11.8867
▁auxiliaire	-11.8868
▁brest	-11.8869
▁hectares	-11.8871
▁berne	-11.8871
▁attribuee	-11.8872
ln	-11.8874
▁dentelles	-11.8874
▁decomposition	-11.8876
▁croquis	-11.8876
▁melait	-11.8877
▁soutien	-11.8877
hon	-11.8878
▁dirigeant	-11.8878
▁fremir	-11.8878
▁mystiques	-11.8879
▁traitee	-11.888
su	-11.8882
▁accuses	-11.8884
ose	-11.8884
▁docile	-11.8884
▁demeler	-11.8887
▁italiennes	-11.8888
▁instituteurs	-11.8891
▁decourage	-11.8891
▁cc	-11.8892
▁determines	-11.8893
▁obstination	-11.8895
▁taillis	-11.8896
▁determinees	-11.8899
ker	-11.89
▁secouant	-11.89
ore	-11.89
▁impies	-11.8901
▁chairs	-11.8902
▁riuale	-11.8902
▁symbolique	-11.8904
▁federale	-11.8905
▁zeus	-11.8907
▁offrande	-11.8908
▁retentir	-11.8908
▁sta	-11.8908
▁may	-11.8909
▁paulin	-11.8914
▁ulenspiegel	-11.8915
fr	-11.8915
▁transmission	-11.8916
▁locaux	-11.8916
▁cauernes	-11.8916
▁brauo	-11.8917
▁chats	-11.8917
▁organises	-11.8917
▁idealisme	-11.8918
▁desireux	-11.8919
▁protester	-11.8919
▁regardee	-11.8924
▁deuorer	-11.8924
▁commercial	-11.8925
▁donnoit	-11.8927
▁inflexible	-11.8928
▁symphonie	-11.8928
▁armoire	-11.8928
▁changee	-11.8929
▁bertin	-11.8934
▁abondamment	-11.8935
▁uetemens	-11.8935
▁ioignant	-11.8935
▁hugues	-11.8935
▁momentanement	-11.8936
▁emeute	-11.8936
▁uiolents	-11.8937
ete	-11.8939
▁fondements	-11.8939
▁munich	-11.894
▁eclairait	-11.894
▁romantiques	-11.8944
▁mihi	-11.8944
▁chimeres	-11.8947
▁sonnets	-11.8947
▁comptoir	-11.8948
▁proclamation	-11.8948
▁aima	-11.8948
▁progression	-11.8948
▁rangee	-11.8949
▁ressuscite	-11.8949
▁empires	-11.895
▁caserne	-11.8951
▁uernis	-11.8951
▁penseurs	-11.8953
▁anniuersaire	-11.8955
▁reporter	-11.8955
▁grandit	-11.8956
▁cadres	-11.8956
▁occupant	-11.8957
▁cheuet	-11.896
▁bulle	-11.896
▁speculations	-11.8961
▁has	-11.8967
text	-11.8967
▁detestable	-11.8967
▁eclipse	-11.8971
ey	-11.8974
▁robustes	-11.8974
▁montpellier	-11.8975
▁mrs	-11.8975
▁roseaux	-11.8978
▁affront	-11.8978
▁basile	-11.898
▁cm	-11.8981
▁detenus	-11.8981
▁sols	-11.8986
▁oise	-11.8987
▁ingenieurs	-11.8988
▁prouinciales	-11.8988
▁mandarin	-11.8988
ele	-11.8989
▁prepares	-11.8991
▁cultiuateurs	-11.8992
▁economistes	-11.8993
▁mod	-11.8993
▁regulieres	-11.8993
▁emma	-11.8993
▁brigadier	-11.8995
▁realisme	-11.8995
▁entreprit	-11.8998
▁gronde	-11.9
incomprehensible	-11.9001
▁dernierement	-11.9001
▁charmants	-11.9003
▁soucie	-11.9003
▁fumer	-11.9004
▁alarmes	-11.9004
▁liurent	-11.9007
▁installation	-11.9008
▁mysterieuses	-11.9008
▁emission	-11.901
▁plie	-11.9011
▁doyen	-11.9016
▁libertin	-11.9017
▁parlerai	-11.9018
nam	-11.9023
▁gemir	-11.9025
▁etiquette	-11.9028
▁grenade	-11.9028
▁xxxiii	-11.9029
▁iournalistes	-11.9032
▁mentale	-11.9033
pu	-11.9033
▁thierry	-11.9034
▁paganisme	-11.9035
ome	-11.9035
▁simultanement	-11.9035
▁remy	-11.9039
▁bro	-11.9041
▁offerte	-11.9044
▁conuerti	-11.9045
▁moquer	-11.9046
▁saillie	-11.9047
▁exclamation	-11.9048
▁iugee	-11.9054
▁calmes	-11.9054
▁gorki	-11.9055
▁tibere	-11.9055
▁aramis	-11.9055
▁creations	-11.9055
▁emulation	-11.9056
▁regagner	-11.9056
▁constantes	-11.9056
▁arrose	-11.9057
▁macon	-11.9059
▁enchainement	-11.9059
han	-11.906
▁annoncant	-11.9061
▁fermement	-11.9063
▁tyr	-11.9064
▁lamentable	-11.9064
▁exactes	-11.9065
▁monarchique	-11.9065
▁denonce	-11.9068
▁bouge	-11.9069
▁arabie	-11.907
▁dechirer	-11.9071
roy	-11.9074
▁equipages	-11.9075
▁disposees	-11.9076
aut	-11.9077
▁coulait	-11.908
▁calc	-11.908
▁aieul	-11.9081
▁grades	-11.9082
▁lents	-11.9086
▁attentat	-11.9087
▁oo	-11.9088
▁assemblage	-11.9088
▁oraison	-11.9089
▁alles	-11.909
▁inuraisemblable	-11.9095
▁abstrait	-11.9096
▁denouement	-11.9096
▁imprimes	-11.9099
▁toucha	-11.9099
▁malte	-11.9101
▁dass	-11.9104
ero	-11.9104
▁suggere	-11.9107
▁eminence	-11.9108
▁milice	-11.9109
▁toscane	-11.9109
▁patrimoine	-11.9115
▁uigilance	-11.9115
▁apprentissage	-11.9115
▁hippocrate	-11.9115
▁brulait	-11.9116
▁foie	-11.9118
▁paraitra	-11.9118
▁antonin	-11.9119
▁conuenables	-11.9119
▁infailliblement	-11.9119
▁aisee	-11.912
▁oie	-11.9125
▁psychique	-11.9129
▁lacademie	-11.9129
▁indienne	-11.9135
▁cachees	-11.9135
▁crue	-11.9136
▁recois	-11.9136
ity	-11.9136
▁entendus	-11.9136
▁chanteurs	-11.9138
▁turque	-11.9138
▁uigoureusement	-11.9139
▁deborde	-11.914
▁liurait	-11.9142
▁sursaut	-11.9144
▁usure	-11.9148
▁creue	-11.9148
▁limpide	-11.9149
▁haies	-11.9151
▁cachot	-11.9152
▁retarder	-11.9152
▁egarer	-11.9152
▁exprimee	-11.9153
▁agiter	-11.9154
▁auidite	-11.9155
tiques	-11.9157
▁perou	-11.9158
▁ayder	-11.9159
▁ioua	-11.916
berg	-11.916
▁douteuse	-11.9163
▁comptent	-11.9163
rus	-11.9163
▁signee	-11.9163
▁pop	-11.9164
▁demandais	-11.9164
▁consciences	-11.9165
▁laurier	-11.9165
▁intrepide	-11.9166
▁malo	-11.9169
▁cuue	-11.9169
▁temerite	-11.9169
▁inclinaison	-11.9169
▁reuerence	-11.917
▁humblement	-11.917
▁sapins	-11.9175
▁inferiorite	-11.9176
▁deduire	-11.9176
▁considerons	-11.9176
▁emportant	-11.9181
we	-11.9183
▁sk	-11.9183
▁deplace	-11.9184
▁iou	-11.9185
▁embarquer	-11.9188
ios	-11.919
▁pathetique	-11.919
▁brigade	-11.919
ih	-11.9192
▁conformes	-11.9193
irent	-11.9194
▁reuu	-11.9194
▁paganel	-11.9196
▁fauche	-11.9198
▁christian	-11.92
▁masques	-11.9201
▁nain	-11.9202
▁entendais	-11.9202
▁nancy	-11.9203
▁amenes	-11.9205
▁primes	-11.9207
▁attribut	-11.9207
▁artificielle	-11.9207
▁inspirations	-11.9208
▁gel	-11.9209
▁portiere	-11.921
▁rumeur	-11.921
▁prescriptions	-11.9211
▁cuisses	-11.9213
▁representes	-11.9214
rer	-11.9215
▁fureurs	-11.9215
eh	-11.9215
▁obscures	-11.9216
▁uiolation	-11.9217
▁concorde	-11.9218
▁inedites	-11.9219
pou	-11.922
▁suiuez	-11.922
▁feliciter	-11.9221
▁palme	-11.9221
▁defendait	-11.9221
▁apocalypse	-11.9222
▁tourments	-11.9222
bal	-11.9223
▁inspiree	-11.9225
igny	-11.9226
▁mefiance	-11.9232
tard	-11.9233
▁parme	-11.9234
▁raide	-11.9237
▁entourage	-11.9237
▁machinalement	-11.9237
▁dominait	-11.9237
▁extra	-11.9239
▁paz	-11.9242
oui	-11.9243
dia	-11.9249
▁ang	-11.9249
cere	-11.9253
▁desirez	-11.9253
▁tunique	-11.9258
▁enui	-11.926
▁retrouuait	-11.9261
▁restez	-11.9263
isant	-11.9263
▁captiue	-11.9264
▁ieterent	-11.9265
▁gro	-11.9267
▁profitant	-11.9268
▁hymnes	-11.9269
ages	-11.9271
▁dedicace	-11.9272
▁heroine	-11.9272
▁entraina	-11.9272
▁uertueuse	-11.9273
▁mordaunt	-11.9278
▁mediocrite	-11.9278
▁graduellement	-11.9279
uri	-11.928
▁erudit	-11.9281
▁officiellement	-11.9285
▁slaue	-11.9285
▁serree	-11.9287
lui	-11.9287
▁mortier	-11.9289
▁porterent	-11.9291
▁inebranlable	-11.9292
▁precepteur	-11.9293
▁finira	-11.9295
▁seruie	-11.9297
▁ml	-11.9297
▁deguise	-11.9297
▁corbeau	-11.9298
▁propagation	-11.9298
▁soutint	-11.9298
▁incomplete	-11.9299
▁mollesse	-11.93
▁enchantement	-11.93
▁maitrise	-11.9305
▁restai	-11.9305
tia	-11.9306
▁arene	-11.931
fc	-11.9311
▁entraues	-11.9312
▁authentiques	-11.9312
▁bouleuerse	-11.9312
▁tablier	-11.9313
▁acception	-11.9313
lat	-11.9314
▁flatteur	-11.9315
▁professions	-11.9318
▁cellspacing	-11.9319
▁hopitaux	-11.9319
▁insouciance	-11.9319
▁fondamental	-11.9321
▁humilie	-11.9322
oie	-11.9323
chant	-11.9324
▁white	-11.9325
▁obseruant	-11.9325
▁tum	-11.9326
▁pretes	-11.9326
▁cessent	-11.9327
▁rousse	-11.9329
▁epuisee	-11.933
▁battus	-11.933
▁meure	-11.9333
▁retranche	-11.9333
▁nuisible	-11.9334
mt	-11.9334
▁enonce	-11.9336
▁mun	-11.9339
▁iupe	-11.9339
▁wilson	-11.9339
▁casimir	-11.934
▁appartenaient	-11.934
▁solliciter	-11.9342
nin	-11.9343
▁marees	-11.9345
ula	-11.9347
▁royalistes	-11.9351
▁xxxiu	-11.9354
▁bey	-11.9354
▁excessif	-11.9355
▁inconscient	-11.9355
▁douane	-11.9355
▁guette	-11.9356
▁demanderent	-11.9357
▁couloir	-11.9358
▁papillon	-11.9358
▁coran	-11.9359
▁uassaux	-11.936
▁medite	-11.9362
▁gite	-11.9363
▁sauuee	-11.9365
lor	-11.9367
▁dragons	-11.9369
▁wie	-11.9369
▁honorables	-11.937
▁poings	-11.937
▁optique	-11.9376
▁narration	-11.9376
▁uoyelle	-11.9376
▁designes	-11.9378
▁int	-11.938
▁limitee	-11.938
▁mignonne	-11.9381
▁doutait	-11.9382
▁secs	-11.9382
▁nicht	-11.9383
▁ualois	-11.9384
ken	-11.9384
af	-11.9385
gon	-11.9386
▁reuait	-11.9386
▁formel	-11.9389
▁lile	-11.9389
▁triomphant	-11.9393
▁humeurs	-11.9395
▁negatif	-11.9396
▁fie	-11.9397
euse	-11.9397
▁enseueli	-11.9397
▁indices	-11.9401
▁ioignit	-11.9402
▁concentration	-11.9402
▁uestiges	-11.9403
gra	-11.9405
▁cat	-11.9405
▁forca	-11.9407
▁marianne	-11.9408
▁dores	-11.9408
▁contemporaines	-11.9409
▁loisirs	-11.9409
ec	-11.9409
▁ioyeusement	-11.941
▁arm	-11.941
▁ip	-11.9414
▁precepte	-11.9416
▁combine	-11.9416
▁illustration	-11.9417
▁spirituelles	-11.9418
▁offres	-11.942
▁uizir	-11.9423
▁empechent	-11.9423
▁liberales	-11.9423
▁qe	-11.9424
▁examinant	-11.9426
▁refugie	-11.9426
▁uisiteur	-11.9428
▁tournent	-11.9428
▁sf	-11.9429
dt	-11.9429
▁champion	-11.9431
▁ite	-11.9433
▁consume	-11.9434
▁war	-11.9436
aw	-11.9437
▁assemble	-11.944
▁pref	-11.9442
▁af	-11.9442
▁dictature	-11.9443
▁uerge	-11.9447
▁lande	-11.9449
die	-11.9452
▁gilet	-11.9454
▁citerons	-11.9454
lii	-11.9455
▁qi	-11.9455
▁reuetir	-11.9456
iw	-11.9456
▁eme	-11.9458
▁pennes	-11.9459
▁repertoire	-11.9459
▁fermentation	-11.9459
▁releuee	-11.946
▁gomme	-11.9463
▁aride	-11.9465
▁posees	-11.9465
▁imprudent	-11.9467
gan	-11.9468
▁definie	-11.9471
▁combattants	-11.9475
▁copier	-11.9477
▁agitent	-11.9478
▁dogmatique	-11.948
▁sentinelle	-11.948
▁site	-11.9482
▁recueillies	-11.9484
▁oasis	-11.9485
▁clientele	-11.9485
▁economies	-11.9486
▁uoyelles	-11.9491
▁arriuerait	-11.9491
▁geants	-11.9492
cro	-11.9498
▁liaisons	-11.9498
ants	-11.9502
▁confiant	-11.9504
▁toises	-11.9504
▁rurale	-11.9504
▁alex	-11.9505
▁sabots	-11.9505
▁pensions	-11.9505
▁coteaux	-11.9505
▁predilection	-11.9506
▁alliances	-11.9508
▁nan	-11.9509
oy	-11.9511
ute	-11.9514
▁deployer	-11.9514
▁narines	-11.9514
▁dona	-11.952
▁charpente	-11.9522
▁tyrannique	-11.9522
ora	-11.9523
▁cylindre	-11.9523
har	-11.9523
▁eueche	-11.9524
▁ennemies	-11.9524
▁durkheim	-11.9527
▁adroitement	-11.9529
▁promenant	-11.9529
▁imagina	-11.9529
▁uicissitudes	-11.953
▁normands	-11.953
▁sibi	-11.9531
▁cis	-11.9532
▁galles	-11.9533
▁fatalement	-11.9537
▁rime	-11.9537
▁feras	-11.9537
▁positiues	-11.9538
▁interrompue	-11.954
▁pans	-11.954
▁concentre	-11.9542
▁friuole	-11.9543
▁fragile	-11.9543
▁culotte	-11.9545
▁restitution	-11.9548
▁departemens	-11.9548
▁dumont	-11.9549
▁preserue	-11.955
▁indirectement	-11.955
▁maudite	-11.9551
pour	-11.9552
▁semences	-11.9552
▁ardentes	-11.9552
eo	-11.9553
▁accents	-11.9553
▁mats	-11.9556
▁passionnement	-11.9556
▁oubliait	-11.9557
▁caste	-11.9557
▁rougeur	-11.9561
ros	-11.9561
▁droiture	-11.9561
▁doues	-11.9562
▁leroy	-11.9564
▁inepuisable	-11.9564
▁federation	-11.9564
▁substitution	-11.9564
▁sanglantes	-11.9565
▁faussete	-11.9565
▁arsenal	-11.9569
▁possedons	-11.9569
▁faudroit	-11.9569
▁geoffroy	-11.9569
▁alimentation	-11.9569
ili	-11.957
▁dominique	-11.957
▁flambeaux	-11.957
▁bourreaux	-11.957
▁barbey	-11.9571
▁eprouuent	-11.9572
▁enuieux	-11.9573
▁sorties	-11.9575
▁paroitre	-11.9577
oun	-11.9581
▁repetant	-11.9581
oth	-11.9581
▁emble	-11.9583
▁secousse	-11.9583
▁our	-11.9583
▁estat	-11.9584
▁traitait	-11.9584
▁lempereur	-11.9585
▁adhesion	-11.9585
▁couuercle	-11.9585
▁lue	-11.9586
▁scelerat	-11.9587
▁metalliques	-11.9587
bach	-11.9589
▁oisiuete	-11.9591
▁gallica	-11.9592
cle	-11.9592
▁iw	-11.9593
▁delegue	-11.9594
▁iaillir	-11.9594
▁prouincial	-11.9594
▁restees	-11.9595
▁iurer	-11.9595
▁suspension	-11.9595
▁cun	-11.9595
▁positiuement	-11.9597
▁clercs	-11.96
lement	-11.9601
▁persan	-11.9601
del	-11.9602
▁seduction	-11.9602
▁liqueurs	-11.9602
▁facteurs	-11.9604
▁disperses	-11.9605
▁imposante	-11.9606
▁parages	-11.9607
onne	-11.9609
▁mord	-11.9609
▁huissier	-11.961
▁sourds	-11.9611
▁refutation	-11.9612
▁engagemens	-11.9613
▁poumons	-11.9613
▁brutus	-11.9613
▁spirituels	-11.9613
▁lexique	-11.9613
▁efforcait	-11.9613
▁disette	-11.9614
▁applaudir	-11.9614
▁rayonnement	-11.9615
▁chars	-11.9619
▁prima	-11.962
▁accueillit	-11.9621
▁ecolier	-11.9628
▁clan	-11.9628
▁maroc	-11.9628
▁aptitude	-11.9628
ntes	-11.9629
▁declarant	-11.9631
▁confia	-11.9631
▁coi	-11.9639
iel	-11.9639
▁prolongee	-11.9642
▁etreinte	-11.9642
▁etale	-11.9645
ao	-11.9647
▁tn	-11.9648
▁progressiue	-11.9651
▁adroit	-11.9652
▁lytton	-11.9654
▁bontes	-11.9654
▁hambourg	-11.9654
▁obtenue	-11.9654
lou	-11.9655
▁disposait	-11.9656
▁disputes	-11.9659
▁finis	-11.9666
lla	-11.9667
▁timides	-11.9669
▁pretait	-11.967
▁alcan	-11.967
▁moustache	-11.9671
▁parterre	-11.9671
▁courante	-11.9672
▁souterrain	-11.9676
▁patois	-11.9676
▁uinci	-11.9677
my	-11.968
▁sauiez	-11.9682
▁appelees	-11.9682
dor	-11.9684
ali	-11.9686
lius	-11.9688
▁distinct	-11.9689
▁accompagnes	-11.9692
▁accordait	-11.9696
▁persuasion	-11.9697
▁colonisation	-11.9697
▁apparitions	-11.97
▁expliquait	-11.97
▁sobre	-11.97
▁renfermer	-11.9701
▁distinctions	-11.9702
▁ecoulement	-11.9703
▁preliminaires	-11.9705
▁repartir	-11.9705
▁enueloppes	-11.9705
▁originel	-11.9706
▁pressent	-11.9706
▁portail	-11.9708
bou	-11.971
▁pretendus	-11.9713
▁aug	-11.9715
▁etourdi	-11.9715
▁immortels	-11.9716
▁brulante	-11.9717
▁preualoir	-11.9718
▁french	-11.9718
▁delacroix	-11.9718
▁introduisit	-11.9718
▁porthos	-11.9718
▁craignent	-11.9719
▁consecration	-11.9719
▁rats	-11.9719
▁indiquant	-11.9721
▁etain	-11.9721
▁spontanee	-11.9724
▁ferment	-11.9724
▁diplomatiques	-11.9725
▁plonger	-11.973
▁futures	-11.9734
▁fatiguee	-11.9734
▁frappent	-11.9736
▁fluides	-11.9737
▁biiou	-11.9738
▁auch	-11.9738
▁scrutin	-11.9739
▁poursuiuant	-11.9739
▁erasme	-11.974
▁promettant	-11.974
▁conformation	-11.974
▁nerual	-11.9741
▁possedant	-11.9741
▁depenser	-11.9742
▁hemon	-11.9745
▁soupira	-11.9748
▁alterer	-11.9748
▁repondez	-11.9748
▁aidant	-11.9749
▁prospere	-11.976
▁cheures	-11.9761
▁bene	-11.9761
▁uilliers	-11.9761
▁carreaux	-11.9762
▁etroits	-11.9762
▁employait	-11.9764
zel	-11.9765
▁escompte	-11.9766
▁roubles	-11.9766
▁citation	-11.9767
▁marines	-11.9767
▁elans	-11.977
▁mau	-11.977
▁reueilla	-11.9771
▁god	-11.9771
▁innocents	-11.9773
▁nymphe	-11.9774
▁iulia	-11.9776
tiue	-11.9776
iac	-11.9777
▁irreprochable	-11.9779
▁refrain	-11.9779
▁ciuilise	-11.9779
▁odes	-11.9781
▁menus	-11.9782
▁reconciliation	-11.9783
▁echappait	-11.9785
▁priuations	-11.9786
▁fimes	-11.9787
▁rie	-11.9789
▁conseruant	-11.9789
▁entour	-11.9791
▁tonneau	-11.9792
▁engrais	-11.9795
▁uera	-11.9796
▁graueur	-11.9798
atus	-11.9798
▁dailleurs	-11.98
▁setait	-11.98
▁pensif	-11.98
▁captif	-11.9801
▁souffler	-11.9801
▁tranchant	-11.9803
▁deuenant	-11.9804
▁exprima	-11.9805
▁cale	-11.9805
▁poiure	-11.9806
sk	-11.9809
and	-11.9809
▁desaccord	-11.9811
▁amerement	-11.9811
▁succomber	-11.9812
▁sereine	-11.9814
▁cabinets	-11.9817
▁noyer	-11.9818
▁colin	-11.9821
▁presume	-11.9821
▁cloture	-11.9822
▁animer	-11.9824
▁rosa	-11.9825
▁house	-11.9825
ssons	-11.9826
▁ges	-11.9826
▁harpagon	-11.9826
▁attraits	-11.9827
▁circule	-11.9828
▁effrayee	-11.9829
int	-11.9829
▁correspondent	-11.9829
▁sine	-11.9829
▁foules	-11.983
▁entourer	-11.9832
tius	-11.9833
▁refusent	-11.9833
▁maries	-11.9833
▁plaise	-11.9836
▁accompagna	-11.9838
▁causant	-11.9839
▁pains	-11.984
▁funebres	-11.984
▁crurent	-11.9841
▁terra	-11.9842
▁dominent	-11.9845
▁priuation	-11.9845
▁arriuons	-11.9847
▁uicieux	-11.9848
▁assurait	-11.9851
▁iust	-11.9852
ag	-11.9853
▁douanes	-11.9853
▁discrete	-11.9854
▁apprends	-11.9855
▁pittoresques	-11.9855
▁dementi	-11.9857
▁lourdement	-11.9858
quet	-11.9859
▁fume	-11.9859
▁refusant	-11.9861
▁equitable	-11.9862
ill	-11.9862
▁pots	-11.9862
atio	-11.9863
▁ranimer	-11.9864
▁orgueilleuse	-11.9866
▁lustre	-11.9867
▁entrain	-11.9868
▁dapres	-11.9868
▁digitized	-11.9869
▁gratitude	-11.9869
▁uerbaux	-11.9869
▁petitot	-11.9869
▁produisait	-11.9869
▁gerardmer	-11.9869
▁resultent	-11.987
[...]
