<unk>	0
<s>	0
</s>	0
_s	-3.25126
_a	-3.48834
_t	-3.7727
_e	-3.97172
_i	-3.98776
_m	-4.12102
_re	-4.13516
s	-4.23354
_o	-4.4784
_te	-4.63169
_u	-4.65997
_de	-4.6861
_r	-4.71561
_tu	-4.74009
_ne	-4.79175
_ra	-4.79934
que	-4.85377
_ri	-4.89841
_li	-4.9025
_ui	-4.93246
_di	-4.93422
_n	-4.9858
_mi	-4.98755
_me	-4.99196
_si	-5.00095
_ta	-5.00246
_et	-5.01397
e	-5.01725
_ni	-5.03415
_pe	-5.04612
_co	-5.05515
_no	-5.10296
_ma	-5.11338
_se	-5.11605
_ca	-5.11982
_ue	-5.14468
_ti	-5.14989
_cu	-5.15191
_c	-5.18513
_su	-5.24132
_na	-5.24485
_ce	-5.24788
_la	-5.27914
_qui	-5.3154
m	-5.31663
_pa	-5.35263
_mo	-5.37621
_ci	-5.39099
_nu	-5.40469
t	-5.42139
_que	-5.43982
_le	-5.48333
_nt	-5.59678
_bi	-5.59945
_po	-5.60013
_in	-5.6016
_bu	-5.62502
_mu	-5.64257
_d	-5.64955
a	-5.68237
_du	-5.71174
_ru	-5.71399
_lu	-5.78292
_sa	-5.80074
_pro	-5.80174
_quo	-5.80651
_pi	-5.80951
_ge	-5.82526
_qua	-5.88892
_to	-5.89838
_pu	-5.92489
_fa	-5.95417
_do	-5.95807
_fe	-5.96981
_ro	-5.97282
_be	-6.01803
_nti	-6.01812
_nte	-6.0257
_fu	-6.03286
_gi	-6.04061
_so	-6.06026
_da	-6.06316
_hi	-6.09485
_lo	-6.09678
_ns	-6.10614
_ua	-6.10652
_uo	-6.14619
i	-6.19651
_non	-6.19841
_l	-6.20728
_x	-6.2156
_iu	-6.22492
_ho	-6.23106
_sque	-6.26196
re	-6.26814
_est	-6.32101
o	-6.34949
us	-6.35129
_ut	-6.40071
_nc	-6.41705
is	-6.43002
_sse	-6.45541
_mque	-6.4628
_fo	-6.47558
_per	-6.47813
_st	-6.48002
_fi	-6.53227
_sti	-6.53847
_ba	-6.55989
_lla	-6.56071
_nec	-6.61197
nt	-6.63013
_ga	-6.63451
_b	-6.6403
_ad	-6.64149
_ha	-6.64375
_tri	-6.64659
_lli	-6.67449
_cta	-6.68318
_nde	-6.68773
ta	-6.69176
_ia	-6.70754
_ndi	-6.73175
_cum	-6.74682
_lle	-6.7495
_sta	-6.75672
_gra	-6.7745
_pre	-6.77766
r	-6.78912
_qu	-6.78991
_quae	-6.83646
_pri	-6.84438
_bo	-6.86537
um	-6.88361
_tque	-6.89033
_ntu	-6.89109
_he	-6.90734
ns	-6.92503
ti	-6.93348
u	-6.94304
_gna	-6.94705
_tibi	-6.95029
_sed	-6.953
_spe	-6.97107
_nda	-6.97473
ne	-6.97554
ri	-7.00625
_pr	-7.01102
_atque	-7.01505
_ssi	-7.02282
_tra	-7.0344
_rte	-7.03592
rum	-7.03797
_cto	-7.04499
tus	-7.04777
_cla	-7.07396
ue	-7.08252
_xi	-7.08284
_quod	-7.08969
_stra	-7.0925
_iam	-7.09363
ni	-7.09724
_ste	-7.10924
_rum	-7.11283
_rti	-7.11602
_ex	-7.13057
_cre	-7.14322
_nta	-7.14608
li	-7.1566
_rta	-7.15769
_h	-7.16413
n	-7.17197
_hu	-7.17448
_sub	-7.17462
_nge	-7.18023
_sce	-7.19399
_sci	-7.20381
_sic	-7.2065
_nunc	-7.21272
_mpe	-7.23003
te	-7.25352
_go	-7.26669
_quid	-7.26955
_ab	-7.27125
_mihi	-7.27394
tis	-7.27638
_ctu	-7.27667
ce	-7.29065
na	-7.29189
at	-7.29207
_rtu	-7.30241
_dum	-7.33281
_uu	-7.33629
_haec	-7.34989
_hic	-7.37759
_rmi	-7.37946
ris	-7.38735
_mni	-7.3932
_quam	-7.39422
_rre	-7.41322
ci	-7.42735
uit	-7.42849
le	-7.4336
tur	-7.43648
mi	-7.44054
_stu	-7.45137
_gu	-7.45375
_pla	-7.46075
tum	-7.47273
_cti	-7.48405
di	-7.48912
_rri	-7.49261
to	-7.49968
_llu	-7.50218
_nsi	-7.52245
as	-7.52649
_ndo	-7.52725
_mpo	-7.55524
_rba	-7.55776
_nam	-7.56289
_ille	-7.57257
or	-7.58027
x	-7.58352
_ipse	-7.58565
_rma	-7.59324
cu	-7.59859
_llo	-7.6
_ac	-7.60706
ra	-7.62293
_cri	-7.62556
_spi	-7.63122
_lta	-7.63153
os	-7.63238
_tum	-7.63333
_fra	-7.64362
l	-7.66174
_aut	-7.66574
_stri	-7.68137
sque	-7.68224
_hoc	-7.68891
_pse	-7.6945
_gni	-7.70236
no	-7.70396
_flu	-7.71488
es	-7.71509
am	-7.71973
_ndu	-7.72514
_ssa	-7.72654
ui	-7.73224
_io	-7.73633
_at	-7.74751
_the	-7.75277
pi	-7.76196
_fla	-7.77156
_ntem	-7.77327
ur	-7.77599
_sto	-7.79085
_ly	-7.7924
_fle	-7.79472
_ssu	-7.79577
si	-7.79644
nis	-7.79746
sti	-7.79848
_rua	-7.79849
_illa	-7.80166
_gno	-7.80293
bat	-7.80982
_p	-7.8166
_nci	-7.82681
_rra	-7.84492
it	-7.84675
_tre	-7.84681
nus	-7.85118
_res	-7.85232
la	-7.85931
de	-7.86529
_tamen	-7.87312
_tua	-7.87579
_esse	-7.87719
_sit	-7.88198
_cru	-7.88298
_uel	-7.88567
_pta	-7.88906
_nto	-7.89596
_xe	-7.90062
ae	-7.9066
_con	-7.9245
_hinc	-7.92827
_sua	-7.9288
_quem	-7.93472
nda	-7.93558
_sunt	-7.93645
num	-7.94195
_semper	-7.94301
_rcu	-7.946
_ntes	-7.95553
_nsu	-7.95765
ro	-7.96217
_ude	-7.96515
_mne	-7.98656
_nce	-7.98975
_cte	-7.99304
_rgo	-8.00324
ca	-8.00707
_xa	-8.01212
_gre	-8.01251
_rgi	-8.02164
_udi	-8.02309
cta	-8.02401
_rbe	-8.02831
tu	-8.03315
_ego	-8.03923
_rna	-8.04016
bus	-8.04073
em	-8.04516
_plu	-8.04572
_cce	-8.05371
_ncta	-8.05745
_cui	-8.05775
_inter	-8.05904
dit	-8.0608
_rsu	-8.06175
bi	-8.06742
ua	-8.06828
_rdi	-8.07177
unt	-8.07325
ere	-8.07721
c	-8.07978
_prae	-8.08043
_rbi	-8.08808
be	-8.09115
me	-8.09829
_ltu	-8.10535
do	-8.10837
_mea	-8.10997
_ngui	-8.11572
uo	-8.11659
ret	-8.11759
pe	-8.12311
_ple	-8.13637
_lti	-8.13997
ndi	-8.14218
_fuit	-8.14534
_tam	-8.15051
_sca	-8.15176
_cra	-8.15451
_bra	-8.15649
_tru	-8.15821
_rni	-8.16042
ant	-8.16662
_mma	-8.167
gi	-8.17434
_quis	-8.17547
_fre	-8.17701
_tunc	-8.1785
_ubi	-8.18331
_psa	-8.18911
co	-8.19454
_cy	-8.19522
bit	-8.19721
_lte	-8.19759
_simul	-8.19933
_tro	-8.19939
_ante	-8.20101
ia	-8.20204
_rge	-8.20626
_nque	-8.20885
_omnia	-8.21057
_pater	-8.21397
bo	-8.21425
_scu	-8.21436
_ipsa	-8.21521
_quos	-8.2207
_fru	-8.22582
lo	-8.23135
_erat	-8.2344
_flo	-8.2344
_rsa	-8.2358
_post	-8.23947
sse	-8.23947
_rem	-8.24207
_lto	-8.25694
_rde	-8.25846
_bri	-8.26009
_inde	-8.26017
_sibi	-8.26037
_rque	-8.26251
_rs	-8.26611
_arma	-8.26912
ntem	-8.27202
_omnes	-8.27445
_ore	-8.27466
ibus	-8.27535
_modo	-8.27668
ter	-8.27719
_rce	-8.28027
_ora	-8.2872
_stro	-8.28751
nti	-8.28779
da	-8.30023
_xu	-8.3013
_sine	-8.30158
_nui	-8.30493
ens	-8.30583
_nulla	-8.30603
_nos	-8.30895
_nfe	-8.31057
et	-8.31282
ntur	-8.31291
_mmi	-8.31484
_f	-8.31546
tor	-8.31785
_ty	-8.31836
_rpe	-8.32081
ge	-8.32754
_amor	-8.33197
mo	-8.33416
_g	-8.33475
_quoque	-8.34198
_sy	-8.34811
_chi	-8.34926
_etiam	-8.35041
_lci	-8.35229
mus	-8.35551
nte	-8.35723
_ph	-8.3635
dis	-8.36477
ntes	-8.36601
lla	-8.36673
pa	-8.36729
sit	-8.37064
_tur	-8.37184
tas	-8.37214
lli	-8.37596
_scri	-8.37957
lis	-8.38127
_nobis	-8.38305
_cur	-8.39092
_nsa	-8.39105
uis	-8.39226
_tantum	-8.39536
cus	-8.39655
_rpo	-8.39675
_ob	-8.40491
_fro	-8.4081
ma	-8.40919
_turba	-8.41257
_rmo	-8.41525
_heu	-8.41682
fi	-8.41847
_ergo	-8.4194
po	-8.42283
tos	-8.42383
rat	-8.42476
_mbra	-8.42575
_nse	-8.42765
du	-8.42954
_spa	-8.43128
_nil	-8.43242
_mmo	-8.43259
lu	-8.43365
_cci	-8.43381
_gne	-8.44115
bant	-8.44608
_pectore	-8.44731
rus	-8.44809
_rsi	-8.45022
cis	-8.45616
_ris	-8.45642
_mpi	-8.46113
_ntra	-8.47608
_spo	-8.47854
_super	-8.48536
dum	-8.48639
_carmina	-8.48721
_ngi	-8.49114
_erit	-8.49327
_ntum	-8.49778
_uos	-8.50412
ndo	-8.50765
fu	-8.51757
mque	-8.5186
_bella	-8.52024
_mox	-8.52036
_mple	-8.52236
_magis	-8.52378
_seu	-8.52784
_nostra	-8.52887
_hy	-8.52888
_ntis	-8.53107
_quibus	-8.53499
git	-8.53818
_nomen	-8.53826
qui	-8.5389
_sacra	-8.5397
_ure	-8.54049
so	-8.543
cti	-8.54369
_pti	-8.54502
_cuncta	-8.54765
_his	-8.55074
_ncu	-8.55083
_cura	-8.55594
_hunc	-8.56046
er	-8.56628
lle	-8.57283
_uro	-8.58037
_glo	-8.58394
p	-8.58907
_una	-8.59025
_gnu	-8.59168
_pha	-8.59358
_num	-8.59494
_lce	-8.59604
_bat	-8.60025
_fata	-8.60061
_olim	-8.60302
_tot	-8.60628
_sco	-8.60711
nde	-8.60798
_ccu	-8.60806
_tanta	-8.6086
_lue	-8.60897
_alta	-8.61041
men	-8.61625
_mpu	-8.6165
_forte	-8.61748
_decus	-8.61943
_ngu	-8.62043
ctus	-8.62069
_dies	-8.62205
ntibus	-8.62454
_niu	-8.628
_usa	-8.62963
_bla	-8.63042
_rui	-8.63208
_rbem	-8.63496
_armis	-8.63877
_rne	-8.64049
_tandem	-8.64246
_multa	-8.64779
_rru	-8.64803
lia	-8.65041
cto	-8.65578
_circum	-8.65689
ga	-8.66896
_regna	-8.67292
pta	-8.67464
_hanc	-8.67723
dus	-8.67774
nos	-8.68233
_saepe	-8.68573
_deus	-8.68728
_haud	-8.68766
_ncti	-8.69326
_sanguine	-8.69524
_magna	-8.69554
_data	-8.70005
_an	-8.70133
_rerum	-8.70291
per	-8.70441
_rga	-8.70471
_quondam	-8.70591
_ffi	-8.70608
_dedit	-8.70722
mis	-8.71991
_bli	-8.72025
_caput	-8.72056
_uix	-8.7229
_rnu	-8.72911
_manu	-8.73165
_rda	-8.73199
_llis	-8.73287
_opus	-8.73366
_manus	-8.73482
_uri	-8.73499
_gloria	-8.73679
_rro	-8.74066
ctis	-8.7456
_mens	-8.74719
_cro	-8.74811
_licet	-8.74958
ctum	-8.75203
_ntur	-8.75242
_unde	-8.75535
_nga	-8.76096
_chri	-8.76383
_nnu	-8.76448
_ud	-8.76599
_signa	-8.76681
_pectora	-8.7674
ru	-8.76934
_lsa	-8.76947
_illi	-8.77267
_uita	-8.77353
_omne	-8.77562
les	-8.77866
_uda	-8.77924
pu	-8.78094
_rme	-8.78896
bis	-8.78908
cum	-8.79022
_tempora	-8.79139
_procul	-8.79643
_ffu	-8.79669
_mme	-8.79707
_xo	-8.7977
_rpu	-8.80072
_hominum	-8.80194
xt	-8.8049
_rci	-8.80918
ces	-8.80972
_nni	-8.81468
_nue	-8.81855
_ura	-8.82249
_tto	-8.82401
_habet	-8.82595
_omnis	-8.82682
_pra	-8.82757
mur	-8.82817
nas	-8.82929
ntia	-8.8324
_sola	-8.83366
gat	-8.83451
_nqua	-8.83698
_igitur	-8.83978
_hac	-8.84085
_nco	-8.84126
_noua	-8.84365
_ptu	-8.8445
_due	-8.84509
talia	-8.84768
he	-8.84819
_genus	-8.85112
nu	-8.85308
_uirtus	-8.85687
tra	-8.86266
_tha	-8.8629
ram	-8.86623
_uerba	-8.86648
fe	-8.86739
_suis	-8.86875
xit	-8.87043
_home	-8.87617
_cha	-8.87777
_ffe	-8.88059
_huc	-8.88186
_cho	-8.8841
_enim	-8.88442
rent	-8.89002
_quin	-8.89432
cumque	-8.89723
_nisi	-8.89776
spi	-8.90045
_bre	-8.90064
gre	-8.90129
_usque	-8.9035
_puer	-8.90479
tam	-8.90494
_diu	-8.90679
des	-8.90686
_tempore	-8.90714
lum	-8.90998
tat	-8.9108
_quu	-8.91411
bu	-8.91449
_lmi	-8.91505
_facta	-8.9175
tro	-8.91885
_digna	-8.91985
_stru	-8.92162
_nsta	-8.92275
_phi	-8.92425
ntis	-8.92573
ssa	-8.92628
_nihil	-8.92726
_lui	-8.92737
_laeta	-8.92749
nae	-8.92837
the	-8.93012
_rbo	-8.93084
_fri	-8.93106
ssi	-8.93834
_tuis	-8.93994
_rno	-8.94075
_anceps	-8.94314
_longa	-8.94499
runt	-8.94537
_lumina	-8.94591
_amore	-8.94607
_fama	-8.94635
_iter	-8.94827
_postquam	-8.9568
_rebus	-8.9576
_quas	-8.95905
_animo	-8.95925
_ter	-8.95989
proiect	-8.96108
_dona	-8.96362
_fortuna	-8.96382
_hec	-8.96545
_nso	-8.96898
xi	-8.96943
_xpe	-8.96947
etidi	-8.96984
pro	-8.9701
_nqui	-8.97016
_urbem	-8.97162
_orbe	-8.97231
_astra	-8.97305
_rex	-8.97438
_ndis	-8.97661
_imp	-8.97798
ychar	-8.98074
_cuius	-8.98375
lus	-8.9842
_tuo	-8.98522
ria	-8.98668
_gla	-8.98756
_uitae	-8.98827
_numina	-8.98877
pre	-8.99135
_rto	-8.99219
_prima	-8.99544
sha	-8.99859
_membra	-9.00269
hi	-9.00683
_alto	-9.00708
_ecce	-9.00933
_primum	-9.01229
cat	-9.01297
_suo	-9.01356
_quidem	-9.01688
_gri	-9.01725
_quando	-9.0194
ly	-9.02181
ber	-9.02213
_arte	-9.02302
tri	-9.02397
_uenus	-9.02458
_ddi	-9.02527
_uoce	-9.02633
st	-9.03211
_squa	-9.03903
_cli	-9.03985
_tho	-9.04193
_dem	-9.04214
_bene	-9.0428
_lge	-9.04467
tibus	-9.0449
_mpla	-9.0473
_nis	-9.04821
_satis	-9.05015
_munera	-9.05517
_mente	-9.05638
_namque	-9.05933
_xte	-9.06157
chi	-9.06511
_ferre	-9.06687
_iura	-9.0681
mine	-9.06881
_bru	-9.07079
_sidera	-9.07111
_llum	-9.07119
rit	-9.07183
_contra	-9.07195
_stre	-9.07435
_sese	-9.07439
rti	-9.07446
_sso	-9.07537
_alter	-9.07549
_my	-9.07608
_carmine	-9.0777
_terra	-9.07785
_ista	-9.07808
_mst	-9.07902
_uires	-9.08162
_nostris	-9.08872
_urbe	-9.09049
tia	-9.09207
_ppi	-9.09388
_ny	-9.09484
_sum	-9.09687
_mille	-9.09735
_certa	-9.0975
dere	-9.09752
_deum	-9.09891
_psi	-9.10074
_late	-9.10143
_dde	-9.10514
_sol	-9.106
_corpore	-9.10602
_ntque	-9.10637
nam	-9.1075
dem	-9.10843
_aurea	-9.10871
dunt	-9.10914
_dei	-9.10957
tes	-9.11181
det	-9.11453
ndum	-9.11532
_tanto	-9.11551
_ll	-9.11631
_uenit	-9.11664
_sint	-9.11821
_rdu	-9.11832
_id	-9.11897
_toto	-9.11925
_mpa	-9.12103
d	-9.1237
dens	-9.12457
g	-9.12497
_ulla	-9.1261
gno	-9.12705
pri	-9.12787
_rca	-9.12813
_ngo	-9.12849
stri	-9.12946
bri	-9.13242
uere	-9.13333
ha	-9.13804
_mnes	-9.13849
ba	-9.13852
_undis	-9.1403
_omni	-9.14064
_illum	-9.14471
_unda	-9.14564
_terris	-9.14713
_felix	-9.15008
nia	-9.15056
_undique	-9.15265
_causa	-9.15406
_dura	-9.15576
io	-9.15675
_rt	-9.15744
fo	-9.15915
_medio	-9.16069
tae	-9.1619
_en	-9.16229
_ctus	-9.16379
_summa	-9.16565
tem	-9.16733
umque	-9.16734
_longe	-9.16985
gis	-9.17031
get	-9.17157
_quicquid	-9.17164
_prius	-9.173
_lua	-9.17375
_uero	-9.17477
nge	-9.1748
_omnibus	-9.17526
_age	-9.17528
cre	-9.17636
sta	-9.17745
_nomine	-9.17846
cte	-9.17909
_um	-9.17937
_rpi	-9.18009
_uitam	-9.18099
nat	-9.18254
_xci	-9.18306
_pars	-9.18313
_xtra	-9.18454
ctu	-9.18477
ribus	-9.18526
sci	-9.187
_magno	-9.1872
_posse	-9.18741
_quantum	-9.19017
go	-9.1914
_domus	-9.1925
qua	-9.19277
_animos	-9.19638
_dat	-9.1973
_mater	-9.19758
_rso	-9.1978
_pte	-9.19842
_nnis	-9.19872
_men	-9.19956
sum	-9.20006
_rtus	-9.20028
_ira	-9.20128
dos	-9.20158
hu	-9.20417
_ndum	-9.20455
_al	-9.20555
rri	-9.20578
ndus	-9.20895
_nostro	-9.21012
_ttu	-9.21061
_tte	-9.21318
_mpli	-9.21384
_mors	-9.2139
_umbra	-9.21465
_gaudia	-9.21622
scit	-9.2175
_ppe	-9.21889
_ps	-9.22038
_tecta	-9.22569
_orbem	-9.22609
scere	-9.22842
_fera	-9.22879
_tota	-9.22955
_protinus	-9.22983
bile	-9.23025
tent	-9.231
_rue	-9.23374
gna	-9.23572
_tuum	-9.23642
_mora	-9.23735
_magni	-9.24039
gra	-9.24254
res	-9.24324
cet	-9.24398
_uates	-9.24479
_tellus	-9.24512
_interea	-9.24548
_forma	-9.24696
tio	-9.24846
_par	-9.24945
_ngue	-9.25082
_ingens	-9.25278
_auras	-9.25288
_rbis	-9.25445
_uirgo	-9.25539
_tor	-9.25602
_animi	-9.25614
_oculis	-9.25744
_oculos	-9.25945
dam	-9.26359
_uerum	-9.2638
cos	-9.26432
_siue	-9.26469
_sple	-9.26659
_caeli	-9.26672
_bona	-9.26746
pti	-9.26864
_uertice	-9.2691
_cqui	-9.26988
nibus	-9.27322
_duce	-9.27363
_spes	-9.27398
_ncto	-9.27425
_hos	-9.27531
pli	-9.2758
_bis	-9.27703
_py	-9.27892
_tempus	-9.27894
cia	-9.28239
_moenia	-9.28257
_minus	-9.28627
_para	-9.28746
_ast	-9.28774
ent	-9.28775
_illis	-9.28803
dent	-9.29034
_subito	-9.29076
_tulit	-9.29292
_mmu	-9.29443
_bs	-9.29514
_corpora	-9.29524
llum	-9.29624
_nostri	-9.2975
_uirum	-9.30068
_nfi	-9.30078
_corda	-9.30233
_quia	-9.30241
_grata	-9.30325
_illic	-9.30328
_maxima	-9.30535
_precor	-9.30626
_ordine	-9.3072
_annos	-9.30861
_tti	-9.30916
_arua	-9.30935
cens	-9.31104
_urbes	-9.31364
_dux	-9.3165
_fides	-9.31836
_clara	-9.32041
_rdo	-9.32054
_loca	-9.32081
_potest	-9.32446
_pia	-9.32476
_pto	-9.32603
rem	-9.32605
_nctu	-9.3269
_rtis	-9.32739
_dextra	-9.32858
_facit	-9.32964
_coeli	-9.33014
_dic	-9.33292
_ita	-9.33362
bunt	-9.33418
_mala	-9.33531
ros	-9.33541
_petit	-9.33629
_parte	-9.33735
_quamuis	-9.33984
_huic	-9.3401
_patriae	-9.34297
_solus	-9.34305
_nne	-9.34393
_terras	-9.34399
_natura	-9.34447
_nstra	-9.34462
_rgu	-9.34473
_nno	-9.34691
y	-9.34714
_nocte	-9.3477
_mira	-9.34951
tius	-9.34964
_ruo	-9.35093
gens	-9.35297
_uirtute	-9.35435
_bello	-9.3545
gni	-9.35498
pto	-9.35593
_iouis	-9.35663
cere	-9.3567
_gens	-9.35827
_pariter	-9.35961
_opes	-9.36273
_corpus	-9.36329
_uiri	-9.36378
uisse	-9.36385
_stqua	-9.3653
pis	-9.36796
_cunctis	-9.36894
_audi	-9.36926
bam	-9.37069
_auro	-9.37216
phi	-9.37302
clu	-9.37305
_luce	-9.37646
_colla	-9.37696
pere	-9.37729
_ait	-9.37769
_tuos	-9.37965
tare	-9.38145
_autem	-9.38204
uum	-9.38285
_more	-9.38289
_pho	-9.3855
_lux	-9.38623
_cca	-9.38697
_ndam	-9.38755
_aura	-9.38797
_talia	-9.38937
_unus	-9.39235
_phe	-9.39243
_coelo	-9.39358
_male	-9.39463
spe	-9.39471
_mpha	-9.39633
cunque	-9.3967
_nota	-9.39733
_maior	-9.40027
_bant	-9.40078
_uera	-9.40082
cem	-9.40154
_mbi	-9.40347
_uota	-9.40437
_mores	-9.40596
_sancta	-9.40646
_serua	-9.40826
_undas	-9.40988
_uictor	-9.41039
_lma	-9.4107
_nxi	-9.41096
ius	-9.41127
_mentem	-9.41165
ndere	-9.41439
_bse	-9.41534
_trans	-9.41616
cha	-9.41669
_uer	-9.41733
_michi	-9.41802
_stris	-9.41848
_candida	-9.4186
bas	-9.4188
ras	-9.4193
_castra	-9.4216
_suos	-9.42215
fa	-9.4238
_diuum	-9.42485
_saeua	-9.42495
_thu	-9.42701
nes	-9.4279
_animum	-9.43109
_nimium	-9.43118
ntum	-9.43177
_dixit	-9.43308
_nullo	-9.43341
_passim	-9.43426
_roma	-9.43548
_uras	-9.43584
ptum	-9.4367
ndis	-9.43718
_uit	-9.4376
_xti	-9.43859
_nca	-9.4386
cunt	-9.4388
_aequa	-9.43927
_saxa	-9.44059
_uultu	-9.44205
_summo	-9.44313
_puella	-9.44318
_tela	-9.44342
_iuuat	-9.44361
_nunquam	-9.4437
uus	-9.44403
_tenet	-9.44661
_carmen	-9.44693
_mundi	-9.44858
_flore	-9.44937
_uobis	-9.4512
_ic	-9.45258
ry	-9.45355
_annis	-9.45415
_suum	-9.45436
_labores	-9.45521
_morte	-9.45727
gas	-9.45861
h	-9.45958
_rmu	-9.46437
rre	-9.4647
_pugna	-9.46743
llo	-9.46867
_nfa	-9.4701
_tecum	-9.47077
cas	-9.47107
gere	-9.47307
_dolor	-9.4748
_bro	-9.47485
llis	-9.47547
_unum	-9.47559
gunt	-9.4761
_dicere	-9.47637
cio	-9.47676
sis	-9.47713
_pectus	-9.4782
_iterum	-9.47945
rae	-9.48027
_frustra	-9.48059
_manibus	-9.48234
_meis	-9.48347
_ah	-9.48538
das	-9.48615
cent	-9.48912
_quaeque	-9.48933
rant	-9.48935
_tene	-9.49058
mum	-9.49213
_fuga	-9.49267
_miser	-9.49393
_capi	-9.49422
_horre	-9.49487
_xtre	-9.49582
_thi	-9.49629
_nnos	-9.49645
ans	-9.49668
_pru	-9.4976
_foret	-9.49974
_laudes	-9.49989
_xta	-9.50042
_conf	-9.50117
are	-9.50207
_quot	-9.50526
_usi	-9.50526
rius	-9.50567
_pastor	-9.50569
_fert	-9.50901
los	-9.5098
_usu	-9.51049
_mecum	-9.51103
_hostes	-9.51109
_stat	-9.51322
_ferro	-9.51404
dia	-9.51407
_flumina	-9.51547
_mbo	-9.51658
_nimis	-9.52085
_multo	-9.52121
_regis	-9.52292
_nomina	-9.52382
cula	-9.52431
ctos	-9.52441
_belli	-9.52471
_nata	-9.52487
rci	-9.52493
_animis	-9.5264
_munere	-9.52894
_time	-9.52919
_mna	-9.5297
_bit	-9.53059
_lsi	-9.53128
_mbri	-9.53138
_lege	-9.53175
_uale	-9.5324
_uelut	-9.53269
_honore	-9.53358
_gentis	-9.53491
thi	-9.53571
mu	-9.53626
lem	-9.53703
_uiros	-9.53705
_solum	-9.53796
_templa	-9.53811
_urbis	-9.53898
_patria	-9.53924
_idem	-9.53984
_patris	-9.53996
_sinu	-9.54024
_longo	-9.54057
_mqua	-9.54074
_uocat	-9.54097
_pli	-9.54107
ssis	-9.54138
_ppo	-9.54172
_diem	-9.54254
_tui	-9.54306
_acies	-9.54355
_quisque	-9.54374
_sty	-9.5445
cor	-9.54525
gu	-9.54713
_rura	-9.54734
_uiribus	-9.55
_porta	-9.55138
f	-9.55184
bra	-9.55213
dat	-9.55337
_secum	-9.55502
_gro	-9.55674
_ndas	-9.55737
_monstra	-9.55739
_iamque	-9.55779
cla	-9.56168
_mbe	-9.56229
_deos	-9.56297
_adeo	-9.56352
_deorum	-9.56456
_terga	-9.56615
on	-9.56648
_christi	-9.56872
ar	-9.56912
_lumine	-9.56933
_lca	-9.57059
_gratia	-9.57226
ssima	-9.57243
_honores	-9.57341
_uso	-9.57436
_pari	-9.57501
_llos	-9.57808
_ingenti	-9.57889
_damna	-9.58042
_cor	-9.58246
rta	-9.58272
_adhuc	-9.58338
stis	-9.58357
_populos	-9.58445
_dira	-9.58502
_furor	-9.58845
_regem	-9.58996
_lum	-9.59145
_dicta	-9.59297
_che	-9.59332
_ceu	-9.59382
_uulnera	-9.59441
_uxi	-9.59559
_uultus	-9.59623
_plus	-9.59748
one	-9.59822
_labor	-9.59878
_uoca	-9.5997
_igne	-9.59975
_llas	-9.60016
_ze	-9.60158
_qualis	-9.60183
_orbis	-9.60278
bilis	-9.60321
_deo	-9.60423
dita	-9.60524
_uisa	-9.60565
_plurima	-9.60692
_ama	-9.60739
_quanta	-9.60923
_cle	-9.61003
duc	-9.61031
tet	-9.6111
cant	-9.61154
_comple	-9.61195
sce	-9.61236
_artus	-9.61375
orum	-9.61472
_certe	-9.61493
_aures	-9.61822
_uidere	-9.61889
_parua	-9.62001
_oris	-9.62016
_plena	-9.62082
_y	-9.62167
_mari	-9.62175
_agmina	-9.6219
_agros	-9.62205
_phy	-9.62483
bere	-9.6259
_musa	-9.62683
_uidit	-9.62815
_lim	-9.62822
_cupido	-9.62955
_quoniam	-9.62957
_uerbis	-9.63106
luit	-9.6317
_populi	-9.63227
_meo	-9.63264
_pueri	-9.63292
_sedes	-9.6335
nta	-9.63437
_comp	-9.63616
_soli	-9.63636
_uir	-9.63899
_spu	-9.63953
phe	-9.64188
tior	-9.64344
ste	-9.64382
_mori	-9.64434
rra	-9.64493
_agit	-9.64586
_uiuere	-9.64624
_tem	-9.64723
_praemia	-9.65148
_ultro	-9.65154
_primus	-9.65222
_ram	-9.65847
tant	-9.65864
_solo	-9.66249
_gesta	-9.66393
rens	-9.6643
_mentis	-9.66451
_apollo	-9.6646
mina	-9.66573
_hostis	-9.66602
_caelo	-9.66645
rgi	-9.67114
_corde	-9.67205
_dulcis	-9.67397
_ire	-9.67413
met	-9.67426
_princeps	-9.67523
_dulci	-9.6759
dae	-9.67856
_ltro	-9.6799
nius	-9.67995
_adest	-9.68041
_totum	-9.68141
_uum	-9.68232
_marte	-9.68315
_uestigia	-9.68328
uerat	-9.68357
_aetas	-9.68417
sset	-9.68424
_dare	-9.685
_liber	-9.68593
_ipsum	-9.686
cho	-9.68645
atur	-9.6871
_uci	-9.68749
_cursu	-9.68825
_eadem	-9.69015
_rbes	-9.69126
_potuit	-9.69145
_ignes	-9.69246
_ngua	-9.69332
_uaga	-9.69801
_graui	-9.69874
sto	-9.69926
_fuerat	-9.69953
_aera	-9.69975
pho	-9.70007
_quum	-9.70028
libus	-9.70045
_lingua	-9.70131
_merito	-9.70151
_ros	-9.70192
_domi	-9.70265
_arce	-9.70279
_specta	-9.70383
_exi	-9.70386
gant	-9.70457
_tanti	-9.70497
erat	-9.70532
isse	-9.70534
uri	-9.70546
_mui	-9.70776
fer	-9.70795
_rcum	-9.70848
_alios	-9.71072
_altis	-9.71145
_iubet	-9.71251
_nullus	-9.71345
_pietas	-9.71345
_caesar	-9.71382
che	-9.71622
_multis	-9.71808
xe	-9.72
_memor	-9.7206
cce	-9.72083
_denique	-9.72133
_nox	-9.72215
_nna	-9.72323
_puellae	-9.72346
_sole	-9.72477
_illius	-9.72502
_ciues	-9.72567
_uere	-9.72731
ngit	-9.72761
nni	-9.73036
_nemo	-9.73059
_uru	-9.73109
_alma	-9.73136
_fugit	-9.73305
_uno	-9.73436
_iuppiter	-9.73439
_refer	-9.73552
xerat	-9.73732
_auri	-9.73844
_uestra	-9.73851
_ctri	-9.73876
_duces	-9.73901
_inquit	-9.74013
_ingenio	-9.74022
sco	-9.74025
_poli	-9.74133
stre	-9.74185
rto	-9.74296
_trem	-9.74366
_numine	-9.74469
_llam	-9.74488
_numen	-9.74554
_primo	-9.74573
_alii	-9.74584
_melius	-9.74601
_penitus	-9.74875
_rtes	-9.74878
_meritis	-9.7497
tho	-9.74975
_uidet	-9.74989
_terrae	-9.75037
_stas	-9.75308
ncta	-9.75455
_casus	-9.75456
_thy	-9.75483
_	-9.75607
_scelus	-9.75619
_heros	-9.75666
_infelix	-9.75733
_chry	-9.75739
_genitor	-9.75741
erit	-9.75742
_parat	-9.75947
_altera	-9.75965
_mum	-9.76045
_media	-9.76109
uerit	-9.7611
_curas	-9.76132
_parens	-9.7616
_homines	-9.76177
_immo	-9.76256
ffi	-9.76437
_quies	-9.76455
_nquam	-9.76467
_ducis	-9.76472
_ltus	-9.76491
_oras	-9.76571
_funera	-9.76609
_fronte	-9.76644
llus	-9.77126
_potes	-9.7723
_imperium	-9.77341
_pulchra	-9.77341
_domos	-9.77604
_diuina	-9.77678
_aquas	-9.77766
_dam	-9.77796
_possit	-9.77815
_lustra	-9.77934
ior	-9.77947
rumque	-9.78079
uers	-9.78196
_coelum	-9.7824
_quorum	-9.7836
_donec	-9.7838
_nefas	-9.78408
_tuae	-9.78418
_rursus	-9.78528
_uotis	-9.78559
_reges	-9.78954
_aequora	-9.78969
_ute	-9.79266
_huius	-9.79273
enda	-9.79384
b	-9.79397
_mplo	-9.79507
_phry	-9.796
cae	-9.79697
_ctum	-9.79701
ulus	-9.79724
_datur	-9.79768
_mno	-9.79776
ssum	-9.79785
_habere	-9.79945
_pso	-9.79994
_uult	-9.80067
eris	-9.80132
quam	-9.80203
stat	-9.80211
_terre	-9.80278
_flamma	-9.8029
_imperio	-9.80333
onis	-9.80383
_dri	-9.80419
_potius	-9.80474
_docta	-9.80645
_grauis	-9.80783
_scilicet	-9.80943
rte	-9.80966
_meum	-9.81007
_gentes	-9.8103
_illo	-9.81066
menta	-9.81232
_atra	-9.81289
_has	-9.8155
_nuper	-9.81556
_dabit	-9.81638
_comes	-9.81642
_lsu	-9.81665
_regum	-9.8178
_ingenium	-9.81864
_labe	-9.81897
ndens	-9.82021
sso	-9.8209
_dictis	-9.82111
_rse	-9.82174
_limina	-9.82276
_molli	-9.82282
_regia	-9.82295
ctor	-9.82361
_duo	-9.82387
_metu	-9.82665
nna	-9.82672
_stella	-9.82704
_patriam	-9.82708
ique	-9.82839
stra	-9.82884
_uersa	-9.82994
_omnem	-9.83049
_fronde	-9.8308
_uaria	-9.83121
_magnum	-9.83263
_nostros	-9.83311
_nigra	-9.83355
_artes	-9.834
osa	-9.8344
rni	-9.83472
lam	-9.83535
_fecit	-9.83747
_oscula	-9.83912
_iste	-9.83918
lio	-9.83925
_impia	-9.83965
_leges	-9.84021
_nd	-9.84046
_iussa	-9.84079
cuit	-9.84141
dor	-9.84214
_fit	-9.84279
_cantu	-9.84339
_solet	-9.84342
_str	-9.84463
_patrem	-9.84503
xere	-9.84584
rsa	-9.84588
_acer	-9.84649
osque	-9.84698
_casta	-9.84823
derat	-9.84835
_aquis	-9.84855
_lauda	-9.84966
_phoebus	-9.84996
_ula	-9.85042
_potens	-9.85054
ente	-9.85117
_nostrum	-9.8512
_ltum	-9.85151
_fer	-9.85168
_habe	-9.85341
_bsi	-9.85349
dant	-9.85434
tans	-9.85481
_tantis	-9.85578
_quisquis	-9.85636
_subit	-9.8573
_laude	-9.85766
_iacet	-9.8588
_fidem	-9.8594
_pede	-9.86063
_uti	-9.86215
_amat	-9.86222
_mane	-9.86226
_fertur	-9.86241
_uiris	-9.86285
tate	-9.86335
_iuga	-9.86503
_plura	-9.86585
pte	-9.86631
lata	-9.86638
_opem	-9.86775
_corona	-9.87077
_uni	-9.87168
_martis	-9.87175
_mei	-9.8722
_aurum	-9.87261
_dulce	-9.87332
pha	-9.87695
cibus	-9.87784
_facies	-9.87894
_leua	-9.88008
_nstru	-9.88009
_lche	-9.88141
_dra	-9.88196
_nati	-9.88238
_sors	-9.8827
las	-9.8829
_stes	-9.88328
ium	-9.88412
_rtem	-9.88607
_campos	-9.88681
_imple	-9.88699
_amoris	-9.88766
_pedes	-9.88771
_ugu	-9.88916
_mortis	-9.8904
_diua	-9.89125
ho	-9.89221
_aliis	-9.89268
scu	-9.8928
tha	-9.89404
_exci	-9.8942
_puta	-9.8943
_proceres	-9.89564
_tenui	-9.89758
cri	-9.8988
_za	-9.90013
_caede	-9.90068
_numquam	-9.90078
ici	-9.90101
ppo	-9.90178
mon	-9.90189
_superum	-9.90242
_ambo	-9.90304
_mnis	-9.90348
rna	-9.90351
rdi	-9.90352
_firma	-9.90371
_loco	-9.9044
_ueneris	-9.90555
mas	-9.90559
_tta	-9.90636
_malis	-9.90671
_cernere	-9.90711
_sydera	-9.90895
pon	-9.90917
_nanque	-9.90958
_mpta	-9.91012
_minor	-9.91036
_ndem	-9.9106
_sacris	-9.91184
_nulli	-9.91244
_mali	-9.91414
_aequore	-9.9147
_flammis	-9.91501
_pedibus	-9.91522
_montes	-9.9153
_marmore	-9.91554
_ferunt	-9.91582
gne	-9.91724
_mba	-9.91745
_solis	-9.9198
_ueluti	-9.9205
ssus	-9.92056
lae	-9.92088
bro	-9.92111
_regi	-9.92143
_rho	-9.92161
_sponte	-9.92193
_canis	-9.92303
_lt	-9.92325
_tuas	-9.9246
_nostrae	-9.92529
_ince	-9.92647
_miserum	-9.92659
_maris	-9.92727
_ardua	-9.92769
_mbro	-9.92943
_psu	-9.93003
_crede	-9.93273
_iure	-9.93368
_hora	-9.93414
trix	-9.93461
_pietate	-9.93465
ule	-9.93507
_pati	-9.93571
serat	-9.93573
_bonis	-9.93621
scri	-9.937
_lati	-9.93751
dibus	-9.93797
_nempe	-9.93832
lium	-9.93934
_uiola	-9.94035
_superos	-9.94087
_intra	-9.94124
_gaudet	-9.94139
_uersus	-9.94195
onia	-9.94198
_mare	-9.94434
_hostem	-9.94442
_canta	-9.94455
_umbras	-9.94488
_tenebris	-9.94504
tru	-9.94555
mos	-9.94603
xisse	-9.94644
_bellum	-9.94795
_scit	-9.94854
_thra	-9.9523
_th	-9.95236
_supera	-9.95292
entes	-9.95318
_ardor	-9.95388
_caelum	-9.95394
_scy	-9.95502
_quotiens	-9.9556
_labore	-9.95671
ster	-9.95785
_ch	-9.95871
_etenim	-9.95916
_consul	-9.96055
_mouet	-9.96057
_campis	-9.96158
_pauper	-9.96287
_rr	-9.96326
culo	-9.96333
_gnum	-9.96442
cca	-9.96471
ngere	-9.96492
_nsque	-9.96573
_sede	-9.96612
_spiritus	-9.96768
_maximus	-9.96785
_fati	-9.96798
_aff	-9.96835
_fide	-9.96949
_primis	-9.96988
_manet	-9.97008
_studio	-9.9701
_unquam	-9.97164
_uiam	-9.97247
_fuerit	-9.97315
_uariis	-9.97396
_uolucres	-9.97703
_suas	-9.97718
_pace	-9.9823
_refert	-9.98252
tumque	-9.98286
rma	-9.98306
_by	-9.98317
_frater	-9.98339
nc	-9.98364
_feri	-9.98416
_superis	-9.98427
_magnis	-9.98428
_phoebe	-9.98429
_usus	-9.98487
_squam	-9.98504
_sidere	-9.98586
lui	-9.98603
_ry	-9.98678
tatis	-9.98721
_iuuenes	-9.98796
_anima	-9.98809
_lchra	-9.989
_illam	-9.98947
_uiridi	-9.9896
_regina	-9.99246
_lucem	-9.99273
bitur	-9.99289
_tenta	-9.99302
nuit	-9.9931
_magnus	-9.99348
_sensus	-9.99407
_ferox	-9.9956
_uoluptas	-9.99711
_lacrimis	-9.99711
_populo	-9.99738
_ossa	-9.999
_spre	-9.9998
_stis	-9.99999
_decet	-10.0003
_mnem	-10.0005
_canit	-10.001
_gy	-10.0013
ducere	-10.0019
_meae	-10.0026
_dant	-10.0027
_ipsi	-10.0028
_honos	-10.003
_seruat	-10.0034
ruit	-10.0043
buit	-10.0046
gent	-10.0051
_gnis	-10.0056
cam	-10.0064
_saecula	-10.0064
_stem	-10.0093
_referre	-10.0119
_dulcia	-10.013
_ratione	-10.0149
_fluctus	-10.0149
_honor	-10.0151
tura	-10.0151
_auctor	-10.0154
cli	-10.0162
_uoces	-10.0168
_prope	-10.0173
_uox	-10.0176
_patres	-10.0183
cessit	-10.0195
_tristia	-10.0196
_amores	-10.0197
_tuus	-10.0198
bor	-10.0199
_mortem	-10.0205
_aere	-10.0211
_colit	-10.0219
_apta	-10.0224
_domum	-10.0226
flu	-10.0232
_iuuenis	-10.0247
_tristi	-10.0249
_senex	-10.0252
_blanda	-10.0253
_quippe	-10.0258
_ueri	-10.0258
_proles	-10.0273
_indu	-10.0289
_pacem	-10.0289
ndat	-10.0291
_terram	-10.0302
_eris	-10.0303
_lem	-10.0304
_illos	-10.0309
_superi	-10.0321
_diui	-10.0324
_nemus	-10.0336
erunt	-10.0339
_redi	-10.0342
_celsa	-10.0343
_populis	-10.0344
_aula	-10.0354
_pudor	-10.0359
_optat	-10.037
_animus	-10.0374
_modis	-10.0374
_uiro	-10.0381
urus	-10.0392
_pacis	-10.0404
_uoluit	-10.0418
_quare	-10.0419
_rhe	-10.042
_ducere	-10.0429
_bonus	-10.0441
_argu	-10.0448
_prior	-10.0451
gum	-10.0458
_ductor	-10.0464
ng	-10.0467
_nympha	-10.0474
_sacro	-10.0477
_urbs	-10.0482
_humana	-10.0482
_patri	-10.0484
bar	-10.0487
_centum	-10.0487
_beata	-10.0491
_tristis	-10.0492
_diues	-10.0506
rsum	-10.0507
_aethera	-10.0508
_tali	-10.0508
ten	-10.0518
_utque	-10.0519
_nthi	-10.0527
_sorte	-10.0534
_uirtutis	-10.0534
_dmi	-10.0539
_nondum	-10.054
_uide	-10.0544
_dudum	-10.0544
_romana	-10.0546
_curis	-10.0558
mat	-10.0567
ngunt	-10.0569
_ruit	-10.0581
_ncli	-10.0606
cola	-10.0613
_ignis	-10.0622
_parce	-10.0627
ges	-10.0628
ero	-10.0634
_ueni	-10.0648
_effu	-10.0649
_esset	-10.0663
rida	-10.0664
_poenas	-10.0672
_littora	-10.0677
_inane	-10.0678
_facie	-10.0684
_graues	-10.0701
cer	-10.071
_olympi	-10.0717
_mph	-10.0718
_abi	-10.0719
_ense	-10.0721
_superba	-10.0724
lsi	-10.0735
_dicam	-10.074
_felici	-10.0741
_xtu	-10.0751
_ures	-10.0779
_dulces	-10.0779
_sorores	-10.0782
_cer	-10.0789
uli	-10.0797
_faces	-10.0809
_locus	-10.0824
_ruu	-10.0832
hinc	-10.0845
ch	-10.0859
_astris	-10.0864
_amica	-10.0871
_boni	-10.0884
_manes	-10.0898
_rco	-10.0901
_mars	-10.0902
_miles	-10.0909
cius	-10.092
_gem	-10.0921
_uirgine	-10.0928
_precibus	-10.0932
_uana	-10.0936
_lso	-10.0937
_meos	-10.0939
_asper	-10.0952
_imperii	-10.0958
_aspera	-10.096
_soror	-10.0965
_proelia	-10.098
rior	-10.0993
_brachia	-10.0999
_iube	-10.1014
rui	-10.1024
_ipso	-10.1025
_bdi	-10.1027
_munus	-10.1034
_aeterna	-10.104
missa	-10.1043
_crimina	-10.1048
_iacta	-10.1048
_arces	-10.1061
gus	-10.1068
_uca	-10.1074
_ultima	-10.1081
_miseri	-10.1088
_ssim	-10.1101
_forsan	-10.1102
_imago	-10.1103
ty	-10.1103
_cem	-10.1104
_tuta	-10.1115
_nua	-10.1117
_semel	-10.1119
rtis	-10.1124
_mediis	-10.1124
_instar	-10.1129
rmi	-10.115
_squi	-10.116
_reddere	-10.117
_regni	-10.1186
_comas	-10.1211
_capta	-10.1213
_ibi	-10.1219
_accipe	-10.1222
_preces	-10.1229
_decora	-10.123
_ponti	-10.1246
_colle	-10.1258
_bdu	-10.1268
_multum	-10.1269
_gros	-10.1277
_ueniam	-10.1285
_pulsa	-10.1288
_posset	-10.1292
_natus	-10.1293
_silua	-10.1296
_ducem	-10.1302
_sacri	-10.1307
_aspice	-10.1314
_iussit	-10.1314
_imo	-10.1327
_meus	-10.1347
_montibus	-10.1349
rare	-10.1354
_copia	-10.1356
_capit	-10.1363
_blandi	-10.1369
_nsue	-10.1373
_uulnere	-10.1374
_agmine	-10.1374
_rsus	-10.1374
_axe	-10.1381
nxit	-10.1384
_acci	-10.1384
_caua	-10.1399
_mentes	-10.1402
_laetus	-10.1403
_celebra	-10.1404
_sui	-10.1407
_redit	-10.1407
_montis	-10.1408
_futura	-10.141
_longum	-10.1416
_altum	-10.1417
_talis	-10.1433
nci	-10.1433
bula	-10.144
_gnes	-10.1456
_culpa	-10.1461
_cara	-10.1462
_aure	-10.1475
_certamin	-10.1479
_polo	-10.1484
_salue	-10.1486
_foue	-10.1492
_pone	-10.1494
_prata	-10.1498
_praeda	-10.1513
_illud	-10.1513
nne	-10.1515
_fac	-10.1518
lat	-10.1528
_uterque	-10.1529
_rapit	-10.1529
_adde	-10.1533
_fas	-10.1536
rim	-10.1536
cci	-10.1541
lca	-10.155
ebat	-10.1553
uimus	-10.1559
_orna	-10.1573
_alia	-10.1579
_singula	-10.158
_upe	-10.1587
_placido	-10.1588
_gn	-10.159
_mplu	-10.1594
_mphi	-10.1597
_nspe	-10.1609
_gurgite	-10.161
_animam	-10.1624
_tres	-10.1627
_ppl	-10.1629
_aequor	-10.1631
uens	-10.1638
_antra	-10.1646
ona	-10.1663
_pius	-10.1665
_aras	-10.1671
_trepida	-10.168
_flores	-10.1687
_amorem	-10.1691
_suff	-10.1692
con	-10.1694
_olympo	-10.1697
_studiis	-10.1703
psi	-10.1703
_sono	-10.1704
ger	-10.1709
_siluis	-10.1718
_clu	-10.173
_menti	-10.1753
_populus	-10.1763
_uiscera	-10.1763
_sequi	-10.177
_ptas	-10.178
fra	-10.1787
fica	-10.1791
_gr	-10.1791
_formosa	-10.1798
_luna	-10.1804
mme	-10.1807
_penates	-10.1807
_ueteres	-10.1808
_misera	-10.1809
_muta	-10.1811
_summi	-10.1817
_clo	-10.1823
ura	-10.1824
_decor	-10.1828
_ducit	-10.1828
_sceptra	-10.1829
_talibus	-10.1833
_sequitur	-10.1835
_nsci	-10.1836
_sermone	-10.1838
_domini	-10.1848
_aeternum	-10.1852
_palma	-10.1853
_duro	-10.1873
_quanto	-10.1885
_iusti	-10.189
_domina	-10.1898
strum	-10.1902
_uelis	-10.1905
_credere	-10.1916
ata	-10.1917
_faciem	-10.1917
_mundo	-10.1921
_melior	-10.1936
_noui	-10.1941
_aethere	-10.1944
_mbu	-10.1944
_lgu	-10.1951
_saeui	-10.1951
_cupit	-10.1954
deat	-10.196
_penetra	-10.1963
_ntus	-10.1979
entia	-10.1984
_sex	-10.1997
ptus	-10.2003
_natum	-10.2009
_sepe	-10.2025
rge	-10.2027
_laeti	-10.2059
_acta	-10.2074
_celeri	-10.2076
_sententia	-10.2077
_quisquam	-10.2082
lius	-10.2087
_premit	-10.2093
luere	-10.2097
_uicta	-10.2098
entem	-10.2114
_repente	-10.2123
_ultra	-10.2124
_iuno	-10.2132
_crimine	-10.2138
_uatum	-10.2145
_septem	-10.2146
rans	-10.2149
_nostras	-10.2156
_queat	-10.2159
_patrum	-10.2177
_matris	-10.2184
_fieri	-10.2217
_moles	-10.2221
_uelit	-10.2225
_uides	-10.2229
_medium	-10.224
gam	-10.224
let	-10.2244
_nuda	-10.2245
ps	-10.2247
_inque	-10.2272
quo	-10.2276
_trahit	-10.2289
_uario	-10.2297
_pondere	-10.2298
_rbs	-10.231
_surgit	-10.2322
pida	-10.2336
_gaude	-10.2341
ndam	-10.2344
_leuis	-10.2358
sy	-10.2368
cimus	-10.237
_funere	-10.2378
tula	-10.2386
_serta	-10.2387
_pete	-10.2396
_horrida	-10.24
_mbre	-10.2402
_pocula	-10.2406
ssimus	-10.2413
_misero	-10.2416
_referam	-10.2418
_culta	-10.2429
_poma	-10.2436
_cogit	-10.2445
_quicquam	-10.2447
_laeto	-10.2448
_ingenii	-10.2448
_ppa	-10.2451
_nonne	-10.2461
_cano	-10.2462
_parentis	-10.2468
_libera	-10.2475
_collo	-10.2477
_roga	-10.248
_pax	-10.2481
_fontes	-10.2482
_ptra	-10.2487
_nullum	-10.2492
_troia	-10.25
_uelle	-10.2503
_ct	-10.2513
gor	-10.2519
tica	-10.2528
ruis	-10.2533
_aeuo	-10.2535
rata	-10.2535
_rsum	-10.2539
mula	-10.2542
_domino	-10.2543
itur	-10.2544
_ipsis	-10.2555
_uela	-10.2563
_retro	-10.2565
_acri	-10.2567
_flammas	-10.2589
_turbine	-10.259
_miseris	-10.2596
_cantus	-10.2601
_indigna	-10.2608
stus	-10.2611
_socia	-10.2615
_multi	-10.2621
_facis	-10.2629
_demum	-10.2631
ole	-10.2635
_uidi	-10.2637
_nymphae	-10.2648
_plo	-10.2653
_placet	-10.2655
fera	-10.2655
_noctis	-10.2656
_fraude	-10.2657
lci	-10.266
par	-10.266
_inuidia	-10.2662
_fonte	-10.2674
_hoste	-10.2678
_sancti	-10.2684
_sensit	-10.2686
_comites	-10.2711
_laudibus	-10.2711
_nega	-10.2717
_misere	-10.2722
_opera	-10.2731
rtu	-10.2737
_quamquam	-10.2745
_cessa	-10.2746
_pascua	-10.2759
_uincere	-10.2768
lce	-10.2774
_fortis	-10.2781
_iusta	-10.2783
_ubique	-10.2791
cle	-10.2792
onem	-10.2805
scis	-10.2806
_gemma	-10.2808
_phoebi	-10.2808
_milite	-10.281
_feras	-10.2824
phos	-10.2826
_uulgus	-10.2833
_caetera	-10.2833
_dignus	-10.2833
_mquam	-10.2834
llos	-10.2837
_equos	-10.284
_noster	-10.2845
xerit	-10.2856
_strum	-10.2865
_cqua	-10.2875
_moribus	-10.2877
stant	-10.288
_robore	-10.2882
_caue	-10.2884
_perit	-10.2886
pici	-10.2886
_reddit	-10.2902
_sacrum	-10.2907
_uxor	-10.291
gitur	-10.2912
_cerne	-10.2913
_cole	-10.2914
_prisca	-10.2916
_ferat	-10.2922
perit	-10.2924
_paruo	-10.2941
_rfe	-10.2944
_otia	-10.2954
_littore	-10.2956
_mortalibus	-10.2958
_cornua	-10.2959
_exu	-10.2961
eni	-10.2963
plo	-10.2974
_equo	-10.298
_ueste	-10.2989
_numero	-10.2989
_uideo	-10.2999
_lgo	-10.3
_celi	-10.3001
_rapta	-10.3002
_totiens	-10.3006
_claro	-10.303
_publica	-10.3031
_liceat	-10.3032
_forti	-10.3037
_ntro	-10.3045
_triumphos	-10.3048
fero	-10.3051
_equidem	-10.3052
_tuam	-10.3053
_totus	-10.3053
gri	-10.3057
_musis	-10.3059
_torque	-10.3069
_aer	-10.3069
_mbras	-10.3079
_ul	-10.3091
_diuino	-10.3095
_tenent	-10.31
_mortales	-10.3104
_fratres	-10.3115
asque	-10.314
_uarios	-10.3146
_conse	-10.316
_grandi	-10.3168
rco	-10.3183
_aliter	-10.3186
_iuuentus	-10.3186
_git	-10.3188
mata	-10.3196
_semina	-10.3203
_tristes	-10.3205
_illuc	-10.3217
_insignis	-10.322
bum	-10.3223
entis	-10.3224
_salus	-10.3224
za	-10.3227
_tellure	-10.3233
_antiqua	-10.3237
_ardenti	-10.3245
corum	-10.3246
_uirorum	-10.3248
_densa	-10.3258
stes	-10.3258
_uia	-10.3275
_saltem	-10.3285
_cco	-10.3286
_tumulo	-10.3288
untur	-10.3291
_inco	-10.3293
_grande	-10.3298
_ruina	-10.3304
_immani	-10.331
_propria	-10.3314
retur	-10.3314
_iras	-10.3318
_ng	-10.3319
_lme	-10.3326
nga	-10.3346
ny	-10.3349
_capiti	-10.3361
_ntre	-10.3365
_nouo	-10.3366
imus	-10.3369
uat	-10.3376
_nx	-10.3382
_tenebras	-10.3388
_omnipotens	-10.3388
_pignora	-10.3395
_gente	-10.3398
_gge	-10.3411
ssos	-10.3412
_hae	-10.3413
_fulgent	-10.3417
_locum	-10.3424
_poena	-10.3427
_latio	-10.3429
gia	-10.3431
_nclu	-10.3434
gebat	-10.3449
_fores	-10.346
_reuoca	-10.3462
_potenti	-10.3466
_cunctos	-10.3466
_uiue	-10.3477
_nouis	-10.3477
_cultu	-10.3484
_leues	-10.3485
_rrh	-10.349
fert	-10.3491
_cohors	-10.3493
lici	-10.3497
dice	-10.3502
_partu	-10.3515
_coniunx	-10.3518
ppa	-10.3521
_urget	-10.3522
_laudis	-10.3523
_ades	-10.3529
_ferus	-10.3536
lea	-10.3539
_nescio	-10.3548
_ffa	-10.3551
_psum	-10.3561
_ltra	-10.3568
_puero	-10.3573
_aether	-10.3579
_uite	-10.3615
_senatus	-10.3615
_propter	-10.3624
_nubila	-10.3624
_noctes	-10.3626
_mnu	-10.3634
sia	-10.3634
_fatis	-10.3639
_prorsus	-10.365
_luci	-10.3671
_alit	-10.3672
_supra	-10.3674
ssime	-10.3677
_ueterum	-10.3681
tulit	-10.3687
_siluas	-10.3691
_colles	-10.3704
_igni	-10.3709
_tumultu	-10.372
_oppida	-10.3731
rda	-10.3733
_curru	-10.3735
_compe	-10.3743
_uices	-10.3749
_bris	-10.3756
_uirginis	-10.3758
_proprio	-10.3759
_suae	-10.3761
_ueniens	-10.3761
_causas	-10.3762
_redde	-10.3763
_hymen	-10.3771
_auge	-10.3772
_crines	-10.3773
uerunt	-10.3775
tuere	-10.3782
tuler	-10.3783
_fulmine	-10.3784
_disce	-10.3787
_uetus	-10.379
_leo	-10.379
_ferrum	-10.3807
_rege	-10.3809
_coniuge	-10.3811
bre	-10.3816
_tolle	-10.3816
_pelle	-10.3827
_perag	-10.383
ndu	-10.3831
_uspi	-10.3845
_propera	-10.3851
_alti	-10.3851
_mouere	-10.3852
_salutem	-10.3854
_fulmina	-10.3866
_opibus	-10.3866
_diuersa	-10.3867
_natos	-10.3869
_curae	-10.3871
aeque	-10.3888
_fine	-10.389
_perpetuo	-10.3893
_iupiter	-10.3893
nter	-10.3895
_infer	-10.3904
_perque	-10.3904
_interdum	-10.3915
_humeris	-10.392
_habes	-10.3923
_cari	-10.3924
_multos	-10.3928
_finem	-10.3929
_sonant	-10.3932
_certo	-10.3934
_urna	-10.3936
_musae	-10.3939
_dele	-10.3942
_cultus	-10.3959
_antro	-10.3961
_xque	-10.3961
bae	-10.3962
by	-10.3963
_contemp	-10.3964
_ingentes	-10.3964
_potestas	-10.397
_cruore	-10.3975
_partes	-10.398
_poeta	-10.4003
_mensa	-10.4003
_proba	-10.4007
_exul	-10.4017
_lacus	-10.4022
antur	-10.4025
_ualet	-10.4028
gos	-10.4029
_stirpe	-10.4031
_umbris	-10.4031
nem	-10.404
_honorem	-10.4042
uertere	-10.4043
_noctem	-10.4044
stet	-10.4046
lice	-10.4048
_lacrimas	-10.4056
_suam	-10.4058
_forsitan	-10.4058
_fluctibus	-10.4062
_rite	-10.4063
_celeres	-10.4063
_color	-10.4063
_urbi	-10.4072
lta	-10.4075
_uideri	-10.4075
ssibus	-10.4084
_uictoria	-10.4086
_uocibus	-10.4095
_mandata	-10.4102
_regnum	-10.4115
rbo	-10.4115
_diuini	-10.4117
_miseros	-10.4117
_animas	-10.4119
_rogo	-10.4129
_adiu	-10.4134
_aenea	-10.4145
_similis	-10.4147
_cry	-10.4148
_parentes	-10.4149
_rbu	-10.4162
_sinus	-10.4167
deris	-10.4175
_fidei	-10.4186
_ima	-10.4187
_genas	-10.4188
centes	-10.419
_cito	-10.4192
_praeter	-10.4192
_breui	-10.4192
_pelago	-10.4198
_poterit	-10.4198
_cohorte	-10.4198
_dominae	-10.42
_ruis	-10.4204
icit	-10.4205
_placida	-10.4205
_docti	-10.4224
_gerit	-10.4247
_spolia	-10.4249
_malum	-10.425
_caeca	-10.4252
_gum	-10.4255
_ratio	-10.4257
_litora	-10.4257
_xto	-10.4258
nant	-10.4269
ditur	-10.4276
ple	-10.4281
_rces	-10.4281
_proxima	-10.4283
_crudele	-10.4283
_nullis	-10.429
dius	-10.4292
amus	-10.4294
_sal	-10.4296
_graue	-10.4297
_coma	-10.4299
_colore	-10.4308
_pecus	-10.431
_improba	-10.4311
_pulcherrima	-10.4311
_senecta	-10.4314
_dolore	-10.4315
_lpa	-10.4329
_gramina	-10.4336
_possunt	-10.434
_stquam	-10.4343
_cursus	-10.4344
care	-10.4346
gae	-10.4347
_poetae	-10.4352
_uias	-10.4352
_pan	-10.4353
_scripta	-10.4353
_flumine	-10.4357
culum	-10.4358
_dmo	-10.4362
_uiuit	-10.4367
_atria	-10.4369
_grauior	-10.4369
_maria	-10.4375
_tonantis	-10.4379
_teneris	-10.4381
ula	-10.4381
rde	-10.4382
culis	-10.4385
_contin	-10.4388
ndos	-10.439
_surge	-10.4391
_aude	-10.4395
_coniux	-10.4397
_tenues	-10.4397
_tollit	-10.4398
_rupe	-10.4398
_salutis	-10.4398
_maiora	-10.4407
_iniqua	-10.441
_serui	-10.4414
_demens	-10.4421
_saepius	-10.4425
_atrox	-10.443
_cadit	-10.4434
_secus	-10.4438
_parentem	-10.444
_uenere	-10.4441
_dolores	-10.4442
_uiua	-10.4446
_turpe	-10.4449
_paucis	-10.4452
_auxilium	-10.4454
_latus	-10.4454
_sylua	-10.4457
_habent	-10.4458
_tergo	-10.4465
_transi	-10.4465
_ucto	-10.4469
_lgi	-10.4485
_clarus	-10.4489
_alias	-10.4499
_uatis	-10.4499
ctibus	-10.4501
_pallas	-10.4502
_corporis	-10.4512
_liuor	-10.4515
_custos	-10.4522
_cumque	-10.4524
_medica	-10.4526
_animae	-10.453
stru	-10.4533
_principis	-10.4541
_carminibus	-10.4541
_iuuenem	-10.4541
_tenere	-10.4545
_timor	-10.455
cita	-10.4553
_spicula	-10.4554
uidus	-10.4567
_equi	-10.4571
_murmure	-10.4576
_bonum	-10.4582
_magne	-10.4587
_ampla	-10.4599
_dignum	-10.46
_fero	-10.4604
_amice	-10.4606
_maius	-10.4606
_herba	-10.461
lp	-10.4627
_pubes	-10.4628
_temporis	-10.4629
_praeterea	-10.463
_mpti	-10.4644
_perdere	-10.4649
_lles	-10.4651
_lares	-10.4656
scens	-10.4656
_pecudes	-10.4658
_pericula	-10.4658
_hasta	-10.4667
urum	-10.4674
_uena	-10.4676
_commi	-10.4686
_dumque	-10.4687
_extrema	-10.4688
_continuo	-10.4691
_castris	-10.4692
_uentos	-10.4714
_nouit	-10.4717
_ausoni	-10.4718
_studium	-10.4718
_galea	-10.4718
_turpi	-10.4719
misit	-10.4724
_ueneti	-10.4725
_sali	-10.4732
_grates	-10.4738
_reple	-10.4743
ctura	-10.4749
_rapido	-10.475
_uisu	-10.475
_credit	-10.4754
mae	-10.4766
_assu	-10.4767
dentem	-10.477
lsa	-10.477
_rtum	-10.4771
_alis	-10.4776
_minerua	-10.4777
_monumenta	-10.4777
_maxime	-10.4777
_loqui	-10.4778
_leta	-10.4786
bimus	-10.4786
_scire	-10.4791
_flagra	-10.4792
_conci	-10.4792
_stant	-10.48
_optima	-10.4807
cy	-10.481
_ite	-10.4829
_quor	-10.483
_cornu	-10.4832
_uincula	-10.4837
_secunda	-10.4838
cra	-10.484
_ausus	-10.4841
_senior	-10.4846
_tantus	-10.4848
_ullus	-10.4852
_dominum	-10.4853
_clari	-10.4855
_rector	-10.4858
derit	-10.4858
rro	-10.4862
_murmura	-10.4864
_aliquid	-10.4867
_error	-10.487
_mittit	-10.487
_numeris	-10.4872
dico	-10.4874
_aurora	-10.4878
_amici	-10.4878
_gli	-10.4879
tens	-10.4884
_pulcher	-10.4896
_ignibus	-10.4901
_ffla	-10.4909
_ferarum	-10.4931
_putat	-10.4951
_felices	-10.4958
hor	-10.4959
_nequit	-10.496
turus	-10.4965
_uicina	-10.4966
_tartara	-10.4967
_carcere	-10.4971
_zo	-10.4983
_audax	-10.4988
_sicut	-10.4988
_carp	-10.4997
luisse	-10.4998
_iuuenta	-10.5008
_uince	-10.5013
_gelida	-10.5013
_timet	-10.5027
ceps	-10.5027
_fluit	-10.5027
_solem	-10.503
iecit	-10.5031
_furit	-10.5032
_audit	-10.5039
_tracta	-10.5042
_quaerit	-10.5044
_lpe	-10.5047
tissima	-10.5047
_aeterno	-10.5049
_ardens	-10.505
_aeuum	-10.5055
lue	-10.5056
_saltus	-10.5058
uium	-10.5062
_ioui	-10.5065
_foeda	-10.5066
_uenti	-10.5068
_gemitus	-10.5072
qu	-10.5073
_diuis	-10.5077
_figura	-10.508
_puerum	-10.5083
_sublimi	-10.5083
_aestu	-10.509
_uentura	-10.5094
beat	-10.5095
_homo	-10.5116
_uenient	-10.5124
_fato	-10.5127
mant	-10.5128
_faciles	-10.5135
_cchi	-10.5139
ide	-10.5139
_nobilis	-10.514
_sublime	-10.5143
pes	-10.5143
_superat	-10.5143
_cetera	-10.5143
_usta	-10.5148
_fore	-10.5153
ores	-10.516
_mortalia	-10.5166
z	-10.5167
_urum	-10.5167
_picta	-10.5169
_uge	-10.5169
_commoda	-10.5172
_imagine	-10.5172
_cruenta	-10.5172
_hominem	-10.5172
_ferens	-10.5176
_clamore	-10.5177
_iuncta	-10.5184
_arbor	-10.5187
gru	-10.5193
_quaeso	-10.5199
_desine	-10.5204
_eius	-10.5212
niti	-10.5213
_quales	-10.5216
_sopor	-10.5219
_lumen	-10.5225
rium	-10.5226
_iouem	-10.5228
_coniugis	-10.5236
amque	-10.5237
_usquam	-10.5237
cuere	-10.525
llae	-10.525
ngi	-10.5251
_ppu	-10.5254
_doctus	-10.5254
rne	-10.5263
_incendia	-10.5265
pra	-10.5269
_foedera	-10.527
_ssum	-10.5275
_ferit	-10.5279
_proh	-10.5283
_narra	-10.5289
ron	-10.5295
_arbore	-10.5296
minis	-10.5312
_sacros	-10.5317
_nate	-10.5319
_serena	-10.5325
_principe	-10.5328
_immemor	-10.5328
_caelesti	-10.5328
currit	-10.5331
fri	-10.5333
dentes	-10.5333
_luctus	-10.5334
_curua	-10.5334
rce	-10.535
_uictus	-10.5351
_somno	-10.5356
_dicite	-10.5382
_tyranni	-10.5391
_utinam	-10.5395
_uelim	-10.5395
_amictu	-10.5396
mittere	-10.5397
_resona	-10.5406
_insidias	-10.5407
_bui	-10.5421
_ortus	-10.5423
_ffl	-10.5424
_aduersa	-10.5424
_necesse	-10.5425
_quater	-10.5427
_malorum	-10.5432
_frena	-10.5437
pidum	-10.5445
_fuisse	-10.545
_inclyta	-10.5455
_ceruice	-10.5455
_socios	-10.5457
_defle	-10.5459
_caesaris	-10.5463
_spectat	-10.5472
_uidetur	-10.5475
_mundum	-10.5476
_colo	-10.5476
_lauro	-10.5479
_naturae	-10.5485
_niueo	-10.5488
_ulu	-10.5493
_deae	-10.5496
_habitu	-10.55
_iacent	-10.5505
_uulnus	-10.5519
_nusquam	-10.5521
_secula	-10.5534
_ncla	-10.5535
_barba	-10.5541
llam	-10.5544
_titan	-10.5547
_uigila	-10.5547
_compos	-10.5548
_fines	-10.5551
_relicta	-10.5554
rme	-10.5557
_motus	-10.5559
_crudeli	-10.556
_modum	-10.5569
_longi	-10.557
_odore	-10.5572
_patent	-10.5573
_iuuenum	-10.5584
_seruare	-10.5584
_nobile	-10.5588
_menia	-10.559
nca	-10.56
_pene	-10.5601
_adire	-10.5603
_lilia	-10.5608
don	-10.5615
_robur	-10.5616
_consilium	-10.5616
_humi	-10.5626
_consum	-10.5633
_patet	-10.565
_orbi	-10.5651
_fessa	-10.5653
_sorde	-10.5659
_pple	-10.5663
nica	-10.5672
_breuis	-10.5677
_uatem	-10.5681
_arca	-10.5681
_optime	-10.5681
_suprema	-10.5681
_ocia	-10.5682
_senes	-10.5683
rica	-10.5684
_uenerem	-10.5692
_fortia	-10.5693
_bsta	-10.5704
_mpsi	-10.5706
_expedi	-10.5715
pum	-10.5716
ones	-10.5718
_facere	-10.5727
_ope	-10.573
_iocos	-10.5732
_conced	-10.5734
_terrarum	-10.5744
_supplex	-10.5746
_mortale	-10.5749
_parere	-10.5753
_alio	-10.5762
_fila	-10.5767
_spectare	-10.5769
_suspiria	-10.5779
_pauca	-10.578
_ordo	-10.5781
_amne	-10.5783
_dicitur	-10.5784
nce	-10.5789
_gemina	-10.5793
_parent	-10.5797
_insul	-10.5798
_aliud	-10.5812
_uestris	-10.5817
_istis	-10.5817
_iugo	-10.5822
_tales	-10.5825
_nescit	-10.5825
ades	-10.5835
_gma	-10.5835
_foeder	-10.584
_uolat	-10.5841
_plausu	-10.5846
_redeunt	-10.5846
_alterius	-10.585
_parca	-10.5852
_arena	-10.5852
_campo	-10.5857
ueris	-10.5858
_acerba	-10.5859
_solio	-10.5864
_tollere	-10.587
lii	-10.5878
_hospes	-10.5881
_mulier	-10.5888
ios	-10.5892
geni	-10.5894
_aestus	-10.5899
_finibus	-10.5899
_nouus	-10.5908
_legibus	-10.5915
llas	-10.5921
_uertere	-10.5925
_gle	-10.5925
_negat	-10.5928
_puellam	-10.5933
_mptu	-10.5942
_cape	-10.5945
_lchri	-10.5955
_arcto	-10.5958
_possum	-10.5963
libet	-10.597
fre	-10.597
_leui	-10.5973
_paulatim	-10.5979
_scelerum	-10.5979
_amare	-10.5985
_summum	-10.5985
_parta	-10.5989
_sacer	-10.5998
_quoties	-10.6013
pula	-10.6017
_turmas	-10.6021
_ndit	-10.6031
_indig	-10.6047
_amans	-10.6047
_lacer	-10.6064
_quasi	-10.6065
_formae	-10.6067
_langue	-10.6068
_ther	-10.607
_feret	-10.6083
_superare	-10.6088
_homini	-10.6088
_face	-10.609
_expecta	-10.609
_cognita	-10.6095
_luo	-10.6102
_ingentem	-10.6103
cedere	-10.6107
_uarias	-10.6108
_locis	-10.6113
_lympha	-10.6115
_armenta	-10.6115
cuisse	-10.6118
_prote	-10.6118
_uirides	-10.612
_nsce	-10.6123
_hercule	-10.6125
_generosa	-10.6149
enti	-10.6154
_cupis	-10.6156
_aqua	-10.6165
_nauta	-10.6172
ctat	-10.6172
_laborum	-10.6177
_dubita	-10.6179
_maiore	-10.6182
_mirum	-10.6182
_praeceps	-10.6186
_rosa	-10.6188
_dry	-10.6192
_bie	-10.6199
derunt	-10.62
_lucis	-10.62
_pharetra	-10.6207
_posthac	-10.6217
_pelagi	-10.6217
_amanti	-10.6218
_uoluntas	-10.622
_ponere	-10.6227
_qualem	-10.6234
_linguae	-10.6245
_phoebo	-10.6251
_ungue	-10.6252
_hodie	-10.6255
ulis	-10.6263
dra	-10.6281
_lacera	-10.6284
_agmen	-10.6286
_sacerdos	-10.6287
len	-10.6288
_currus	-10.6289
_nube	-10.629
_cessit	-10.6296
duxit	-10.6298
_sollicita	-10.6302
_fouet	-10.6302
_rn	-10.6308
_premi	-10.6311
_uinci	-10.6314
_spira	-10.6321
_celer	-10.6323
_radiis	-10.6324
_barbara	-10.6329
bal	-10.6334
_celo	-10.6341
_duci	-10.6344
ensis	-10.6345
_addi	-10.6347
_bellis	-10.6351
_manent	-10.6351
_ntas	-10.6353
_ueneri	-10.6354
_nepotes	-10.6356
rimus	-10.6356
_intus	-10.6356
_antris	-10.6366
_meliora	-10.6374
_tantos	-10.6374
_uasta	-10.6375
mmo	-10.6376
_arcem	-10.6377
_saxo	-10.6378
_eximi	-10.6385
_suaui	-10.6387
_facinus	-10.6391
_talem	-10.6394
_summis	-10.6395
_christo	-10.6396
_diebus	-10.6397
_hostibus	-10.64
_occul	-10.6401
_mole	-10.6403
_carina	-10.6406
_plures	-10.6408
_beati	-10.6415
_caro	-10.6421
rint	-10.6422
_hector	-10.6424
_decore	-10.6431
_greges	-10.6432
_inani	-10.6436
_cernit	-10.6436
_quietem	-10.6449
_discrimine	-10.6461
_consilio	-10.6461
_regno	-10.6463
_saluta	-10.6468
_potentia	-10.6469
_testis	-10.6474
_stha	-10.6479
_matrem	-10.6481
_mur	-10.6482
_nitet	-10.6489
_qualia	-10.6492
_communi	-10.6496
_caterua	-10.6498
_causam	-10.6498
gressu	-10.651
numque	-10.6514
_flectere	-10.6527
_musarum	-10.6535
dri	-10.6538
zza	-10.6542
_frui	-10.6542
_dedere	-10.6548
nditur	-10.655
tatur	-10.6553
_finis	-10.6555
_primi	-10.6561
_rc	-10.6564
_triumphi	-10.6567
_fateor	-10.6568
tim	-10.6569
_fabula	-10.6575
_cuncti	-10.6577
_memini	-10.6591
_debet	-10.6591
_muros	-10.6595
_futuri	-10.6598
_ioue	-10.66
_inimica	-10.6603
_romae	-10.6613
_hosti	-10.6622
_gener	-10.6628
_gentem	-10.6628
cies	-10.6631
rentem	-10.6634
_dabat	-10.664
_nfla	-10.664
_laetitia	-10.6642
_gme	-10.6647
_habenas	-10.6648
_aruis	-10.6653
_senis	-10.6669
uocat	-10.6669
_cly	-10.6674
_imperat	-10.6678
_legit	-10.668
ferat	-10.6682
_ebur	-10.6683
_debita	-10.6684
_pennis	-10.6684
_nubes	-10.6684
_legat	-10.6686
_lga	-10.6695
gula	-10.6696
ane	-10.6704
_numeros	-10.672
_dru	-10.6721
_unica	-10.6721
_mollia	-10.6724
_optata	-10.6725
iere	-10.6727
sura	-10.6733
rchi	-10.6738
_praesens	-10.6748
_fortunae	-10.675
_hei	-10.6755
_ars	-10.6757
_molles	-10.6765
_imita	-10.6765
_gris	-10.6766
rebat	-10.6768
_totam	-10.6773
_calor	-10.6777
_occupat	-10.6783
_casu	-10.6785
_mpre	-10.6787
_orta	-10.6788
_cresce	-10.6789
_generis	-10.6799
_fauore	-10.6803
_uersu	-10.6804
_ggr	-10.6807
_quanquam	-10.682
_egregia	-10.682
_gremio	-10.682
_gelido	-10.6822
_sinit	-10.6823
_galli	-10.6823
ton	-10.6829
_auribus	-10.6831
_quandoque	-10.6832
py	-10.6833
_lyra	-10.6835
_misit	-10.6849
_accipit	-10.6858
_ustra	-10.6862
ciens	-10.6864
_parentum	-10.6868
_soluere	-10.6869
_agris	-10.6873
_gramine	-10.6878
serit	-10.6881
_litore	-10.6883
_leonis	-10.6892
_indulge	-10.6894
_linquere	-10.6904
_grandia	-10.6906
_fons	-10.6906
_ero	-10.6907
_fontis	-10.6912
_iesu	-10.6913
_praelia	-10.6918
_uacua	-10.6919
_alba	-10.6922
_turri	-10.6927
_utu	-10.6928
rima	-10.6929
_giouan	-10.693
_benigna	-10.693
_cineres	-10.693
_pieri	-10.6936
_tumultus	-10.6945
_triste	-10.695
_btu	-10.6955
_patriis	-10.6962
_propago	-10.6967
_libens	-10.6968
_frondes	-10.6973
_eras	-10.6975
_magnos	-10.6981
_dolos	-10.6989
_filius	-10.6992
_sapiens	-10.7005
_humano	-10.7005
phae	-10.7007
_quidquid	-10.7007
_nstri	-10.7018
ppe	-10.7019
_subire	-10.7022
_coram	-10.7028
ssent	-10.7031
_genti	-10.7035
_obuia	-10.7043
_uertit	-10.7044
_factus	-10.7044
debat	-10.705
_diuos	-10.7052
_agnos	-10.7055
dimus	-10.7056
ina	-10.7058
_saeuit	-10.706
_inueni	-10.7062
_aufer	-10.7063
lmo	-10.7069
_modera	-10.707
_apolline	-10.7079
_robora	-10.708
_strage	-10.7087
_niuea	-10.7092
_borea	-10.7094
_diana	-10.7096
_uidisse	-10.7099
_iugis	-10.7102
_sensu	-10.7104
_affer	-10.7107
_mphis	-10.711
_operi	-10.7117
_luu	-10.7117
_gladio	-10.7118
_gemmis	-10.7121
_obit	-10.7123
_aspectu	-10.7123
uolat	-10.7129
_stagna	-10.7133
_aequi	-10.7135
_atro	-10.7146
_prece	-10.716
_tarda	-10.7162
_tendit	-10.7163
_minas	-10.7166
_uerte	-10.7168
_sancto	-10.717
_comita	-10.718
_uincla	-10.7193
ulo	-10.7196
_sup	-10.7198
_purga	-10.7201
_sedet	-10.7202
_utrumque	-10.7203
_relligio	-10.722
_iudice	-10.7223
_suorum	-10.7224
brum	-10.7224
_triumpha	-10.7231
_lacte	-10.7232
ica	-10.7238
_labori	-10.7243
_cauda	-10.725
_pestis	-10.7257
_foelix	-10.7269
_meam	-10.7283
rier	-10.73
_piis	-10.7303
_olympu	-10.7307
_iuxta	-10.7308
_plebe	-10.7309
_scis	-10.7311
_bsc	-10.7316
_morti	-10.7317
_sonitu	-10.7318
_nato	-10.7325
erant	-10.7328
norum	-10.7331
nsere	-10.734
_humo	-10.7342
_remea	-10.7353
phy	-10.737
orem	-10.7373
ice	-10.7375
_amnis	-10.7375
mitte	-10.7376
lato	-10.738
_praecordia	-10.7384
_uicissim	-10.7384
_laudem	-10.7385
_pondera	-10.7385
_sapientia	-10.7385
_capillos	-10.7385
_socii	-10.7389
_libet	-10.7394
pelle	-10.7399
_docet	-10.74
_eram	-10.74
_semine	-10.7408
_ferrea	-10.7408
_amator	-10.741
_rbum	-10.7412
_nescis	-10.7414
_poteris	-10.7415
_portus	-10.7416
_rras	-10.7417
mbri	-10.7417
_uulgi	-10.7423
_immane	-10.7423
_culmine	-10.7423
_uentis	-10.7424
_uenerat	-10.7424
_mpto	-10.7424
_pisces	-10.7428
_quaerere	-10.7435
_clausa	-10.7439
_cesar	-10.7441
_uexa	-10.7443
_sanctum	-10.7452
_coetus	-10.7457
_aedes	-10.7458
stitit	-10.746
_partem	-10.746
_purpureo	-10.7462
_celebri	-10.7462
_clarum	-10.7462
_laborem	-10.7464
_pio	-10.7465
_nemorum	-10.7471
_irrita	-10.7472
_uideas	-10.7476
_liquore	-10.7477
_comis	-10.7482
_arcus	-10.7483
_solito	-10.7489
rcus	-10.749
nnu	-10.7503
_puluere	-10.7508
_romani	-10.7508
_dedisse	-10.752
_sparge	-10.7522
_facilis	-10.7526
_audire	-10.7527
_omnium	-10.7533
_falsa	-10.7535
_culmina	-10.754
_ciuibus	-10.7541
_frontem	-10.7542
_nouem	-10.7543
_ueniunt	-10.7547
_putas	-10.7552
endo	-10.7552
quidem	-10.7557
_fuere	-10.7562
_reliquit	-10.757
_ntri	-10.757
sunt	-10.7571
_sumus	-10.7571
_superas	-10.7571
_ignem	-10.7576
_sanguis	-10.7579
_paulum	-10.758
_diff	-10.758
_totidem	-10.7581
ngitur	-10.7583
_ardet	-10.7584
_martem	-10.7586
_queis	-10.7592
_fames	-10.7592
_uincit	-10.7595
_ortu	-10.7602
_pendent	-10.7603
_faciam	-10.7604
_puellas	-10.7606
_uisus	-10.7606
_legi	-10.7609
batur	-10.761
_uolo	-10.7614
_praeci	-10.7617
_femina	-10.7618
ponere	-10.7618
_extemplo	-10.7619
_populum	-10.7619
_florentia	-10.7619
_equis	-10.7625
_popula	-10.7626
_amantes	-10.7627
gro	-10.7631
_recessus	-10.7634
_dedi	-10.7636
_sedibus	-10.7641
_tuorum	-10.7645
_dda	-10.7646
_dcu	-10.7652
_famam	-10.7653
_testa	-10.7654
_funda	-10.7655
cco	-10.7656
_choreas	-10.7659
_uidimus	-10.766
_nfra	-10.7662
_iubar	-10.7663
_haben	-10.7664
_mouent	-10.7665
_nostram	-10.7665
_uocant	-10.7666
ll	-10.7666
menti	-10.7671
_sydere	-10.7671
_furore	-10.7674
dula	-10.7684
_ager	-10.7685
_rb	-10.7686
_choros	-10.7688
_cadauer	-10.7699
ensibus	-10.7706
_forent	-10.771
_patre	-10.7713
ngens	-10.7718
_ualle	-10.7718
rru	-10.7722
_pressa	-10.7734
_calore	-10.7734
_obscura	-10.7738
_deserta	-10.7738
_aduerso	-10.7739
_moenibus	-10.774
_illinc	-10.7742
_meminisse	-10.7743
_quinque	-10.7745
_moriens	-10.7747
_solent	-10.7748
_duris	-10.7748
_inquam	-10.7758
_adesse	-10.7764
_uocem	-10.7765
_sancte	-10.7779
_medices	-10.778
_fixa	-10.7782
_ausi	-10.7786
_cultor	-10.7787
_deinde	-10.779
_obse	-10.7799
_onus	-10.78
gio	-10.7805
_ustri	-10.7806
_oues	-10.7811
_caesare	-10.7813
_humili	-10.7816
rantur	-10.7817
puit	-10.7819
_aeterni	-10.7819
_festa	-10.7822
_cernis	-10.7831
bru	-10.7842
_praestanti	-10.7843
_regione	-10.7843
_fuerant	-10.7845
_insigni	-10.7847
_scelera	-10.7848
_christum	-10.7861
_furta	-10.7861
_ddu	-10.7866
_canes	-10.7868
_noctu	-10.7869
_floribus	-10.7872
iisse	-10.7875
_urge	-10.7877
_fame	-10.7879
_z	-10.7885
_perdit	-10.7899
_sequuntur	-10.79
_discrimina	-10.79
_cecidit	-10.79
_monstri	-10.7901
_procerum	-10.7902
_cede	-10.7903
_rbos	-10.7903
_coelesti	-10.7907
ttulit	-10.7908
_sonat	-10.7917
_amico	-10.7918
_lapsu	-10.7919
_matres	-10.793
ctam	-10.7932
sisti	-10.7938
_fatum	-10.794
_possint	-10.7941
_procella	-10.7943
_mensis	-10.7947
disse	-10.7958
_lco	-10.796
_rursum	-10.797
_acres	-10.797
_sera	-10.7971
nare	-10.7978
ctere	-10.7982
_antiqui	-10.7983
_tenuit	-10.7986
_mage	-10.7989
_coepit	-10.7999
_pudet	-10.8004
eruere	-10.8005
_cedere	-10.8007
_querelas	-10.8011
_cursum	-10.8014
_martia	-10.8015
_tegit	-10.802
_progenies	-10.8023
_origine	-10.8023
_dolorem	-10.8025
rbi	-10.8026
llibus	-10.8029
_parti	-10.803
_ptum	-10.8032
_mundus	-10.8035
_pleno	-10.8038
_sperare	-10.8043
_praebe	-10.8053
_abstulit	-10.8064
_faciunt	-10.8065
_pectoris	-10.8065
_tueri	-10.8066
uius	-10.8067
_cumula	-10.8068
_artibus	-10.8084
spexit	-10.8084
_amicos	-10.8088
_amari	-10.8089
_scru	-10.8094
pse	-10.8095
_ueneranda	-10.8095
_amicis	-10.81
_matri	-10.8101
_lachrymis	-10.8106
_rpa	-10.8108
fecit	-10.811
_tacito	-10.8111
_bam	-10.8119
_gentibus	-10.8119
_iuuant	-10.812
_posuit	-10.8122
_carpere	-10.8126
_marito	-10.8129
cari	-10.8135
_pugnam	-10.8143
_auxilio	-10.8147
_dextera	-10.8152
_lnu	-10.816
geri	-10.8162
_pondus	-10.8167
_silent	-10.817
_iram	-10.8172
_musas	-10.818
_nutu	-10.818
osus	-10.8188
_effer	-10.8188
_nominis	-10.8188
_membris	-10.8191
_crimen	-10.8192
_uigil	-10.8193
_bruma	-10.8196
_utraque	-10.8198
_lbe	-10.8201
_micant	-10.8204
misso	-10.8205
_facili	-10.8205
_recens	-10.8206
_facile	-10.8207
_fuisset	-10.8208
_thura	-10.8211
_monte	-10.8214
rula	-10.8214
_crudelis	-10.8219
_manum	-10.8224
_solue	-10.823
tina	-10.8234
_umquam	-10.8236
_ducum	-10.8237
_limine	-10.8243
_petunt	-10.8245
rentur	-10.8246
_aditus	-10.8249
nuere	-10.8251
_posita	-10.8253
cium	-10.8253
_excipi	-10.8253
_sororum	-10.8254
ph	-10.8256
_artis	-10.8257
ndebat	-10.8258
_inuita	-10.8266
_inops	-10.8274
_plaga	-10.8274
_ilia	-10.8274
_superest	-10.8275
_christus	-10.8277
den	-10.8279
cru	-10.8283
_rdos	-10.8286
_doctor	-10.8286
iam	-10.8288
_tris	-10.8306
_telis	-10.8306
_sanguinis	-10.8316
_fugiens	-10.8316
_puto	-10.8317
_frigida	-10.8318
_moras	-10.832
_renoua	-10.8322
_requies	-10.8322
_petis	-10.8323
tentem	-10.8324
_moesta	-10.8325
_gemitu	-10.8329
poni	-10.8336
_truces	-10.8339
_latet	-10.8342
_nescia	-10.8342
_fundit	-10.8343
_docuit	-10.8344
_conscia	-10.8359
_missa	-10.8368
_nouum	-10.837
_florenti	-10.8378
_fida	-10.8379
ronis	-10.8386
_nigro	-10.8387
uenit	-10.8389
_delecta	-10.8396
_patrios	-10.84
_nequicquam	-10.8401
_gru	-10.8402
_secreta	-10.8402
_secundo	-10.8402
_amicitia	-10.8404
_thre	-10.8407
_incipit	-10.8408
nctum	-10.8416
_uina	-10.8416
_patrie	-10.8421
_somnia	-10.8421
ngor	-10.8427
_cuique	-10.8428
_mpis	-10.8429
tex	-10.8432
_inuict	-10.8437
_silentia	-10.8447
_repara	-10.8449
_longis	-10.845
_ramis	-10.8454
_isto	-10.8455
_uigor	-10.8455
ione	-10.8464
_mortali	-10.8476
_uasto	-10.8479
_improbus	-10.8487
_ethere	-10.8491
_consi	-10.8492
_opaca	-10.8493
_contu	-10.8495
_somnos	-10.8496
_tenero	-10.8502
_fructus	-10.8512
_angui	-10.852
bli	-10.8521
spiciens	-10.8522
_reddi	-10.8528
_fortasse	-10.853
_responde	-10.8532
_arcu	-10.8534
_amnes	-10.8536
lua	-10.8539
tenus	-10.8541
_sonos	-10.8544
gimus	-10.8548
_morbi	-10.8557
_euro	-10.8566
_responsa	-10.8574
_soboles	-10.8574
_lusus	-10.8575
_poterat	-10.8575
_pompa	-10.8576
_ponto	-10.8579
_ullis	-10.8583
cata	-10.8588
_libra	-10.859
_lchro	-10.8592
_iactat	-10.8596
feri	-10.8601
_francisc	-10.8601
_prisco	-10.8617
_perpetua	-10.8618
puere	-10.8623
_rcto	-10.8625
lida	-10.8631
_possis	-10.8632
_nimio	-10.8634
_toga	-10.8638
_numinis	-10.8638
_dente	-10.8641
_parenti	-10.8649
_iuueni	-10.8649
_instat	-10.8654
_augur	-10.8662
_sustulit	-10.8664
fle	-10.8665
_laboris	-10.8671
_incipi	-10.8682
_phle	-10.869
latus	-10.8695
_rnis	-10.8696
_secta	-10.8699
_lmo	-10.8703
_imis	-10.8703
_templum	-10.8706
_aliquis	-10.8706
rsis	-10.8715
ngis	-10.8719
_spargit	-10.872
_aliena	-10.8723
_humeros	-10.8725
_oculi	-10.8727
_largi	-10.8733
_aetherea	-10.8738
_poscit	-10.8738
_humum	-10.8739
_uenis	-10.8745
_clementia	-10.875
_conueni	-10.875
_stetit	-10.8753
geret	-10.8754
_micat	-10.8758
_lucida	-10.8759
_feram	-10.8769
_acced	-10.8773
gerit	-10.8776
uenti	-10.878
_monet	-10.8782
_tendere	-10.8784
_innumeris	-10.8786
_uati	-10.879
thae	-10.8792
_exempla	-10.8794
_subeunt	-10.8796
_uenire	-10.8799
_somni	-10.8799
_calamo	-10.88
_quercus	-10.88
_nutri	-10.8803
_contraria	-10.8803
_exple	-10.8807
_moritur	-10.8809
_captus	-10.8824
_oro	-10.8829
_pares	-10.8833
_rtho	-10.8837
_uada	-10.8837
_duxit	-10.8838
_doctrina	-10.8839
_frigore	-10.8839
_relinque	-10.8839
_cardine	-10.8839
_honori	-10.8839
_armorum	-10.8839
_libido	-10.8839
_pietatis	-10.8839
_domo	-10.8843
_laeua	-10.8845
_ideo	-10.8846
_aquae	-10.8847
_nitido	-10.8848
_dominam	-10.8848
_nouos	-10.8849
_pingui	-10.885
_insani	-10.8857
ffe	-10.886
_off	-10.886
_addit	-10.8865
modo	-10.8873
_pauor	-10.8878
_planta	-10.8879
_canam	-10.8882
_extremo	-10.8884
_optimus	-10.8884
_rabies	-10.8885
gnu	-10.8888
_cepit	-10.8889
_obserua	-10.889
_secura	-10.8891
_lucifer	-10.8891
_audet	-10.8892
_altus	-10.8893
_lba	-10.8893
_formam	-10.8902
_celum	-10.8914
_spuma	-10.8916
cipiunt	-10.8917
_truci	-10.8917
uentes	-10.8919
_motu	-10.8922
_pedem	-10.8924
_legum	-10.8925
tissimus	-10.8928
_umbros	-10.8929
_artem	-10.8929
_prohibe	-10.8931
_alius	-10.8932
_pugnae	-10.8934
_rumor	-10.8936
_regio	-10.8939
_humor	-10.8939
_ferri	-10.8944
_retia	-10.8952
_tulisse	-10.8966
_mauors	-10.8974
_peregrin	-10.8974
_uersibus	-10.8974
_degener	-10.8974
_certatim	-10.8976
_stygia	-10.8976
_romano	-10.8979
_albe	-10.8979
_fluminis	-10.8981
_italiae	-10.8984
_ripas	-10.8991
_sequar	-10.8995
_traxit	-10.8997
_phri	-10.8998
_natis	-10.8999
sserit	-10.8999
_modos	-10.9003
_dy	-10.9004
_laurus	-10.9005
_uco	-10.9012
_scribere	-10.9017
_charites	-10.9021
_iugum	-10.9022
_antoni	-10.9024
_cedit	-10.9025
_memorem	-10.9032
_latium	-10.9032
_condita	-10.9037
_meas	-10.9038
dicat	-10.9041
_ncte	-10.9049
_insignem	-10.9054
_feris	-10.9057
_dicunt	-10.9057
_fatur	-10.906
cerat	-10.9067
_eodem	-10.9067
_equites	-10.9067
mirum	-10.9075
_classe	-10.9078
_amara	-10.908
_modula	-10.9082
_nemora	-10.9083
_patitur	-10.9083
_mitte	-10.9084
_exor	-10.9085
chus	-10.9086
_malus	-10.9087
_penna	-10.9091
ardo	-10.9092
_concin	-10.9096
_alas	-10.9097
_genuit	-10.9098
_lauri	-10.9098
_hero	-10.9103
_sagitta	-10.9104
_glacie	-10.9106
_ramos	-10.911
_auspiciis	-10.9111
_formidine	-10.9111
_inclita	-10.9111
_plebs	-10.9111
_hostili	-10.9111
_amicum	-10.9113
_undam	-10.9117
_festina	-10.9118
_dextram	-10.9118
_poetas	-10.9126
_dabis	-10.9129
_fallere	-10.9135
_dicat	-10.9142
_uestrum	-10.9142
tilis	-10.9155
ida	-10.9157
_amplius	-10.9157
_audaci	-10.9157
_thalami	-10.9157
_amplexus	-10.9158
_grauibus	-10.9168
_dormi	-10.9173
_succi	-10.9183
_matre	-10.9186
_pecori	-10.9192
_pontan	-10.9194
_sedem	-10.9195
_bte	-10.9203
_propinqua	-10.9203
_ocellos	-10.9204
_agite	-10.9206
_lchr	-10.9207
_impius	-10.9209
_ridet	-10.9212
_miseram	-10.9213
_soles	-10.9216
_plora	-10.9227
_primos	-10.923
_commune	-10.925
_stimulis	-10.925
_magnanimi	-10.925
_ardentes	-10.9254
ciam	-10.9257
_cypri	-10.9268
_occur	-10.927
culus	-10.9271
_german	-10.9271
_mixta	-10.9273
_colunt	-10.9279
_ustu	-10.9285
_ltri	-10.9286
_camena	-10.9288
centia	-10.9289
_agri	-10.929
sius	-10.9294
_parthenope	-10.9297
_humanum	-10.9297
_pingue	-10.9297
_positis	-10.9298
_lphi	-10.9298
_teneros	-10.9301
_fortes	-10.9302
_signis	-10.9303
_morbo	-10.9317
_misce	-10.932
_legis	-10.9327
_ualles	-10.9328
_properat	-10.9328
_miratur	-10.9329
_credas	-10.9332
_condit	-10.9339
_miracula	-10.9339
_prole	-10.9343
_ambrosia	-10.9344
_egregium	-10.9344
_iussu	-10.9344
_tauri	-10.9347
_ueneno	-10.9347
missis	-10.9353
_ambi	-10.9354
_sortem	-10.9359
nteis	-10.9361
_ueniat	-10.9365
_timore	-10.9366
_fors	-10.9367
_constanti	-10.9374
_cordis	-10.9379
_campi	-10.9382
_furens	-10.9384
_genitrix	-10.9391
_cadunt	-10.9392
_beatum	-10.9394
_fugam	-10.9397
_referunt	-10.9403
_iuris	-10.9413
_aduentu	-10.9416
_itala	-10.942
_senem	-10.9426
_aurae	-10.9428
_specula	-10.9432
_coniugi	-10.9436
_feruent	-10.9437
_pierides	-10.944
_exili	-10.944
_radios	-10.9441
deret	-10.9444
_uolue	-10.9445
_perge	-10.9445
_ueniet	-10.9447
_suscipi	-10.9457
_fuerint	-10.9459
_fratrem	-10.9464
_possim	-10.9464
_furorem	-10.9466
torum	-10.947
_potui	-10.9471
_uoluere	-10.948
_fratris	-10.948
_bsu	-10.9481
_frigora	-10.9486
_helicon	-10.9486
_officio	-10.9486
_zza	-10.9487
nza	-10.9487
_coloni	-10.9489
_sicca	-10.9495
_precipi	-10.9499
_extulit	-10.95
_resonant	-10.9503
_pandit	-10.9505
_breue	-10.9506
_pastores	-10.951
_rupes	-10.9513
_pridem	-10.9514
_xple	-10.952
_gaudent	-10.9521
_factis	-10.9526
_chari	-10.9527
thy	-10.953
_soluit	-10.9531
_immensum	-10.9534
_impos	-10.9534
rtibus	-10.9543
_ciuili	-10.9549
uros	-10.955
pelli	-10.9554
_sentit	-10.9557
_noscere	-10.9559
mini	-10.956
rbe	-10.9571
_uolui	-10.9576
_censu	-10.9578
_freta	-10.9581
_immortale	-10.9582
_duros	-10.9582
_roseo	-10.9585
ppi	-10.959
_iners	-10.9591
gine	-10.9593
_propere	-10.9606
_inuide	-10.9611
_monstrat	-10.9611
fac	-10.9614
cite	-10.9614
_serp	-10.9619
_labitur	-10.9621
_ctra	-10.9623
currere	-10.9626
_fulget	-10.963
_uolens	-10.9632
_uestes	-10.9632
_uiget	-10.9634
_uenetum	-10.9635
_mirabile	-10.9635
_protulit	-10.9636
nctu	-10.9637
bella	-10.9638
_instant	-10.9639
_albi	-10.9639
_amantem	-10.9641
_caute	-10.9651
_nobili	-10.9654
_alterna	-10.9656
_plaud	-10.9659
_torquet	-10.9663
_errant	-10.9673
_templis	-10.9675
_oceani	-10.9679
_carminis	-10.9679
_paret	-10.9682
_latices	-10.9683
ceptus	-10.9684
_uolita	-10.9684
_dsi	-10.9689
gerat	-10.969
_sar	-10.9695
mento	-10.9696
nimus	-10.9702
_turres	-10.9706
_genu	-10.9707
_patrio	-10.9708
_dubio	-10.9711
_fluctu	-10.9715
_uentre	-10.9721
_uident	-10.9721
_calliope	-10.9727
_parata	-10.973
_solita	-10.9733
_fugis	-10.9733
_ultor	-10.9735
_magnae	-10.9739
_ipsam	-10.974
tantes	-10.9742
_aurata	-10.9755
_ualida	-10.9759
_chu	-10.9768
_nectare	-10.9769
_gnem	-10.977
_sumere	-10.9772
_sceleris	-10.9774
_perfida	-10.9776
_tanquam	-10.9776
_felicem	-10.9777
_temperat	-10.9779
_componere	-10.9779
_stupe	-10.9784
_ambitio	-10.9785
_iuuentae	-10.9787
_filia	-10.9788
_fontibus	-10.9789
_bellorum	-10.9799
_unam	-10.9802
_mpum	-10.9812
lorum	-10.9813
_parant	-10.9821
_impiger	-10.9826
_instaura	-10.9826
_hesperia	-10.9826
_tramite	-10.9826
_nubibus	-10.9826
_libraria	-10.9827
_quantus	-10.9831
_inest	-10.9834
_cantat	-10.9836
_lacertis	-10.9836
_aetherei	-10.9837
_ffer	-10.9837
_odora	-10.9837
_palam	-10.9837
_feruntur	-10.9839
_pensa	-10.9841
_auris	-10.9842
_liba	-10.9845
stans	-10.9854
_seruire	-10.9863
teris	-10.9865
_aureus	-10.9867
_usto	-10.987
_impar	-10.9873
_ursa	-10.9875
_conuiuia	-10.9875
_anxia	-10.9875
_passus	-10.9875
_signum	-10.9876
_species	-10.9879
_superbum	-10.9879
_referens	-10.9884
lare	-10.9884
_rapidis	-10.9891
_nquu	-10.9893
_ornat	-10.9913
_illustre	-10.9925
_foemina	-10.9925
_digitis	-10.9927
_maligna	-10.9928
culi	-10.9929
_liquor	-10.993
bunda	-10.9934
_meliore	-10.9934
_secat	-10.9936
_xsu	-10.9941
xerunt	-10.9943
_doloris	-10.9944
_ausis	-10.9952
_calle	-10.9955
_herbas	-10.9967
_fora	-10.9972
_luxu	-10.9973
_impune	-10.9975
_comitem	-10.9975
ncis	-10.9978
_lpi	-10.9978
_prudens	-10.998
_facund	-10.9984
_longos	-10.9989
_nosse	-10.9995
thus	-10.9996
_laudat	-11
_summus	-11.0001
_sanctos	-11.0005
lti	-11.001
_concita	-11.0011
_laurea	-11.0016
_sitim	-11.0019
_use	-11.0022
_ausa	-11.0024
_cuspide	-11.0025
_equus	-11.0026
cedunt	-11.0026
_puellis	-11.0026
_custode	-11.0027
_somnus	-11.0028
_monitis	-11.0028
_rapuit	-11.0029
_uetustas	-11.0031
_saeuo	-11.0036
_possem	-11.0039
_fastus	-11.0046
pini	-11.0052
cchi	-11.0053
_tractus	-11.0058
_fletu	-11.0061
riae	-11.0062
morum	-11.0066
_miseranda	-11.0069
nco	-11.0069
_esto	-11.0069
_supplic	-11.007
_margine	-11.0076
_propriis	-11.0076
_totis	-11.0076
_utem	-11.0078
_amicus	-11.0078
_tormenta	-11.0079
_lupus	-11.0081
rnum	-11.0081
_carpe	-11.0085
thon	-11.0086
_abest	-11.0091
_cecinit	-11.0093
_miserae	-11.0097
_mollis	-11.01
_ullo	-11.0105
_lacrima	-11.0114
_ipsos	-11.0117
_extin	-11.0121
_lex	-11.0124
_iniuria	-11.0126
_apud	-11.0127
_sensim	-11.0127
_dixi	-11.0128
_discordia	-11.0128
_uersat	-11.0131
_leuibus	-11.0132
_ignota	-11.0135
_fideli	-11.014
tantur	-11.0147
_toro	-11.0151
_cordi	-11.0153
_sublimis	-11.0172
_dapes	-11.0172
_uulgo	-11.0177
_latebras	-11.0177
_contigit	-11.0178
_ostenta	-11.0179
_admir	-11.0179
_luctu	-11.0182
_putet	-11.0182
_resera	-11.0183
_nestor	-11.0184
_usum	-11.0185
_claudi	-11.0187
_templi	-11.0188
rgo	-11.0205
_donis	-11.0206
_latii	-11.0206
_marti	-11.0213
_niues	-11.0216
_stamina	-11.0225
_nitidis	-11.0227
_latina	-11.0227
_facti	-11.0228
_diuitias	-11.0229
_immiti	-11.023
_laxa	-11.023
_incumb	-11.0234
_rmen	-11.0235
_morem	-11.0237
_aegra	-11.0241
_rumpe	-11.0242
_praedam	-11.0243
_barbaric	-11.0243
_gemit	-11.0246
_aethereo	-11.0251
_exerce	-11.0255
_digito	-11.0259
lentem	-11.0263
_gelu	-11.0277
_rphe	-11.0278
_uestro	-11.0278
_tyranno	-11.028
_occidit	-11.028
_ualido	-11.0282
_uirtutibus	-11.0282
_honesta	-11.0283
_numerum	-11.0284
_umbram	-11.0284
_spatio	-11.0293
_concipi	-11.0297
_tempe	-11.0306
_equitum	-11.0308
_flaua	-11.0316
_dabunt	-11.0324
_uulga	-11.0333
_titulis	-11.0333
_potentes	-11.0333
_relictis	-11.0333
_canunt	-11.0349
_decem	-11.0352
_affla	-11.0356
_placent	-11.0363
_uexat	-11.0364
_splendor	-11.0367
_morsu	-11.0367
_sermo	-11.0367
_ueteris	-11.0369
_inuen	-11.0369
_dqui	-11.037
_aeque	-11.0376
_fauet	-11.0383
_concuti	-11.0385
_toties	-11.0385
_sanctis	-11.0392
strorum	-11.0397
_littus	-11.0403
_haeret	-11.0403
_tenuere	-11.0403
_uirenti	-11.0421
_potentem	-11.0431
_sociis	-11.0433
_plectra	-11.0436
_contentus	-11.0436
_exitium	-11.0437
_rcem	-11.044
_pluuia	-11.0442
_extra	-11.0443
_cohibe	-11.0444
_regibus	-11.0448
_famae	-11.045
_prodig	-11.0451
_alcides	-11.0455
_lse	-11.047
_pulchri	-11.0474
_sperat	-11.0476
muere	-11.0477
_differ	-11.0479
_iustitia	-11.0479
_rogat	-11.0479
_alte	-11.0488
_obuius	-11.0492
_sparsa	-11.0497
_clis	-11.05
_praesta	-11.0504
_chorus	-11.0508
_iuuet	-11.0512
_dolet	-11.0512
cerit	-11.0513
_uisum	-11.0515
_regnis	-11.0517
_quieti	-11.0521
_geminos	-11.053
_cruce	-11.0534
_aues	-11.0537
_lacryma	-11.0542
_cortice	-11.0542
_nefanda	-11.0543
_geminas	-11.0543
dare	-11.0543
ntius	-11.0544
_exercitus	-11.055
_pabula	-11.0554
_uiator	-11.0555
_dominus	-11.0558
_prudentia	-11.0559
reat	-11.0562
_alme	-11.0567
_probat	-11.0573
_putes	-11.059
_gratus	-11.0591
_intrepid	-11.0595
_querelis	-11.0596
_faciat	-11.0598
_carpit	-11.0599
_fluuio	-11.06
_coegit	-11.06
_falce	-11.0602
_decent	-11.0603
_chori	-11.0606
ccum	-11.0611
_magistra	-11.0615
_ortum	-11.0616
perire	-11.0635
rse	-11.0639
_atris	-11.0644
_sorti	-11.0647
_thalamos	-11.0648
_immensa	-11.0649
_monstrum	-11.0649
_claustra	-11.0649
_ocellis	-11.0649
_ingrata	-11.065
_claris	-11.0652
_mutua	-11.0657
_ruinam	-11.0658
_fraudes	-11.0662
_promissa	-11.0675
gare	-11.0681
_tenebat	-11.0681
_siste	-11.0682
_siqua	-11.0685
ncia	-11.0693
_furores	-11.0707
_italiam	-11.0713
_ualidis	-11.0714
_cupidine	-11.0714
_aperto	-11.0715
llere	-11.072
_strepitu	-11.0723
_tenera	-11.0742
_agitat	-11.0744
_dardan	-11.0745
_consule	-11.0753
_fracta	-11.0754
_caeci	-11.0756
_assidue	-11.0756
_praecipue	-11.0757
_terribili	-11.0758
_secutus	-11.0758
_quatit	-11.0763
_nthe	-11.0766
_ensem	-11.0767
_astu	-11.0769
xisti	-11.0774
_curam	-11.0778
_ostendit	-11.0794
_seua	-11.0802
_meruit	-11.0802
_parcite	-11.0806
_nquo	-11.0811
_condidit	-11.0811
_probitas	-11.0812
_tangit	-11.0812
_quaeris	-11.0813
_ruunt	-11.0814
_boues	-11.0822
_quidam	-11.0832
_graecia	-11.0837
_macula	-11.0839
tium	-11.084
_facto	-11.0845
_mittere	-11.0854
_periclis	-11.0858
_crescit	-11.0865
_adulter	-11.0865
_reuerentia	-11.0866
_similes	-11.0866
_equum	-11.0866
_fecisse	-11.0869
_trahunt	-11.087
_conueniunt	-11.0871
_ambit	-11.0871
_beatus	-11.0872
_rhi	-11.0873
_solatia	-11.0877
_siquis	-11.0878
_rustica	-11.0882
_lateri	-11.0893
_beato	-11.0893
_bacchi	-11.0894
_questus	-11.0895
_rosas	-11.0896
_adora	-11.0898
_petere	-11.0898
pulit	-11.0902
_cquam	-11.0906
_strepitus	-11.0909
_pura	-11.0914
_simplici	-11.092
_gallorum	-11.092
_inuida	-11.0921
_iucund	-11.0922
_cruor	-11.0922
_crudelia	-11.0923
_ludere	-11.0929
color	-11.0929
ulta	-11.0934
_aeui	-11.0934
_factum	-11.0937
_medicina	-11.0939
fli	-11.0953
_pretio	-11.0955
_ualent	-11.0965
_ministra	-11.0967
uisti	-11.0971
_regali	-11.0972
_parcere	-11.0975
_perpetuum	-11.0976
_locutus	-11.0976
_rabiem	-11.098
_nupta	-11.0982
_gradu	-11.0985
nnis	-11.0989
_iocis	-11.099
_memori	-11.0993
_abire	-11.0995
_rchi	-11.0999
terant	-11.1001
_certum	-11.1003
_uisere	-11.1005
_bde	-11.1017
_superbus	-11.102
_risus	-11.1021
_uolant	-11.1026
_uirga	-11.1031
mentum	-11.1031
_uolucrum	-11.1031
_iurgia	-11.1032
nari	-11.1034
_arboribus	-11.1036
_arcum	-11.1039
_primae	-11.1042
_adria	-11.1046
acula	-11.1048
_properant	-11.1049
_incola	-11.1053
colis	-11.1054
_classem	-11.1054
_scripsi	-11.1056
_pande	-11.1057
_antrum	-11.1058
_perire	-11.1059
mentem	-11.1064
_gemini	-11.1066
_superbi	-11.1067
_scopulos	-11.1067
_iusto	-11.1071
_laurenti	-11.1073
_capti	-11.1077
_ubera	-11.1091
_success	-11.1093
_uirtutem	-11.1097
_marce	-11.11
feris	-11.1101
latum	-11.1105
_franciscus	-11.111
_deuia	-11.1111
_sereno	-11.1115
_compesc	-11.1117
_fossa	-11.112
zi	-11.1121
_statuit	-11.1122
cule	-11.1124
_neget	-11.1125
_reliquis	-11.1125
_tumulum	-11.1131
erint	-11.1135
_iubent	-11.1142
_aliger	-11.1142
_eloquio	-11.1143
_luminibus	-11.1143
_profecto	-11.1143
_posuere	-11.1147
_rates	-11.1162
_currit	-11.1164
_leones	-11.1165
dudum	-11.1166
_uento	-11.117
_esca	-11.1174
lte	-11.1177
_insula	-11.1181
_felicia	-11.1183
zo	-11.1188
_condere	-11.1195
_mirantur	-11.1198
_celeberrim	-11.12
_telluris	-11.12
_primordia	-11.12
_attamen	-11.12
_herbis	-11.12
_mauorti	-11.1201
_descendit	-11.1202
cuntur	-11.1204
_turpis	-11.1214
_heroum	-11.1221
_longius	-11.1231
remus	-11.1234
_cunta	-11.1234
_licuit	-11.1243
_aequo	-11.1249
_aduersis	-11.125
_mahomett	-11.1257
_coeptis	-11.1257
_secundis	-11.1257
_machina	-11.1257
_stygii	-11.1258
_aquilo	-11.1258
_alpes	-11.126
_humanis	-11.126
_aemula	-11.1262
_horrendum	-11.1262
_dicit	-11.1269
_digne	-11.1271
_aetate	-11.1271
_sistere	-11.1271
_fundere	-11.1279
_fuso	-11.128
_bono	-11.1281
dru	-11.1288
_dolis	-11.1295
_errat	-11.1303
_ueneta	-11.1307
_hospiti	-11.1309
_consiliis	-11.131
_insequitur	-11.1314
_exemplo	-11.1314
_repetit	-11.1314
_spatium	-11.1316
_mantua	-11.1316
_reddidit	-11.1318
_concilia	-11.1318
_occasu	-11.1318
_famem	-11.1321
_uestis	-11.1323
_fretum	-11.1325
gentem	-11.1326
_romam	-11.1327
_titulos	-11.1331
_ponit	-11.1343
_redire	-11.1344
glo	-11.1351
_pontum	-11.1358
_petri	-11.1362
_triton	-11.1366
_camoena	-11.1371
_cymba	-11.1375
_conuenit	-11.1375
_effl	-11.1382
_labra	-11.1391
_memores	-11.1396
_pellere	-11.1406
_uideat	-11.141
_undae	-11.1411
seus	-11.1411
ngo	-11.1416
_horrenda	-11.1424
_tangere	-11.1427
_insidiis	-11.1429
_splendida	-11.1429
_cecidere	-11.1429
minet	-11.1429
_profundi	-11.1429
_quassa	-11.1431
_grauem	-11.1434
_columna	-11.1436
_urbibus	-11.1436
_siluae	-11.1439
lto	-11.1446
_ciet	-11.1446
_auster	-11.1447
_ffo	-11.1447
_implet	-11.146
_plenis	-11.146
beris	-11.1461
_infla	-11.1463
_dixere	-11.1463
_arcana	-11.1466
_effugi	-11.1476
_iungere	-11.1478
alde	-11.1481
_stabat	-11.1482
tendere	-11.1484
_lachrymas	-11.1485
_ble	-11.1486
_frondibus	-11.1487
_profundo	-11.1487
_fistula	-11.1488
_missus	-11.1488
_saeuus	-11.1489
_loquar	-11.1491
_diuae	-11.1491
_petrus	-11.1495
_niueis	-11.1495
_fallit	-11.1497
_enses	-11.1511
_lbi	-11.1514
_surgere	-11.1514
_laetis	-11.1515
_gallos	-11.152
_modus	-11.1523
_classis	-11.1532
_lapsa	-11.1532
_altius	-11.1533
_ferebat	-11.1538
dro	-11.1538
_tranquilla	-11.1539
ctare	-11.1545
_assiduo	-11.1546
ouiano	-11.1546
_exact	-11.1546
_surgunt	-11.1547
_imbre	-11.1549
_fatigat	-11.1551
_larga	-11.1551
_odiis	-11.1553
_cubili	-11.1554
_amori	-11.1556
_uidentur	-11.1559
_posito	-11.1559
_pendet	-11.1562
_magistri	-11.1568
_manifesta	-11.1569
_onera	-11.157
_ffr	-11.1581
_basia	-11.1584
_uultum	-11.1585
_dulcem	-11.159
_cognoscere	-11.1592
_requiem	-11.16
_amplexu	-11.1603
_ka	-11.1604
_similem	-11.1605
_tribuit	-11.1607
iciunt	-11.1607
_blando	-11.1612
_uenisse	-11.1613
_patribus	-11.1616
_odium	-11.1616
_palatia	-11.1618
_fiat	-11.1618
_pretium	-11.1618
_peccat	-11.1628
_mortalis	-11.163
_aede	-11.1632
_inuisa	-11.1633
_monitus	-11.1635
stantia	-11.1636
_habitare	-11.1638
_conspici	-11.1638
_insignes	-11.1646
_gradum	-11.1648
luat	-11.1659
ceant	-11.1661
_anno	-11.1663
_mariti	-11.1664
_innumeros	-11.1664
_pelagus	-11.1664
_uirtutum	-11.1664
_annus	-11.1664
_senectus	-11.1664
_uenenum	-11.1665
_gorgon	-11.1665
_securi	-11.1666
tabant	-11.1667
_gelidis	-11.1668
_uidebis	-11.1669
_hominis	-11.1669
_annua	-11.168
_aperta	-11.1686
_summe	-11.1687
_libertate	-11.1687
_boreas	-11.1701
_ualeat	-11.1702
_lenta	-11.1712
_liquores	-11.1713
_nuntius	-11.1716
_uolunt	-11.1719
_placidis	-11.172
_tentare	-11.1721
_confestim	-11.1723
_pulchro	-11.1723
_oceano	-11.1723
_uolumina	-11.1723
_caligine	-11.1723
_lachryma	-11.1725
_genera	-11.1726
_aegro	-11.1726
_ouans	-11.1726
_apex	-11.1726
_leuat	-11.1727
xeris	-11.173
_affectu	-11.1733
_ualeant	-11.1738
_canere	-11.1742
_iulia	-11.1742
_uocari	-11.1743
_marmora	-11.1751
catur	-11.1755
lex	-11.1772
_pernici	-11.1773
fectus	-11.1776
_principio	-11.1783
_fauces	-11.1783
_agricola	-11.1784
_furtim	-11.1784
_sperne	-11.1787
_barbarus	-11.1787
_uulcan	-11.1788
_instruct	-11.1789
_florida	-11.1791
_olor	-11.1794
_praecepta	-11.1797
_relligione	-11.18
_militiae	-11.1821
_placere	-11.1821
_frons	-11.1823
_rutila	-11.1826
_ingentia	-11.1832
nebant	-11.1839
_sedula	-11.184
_luminis	-11.1843
_instit	-11.1845
_teneri	-11.1846
_corusca	-11.1859
cessere	-11.1863
_thalia	-11.1863
_uatibus	-11.1863
_prolem	-11.1869
_tristem	-11.1869
_fortibus	-11.1871
_uitium	-11.1877
_tonanti	-11.1881
_amnem	-11.1882
_rubent	-11.1885
_nza	-11.1887
_numera	-11.1893
_credis	-11.1904
_ulterius	-11.1904
_proprium	-11.1904
_romule	-11.1904
_perenne	-11.1905
_origo	-11.1905
_insano	-11.1905
_fratrum	-11.1906
_seruet	-11.1907
_impedi	-11.1915
_deuot	-11.1919
_uapor	-11.1926
tauit	-11.1928
_parem	-11.1928
_audita	-11.193
_sortis	-11.1932
oluitur	-11.1933
_passa	-11.1944
_sensi	-11.1944
_lyram	-11.1947
_aggere	-11.1953
_alexand	-11.1965
_cacumina	-11.1965
_tonitru	-11.1965
_illustri	-11.1965
_palmis	-11.1965
_impetus	-11.1965
_prodest	-11.1966
_superesse	-11.1967
_merces	-11.1969
_linque	-11.1969
_cornibus	-11.197
_honesti	-11.1971
_saxis	-11.1972
poli	-11.1977
_molem	-11.1978
_uellera	-11.1978
_contend	-11.1981
_eripi	-11.1981
_morbos	-11.1982
_blu	-11.1983
_aquila	-11.199
_lassa	-11.1994
ptu	-11.1995
_regnat	-11.2003
_fertili	-11.2007
_constitu	-11.2011
_fontem	-11.2012
_gressus	-11.2012
_cupidi	-11.2021
rentibus	-11.2023
_officium	-11.2026
_uinclis	-11.2026
_spoliis	-11.2027
_furiis	-11.2029
_humiles	-11.2029
_nigris	-11.203
_euntem	-11.2031
_uerbere	-11.2031
_constitit	-11.2032
_pontus	-11.2034
_taciti	-11.2036
_lyrae	-11.2039
_recepit	-11.204
_sustinet	-11.2044
_gemino	-11.2044
_seruant	-11.2045
_scelerata	-11.2045
_coronam	-11.2048
tabile	-11.2058
_teneras	-11.2058
_nuntia	-11.2059
iecto	-11.2061
_hostia	-11.2061
rumpit	-11.2063
_aliae	-11.2065
_thro	-11.2071
_uiuet	-11.2072
_ferae	-11.2076
_insignia	-11.2078
_statua	-11.2078
_collis	-11.2081
_exemplum	-11.2088
_purpura	-11.2088
_simplex	-11.2088
_faucibus	-11.2088
_cynthia	-11.2088
_segetes	-11.2088
torem	-11.2089
_crebris	-11.2089
_fuge	-11.209
_uicini	-11.2093
mentis	-11.2096
_ausoniae	-11.21
_tamquam	-11.2102
_dolent	-11.2108
_tabella	-11.2117
_catena	-11.2117
_nitida	-11.212
_dabitur	-11.2123
_concordia	-11.2131
_reuocare	-11.2133
_superbos	-11.2145
_iunge	-11.2146
_difficile	-11.215
_benigni	-11.215
_thalamo	-11.2151
_angue	-11.2151
_suscipe	-11.2153
_nutrit	-11.2156
_contingere	-11.2156
_borsi	-11.2159
_grauiter	-11.2162
_perennis	-11.2165
_uestit	-11.2166
_euentu	-11.2167
_tolerare	-11.2168
genti	-11.2169
_splendore	-11.2172
_praestat	-11.2188
_odio	-11.2189
_operum	-11.2192
_habita	-11.2193
_effera	-11.2194
uncto	-11.22
_inerti	-11.2202
_ferant	-11.2204
_desunt	-11.2206
_pudica	-11.2208
_flumen	-11.2211
_maiestas	-11.2213
_plectro	-11.2213
_dulcedine	-11.2213
tantem	-11.2213
_ianua	-11.2214
_ample	-11.2216
_uiolenti	-11.2217
_ducibus	-11.2221
_grauat	-11.2223
_docte	-11.2225
_sagittas	-11.2227
_uenerand	-11.2229
_cerno	-11.2229
_tertia	-11.2231
_suspira	-11.2235
gentes	-11.2239
bilibus	-11.2241
_saeuis	-11.2248
_uerna	-11.226
_fiet	-11.2261
_spectacul	-11.2262
missus	-11.2269
_ignea	-11.2269
_zephyri	-11.2275
_temerari	-11.2275
_officii	-11.2275
_compita	-11.2276
_gallia	-11.2276
_obliui	-11.2276
_dissimula	-11.2276
_magnanimus	-11.2278
_aspicit	-11.2278
_luit	-11.2279
_ausonia	-11.2279
_aliqua	-11.2284
_fluenti	-11.2285
trahit	-11.2292
_diuinum	-11.2295
_necem	-11.2302
_ensis	-11.2309
_reliqui	-11.2317
_facilem	-11.2325
rba	-11.2327
_spirant	-11.2331
_ceres	-11.2334
_impon	-11.2338
_phoebum	-11.2339
_crucis	-11.2339
_inania	-11.2339
_scopuli	-11.2339
_iungit	-11.2339
_inferior	-11.234
_futurum	-11.2341
_limite	-11.2344
_comitante	-11.235
nxere	-11.235
_libertas	-11.2351
_humus	-11.2355
_nichil	-11.2358
_intulit	-11.2363
_lance	-11.2385
_superant	-11.2388
_dederat	-11.2393
_miscet	-11.2393
_saturni	-11.2396
_murmur	-11.2401
_neglig	-11.2403
_conferre	-11.2403
_rupibus	-11.2403
_iniquo	-11.2403
_dilecta	-11.2405
_lustrat	-11.2407
_parcae	-11.2407
_rediit	-11.2419
_tauro	-11.2419
_praecipita	-11.2421
_gressu	-11.2423
_gutture	-11.2428
_crebro	-11.2433
_cchu	-11.2439
_addere	-11.2446
_cedat	-11.245
_clamor	-11.2457
stabat	-11.2459
_pasce	-11.246
_furenti	-11.2461
_induit	-11.2461
_auia	-11.2462
_geminis	-11.2466
_cecidisse	-11.2467
_triplici	-11.2467
_aliquo	-11.2467
_adhibe	-11.2468
_expers	-11.2468
_horror	-11.2471
_superstes	-11.2472
_sodali	-11.2473
_claudit	-11.2475
_sapor	-11.2475
_cognomin	-11.2476
_dicas	-11.2479
_cadat	-11.2481
_quaedam	-11.2482
_clades	-11.2495
_daret	-11.2497
_uadis	-11.2502
_dubia	-11.251
gressi	-11.2518
_generi	-11.2519
_siquid	-11.2521
_absum	-11.2528
_aurato	-11.2528
_purpurea	-11.2531
_fugiunt	-11.2531
_cruorem	-11.2531
_stygio	-11.2533
_infesta	-11.2533
_celebrat	-11.2533
_miserabile	-11.2534
_columba	-11.2535
_deserit	-11.2537
_sponsa	-11.2538
_impend	-11.2541
_acerbo	-11.2543
_grandis	-11.2543
_crura	-11.2545
_uictori	-11.2548
missum	-11.256
_compon	-11.2562
_collibus	-11.2564
_formosi	-11.2567
_offert	-11.2582
_perenni	-11.2582
_neptun	-11.2587
_latinis	-11.2588
_explora	-11.2597
_dextro	-11.2597
_dubiis	-11.2597
_praeside	-11.2597
currunt	-11.26
_uestros	-11.2606
gy	-11.262
gma	-11.2634
_opum	-11.2638
_stabili	-11.2647
_lepor	-11.265
_choris	-11.265
_formida	-11.2656
_gratior	-11.2656
_fugere	-11.2656
estum	-11.2657
_extremum	-11.2661
_quadrupe	-11.2661
_incassum	-11.2661
_linquit	-11.2661
_arbitrio	-11.2662
_frequens	-11.2663
_periit	-11.2664
_pieridum	-11.2665
_ducunt	-11.2684
_lapis	-11.2691
_amens	-11.2695
_taurus	-11.2699
_habebat	-11.27
_credo	-11.2714
fuit	-11.2722
posita	-11.2727
_herculis	-11.2727
_sodales	-11.2727
_pannoni	-11.2727
_uelint	-11.2733
_clamat	-11.2735
_aetna	-11.2736
_cateruas	-11.2736
_uagus	-11.2736
_ministrat	-11.2738
gon	-11.2742
_infra	-11.2747
_praesul	-11.2747
_sopore	-11.2748
_hiatu	-11.275
_peditum	-11.2751
_ostende	-11.2754
_reddita	-11.2759
_lfo	-11.2762
_pellit	-11.2763
_pererr	-11.2766
_peperit	-11.2768
_scribe	-11.278
_gradiu	-11.2783
_portis	-11.2788
_cecropi	-11.2793
_insuper	-11.2793
_iudicium	-11.2793
_diadema	-11.2793
_borgia	-11.2794
_dedecus	-11.2794
_ministri	-11.2794
_hostiles	-11.2797
_grauitate	-11.2798
_libelli	-11.28
idem	-11.2801
_experi	-11.2801
_imber	-11.2802
fla	-11.2803
_quattu	-11.2805
_uesper	-11.2805
ertius	-11.2805
_uellet	-11.2807
_carne	-11.2807
llent	-11.2808
_aduersu	-11.2809
_duobus	-11.2809
_puppes	-11.2812
_posce	-11.282
_exercet	-11.2826
_magister	-11.2838
_crebra	-11.2839
_mandat	-11.2844
_assiduis	-11.286
_alacres	-11.286
_teucro	-11.286
_loquor	-11.286
_antiquo	-11.286
_papilla	-11.2864
_furibund	-11.2864
_uiuat	-11.2882
derant	-11.2882
_uictricia	-11.2883
_flammae	-11.2885
_singul	-11.2889
_uolucris	-11.2891
_excitat	-11.2891
_celesti	-11.2894
_praeterit	-11.2894
_petre	-11.2903
_raptus	-11.2905
lumnis	-11.2906
_occulta	-11.2908
_fauent	-11.2913
_pulsat	-11.2926
_magnanimo	-11.2927
_pignus	-11.2928
_licebit	-11.2928
feret	-11.2928
_pollice	-11.2929
_propius	-11.2929
_saecla	-11.2929
_foliis	-11.2929
_portum	-11.2931
sistere	-11.2935
_uxorem	-11.2937
_appell	-11.2938
_uoluta	-11.2939
_lector	-11.2947
_inuicti	-11.2947
_magistro	-11.295
_prospera	-11.2955
_lphu	-11.2958
_rapina	-11.2962
_ficta	-11.2971
_expectat	-11.2975
_liquit	-11.298
_petens	-11.2981
_iunxit	-11.2991
_superbis	-11.2994
_istud	-11.2995
_exiguo	-11.2995
_oblita	-11.2996
_medici	-11.2997
_latiis	-11.3001
_currere	-11.3001
_quidue	-11.3003
_nectar	-11.3007
_uallis	-11.3007
_dedisti	-11.3023
_natorum	-11.3031
_possent	-11.3037
_praestare	-11.3041
_solitus	-11.3043
_incommoda	-11.3063
_augusti	-11.3063
_anhela	-11.3063
_latebris	-11.3063
_series	-11.3065
_consilia	-11.3066
ugera	-11.3066
_fuluo	-11.3067
_circuit	-11.3067
_nobilitas	-11.3067
ximus	-11.3075
_saltu	-11.3086
_nitenti	-11.3095
_maiori	-11.3098
_lcra	-11.3109
_expul	-11.3109
pru	-11.3122
_regnator	-11.3125
_celebres	-11.3131
_egregio	-11.3131
_eoo	-11.3131
_fallax	-11.3131
_committere	-11.3132
_largo	-11.3133
_febris	-11.3135
_feroces	-11.3135
_respice	-11.3135
_commissa	-11.3135
oniis	-11.3137
_animalia	-11.3138
_diuorum	-11.3142
_gradus	-11.3143
ruat	-11.3143
_seruit	-11.3145
_territa	-11.3145
_paribus	-11.3145
_caeco	-11.3151
_syri	-11.3156
_surgens	-11.3157
_astro	-11.3158
_properans	-11.3158
_subter	-11.3158
_imbres	-11.3168
_silet	-11.3176
lco	-11.3181
_iuuenili	-11.3186
_illorum	-11.319
_tacita	-11.3195
_procellis	-11.32
_tenens	-11.3201
ccumbere	-11.3201
_saecli	-11.3202
_scipio	-11.3202
_accepit	-11.3203
_uiderit	-11.3203
_cupio	-11.3204
_paratus	-11.3217
_praecipiti	-11.3222
_placuit	-11.3226
_nitens	-11.3229
_armata	-11.3234
_rumpere	-11.3234
_pontificis	-11.3243
_candenti	-11.3251
_passu	-11.3251
_portu	-11.3254
_angel	-11.3255
_nascenti	-11.3255
_subita	-11.326
_aequoris	-11.3261
_principium	-11.327
_aegris	-11.327
_externa	-11.3271
_doctis	-11.3271
_ucro	-11.3272
_minatur	-11.3273
_uolet	-11.3275
_frige	-11.3277
_iugales	-11.3277
_calcar	-11.3277
_cupiens	-11.328
_circumdat	-11.3293
phus	-11.3297
_comam	-11.3302
_meritas	-11.3305
_uallibus	-11.3307
_gaudere	-11.3312
_uacat	-11.3314
_matura	-11.3317
_rapidi	-11.3319
_pinguia	-11.3323
_simili	-11.333
_cytherea	-11.334
_praeclara	-11.334
_fulmen	-11.334
_benigno	-11.334
_perferre	-11.334
_tollunt	-11.3341
_carior	-11.3344
_errore	-11.3345
_humida	-11.3351
_linquens	-11.3351
_tumulis	-11.3351
_tenerum	-11.336
_tabula	-11.3363
_gressum	-11.3364
gle	-11.3366
_casa	-11.3373
_phalange	-11.3376
_formos	-11.3382
psa	-11.3383
_foro	-11.3387
_quirite	-11.3389
_flecte	-11.3394
_capiunt	-11.3395
_europae	-11.341
_implicit	-11.3412
_concurrere	-11.3415
_parthi	-11.3416
_lepores	-11.3416
_purpureis	-11.3417
_alumno	-11.3432
_uacca	-11.3432
_busta	-11.3433
_candore	-11.3436
_gaudens	-11.344
_pastorum	-11.3443
rcum	-11.3445
tatem	-11.3446
_sacrata	-11.3448
_uolucri	-11.3448
_uicit	-11.3454
_miscent	-11.3462
_poetam	-11.3469
_languida	-11.3481
_sceptrum	-11.3481
_subiecta	-11.3481
_diuitiis	-11.3481
_exagita	-11.3481
_ferraria	-11.3481
_probitate	-11.3481
_infans	-11.3481
_immensi	-11.3481
_quatuor	-11.3481
uentum	-11.3484
_glomera	-11.3485
_rigido	-11.3485
_decipi	-11.3486
rimit	-11.3487
_aciem	-11.3487
_dederit	-11.3488
_cuiquam	-11.3497
_patiar	-11.3497
_capita	-11.3518
_uehit	-11.352
_bonos	-11.3522
_aetheris	-11.3525
_sedulus	-11.3526
_certis	-11.3534
_cupie	-11.3538
rescunt	-11.3539
_saeuos	-11.3546
_humani	-11.3549
_arduus	-11.3552
_tegmine	-11.3552
_cauti	-11.3553
_auerni	-11.3554
_silue	-11.3557
_millia	-11.3557
_focis	-11.3559
hy	-11.3559
_culti	-11.3563
_partim	-11.3565
_heroas	-11.3568
_uerbera	-11.3573
_terrore	-11.3577
_postes	-11.3578
_fuerunt	-11.358
_honorat	-11.3582
_graia	-11.3587
_crinibus	-11.3592
_piorum	-11.3604
_belliger	-11.3609
_certant	-11.3611
_fauor	-11.3614
_legem	-11.3616
_cantare	-11.3616
_prohibet	-11.3624
_carbasa	-11.3624
_fastigia	-11.3624
_littera	-11.3624
_lcro	-11.3624
_lpho	-11.3628
_abeunt	-11.363
_trunca	-11.3633
_hilari	-11.3639
_uetusta	-11.3649
iicit	-11.3659
_autumn	-11.367
_alie	-11.3677
_uidua	-11.3677
_risu	-11.368
ccus	-11.3683
_moueri	-11.3685
_uellere	-11.3687
_pudoris	-11.3687
_extremis	-11.3693
_pataui	-11.3694
_crista	-11.3695
_muneribus	-11.3697
_securus	-11.3697
clop	-11.3697
_pectine	-11.3698
_potuisse	-11.3698
_recepta	-11.3698
_templo	-11.37
_pereunt	-11.3705
_succur	-11.3705
_sophia	-11.3706
_terror	-11.3709
_densis	-11.3711
mbre	-11.3716
_altaria	-11.3717
uisset	-11.3717
_plenus	-11.3724
_offer	-11.3729
_fixit	-11.3729
_iacob	-11.3732
_innumeras	-11.3746
_certare	-11.3748
_crucia	-11.3752
_tradere	-11.3753
_dubite	-11.3757
_linguam	-11.3763
_tractu	-11.3767
_baccha	-11.377
_figuris	-11.377
_salubri	-11.377
_iudicio	-11.377
_immite	-11.377
_liquidis	-11.3777
_concidit	-11.3778
_radiant	-11.378
_fruges	-11.3781
_meritum	-11.3781
cchia	-11.3785
_alloqu	-11.3794
centibus	-11.3798
_orba	-11.3799
_pereat	-11.3801
_gregis	-11.3801
iectus	-11.3809
rantes	-11.3811
positis	-11.3816
_ulula	-11.383
_foribus	-11.3832
_retine	-11.3835
_lacrymis	-11.3843
_lampade	-11.3843
_rebelles	-11.3843
_fiducia	-11.3843
_fallor	-11.3844
_tonantem	-11.3844
_sinistra	-11.3844
_hyla	-11.3844
umst	-11.3844
_ceciner	-11.3844
_cithara	-11.3844
quirere	-11.3844
_impulit	-11.3844
_muneris	-11.3845
_uolatu	-11.3847
_naues	-11.385
_tutela	-11.3851
_repetens	-11.3851
_iuncti	-11.3854
_quemquam	-11.3862
_marmor	-11.3891
_uideor	-11.3897
bstru	-11.3909
_ruinis	-11.3914
_credita	-11.3915
_sulphur	-11.3917
_utrinque	-11.3917
_pergama	-11.3918
_oblitus	-11.3918
_arabum	-11.3918
_mbr	-11.3918
_numquid	-11.3919
_labris	-11.3926
_inferni	-11.3927
_pestem	-11.393
_aucta	-11.393
_ostro	-11.3938
_susurr	-11.3941
_bste	-11.3947
_spatia	-11.3947
_miranda	-11.3951
_auena	-11.3951
_priscis	-11.3951
_querere	-11.3951
_maritum	-11.3954
_scruta	-11.3955
_seruo	-11.3961
dendi	-11.3967
lse	-11.3968
_debent	-11.397
_fingere	-11.3979
_plantis	-11.3987
_arundine	-11.3992
_maiestate	-11.3992
_simulacra	-11.3992
_accelera	-11.3992
_concessa	-11.3992
_exclama	-11.3992
_elementa	-11.3992
_supremo	-11.3993
_fidus	-11.3994
_saxum	-11.3994
_cereris	-11.4001
_tumido	-11.4009
_pallor	-11.4015
_harena	-11.4015
_excipit	-11.4017
_solebat	-11.4019
_audiit	-11.4022
_xtro	-11.4024
_palladis	-11.4044
_restitui	-11.4044
_placidam	-11.4048
cantes	-11.4053
_ndra	-11.4055
_mutata	-11.4061
_ipsius	-11.4065
ardus	-11.4066
_candidior	-11.4067
_obstupui	-11.4067
_excelsa	-11.4067
_possidet	-11.4067
_libellos	-11.4067
_contenta	-11.4068
_capellas	-11.4068
_edax	-11.4069
_contex	-11.4072
_uellem	-11.4073
_continet	-11.408
_ouili	-11.4082
_nauita	-11.409
_extat	-11.4097
_agitant	-11.4109
_aluo	-11.4111
_superbo	-11.4124
_neruo	-11.4131
_placidum	-11.4143
_delubra	-11.4143
_spirat	-11.4143
_quanuis	-11.4144
_ditione	-11.4145
_hedera	-11.4145
_tartarei	-11.4146
_annuit	-11.4152
_praestans	-11.4163
sidens	-11.4165
_casibus	-11.4165
_defendere	-11.4175
_priorum	-11.4175
_poscunt	-11.4182
lluit	-11.4183
_attolle	-11.4211
nabula	-11.4213
_egregii	-11.4219
_delphin	-11.4219
_exigua	-11.4219
uelli	-11.422
_parumper	-11.422
_alimenta	-11.422
_dexter	-11.4221
_praecipites	-11.4221
_supremi	-11.4222
_seuera	-11.4227
_fremit	-11.4228
_ptru	-11.423
_palude	-11.423
_lasciui	-11.4231
_rediens	-11.4231
_ulnis	-11.4234
_dogmata	-11.4235
_gerens	-11.4241
_inferre	-11.4244
_innumera	-11.4245
_comitata	-11.4247
_gratissima	-11.4248
_achilles	-11.4252
_puppe	-11.4253
_strenu	-11.4255
posuit	-11.4261
_excita	-11.4268
_premunt	-11.4275
_iucunda	-11.4289
_fragore	-11.4289
_urgent	-11.429
_iniquis	-11.4296
_unguibus	-11.4296
_historia	-11.4296
_satura	-11.4297
spiciunt	-11.43
_aestas	-11.43
_frigus	-11.4301
_coepta	-11.4303
tabit	-11.4306
_rauca	-11.4309
_didicit	-11.4313
_dulcibus	-11.4315
_frangere	-11.4318
_sibila	-11.432
_canem	-11.4321
_frontis	-11.4324
_simulat	-11.4329
_praesidi	-11.4331
_putant	-11.4333
_atride	-11.4335
_fessus	-11.4335
_utile	-11.4341
_fluunt	-11.4348
_fueris	-11.4359
uigil	-11.4371
_haberi	-11.4371
_pecudum	-11.4374
_satyri	-11.4375
_murice	-11.4378
_uenetos	-11.4378
_penetralia	-11.438
_fortiter	-11.4382
_sparsi	-11.4389
_dolori	-11.4394
_exequ	-11.4398
_relinquit	-11.4402
_hastam	-11.4402
_fusa	-11.4411
_praesidium	-11.4418
_intrat	-11.4422
_caerul	-11.4424
_salua	-11.4434
ndimus	-11.4446
_prosunt	-11.4448
_iohannes	-11.4452
_iudex	-11.4452
_dapibus	-11.4452
_candide	-11.4452
_cupiunt	-11.4452
_faciant	-11.4453
_nocturna	-11.4453
_tentori	-11.4454
_nefandi	-11.4454
_occurrit	-11.4454
_dubium	-11.4454
_facias	-11.4456
_intima	-11.4457
_spernit	-11.446
_liquida	-11.4462
_secuta	-11.4465
_erebi	-11.4465
_secuti	-11.4465
_guttura	-11.4468
_orator	-11.4468
_tenerae	-11.4476
_pudici	-11.4478
_sapit	-11.4498
_ualeas	-11.4501
_rosis	-11.4502
_perpetuis	-11.4509
_equore	-11.4513
_capess	-11.4525
_sagittis	-11.4531
_infanda	-11.4531
_argolic	-11.4532
_celebrare	-11.4537
_somnum	-11.4537
_agitare	-11.4538
_addidit	-11.4538
_accendit	-11.4539
_diceris	-11.4539
_famula	-11.454
unx	-11.4542
_criminis	-11.4543
_canora	-11.4546
_denso	-11.4547
_haustu	-11.4548
_scylla	-11.4554
_equorum	-11.4559
ffo	-11.4567
_caerula	-11.457
_clausit	-11.4574
_abdita	-11.4577
_fulua	-11.459
_coelestia	-11.4597
_ueteri	-11.4597
_laure	-11.46
_explicat	-11.461
_coeleste	-11.461
_uictrix	-11.461
_reddat	-11.461
_complexa	-11.461
_lapides	-11.461
_sequor	-11.461
_immortali	-11.4611
_uelox	-11.4611
_sanctus	-11.4612
_apertis	-11.4614
_feruor	-11.4614
_citharam	-11.4617
_discedere	-11.4621
_uentri	-11.4622
_queritur	-11.4623
_fallaci	-11.4631
_aureo	-11.4632
_premat	-11.4637
_quilibet	-11.4647
_furentem	-11.4665
_aeol	-11.4668
_austri	-11.468
_quiete	-11.4684
_temporibus	-11.469
_delicias	-11.469
_insana	-11.4691
_oliua	-11.4693
_calent	-11.4694
_cicero	-11.4697
_erudi	-11.4704
_adsis	-11.4707
_poetis	-11.4708
_iustitiae	-11.4711
_adsunt	-11.4723
_audent	-11.4732
_absente	-11.4738
_canenti	-11.4738
_subdita	-11.474
_curarum	-11.4742
_clarior	-11.475
_decoris	-11.4753
_perueni	-11.4763
_pulsus	-11.4769
_audaces	-11.4771
_celebrem	-11.4771
_infoelix	-11.4771
_perhibent	-11.4771
_sepulcro	-11.4771
_laudum	-11.4772
_crepitant	-11.4772
_credat	-11.4772
_nobilitate	-11.4773
_rabido	-11.4776
_cupidinis	-11.4776
_nitidi	-11.4779
_superbia	-11.478
_incipe	-11.4783
nduntur	-11.4787
_stulti	-11.4792
_uenienti	-11.4793
_pulchrior	-11.4793
_amaro	-11.4793
_maesta	-11.4794
_compar	-11.4794
_noxia	-11.4794
_lacrimae	-11.4795
_tremit	-11.4799
_contemnere	-11.4803
_spiritu	-11.4812
_coetu	-11.4812
_certus	-11.4816
_fecerat	-11.4817
_uidear	-11.4818
_frangit	-11.4825
_xtri	-11.4826
_facibus	-11.4829
_rrha	-11.4832
_faciet	-11.4833
bantur	-11.4849
_orpheus	-11.4852
_sobolem	-11.4852
_tempestate	-11.4852
_libenter	-11.4852
_monimenta	-11.4852
_manere	-11.4852
_inuadere	-11.4852
_duplici	-11.4853
_plurimu	-11.4853
_furentes	-11.4853
_uacuum	-11.4854
_xtru	-11.4854
_fatorum	-11.4854
_crema	-11.4856
_uenena	-11.4859
_gallica	-11.4859
_luxuria	-11.4862
_fasces	-11.4867
_sternit	-11.487
_paulo	-11.4873
_minores	-11.4879
_fortior	-11.488
_thoro	-11.4885
_funditus	-11.4886
_statim	-11.4888
_iactura	-11.4888
_quaenam	-11.4893
_herm	-11.49
_lento	-11.4902
_dissolu	-11.4904
_uiarum	-11.4908
_colorem	-11.4909
onides	-11.4911
_stellis	-11.492
_fidibus	-11.4921
_interitu	-11.4924
_alphons	-11.4934
_memorabile	-11.4934
_garrula	-11.4934
_placidus	-11.4934
_uiolenta	-11.4934
_arbiter	-11.4934
_teucri	-11.4934
_interpres	-11.4934
_celso	-11.4935
_antistes	-11.4935
_trepidi	-11.4935
_fulgor	-11.4935
_archa	-11.4937
_custodia	-11.4937
_relicto	-11.4939
_fluuii	-11.494
_uestibus	-11.4945
_felicibus	-11.4947
_ueniant	-11.4948
_phebe	-11.4959
_descendere	-11.496
_castell	-11.4962
_carere	-11.4966
_tusca	-11.4971
_tantorum	-11.4977
_iacere	-11.4989
_uesan	-11.4995
uola	-11.4995
racula	-11.4998
_clausi	-11.5015
_antiquum	-11.5016
_obnoxi	-11.5016
_principibus	-11.5016
_cothurn	-11.5016
_agrestes	-11.5017
_choreis	-11.5017
_infami	-11.5018
_nitidum	-11.5018
_reuerti	-11.5018
_ingressus	-11.5018
_discite	-11.5024
_diuerso	-11.5025
ramus	-11.5026
_fausto	-11.5028
_christe	-11.5028
_hiems	-11.5028
_uigiles	-11.5029
_agresti	-11.503
_sistit	-11.5033
_peruigil	-11.5033
_recusa	-11.5033
_concordi	-11.5042
cturus	-11.505
gentibus	-11.505
_spectant	-11.5052
_teneat	-11.5054
_uereor	-11.5054
_prisci	-11.5057
_alternis	-11.5065
_deuict	-11.5065
_conuert	-11.5065
_auratis	-11.5076
_dsu	-11.5086
_clamant	-11.5088
_gallus	-11.5091
_uocare	-11.5096
_attollit	-11.51
_foecunda	-11.51
_sceptri	-11.51
_deseruit	-11.51
_tradidit	-11.51
_cythara	-11.51
_uexilla	-11.51
_lasciua	-11.51
_tenuem	-11.51
_uictima	-11.51
_profunda	-11.5101
_chartis	-11.5106
_daemon	-11.5115
cantur	-11.5122
_ornata	-11.5123
dicere	-11.513
perent	-11.5136
_profuit	-11.5139
_stemmat	-11.5141
_seruata	-11.5143
_stulta	-11.5145
_ndro	-11.5149
_priores	-11.5153
_nexu	-11.5159
_firmi	-11.5162
erentes	-11.5183
_hannibal	-11.5184
_unanimes	-11.5184
_progeniem	-11.5184
_tempestas	-11.5184
_succurrere	-11.5184
silit	-11.5184
_amoena	-11.5184
_libidin	-11.5184
_illustra	-11.5184
_falso	-11.5184
_argenti	-11.5185
_genitus	-11.5186
_hortatur	-11.5189
_sterili	-11.5191
_iacentem	-11.5193
fluit	-11.5197
_labellis	-11.5199
_sentire	-11.5199
_praesenti	-11.5203
_claude	-11.5207
_aquarum	-11.5208
_pharetram	-11.5209
_moneo	-11.5211
_dulcius	-11.5211
_flamini	-11.5216
_fastidi	-11.5219
_bonorum	-11.522
_insidia	-11.5226
_praestant	-11.5251
_bacchus	-11.5269
_posteritas	-11.5269
_francorum	-11.5269
_medullis	-11.5269
_cruento	-11.5269
_pallida	-11.5269
_puppis	-11.5269
_hortis	-11.527
_laborat	-11.527
_comitum	-11.5274
_famuli	-11.5276
cedens	-11.5279
_sentiat	-11.5281
_ripae	-11.5281
nchi	-11.5282
_metuens	-11.5284
_parcit	-11.5291
_triumpho	-11.5294
_solamen	-11.5296
_ingreditur	-11.5303
_fruitur	-11.5327
_subdere	-11.5329
_querela	-11.5334
_mirari	-11.5337
_merita	-11.5337
_gelidi	-11.535
_uindice	-11.5351
_tolera	-11.5352
_fremitu	-11.5354
_fulgur	-11.5354
_immenso	-11.5354
_syluis	-11.5354
_zanina	-11.5354
_perdidit	-11.5354
_petiere	-11.5357
_ignara	-11.5363
_nimbi	-11.5369
_asiae	-11.5372
_custodi	-11.5374
_intenta	-11.5377
_ardent	-11.5383
_uiuam	-11.5391
_uenias	-11.5394
_illicet	-11.5396
ducunt	-11.5406
_referent	-11.5415
ducis	-11.5417
uectus	-11.5422
_paterna	-11.5423
_contagia	-11.544
_quotannis	-11.544
_linguis	-11.544
_candidus	-11.5441
_secundus	-11.5441
_romuli	-11.5441
_roseis	-11.5441
_alumnus	-11.5442
_pedites	-11.5442
_seriem	-11.5442
_memorare	-11.5446
_mulcet	-11.545
_contendere	-11.5451
_moesti	-11.5453
_spumanti	-11.5454
_rigida	-11.5454
_soliti	-11.5456
_rigidi	-11.5459
nfus	-11.5461
_inopi	-11.5463
_stupet	-11.5463
_sumit	-11.5464
_romanus	-11.5473
_suadet	-11.5487
_sollicitare	-11.5488
_ulcisc	-11.5494
thum	-11.5504
_conscende	-11.5507
_adueni	-11.5517
rgebat	-11.5521
_pulcra	-11.5527
_medullas	-11.5527
_obiecta	-11.5527
_benigne	-11.5527
_ethera	-11.5529
_praeses	-11.553
_tacitus	-11.5531
_senio	-11.5532
_medicum	-11.5533
ducat	-11.5534
_contulit	-11.5539
_uitiis	-11.554
_constru	-11.554
_loquitur	-11.5545
quid	-11.5547
fertur	-11.5552
_scandere	-11.5553
_cernens	-11.5563
_uerona	-11.5563
_affert	-11.5567
_germana	-11.5578
_dicend	-11.5583
_habuit	-11.5589
_materiam	-11.5593
_corrup	-11.5596
_solitum	-11.5596
_citharae	-11.5606
nxerat	-11.5606
_fulgore	-11.5613
_benignus	-11.5615
_utrunque	-11.5615
_feruet	-11.5615
_gregem	-11.5615
_pigeat	-11.5615
_assueta	-11.5617
_turbidu	-11.5618
_liquido	-11.5618
_consistere	-11.562
_claudere	-11.5621
rissima	-11.5622
_conditione	-11.5622
_artho	-11.5624
_praebet	-11.5628
_laedere	-11.5633
_phebus	-11.5644
_spernere	-11.5652
pimus	-11.5653
rupit	-11.5653
estuat	-11.5662
eritur	-11.5675
_praesentia	-11.5691
seruisse	-11.5692
ductus	-11.5695
_canet	-11.5701
_auxilia	-11.5703
_magnanimum	-11.5703
_quadrigis	-11.5703
_salubre	-11.5703
_foelici	-11.5704
_cernimus	-11.5704
_pressit	-11.5709
_pallenti	-11.571
_cernitur	-11.5715
_oritur	-11.5715
_indignum	-11.5717
_rationis	-11.5718
_pudorem	-11.572
_lactea	-11.5733
_memorat	-11.5736
_hospitium	-11.5736
_leuior	-11.5737
_acuto	-11.5737
_salute	-11.5746
_ueloci	-11.5752
_cognit	-11.5756
_fauilla	-11.5782
_quidnam	-11.5789
_ecclesia	-11.5793
_fulminis	-11.5793
_sumpsit	-11.5793
_necnon	-11.5793
_integra	-11.5793
_tulerunt	-11.5794
llula	-11.5794
_rutilo	-11.5799
_agitata	-11.5803
_turpia	-11.5807
_stricto	-11.5808
territa	-11.5809
_smy	-11.581
_uerso	-11.5813
_uentus	-11.5813
_habeat	-11.5814
ceptis	-11.5816
_rixa	-11.5822
_siderei	-11.5822
_surgente	-11.5834
_requie	-11.5837
_iustus	-11.5839
_fletibus	-11.5846
_chaos	-11.5847
_fregit	-11.5851
_petenti	-11.5861
_habitat	-11.5862
_danai	-11.5863
_senatu	-11.5866
_latini	-11.5875
_alterno	-11.5875
_uenerabile	-11.5883
_stirps	-11.5883
_caeleste	-11.5883
_auos	-11.5883
_militibus	-11.5883
_minister	-11.5884
_quiritum	-11.5886
_fabrica	-11.5886
_ardentem	-11.5888
_miror	-11.589
_nescius	-11.589
_mucrone	-11.5892
_stimulat	-11.5894
_regale	-11.5898
_equora	-11.5901
_uacuo	-11.5903
_uentorum	-11.5904
_palladi	-11.5916
_magnorum	-11.5917
_turribus	-11.5918
_flectit	-11.5919
_proximus	-11.5923
_germani	-11.5928
_numerosa	-11.5931
_insigne	-11.5931
gantur	-11.5934
_uictores	-11.5935
_grauius	-11.5936
phra	-11.5937
_insania	-11.5939
_benedic	-11.5941
_ptri	-11.5943
cipiet	-11.5944
_maeoni	-11.5958
_germania	-11.5961
_stimulos	-11.5974
_stipite	-11.5974
_montana	-11.5974
_parnasi	-11.5975
_mercede	-11.5975
_cominus	-11.5975
_tyrio	-11.5977
_serpens	-11.5978
_exupera	-11.5979
_nullius	-11.598
_ferentes	-11.5981
_epulas	-11.5984
_habetur	-11.5985
_inuia	-11.5986
_placidi	-11.5987
_molliter	-11.5989
_errare	-11.599
_habitant	-11.5993
_uirtuti	-11.5998
_indigno	-11.6006
_concha	-11.6007
rrhe	-11.6009
_falco	-11.6009
_uenturi	-11.6016
_laetum	-11.6025
_relinqua	-11.6032
dentia	-11.6033
_ferentem	-11.6043
_angelic	-11.6059
_aonidum	-11.6065
_argento	-11.6065
_trinacri	-11.6065
_credidit	-11.6066
_nascitur	-11.6066
_cancri	-11.6066
_poterunt	-11.6067
_fugienti	-11.607
_canentem	-11.607
_uerenda	-11.6071
_potero	-11.6071
_facundia	-11.6071
_leuare	-11.6072
_priami	-11.6073
_frigidu	-11.6075
_dispar	-11.6076
_celerem	-11.6078
_abiit	-11.6089
_properare	-11.6092
_xtr	-11.6103
_creditur	-11.6106
_thraci	-11.6108
_torua	-11.6113
_leuita	-11.6117
_didici	-11.6117
_temere	-11.6117
circo	-11.6118
_munit	-11.613
_genua	-11.6134
cantem	-11.614
_presul	-11.6147
_desuper	-11.6158
_uoluptat	-11.6158
_capellae	-11.6159
_poteras	-11.6159
_dextris	-11.6159
_testudine	-11.6159
_alumnum	-11.616
_solers	-11.616
_saturnus	-11.616
_frauda	-11.616
_sanctissima	-11.6161
_propior	-11.6161
_colonos	-11.6164
_neptuni	-11.6165
_uomere	-11.6165
_instituit	-11.6167
_rauco	-11.6169
_inuenies	-11.6172
_rabie	-11.6175
_horresc	-11.6181
_austria	-11.6186
_haerent	-11.6189
_iacit	-11.6198
_sequere	-11.6203
_celebrata	-11.6203
_moeror	-11.6211
_pisan	-11.6215
_socium	-11.6217
_narrare	-11.6224
sistunt	-11.6224
_retinet	-11.6227
mittunt	-11.6228
tulum	-11.6229
_repete	-11.623
olebant	-11.6233
_conuexa	-11.6251
_colubri	-11.6252
_formica	-11.6252
_suscitat	-11.6252
_propterea	-11.6252
_campum	-11.6252
_implora	-11.6253
_cylleni	-11.6253
_perfidi	-11.6254
_nautis	-11.6256
_funesta	-11.6256
_matrona	-11.6257
_melioribus	-11.6262
_ustro	-11.6276
_cogitat	-11.6286
_iaculis	-11.6295
_saturnia	-11.6302
_specie	-11.6303
_procumb	-11.6307
_munimin	-11.6311
_senatum	-11.6314
_speciem	-11.6317
_uacui	-11.6326
_feroci	-11.6333
_artifici	-11.6346
_expugna	-11.6346
_extitit	-11.6346
_praeconia	-11.6346
_baccho	-11.6346
_obscuri	-11.6346
_iuuenci	-11.6347
_hausit	-11.6347
_armiger	-11.6347
_minime	-11.6348
_nauibus	-11.6348
_flaui	-11.6348
_christicola	-11.6349
_metuenda	-11.635
_exercere	-11.6353
_postea	-11.6354
_turpiter	-11.6354
_integer	-11.6357
_clarissima	-11.6357
lapsus	-11.6361
_reperta	-11.6362
_perusin	-11.6363
_uicino	-11.6366
_rumpit	-11.6367
_fusca	-11.6373
_continua	-11.6379
_auara	-11.6388
lion	-11.6392
_gaza	-11.6396
_fauni	-11.6397
pendit	-11.6409
_confid	-11.6415
_stipat	-11.6422
_sapienti	-11.6439
_impatiens	-11.6441
_nymphis	-11.6441
_obsecro	-11.6441
_obsidione	-11.6441
_triumphum	-11.6441
_concussa	-11.6441
_terrigen	-11.6441
_iudicis	-11.6441
_scintilla	-11.6441
_canendo	-11.6443
_territus	-11.6443
_phrygia	-11.6444
_seruus	-11.6444
_ministro	-11.6445
sisset	-11.6449
_crinem	-11.6463
_comitatus	-11.6463
_recenti	-11.648
_ostia	-11.6482
_transire	-11.6488
_heroi	-11.6489
_numerare	-11.6493
_eois	-11.6504
_miserata	-11.6524
_religio	-11.6527
_ecclesie	-11.6537
_trahens	-11.6537
_tenebros	-11.6537
_eripuit	-11.6538
_alloquitur	-11.6538
_liquidum	-11.6538
_carlus	-11.6538
_ueterem	-11.6538
_mortua	-11.6539
_aonio	-11.654
_fulgi	-11.6541
_nititur	-11.6543
lenta	-11.6544
_cauea	-11.6546
_paruus	-11.6548
_haesit	-11.655
_crediderim	-11.6552
_obstat	-11.6557
_iocund	-11.656
_accedere	-11.656
_diuidit	-11.6565
onium	-11.6567
_insonte	-11.6567
_mulcent	-11.6592
_statuere	-11.6592
_habenda	-11.6599
_uictrici	-11.66
_dulcior	-11.66
_terrena	-11.6617
_improbe	-11.6634
_confinia	-11.6634
_adamante	-11.6634
_supremum	-11.6634
_iuuabit	-11.6635
_turbida	-11.6635
_foedus	-11.6636
_feruens	-11.6637
_tartarea	-11.6637
_incerta	-11.664
_aggreditur	-11.664
_colligit	-11.6641
_canens	-11.6642
_intons	-11.6645
_rusticus	-11.6646
_sudore	-11.6646
_dignissim	-11.6647
uoluere	-11.6648
_contemni	-11.6659
_pluribus	-11.6672
_bellica	-11.6675
_compag	-11.6682
_uasa	-11.6687
_rosea	-11.6689
_uerberat	-11.6705
_fratri	-11.6715
_annue	-11.6731
_pulchrum	-11.6732
_eloquii	-11.6732
_duplex	-11.6732
_secundum	-11.6733
_epulis	-11.6733
_nepotum	-11.6734
_praecipitem	-11.6734
dicit	-11.6736
_surgat	-11.6736
_uolentes	-11.6737
_intacta	-11.674
_circu	-11.6741
_epigrammata	-11.6741
_memorant	-11.6742
_aetatis	-11.6744
_aggredi	-11.6745
_diuite	-11.6746
_rubore	-11.6746
_exsul	-11.6747
ndentes	-11.6748
_moror	-11.6763
_inuasit	-11.6767
_ducitur	-11.677
_erigit	-11.6772
_phebi	-11.6773
_infit	-11.6784
_sequens	-11.679
_nimpha	-11.6792
_candor	-11.6803
ffudit	-11.6806
_ecquid	-11.6831
_sequatur	-11.6832
_cursibus	-11.6832
_discord	-11.6832
_prodesse	-11.6833
_emicat	-11.6833
_mulcere	-11.6833
_amantum	-11.684
_semita	-11.6848
_utroque	-11.6849
_cineri	-11.685
_coeunt	-11.6852
_confert	-11.6853
_utrique	-11.6856
_hospitio	-11.6862
_federa	-11.6889
_turmis	-11.6893
_retinere	-11.6899
_herculea	-11.6901
_corripit	-11.6904
_inuicta	-11.6905
_obiici	-11.6906
_porrig	-11.6908
_ostendere	-11.6909
_tractare	-11.6922
_caesa	-11.6929
_dignos	-11.6929
_sepulchro	-11.6931
_quamprimum	-11.6931
_stabulis	-11.6931
_steriles	-11.6932
_aliquem	-11.6932
_accensa	-11.6933
pulcrum	-11.6934
_clamoribus	-11.6935
_seruitio	-11.6936
_trabes	-11.6938
_inuenta	-11.6938
_pampin	-11.6938
_pereant	-11.6939
_auidi	-11.6947
_reliqua	-11.6948
_tremor	-11.6951
_rediere	-11.6952
_fateri	-11.6953
_nitore	-11.6968
_extincto	-11.6977
_ueneto	-11.698
_miseratu	-11.6982
_ausoniis	-11.6989
_niuibus	-11.6991
_flatibus	-11.6992
bentia	-11.701
_oportet	-11.7032
_anxius	-11.7032
_poplite	-11.7033
_caucas	-11.7033
_haurire	-11.7033
_dorso	-11.7034
_calcat	-11.7034
_feruidus	-11.7034
_profana	-11.7035
_piscibus	-11.7035
_nitentes	-11.7036
_remige	-11.7036
_hydra	-11.7038
_perlege	-11.7039
_sumptu	-11.704
dendum	-11.7041
_gessit	-11.7047
_pauci	-11.7047
_uidemus	-11.7048
_tollitur	-11.7048
_fidissim	-11.705
_despera	-11.7051
_capitolia	-11.7052
_credimus	-11.7054
_concitus	-11.7063
_subsid	-11.7067
_rutilant	-11.7072
_nobilior	-11.7072
_nauig	-11.708
_quisnam	-11.7082
_studia	-11.7087
phum	-11.7088
_achille	-11.7092
_caeso	-11.7093
_tartar	-11.7115
_asser	-11.7116
_choro	-11.7134
_reddunt	-11.7135
_exopta	-11.7135
_impie	-11.7137
_morbus	-11.714
_fueram	-11.714
_raptim	-11.714
_maligno	-11.7142
_libros	-11.7142
_rupit	-11.7143
_sceleri	-11.7143
_ferebant	-11.7144
_tranquill	-11.7145
_inclitu	-11.7148
_promere	-11.7148
_nequeunt	-11.716
_uigili	-11.7161
_martius	-11.7172
thra	-11.7182
_uirgineo	-11.7187
_plebis	-11.7192
_uesana	-11.7228
_exorna	-11.723
ppu	-11.7233
_propinquo	-11.7237
_sanguileo	-11.7237
_complectitur	-11.7238
_sollicito	-11.7238
_lucretia	-11.7238
_ultimus	-11.7238
_lombard	-11.7238
_fulgens	-11.7238
_britanni	-11.7238
_conuersa	-11.7238
_exigui	-11.7238
_scriptis	-11.7238
_pecunia	-11.7238
_saucia	-11.7238
_clipeo	-11.7238
_parari	-11.7242
_captiua	-11.7244
_desint	-11.7244
_tepido	-11.7245
_abscond	-11.7247
_inscia	-11.7252
_precatur	-11.7258
_plaudit	-11.7266
_constat	-11.7268
_clauso	-11.727
_flamina	-11.7271
_latentes	-11.7273
_frigi	-11.7274
_uidisti	-11.7278
_exilium	-11.7282
_obtuli	-11.7284
_solido	-11.7298
greditur	-11.7309
chy	-11.7316
_ornatus	-11.7318
_fecunda	-11.7321
_attonita	-11.7342
_auxilii	-11.7342
_illyri	-11.7342
_habuisse	-11.7342
_tenebrae	-11.7342
_profundum	-11.7342
_hymenaee	-11.7342
_expertus	-11.7342
_sagax	-11.7342
_accepta	-11.7342
_subinde	-11.7342
_dryades	-11.7342
_depellere	-11.7343
_africa	-11.7343
_fatetur	-11.7343
_petiit	-11.7345
_saeuum	-11.7346
_dicar	-11.7346
_trunco	-11.7349
_grauida	-11.7353
_musca	-11.7359
_placuisse	-11.736
_uincat	-11.7364
_ligurum	-11.7366
_audeat	-11.7369
_uelamin	-11.7378
_tollens	-11.7381
_militia	-11.7382
_cosme	-11.7382
_solemni	-11.7386
_debes	-11.7397
lphe	-11.7398
_sacrorum	-11.7401
cumbens	-11.7401
ndebant	-11.7409
_recrea	-11.741
_canent	-11.7433
_ariadna	-11.7447
_propinqui	-11.7447
_iuuenco	-11.7447
_bellua	-11.7447
_hadria	-11.7448
_solyma	-11.7448
_supplicium	-11.7448
_fragili	-11.7448
_subiit	-11.7449
_exordia	-11.7449
_decreta	-11.7449
_auarus	-11.745
_andro	-11.745
_profani	-11.7452
_perfidu	-11.7452
_fulgentia	-11.7458
_torpent	-11.7461
_resoluit	-11.7463
_tulere	-11.7464
_arnus	-11.7464
_libris	-11.7464
_rostro	-11.7465
_tristibus	-11.7474
_neptunus	-11.7476
mittat	-11.7483
_miserand	-11.7485
_pontifici	-11.7487
_paene	-11.7489
_tumida	-11.7511
_irato	-11.7512
_patrium	-11.7516
_morari	-11.7525
_conuertit	-11.7526
_indigen	-11.7526
_uideam	-11.7536
_elisi	-11.7542
_apollinis	-11.7553
_argentea	-11.7553
_lymphis	-11.7553
_difficili	-11.7553
_classica	-11.7553
_sepulta	-11.7553
_extim	-11.7553
_angusta	-11.7553
_cunctorum	-11.7553
_tarpei	-11.7553
_stirpis	-11.7553
_mortuus	-11.7554
_uerborum	-11.7554
_infecta	-11.7554
_napaea	-11.7554
_effulge	-11.7554
_iunctus	-11.7555
_minax	-11.7557
_apparet	-11.7557
_uiuida	-11.7557
_cautus	-11.756
scribere	-11.7562
_furias	-11.7563
_quaesita	-11.7569
_anime	-11.757
_iuuent	-11.7578
_recessu	-11.758
_agger	-11.759
_splendent	-11.7614
uasit	-11.762
_materia	-11.7627
_uolitant	-11.763
_exora	-11.763
_arcta	-11.7631
_moderamin	-11.7638
_amplis	-11.7644
bsistere	-11.7651
_tendunt	-11.7652
_deficit	-11.7661
_blanditiis	-11.7661
_sordida	-11.7661
_prouida	-11.7662
_inuadit	-11.7662
_statione	-11.7663
_taedia	-11.7666
_etrusca	-11.7669
_retinent	-11.7674
cubuisse	-11.7676
_potiri	-11.7678
_monent	-11.768
_nummos	-11.768
territus	-11.7687
_coepi	-11.7691
zzo	-11.7695
_concessi	-11.7706
_minaci	-11.7721
_decerp	-11.7732
_horrendo	-11.7739
_reuise	-11.7751
_ursi	-11.7754
_strepit	-11.7761
_purpureum	-11.777
_hesperio	-11.777
_portenta	-11.777
_delitias	-11.777
_memoranda	-11.777
_perculit	-11.777
_phaeton	-11.777
_egestas	-11.777
_acheron	-11.777
_conspectu	-11.777
_despicit	-11.777
_naiades	-11.777
_corniger	-11.777
_luporum	-11.777
_nefando	-11.777
_hyems	-11.7771
_hispani	-11.7771
_extolle	-11.7772
_supplicibus	-11.7775
_uitrea	-11.7777
_transcend	-11.7781
_monstro	-11.7782
_circa	-11.7783
_iuuare	-11.7786
_terminu	-11.7789
_graii	-11.7791
_uoluens	-11.7793
nthea	-11.7794
_laboribus	-11.7802
_gutta	-11.7804
_hortat	-11.7805
_tenebit	-11.7807
_albert	-11.7808
_rapiunt	-11.781
_colere	-11.781
_nobilium	-11.7815
_salutifer	-11.7815
_bissen	-11.7821
pellex	-11.7822
_accessi	-11.7835
_fastu	-11.7849
_succedere	-11.7853
_praesertim	-11.7879
_xandra	-11.7879
_opprim	-11.7879
_infandum	-11.7879
_frequenter	-11.788
_feruida	-11.788
_compulit	-11.788
_acerbi	-11.7881
_fannia	-11.7881
_armos	-11.7882
_uiuunt	-11.7882
_subacta	-11.7883
_genitum	-11.7883
_sapiente	-11.7883
_saltibus	-11.7884
_gurgiti	-11.7885
_constituit	-11.7887
_austro	-11.789
_clauda	-11.7891
_praedic	-11.7893
_charta	-11.7894
_aeger	-11.7912
_meriti	-11.7933
_obstant	-11.7945
_latias	-11.7947
_rubet	-11.7968
_tollat	-11.798
_eripe	-11.7984
_mitto	-11.7984
_reliquum	-11.7991
_augusta	-11.7991
_conuicia	-11.7991
_iuuenca	-11.7991
_increpit	-11.7991
_excidium	-11.7991
_postulat	-11.7991
_dignior	-11.7991
_gelidum	-11.7991
_trepido	-11.7991
_uolans	-11.7992
_reposta	-11.7992
_tremulo	-11.7993
_creauit	-11.7993
_fueras	-11.7993
_alueo	-11.7993
_fortissimu	-11.7994
_soluta	-11.7994
_carolus	-11.7995
_quiescit	-11.7996
_consilii	-11.7999
_imponere	-11.7999
_inuitus	-11.8
_comminus	-11.8005
_sequentes	-11.8006
_patiens	-11.8008
ynthi	-11.8009
_inspira	-11.8013
_posuisse	-11.8017
_formosus	-11.8019
_angelus	-11.802
_sequeris	-11.8032
_abesse	-11.8045
_aditum	-11.8045
_flammi	-11.8045
_transfer	-11.8048
_metuit	-11.8048
_successu	-11.8087
_uolitare	-11.8092
_effigiem	-11.8103
_concordes	-11.8103
_longinqua	-11.8103
_affix	-11.8103
_assidua	-11.8103
_excelsi	-11.8103
_gubernat	-11.8103
_externis	-11.8103
_turcarum	-11.8103
_fraudis	-11.8103
_inertes	-11.8103
_radicibus	-11.8103
_eridanus	-11.8103
_gelidus	-11.8103
_qualiter	-11.8104
_auertit	-11.8104
_pericla	-11.8104
_exoritur	-11.8104
_imminet	-11.8105
rumpunt	-11.8107
_uitreo	-11.8107
ffatus	-11.8108
_excepit	-11.811
_diuersis	-11.8112
_carceris	-11.8114
_france	-11.8121
_aries	-11.8124
_ligur	-11.8128
_optare	-11.815
_nepos	-11.8151
_habebit	-11.8155
mulum	-11.8159
ueniet	-11.8166
_inire	-11.8178
_distincta	-11.818
_septim	-11.819
spicias	-11.8198
igorem	-11.8202
potens	-11.8202
fro	-11.821
_medicamin	-11.8214
_zona	-11.8215
_babylon	-11.8217
_periclo	-11.8217
_multiplici	-11.8217
_lubrica	-11.8217
_paucos	-11.8217
_pulso	-11.8217
_suscepit	-11.8218
_pretiosa	-11.8218
_uulneribus	-11.8218
_atlanti	-11.8218
_daphni	-11.8219
_refugit	-11.8221
_lapillo	-11.8221
_inerme	-11.8221
_militis	-11.8222
_feritate	-11.8224
_lacertos	-11.8225
_conditor	-11.823
_heroes	-11.8231
_auctorem	-11.824
_pestifer	-11.824
_blandus	-11.8241
_nimia	-11.8244
_fausta	-11.8244
mouet	-11.8249
_letifer	-11.8251
_fragor	-11.8253
_fuisti	-11.8263
_afflatu	-11.8276
_cerea	-11.8279
_cruenti	-11.8285
_accing	-11.8306
labitur	-11.831
grediens	-11.8312
_lachrimis	-11.8331
_istuc	-11.8332
_precamur	-11.8332
_clypeo	-11.8332
_seruent	-11.8332
_suspensa	-11.8333
_sermonibus	-11.8334
_leuiter	-11.8342
_ilicet	-11.8343
_decidit	-11.8345
_attollens	-11.8347
_habendi	-11.8347
_circun	-11.8349
_aetheria	-11.8361
_cosmus	-11.8364
_latratu	-11.8365
traxit	-11.8379
_interim	-11.8396
_alcide	-11.8433
uoluunt	-11.8445
_coniuncta	-11.8448
_caelicolum	-11.8448
_arabs	-11.8448
_increpa	-11.8448
_imbribus	-11.8448
_placeat	-11.8448
_orsus	-11.8448
_proterua	-11.8448
_cupidus	-11.8448
_deliciis	-11.8448
_conscius	-11.8449
_apparent	-11.8449
_aduena	-11.8449
_cererem	-11.845
_crescat	-11.845
_inclina	-11.845
_maximi	-11.845
_moriar	-11.8452
_cachinn	-11.8454
_supplicia	-11.8454
_peruia	-11.8454
_sepius	-11.8454
_errantes	-11.8462
_paruum	-11.8463
_conspiciend	-11.8466
_hilares	-11.8469
_manebit	-11.847
_precanti	-11.8485
_languenti	-11.8496
_postmod	-11.8496
_rhetor	-11.8507
ueniunt	-11.8517
_religa	-11.8526
_uideant	-11.8537
_sonanti	-11.8539
_orion	-11.856
uoluens	-11.8565
_corporibus	-11.8565
_effigies	-11.8565
_exiguum	-11.8565
_respondit	-11.8565
_rhodope	-11.8565
_languor	-11.8565
_trophaea	-11.8565
_insinua	-11.8565
_sequut	-11.8565
_splendet	-11.8566
_gladiis	-11.8566
_fenestra	-11.8566
_plaustra	-11.8566
_pruinis	-11.8566
_proinde	-11.8567
_uerbum	-11.857
_iisdem	-11.857
_queror	-11.8571
_segnes	-11.8573
cernere	-11.8573
_ignaui	-11.8574
_cecinisse	-11.858
_imposuit	-11.8582
_ambas	-11.8583
_poenis	-11.8584
_tenuisse	-11.8584
_effusa	-11.8585
_rabida	-11.8586
_sororem	-11.8587
_taeda	-11.8593
_extincta	-11.8595
gnoscere	-11.8605
_absenti	-11.8606
_exurg	-11.8617
_moueat	-11.8624
_porrigit	-11.8639
_catone	-11.8644
_laborant	-11.8652
_cruciat	-11.8659
_exercit	-11.8668
_connubia	-11.8684
_inclytus	-11.8684
_zephyro	-11.8684
_amarylli	-11.8684
_nouerca	-11.8684
_cerberus	-11.8684
_implicat	-11.8685
_fortune	-11.8685
_sacerdote	-11.8685
_simillim	-11.8685
_roscida	-11.8685
_confecta	-11.8685
_graiorum	-11.8685
iquando	-11.8686
_irruit	-11.8686
_cespite	-11.8686
_tubarum	-11.8686
_affecta	-11.8687
_puelle	-11.8689
_suspendit	-11.869
_studiosa	-11.8691
_temperet	-11.8692
_lustris	-11.8692
_mittunt	-11.8694
_pruina	-11.8695
_ueneratur	-11.8698
_religione	-11.8699
pridem	-11.8702
_planctu	-11.8703
_finiera	-11.8705
_arbitr	-11.8707
_tenaci	-11.8724
_uibrat	-11.8726
tudine	-11.8726
_nepoti	-11.873
_sitienti	-11.8733
_uenator	-11.8747
_doctior	-11.8754
_genio	-11.8755
_arripi	-11.8762
_uolenti	-11.8778
_hyacinth	-11.8805
_ioannes	-11.8805
_facultas	-11.8805
_immerito	-11.8805
_exuuias	-11.8805
_habuere	-11.8805
_arbitrium	-11.8805
_sternere	-11.8806
_iecur	-11.8806
_phrygio	-11.8807
_tetigit	-11.8808
_fugias	-11.8808
_puluis	-11.881
_trahere	-11.8813
_flagiti	-11.8814
_breuiter	-11.8816
_alfons	-11.8818
_caecus	-11.8819
_fugaces	-11.8822
_pyeri	-11.8828
_beate	-11.883
_metalli	-11.884
gh	-11.8842
fessus	-11.8846
_genita	-11.888
_trahent	-11.8892
_modulamin	-11.8915
_inuidiosa	-11.8927
_ceruix	-11.8927
_imperia	-11.8927
_incolumi	-11.8927
_clemens	-11.8928
_fulsit	-11.8928
_infame	-11.8928
_concilium	-11.8929
_ingenui	-11.8929
_stultitia	-11.893
_aliquando	-11.8932
_fieret	-11.8934
_tristitia	-11.8942
spersa	-11.8958
ubuere	-11.8958
_auido	-11.8979
_affici	-11.8981
_uomit	-11.8991
_latiae	-11.8997
_texta	-11.9002
_auari	-11.9014
_studea	-11.9019
_patau	-11.9042
_clauser	-11.9044
_mercurius	-11.905
_pontificem	-11.905
_aequum	-11.905
_attoniti	-11.905
_oceanus	-11.905
_sfortia	-11.905
_obscuro	-11.905
_hybla	-11.905
_inuadunt	-11.9051
_dracone	-11.9051
_cruentum	-11.9051
_angusti	-11.9051
_detinet	-11.9051
_temperie	-11.9051
_uulpe	-11.9052
_externo	-11.9052
_aliped	-11.9053
_catenis	-11.9054
_apertum	-11.9055
_aratro	-11.9057
_corneli	-11.9058
_confusa	-11.9058
_supersunt	-11.9058
_sentio	-11.906
_constans	-11.9061
_uolantes	-11.9063
_breuibus	-11.9065
_uertitur	-11.9065
_uiridem	-11.9068
_putre	-11.9069
_aiunt	-11.9079
_reduci	-11.911
_eunti	-11.9125
ultibus	-11.9126
_ingredi	-11.9128
currens	-11.9129
_consulit	-11.9146
_mulceb	-11.9159
_inesse	-11.9161
_paruula	-11.9175
_concaua	-11.9175
_specimen	-11.9175
_insomni	-11.9176
_stultus	-11.9176
_abstine	-11.9176
_potentum	-11.9176
_tonelle	-11.9177
_patientia	-11.9178
_molitur	-11.9179
_daun	-11.9179
_extinctum	-11.9179
_obsessa	-11.918
_spectabilis	-11.9182
_memorans	-11.9183
_lucerna	-11.9185
_myrto	-11.9187
_carnis	-11.9187
_stulte	-11.9189
_moderator	-11.9193
_haeres	-11.9195
_mensura	-11.9197
_geniali	-11.9197
_subasi	-11.9214
_lacuna	-11.9221
posui	-11.9226
_audiera	-11.923
_squalent	-11.9235
_prosper	-11.9245
_conquer	-11.925
_tyberi	-11.9251
rrumpere	-11.9266
_stridenti	-11.9269
_uindicta	-11.9281
_liquidi	-11.9291
_uindic	-11.9295
sequar	-11.93
_augustus	-11.9302
_impulsu	-11.9302
_armipotens	-11.9302
_sceptro	-11.9302
_tyrrhena	-11.9302
_pontificum	-11.9302
_conscendit	-11.9302
_cauernis	-11.9302
_infesto	-11.9302
_mystica	-11.9302
_teutoni	-11.9302
_campus	-11.9302
_guarda	-11.9302
_ludibri	-11.9302
_quadriga	-11.9302
_perfide	-11.9303
_cinerem	-11.9303
_deterior	-11.9303
_culmen	-11.9303
_numerus	-11.9303
_barbarie	-11.9303
_minantur	-11.9304
_cupiat	-11.9305
_prompta	-11.9306
_tigris	-11.9307
_dilacera	-11.9307
_petiuit	-11.9308
_exultat	-11.9308
_canentes	-11.9311
_lupos	-11.9322
_coacta	-11.9323
_negoci	-11.9333
_chiron	-11.9341
scendi	-11.9345
_nascente	-11.9363
_dilige	-11.9364
_arator	-11.9373
_humero	-11.9373
_cecini	-11.9375
_serpenti	-11.9375
_stipant	-11.9379
_defende	-11.9396
_alfonsu	-11.9416
iectum	-11.9427
_excelso	-11.943
_hesperidum	-11.943
_illecebris	-11.943
_incolumem	-11.943
_maniplos	-11.943
_tyrrheni	-11.943
_sonipes	-11.943
_nefandum	-11.943
_assuetus	-11.943
_deliciae	-11.9431
_ignarus	-11.9431
_nicolaus	-11.9431
_glaciali	-11.9431
_fatentur	-11.9431
_uindex	-11.9431
_succurrit	-11.9435
_positum	-11.9435
_castalio	-11.9436
_plusquam	-11.9436
_insita	-11.9441
_congressu	-11.9444
_ferenda	-11.9445
_grandibus	-11.9447
_adriaci	-11.9448
_aestate	-11.9449
_obruit	-11.9455
_eburno	-11.9494
_obire	-11.9526
_redolent	-11.9534
_laesa	-11.954
_frequenti	-11.9547
_appet	-11.9556
_concelebra	-11.956
_eloquium	-11.956
_occidua	-11.956
_sepulcri	-11.956
_siccaboron	-11.956
_aequus	-11.956
_imprimis	-11.956
_bacche	-11.956
_ambage	-11.956
_cynthius	-11.956
_argentum	-11.956
_lesbia	-11.956
_gigantes	-11.956
_concreta	-11.956
_praesep	-11.9561
_solutis	-11.9561
_cacumen	-11.9561
_metallo	-11.9561
_lcrum	-11.9561
_seruitium	-11.9562
_tumidum	-11.9562
_bononia	-11.9563
_meretric	-11.9563
_cinctus	-11.9563
_canebat	-11.9564
_peritura	-11.9564
_minita	-11.9565
_tenax	-11.9565
_coactus	-11.9566
_adolesc	-11.9566
_leporem	-11.9567
_lepidi	-11.9569
_indole	-11.9572
_somne	-11.9577
_trahat	-11.9581
_cernunt	-11.9584
_restitue	-11.9585
cepit	-11.9599
_antoniu	-11.96
_ponunt	-11.9641
_conspexi	-11.9648
_diripi	-11.9674
_aethiop	-11.9676
_importun	-11.9692
_tyrannus	-11.9692
_recipit	-11.9692
_gregibus	-11.9692
_insomne	-11.9692
_alcidae	-11.9692
_prandia	-11.9692
_gladium	-11.9692
_diffundit	-11.9692
_sideribus	-11.9692
_manipli	-11.9692
_consorti	-11.9692
_instruit	-11.9693
_tribui	-11.9694
_querulo	-11.9694
_mendax	-11.9694
nfundere	-11.9695
_radiantia	-11.9697
_clausum	-11.9697
_incidit	-11.9697
_corruit	-11.9698
_danaum	-11.9698
_dulcissima	-11.9699
_loquentem	-11.9699
_lintea	-11.9701
_affore	-11.9708
_acutis	-11.9709
_auibus	-11.9711
_fratre	-11.9711
_neaera	-11.9717
_fremente	-11.9722
_subacti	-11.9727
spectans	-11.9729
_furiali	-11.974
_recuban	-11.9747
_continga	-11.9765
_loquend	-11.981
_ascende	-11.9819
_attonito	-11.9825
_extinguere	-11.9825
_imaginibus	-11.9825
_foelices	-11.9825
_periclum	-11.9825
_baptista	-11.9825
_angusto	-11.9825
_desideriu	-11.9825
_neglecta	-11.9825
_sequantur	-11.9825
_amplexa	-11.9825
_pendula	-11.9825
_spatiis	-11.9825
_accipien	-11.9826
_magistrum	-11.9826
_fortissime	-11.9827
_subegit	-11.9827
_peractis	-11.9827
_obsequio	-11.9827
_cupias	-11.9827
_obscuru	-11.9828
_postera	-11.9828
_soluto	-11.9829
_inuisi	-11.983
_fugiat	-11.9832
_corolla	-11.9835
_uirentes	-11.9837
_pauido	-11.9838
_testantur	-11.9838
quiescere	-11.9842
_uidebit	-11.9843
_iactet	-11.9846
_ingrati	-11.9851
_arsit	-11.9853
_collige	-11.9855
fundunt	-11.9857
_gleba	-11.9871
ffusus	-11.9875
_inuito	-11.989
_anser	-11.9896
_alumna	-11.9897
lluc	-11.9903
_incessu	-11.9913
pensa	-11.9921
_miserabili	-11.9953
_consurgit	-11.996
_galatea	-11.996
_auspice	-11.996
_thalamum	-11.996
_fraudibus	-11.996
_accumula	-11.996
_frugibus	-11.996
_nicoleo	-11.996
_preterea	-11.996
_documenta	-11.996
_libellus	-11.996
_saucius	-11.996
_prosequitur	-11.996
_composito	-11.9961
_puduit	-11.9961
_obruta	-11.9961
_persarum	-11.9961
_prostrata	-11.9961
_premebat	-11.9961
_consona	-11.9962
_corusco	-11.9963
_humilem	-11.9963
_auida	-11.9964
_affatur	-11.9965
_captos	-11.9977
_grammat	-11.9977
_cicada	-11.9979
_cernat	-11.9991
_conamin	-11.9992
_appul	-11.9996
ppulit	-12
_pudic	-12.0023
pellunt	-12.0028
cessunt	-12.0032
_saluti	-12.0033
_sparser	-12.005
_uolent	-12.007
_tulisti	-12.0075
_disced	-12.0079
_carissim	-12.0081
_placidissim	-12.0085
_pignor	-12.009
_dispers	-12.0092
_phlegethon	-12.0097
_epistola	-12.0097
_parrhasi	-12.0097
_informe	-12.0097
_ingenua	-12.0097
_orphea	-12.0097
_pudicitiae	-12.0097
_delapsa	-12.0097
_aduentar	-12.0097
_callidus	-12.0097
_columen	-12.0097
_intonat	-12.0098
_oblecta	-12.0098
_fremunt	-12.0098
_peremit	-12.0098
_honesto	-12.0099
_lycida	-12.0099
_fremens	-12.0099
_prompti	-12.01
_sospite	-12.0101
_foedi	-12.0101
_orgia	-12.0102
_dextrum	-12.0103
_gracili	-12.0103
_defendit	-12.0104
_scro	-12.0104
_torpor	-12.0105
_componit	-12.0108
_cuneos	-12.0109
_deducit	-12.0113
_utrisque	-12.0113
_inuoluit	-12.0123
bstitit	-12.0159
ripuisse	-12.0173
_contemne	-12.0183
_relinqui	-12.0186
_intenti	-12.02
sistens	-12.0207
_inspici	-12.0214
_ieiunia	-12.0236
_inclyte	-12.0236
_proserpina	-12.0236
_obliquo	-12.0236
_guelf	-12.0236
_accensus	-12.0236
_diuitiae	-12.0236
_fornice	-12.0236
_solliciti	-12.0236
_percussit	-12.0236
_horruit	-12.0236
_execra	-12.0236
_largus	-12.0236
_tybris	-12.0237
_cognomen	-12.0237
_stridore	-12.0237
_abunde	-12.0237
_obstare	-12.0238
_infandi	-12.0238
_scelere	-12.0238
_siluestri	-12.0238
_ceruos	-12.0238
_discerp	-12.0239
_perfici	-12.0242
_armeni	-12.0244
_ostenda	-12.0245
_poesis	-12.0245
_amabili	-12.0259
_senium	-12.0268
_fluente	-12.0276
numerare	-12.0281
_cessisse	-12.0292
_remoue	-12.0304
_occide	-12.0308
_gradien	-12.0312
_suspecta	-12.0314
_maeror	-12.0332
_nectit	-12.0334
_laudi	-12.036
_attonitus	-12.0377
_consurgere	-12.0377
_philomela	-12.0377
_sepulchri	-12.0377
_frederic	-12.0377
_oceanum	-12.0377
_industria	-12.0377
_ingruit	-12.0377
_negotia	-12.0377
_irrigat	-12.0377
_requirit	-12.0377
_globos	-12.0378
_faueat	-12.0379
_occurrunt	-12.0381
_fratribus	-12.0382
_stupor	-12.0392
_calido	-12.0396
_recondit	-12.04
_etrusci	-12.0406
_antenor	-12.0432
_gignit	-12.0443
_uertat	-12.0467
_euersa	-12.0471
_refug	-12.0482
_ardeb	-12.0505
_commemora	-12.052
_plectrum	-12.052
_insolito	-12.052
_linquunt	-12.052
_penelope	-12.052
_iudicii	-12.052
_consorte	-12.052
_redimita	-12.052
_claudunt	-12.052
_comprime	-12.052
_repetunt	-12.052
_impellit	-12.052
_puppim	-12.052
_sumptis	-12.052
_pelasgi	-12.0521
_flexo	-12.0521
_repetam	-12.0521
_tiranni	-12.0522
_fundamenta	-12.0522
_diffusa	-12.0522
_peracta	-12.0524
_locuta	-12.0526
_auxit	-12.0527
_opife	-12.0533
_tremendu	-12.0537
_marcell	-12.0544
_ignoto	-12.0546
_lauta	-12.0576
_larua	-12.059
_portend	-12.0606
_subest	-12.0612
_prudenti	-12.0625
_studii	-12.0629
_siren	-12.0632
_conceptu	-12.0639
ernuntur	-12.0642
oluuntur	-12.0648
_corripi	-12.0649
_recol	-12.0657
_ingluuie	-12.0665
_mysteria	-12.0665
_philippus	-12.0665
_propositum	-12.0665
_relinquunt	-12.0665
_uolucrem	-12.0665
_coelicolum	-12.0665
_exoriens	-12.0665
_ingeminat	-12.0665
_ecquis	-12.0665
_informi	-12.0665
_lachesis	-12.0665
_improbi	-12.0665
_percussa	-12.0665
_desidia	-12.0665
_aspicio	-12.0665
_lingue	-12.0666
_poteram	-12.0666
_hospita	-12.0666
_rapuisse	-12.0666
_euadere	-12.0667
_faueas	-12.0667
_acerbum	-12.0668
_sitiens	-12.0668
_diruta	-12.0668
_camenis	-12.0669
_succos	-12.067
_coeptum	-12.067
_peregit	-12.0672
_dispend	-12.0673
_iniqui	-12.0674
_despice	-12.0674
stituisse	-12.0679
_opima	-12.0682
_paphia	-12.0714
_scopulo	-12.0718
_alexi	-12.0736
_praecept	-12.0741
_censor	-12.0772
_uarii	-12.0785
_terribiles	-12.0812
_hanibal	-12.0812
_repulsa	-12.0812
_deprecor	-12.0812
_imbelli	-12.0812
_honestum	-12.0812
_casside	-12.0812
_inuidit	-12.0813
_sentiet	-12.0813
_amoeni	-12.0813
_auaritia	-12.0814
_incognit	-12.0814
_priuata	-12.0814
_fortissima	-12.0816
_uenturum	-12.0818
_inscius	-12.0818
_cognata	-12.0823
_subacto	-12.0825
_euntes	-12.0825
_fausti	-12.0834
_moriente	-12.0852
_moueant	-12.0856
ingat	-12.0874
_serpente	-12.0907
_anguiger	-12.0912
_uiridanti	-12.0916
scendens	-12.0948
_exultant	-12.0951
_conditio	-12.0955
_phlegeton	-12.0961
_imbelles	-12.0961
_muliebri	-12.0961
_tribunal	-12.0961
_tyrannum	-12.0961
_benefacta	-12.0961
_uolaterra	-12.0961
_thessala	-12.0961
_exaudi	-12.0961
_henric	-12.0961
_compellat	-12.0961
_bucolic	-12.0961
_excutit	-12.0961
_praeferre	-12.0961
_minimum	-12.0962
_solutus	-12.0962
_daedal	-12.0962
_congesta	-12.0963
_multus	-12.0963
_eridani	-12.0964
_falsis	-12.0964
_pristina	-12.0965
_penetralibus	-12.0965
_tenorem	-12.0965
_dolens	-12.0967
_uiolis	-12.0967
_castalii	-12.0967
_mansit	-12.0969
tillat	-12.0973
_reflect	-12.0973
_resurge	-12.0986
_rustic	-12.0996
_indagin	-12.0996
_subiici	-12.0998
_graeci	-12.0999
_dirige	-12.1034
_succede	-12.1036
olebam	-12.1047
_stridente	-12.1047
ffugiunt	-12.1049
_raptor	-12.1061
_remigi	-12.1092
_palati	-12.1097
_exemplis	-12.1112
_andrea	-12.1112
_insolita	-12.1112
_aeternus	-12.1112
_mercator	-12.1112
_redimitus	-12.1112
_horridus	-12.1112
_zzu	-12.1112
_deformi	-12.1112
_tribuere	-12.1112
_ludouic	-12.1112
_inflamma	-12.1113
_infima	-12.1113
_torpet	-12.1113
_exhala	-12.1113
_respicit	-12.1113
_aerias	-12.1114
_inuisum	-12.1116
_liuida	-12.1118
_minimo	-12.1121
_rumpunt	-12.1123
_ascendit	-12.1128
_incensa	-12.1132
_ligustr	-12.1145
_monitu	-12.1165
_moliri	-12.1196
_eterna	-12.1204
_arion	-12.1206
_titulo	-12.1224
pulsis	-12.1246
_sublatu	-12.1264
uerberat	-12.1266
_commercia	-12.1266
_imprudens	-12.1266
_cinthia	-12.1266
_dissipat	-12.1266
_huiusmodi	-12.1266
_corripuit	-12.1266
_nereides	-12.1266
_sepulto	-12.1266
_concepta	-12.1266
_placide	-12.1266
_desinit	-12.1266
_debilita	-12.1267
_cognouit	-12.1267
_postremo	-12.1267
_rapax	-12.1268
_tulerit	-12.1268
_aspicis	-12.1268
saepe	-12.127
_dubius	-12.127
_petimus	-12.1271
_potitus	-12.1272
_actutum	-12.1272
_radiat	-12.1273
_immisc	-12.1279
ceruos	-12.1281
_decreui	-12.1296
_scindit	-12.1296
_ignari	-12.1303
_cicuta	-12.1321
_nauali	-12.1322
lignum	-12.1359
_sustine	-12.1384
_pugil	-12.1391
_federice	-12.1422
_persephone	-12.1422
_philippi	-12.1422
_uenerabilis	-12.1422
_innocuo	-12.1423
_piscator	-12.1423
_generoso	-12.1423
_aspicies	-12.1423
_gigantum	-12.1423
_praetereo	-12.1423
_labuntur	-12.1423
_gremium	-12.1423
_commota	-12.1424
_rapidus	-12.1424
_regionibus	-12.1426
_subintr	-12.1426
_gerenda	-12.1427
_spondet	-12.1427
_ancilla	-12.1428
portat	-12.1429
_suggerit	-12.143
_sumpser	-12.143
abellis	-12.1431
_ciuile	-12.1439
_fuerim	-12.1443
_achilli	-12.1446
_modesti	-12.1465
_madida	-12.1468
_uenturo	-12.1494
ripiunt	-12.1501
_peperer	-12.1528
_cognosce	-12.1544
_molimin	-12.1546
uertens	-12.1574
_applaud	-12.1581
_benignum	-12.1581
_exhausta	-12.1581
_purpureus	-12.1581
_uictrices	-12.1581
_sollicitus	-12.1581
_exarsit	-12.1581
_obtrunc	-12.1581
_delitiae	-12.1581
_prosternit	-12.1581
_nunquid	-12.1581
_conuener	-12.1581
_nocturno	-12.1581
_inclusa	-12.1581
_michael	-12.1582
_lasciuo	-12.1582
_ianitor	-12.1582
_fluenta	-12.1582
_rebellis	-12.1582
_procax	-12.1582
_galero	-12.1583
_sordibus	-12.1583
_austrum	-12.1584
_tartareo	-12.1584
_pateat	-12.1586
_eheu	-12.1586
_concentu	-12.1587
_reuisit	-12.1587
_maledict	-12.159
_estensi	-12.1597
_proterui	-12.1646
_sugg	-12.1708
_tenor	-12.1713
_dauid	-12.1718
_descende	-12.1725
_charybdi	-12.1742
_egregius	-12.1742
_elysios	-12.1742
_inhospita	-12.1742
_lachrimas	-12.1742
_phalanx	-12.1742
_auspicio	-12.1742
_extollit	-12.1742
_tetigisse	-12.1742
_uirginibus	-12.1743
_discrimen	-12.1743
_cruentus	-12.1743
_perempto	-12.1743
_daphne	-12.1743
_inclite	-12.1743
_perfecta	-12.1743
nnixus	-12.1743
_occurrere	-12.1743
_concursu	-12.1743
_tabulis	-12.1743
_brixia	-12.1743
_numinibus	-12.1743
_infando	-12.1743
_compositis	-12.1743
_saxea	-12.1744
_popule	-12.1745
_aspirat	-12.1745
_admirans	-12.1745
_certissima	-12.1745
_profano	-12.1745
_helene	-12.1745
_redeant	-12.1746
_inglori	-12.1747
_danaos	-12.1747
_circundat	-12.1748
_profugi	-12.1749
_presidi	-12.1749
_tepenti	-12.1751
_effectu	-12.1753
_laurentiu	-12.1764
_infanti	-12.1769
_surripi	-12.1811
urgentia	-12.1845
olidum	-12.185
_affui	-12.1877
_dogmat	-12.1884
_mucro	-12.1894
_federicus	-12.1906
_fefellit	-12.1906
_incolumes	-12.1906
_sepulti	-12.1906
_infelici	-12.1906
_probitatis	-12.1907
_uisceribus	-12.1907
_aggressu	-12.1907
_cinnama	-12.1907
_diserta	-12.1907
_genetrix	-12.1907
_blanditias	-12.1907
_quenquam	-12.1907
_aegide	-12.1907
_pallentes	-12.1907
_ingratus	-12.1907
_uirago	-12.1907
_ignauo	-12.1908
_opimis	-12.1908
_aucup	-12.1909
_firmo	-12.1909
_fixus	-12.1909
_resedit	-12.1909
_scabie	-12.1913
_extremi	-12.1914
_scripser	-12.1916
iicere	-12.1919
_scriptor	-12.1922
_modica	-12.1924
_tangat	-12.1931
_pulsu	-12.1936
_caduca	-12.1941
_transmitt	-12.1944
_repperi	-12.1966
_concepi	-12.1972
_guttur	-12.1975
_catuli	-12.1997
_carcer	-12.2034
scendunt	-12.2071
_sanguinolent	-12.2073
_augusto	-12.2073
_camoenis	-12.2073
_dimidium	-12.2073
_contermina	-12.2073
_deficient	-12.2073
_segnitie	-12.2073
_opponere	-12.2073
_perfusa	-12.2073
_insanus	-12.2073
_asellus	-12.2073
_postrema	-12.2074
_libyae	-12.2074
_sarcina	-12.2074
_sibylla	-12.2074
_comune	-12.2075
_sparso	-12.2075
_clarissime	-12.2075
_instabili	-12.2075
_formis	-12.2076
_haerba	-12.2076
_leonard	-12.2077
_signifer	-12.2077
_meruisse	-12.2081
_obstrep	-12.2081
_extendit	-12.2082
_minima	-12.2085
_celeste	-12.209
_exempt	-12.2092
_pericli	-12.2097
_fornac	-12.2098
maragd	-12.2103
posuere	-12.2117
_dirigit	-12.2123
_despecta	-12.2128
siliunt	-12.2137
_ostendi	-12.2138
_fulser	-12.2156
_infix	-12.2159
q	-12.2211
_epigramma	-12.2227
ubeant	-12.2231
_olenti	-12.2242
_assyrio	-12.2243
_gratulor	-12.2243
_iniquus	-12.2243
_perpetuus	-12.2243
_sepulchrum	-12.2243
_hesperii	-12.2243
_machmett	-12.2243
_spelunca	-12.2243
_triplex	-12.2243
_significa	-12.2243
_consueta	-12.2243
_profatur	-12.2243
_praesagi	-12.2243
_dilecte	-12.2243
_inopes	-12.2244
_sphaler	-12.2244
_deiecta	-12.2244
_excute	-12.2244
_alacri	-12.2244
_ouantes	-12.2244
_patulis	-12.2244
_caruisse	-12.2247
_nigrum	-12.2248
_uestibul	-12.2248
_aduenien	-12.2249
_exhorre	-12.2252
_dilecti	-12.2252
_iudaea	-12.2258
_mangia	-12.2258
_cateru	-12.2266
dolentia	-12.2272
_comuni	-12.2276
_infren	-12.2304
_exspecta	-12.2336
_incendit	-12.2336
_assult	-12.2404
_assiduus	-12.2415
_iniquum	-12.2415
_philippo	-12.2415
_scythica	-12.2415
_expecte	-12.2415
_scythici	-12.2415
_suppliciis	-12.2415
_anhelo	-12.2415
_tegmina	-12.2415
_eleganti	-12.2415
_experta	-12.2416
_rigidum	-12.2416
_temnere	-12.2416
_adempta	-12.2416
_hauser	-12.2417
_fallunt	-12.2417
_phrygii	-12.2417
_misella	-12.2417
w	-13.3753
k	-13.3754
