<unk>	0
<s>	0
</s>	0
_и	-3.16402
_в	-3.60551
_не	-4.22165
_на	-4.38281
_с	-4.39795
и	-4.54256
_а	-4.57257
_я	-4.60445
_что	-4.63182
_е	-4.79356
а	-4.81822
е	-4.94044
_он	-4.95384
_о	-4.96594
_к	-5.06033
_как	-5.13277
_по	-5.13946
_его	-5.22638
_но	-5.38743
_то	-5.41537
_за	-5.41619
_из	-5.46261
_от	-5.49396
м	-5.58947
_все	-5.59829
_это	-5.60701
_у	-5.62324
у	-5.7544
_так	-5.771
_же	-5.785
_она	-5.89246
_для	-5.9484
_вы	-5.97857
_было	-6.00703
_бы	-6.01639
х	-6.05363
_толко	-6.08837
_до	-6.10696
_был	-6.11805
_мне	-6.12892
ы	-6.14044
_или	-6.18774
_ее	-6.20088
_их	-6.20622
о	-6.21369
_мы	-6.24227
ом	-6.24322
_г	-6.25429
_при	-6.26006
_меня	-6.26502
_когда	-6.26809
_ты	-6.34276
_еще	-6.35588
_они	-6.37526
я	-6.37703
ся	-6.41516
_да	-6.41989
_ему	-6.44933
_ни	-6.4612
_если	-6.48468
_под	-6.51975
_во	-6.53185
ю	-6.53657
ов	-6.55769
_быт	-6.6049
_уже	-6.60829
_р	-6.60957
_чтобы	-6.61174
_со	-6.61275
го	-6.65853
_ли	-6.70175
ми	-6.71446
_время	-6.7514
_были	-6.77786
_была	-6.79653
_вот	-6.80527
_нет	-6.82411
_т	-6.84586
_может	-6.84588
_тепер	-6.87125
ии	-6.87152
_раз	-6.87295
_где	-6.87532
_об	-6.87592
_того	-6.89326
ая	-6.8968
_без	-6.9025
_чем	-6.91118
_него	-6.91542
_себя	-6.93425
т	-6.93691
_этого	-6.93963
_очен	-6.95267
ои	-6.95851
_м	-6.97396
_даже	-6.98624
_ест	-6.99561
_тем	-7.0027
ных	-7.01035
_сказал	-7.01787
_нас	-7.06404
_том	-7.07256
_себе	-7.07704
_будет	-7.07996
_вас	-7.08574
с	-7.08584
_еи	-7.10587
ами	-7.11328
_вам	-7.12476
_после	-7.12886
_более	-7.13733
_ю	-7.15115
_между	-7.16198
_мои	-7.16685
_свои	-7.16704
_этот	-7.17242
_них	-7.17661
_всех	-7.17716
_этом	-7.19567
ная	-7.20183
_здес	-7.2027
_там	-7.21344
ные	-7.21562
_которыи	-7.21675
_своеи	-7.22144
_кто	-7.22895
ныи	-7.22963
_которые	-7.24283
нои	-7.24714
_п	-7.25245
ую	-7.27667
_человек	-7.27857
_один	-7.29524
_эти	-7.31031
_потому	-7.31328
_ничего	-7.35006
_жизни	-7.35688
_им	-7.36101
_ним	-7.3691
_тогда	-7.37713
_над	-7.37821
_говорит	-7.3789
ного	-7.38445
_ну	-7.38535
_сам	-7.39733
_н	-7.39757
_нибуд	-7.40589
_нам	-7.40726
_несколко	-7.42032
ия	-7.44157
_д	-7.44566
_также	-7.44728
_дело	-7.44914
_свою	-7.45594
_перед	-7.46779
_тебя	-7.47393
_тебе	-7.47639
_своего	-7.47805
_можно	-7.49018
ка	-7.49246
_своих	-7.49454
ие	-7.50077
ет	-7.50519
ную	-7.50604
ем	-7.50935
_ден	-7.51695
_этои	-7.51968
_года	-7.52104
_л	-7.53892
_статя	-7.54535
_через	-7.55365
_вед	-7.55644
_много	-7.56218
_лет	-7.58255
ным	-7.58584
_б	-7.58869
_тут	-7.5888
_х	-7.5992
еи	-7.60216
_потом	-7.60262
_всего	-7.60267
_ем	-7.60294
ию	-7.62831
_болше	-7.6285
_мог	-7.62956
_про	-7.63295
_хотя	-7.63543
_жизн	-7.64348
_част	-7.65409
_се	-7.65505
_всегда	-7.67577
_ея	-7.70198
н	-7.70738
_которых	-7.71008
_тот	-7.71136
_надо	-7.71665
ого	-7.7181
ки	-7.7193
_два	-7.72017
л	-7.72925
_против	-7.73366
_неи	-7.74856
_всем	-7.75135
_людеи	-7.75401
_ор	-7.75723
_этих	-7.75807
_какои	-7.76222
_другои	-7.7683
_которои	-7.76921
ис	-7.77108
_свое	-7.7737
_эта	-7.78011
аго	-7.78361
_уж	-7.78846
_см	-7.78906
_друг	-7.78964
_лиш	-7.79166
_человека	-7.79819
_сказат	-7.80713
_почти	-7.80771
_наконец	-7.80954
ах	-7.81274
_слова	-7.81689
_своим	-7.81707
_такои	-7.82272
_глаза	-7.82668
_нем	-7.82911
_ко	-7.82966
ное	-7.83094
ым	-7.83276
на	-7.83753
_чего	-7.84132
_опят	-7.84596
ых	-7.8468
_времени	-7.84929
_которая	-7.85131
ли	-7.8558
_никогда	-7.85655
_вместе	-7.8599
_хорошо	-7.86306
_совершенно	-7.86489
_люди	-7.87181
_пр	-7.87746
_ра	-7.89728
_оно	-7.90529
_образом	-7.90863
_конечно	-7.90962
_вдруг	-7.9119
му	-7.91955
_три	-7.91999
_однако	-7.92227
_должен	-7.92846
_эту	-7.93717
_совсем	-7.93807
_чтоб	-7.94706
_тех	-7.9491
_стал	-7.95576
ского	-7.9614
им	-7.96648
_стр	-7.96922
_вес	-7.97166
_ж	-7.97211
_таким	-7.982
_те	-7.9851
_тоже	-7.99277
скои	-7.99587
_этим	-7.99871
в	-8.00169
_руки	-8.00732
_будто	-8.00859
_других	-8.0094
_знаю	-8.01056
_затем	-8.0153
_тому	-8.01644
ку	-8.01858
_стороны	-8.01978
_одно	-8.02371
_случае	-8.02967
ыи	-8.03204
_кроме	-8.03313
_одного	-8.03967
_лучше	-8.04129
_говорил	-8.0539
наго	-8.0547
_пока	-8.05752
_которое	-8.05911
но	-8.07003
_прежде	-8.07815
_точно	-8.08128
ном	-8.08388
_лицо	-8.08584
_снова	-8.08829
_однои	-8.08832
_мало	-8.10142
ными	-8.10291
ит	-8.10836
скии	-8.11065
ам	-8.11097
_дела	-8.11903
_такое	-8.12094
_которого	-8.12704
ст	-8.12828
_нелзя	-8.13022
_россиискои	-8.1359
_кажется	-8.14033
_место	-8.14459
_моя	-8.14572
_сердце	-8.15043
_спросил	-8.15081
_должны	-8.15189
их	-8.15319
_могу	-8.15327
ос	-8.15355
ла	-8.15471
_нужно	-8.16314
_сеичас	-8.16592
ас	-8.1713
_страница	-8.17781
_руку	-8.17802
_го	-8.18145
_году	-8.18275
ые	-8.18443
_федерации	-8.19104
_двух	-8.20334
_особенно	-8.20531
_сказала	-8.21014
_около	-8.21255
_именно	-8.21315
_части	-8.21888
_ф	-8.22212
_всю	-8.22252
_нее	-8.22288
_куда	-8.22317
ен	-8.22484
_одна	-8.22607
_нему	-8.23301
_дома	-8.23468
_бог	-8.24023
_писмо	-8.24241
_моеи	-8.24683
_среди	-8.24786
ок	-8.25207
_почему	-8.25261
_пор	-8.253
ют	-8.25497
_часто	-8.27334
_дня	-8.27451
_должно	-8.27621
_скоро	-8.27743
_своем	-8.27755
_де	-8.28292
ны	-8.28774
_мат	-8.28973
_россии	-8.29266
_голову	-8.29341
_мое	-8.30175
ое	-8.31077
ою	-8.31157
ке	-8.31374
_право	-8.31909
_которую	-8.32277
_либо	-8.33039
_стол	-8.33652
_отец	-8.3368
_та	-8.33829
_первыи	-8.33847
_разве	-8.33872
ск	-8.34209
_ними	-8.34361
_сколко	-8.3445
_долго	-8.35499
_собои	-8.36506
_никто	-8.37009
_пере	-8.37176
ских	-8.37484
ется	-8.3775
_иногда	-8.37899
_слишком	-8.38151
_хот	-8.38608
_минуту	-8.38711
_котором	-8.38849
_город	-8.3923
_доволно	-8.39271
_хотел	-8.39711
_слово	-8.40017
_ноч	-8.40093
_имеет	-8.40424
_ст	-8.40447
_весма	-8.41253
_год	-8.41534
_смерти	-8.41748
_этому	-8.41786
_менее	-8.42734
_дом	-8.42965
_могут	-8.43029
_брат	-8.43167
_каждыи	-8.43332
_лица	-8.43336
_значит	-8.44391
_деиствително	-8.44439
ская	-8.44834
ш	-8.4539
_ибо	-8.45535
_деле	-8.45541
_голос	-8.45765
_вообще	-8.45887
_две	-8.461
ныя	-8.46441
_сделат	-8.46818
_собою	-8.46894
ному	-8.47163
_мысли	-8.47219
_пуст	-8.47238
_могли	-8.47404
_какое	-8.47663
_просто	-8.47826
лис	-8.48008
_быстро	-8.48064
_видел	-8.48181
_давно	-8.48593
_народ	-8.48619
_сегодня	-8.48746
_моего	-8.48884
_прямо	-8.49209
_начал	-8.49353
_которым	-8.49453
_вопрос	-8.49742
_пред	-8.50059
_делат	-8.50208
_своему	-8.50344
_ту	-8.50439
_имя	-8.5051
_казалос	-8.50803
_самом	-8.51056
_отвечал	-8.51852
_жит	-8.52108
_ех	-8.52131
_вся	-8.52323
_мир	-8.52478
_любов	-8.52682
_сын	-8.53108
_мысл	-8.5318
_буду	-8.53286
_знал	-8.53557
_свет	-8.53578
_наш	-8.53885
_идет	-8.54498
_своими	-8.54587
_будут	-8.54853
_стати	-8.55877
_кого	-8.55924
_места	-8.56032
_пункт	-8.56159
_княз	-8.56219
_иии	-8.56263
_другие	-8.56308
_назад	-8.56589
_самого	-8.57066
_земли	-8.57096
_наши	-8.57427
_едва	-8.5746
_таких	-8.57701
_такого	-8.57765
_любви	-8.57902
_города	-8.58002
_правда	-8.58055
тся	-8.58083
_ах	-8.58598
_сама	-8.587
яс	-8.58948
_ч	-8.58992
_отца	-8.59048
_впрочем	-8.59166
_должна	-8.59189
_тои	-8.59299
_какая	-8.59745
_ответил	-8.60163
ят	-8.60231
_могла	-8.60575
_ваше	-8.60646
_власти	-8.60704
_сюда	-8.6073
_пут	-8.61146
_стало	-8.61266
_всеи	-8.62011
_каким	-8.62845
сти	-8.63283
_стали	-8.63421
_видет	-8.63644
_твои	-8.6389
_права	-8.6405
_вполне	-8.6421
_знает	-8.64629
_суда	-8.64926
_ре	-8.65381
_самое	-8.65575
не	-8.65584
_общества	-8.65748
_стоит	-8.65792
_з	-8.65859
_болшои	-8.65878
_нашего	-8.66228
_месте	-8.66464
_денги	-8.66496
_одним	-8.67188
_является	-8.67204
_силы	-8.67388
_мере	-8.67638
_нашеи	-8.67786
_вероятно	-8.67842
_виде	-8.68006
_глава	-8.68043
ском	-8.68232
_сторону	-8.6859
_вместо	-8.68614
_мнои	-8.68628
лас	-8.69112
_таки	-8.69165
_самои	-8.6922
_знат	-8.69888
_днеи	-8.69948
_ис	-8.70055
_двер	-8.70189
_глазами	-8.70324
_зачем	-8.7043
_вид	-8.70508
_мною	-8.70514
кои	-8.70736
_молодои	-8.70879
_дал	-8.71034
_наших	-8.7116
_души	-8.71479
_бога	-8.71512
_сами	-8.72122
_говорят	-8.72153
ло	-8.72448
_писма	-8.72703
_церкви	-8.72858
_вперед	-8.72915
ются	-8.72919
_следует	-8.73078
_ш	-8.73163
_тотчас	-8.73399
_одну	-8.73583
_дел	-8.7376
_э	-8.7391
_дат	-8.74213
ому	-8.7449
_области	-8.74862
_друга	-8.75013
_какие	-8.75043
_иван	-8.75107
_имел	-8.75296
_выше	-8.75337
еш	-8.75338
_поэтому	-8.75504
_эсбе	-8.75851
_думал	-8.76314
_цар	-8.76468
_чут	-8.76612
_детеи	-8.7675
_немного	-8.7724
_смерт	-8.77691
_истории	-8.7812
_видно	-8.78393
_ро	-8.78887
_час	-8.79298
_слов	-8.79381
_хочу	-8.79403
_силу	-8.79469
_имет	-8.79781
_глаз	-8.80013
_суд	-8.80139
_далеко	-8.80262
_несмотря	-8.80436
_трех	-8.80532
_пят	-8.80578
_матери	-8.80846
_тихо	-8.80914
_народа	-8.80929
_часов	-8.8117
_сделал	-8.8123
_словно	-8.81376
_лиц	-8.81401
_туда	-8.81624
_нами	-8.81916
_тсд	-8.81989
_заметил	-8.82021
_получил	-8.82256
_реч	-8.83288
_генерал	-8.83316
лся	-8.83625
_женщина	-8.83851
_граф	-8.83931
_моих	-8.84048
_силно	-8.84122
_землю	-8.84252
_мою	-8.84277
_легко	-8.84919
_ответ	-8.84996
те	-8.85008
_такие	-8.8536
скаго	-8.85673
_продолжал	-8.85721
ну	-8.85746
_женщины	-8.8608
_тысяч	-8.86137
_пути	-8.86358
_старик	-8.86553
_отношении	-8.86616
_воины	-8.86712
ские	-8.86809
_море	-8.86852
_работы	-8.86931
_равно	-8.87336
_сил	-8.87566
_самыи	-8.87631
_конце	-8.87844
_земле	-8.87852
_жена	-8.87881
к	-8.87882
ат	-8.883
_александр	-8.88353
ским	-8.88612
_руках	-8.88714
_род	-8.88783
_любит	-8.89186
_сих	-8.89253
_связи	-8.89287
ж	-8.89313
_деятелности	-8.89418
_вами	-8.89526
_доме	-8.89664
_мистер	-8.89683
_мира	-8.8989
_столко	-8.89901
_думаю	-8.89905
ова	-8.89931
_св	-8.90022
ил	-8.90164
_писал	-8.90723
_русскои	-8.9082
_ясно	-8.91079
_вовсе	-8.91171
_например	-8.91238
_иначе	-8.91295
_пришел	-8.91444
_воды	-8.9165
ское	-8.92015
_стоял	-8.92029
_взял	-8.92355
_вокруг	-8.92668
_знаете	-8.92771
_др	-8.92888
_другим	-8.93365
_пошел	-8.93386
ин	-8.93447
_начала	-8.93681
_корол	-8.93766
_второи	-8.93994
_домои	-8.94341
_скорее	-8.94457
_которому	-8.94608
_рода	-8.94702
_известно	-8.94902
_одном	-8.94914
_оба	-8.94916
_вышел	-8.95346
ев	-8.95481
_доч	-8.95563
_организации	-8.95791
_сына	-8.95816
_другого	-8.95871
_ка	-8.96712
_говорю	-8.96861
_завтра	-8.96943
скую	-8.97059
_трудно	-8.97424
_первои	-8.97478
_сразу	-8.97512
_понят	-8.97688
_господин	-8.97713
_такая	-8.9785
_всеми	-8.97852
_некоторые	-8.97964
ями	-8.98095
_далше	-8.98096
_виду	-8.98145
_взят	-8.98407
ни	-8.98418
цы	-8.98517
_книги	-8.98674
_говорили	-8.98906
_прав	-8.98966
_дни	-8.9914
_хочет	-8.99493
_сначала	-8.99797
_душе	-8.99812
_изд	-8.99958
_степени	-8.99979
_	-9.00201
_ноги	-9.00473
ыми	-9.00674
_стала	-9.00753
_кров	-9.00866
_солнце	-9.01073
_случаи	-9.01869
_князя	-9.01872
ием	-9.01947
_далее	-9.01948
_жил	-9.02022
ее	-9.02098
_ради	-9.0219
_рядом	-9.02287
_принят	-9.02591
_другое	-9.02772
д	-9.03122
_числе	-9.0365
_дух	-9.03654
_пер	-9.03667
ец	-9.0372
нее	-9.03913
_ваш	-9.04006
_многих	-9.04072
_первых	-9.04258
_петр	-9.04585
_головои	-9.0462
б	-9.04641
_гораздо	-9.04644
его	-9.04682
_вскоре	-9.05035
_ио	-9.05066
_служит	-9.05093
_какую	-9.05099
ив	-9.05127
_свете	-9.05156
ков	-9.05193
_ях	-9.05474
_верно	-9.05618
_пол	-9.05796
_имени	-9.05868
_таком	-9.05966
_гор	-9.05988
_рублеи	-9.06197
_денег	-9.06402
_четыре	-9.06612
_богу	-9.06621
_голосом	-9.06626
_сердца	-9.06687
_полу	-9.06879
_дети	-9.06994
_идти	-9.07332
_самых	-9.07335
_сем	-9.07506
_ум	-9.07645
_течение	-9.07682
_комнату	-9.07818
_государ	-9.07858
_власт	-9.08376
_увидел	-9.08589
_какого	-9.08683
_ранше	-9.08804
та	-9.08861
_откуда	-9.0903
_вижу	-9.09164
_очевидно	-9.09304
_руками	-9.09725
_благодаря	-9.09887
_краинеи	-9.0993
_лице	-9.09949
_пришлос	-9.09981
_доктор	-9.10061
_никакого	-9.10372
_другом	-9.10488
_глазах	-9.10809
_чест	-9.10829
_взгляд	-9.10909
_николаи	-9.11232
_проч	-9.11329
_кому	-9.11409
_иванович	-9.11527
_закон	-9.11741
_десят	-9.11933
_чувство	-9.12
скому	-9.12154
_новыи	-9.12599
_ас	-9.12654
_котораго	-9.12735
_ночи	-9.12752
_господ	-9.12814
_говоря	-9.12837
_капитан	-9.12874
_берегу	-9.13043
_которыя	-9.13293
_возможност	-9.13295
_обыкновенно	-9.13437
_рукои	-9.13808
_достаточно	-9.13929
_душа	-9.13985
_умер	-9.14097
_многие	-9.14316
_москве	-9.14332
_шел	-9.14418
_находится	-9.14515
ца	-9.14611
_буд	-9.14697
_возможно	-9.14758
_положение	-9.14849
_рас	-9.14917
ком	-9.14969
_душу	-9.15092
_самым	-9.15337
_двери	-9.15354
_минут	-9.15533
_лицом	-9.15543
_конца	-9.15549
_вечер	-9.15564
_впервые	-9.15919
_наше	-9.16036
_словом	-9.16072
ками	-9.16073
_будем	-9.16517
_муж	-9.16525
_конец	-9.1673
_тело	-9.16739
_русских	-9.17025
_необходимо	-9.17107
_могло	-9.17146
_спокоино	-9.17301
_постоянно	-9.18002
_века	-9.18104
_старыи	-9.18252
_нею	-9.18255
_знаеш	-9.18365
_воскликнул	-9.18422
_однажды	-9.18431
_совета	-9.18515
_вашего	-9.18981
_характер	-9.19072
цев	-9.19166
_разговор	-9.19182
_сеи	-9.192
_гг	-9.19385
_девушка	-9.19409
ня	-9.19453
_государственнои	-9.19536
_соответствии	-9.19583
ши	-9.19598
_церков	-9.19716
_господа	-9.1973
_спб	-9.19734
_сего	-9.1982
_автор	-9.20003
_язык	-9.20453
ства	-9.20466
_закона	-9.2055
_делу	-9.20553
_лес	-9.20577
_сквоз	-9.20578
иш	-9.20692
_словами	-9.20708
_внов	-9.20797
_думат	-9.21033
_ями	-9.21155
_готов	-9.21195
_чему	-9.21223
_средств	-9.21268
_люблю	-9.21384
_дороге	-9.21555
ною	-9.21608
_положен	-9.21744
_ряд	-9.21843
_ночю	-9.21952
_мар	-9.21968
_комнате	-9.22047
ич	-9.22166
_хотелос	-9.22177
_имеют	-9.22196
_аи	-9.2229
_говорила	-9.22417
_сидел	-9.22419
_солдат	-9.2248
ите	-9.22491
_которыми	-9.22616
_моему	-9.22676
_бывает	-9.22707
ится	-9.22721
_неужели	-9.22782
_вчера	-9.22916
_вечером	-9.23089
_горе	-9.23176
_мужа	-9.233
_рол	-9.23379
_ползу	-9.23598
_ха	-9.2378
_разумеется	-9.23789
_дает	-9.23821
_тобои	-9.23828
_ума	-9.23874
_вещи	-9.23879
_нечего	-9.23929
_собрание	-9.24191
_порядке	-9.24901
_мимо	-9.24945
_русского	-9.25155
_петербург	-9.25205
_боже	-9.2529
_наша	-9.25729
_мая	-9.25803
_кн	-9.25874
_поэт	-9.25913
_нашел	-9.25917
_наиболее	-9.25986
_одни	-9.25993
_относително	-9.26073
_сел	-9.26194
_короля	-9.26198
_августа	-9.26312
ина	-9.26518
_армии	-9.26888
_ею	-9.27008
ности	-9.27099
ал	-9.2727
_каких	-9.27303
_чувства	-9.27349
_годы	-9.27391
_разных	-9.27441
_отсюда	-9.27447
_общество	-9.27622
_земля	-9.2777
_медленно	-9.27778
_частю	-9.27795
_узнал	-9.28021
_сторон	-9.28022
_брата	-9.28185
лос	-9.28528
_ныне	-9.2871
_утром	-9.28844
_двадцат	-9.28869
_значение	-9.2892
ях	-9.28997
_такую	-9.29393
ц	-9.29482
_спросила	-9.29517
_случилос	-9.29542
_невозможно	-9.29542
_внимание	-9.2958
_небо	-9.29704
ыя	-9.29827
_самые	-9.29966
_наити	-9.30119
_само	-9.30137
_реки	-9.30248
_последнии	-9.30263
ко	-9.30634
_вашеи	-9.30723
_партии	-9.30763
_часа	-9.30804
_комнаты	-9.31079
_любил	-9.31282
_первое	-9.31362
_рук	-9.31397
_слезы	-9.31399
_духа	-9.31479
_помощи	-9.31496
_порядок	-9.31527
_цел	-9.31555
ч	-9.31569
_дороги	-9.31958
_царя	-9.32034
или	-9.32068
_хотите	-9.3209
_число	-9.321
_сон	-9.32108
_новои	-9.32138
иеи	-9.32333
_марта	-9.32426
_всему	-9.32456
_счет	-9.3272
_поле	-9.32747
_начало	-9.33255
_некоторых	-9.3339
ва	-9.33491
_труда	-9.335
_моим	-9.3357
_груд	-9.33586
_страшно	-9.33704
_последнее	-9.33908
_качестве	-9.34005
ел	-9.34324
ими	-9.34376
_головы	-9.34515
_моря	-9.34516
_кругом	-9.34623
_новые	-9.34699
ство	-9.34737
_городе	-9.34861
_хи	-9.34885
_минуты	-9.35112
_вошел	-9.35156
п	-9.35354
_новых	-9.35372
_смотрел	-9.35387
_обо	-9.3546
_речи	-9.35611
_написал	-9.35617
_человеком	-9.35753
_просит	-9.35867
_отношен	-9.35889
_государства	-9.35963
_писат	-9.36089
_русскии	-9.36095
_образ	-9.36204
г	-9.36316
_другими	-9.36593
_сто	-9.36606
_случаях	-9.3675
_женщин	-9.3679
_прошу	-9.36812
_сила	-9.3685
_возможности	-9.36999
_горы	-9.37035
ност	-9.37082
_целыи	-9.37182
_никак	-9.37196
_утра	-9.37457
_работу	-9.3749
_срок	-9.37591
_тела	-9.37701
_напротив	-9.37745
_огон	-9.38015
_немедленно	-9.38043
_ар	-9.38095
_угодно	-9.3814
_никаких	-9.38188
овои	-9.38288
_англ	-9.38504
_счасте	-9.38559
_удалос	-9.38702
_путем	-9.38818
_особенности	-9.38913
_голова	-9.3896
_страны	-9.39066
_одному	-9.39098
_непременно	-9.39146
_семи	-9.3924
_настоящего	-9.39255
_ваши	-9.39313
_стороне	-9.39363
_история	-9.39376
_кол	-9.394
_видели	-9.39663
ник	-9.39769
_природы	-9.39778
_рабочих	-9.39836
_октября	-9.39963
_другую	-9.40018
_рад	-9.40055
_света	-9.40292
_хочеш	-9.40296
_вон	-9.40361
_новое	-9.40468
_касается	-9.40473
_людми	-9.40614
_понял	-9.40686
_человеку	-9.40724
_окна	-9.40888
_цели	-9.40897
_голове	-9.40947
_менше	-9.41046
_смысле	-9.41059
_труд	-9.41064
_нового	-9.41141
_скажу	-9.41149
р	-9.41265
_груди	-9.41389
_ходит	-9.41398
ер	-9.41433
_шест	-9.41443
_ссср	-9.41535
ик	-9.4158
_ал	-9.417
_губ	-9.41758
_всякого	-9.41849
_росс	-9.4191
_плате	-9.41962
_проговорил	-9.42067
_помощ	-9.42086
_сочинении	-9.42164
_произнес	-9.42174
_кое	-9.42189
_громко	-9.42248
_гл	-9.42262
_правителства	-9.42287
_чувствовал	-9.424
_живет	-9.4255
_людям	-9.4268
_жал	-9.42771
_несколких	-9.42808
_памят	-9.4291
_узнат	-9.4297
_подумал	-9.42986
_глубоко	-9.4311
_полное	-9.43273
_пожалуи	-9.43311
_слышал	-9.43328
_занят	-9.43433
_начале	-9.43449
ра	-9.43528
_ехат	-9.43536
ша	-9.43561
_последние	-9.43651
_шум	-9.43658
_самому	-9.43746
_двумя	-9.43934
_чрезвычаино	-9.44224
_подошел	-9.44296
_июля	-9.44387
_великии	-9.44524
_хлеб	-9.44533
_января	-9.44547
_состоянии	-9.44552
_никого	-9.44558
_первого	-9.44563
_остается	-9.44586
_болшая	-9.44636
_воз	-9.44639
_состав	-9.44674
_получит	-9.44742
_анна	-9.44786
_декабря	-9.44805
_весело	-9.44833
ля	-9.44897
_кон	-9.44994
_ветер	-9.45095
_идеи	-9.4515
_болшим	-9.45318
_лошад	-9.45451
_настоящее	-9.45474
_чрез	-9.45478
_отчего	-9.45552
_дорогу	-9.4568
_первая	-9.45765
_ос	-9.46012
_молча	-9.46069
_истор	-9.46123
_двор	-9.46242
_этими	-9.46491
_крепко	-9.46609
_целю	-9.46752
_принял	-9.46958
он	-9.46969
_итак	-9.46974
_можете	-9.47093
_развития	-9.47109
_жены	-9.47135
_воздух	-9.47148
_ноября	-9.47251
_всяком	-9.47414
_воиска	-9.4754
_искусства	-9.47688
_первые	-9.47844
_утро	-9.47975
_делает	-9.48142
_понимаю	-9.48211
_вследствие	-9.4826
_болшую	-9.48281
_средства	-9.48393
_смотрет	-9.48405
_месяц	-9.48478
_участие	-9.48507
ес	-9.48518
_апреля	-9.48568
_решително	-9.4858
ле	-9.48613
_оттуда	-9.48721
_подобно	-9.48722
_остановился	-9.48824
_воду	-9.48863
_решил	-9.49044
_петербурге	-9.49136
_сэр	-9.49436
_службы	-9.4956
_представляет	-9.49715
_радост	-9.49785
юс	-9.49805
_следователно	-9.49834
_основании	-9.50194
_шли	-9.50266
_ес	-9.50278
_остался	-9.50375
_никакои	-9.50411
_выходит	-9.50464
_состоит	-9.50581
_будучи	-9.50589
_рот	-9.50733
_великого	-9.50889
_главным	-9.51028
_ср	-9.51053
_поводу	-9.51109
_нежели	-9.51163
_форме	-9.51166
_республики	-9.51383
_стихи	-9.51541
_камен	-9.51714
_деятелност	-9.51971
_тяжело	-9.52149
_помню	-9.52226
_толстои	-9.52249
_крови	-9.52382
_оставит	-9.52415
_сентября	-9.52463
_совет	-9.52559
_лошади	-9.52587
_дорогои	-9.52621
_хуже	-9.52637
_москва	-9.52649
_ваша	-9.52782
_книга	-9.53028
_всякои	-9.53055
_всякии	-9.53168
_числа	-9.53284
_работа	-9.53466
илис	-9.53489
_моем	-9.53505
_дочери	-9.53592
_имели	-9.53836
_везде	-9.53909
_лошадеи	-9.54048
_неволно	-9.54113
_главное	-9.54249
_можем	-9.54284
_ла	-9.54306
_улице	-9.54336
_милыи	-9.54355
_мисс	-9.54409
_перевод	-9.54495
_момент	-9.54613
_скажи	-9.54653
_твоя	-9.54658
вер	-9.54678
_видит	-9.5476
_период	-9.54788
_лев	-9.55127
_воиск	-9.55131
_берег	-9.55191
_причем	-9.55285
_становится	-9.55357
_деиствия	-9.55372
_ян	-9.55418
_впоследствии	-9.55584
_другая	-9.55686
_настоящеи	-9.55698
_малчик	-9.5573
_пар	-9.55762
_нечто	-9.55921
неи	-9.5597
_франц	-9.56114
_вслед	-9.56144
_вернулся	-9.56222
_видимому	-9.56453
_движения	-9.56593
_местах	-9.5663
_солнца	-9.56694
_положения	-9.56732
_хотела	-9.56841
_стены	-9.56904
_писател	-9.57006
_ан	-9.57011
_напрасно	-9.57131
_деиств	-9.5717
_статеи	-9.57249
_принадлежит	-9.5725
_ниже	-9.5756
_лежит	-9.57592
_вопросы	-9.57717
_вниз	-9.5782
_голоса	-9.57836
_франции	-9.5786
_решения	-9.57911
_успел	-9.57921
_просил	-9.57935
_месяца	-9.58089
_решение	-9.58331
_сад	-9.58333
_июня	-9.58391
ям	-9.58436
же	-9.58451
_господи	-9.58549
_вниман	-9.5856
ман	-9.58697
_болшое	-9.58707
_руб	-9.58787
_пяти	-9.58815
_желан	-9.58856
_другу	-9.5897
_каком	-9.59139
_стоят	-9.59402
_мире	-9.5943
_своею	-9.59818
_василии	-9.6007
_законом	-9.60132
_литературы	-9.60189
з	-9.60314
_са	-9.60327
_страх	-9.6035
_явился	-9.60442
_стояла	-9.60502
_убит	-9.60592
_состоян	-9.60632
_нея	-9.60686
_очеред	-9.6069
_знали	-9.6074
_ребенка	-9.60813
_мол	-9.60854
_самая	-9.60873
ился	-9.60933
_крикнул	-9.61101
ут	-9.61158
_вышла	-9.61251
_ям	-9.61343
_отправился	-9.6141
_хозяин	-9.61479
_представит	-9.61504
_пишет	-9.61504
_петра	-9.61543
_движение	-9.61579
_слава	-9.61638
_михаил	-9.61699
овых	-9.61804
_вечера	-9.61823
_бар	-9.61911
_первым	-9.61997
_стояли	-9.62001
_членов	-9.62069
_сестра	-9.62094
_глядя	-9.62104
_будеш	-9.62231
_недавно	-9.62232
_твое	-9.62256
_ушел	-9.62268
_жизню	-9.62311
_воли	-9.62323
_февраля	-9.62371
_прошло	-9.62615
_выражен	-9.6276
_обратился	-9.62765
_вне	-9.6298
_план	-9.63013
_волосы	-9.63016
_надобно	-9.63078
_стат	-9.6308
_кем	-9.63093
_пришли	-9.63141
_именем	-9.63144
_офицер	-9.63266
ает	-9.63267
_ног	-9.63447
_оп	-9.63532
_берега	-9.63541
_зато	-9.63575
_меры	-9.63659
_придется	-9.63692
_ближе	-9.63698
_видя	-9.63843
_работ	-9.63853
ек	-9.63891
_окончателно	-9.6401
_ои	-9.64031
_андреи	-9.64087
_пора	-9.64112
_системы	-9.64153
_москвы	-9.64196
_вода	-9.64483
_пошли	-9.64531
_русские	-9.6455
_множество	-9.64605
_москву	-9.64706
_твоеи	-9.64767
_ц	-9.65001
_читат	-9.65043
са	-9.6512
_дон	-9.65291
_раза	-9.65352
_каждого	-9.65431
_дворе	-9.65579
_поэта	-9.65682
_чаи	-9.65776
_писме	-9.6579
_приходилос	-9.65814
га	-9.65818
_днем	-9.65911
_верст	-9.65976
_согласно	-9.65979
_леса	-9.65991
_алексеи	-9.66081
_странно	-9.66105
_радости	-9.66191
_петербурга	-9.66201
_пришла	-9.66205
_свободы	-9.66212
_территории	-9.66223
_уверен	-9.66237
_революции	-9.66259
_черт	-9.66262
илас	-9.66384
_мест	-9.66669
_высоко	-9.66681
_скажите	-9.66738
_крестян	-9.66797
ния	-9.66902
_плохо	-9.66951
_являются	-9.66981
_положении	-9.67175
_роман	-9.673
_зная	-9.67342
_приказал	-9.67367
_редко	-9.67389
_желая	-9.67434
_службу	-9.67453
_вести	-9.67609
ают	-9.67687
_каждои	-9.67697
_читал	-9.6778
_никому	-9.67801
_непр	-9.6784
_участ	-9.67845
стю	-9.67873
_знала	-9.67888
_главе	-9.67929
итес	-9.6803
_правителство	-9.68275
_напр	-9.68279
_близко	-9.68283
_несомненно	-9.68284
_искат	-9.68338
_федералного	-9.68347
ятся	-9.6838
_формы	-9.68443
_воина	-9.68476
_настолко	-9.68478
_силои	-9.68487
_мер	-9.68748
_удар	-9.68761
_часы	-9.68776
_обе	-9.68988
_спат	-9.69149
_павел	-9.69221
_союза	-9.69386
_видите	-9.69433
ус	-9.69593
_ежели	-9.69605
_государственно	-9.69622
_произведен	-9.69817
_книгу	-9.69985
щ	-9.69987
_чисто	-9.70093
_пушкина	-9.70391
_сведения	-9.7043
_оказалос	-9.70486
_оставил	-9.70531
_первом	-9.70576
_борбы	-9.70605
_спустя	-9.70678
_петрович	-9.70694
_жителеи	-9.70804
_правду	-9.70946
_вел	-9.71007
_отвечала	-9.71094
нут	-9.71096
_пит	-9.71244
_четырех	-9.71247
_хлеба	-9.71269
_хочется	-9.71301
_точки	-9.71545
_встал	-9.71568
_рано	-9.71613
_толпа	-9.71616
_близ	-9.71621
_прибавил	-9.71642
ович	-9.71772
_герцог	-9.71782
_прекрасно	-9.71809
кою	-9.71825
_графа	-9.71841
_друзя	-9.71913
_раси	-9.71954
_пушкин	-9.71956
ила	-9.71958
ре	-9.71979
_сказано	-9.71998
_впереди	-9.72014
_мнен	-9.72028
_рука	-9.72043
_старался	-9.72049
_языке	-9.72072
_притом	-9.72107
_открыт	-9.72193
_пожалуиста	-9.72263
ница	-9.72289
_смысл	-9.72294
_александра	-9.72308
_слез	-9.72408
_угол	-9.72432
_собственно	-9.72522
_журнал	-9.72562
ников	-9.72588
_начали	-9.72715
_тысячи	-9.72788
_видом	-9.72789
_шла	-9.7284
_относится	-9.72887
_толстого	-9.72906
_лесу	-9.72947
_последн	-9.72949
_исключително	-9.72952
_вер	-9.72999
от	-9.73057
_крест	-9.73057
_назначен	-9.7325
_песни	-9.73338
_улыбкои	-9.73358
емся	-9.73411
_говорите	-9.73462
_книг	-9.73514
_бывало	-9.73515
_входит	-9.73527
_движен	-9.73546
_приходится	-9.73558
_поздно	-9.7359
_внезапно	-9.73633
_монастыр	-9.73702
нет	-9.73728
_бес	-9.73835
_отношения	-9.7391
стве	-9.73914
_происходит	-9.73918
_вина	-9.73945
_произведения	-9.74195
_губернии	-9.74199
_обратно	-9.74265
_тен	-9.74284
_вечно	-9.7432
_месяцев	-9.7439
_цвет	-9.74515
_существует	-9.74533
_ваших	-9.74625
_судя	-9.74651
_дам	-9.74707
_кор	-9.74731
вшихся	-9.7476
_всякое	-9.74799
_имею	-9.74852
_нашим	-9.74903
_находился	-9.74957
_друзеи	-9.75088
_вера	-9.75095
али	-9.75173
_трудом	-9.75201
_органов	-9.75302
_надеюс	-9.75462
_верит	-9.75543
лю	-9.75575
_сборник	-9.7572
_пре	-9.75826
_памяти	-9.75867
_прочим	-9.75877
_ответила	-9.75913
_ужас	-9.75935
_дали	-9.76125
_лицу	-9.76128
_осталос	-9.76192
_ждат	-9.76234
_станет	-9.76246
_стихотворения	-9.7628
_края	-9.76287
_коли	-9.76319
_нашу	-9.76358
по	-9.76479
_некоторое	-9.7653
_бои	-9.76587
оват	-9.76638
_разные	-9.76779
_болезни	-9.76903
_автора	-9.7691
_руке	-9.76936
_последних	-9.76995
_эл	-9.77037
_посмотрел	-9.77117
_последнеи	-9.77125
_постепенно	-9.77256
_основан	-9.77341
_жену	-9.77382
_языка	-9.77419
_пет	-9.77568
_девушки	-9.77651
_школы	-9.77664
_намерен	-9.77666
_общего	-9.77757
_годов	-9.7785
_отлично	-9.77882
_внимания	-9.77947
_словам	-9.77969
_ил	-9.78027
_владимир	-9.7809
_времена	-9.78168
_тени	-9.78279
_услов	-9.78306
_бсэ	-9.78357
ту	-9.78401
_федералным	-9.78409
_уходит	-9.78452
_всяких	-9.78517
_дому	-9.7854
_рус	-9.78553
_надежды	-9.78644
_сущности	-9.7876
_науки	-9.78803
_возле	-9.78883
_различных	-9.7901
_санкт	-9.79146
_болшие	-9.79162
_веры	-9.79175
ему	-9.79177
_крик	-9.79216
_обществе	-9.79346
_видимо	-9.79377
_послал	-9.79449
_молодая	-9.79513
_вещеи	-9.79584
тер	-9.79655
_неожиданно	-9.79675
_императора	-9.79783
_сергеи	-9.7985
_велел	-9.79957
_гости	-9.80204
э	-9.80333
_народу	-9.80339
_самую	-9.80351
_опасности	-9.80372
_чаще	-9.80406
_вещ	-9.80419
_прошел	-9.80598
_граждан	-9.806
_искусство	-9.80681
_связ	-9.8072
_болших	-9.80734
_судба	-9.80814
_непосредственно	-9.80815
_работат	-9.8084
ан	-9.80872
_производства	-9.80876
_смотря	-9.8091
_поднял	-9.80925
_имела	-9.80951
_силнее	-9.80953
_нашем	-9.80962
_каждом	-9.81009
_видиш	-9.81119
_ход	-9.81204
_нашему	-9.8124
_знаем	-9.81248
_безопасности	-9.81252
_стате	-9.81366
_словах	-9.81369
_ужасно	-9.81615
_можеш	-9.81625
_забыл	-9.81628
_стране	-9.81664
_управления	-9.81716
ве	-9.81719
_приказ	-9.81741
_англии	-9.81817
ею	-9.81953
_ничто	-9.81953
_русская	-9.8209
_бумаги	-9.82211
_мил	-9.82266
_париж	-9.82384
_имея	-9.82486
_лично	-9.82576
_отчасти	-9.82593
_верховного	-9.82682
_название	-9.82732
_некогда	-9.82788
ты	-9.828
_ген	-9.82873
_двое	-9.82875
_зло	-9.83006
_сказали	-9.83009
_европы	-9.8301
_идут	-9.83093
_возразил	-9.83193
_вашу	-9.83225
_окно	-9.83252
_навсегда	-9.83305
_пошла	-9.83349
_губы	-9.83443
_великои	-9.83444
ися	-9.83567
_желание	-9.83577
ост	-9.83579
_обязан	-9.83656
_мед	-9.83686
_тобою	-9.83757
_будете	-9.8386
_знак	-9.83863
_строго	-9.84037
_нашли	-9.84114
_делал	-9.84117
_сие	-9.84213
_насколко	-9.84291
_деиствителности	-9.84355
_другому	-9.84369
_век	-9.8447
_отцу	-9.84594
_ти	-9.84709
_недели	-9.84724
_зрения	-9.84766
_фз	-9.848
вш	-9.84836
_сделали	-9.84843
_села	-9.84888
_император	-9.84893
_рассказ	-9.84948
_добрыи	-9.84969
_герои	-9.8499
_характера	-9.85115
_обоих	-9.85187
кин	-9.85271
_желал	-9.85295
_взглядом	-9.85363
_целую	-9.85429
_почувствовал	-9.8545
_показалос	-9.85463
_видела	-9.85481
_христа	-9.8549
_нос	-9.85504
_болшеи	-9.8552
_деиствие	-9.85583
_париже	-9.8567
_слегка	-9.85678
ги	-9.8568
_дым	-9.85786
_населения	-9.85819
_милая	-9.85847
_бур	-9.85859
_россия	-9.85863
_даи	-9.85932
це	-9.86079
_газеты	-9.86084
_требует	-9.86158
_новая	-9.86159
ющих	-9.86201
_вашему	-9.86272
_придет	-9.86286
_дорога	-9.86341
_па	-9.86369
_молодого	-9.86421
_сидит	-9.8643
_николаевич	-9.86504
_профессор	-9.86521
_смотрит	-9.86572
_хотели	-9.86629
_книге	-9.86641
ян	-9.86678
_количество	-9.86731
ние	-9.86768
_полка	-9.86803
_одновременно	-9.86809
_составляет	-9.86868
_осталные	-9.86888
_делом	-9.87004
_боюс	-9.87036
_серезно	-9.87236
_вл	-9.87304
_ком	-9.87511
_сут	-9.8756
_союз	-9.87589
ше	-9.87591
_внутри	-9.87642
_ворот	-9.87717
_преимущественно	-9.87733
_государя	-9.87793
_приехал	-9.87801
_издание	-9.87946
_необходимости	-9.88005
_чувств	-9.88015
ках	-9.88228
_думала	-9.88472
_долг	-9.88532
_состояние	-9.88626
_народов	-9.88689
_маря	-9.88711
_держат	-9.88769
_частеи	-9.88803
_остров	-9.88852
_показат	-9.88879
ры	-9.88946
ству	-9.88992
_дар	-9.89029
_карл	-9.89146
_начинает	-9.89358
_порядка	-9.89375
_условии	-9.89379
_вдол	-9.89411
_ответа	-9.89499
_судов	-9.89515
_полк	-9.89534
_видим	-9.89588
_краине	-9.89603
_резко	-9.89614
_александрович	-9.89728
_влияние	-9.89768
_дядя	-9.89897
_пост	-9.89977
_началник	-9.89992
_здорове	-9.90041
_причины	-9.90081
_толпы	-9.90106
_счастя	-9.90106
_содержание	-9.90173
_матер	-9.90237
_федор	-9.90391
_нередко	-9.90392
_белыи	-9.90483
_поля	-9.90513
_дитя	-9.9052
_жили	-9.90584
_воздухе	-9.90693
_област	-9.90704
_мнению	-9.90709
_дан	-9.90795
ева	-9.90806
_замуж	-9.90825
_позднее	-9.9088
_пример	-9.90881
_велик	-9.9089
_позволте	-9.90984
_самим	-9.91262
_сомнения	-9.91281
_неделю	-9.91313
_впечатление	-9.91342
_михаилович	-9.91444
да	-9.91497
_деиствии	-9.91548
_оттого	-9.91563
_кур	-9.91588
_тоном	-9.91595
_мин	-9.91664
_обязанности	-9.91665
_вышли	-9.91678
_помоч	-9.9172
_противника	-9.91733
_делается	-9.91744
_стола	-9.91794
_василевич	-9.91856
_вверх	-9.92139
_называется	-9.92397
_считат	-9.92399
_общее	-9.92427
_следовало	-9.92428
_условия	-9.92746
_бо	-9.9281
_старика	-9.92859
_округа	-9.92893
_председател	-9.92896
_животных	-9.92933
_твоего	-9.92948
_благо	-9.92961
_взглянул	-9.93101
лен	-9.93194
_концов	-9.93224
_богом	-9.93231
_значително	-9.93236
ба	-9.93253
_театр	-9.93262
_широко	-9.93266
_думает	-9.93359
_святои	-9.93373
_должности	-9.93472
чи	-9.9348
_ребенок	-9.9348
_отделных	-9.93622
_выражение	-9.93675
_живут	-9.93778
_третии	-9.93871
_заговорил	-9.93904
_должност	-9.93933
_удоволств	-9.93971
_лежал	-9.94024
_ими	-9.94039
_внимателно	-9.94071
_колени	-9.94077
_новую	-9.94102
ри	-9.9419
мер	-9.94203
_последнего	-9.94227
_звуки	-9.94258
_пыл	-9.94304
_осталис	-9.9436
_бен	-9.94361
_шаг	-9.94373
_считал	-9.94405
_такими	-9.94423
_ногами	-9.94433
_след	-9.94535
че	-9.94551
пол	-9.94644
_охотно	-9.94694
_ма	-9.94841
_имеется	-9.94874
_знают	-9.94891
_батюшка	-9.94903
_ри	-9.95053
_случаино	-9.95092
_молодых	-9.95124
_наук	-9.95144
_писем	-9.95147
_полковник	-9.95375
_га	-9.95463
_пан	-9.95508
_бол	-9.95512
_текст	-9.95524
_сестры	-9.95525
вшии	-9.95611
_рсфср	-9.95645
_орган	-9.95661
_выити	-9.95668
_постели	-9.95723
_сочинения	-9.95764
_бросился	-9.95837
_следующее	-9.95844
_всяк	-9.95867
_документов	-9.95907
_любовю	-9.95994
ика	-9.96006
из	-9.96029
_болшинство	-9.96073
де	-9.96172
_продолжала	-9.96261
_условиях	-9.96277
_нисколко	-9.96282
_антон	-9.9636
_решился	-9.96371
_вашим	-9.96523
_приходит	-9.96531
_дожд	-9.96553
_хотят	-9.9669
_черты	-9.96694
_мэсбе	-9.96697
_деревне	-9.96727
_вроде	-9.96745
_иса	-9.96848
_зап	-9.96929
_произошло	-9.96954
_неизвестно	-9.9699
_заметит	-9.97063
_учител	-9.97099
_группы	-9.97218
_каждое	-9.97245
_сделался	-9.97269
_борба	-9.97506
_страха	-9.97554
_мнение	-9.97595
_полнои	-9.97783
_факт	-9.97862
овые	-9.97876
_ад	-9.97896
_законов	-9.97913
_коп	-9.97993
_воине	-9.9801
_работе	-9.98022
_опыт	-9.98061
_всюду	-9.98108
_вопроса	-9.98129
_доктора	-9.98201
_углу	-9.98237
_свободу	-9.98366
_ярко	-9.98394
_первую	-9.984
лы	-9.98425
_папа	-9.98478
вшиися	-9.98506
_солдаты	-9.98536
_ходил	-9.98555
_театра	-9.98584
_острова	-9.98653
_бывают	-9.98662
скими	-9.98662
_помощю	-9.98665
вшиеся	-9.9869
_реке	-9.98789
_неба	-9.98802
_правил	-9.98825
_кодекса	-9.98845
_жене	-9.98864
_храм	-9.98881
_прежнему	-9.99096
_забыт	-9.9915
нии	-9.99235
_начат	-9.99282
_фон	-9.99417
_двора	-9.99458
_темно	-9.99479
_комиссии	-9.99523
_бросил	-9.99548
вшис	-9.99553
_общеи	-9.99657
_надежда	-9.99787
_леди	-9.99847
во	-9.99872
_слезами	-9.99893
_старуха	-9.99911
_предмет	-9.99952
_арбитражного	-9.99964
_времен	-10.0006
_мыслеи	-10.0009
_способ	-10.0017
_правила	-10.0019
_договора	-10.0027
_значения	-10.0043
_обявил	-10.0049
_поднялся	-10.0054
_товарищ	-10.0054
вал	-10.0058
_завод	-10.0061
_играт	-10.0066
_вспомнил	-10.007
_предложил	-10.0071
_отряд	-10.0072
_борбе	-10.0079
_стран	-10.008
_воде	-10.0085
_скажет	-10.0089
_законы	-10.009
_академии	-10.0095
_цветы	-10.0116
_отдат	-10.0119
_река	-10.0122
_плот	-10.0122
_болшого	-10.0125
_делах	-10.0126
_врагов	-10.0127
_остатся	-10.013
ешся	-10.0132
_обеда	-10.014
_десяти	-10.0149
_образования	-10.016
_тридцат	-10.0162
овым	-10.0166
_покои	-10.0173
_государственных	-10.0173
_европе	-10.018
_исключением	-10.0182
_вернутся	-10.0183
_встретил	-10.0184
_упал	-10.0184
_роде	-10.0185
ющ	-10.0186
_огня	-10.0189
_согласился	-10.019
_село	-10.0191
_собрания	-10.0194
_сперва	-10.0203
_бежат	-10.0203
_болезн	-10.021
_легче	-10.0214
_имущества	-10.0222
_литературе	-10.0223
_сверх	-10.0229
ча	-10.0231
_страсти	-10.0231
_германии	-10.0232
_воину	-10.0242
_вест	-10.0242
_мног	-10.0244
_грех	-10.0256
_святых	-10.0257
_новым	-10.0273
_печати	-10.0275
_старои	-10.0275
_мал	-10.0275
_поиду	-10.0276
ики	-10.0278
_ок	-10.0279
_значен	-10.0286
_философ	-10.0291
_благодарю	-10.0293
_сан	-10.0293
_улицу	-10.0309
_линии	-10.0309
_воспоминания	-10.0309
_требования	-10.0311
_улицы	-10.0321
_волю	-10.0324
_товаров	-10.0327
се	-10.034
_мама	-10.0351
_ста	-10.0355
_семя	-10.0366
_меж	-10.0371
_барон	-10.0374
ист	-10.0376
_твердо	-10.0381
_отношение	-10.0382
_слышат	-10.0383
_деревни	-10.0386
_рукою	-10.039
_нравится	-10.0401
_снег	-10.0403
_старого	-10.041
_болно	-10.0422
_открыл	-10.0427
_члены	-10.0427
_развитие	-10.0432
_страст	-10.0432
_успех	-10.0432
_личности	-10.0435
ницы	-10.0439
_ровно	-10.0457
_ехал	-10.0458
_класса	-10.046
_думаете	-10.0463
_девочка	-10.0468
_сидела	-10.047
_каждым	-10.0472
_наверное	-10.0474
_сидели	-10.0476
_хорош	-10.0476
_умерет	-10.0478
_назван	-10.0481
_носит	-10.0481
_обяснит	-10.0485
_заключен	-10.0514
_показал	-10.0517
ват	-10.0519
_маленкии	-10.0523
_лож	-10.0525
_службе	-10.0536
_навстречу	-10.0544
_краи	-10.0545
_понятно	-10.0545
_историю	-10.0546
_ранее	-10.0546
_временем	-10.0551
_стен	-10.0555
_взор	-10.0558
_ничем	-10.056
_служил	-10.056
_возми	-10.0564
_повторил	-10.0564
_делают	-10.0572
_круг	-10.0573
_твоих	-10.0574
_берет	-10.0577
_явление	-10.0578
_поидем	-10.0584
_обстоятелства	-10.0584
ар	-10.0595
_народнои	-10.0598
вин	-10.0599
_родился	-10.06
_сделала	-10.0604
_явлен	-10.0606
_деиствоват	-10.0611
_картины	-10.0616
_естественно	-10.0619
_бедныи	-10.0624
ины	-10.0627
_собственности	-10.0632
_иск	-10.0633
_настоящим	-10.0634
_уст	-10.0635
то	-10.0639
дер	-10.0645
_кабинет	-10.0654
_система	-10.066
_нынче	-10.066
_желаю	-10.0661
за	-10.0667
_водои	-10.0672
_оставалос	-10.0676
_записки	-10.0679
_природа	-10.0679
_жив	-10.068
_отдал	-10.0683
цу	-10.0687
_судит	-10.069
_площади	-10.0691
_общем	-10.0699
_стараяс	-10.0705
_тыс	-10.0708
_товарищеи	-10.071
_печат	-10.0716
_женои	-10.0717
_молодые	-10.0717
_заставит	-10.0724
_воле	-10.0725
_ведет	-10.0727
_процесс	-10.0733
_лоб	-10.0733
_воля	-10.0735
_стих	-10.0736
_душ	-10.074
_сердцем	-10.0742
_братя	-10.0745
_отвечает	-10.0747
_цвета	-10.075
_вод	-10.0756
_законодателство	-10.0756
_написат	-10.0761
_слушат	-10.0762
_направлен	-10.0763
_написано	-10.0767
_ы	-10.0776
_посредством	-10.0782
_плен	-10.0784
_гостеи	-10.0786
_имен	-10.0786
_земел	-10.0791
_смех	-10.0791
_дабы	-10.0824
_осталас	-10.0841
_полном	-10.0844
шеи	-10.0845
_нигде	-10.0845
_летом	-10.0847
_дивизии	-10.085
_добро	-10.0859
_христ	-10.0867
_каждая	-10.0871
_уехал	-10.088
_положил	-10.0882
_местного	-10.0882
вы	-10.0888
_подобных	-10.0893
_передат	-10.0897
_рим	-10.0902
ину	-10.0908
ющии	-10.0919
_насчет	-10.0921
вших	-10.093
_тон	-10.0932
_мари	-10.0933
_дают	-10.0935
_неболшои	-10.0935
_живои	-10.0952
_принес	-10.0953
_вдали	-10.0957
_замок	-10.0963
_государство	-10.0968
_чувствую	-10.0976
_волны	-10.098
_шести	-10.0988
гу	-10.0992
_глубине	-10.1008
_столом	-10.1009
_писателя	-10.1018
_находятся	-10.1026
_кстати	-10.1028
_королева	-10.1033
_пал	-10.1034
_вино	-10.1047
_обед	-10.1053
_совести	-10.1057
дел	-10.1057
_поэзии	-10.1059
_старая	-10.1059
_уити	-10.1066
_графиня	-10.1079
_оставатся	-10.1081
_брак	-10.1087
_волос	-10.109
_россию	-10.1094
_сен	-10.1098
_сочинен	-10.1103
_раздался	-10.1114
_шею	-10.1117
_герман	-10.1119
_заключается	-10.112
ден	-10.1121
_милости	-10.1127
ф	-10.1131
_течен	-10.1133
_думы	-10.1133
_веру	-10.1135
_осторожно	-10.114
ющихся	-10.1142
_смело	-10.1143
_мак	-10.1148
_суди	-10.1151
ро	-10.1157
_товарищи	-10.1158
_гогол	-10.116
_исполнит	-10.1162
ала	-10.1163
_народных	-10.1165
ню	-10.1166
_сне	-10.1183
_величество	-10.1183
_развит	-10.1185
_какими	-10.1185
_красоты	-10.12
_убежден	-10.1201
_зубы	-10.1204
_господина	-10.1223
_соч	-10.1225
_направлении	-10.1234
_джон	-10.1236
_оказался	-10.1236
_поднят	-10.1237
_чехов	-10.1245
_спросит	-10.127
_корабл	-10.1272
цами	-10.1273
ти	-10.1274
_дават	-10.1275
_миг	-10.1278
_портрет	-10.1289
_хх	-10.1293
_бож	-10.1294
_видал	-10.1305
_силами	-10.1308
_подал	-10.1312
_ред	-10.1313
_звук	-10.1315
_саду	-10.1323
_подле	-10.1324
_разум	-10.1324
_нужны	-10.1332
_милост	-10.1333
_зла	-10.1338
_простои	-10.1338
_олга	-10.134
_вопросов	-10.134
_главныи	-10.1346
_произведении	-10.1352
_кровю	-10.1353
_воскликнула	-10.1356
_мужчины	-10.1366
_прибыл	-10.1373
_ивана	-10.1377
_решен	-10.1393
_крепости	-10.1403
_иностранных	-10.1406
_лен	-10.1406
_туман	-10.1409
_зале	-10.1414
_спор	-10.1416
_матушка	-10.1417
_вторая	-10.1421
_данных	-10.1422
_сим	-10.1427
_поставит	-10.1428
ости	-10.143
_издан	-10.1431
_жа	-10.1434
_полно	-10.1443
лет	-10.1444
_смотрели	-10.1448
_природе	-10.1457
_беда	-10.1466
_городов	-10.1467
су	-10.1471
_понимал	-10.1476
_желает	-10.1487
_сер	-10.1501
_говори	-10.1501
_смотри	-10.1502
_женщину	-10.1502
_меч	-10.1503
_собственнои	-10.1507
_спасибо	-10.1511
_предложен	-10.1512
_дерева	-10.1512
_свободно	-10.1517
_каждому	-10.1519
_ласково	-10.1523
_черные	-10.1529
_член	-10.1529
_останется	-10.1544
_высшеи	-10.155
_вал	-10.1552
_ненавист	-10.1563
_приятно	-10.1564
_министра	-10.1568
_существо	-10.1571
би	-10.158
_внизу	-10.1581
ники	-10.1583
_даст	-10.1584
_гнев	-10.1585
_чести	-10.1589
ду	-10.1596
_вышло	-10.1603
ион	-10.1606
_бал	-10.1607
род	-10.1611
_редакции	-10.162
_восем	-10.1623
_расположен	-10.1624
вшеися	-10.1626
ющие	-10.1628
_гр	-10.1635
_полныи	-10.1635
_издания	-10.1637
_делам	-10.1637
_домов	-10.1647
_журнала	-10.165
_назват	-10.1652
_богов	-10.1658
_компании	-10.1662
_защиты	-10.1663
_евреев	-10.1666
_духом	-10.1669
_художник	-10.167
_сорок	-10.168
_игра	-10.1691
_заметила	-10.1691
вар	-10.1693
_русск	-10.1694
_закричал	-10.1704
_продолжат	-10.1704
_указанных	-10.1705
_эпохи	-10.1705
_огнем	-10.1705
_привести	-10.1706
_обещал	-10.1706
_договор	-10.1712
_дала	-10.1712
_следующии	-10.1712
_услуг	-10.1721
_миссис	-10.1723
_знаком	-10.1726
_мария	-10.1729
_народного	-10.173
_последняя	-10.1749
_принимат	-10.175
_человеческои	-10.1752
_дама	-10.1753
_радостно	-10.1759
_увидет	-10.1762
_иллюстрация	-10.1765
_порт	-10.1769
ды	-10.177
_ключ	-10.1771
_работал	-10.1783
_вошли	-10.1787
шка	-10.1803
_уб	-10.1803
ски	-10.1809
_сомнен	-10.1813
_фаил	-10.1815
_пил	-10.1817
_фр	-10.1835
_ждет	-10.1837
_любила	-10.1842
_одинаково	-10.1842
_военных	-10.1851
_подумат	-10.1851
_комитета	-10.1856
_приводит	-10.1861
_главы	-10.1867
_ру	-10.1874
тон	-10.1876
_трое	-10.1884
_резултате	-10.1887
_писателеи	-10.1891
_слушал	-10.1893
_рф	-10.1896
_провел	-10.1899
_поспешно	-10.1901
_романа	-10.1903
_барин	-10.1903
_рассказы	-10.1905
_царство	-10.1907
_юноша	-10.1908
_нарочно	-10.1917
_ждал	-10.1918
_поидет	-10.192
_удивлен	-10.192
_опасност	-10.1922
_иванов	-10.1923
_органа	-10.1923
_отцом	-10.1932
_немало	-10.1934
_старых	-10.1936
_величества	-10.1954
_твою	-10.1959
_иди	-10.1959
_холодно	-10.1968
_жила	-10.198
_вар	-10.1987
_повидимому	-10.1988
_чувством	-10.199
_посмотрет	-10.199
_небе	-10.1993
_офицеров	-10.1997
_литература	-10.2005
_маленкая	-10.2006
_хих	-10.2012
_дамы	-10.2013
_великим	-10.2014
_начиная	-10.2015
_принадлежат	-10.2019
_ворота	-10.2031
ма	-10.2033
_судеи	-10.2034
_силах	-10.2035
_всякаго	-10.204
_крепост	-10.2045
_думаеш	-10.205
жен	-10.2064
_интерес	-10.2064
_площад	-10.2065
_известныи	-10.2067
_взяла	-10.2073
_важно	-10.2082
_попал	-10.2083
_исполнен	-10.2086
_случаев	-10.2095
_находит	-10.2096
_боятся	-10.2102
_жители	-10.2105
_семен	-10.2109
_озера	-10.2112
_слуга	-10.2114
_николая	-10.2121
_отдел	-10.2125
_тур	-10.2126
_впечатлен	-10.213
_константин	-10.2138
_исполнителнои	-10.2141
_указ	-10.2147
_постел	-10.2147
_собран	-10.2147
_виноват	-10.215
_истины	-10.2151
_театре	-10.2155
_сердцу	-10.2156
_французскии	-10.2156
_военнои	-10.2161
_слышно	-10.2175
_ответит	-10.2181
_золото	-10.2182
ироват	-10.2194
_пен	-10.2194
_проходит	-10.2195
шии	-10.2195
_произведению	-10.2201
_золотои	-10.2208
_проект	-10.2209
_спас	-10.2212
_генерала	-10.2227
_статю	-10.2231
_спасти	-10.2234
_звезды	-10.2235
_священник	-10.2235
_престол	-10.2236
_судар	-10.2238
_оставался	-10.2242
_старые	-10.2243
_роли	-10.2247
_двенадцат	-10.2247
_обращаяс	-10.225
_жан	-10.2252
_дерево	-10.2253
_признат	-10.2253
_причин	-10.2257
_форм	-10.2261
_веков	-10.2263
_евреи	-10.2265
_явится	-10.2265
ющеи	-10.227
_ангел	-10.2272
_културы	-10.2278
_хозяиства	-10.2284
_лестнице	-10.2284
_грустно	-10.2289
_семе	-10.229
_рис	-10.229
_борис	-10.2293
_белые	-10.2293
_представителеи	-10.2294
_христос	-10.2296
_будте	-10.2303
_наоборот	-10.2307
_жертву	-10.2314
_мужик	-10.2314
лин	-10.2316
_политики	-10.2323
си	-10.2324
_черныи	-10.2331
_верх	-10.2333
_принимает	-10.2334
_лин	-10.2334
_счастлив	-10.2336
_удивително	-10.2337
_смертю	-10.2345
_месту	-10.2347
_пароход	-10.2348
пер	-10.2354
_арм	-10.2356
_звер	-10.2357
_малчика	-10.2361
_поставил	-10.2362
_губернатор	-10.2362
_тер	-10.2363
_представлен	-10.2364
_собор	-10.2364
_зависит	-10.2365
_праздник	-10.2366
_обычно	-10.2373
_деятел	-10.2378
_курс	-10.2387
_женится	-10.2388
_изменения	-10.2389
_ох	-10.2402
_государственныи	-10.2403
_скореи	-10.2407
_держал	-10.2414
_принялся	-10.2415
_повест	-10.242
_началника	-10.2425
_силе	-10.2426
_му	-10.2438
_мнения	-10.2441
_штаба	-10.2441
ге	-10.2442
_стану	-10.2449
_стар	-10.2453
_влиянием	-10.2455
_следующие	-10.2458
_начинается	-10.246
_учение	-10.2475
_коих	-10.248
кат	-10.2482
ило	-10.2483
_врага	-10.2484
_вправе	-10.2484
_фигура	-10.2487
_горячо	-10.2489
_дорог	-10.2492
ор	-10.2493
_интересов	-10.2494
_справедливо	-10.2496
_капитал	-10.2499
_собака	-10.2504
_руси	-10.2507
_князю	-10.251
_депутатов	-10.2513
_добра	-10.2514
_ожидат	-10.2517
_источник	-10.2522
_новом	-10.2523
_болнои	-10.2523
_генрих	-10.2533
_человечества	-10.2535
_подпункт	-10.2535
ника	-10.2545
_производит	-10.2556
_заявил	-10.2558
_рукописи	-10.2558
_причина	-10.2561
чат	-10.2566
_даром	-10.2569
_тип	-10.2576
_ужаса	-10.258
_необходимост	-10.2584
_отвечат	-10.2586
_считает	-10.2589
_составляют	-10.2599
ву	-10.2603
_цветов	-10.2604
_юго	-10.2605
_боялся	-10.2609
_находилис	-10.2612
ед	-10.2617
_улыбаяс	-10.2619
_иоанн	-10.2619
_случая	-10.2627
ившис	-10.2629
_вида	-10.2641
_раиона	-10.2641
_извест	-10.2643
_нежно	-10.2644
_виктор	-10.2645
_раб	-10.2649
_подробно	-10.2657
_позже	-10.2666
имся	-10.2666
_говориш	-10.2674
_переход	-10.2674
_второго	-10.2675
_лист	-10.2677
_северо	-10.2678
_министр	-10.268
_корпуса	-10.268
_словар	-10.2684
ических	-10.2687
_коня	-10.2689
_рбс	-10.2689
_ивановна	-10.269
_плечами	-10.2696
_схватил	-10.2697
_причине	-10.2702
_ново	-10.2702
_случаю	-10.2706
_смотрела	-10.2709
_тщателно	-10.2717
_вз	-10.2721
_спал	-10.2721
леи	-10.2726
_каждую	-10.2733
нем	-10.2733
ели	-10.2734
вшие	-10.2741
_внутренних	-10.2742
_стене	-10.2743
_московского	-10.2744
_сделано	-10.2746
_рыб	-10.2749
атся	-10.2751
_заранее	-10.2753
_хии	-10.2756
_проговорила	-10.2758
_спрашивал	-10.2759
_узнав	-10.2761
_истинно	-10.2767
_многое	-10.2774
_кричал	-10.2777
_теории	-10.2779
_лето	-10.2781
_обеспечения	-10.2784
_политическои	-10.2785
_раздел	-10.2786
_двадцати	-10.2788
_деревя	-10.2793
_живо	-10.2796
_ежедневно	-10.2801
_пола	-10.2807
_кар	-10.2808
_ман	-10.281
_поехал	-10.2813
_двереи	-10.2813
_увы	-10.2819
_сол	-10.2819
_целые	-10.2819
_скрыт	-10.282
_звезд	-10.282
_капитана	-10.2822
_сравнително	-10.2828
_самаго	-10.2829
_че	-10.2835
_улыбнулся	-10.2838
_половине	-10.2839
_сцены	-10.2845
_устроит	-10.2848
_сцене	-10.285
_дворец	-10.2855
чик	-10.2858
_получили	-10.2859
_лорд	-10.2862
_вскричал	-10.2863
_силою	-10.2866
_повести	-10.2867
_указал	-10.2868
_проводит	-10.2868
_ногу	-10.289
_маленкои	-10.289
_бит	-10.2897
_судом	-10.2898
_горя	-10.2901
_прошла	-10.2903
_взяли	-10.2908
_лицами	-10.2909
_накануне	-10.2911
_следы	-10.2912
_воздуха	-10.2913
_потерял	-10.2922
_класс	-10.2927
_слух	-10.2935
_шагов	-10.2936
_сев	-10.2939
до	-10.294
_рассказал	-10.2943
бо	-10.2944
_бор	-10.295
_умел	-10.2952
_принимал	-10.2954
_срока	-10.2958
_прости	-10.2958
_вошла	-10.2966
_мистера	-10.2968
_стихов	-10.2972
_италии	-10.2972
енко	-10.2973
_сотни	-10.2978
ыч	-10.298
_лит	-10.299
_инои	-10.2994
_скучно	-10.2995
_русским	-10.3
_птицы	-10.3006
изм	-10.3007
_средство	-10.301
_уме	-10.3012
_империи	-10.3017
_второе	-10.3022
_повсюду	-10.3023
вшего	-10.3028
_мор	-10.3034
_границу	-10.3041
_великое	-10.3042
_чи	-10.3043
_давал	-10.3052
_монастыря	-10.3052
_поступил	-10.307
_музыка	-10.3074
жа	-10.3078
_фридрих	-10.308
_общественнои	-10.3083
_органы	-10.3086
_княгиня	-10.3088
_русском	-10.3089
_готовы	-10.3091
_даите	-10.3093
_лучших	-10.3096
_мужчин	-10.3106
_гул	-10.3111
_отношению	-10.3112
_сударыня	-10.3115
_учителя	-10.3116
_философии	-10.3118
_баба	-10.3122
_будущем	-10.3126
_столе	-10.313
_сзади	-10.3131
илос	-10.3131
рон	-10.3134
_личност	-10.3134
_требовании	-10.3137
_принц	-10.3138
_картина	-10.3139
_эпоху	-10.3143
_сообщит	-10.3145
_составе	-10.3146
_сообщил	-10.3147
_одних	-10.3147
_населен	-10.3148
_целях	-10.3153
_голосов	-10.3155
_заметно	-10.3155
_ер	-10.3159
_великих	-10.3162
_ставит	-10.3163
_какому	-10.3164
_бел	-10.3168
_епископ	-10.3169
_половины	-10.3173
_борбу	-10.3181
_исполнение	-10.3182
_хозяина	-10.3188
_выидет	-10.319
_прекрасныи	-10.3191
_древних	-10.3198
_сест	-10.3201
_университета	-10.3206
_сознание	-10.3208
_неподвижно	-10.3212
_храма	-10.3215
_наука	-10.3219
чу	-10.3223
ид	-10.3228
_религии	-10.3229
_сыном	-10.3236
_запах	-10.3248
_хор	-10.3254
_душои	-10.3254
_труды	-10.3257
_говорится	-10.3257
_вторых	-10.3265
_обстоятелство	-10.3267
_ле	-10.3277
_плечо	-10.3284
_будущее	-10.3284
вшегося	-10.3285
_еслиб	-10.3286
_отделные	-10.3289
_верю	-10.3293
_луч	-10.3298
_зовут	-10.3299
она	-10.3299
_хан	-10.3302
_светом	-10.3305
_жен	-10.3306
ру	-10.3313
об	-10.3321
_живых	-10.3326
_читател	-10.333
_определения	-10.3335
_правилно	-10.3335
_поход	-10.3339
_языком	-10.334
_оказывается	-10.334
_центр	-10.3343
_выход	-10.3352
_степан	-10.3353
_фронта	-10.3355
_хр	-10.3358
_девят	-10.3363
_кои	-10.3365
нов	-10.3369
_рост	-10.3369
изма	-10.3375
ав	-10.3376
_годах	-10.3384
_морскои	-10.3385
_избран	-10.3386
_высокои	-10.339
_воиско	-10.339
_городу	-10.3391
_правом	-10.3393
_сидет	-10.3394
_границы	-10.3401
_основания	-10.3404
_адрес	-10.3406
еля	-10.3409
_представления	-10.3412
_обеих	-10.3413
_сведении	-10.3414
_тишина	-10.3414
_купит	-10.3423
_образован	-10.3431
_прошли	-10.3436
_материал	-10.3442
_получила	-10.3442
бы	-10.3442
_гоголя	-10.3444
_художника	-10.3445
_самих	-10.3445
_сыну	-10.3446
_содержан	-10.3446
_спрашивает	-10.3449
_рыцар	-10.3451
_гал	-10.3456
_подат	-10.3459
_возраста	-10.346
_лежат	-10.3464
_имена	-10.3465
_роднои	-10.3468
_думали	-10.3481
_плечи	-10.3488
_образование	-10.3502
_пору	-10.3507
_постановление	-10.351
_выбор	-10.3516
_взяв	-10.3521
_обязанност	-10.3524
_настоящии	-10.3527
_органом	-10.3528
_простите	-10.353
_немножко	-10.353
_вели	-10.3535
_основе	-10.3535
_помимо	-10.3535
_продолжение	-10.354
_бежал	-10.355
_змеи	-10.3552
_елена	-10.3553
_человеческого	-10.356
_форму	-10.3561
_массы	-10.3563
_местности	-10.3569
_русское	-10.3575
_исполнения	-10.3577
_ев	-10.3581
_подходит	-10.3583
_половину	-10.3584
_родителеи	-10.3588
од	-10.359
вшаяся	-10.3598
_царю	-10.3601
_ми	-10.3604
овскии	-10.3609
_суде	-10.3612
_екатерина	-10.3614
_ел	-10.3615
_благополучно	-10.3617
_замка	-10.3624
_позади	-10.3626
_красота	-10.3634
_радостю	-10.3636
_назвал	-10.3639
ете	-10.3643
_шло	-10.3644
цем	-10.3646
ющего	-10.3647
_приняли	-10.365
_красныи	-10.3651
_королю	-10.3652
мы	-10.3656
_понимат	-10.3657
_шаги	-10.3659
_болшом	-10.366
_услышал	-10.3661
_славы	-10.3662
_ухо	-10.3664
_доказат	-10.3666
ди	-10.3674
_сохранит	-10.3675
_пс	-10.3678
_отчет	-10.368
_представляется	-10.3681
ван	-10.3684
_вестник	-10.3689
_хорошенко	-10.369
_окон	-10.3691
_учен	-10.37
_документы	-10.3701
_сидя	-10.3705
чит	-10.3706
_воин	-10.3709
_делали	-10.3709
_стыдно	-10.371
_звон	-10.3712
_решили	-10.3713
_парт	-10.3717
_нужна	-10.3719
_врач	-10.3719
мен	-10.3721
_квартиру	-10.3723
_братев	-10.3723
_рос	-10.3726
_милл	-10.3728
_силныи	-10.373
_вопросам	-10.3733
_ню	-10.374
_публика	-10.3749
_вернее	-10.375
_предан	-10.375
_дурно	-10.3756
_болшими	-10.3759
_восток	-10.3762
_петровна	-10.3763
_представляют	-10.3767
_предложение	-10.3769
_посреди	-10.377
_подобные	-10.3772
_враг	-10.3773
_прелест	-10.3775
_филипп	-10.378
тес	-10.3781
_открыто	-10.3784
_крестяне	-10.3785
лит	-10.3786
_исчез	-10.3788
ющая	-10.3789
_платит	-10.3794
_лежала	-10.3796
_пришло	-10.3799
_отказался	-10.38
_существа	-10.3802
_ус	-10.3803
_отношениях	-10.3808
_недалеко	-10.381
_мел	-10.3812
_поп	-10.3819
_семеи	-10.382
_судбы	-10.3824
_бедная	-10.3828
_деревев	-10.3831
_пределах	-10.3839
_согласится	-10.3848
_кости	-10.3853
_судно	-10.3858
_раи	-10.3869
_хо	-10.3871
_рукопис	-10.3871
_военного	-10.3881
_масса	-10.3885
_текста	-10.3886
_называют	-10.3889
_кричит	-10.389
_понятия	-10.389
_явно	-10.3894
_убил	-10.3896
_сумму	-10.3899
_некоторым	-10.3907
_издали	-10.3915
_эх	-10.3916
ств	-10.3918
_гост	-10.392
_герцога	-10.392
нка	-10.3935
_вкус	-10.3937
_идея	-10.3938
_сцена	-10.3946
_стук	-10.3949
_сверху	-10.3957
_строи	-10.3958
_встретит	-10.3963
_крики	-10.3973
_противоположно	-10.3979
_вашем	-10.3983
_примечания	-10.3991
_ожидал	-10.3992
_самоуправления	-10.3999
_увидал	-10.4001
_роста	-10.4003
вид	-10.4003
_казался	-10.4008
_четверт	-10.4008
_поверхности	-10.4014
_вздор	-10.4015
шу	-10.4016
_пожар	-10.4016
_высоты	-10.4026
_государств	-10.4028
_поговорит	-10.403
_форма	-10.403
сон	-10.4032
_народом	-10.4035
шки	-10.4036
_скот	-10.4039
ица	-10.4043
_зал	-10.4044
_золота	-10.4045
_имущество	-10.4045
_стоило	-10.4047
_газет	-10.4048
_совест	-10.4052
_доволен	-10.4061
_журнале	-10.4063
_запад	-10.4063
_играет	-10.4066
_членом	-10.4068
_мужу	-10.4069
_всякую	-10.407
_лондон	-10.4073
лов	-10.4074
_изменении	-10.4075
_ветра	-10.4078
_отказатся	-10.4094
_славу	-10.4094
_мужчина	-10.4095
ера	-10.4096
_такою	-10.4097
_сент	-10.41
_платя	-10.4102
_западнои	-10.4104
_запас	-10.4109
_голод	-10.4111
_отсутствие	-10.4113
_недел	-10.4117
_яков	-10.4119
_отправится	-10.412
_школа	-10.4123
_телом	-10.4123
_деревню	-10.4131
ющим	-10.4131
_арх	-10.4131
_печатается	-10.4132
_сл	-10.414
_единственныи	-10.4141
_частности	-10.4142
бер	-10.4145
_август	-10.4146
_ползоватся	-10.4151
_искал	-10.4157
_детми	-10.4167
_нужды	-10.4169
ющиеся	-10.4173
_ряда	-10.4178
_подробности	-10.4179
_ди	-10.418
_материалы	-10.4181
_иду	-10.4185
_прочих	-10.4185
_свобода	-10.4187
_ловко	-10.4187
_сознан	-10.4188
_роз	-10.4193
_издании	-10.4196
_видов	-10.4197
_определит	-10.4201
_предметом	-10.4202
_бросит	-10.4204
_столу	-10.4205
_рх	-10.4209
_третеи	-10.4211
_уши	-10.4211
_брату	-10.4213
_настроен	-10.4213
_птиц	-10.4213
_прочел	-10.4215
_нужен	-10.4221
_увидев	-10.4225
_незаметно	-10.4229
_готова	-10.4229
_девушку	-10.4231
_вследств	-10.4241
_эи	-10.4242
_голов	-10.4242
_правды	-10.4245
_волнен	-10.4245
_случится	-10.4249
_правителством	-10.4253
_содержания	-10.4253
_хорошее	-10.4257
_товар	-10.4257
_увидели	-10.4263
_шар	-10.4263
_умерла	-10.4264
ение	-10.4269
_разу	-10.4275
_воити	-10.428
_общих	-10.4283
_бывал	-10.4285
_разговора	-10.4285
_размере	-10.4288
_стихотворении	-10.4288
_сергеевич	-10.4289
_краю	-10.4292
_матерю	-10.4294
_ба	-10.4295
_еэбе	-10.4295
_таину	-10.4295
_недо	-10.4296
_закону	-10.4296
_мгновение	-10.4301
_пара	-10.4306
шая	-10.4309
_мужем	-10.431
_уста	-10.4313
_послан	-10.4317
_стоя	-10.4325
_плакат	-10.4328
_железнои	-10.4333
_узнали	-10.4335
_всякая	-10.434
_слышу	-10.4344
вшееся	-10.4344
_кара	-10.4348
_страшныи	-10.435
овая	-10.4353
_христиан	-10.4354
_дурак	-10.4357
_понимает	-10.4357
_военно	-10.436
_теми	-10.4361
_едет	-10.4365
_играл	-10.4365
_приговор	-10.4368
_учреждения	-10.4373
_ушла	-10.4374
_министерства	-10.4376
жи	-10.4376
_держа	-10.4377
_пожал	-10.4379
_посколку	-10.4381
_боя	-10.4382
_васил	-10.439
_пел	-10.4396
_белых	-10.4398
_озеро	-10.4402
_жестоко	-10.4405
_учения	-10.4416
зы	-10.4422
_случалос	-10.4423
_полагаю	-10.4433
_считаю	-10.4434
ения	-10.4435
_стан	-10.444
инскии	-10.4445
_политических	-10.4447
_достоинства	-10.4455
_алексеевич	-10.4456
_головою	-10.4461
ушка	-10.4463
ак	-10.4465
_реку	-10.4466
_школ	-10.4467
_карман	-10.4473
_тел	-10.4475
_остановилис	-10.4479
_тургенев	-10.4479
_пир	-10.4492
_желания	-10.4496
_изредка	-10.4498
_думая	-10.4499
_вин	-10.4503
_сфере	-10.4504
_послат	-10.4506
_пятдесят	-10.4508
_иное	-10.4509
_кричат	-10.4516
_картину	-10.452
_пес	-10.4521
_принято	-10.4523
_сделалос	-10.4524
_божии	-10.4527
_великому	-10.4529
_сказав	-10.453
_берегов	-10.4533
_вскочил	-10.4536
_клянус	-10.4536
_проити	-10.454
_станции	-10.4541
_удастся	-10.4542
_воисками	-10.4542
ового	-10.4544
_пространство	-10.4545
_маиор	-10.4548
_мечты	-10.4548
_иосиф	-10.4552
_прощаи	-10.4553
_задача	-10.4555
_сведен	-10.4559
_известны	-10.456
_общественных	-10.4561
_достоевскии	-10.4561
_рассказывал	-10.4562
_учрежден	-10.4563
_беле	-10.4569
_информации	-10.4571
_обычаи	-10.4579
_торопливо	-10.458
_воспоминан	-10.4581
_требоват	-10.4585
_университет	-10.459
_комитет	-10.4592
_газета	-10.4594
_привел	-10.4596
_торговли	-10.4598
_балмонт	-10.4602
_показывает	-10.4607
_остановилас	-10.4608
_ин	-10.4609
_религ	-10.461
_архив	-10.4611
_любят	-10.4613
_долю	-10.4616
_чернои	-10.4616
_сцену	-10.462
_положително	-10.4624
_различные	-10.4626
_предметы	-10.463
_дер	-10.4631
ицы	-10.4636
_собаки	-10.4645
ову	-10.4647
етес	-10.465
_дворца	-10.4654
_женщине	-10.4658
_белои	-10.4659
_хорошии	-10.4661
_счастю	-10.4665
кова	-10.4665
_марии	-10.4666
слав	-10.4672
_поверхност	-10.4673
_творчества	-10.4676
_богатство	-10.4676
_перешел	-10.4679
_смехом	-10.4681
_французскои	-10.4686
ине	-10.4687
_события	-10.4693
_км	-10.4693
_пункта	-10.4694
_передал	-10.4697
_описание	-10.4698
_теле	-10.4707
_состояния	-10.4708
евич	-10.4713
_оставив	-10.472
_севернои	-10.4723
_интересы	-10.4725
_производство	-10.4732
_ладно	-10.4737
_дав	-10.4737
_раион	-10.4737
_помнит	-10.4737
_таины	-10.4739
_промышленности	-10.4743
_классов	-10.4748
_павла	-10.475
_бабушка	-10.4751
_молчал	-10.4751
_толпе	-10.4753
раз	-10.4754
_подобное	-10.4754
_вере	-10.4756
_маи	-10.4757
бе	-10.4761
_появился	-10.4764
_печал	-10.4768
_камни	-10.4769
_торжественно	-10.4769
_хиии	-10.4772
_общим	-10.4772
_штаб	-10.4774
_чужои	-10.4775
_единственно	-10.4776
_отчаян	-10.4781
вшая	-10.4781
_заниматся	-10.4785
_исключен	-10.4786
пе	-10.4788
_кусок	-10.4788
_продолжает	-10.4795
_знакомых	-10.4797
_похож	-10.4804
_существование	-10.4805
_концу	-10.4808
_идеал	-10.481
_погиб	-10.4813
_публики	-10.4817
_рожден	-10.482
_святого	-10.4821
ющее	-10.4825
_функции	-10.4833
_определение	-10.4833
_вопросу	-10.4839
_заключение	-10.4846
_смотрите	-10.4849
_присутств	-10.4851
чин	-10.4854
_воспитан	-10.4856
_иваныч	-10.4858
ско	-10.4868
_вред	-10.4869
_нашла	-10.487
_представление	-10.4874
_кот	-10.4875
_явилас	-10.4877
_казни	-10.4878
ющиися	-10.4885
_председателя	-10.4888
_лег	-10.4889
_снял	-10.4892
жу	-10.4894
_последним	-10.4902
_аз	-10.4903
_чувствует	-10.491
_цен	-10.4912
_отечества	-10.4913
нос	-10.4916
_обяснил	-10.4917
_министров	-10.4918
_мост	-10.492
_жак	-10.4921
_протянул	-10.4922
иц	-10.4926
ших	-10.4932
_странное	-10.4932
_движении	-10.4935
_искренно	-10.4938
_сети	-10.4939
_лучи	-10.494
_пишу	-10.4943
_силное	-10.4946
ишся	-10.4949
_духе	-10.4952
_светло	-10.4954
нув	-10.4955
_строки	-10.4959
_считается	-10.496
_инженер	-10.4961
_разом	-10.4961
_вступил	-10.4961
_типа	-10.4965
_акт	-10.4965
ров	-10.4966
_сна	-10.497
_успели	-10.497
_провести	-10.4974
_горко	-10.4975
па	-10.498
_историк	-10.4983
_постановления	-10.4986
_операции	-10.4988
_низко	-10.4988
_сибири	-10.4989
_гибел	-10.499
ово	-10.4991
_военныи	-10.4991
_хозяика	-10.4993
_луна	-10.4994
_стакан	-10.4995
_получив	-10.4998
_учреждении	-10.4999
_дмитрии	-10.5004
_откровенно	-10.5007
_подошла	-10.5015
цов	-10.5017
_золотом	-10.5018
_находил	-10.5018
_белого	-10.5018
_гору	-10.502
_поступит	-10.5022
_группа	-10.5025
_тепло	-10.503
_осталных	-10.5037
_комната	-10.5037
_пятнадцат	-10.5038
_верстах	-10.5038
_привык	-10.5039
вил	-10.5044
_степен	-10.5044
вед	-10.5044
_хе	-10.5046
_обязаны	-10.5048
_общественного	-10.5049
_ногах	-10.5049
_ван	-10.5052
_гарри	-10.5052
_старшии	-10.5057
_казалас	-10.5057
_поити	-10.5057
_чеи	-10.5058
_рабочего	-10.506
_машин	-10.5061
_обратится	-10.5066
аются	-10.5067
_положит	-10.5067
_обстоятелствах	-10.5067
_внутреннеи	-10.5076
_решит	-10.5077
_боли	-10.5077
_взгляды	-10.5078
_бет	-10.5084
_номер	-10.5089
_оружие	-10.5091
_ползы	-10.5091
_устав	-10.5095
_полным	-10.5097
_отряда	-10.51
_страна	-10.5104
_прошлом	-10.5105
_песы	-10.5106
_чувствоват	-10.5113
_великая	-10.5113
_таков	-10.5115
_учит	-10.5115
_лицам	-10.5117
_представител	-10.5117
_чудо	-10.5118
_собственных	-10.512
_принужден	-10.512
_вынул	-10.5121
_странах	-10.5128
_извините	-10.5129
_маленк	-10.5134
_изо	-10.5138
_исследования	-10.5141
_гражданского	-10.5142
_кв	-10.5143
_итал	-10.5146
_удоволствием	-10.5148
_командир	-10.5149
_заключения	-10.5151
_обман	-10.5151
шего	-10.5156
_спит	-10.5158
_толпу	-10.5162
_достиг	-10.5167
_управление	-10.5167
_взгляда	-10.5171
_ступаи	-10.5173
_губерн	-10.5185
_высокии	-10.5187
_заставил	-10.5188
_гнева	-10.519
_денгами	-10.5195
_участия	-10.5203
_поезд	-10.5208
_кал	-10.521
_привез	-10.5212
_полную	-10.5221
_гром	-10.5221
_верхом	-10.5226
_слышали	-10.5228
_достат	-10.5233
_детям	-10.5239
_доставит	-10.5243
_песня	-10.5245
ол	-10.5247
_момента	-10.5251
_чувствовала	-10.5253
_считая	-10.5256
_занимался	-10.5259
_музыки	-10.526
_государю	-10.5264
_последнюю	-10.5265
_имело	-10.5268
_городского	-10.5268
_отправилис	-10.5272
_делами	-10.5272
_жертвы	-10.5273
_создан	-10.5274
_николаевна	-10.5274
_птица	-10.5278
_страну	-10.528
_недостаточно	-10.5284
_госпожа	-10.5287
_средствами	-10.529
_семеиства	-10.5291
_рабочие	-10.5292
_страдан	-10.5295
_твоим	-10.5297
_преступления	-10.5298
_деревня	-10.5298
_офицера	-10.5298
_показался	-10.5299
_молитвы	-10.5301
_относятся	-10.5306
_миру	-10.5307
_уезда	-10.5313
_гроб	-10.5314
_бер	-10.5317
_южнои	-10.5319
_павлович	-10.5319
кс	-10.5321
_молится	-10.5328
_вып	-10.5331
_молодости	-10.5331
_существу	-10.5335
_наполеон	-10.5342
_восползоватся	-10.5346
_бок	-10.5347
_дед	-10.5347
_супруга	-10.5347
_необыкновенно	-10.5348
_здоровя	-10.535
_офицеры	-10.535
_задачи	-10.5351
_высшего	-10.5352
_понятие	-10.5353
_купец	-10.5353
_называли	-10.5353
_ятно	-10.5358
_армия	-10.5361
_банк	-10.5367
истов	-10.5369
_печ	-10.537
вшеи	-10.537
чен	-10.5371
_рек	-10.5371
_разговоры	-10.5373
_прим	-10.5373
_прекрасная	-10.5377
_заседании	-10.5379
_лэди	-10.538
_даваи	-10.538
_страдания	-10.5382
_ана	-10.5386
_числу	-10.5389
гор	-10.5391
_федорович	-10.5393
_покинут	-10.5395
_получает	-10.5397
_достигнут	-10.5397
_явления	-10.5398
_указывая	-10.5403
_отцов	-10.5405
_признан	-10.5407
_ответственност	-10.5408
_увидела	-10.5408
_какою	-10.541
_любезныи	-10.541
_анны	-10.5411
_исползования	-10.5415
_явилис	-10.5415
_событии	-10.5416
_поспешил	-10.5423
вшимся	-10.5428
_град	-10.5431
тор	-10.5435
_имеем	-10.5435
_организация	-10.5439
_тысячу	-10.544
_школе	-10.544
_товарища	-10.5444
лер	-10.5446
_запис	-10.5448
_суммы	-10.5451
_советскои	-10.5452
ниц	-10.5454
_понимаете	-10.5454
_бросилас	-10.5455
_послышался	-10.5457
_позор	-10.5458
_прошлого	-10.5465
_талант	-10.5474
_описан	-10.5474
_дорого	-10.5481
_усил	-10.5486
тел	-10.5486
_рыба	-10.5486
_законами	-10.5486
_север	-10.5492
_бывшии	-10.5496
_детства	-10.5497
_болш	-10.5497
_помните	-10.5498
_допустит	-10.5501
_президента	-10.5501
рен	-10.5504
_полиции	-10.5509
_здоров	-10.5511
_приходил	-10.5512
_труп	-10.5516
_такому	-10.5517
_мыслю	-10.5519
енка	-10.552
_прежних	-10.5521
_скорб	-10.5524
_важное	-10.5527
_сделатся	-10.5528
_среды	-10.5531
_разрешения	-10.5532
лу	-10.5533
_добродетел	-10.5535
_улыбка	-10.5539
_страстно	-10.5542
_требован	-10.5542
_муки	-10.5546
_степ	-10.5547
_правило	-10.5548
_давали	-10.5549
_слабо	-10.5552
_фамил	-10.5555
_перваго	-10.5555
_маша	-10.556
оз	-10.5566
_чин	-10.5569
_мастер	-10.557
_поэтов	-10.5574
_тюрме	-10.558
_единственным	-10.558
_обстоятелств	-10.5584
_пристално	-10.5584
_молчание	-10.5589
_обязанностеи	-10.559
_банка	-10.559
_трудов	-10.5593
_нож	-10.5595
_надел	-10.5595
_бат	-10.5597
_население	-10.5598
_повел	-10.5598
_доказателства	-10.5598
_обектов	-10.56
_зависимости	-10.56
_марк	-10.5606
_вздохнул	-10.5613
ум	-10.5613
_палаты	-10.562
вен	-10.5624
_небес	-10.5629
_соглас	-10.5629
_киев	-10.563
_сторонам	-10.5631
_президент	-10.5632
_счаст	-10.5636
_обороны	-10.5639
_стул	-10.564
_тюрмы	-10.5641
_умом	-10.5644
_инд	-10.5648
кон	-10.5648
_директор	-10.5649
_глядел	-10.565
_список	-10.5656
_оказалас	-10.5656
_весел	-10.566
_гряз	-10.5665
_взглянут	-10.5668
_называет	-10.5669
иков	-10.5671
_братом	-10.5672
_корпус	-10.5672
_недолго	-10.5676
_состоял	-10.5678
_находилас	-10.568
_удоволствие	-10.5683
_остав	-10.5685
_болшею	-10.5695
_инстанции	-10.5695
_мелких	-10.5696
иями	-10.5697
_молчан	-10.57
_маленкие	-10.57
_пускаи	-10.5702
_процентов	-10.5704
_шляпу	-10.5706
_тесно	-10.5708
_справедливости	-10.571
_боевых	-10.571
_успехом	-10.5718
_возвратился	-10.5718
_карты	-10.5719
_победы	-10.5721
_узнала	-10.5724
_небу	-10.5724
_таина	-10.5727
_защиту	-10.5742
емыи	-10.5743
_героя	-10.5744
_строка	-10.5749
_критика	-10.5752
_богатства	-10.5757
_акта	-10.5757
_сознания	-10.576
_картин	-10.5762
_участвовал	-10.5762
_происходило	-10.5763
_полная	-10.5763
_часу	-10.5766
_краснои	-10.5767
_материалов	-10.5767
_лакеи	-10.5776
_оруд	-10.5777
_фил	-10.5779
_проф	-10.5781
_упала	-10.5786
_цеп	-10.5787
_длинные	-10.5789
_библ	-10.5791
_судна	-10.5793
_клад	-10.5795
_оставили	-10.58
емых	-10.5801
_установленном	-10.5804
_независимо	-10.5808
_направление	-10.5811
_жалобы	-10.5814
_ужасом	-10.5814
_оказалис	-10.5815
_известнои	-10.5815
_органами	-10.5821
_молчат	-10.5821
овал	-10.5823
_эр	-10.5824
_древнеи	-10.5826
_мадам	-10.5828
_секретар	-10.5832
том	-10.5835
_согласен	-10.5838
_дорогая	-10.584
_новаго	-10.5841
_количестве	-10.5842
_событ	-10.5842
_услуги	-10.5843
_данном	-10.5847
_встреча	-10.5847
_левои	-10.5847
_нац	-10.5847
_жар	-10.5848
_некрасов	-10.5848
_началас	-10.585
_заставляет	-10.5851
_оз	-10.5854
_щ	-10.5856
_доброе	-10.5858
кам	-10.586
фа	-10.5861
аеш	-10.5872
_лондоне	-10.5872
_трет	-10.5874
_адмирал	-10.5876
_оруж	-10.5878
_мороз	-10.5878
_враги	-10.5878
со	-10.588
_жалко	-10.5884
_мо	-10.5885
_умеет	-10.5885
_уничтожит	-10.5887
нул	-10.589
_судбу	-10.589
_сели	-10.5896
_главных	-10.5902
_восторг	-10.5913
_милостивыи	-10.5916
_происхождения	-10.5916
_принцесса	-10.5917
_духовнои	-10.5924
_обратил	-10.5926
_глубокои	-10.5928
_имеются	-10.5929
_энергии	-10.5929
_пот	-10.5931
_фунтов	-10.5937
_общ	-10.5939
_заметив	-10.5944
_успеха	-10.5945
_прием	-10.5948
ницу	-10.5955
_слышала	-10.5964
_знаменитыи	-10.5964
_посмотрите	-10.5969
_несчастныи	-10.597
_шал	-10.598
_холод	-10.5981
_виден	-10.5985
_твоему	-10.5987
_настоящем	-10.5987
_ушли	-10.5989
_попросил	-10.5989
_свободе	-10.5993
_чтения	-10.5994
_поняла	-10.5996
_получения	-10.6
_интересно	-10.6001
_кофе	-10.6004
алис	-10.6005
_прощаите	-10.6006
дон	-10.6006
ством	-10.6006
_молод	-10.6011
_сущност	-10.6014
_общии	-10.6016
_городах	-10.6021
_страхом	-10.6022
_принести	-10.6022
_роза	-10.6023
_всякие	-10.6024
_ленин	-10.6029
_белая	-10.603
_маленких	-10.6031
_республика	-10.6032
_обяснен	-10.6039
_наказан	-10.604
_горло	-10.6044
_волк	-10.6045
_буря	-10.6045
_темноте	-10.6051
_вор	-10.6052
енки	-10.6056
_встала	-10.6065
очка	-10.6066
_многим	-10.6068
бол	-10.6068
_брови	-10.607
_путешествие	-10.607
_втором	-10.607
_расстоянии	-10.6073
_секрет	-10.6075
_наст	-10.6076
_проведения	-10.6076
_князеи	-10.6077
мел	-10.6077
вол	-10.608
_маленкую	-10.608
_волн	-10.6082
_бран	-10.6087
_нужным	-10.6089
_доброволно	-10.609
_вблизи	-10.6094
_работои	-10.6095
_главного	-10.6099
_ак	-10.61
_иисус	-10.6104
_осеню	-10.6108
_стихотворение	-10.6112
_лат	-10.6113
_риме	-10.6113
_тоска	-10.6114
кар	-10.6115
_чел	-10.6119
_указывает	-10.6121
_масс	-10.6121
_полчаса	-10.6122
_считали	-10.6124
_павловна	-10.6126
_осуществляется	-10.6127
_боротся	-10.6128
_хвост	-10.6129
ним	-10.6131
_процесса	-10.6135
_хороша	-10.6135
_всякому	-10.6138
_снят	-10.6138
_спасен	-10.614
_маркиз	-10.614
_встречи	-10.6141
ана	-10.6142
_царства	-10.6143
_свыше	-10.6143
_системе	-10.6143
_свод	-10.6145
_таковы	-10.6145
_появилас	-10.6146
_лучшее	-10.6149
_дне	-10.6151
_половина	-10.6153
ностю	-10.6153
_местами	-10.6154
_языков	-10.6155
_собрат	-10.6155
_што	-10.6158
_иоанна	-10.6159
_дано	-10.616
_добрые	-10.616
_песен	-10.6166
_составит	-10.6167
_огромныи	-10.6171
_простит	-10.6172
ющеися	-10.6173
_возвращен	-10.6175
_днях	-10.6179
_заявления	-10.6182
пр	-10.6187
_поклон	-10.6188
_игры	-10.619
_последнем	-10.619
тен	-10.619
_способности	-10.6194
бр	-10.6197
_направился	-10.6197
_обратит	-10.62
цам	-10.6206
_усердно	-10.6209
_человеке	-10.6209
_партия	-10.622
_называл	-10.6222
_блеск	-10.6224
_ран	-10.6227
_отнюд	-10.6235
_чувствуя	-10.6238
ида	-10.6238
_появилис	-10.6239
_качества	-10.6239
_пояс	-10.6239
ха	-10.6241
_предметов	-10.6243
_улицам	-10.6244
_критик	-10.6249
_местных	-10.6249
_рада	-10.6254
_ищет	-10.6255
_тюрму	-10.6261
_чорт	-10.6262
_глубины	-10.6264
_фигуры	-10.6266
_документ	-10.6267
_корабля	-10.6269
_индии	-10.6271
_кровати	-10.6272
_проводил	-10.6273
ур	-10.6273
_восточнои	-10.6277
_шагом	-10.628
_презрен	-10.628
_востока	-10.628
_брака	-10.6281
_строителства	-10.6282
_упорно	-10.6286
_дявол	-10.6286
ается	-10.6288
_собралис	-10.6291
овского	-10.6293
_полного	-10.6294
_старалис	-10.6295
_истину	-10.6298
_акты	-10.63
_вывод	-10.6303
_бумагу	-10.6309
_третего	-10.631
_песн	-10.6311
_разума	-10.6312
_цепи	-10.6313
_лишен	-10.6314
нер	-10.6318
ста	-10.6318
_остановится	-10.6323
_судбе	-10.6324
_библиотека	-10.6324
_показалас	-10.6326
_клуб	-10.6327
_решении	-10.6331
_наверно	-10.6332
_следующ	-10.6336
_дик	-10.6337
_своиства	-10.6339
_спину	-10.6341
_сторона	-10.6351
_обр	-10.6354
_встречаются	-10.6355
_ударил	-10.6358
_держатся	-10.6359
_стремится	-10.636
_поклонился	-10.636
сов	-10.6361
вшуюся	-10.6362
_глас	-10.6363
_ползовался	-10.6366
_востоке	-10.6368
_временам	-10.6371
_выступил	-10.6371
_ученых	-10.6374
_ага	-10.6375
очек	-10.6377
_изображен	-10.6382
_ходили	-10.6384
_специално	-10.6387
_целое	-10.6388
_скалы	-10.6391
_бежит	-10.6392
_блок	-10.6399
_контрол	-10.6404
лив	-10.6412
_парен	-10.6413
_которою	-10.6413
шие	-10.6418
_нашими	-10.642
_мужики	-10.6423
_критики	-10.6428
_гостя	-10.6433
_казалис	-10.6434
_попытки	-10.6438
_очерк	-10.6439
_деиствует	-10.6445
_служат	-10.6448
_андреевич	-10.6449
_выпуск	-10.6451
_ник	-10.6452
_став	-10.6454
_прах	-10.6454
_покоя	-10.6455
_венец	-10.6455
_ученыи	-10.6455
шим	-10.6459
_московскои	-10.6463
_равнодушно	-10.6465
_лагер	-10.6466
_рев	-10.6468
_чаю	-10.6469
_растении	-10.6471
_подобного	-10.6472
_ром	-10.6477
_новгород	-10.6477
_расходов	-10.6477
_наташа	-10.6479
_данные	-10.6482
_поднялас	-10.6483
_луи	-10.6486
_окончил	-10.6486
_ежегодно	-10.6488
_красавица	-10.6489
_известных	-10.649
_городом	-10.6491
сп	-10.6497
_бр	-10.6498
_квартире	-10.65
_занимает	-10.6501
_отличается	-10.6501
_денежных	-10.6503
_михаила	-10.6504
_малыи	-10.6507
_колен	-10.6508
_задумчиво	-10.6509
_сделает	-10.6513
_сибир	-10.6514
_машины	-10.6516
_праве	-10.6517
_смеяс	-10.6522
_волосами	-10.6523
_правои	-10.6524
_мон	-10.6525
_лед	-10.6526
очки	-10.6532
_палцы	-10.6532
_хорошего	-10.6532
_собственност	-10.6533
_сердито	-10.6534
аем	-10.6536
_муниципалного	-10.6538
_приносит	-10.654
_любим	-10.6541
_иисуса	-10.6543
_встречается	-10.6545
_входят	-10.6549
_профессора	-10.6549
_достоевского	-10.655
уют	-10.655
_предусмотренных	-10.6551
_селе	-10.6551
_племени	-10.6552
_экипаж	-10.6554
_приняла	-10.6556
_еле	-10.6562
ическая	-10.6564
чет	-10.6564
_исход	-10.6566
_веселыи	-10.657
_привет	-10.657
_выразит	-10.6575
_слыхал	-10.6576
_печали	-10.658
_ехали	-10.658
_суду	-10.6581
_боги	-10.6582
_казн	-10.6587
_высоких	-10.6587
_собрании	-10.6592
ена	-10.6593
_гол	-10.6594
_поскорее	-10.6594
_живот	-10.6597
_известен	-10.6598
_родину	-10.66
_производится	-10.66
_собора	-10.6602
_думают	-10.6602
_увидите	-10.6604
_выхода	-10.6604
_повод	-10.661
_переходит	-10.6612
нки	-10.6612
_девица	-10.662
_актов	-10.6622
_сожалению	-10.6627
_отд	-10.6629
_фин	-10.6637
_прекраснои	-10.6638
_соловев	-10.6638
_раионе	-10.6639
_несчаст	-10.6639
_подпис	-10.6641
_лежали	-10.6643
_баб	-10.6644
_сада	-10.6648
_очи	-10.6651
елен	-10.6652
_немецкии	-10.6653
_занял	-10.6656
_газете	-10.6657
енныи	-10.6658
_ящик	-10.6662
_учится	-10.6662
_кресло	-10.6662
_толку	-10.6665
_губернатора	-10.6667
_рыбы	-10.6673
_влияния	-10.6674
_надежду	-10.6676
_погода	-10.6679
_современнои	-10.6688
_царица	-10.669
_од	-10.669
_целеи	-10.669
_флот	-10.6691
_попов	-10.67
_преступлен	-10.6708
_создат	-10.671
_звери	-10.671
_разными	-10.671
_длинныи	-10.671
_властю	-10.6713
_новому	-10.6713
_цветами	-10.6714
_вопросом	-10.6723
эн	-10.673
_периода	-10.6731
мет	-10.6731
_исаак	-10.6732
_бояс	-10.6734
_лета	-10.6734
_начинал	-10.6737
_злои	-10.6738
_боится	-10.6739
_законодателства	-10.674
_почтително	-10.6741
_учеников	-10.6742
_знакомыи	-10.6744
_способност	-10.6752
_мгновенно	-10.6754
_осуществления	-10.6755
_тридцати	-10.6757
_определяется	-10.6758
_звезда	-10.6759
_обещан	-10.676
_кончил	-10.6761
рин	-10.6764
_осталное	-10.6765
_виды	-10.677
_истина	-10.677
_революция	-10.6772
_состава	-10.6775
_систему	-10.6775
_занимал	-10.6779
_изменит	-10.678
_участка	-10.6782
_народы	-10.6784
_передо	-10.6789
_королем	-10.6791
_бояр	-10.6792
щего	-10.6795
енных	-10.6795
_священника	-10.6797
_высших	-10.6799
_ребята	-10.6807
про	-10.6812
_парижа	-10.6816
_справедливост	-10.6817
_древности	-10.6817
_приблизително	-10.682
_плод	-10.6822
_животное	-10.6836
_молодым	-10.6837
_сухо	-10.6842
_пищи	-10.6849
_бедных	-10.6854
_человеческих	-10.6854
_существован	-10.6856
_оборот	-10.6859
_расчет	-10.6861
_одежды	-10.6863
_оставалис	-10.6864
_яко	-10.6865
_огромное	-10.6867
_пределы	-10.687
_лик	-10.6872
_такова	-10.6878
_знания	-10.6883
оп	-10.6884
_надеятся	-10.6887
_главные	-10.6899
_понимаеш	-10.6899
_скал	-10.69
_остатки	-10.69
_направо	-10.69
_обяснения	-10.6901
_третя	-10.6904
_провинции	-10.6904
_мф	-10.6904
_узнает	-10.6905
_достоинство	-10.6905
_леитенант	-10.6907
_перо	-10.6909
_миром	-10.6909
_уважен	-10.6911
_дедушка	-10.6913
_представители	-10.6917
_воскресене	-10.6922
_ответственности	-10.6924
_белом	-10.6926
_палцами	-10.6927
_великаго	-10.6928
_заменит	-10.6929
_пламя	-10.693
_полон	-10.6935
_ранен	-10.6938
_правы	-10.6943
_океан	-10.6946
_слуги	-10.6953
_лучшие	-10.696
_горах	-10.6961
_али	-10.6962
сил	-10.6966
_королевы	-10.6969
_пунктом	-10.6969
_социалнои	-10.6973
_капитала	-10.6985
_вынужден	-10.6986
_миллионов	-10.6989
_начинают	-10.6992
ировал	-10.6995
_будущего	-10.6995
_черных	-10.6997
инг	-10.6998
_евр	-10.6999
_людях	-10.7
_звали	-10.7004
_следит	-10.7004
_здания	-10.7005
_полях	-10.7005
_университете	-10.7006
_купил	-10.7006
_училище	-10.7013
_нации	-10.7015
_сказки	-10.7018
_иные	-10.702
_помалу	-10.7023
_верил	-10.7025
_проникнут	-10.7026
_заметили	-10.7029
_сему	-10.7029
_просвещения	-10.703
_главнои	-10.7033
_установит	-10.7043
_резултаты	-10.7044
_уехат	-10.7046
_пешком	-10.7047
_вспомнит	-10.7048
_каково	-10.7053
_прос	-10.7054
_поры	-10.7054
_еду	-10.7061
нит	-10.7062
_софя	-10.7069
_примеч	-10.7077
ска	-10.7082
_вице	-10.7083
_предмета	-10.7084
_прекрасное	-10.7086
ивш	-10.7088
_татар	-10.7093
_кредит	-10.7096
_знан	-10.7099
_зиму	-10.71
_разсказ	-10.7102
_ур	-10.7102
_удоволствия	-10.7105
_обращен	-10.7107
_приход	-10.7108
_доход	-10.7111
_смысла	-10.7115
_еслибы	-10.7119
_взглянула	-10.7121
рад	-10.7121
_главная	-10.7121
_проидет	-10.7124
_друзями	-10.7124
_отдыха	-10.7125
зе	-10.7125
_греков	-10.7127
_лекции	-10.7128
_неловко	-10.7129
_перебил	-10.713
_дю	-10.7132
_примет	-10.7133
ался	-10.7134
_моими	-10.7144
_смел	-10.7146
_бело	-10.7146
_являлся	-10.7147
_тщетно	-10.7147
_подвиг	-10.7148
_французов	-10.7148
_отозвался	-10.7149
_пищу	-10.7149
_разрешен	-10.715
_варвара	-10.716
_пян	-10.7166
_роду	-10.7167
_направления	-10.7174
_факты	-10.7174
вод	-10.7176
_распоряжения	-10.7178
_настроение	-10.718
_записку	-10.7182
_гостинои	-10.7182
_полностю	-10.7187
_чу	-10.7187
_глухо	-10.719
_побежал	-10.7191
_гора	-10.7192
_путешествия	-10.7192
_высок	-10.7192
_гар	-10.7192
рос	-10.7194
_отделно	-10.7194
_кир	-10.7195
_финансов	-10.7195
_усилия	-10.7196
_самыми	-10.7198
_императрицы	-10.7198
_отдохнут	-10.72
_верныи	-10.72
_направлению	-10.7201
_началство	-10.7202
_поцеловал	-10.7203
_коротко	-10.7206
_вслух	-10.7219
_отсутств	-10.7219
ическои	-10.722
_отказ	-10.7222
_караул	-10.7223
_состоят	-10.7227
ания	-10.7229
_поняли	-10.7229
_живу	-10.7233
_любили	-10.7239
_писан	-10.724
_способом	-10.7241
_следующих	-10.7243
_хозяиство	-10.7243
_наказания	-10.7245
_воинов	-10.7247
_безусловно	-10.7247
_искусстве	-10.7249
_смешно	-10.7255
_стремление	-10.7256
_школу	-10.7256
_военные	-10.7256
_слове	-10.7257
_удел	-10.7259
_определен	-10.726
_присутствии	-10.726
_вол	-10.7261
гар	-10.7262
_нов	-10.7262
_красно	-10.7264
_платон	-10.7266
_дочерю	-10.727
_надобности	-10.727
_падает	-10.7271
аз	-10.7271
_чинов	-10.7275
_андрея	-10.728
шку	-10.7285
_названием	-10.7291
_рождения	-10.7292
_красные	-10.7293
бел	-10.7293
_недостаток	-10.7294
_мартин	-10.7296
_титул	-10.7296
_настоящая	-10.7298
_дум	-10.7298
_указат	-10.7299
_монах	-10.7301
_ша	-10.7301
_комментарии	-10.7302
_тремя	-10.7304
_середине	-10.7306
_щеки	-10.7307
_распоряжение	-10.7307
работ	-10.7308
_началос	-10.7309
_читает	-10.7312
_великие	-10.7316
енные	-10.7318
_целом	-10.7319
_сд	-10.7319
_селен	-10.732
_ребенком	-10.7325
_указан	-10.7325
_известия	-10.7325
_веснои	-10.7328
_отдела	-10.733
_сар	-10.7332
_сообщения	-10.7332
_кап	-10.7334
_простор	-10.7336
_болных	-10.7338
_стоимости	-10.734
_вступит	-10.7343
_флота	-10.7346
_цену	-10.7348
_несколкими	-10.735
_городскои	-10.735
_субектов	-10.7352
_таково	-10.7354
_палто	-10.7357
_гражданскои	-10.736
_попаст	-10.7361
_землеи	-10.7365
_швеицар	-10.7367
_получат	-10.7368
_песню	-10.7369
_актер	-10.7373
_принца	-10.7376
_планы	-10.7379
_ждали	-10.738
_среднеи	-10.7387
_переводе	-10.7389
_прямои	-10.7389
_явлении	-10.7392
_дворце	-10.7395
_следоват	-10.7398
_привели	-10.7398
_сп	-10.7399
_видят	-10.7406
_платок	-10.741
_слабост	-10.7411
_силным	-10.7412
_необходимым	-10.7414
_поет	-10.7415
_особои	-10.7429
_вэ	-10.7431
_тома	-10.7431
_сестре	-10.7434
_слушаи	-10.7435
_мрак	-10.7436
_порои	-10.7438
_субекта	-10.744
_завещан	-10.7443
_просила	-10.7446
_григории	-10.7447
_повернулся	-10.7449
_идем	-10.745
_существуют	-10.7453
_издал	-10.7453
_удержат	-10.7456
_сторож	-10.7458
_свету	-10.746
_страшное	-10.7462
_правления	-10.7462
_народе	-10.7462
_дневник	-10.7463
_согласия	-10.7464
_золотые	-10.7464
_острове	-10.7466
_решено	-10.7468
_французского	-10.7468
_лиза	-10.7469
_причину	-10.7472
_ун	-10.7473
ган	-10.7475
_вряд	-10.7475
_сделав	-10.7477
_произнесла	-10.7479
_тише	-10.748
_поражен	-10.7483
_позиции	-10.7483
_ск	-10.7485
_оскорблен	-10.7486
_помещен	-10.7489
_руже	-10.7493
_печално	-10.7494
_фамилии	-10.7495
_жду	-10.7495
_наидет	-10.7495
_победу	-10.7495
_труб	-10.7495
_тал	-10.7496
_тихонко	-10.7496
_признатся	-10.7499
_крупных	-10.7499
_ло	-10.7499
_повторяю	-10.7499
нс	-10.7502
_ир	-10.7502
сы	-10.7504
_арбитражныи	-10.7509
_замечает	-10.7511
_родители	-10.7513
_основных	-10.7514
_шекспира	-10.7515
_данным	-10.7517
_взглянув	-10.7519
_мясо	-10.752
_стремлен	-10.7521
_принцип	-10.7521
_рскд	-10.7527
нят	-10.7529
_единственное	-10.7536
_бросилис	-10.7538
_робко	-10.754
_мешает	-10.7542
_добавил	-10.7544
ические	-10.7544
гр	-10.7546
_положим	-10.7548
_коленях	-10.7549
_известие	-10.7551
_апостол	-10.7554
_мертвых	-10.7556
сто	-10.7556
_молодец	-10.7557
ант	-10.7558
_элементов	-10.7561
_кладбище	-10.7564
_англиискии	-10.7565
_движением	-10.7568
_темные	-10.7568
_смотрят	-10.7572
_целым	-10.7572
_божия	-10.7573
_берлин	-10.7574
_женился	-10.758
_выражения	-10.758
_лодки	-10.7581
_анти	-10.7583
_всецело	-10.7583
_голода	-10.7584
_окончании	-10.7588
ует	-10.7589
_государственным	-10.7591
_забот	-10.7593
_сбор	-10.7594
_волнения	-10.7594
_обществу	-10.7597
_сделаю	-10.7599
_сестру	-10.7603
_вилгелм	-10.7604
кол	-10.7606
_рои	-10.7611
_лад	-10.7611
вшим	-10.7612
_гибели	-10.7614
чка	-10.7618
_черными	-10.7619
_заключит	-10.762
кал	-10.7621
_диван	-10.7624
_героев	-10.7626
_полку	-10.7627
_костюм	-10.7629
_плачет	-10.7629
_благодарност	-10.763
_занавес	-10.763
_казаки	-10.7632
_приглашен	-10.7632
_князем	-10.7635
_странным	-10.7635
_считают	-10.7637
_конституции	-10.7639
_нужда	-10.7639
_контроля	-10.7642
_племен	-10.7645
_трав	-10.7652
_выражением	-10.7653
_пребывания	-10.7658
бу	-10.7661
_говор	-10.7663
_черная	-10.7665
_земнои	-10.7667
_прошептал	-10.7668
_трава	-10.7669
_черта	-10.767
_чиновник	-10.7672
_несчасте	-10.7674
_юности	-10.7675
_добродетели	-10.7679
_редактор	-10.768
рез	-10.7684
_перестал	-10.7684
_любиш	-10.7684
_носом	-10.7692
_рат	-10.7693
уд	-10.7693
_дуб	-10.7695
_помещения	-10.7696
мар	-10.7696
_кл	-10.7696
_границеи	-10.77
_черн	-10.7701
овое	-10.7704
_забыли	-10.7707
_странныи	-10.771
_доказателство	-10.7714
_велика	-10.7717
_играли	-10.7721
_поток	-10.7721
_гете	-10.7722
_императрица	-10.7722
_рассказат	-10.7723
_терпет	-10.7726
_рима	-10.7726
_газ	-10.7727
_прочие	-10.7729
_шут	-10.7733
_пошло	-10.7735
_очутился	-10.7737
_братец	-10.7738
_строя	-10.7739
_победа	-10.7741
_ведут	-10.7744
_частных	-10.7744
_налево	-10.7744
_автограф	-10.7747
_кармана	-10.7747
_фактически	-10.7748
_институт	-10.7751
_своя	-10.7755
_слухи	-10.7756
_вернулас	-10.776
_лестницы	-10.776
ще	-10.7761
_расходы	-10.7763
_наполеона	-10.7767
_знакомство	-10.7768
_первоначално	-10.7769
_казаков	-10.777
_ввиду	-10.777
_спасения	-10.7776
_всячески	-10.778
_совету	-10.7781
_отделения	-10.7785
_огни	-10.7787
_путешеств	-10.7788
_кабинете	-10.7789
_неоднократно	-10.779
_водки	-10.7792
_втор	-10.7793
_поверит	-10.7795
_доклад	-10.7796
_трете	-10.7796
_содержат	-10.78
_работников	-10.78
рал	-10.7803
_гордост	-10.7803
_сыновеи	-10.7804
_горит	-10.7806
_засмеялся	-10.7809
_двум	-10.7812
_основные	-10.7813
_собирался	-10.7814
_пытался	-10.7814
_казан	-10.7815
_окну	-10.7816
_романов	-10.7818
_охота	-10.7818
_рабочии	-10.7818
_примеру	-10.7819
ез	-10.782
_мистрисс	-10.782
_ходу	-10.7825
_сосед	-10.7825
_требуется	-10.7828
_голубчик	-10.7829
_жадно	-10.7832
_екатерины	-10.7833
_существования	-10.7834
_граждане	-10.7834
_оригинал	-10.7835
_сумма	-10.7841
_вечеру	-10.7845
ран	-10.7849
вор	-10.7849
_собак	-10.7849
овую	-10.7852
_жених	-10.7852
_сделалас	-10.7852
_глубокое	-10.7853
_особливо	-10.786
_живое	-10.7867
_зимои	-10.7869
_первому	-10.7874
ревосходителство	-10.7876
_родов	-10.7876
_прежнее	-10.7879
пат	-10.7886
_кроват	-10.7888
_оружия	-10.789
_арт	-10.7891
_преступление	-10.7891
_согласны	-10.7893
ул	-10.7898
_залу	-10.7901
_московскии	-10.7904
_дворян	-10.7905
_долга	-10.7911
_бу	-10.7911
_гордо	-10.7914
_любопытством	-10.7919
_содержит	-10.7922
_замечателно	-10.7923
_внешнеи	-10.7924
ало	-10.7924
_крым	-10.7924
_пристав	-10.7925
_готово	-10.7931
_монастыре	-10.7933
_увидим	-10.7934
_покуда	-10.7936
_стои	-10.7936
_каждаго	-10.7936
_сожален	-10.7937
_увидит	-10.7939
_адам	-10.7942
_принятия	-10.7945
_плач	-10.7947
_квартиры	-10.7948
_старается	-10.7956
_строит	-10.7957
_слав	-10.7958
_океана	-10.7958
_отделен	-10.796
_подняв	-10.7966
_семю	-10.7973
_целая	-10.7973
_создания	-10.7977
_свидан	-10.7977
_шеи	-10.7979
_надпис	-10.7981
_хорошая	-10.7985
_дверях	-10.7988
_читателя	-10.7989
_франков	-10.7991
дал	-10.7992
_довер	-10.7997
_увидиш	-10.7998
ющегося	-10.8001
цвет	-10.8002
_глупо	-10.8003
_поддержки	-10.8006
_алексея	-10.8006
_богатыи	-10.8007
_лбу	-10.8008
_способен	-10.8016
_бабы	-10.8017
_основнои	-10.8021
_прежнеи	-10.8024
_становилос	-10.8024
_дмитр	-10.8025
_следующим	-10.8026
_плоды	-10.8026
_сред	-10.8027
_обществом	-10.803
_кожи	-10.8031
_камнеи	-10.8033
_старому	-10.8033
_ду	-10.8034
_молодежи	-10.8038
_горкии	-10.804
_студент	-10.804
_огромные	-10.8043
_растет	-10.8047
щая	-10.8048
_широкои	-10.8049
_продолжали	-10.8053
_обер	-10.8056
_русскому	-10.8059
_веке	-10.8069
_покое	-10.8072
_старости	-10.8075
_шекспир	-10.808
стр	-10.8084
_полков	-10.8084
_джордж	-10.8085
_азии	-10.8087
_массу	-10.8087
_общие	-10.8088
_целых	-10.8091
_грубо	-10.8093
_идите	-10.8093
_петров	-10.8094
очку	-10.8095
_доброи	-10.8099
_америке	-10.8103
_барыня	-10.8103
ющимся	-10.8103
_правде	-10.8105
_кул	-10.8106
нин	-10.8108
_получал	-10.8108
_бил	-10.8112
_освобожден	-10.8117
_мировои	-10.8117
ища	-10.8117
_спинои	-10.8119
_камня	-10.8119
_добрая	-10.812
_стыд	-10.8121
ницеи	-10.8121
_колокол	-10.8123
_переднеи	-10.8123
_произведение	-10.8125
евои	-10.8133
_ходят	-10.8138
_стихах	-10.8139
_голуб	-10.8142
_перемен	-10.8142
лом	-10.8144
_доброго	-10.8147
енная	-10.8149
_участников	-10.8152
_внутреннего	-10.8152
_ча	-10.8155
_захотел	-10.8155
_добится	-10.8155
_русскую	-10.8156
_баран	-10.8158
_рассказывает	-10.8161
_представлял	-10.8161
_пробормотал	-10.8162
иан	-10.8163
_среде	-10.8164
_особыи	-10.8164
_впред	-10.8165
_ряды	-10.8165
_норм	-10.8167
_охотник	-10.8167
_поэз	-10.8171
_сапоги	-10.8172
_ездил	-10.8172
_битвы	-10.8174
_прочест	-10.8175
_кос	-10.8177
_палцем	-10.8178
_столет	-10.8182
_пункте	-10.8182
ике	-10.8183
_морю	-10.8185
_полноч	-10.8187
_ученик	-10.819
_застал	-10.8192
_сладко	-10.8192
_ивановича	-10.8192
_воскрес	-10.8194
_отправлен	-10.8194
_царем	-10.8197
_сорока	-10.8199
_разбит	-10.82
вит	-10.8201
_самыя	-10.8206
гре	-10.8207
_барышня	-10.8207
_юрии	-10.821
_тяжелые	-10.8211
_продолжен	-10.8211
_требовал	-10.8212
_болного	-10.8212
_невеста	-10.8216
_служба	-10.8218
_особое	-10.8223
_хватит	-10.8223
_выс	-10.8223
инои	-10.8224
_малеишего	-10.8226
_поэмы	-10.8228
_основание	-10.8229
_ночнои	-10.8232
_причинои	-10.8232
_смею	-10.8235
_сочинение	-10.8236
_означает	-10.8238
_ложе	-10.8246
_гимназии	-10.825
_протокол	-10.825
_приити	-10.825
_восми	-10.8251
_женщинои	-10.8252
_родине	-10.8254
_полномочии	-10.8255
_вершины	-10.8256
_подем	-10.8258
_доступ	-10.8259
_прервал	-10.826
_георг	-10.8264
_предприятия	-10.8265
_повторял	-10.8266
_выпит	-10.8268
_страшная	-10.8269
_поэзия	-10.827
_украины	-10.8272
_многими	-10.8273
_впечатления	-10.8275
_пространстве	-10.8275
_синор	-10.8275
_сср	-10.8278
_цены	-10.8279
_юридических	-10.828
_наблюдат	-10.828
_принимая	-10.8282
_спине	-10.8284
_неприятеля	-10.8287
_ногам	-10.8293
_успела	-10.8294
_обеспечение	-10.8295
_вернулис	-10.8296
скою	-10.83
_переити	-10.8302
_старушка	-10.8302
_полковника	-10.8304
_женою	-10.8304
_просбу	-10.8307
_плакала	-10.8309
_оставалас	-10.8309
_ворон	-10.8309
_посад	-10.831
_среднего	-10.8311
_недаром	-10.8313
ря	-10.8314
_потребност	-10.8314
лан	-10.8316
_тяжелыи	-10.8318
_дяди	-10.8321
_подумала	-10.8321
_отезда	-10.8323
_бою	-10.8329
_решила	-10.8329
_замке	-10.833
_вт	-10.8332
_парламент	-10.8333
_зрелище	-10.8335
_карла	-10.8335
рит	-10.8338
_млн	-10.8339
_добрых	-10.8339
_становятся	-10.834
_вплот	-10.834
_свидания	-10.8342
_блага	-10.8343
_ед	-10.8343
_греч	-10.8343
_благодат	-10.8346
нице	-10.8347
_аромат	-10.8347
_чтен	-10.8349
_весна	-10.835
_стену	-10.835
емая	-10.8351
_работает	-10.8351
_держав	-10.8351
_некоторои	-10.8363
_беседы	-10.8364
_владимира	-10.8366
_сир	-10.8366
_капли	-10.8372
_обратилас	-10.8372
_мозг	-10.8372
_исчезла	-10.8375
_доказателств	-10.8375
_темнои	-10.8375
_облака	-10.8377
_мэри	-10.8381
_водою	-10.8381
_общая	-10.8383
_живым	-10.8385
ившихся	-10.8385
ющаяся	-10.8385
_вход	-10.8386
_скол	-10.8386
_шее	-10.8387
_столетия	-10.8388
_тургенева	-10.8388
_брал	-10.8389
_зуб	-10.8389
_красоту	-10.839
_читателеи	-10.8392
_приказан	-10.8395
мон	-10.8396
_порядком	-10.8397
_святая	-10.84
_построен	-10.8402
_местност	-10.8402
_принадлежал	-10.8404
_частях	-10.8405
_опубликовано	-10.841
емые	-10.8411
_предварително	-10.8412
_здан	-10.8413
_нина	-10.8414
_резултат	-10.8417
_занятия	-10.8417
_нарушение	-10.8418
_постои	-10.8419
ции	-10.842
_спрашиваю	-10.8421
_вызват	-10.8424
_держит	-10.843
дар	-10.8431
_лва	-10.8436
_отставку	-10.8437
_политика	-10.844
_проб	-10.8449
_залив	-10.8449
_прибыли	-10.8449
_штат	-10.8451
_распоряжен	-10.8451
_чар	-10.8451
_черно	-10.8453
_обращения	-10.8457
_зелен	-10.846
_мистрис	-10.8465
_вопреки	-10.8466
_остановил	-10.8469
_тучи	-10.8471
_прибавила	-10.8474
_главнокомандующ	-10.8474
_пустыне	-10.8475
_русскаго	-10.8475
_молодеж	-10.8477
_путешественник	-10.8481
_зубами	-10.8485
_бред	-10.8485
_разница	-10.8487
_нач	-10.8489
_выстрел	-10.8489
_прошлое	-10.8496
_максим	-10.8496
_бытия	-10.8499
_чехова	-10.8501
_заявление	-10.8503
_садится	-10.8505
_неприятно	-10.8506
_размер	-10.8507
_переговоры	-10.8508
_возвращении	-10.8511
_новыми	-10.8514
_предложит	-10.8514
_стекла	-10.8515
щик	-10.8516
_маг	-10.8517
_арестован	-10.8523
_долгое	-10.8525
_холодныи	-10.8525
_ант	-10.8532
_корен	-10.8533
_количества	-10.8535
_высокого	-10.8536
_ожидая	-10.854
ир	-10.8543
_выходил	-10.8544
_писала	-10.8545
_гляди	-10.8545
рис	-10.8546
_немцы	-10.8546
_заплатит	-10.8549
_рассказыват	-10.8549
_называт	-10.8549
_расход	-10.8551
_приехали	-10.8552
_групп	-10.8552
_проснулся	-10.8552
_обедат	-10.8554
_судебного	-10.8555
_учился	-10.8558
_густои	-10.8559
_послушаите	-10.8562
_шепотом	-10.8563
_исполнят	-10.8563
_литературнои	-10.8564
_димитрия	-10.8565
_воспоминании	-10.8568
_грязи	-10.8568
_повер	-10.8569
_лука	-10.857
при	-10.8571
_дверю	-10.8576
_богат	-10.8578
_историческии	-10.8579
исты	-10.858
_дыхание	-10.8582
_кост	-10.8582
_наряд	-10.8583
_украшен	-10.8584
_бе	-10.8584
тои	-10.8584
_остаются	-10.8588
_перевода	-10.8589
_покорно	-10.8591
_смеятся	-10.8595
мол	-10.8599
_тор	-10.8608
_степи	-10.8609
_епископа	-10.8612
_некоторыя	-10.8614
_составил	-10.8615
_соответственно	-10.8616
ял	-10.8617
_мысленно	-10.863
_добрым	-10.863
мор	-10.8631
_пастор	-10.8633
_испытан	-10.8637
_ят	-10.8638
_таино	-10.8639
_чтение	-10.8639
_полномочия	-10.8643
_лук	-10.8646
_неизбежно	-10.8648
_сражен	-10.8648
_систем	-10.8659
_устроиство	-10.8659
_известного	-10.8664
уз	-10.8664
_автором	-10.8669
_чужих	-10.8671
_красная	-10.8673
_удивился	-10.8674
_потери	-10.8675
_постановлением	-10.8684
_составляли	-10.8689
_ползуяс	-10.8691
_болен	-10.8691
_встрече	-10.8692
_духов	-10.8692
_роберт	-10.8693
_ров	-10.8695
_греха	-10.8695
_боевои	-10.8702
иею	-10.8705
_станут	-10.8705
_видны	-10.8706
_фактов	-10.8707
раж	-10.8708
_предприятии	-10.8709
_велико	-10.871
_опыта	-10.8712
_участков	-10.8715
_свободнои	-10.8715
_носил	-10.8715
_ужин	-10.8718
_высокая	-10.8719
_комедии	-10.8722
_образа	-10.8723
_несет	-10.8727
_создал	-10.8727
_требованиям	-10.8728
_высоте	-10.8728
_смущен	-10.8729
_смутно	-10.8729
_гос	-10.8732
_следующем	-10.8732
_гер	-10.8733
_старалас	-10.8734
_принесли	-10.8734
_гражданин	-10.8736
_похоже	-10.8737
_криком	-10.8738
_дороже	-10.8746
_подняла	-10.875
_посмотрим	-10.875
_чистои	-10.8753
_намерения	-10.8754
_заря	-10.8754
_болгар	-10.8754
_красивыи	-10.8755
_раны	-10.8757
_лодка	-10.8759
_мод	-10.8762
_возможным	-10.8762
_патр	-10.8763
_травы	-10.8764
_розы	-10.8764
_листя	-10.8768
_возвратится	-10.8768
_сошел	-10.877
_комнат	-10.8771
_фу	-10.8775
_заботится	-10.8777
яв	-10.8779
_сплош	-10.8779
_создание	-10.878
_красным	-10.8781
_беспрестанно	-10.8781
_целиком	-10.8781
_сумел	-10.8782
_вдвоем	-10.8783
_человечество	-10.8783
мат	-10.8784
_изменен	-10.8784
_слышит	-10.8784
_административно	-10.8784
овыи	-10.8785
_юг	-10.8785
_мечта	-10.8788
_советы	-10.879
_отправил	-10.879
_ждала	-10.8791
_графу	-10.8792
щи	-10.8797
_включая	-10.88
_кричали	-10.8803
_отошел	-10.8804
_славян	-10.8805
_гражданина	-10.8806
пад	-10.8809
_худо	-10.8813
_суждено	-10.8814
_стенах	-10.8822
_посмотрела	-10.8824
_предложения	-10.8824
_оказат	-10.8826
_убедится	-10.8827
ци	-10.8828
_бумаг	-10.8829
_писмом	-10.8829
_вероятности	-10.883
_соединен	-10.8831
ане	-10.8832
_слышиш	-10.8833
_осуществление	-10.8835
_надежде	-10.8836
рат	-10.8838
_комиссия	-10.8839
_применения	-10.8841
_ошибки	-10.8841
фер	-10.8843
_никуда	-10.8844
_рассмотрения	-10.8845
_духу	-10.8847
_предпринимател	-10.8848
_ля	-10.8848
_утвержден	-10.885
_устроиства	-10.8852
_саша	-10.8853
_влечет	-10.8853
_грозит	-10.8853
_ездит	-10.8854
_взоры	-10.8857
вшимися	-10.8857
_обявит	-10.8858
_признаюс	-10.8858
_ведомости	-10.8859
_завет	-10.8859
_различ	-10.8859
щих	-10.8859
_обманут	-10.8861
лев	-10.8867
шев	-10.8867
_успешно	-10.8868
_ветви	-10.8869
лож	-10.8871
_подошли	-10.8872
_компан	-10.888
_данного	-10.8881
_юноши	-10.8889
_завода	-10.8889
_беднои	-10.8891
_солнцем	-10.8892
_считатся	-10.8892
_товара	-10.8893
_пап	-10.8894
_могилу	-10.8894
_федералныи	-10.8895
дов	-10.89
_приготовлен	-10.8901
_катерина	-10.8901
_охраны	-10.8902
_желат	-10.8902
иват	-10.8904
_пи	-10.8906
_сует	-10.8907
_вторично	-10.8907
_аполлон	-10.891
ене	-10.891
_скандал	-10.8912
нич	-10.8912
_бледныи	-10.8912
овна	-10.8913
_жарко	-10.8915
_пропаст	-10.8916
_ветром	-10.8918
_круга	-10.892
_конеи	-10.8922
_восторга	-10.8927
_обществ	-10.8929
ован	-10.893
_памятник	-10.8931
_крупные	-10.8931
тал	-10.8932
емои	-10.8934
стер	-10.8934
_французы	-10.8934
щу	-10.8935
_особо	-10.8935
_собственного	-10.8935
зна	-10.8938
иях	-10.894
еннои	-10.8945
_признает	-10.895
_суворова	-10.8951
_лесов	-10.8952
_девушке	-10.8953
_трепет	-10.8954
_золотых	-10.8954
_смеется	-10.8955
тр	-10.8955
_болот	-10.8956
_почве	-10.8957
_поступок	-10.8958
_московских	-10.8959
_непо	-10.8961
_велич	-10.8961
_остановит	-10.8964
_трон	-10.8965
_превосходно	-10.8966
_лодку	-10.8967
_успокоит	-10.897
овыми	-10.8971
_джим	-10.8971
_орлов	-10.8972
_литературных	-10.8977
_собственным	-10.8978
_бывали	-10.8979
_престола	-10.8982
_умрет	-10.8983
_голосе	-10.8983
_несравненно	-10.8983
_скажем	-10.8985
_помниш	-10.8987
_предпр	-10.899
_часам	-10.8991
_богатых	-10.8992
_милорд	-10.8995
твор	-10.8995
_прислал	-10.8997
_страницы	-10.8998
тур	-10.8998
_сообщен	-10.9
_разстоян	-10.9
_станц	-10.9006
_жи	-10.9006
_опер	-10.9009
_деиствителност	-10.9011
_фи	-10.9012
тов	-10.9013
_западе	-10.9013
_безум	-10.9013
_анненков	-10.9014
_цветок	-10.9014
вои	-10.9016
_белыми	-10.9016
_осен	-10.9017
_свист	-10.9019
_присутствие	-10.9019
_колон	-10.9021
_товары	-10.9024
_кругу	-10.9026
_наряду	-10.9027
_минута	-10.9027
щии	-10.903
_колцо	-10.9036
_наверх	-10.9037
_позволяет	-10.9037
кина	-10.9042
_трубы	-10.9043
_убили	-10.9044
_мен	-10.9044
_прибавит	-10.9044
_целои	-10.9045
_живого	-10.9045
ющееся	-10.9046
_кончено	-10.9046
_обязателств	-10.9052
_элементы	-10.9052
_бед	-10.9052
_пыли	-10.9053
_произвести	-10.9055
_старым	-10.906
_последств	-10.906
_обернулся	-10.9061
_син	-10.9061
_делая	-10.9061
_слову	-10.9063
_одет	-10.9067
_перемена	-10.9068
_василевна	-10.9071
_медвед	-10.9071
_роты	-10.9071
_словесности	-10.9071
_исполнил	-10.9072
_обявлен	-10.9073
_подлежат	-10.9074
ход	-10.9077
_нетерпеливо	-10.9079
_прежнего	-10.908
_сос	-10.9083
_плащ	-10.9083
_советов	-10.9086
_администрации	-10.9086
_чиновников	-10.9088
_современных	-10.909
_губами	-10.9096
_хорошие	-10.9096
жив	-10.9099
_драмы	-10.9099
_установлен	-10.9103
_поручен	-10.9104
ание	-10.9106
_согласие	-10.9107
_домом	-10.9109
_значителнои	-10.911
_законам	-10.9111
_взором	-10.9113
_княжна	-10.9115
_французских	-10.9115
_последовал	-10.9119
_фонда	-10.9121
жит	-10.9121
_заботы	-10.9125
_настоящую	-10.9127
_англичан	-10.9127
_скорби	-10.9128
под	-10.913
_тревожно	-10.9133
_буквално	-10.9134
лон	-10.9135
_наказание	-10.9138
_бесконечно	-10.9142
_жертв	-10.9143
_представил	-10.9144
ического	-10.915
_сахар	-10.9158
_ган	-10.9163
_запада	-10.9164
_судебнои	-10.9164
_следующего	-10.9164
_царского	-10.9164
_перев	-10.9166
ром	-10.9167
_александровна	-10.9169
_уверены	-10.9169
_образы	-10.9172
_спец	-10.9173
_управлен	-10.9174
_исторических	-10.9174
_туч	-10.9175
мир	-10.9176
_развитии	-10.9178
_журналист	-10.9182
_негодяи	-10.9187
_коллегии	-10.9189
_теория	-10.9192
_глубже	-10.9192
_белым	-10.9193
_зубов	-10.9194
_зрен	-10.9198
_змея	-10.92
_пустои	-10.92
_мгновен	-10.9202
_зол	-10.9205
_зван	-10.9207
_давид	-10.9207
_василия	-10.9209
_жорж	-10.9213
_служили	-10.9217
_старое	-10.9219
_надеялся	-10.922
_насмешливо	-10.9224
_наследство	-10.9225
_умею	-10.9228
_ожидании	-10.9231
има	-10.9234
_свечи	-10.9236
_веществ	-10.9237
_наверху	-10.924
_крыля	-10.9241
_мяса	-10.9242
_бек	-10.9243
_оси	-10.9245
_кавалер	-10.9246
леп	-10.9249
_пятидесяти	-10.9253
_возмет	-10.9256
_продолжая	-10.9257
_помещении	-10.9258
_духовных	-10.9259
_религия	-10.9261
аите	-10.9262
пу	-10.9263
_разврат	-10.9269
тар	-10.927
_противник	-10.9273
_боярин	-10.9273
мо	-10.9277
_взад	-10.9277
_экономическои	-10.928
_ночам	-10.928
_науке	-10.9281
_газетах	-10.9282
_позволит	-10.9282
_природу	-10.9283
_совершит	-10.9284
_сознателно	-10.9285
_мрамор	-10.9286
_помог	-10.9287
_приходили	-10.9288
_куб	-10.9289
_опустил	-10.929
тол	-10.929
_озер	-10.9294
_ждут	-10.9296
_силных	-10.9298
_груз	-10.93
_встречу	-10.9303
_вину	-10.9306
_барона	-10.9306
_здание	-10.9308
_бывших	-10.9309
_точку	-10.9314
овы	-10.9314
_лучшим	-10.9315
кор	-10.9317
_русскими	-10.9317
_красиво	-10.9319
ита	-10.932
_связанных	-10.9321
_любите	-10.9325
_ожидан	-10.9327
_глядит	-10.9327
_обясняется	-10.9328
_казатся	-10.9331
_одежду	-10.9331
_дев	-10.9335
_луны	-10.9338
_елизавета	-10.9339
_платы	-10.9346
вел	-10.9347
_великую	-10.9349
_америки	-10.935
_глупости	-10.9353
_сирот	-10.9354
_началством	-10.9357
_целого	-10.936
_зверя	-10.9365
_красного	-10.9367
_близких	-10.9368
_проповед	-10.937
_зовет	-10.9372
ику	-10.9372
_посол	-10.9377
ивал	-10.9381
_замечал	-10.9386
_орудия	-10.9388
_напоминает	-10.9388
_шир	-10.9389
_скота	-10.939
_заведен	-10.939
_фамилия	-10.939
_четвертыи	-10.939
_европеиских	-10.9394
_немцев	-10.9398
ща	-10.9401
_девочки	-10.9401
_сидят	-10.9402
_находим	-10.9404
_мятеж	-10.9405
_обращается	-10.9405
_снега	-10.9408
_компания	-10.9409
_жития	-10.9411
_члена	-10.9412
_соли	-10.9415
_одною	-10.9418
_делала	-10.942
_ме	-10.9423
_душою	-10.9424
ившии	-10.9424
_указанные	-10.9425
_знаки	-10.9427
_слуг	-10.9427
_торговля	-10.9427
_задачу	-10.9432
рев	-10.9432
_маркс	-10.9433
_восторгом	-10.9437
_продукции	-10.9439
_поцелуи	-10.944
_рых	-10.944
ическии	-10.944
_возму	-10.9441
пи	-10.9443
_судебных	-10.9443
_подтвердил	-10.9444
_даннои	-10.9445
ора	-10.9445
_имеющих	-10.9446
_григоревич	-10.9448
_ошибка	-10.9451
нев	-10.9452
_кабинета	-10.9453
_ятел	-10.9453
_кро	-10.9454
стан	-10.9455
_обзор	-10.9457
_слабости	-10.9458
_ползуется	-10.946
_артиллерии	-10.9461
_старост	-10.9462
_родины	-10.9464
_учетом	-10.9465
_сходство	-10.9467
_хотим	-10.9471
_забыла	-10.9471
_каковы	-10.9474
_живем	-10.9474
_мило	-10.9475
_верхов	-10.9477
вшими	-10.9478
_призрак	-10.9478
_рез	-10.9479
_марш	-10.9479
_угла	-10.9479
_длинными	-10.9482
_бывшего	-10.9484
пп	-10.9489
_совр	-10.949
_назначения	-10.9492
_освободит	-10.9492
_егор	-10.9494
_черту	-10.9495
_импер	-10.9504
_хороших	-10.9505
_советом	-10.9506
_красоте	-10.9506
_живописи	-10.9508
_двести	-10.9508
_вене	-10.951
_рта	-10.9513
_коз	-10.9513
_плана	-10.9518
_подлежит	-10.9518
вшее	-10.952
_встретили	-10.9524
_записи	-10.9524
_пригласил	-10.9526
_мелкие	-10.9527
_вдова	-10.9529
_гуд	-10.953
_искусно	-10.953
_неизменно	-10.9531
_входа	-10.9531
_вздрогнул	-10.9532
_мелк	-10.9533
_ура	-10.9534
_удачно	-10.9534
_доволны	-10.9535
_тит	-10.9544
_угрюмо	-10.9545
_ричард	-10.9545
_захочет	-10.9547
гер	-10.9547
сме	-10.9549
_слева	-10.9549
_бюджета	-10.955
_совместно	-10.9552
_грот	-10.9555
_людовик	-10.9555
_копии	-10.9555
_следств	-10.9555
_историческои	-10.9556
_долларов	-10.9558
ицу	-10.956
_вела	-10.9561
_института	-10.9566
брос	-10.957
_сенат	-10.9571
_ружя	-10.9572
_черного	-10.9572
_помогат	-10.9573
_катя	-10.9576
_племя	-10.9577
_призван	-10.9577
_ученые	-10.9578
_оставте	-10.9578
_умныи	-10.958
_пространства	-10.9581
_требуют	-10.9583
ун	-10.9585
_желала	-10.9585
_шапку	-10.9586
_дно	-10.9587
_кле	-10.9589
_дур	-10.9589
_жениха	-10.9591
тан	-10.9591
_старец	-10.9592
_орудии	-10.9593
_внутр	-10.9593
_лк	-10.9595
_директора	-10.9597
_страдал	-10.9598
_плакал	-10.9603
пар	-10.9603
авших	-10.9604
_севера	-10.9605
_заговорила	-10.9605
_наидется	-10.9606
_пороге	-10.9607
_тяжелое	-10.9609
_высокие	-10.961
_услышав	-10.961
_заставили	-10.9611
_назначение	-10.9612
_дошли	-10.9614
пут	-10.9617
_обращение	-10.9617
_правилам	-10.9618
_министром	-10.9619
_ада	-10.9623
_нехорошо	-10.9623
_круп	-10.9623
_ненависти	-10.9623
_удивлением	-10.9623
_знамен	-10.9625
_шума	-10.9625
_националнои	-10.9629
_стараго	-10.963
_признаки	-10.9631
_укреплен	-10.9631
_выдат	-10.9632
_наблюдения	-10.9633
_улыбнулас	-10.9633
_летопис	-10.9635
_сном	-10.9637
_крестянин	-10.9638
_бури	-10.9638
нд	-10.964
_полтора	-10.9642
_установленных	-10.9642
_русски	-10.9644
_изумлен	-10.9649
_могилы	-10.9652
_полки	-10.9653
_однакож	-10.9655
_разрешение	-10.9661
_государыня	-10.9663
_простым	-10.9664
_футов	-10.9665
_опасно	-10.9666
инского	-10.9666
_томах	-10.9667
_ул	-10.9668
_морских	-10.9668
_двору	-10.967
щеи	-10.9671
_обоз	-10.9674
_возмите	-10.9674
_поставлен	-10.9674
_книппер	-10.9685
_подарок	-10.9685
_грехи	-10.9685
_морем	-10.9686
_точ	-10.9689
_городских	-10.9689
_молитву	-10.9691
_глав	-10.9692
_бежали	-10.9693
_родных	-10.9694
пит	-10.9698
_защищат	-10.9698
_временно	-10.9699
_началис	-10.9699
_предположен	-10.97
_колес	-10.97
_возвращался	-10.9705
оф	-10.9707
_кодекс	-10.9707
_скажут	-10.9707
_племянник	-10.9708
ации	-10.9709
_красотои	-10.971
_веки	-10.971
_рубля	-10.9711
_мирно	-10.9712
_огне	-10.9712
_проклят	-10.9712
_японцы	-10.9716
_адютант	-10.9717
_произвол	-10.9718
_поможет	-10.972
_решится	-10.9725
_обят	-10.9727
_фигуру	-10.9727
_рыбу	-10.973
_занятии	-10.9732
_совершен	-10.9734
ош	-10.9734
_личнои	-10.9734
_следующеи	-10.9737
_участок	-10.9738
_вреда	-10.974
_тих	-10.9741
_батареи	-10.9742
_волнение	-10.9742
_некрасова	-10.9744
_закрыт	-10.9744
_глазам	-10.9744
_категории	-10.9745
_командира	-10.9747
_впоследств	-10.9748
_кресла	-10.9749
_улицах	-10.9752
_семеиство	-10.9752
_повернул	-10.9752
_попытка	-10.9753
_отдых	-10.9757
_пели	-10.9757
_владения	-10.9758
_трагедии	-10.9758
_убедит	-10.9761
чер	-10.9764
_вначале	-10.9764
_плотно	-10.9765
_очерки	-10.9767
_канал	-10.9769
_воображен	-10.977
_каприз	-10.9772
_замечан	-10.9773
_мае	-10.9774
_тихим	-10.9774
_осужден	-10.9776
_записок	-10.9777
_последняго	-10.9777
_сократ	-10.9779
_дошел	-10.9779
_дева	-10.9779
_деиствиях	-10.9781
_телеграф	-10.9786
_политике	-10.9786
_закрыл	-10.9787
_утверждает	-10.9791
_склад	-10.9795
_отпуск	-10.9795
_разным	-10.9795
_любои	-10.9797
_секретаря	-10.9799
_стояло	-10.98
_хорошим	-10.9804
_любезно	-10.9806
_весны	-10.9816
_пушки	-10.9817
_креста	-10.9818
_заговор	-10.9821
_обще	-10.9821
_энерг	-10.9822
_твоем	-10.9822
_пили	-10.9822
_цена	-10.9823
_сутки	-10.9826
_симон	-10.9826
_устя	-10.9827
_шагах	-10.9827
_поступат	-10.9827
_собиралис	-10.9829
стро	-10.9829
_влюблен	-10.983
овка	-10.9831
_святые	-10.9835
_заключил	-10.9837
_соц	-10.9838
_груст	-10.9839
_общественное	-10.9841
_играла	-10.9841
ище	-10.9842
_авторитет	-10.9846
_прежние	-10.9848
_кум	-10.985
_выпил	-10.985
_регистрации	-10.9852
_необходимые	-10.9853
_коров	-10.9854
_поднялис	-10.9854
_темныи	-10.9855
_таланта	-10.9858
_звание	-10.9858
_предупредит	-10.9862
_федералнои	-10.9863
_налогов	-10.9864
ино	-10.9864
нием	-10.9865
_зем	-10.9866
_выгод	-10.9868
_государстве	-10.9869
_расстояние	-10.987
_богослов	-10.9871
_бюджет	-10.9873
_череп	-10.988
_важных	-10.988
щем	-10.9881
_песа	-10.9881
_чт	-10.9882
_мести	-10.9884
_вторую	-10.9888
_общему	-10.9888
_испуганно	-10.9889
_решилас	-10.9889
_вернувшис	-10.9893
_намерение	-10.9894
_переводчик	-10.9895
_звуков	-10.9896
_возвратит	-10.9902
_адвокат	-10.9902
_пустяки	-10.9903
_границ	-10.9906
_посту	-10.9906
_музыку	-10.9911
_долине	-10.9912
_взрыв	-10.9912
_указания	-10.9916
_чудеса	-10.9919
_известное	-10.992
_совершил	-10.9926
_еся	-10.9926
_пик	-10.9927
_кавказ	-10.9928
_источников	-10.9929
_исчезли	-10.993
_столовои	-10.9934
_правителству	-10.9936
_любопытство	-10.9936
_март	-10.9937
_обеспечит	-10.9938
тин	-10.9938
ице	-10.994
_заняты	-10.9943
_справа	-10.9952
дин	-10.9957
_умирает	-10.9959
_познакомился	-10.996
_советник	-10.9962
_последователно	-10.9964
_стадо	-10.9965
_знакомые	-10.9967
_никол	-10.9968
_дружбы	-10.9968
_молодую	-10.997
_удары	-10.997
_мягко	-10.997
_воен	-10.997
_рассказа	-10.9974
берг	-10.9975
_раненых	-10.9976
_приказание	-10.9979
_нарушения	-10.9984
дан	-10.9986
_зеркало	-10.9988
_строк	-10.9989
_социалистическ	-10.9989
выи	-10.9989
_газету	-10.9989
_ряду	-10.999
_публицист	-10.9992
_толпои	-10.9993
_роскош	-10.9995
воз	-11
_фразы	-11.0002
_краев	-11.0002
_болшинстве	-11.0004
_сход	-11.0005
_истинныи	-11.0013
_возвращается	-11.0014
_уходят	-11.0016
_стихотворен	-11.0018
_экономическим	-11.002
_послушаи	-11.002
_местом	-11.002
_малого	-11.0021
_отнят	-11.0025
_произвел	-11.0029
мана	-11.003
_владим	-11.003
_мыслями	-11.003
_уступит	-11.0035
_див	-11.0039
_кардинал	-11.0039
_требование	-11.004
_пакет	-11.0041
_обекта	-11.0043
_вернется	-11.0044
_мот	-11.0046
вали	-11.0047
_двенадцати	-11.0049
_честныи	-11.005
_отечество	-11.005
_посмотри	-11.005
_бот	-11.0053
_печи	-11.0057
_виноград	-11.0057
_христианства	-11.006
_кончилос	-11.0063
алас	-11.0065
_отправит	-11.0068
_скажеш	-11.007
_сделан	-11.0072
_торжество	-11.0072
_возразила	-11.0072
_предел	-11.0073
_уверена	-11.0074
цел	-11.0076
_деятелностю	-11.0078
_маленкого	-11.0079
_соответствует	-11.0081
_умы	-11.0083
_книжки	-11.0083
_островов	-11.0083
_густо	-11.0084
_джентлмен	-11.0084
енную	-11.0085
_лют	-11.0086
_средних	-11.0087
_путеи	-11.0088
_турок	-11.0088
_ловит	-11.0091
_дмитриевич	-11.0092
_настоящ	-11.0092
_покинул	-11.0093
_наблюдател	-11.0098
_злодеи	-11.0103
_сказка	-11.0107
_задумался	-11.0107
_издател	-11.0107
_живопис	-11.0109
_суворов	-11.0111
_лю	-11.0112
дит	-11.0113
_краиности	-11.0114
_отказа	-11.0114
_паст	-11.0116
_осмотр	-11.0117
_зашел	-11.0117
_полезно	-11.0118
_джек	-11.0122
_игумен	-11.0123
_густав	-11.0123
_поеду	-11.0124
_рассмотрение	-11.0124
_благодарит	-11.0127
_удалился	-11.013
_значении	-11.0134
_руководством	-11.0137
_звереи	-11.0139
_кончится	-11.0142
_надзора	-11.0144
_разрушен	-11.0145
_другаго	-11.0147
_величины	-11.0149
_благословен	-11.0153
_неза	-11.0153
_стрелят	-11.0154
_подготовки	-11.0154
_татяна	-11.0154
_презрително	-11.0155
_охоты	-11.0156
_писмах	-11.0157
_михаиловна	-11.0158
_спокоиств	-11.016
_появлен	-11.016
_показалис	-11.0161
_увлечен	-11.0164
_прошептала	-11.0168
_ползуются	-11.0168
_глуп	-11.0168
_связан	-11.0175
_буржуазии	-11.0179
_нахожу	-11.0182
_шагу	-11.0182
_познания	-11.0186
_пул	-11.0186
аф	-11.0187
_уважение	-11.019
_болшинства	-11.0191
_художников	-11.0196
_старую	-11.0197
_собрал	-11.0198
_раскрыт	-11.02
_дрян	-11.02
_редакция	-11.02
_советская	-11.02
_человеческое	-11.0201
сс	-11.0202
_врача	-11.0204
_шарл	-11.0206
_армию	-11.0206
_собр	-11.0206
_поэты	-11.0207
нию	-11.0209
_отлич	-11.0211
_блеском	-11.0211
_последствия	-11.0211
_частями	-11.0212
_понемногу	-11.0214
_слушая	-11.0215
цион	-11.0215
_цыган	-11.0218
_франция	-11.0221
_окажется	-11.0222
рус	-11.0225
_тему	-11.0225
_далнеишем	-11.0225
_обедом	-11.0226
_данное	-11.0226
_изследован	-11.0226
_борт	-11.0226
_англичане	-11.0229
_юл	-11.0232
_распоряжении	-11.0232
_многочисленных	-11.0233
_стоимост	-11.0235
_носят	-11.0236
_деян	-11.0239
_защите	-11.024
_вост	-11.0242
_вызвал	-11.0243
_познакомится	-11.0243
неш	-11.0243
_скажете	-11.0245
_ордена	-11.0246
_смотрю	-11.0247
стра	-11.0249
эт	-11.025
рав	-11.025
_ходе	-11.0251
_спешит	-11.0251
_ганс	-11.0252
_документа	-11.0253
строи	-11.0253
_рок	-11.0254
_гроба	-11.0254
_маленкое	-11.0254
_страшнои	-11.0258
_писатели	-11.026
_уезд	-11.0261
_прокурор	-11.0262
_столицы	-11.0267
_известным	-11.0271
лят	-11.0271
_лан	-11.0274
_революц	-11.0274
ирует	-11.0275
_наслажден	-11.0282
_кан	-11.0283
_отличаются	-11.0285
_глубину	-11.0287
_изволте	-11.0288
_программы	-11.0289
_яковлевич	-11.029
_особенным	-11.0291
ющимися	-11.0291
_разговариват	-11.0292
_продат	-11.0292
_добродушно	-11.0293
_казак	-11.0295
_услышат	-11.0297
_родител	-11.03
_книгах	-11.0303
ающих	-11.0304
_обладает	-11.0306
_девушек	-11.0306
_лермонтов	-11.0307
_провинц	-11.0308
_сознавал	-11.0311
_долины	-11.0312
дом	-11.0314
_европеискои	-11.0314
_процессе	-11.0314
авшии	-11.032
_единого	-11.032
_полна	-11.0321
_обмен	-11.0323
_страстеи	-11.0326
_холоднои	-11.0328
_полше	-11.033
_спасител	-11.0331
_слабыи	-11.0333
_приятел	-11.0333
_составлен	-11.0334
_почувствовала	-11.0334
_обычаю	-11.0334
_проходя	-11.0334
_башни	-11.0334
_убииство	-11.0343
_черным	-11.0345
_жилище	-11.0346
_братцы	-11.0346
_боялас	-11.0346
_принимали	-11.0347
_яснее	-11.0349
_проходил	-11.0349
_известные	-11.0355
_устроил	-11.0356
_пром	-11.0357
_цареи	-11.0359
_бак	-11.0359
_знание	-11.0364
_глухои	-11.0366
_пуд	-11.037
_дыма	-11.0371
_принялис	-11.0373
_маркиза	-11.0374
_кивнул	-11.0377
_перемены	-11.0379
_небом	-11.0379
_установлено	-11.038
_обращатся	-11.0381
_артур	-11.0382
_высказал	-11.0382
_собственное	-11.0384
_лагеря	-11.0386
_исх	-11.0387
_самовар	-11.0387
_обязателства	-11.0389
_джо	-11.0389
_писали	-11.0391
_глубоким	-11.0395
лил	-11.0396
ившиися	-11.0397
_названия	-11.0397
_славныи	-11.0399
_надолго	-11.04
_палец	-11.04
_воспитание	-11.0401
_сот	-11.0403
_непрерывно	-11.0403
жат	-11.0405
_юля	-11.041
_стрел	-11.041
_тяжест	-11.0413
_чехову	-11.0413
_обвинен	-11.0413
_австрии	-11.0413
_окружен	-11.0415
_злобно	-11.0416
_соответствующих	-11.0419
_церквеи	-11.0419
вр	-11.042
_огорчен	-11.0421
_сурово	-11.0421
_хранит	-11.0421
_слушаю	-11.0424
_мут	-11.0426
_шп	-11.0426
_мешок	-11.0428
_иля	-11.0429
_смол	-11.0432
_итти	-11.0433
_лучшего	-11.0437
_мотив	-11.0438
_сум	-11.0439
_греки	-11.044
_понимая	-11.0441
_политические	-11.0441
_растения	-11.0442
_ожидали	-11.0443
_явилос	-11.0443
_билл	-11.0443
_неправда	-11.0444
_поднятся	-11.0446
_матрос	-11.0446
инка	-11.0446
_дождя	-11.0448
_опустив	-11.0449
_заметки	-11.0449
_сал	-11.0453
_ногои	-11.0453
_особенное	-11.0454
_государственные	-11.0455
_сделалис	-11.0459
_общины	-11.0462
_известна	-11.0463
_местечко	-11.0463
ата	-11.0464
_снизу	-11.0466
_одиннадцат	-11.0472
_социалного	-11.0476
_дура	-11.0476
_наедине	-11.048
_реже	-11.048
_люд	-11.0482
_несчастных	-11.0482
_дрож	-11.0488
_становился	-11.0489
_взялся	-11.049
_макар	-11.049
_зват	-11.049
_просили	-11.049
_лесом	-11.0491
_точка	-11.0492
зор	-11.0493
_сигнал	-11.0495
_дву	-11.0495
_принесла	-11.0497
учен	-11.0497
_цезар	-11.0501
_счел	-11.0502
_этак	-11.0503
_листа	-11.0504
_комед	-11.0504
_земелного	-11.0505
_прекрасные	-11.0505
_десятки	-11.0508
_дважды	-11.0509
_берлине	-11.051
_холода	-11.0513
_креп	-11.0514
бран	-11.0514
_залива	-11.0515
_тетка	-11.0516
_договору	-11.0517
_молитва	-11.0519
_появление	-11.052
_солдата	-11.0521
_устал	-11.0525
_святаго	-11.0525
_спрашиват	-11.0529
_ужасное	-11.053
_следил	-11.053
_убедился	-11.0531
_шт	-11.0532
_находящихся	-11.0532
_навеки	-11.0533
_выразил	-11.0534
_соглашения	-11.0534
_поза	-11.0534
_фер	-11.0534
_молодому	-11.0535
_диких	-11.0536
_перевел	-11.054
_поста	-11.0541
_книжку	-11.0542
_лвов	-11.0542
_министерство	-11.0543
_достигли	-11.0543
_неприятел	-11.0543
_жаловане	-11.0547
_личного	-11.0547
_папы	-11.0547
_ударом	-11.055
_деревен	-11.055
_прихода	-11.0551
_короткое	-11.0551
_просбои	-11.0553
_полза	-11.0553
_гарнизон	-11.0555
_позволил	-11.0556
ара	-11.0557
_коридор	-11.0557
_предков	-11.0559
_существоват	-11.0562
_стил	-11.0563
_избе	-11.0563
_доходов	-11.0565
_отвечали	-11.0566
_таинои	-11.0566
_жутко	-11.0566
_величеству	-11.0567
_силные	-11.0569
сел	-11.0573
_запрещен	-11.0575
_просбе	-11.0576
пс	-11.058
_ученики	-11.0581
гла	-11.0581
_поставили	-11.0581
_размеров	-11.0582
_напечатано	-11.0583
ыват	-11.0584
_горяч	-11.0586
пис	-11.0586
шее	-11.0586
_порядочно	-11.0586
елеи	-11.0587
_баирон	-11.0588
_бюро	-11.0593
_желании	-11.0594
_куски	-11.0596
_таможенного	-11.0598
_некоторыми	-11.06
_иерусалим	-11.0602
щие	-11.0604
_тихии	-11.0605
_забыв	-11.0606
_центре	-11.0607
иг	-11.0609
_храме	-11.061
_читали	-11.061
_живые	-11.0612
_легким	-11.0615
_доказывает	-11.0616
_врагом	-11.0617
_удара	-11.0617
_слушаите	-11.0618
_истине	-11.0619
_молодост	-11.062
_спокоиным	-11.0626
_коля	-11.0626
_термин	-11.063
_царевич	-11.0635
_кони	-11.0637
_обстановке	-11.0637
_товарищами	-11.0638
_административны	-11.0639
_господину	-11.0639
_перешли	-11.0642
_собственные	-11.0642
_мещан	-11.0642
_зеленыи	-11.0642
_началником	-11.0642
_течет	-11.0644
_секунду	-11.0644
_убор	-11.0646
_натуры	-11.0647
_богатые	-11.0647
_вином	-11.0651
_спи	-11.0654
_приняв	-11.0656
_уровня	-11.0656
_музеи	-11.0656
_прилич	-11.0657
_оставила	-11.0659
_австр	-11.0662
_получают	-11.0663
_полден	-11.0664
_нога	-11.0666
_нервы	-11.0667
_началства	-11.0669
_римскои	-11.0673
_спорит	-11.0674
_комиссар	-11.0676
_черном	-11.0678
_песок	-11.068
дор	-11.0682
_простых	-11.0683
_литературные	-11.0684
_зря	-11.0684
_усы	-11.0685
_уезде	-11.0686
_удал	-11.0687
_округ	-11.0687
_совершается	-11.0687
_находилос	-11.069
_помещение	-11.069
_оратор	-11.069
_сия	-11.0693
_мрачно	-11.0695
_урок	-11.0695
_встречал	-11.0697
_драматург	-11.0697
_хватает	-11.0698
_предстоит	-11.0699
сен	-11.0699
ическую	-11.07
_игру	-11.07
_тяжелои	-11.0702
_неболшая	-11.0703
_артист	-11.0707
_траве	-11.0712
_несчастнои	-11.0714
_вил	-11.0715
_кармане	-11.0716
_военную	-11.0717
_карамзин	-11.0717
_галл	-11.0718
_единственная	-11.0719
_библиотеки	-11.0719
_обяснение	-11.072
ция	-11.0723
_применение	-11.0725
_пламен	-11.0725
_верхнеи	-11.0725
_скрылся	-11.0726
_здорово	-11.0728
_заставило	-11.0728
раст	-11.073
_вдвое	-11.073
_могил	-11.0731
_произошла	-11.0733
_смеялся	-11.0734
_современник	-11.0735
_рабов	-11.0736
_избы	-11.0736
_наступила	-11.0736
_англииского	-11.0736
_тяжелым	-11.0737
_поидемте	-11.0737
_заснул	-11.074
_константинопол	-11.0742
_милосерд	-11.0743
шин	-11.0744
_потребовал	-11.0744
_парк	-11.0745
_поездки	-11.0746
_дворов	-11.0749
_символ	-11.0749
_побед	-11.0749
_брос	-11.0751
_рады	-11.0751
шен	-11.0752
ющую	-11.0753
_допускается	-11.0753
_окончан	-11.0754
бл	-11.0755
_пророка	-11.0756
_призыв	-11.0757
_тол	-11.0757
_святыи	-11.0757
_охоту	-11.076
_темных	-11.0762
_обеими	-11.0764
_почтен	-11.0766
_построики	-11.0767
_ео	-11.0768
_здании	-11.0771
_участника	-11.0772
тив	-11.0772
_гран	-11.0773
_француз	-11.0774
_хлопот	-11.0775
_возвращения	-11.0777
_участник	-11.0778
_баталон	-11.0779
_белинскии	-11.0781
_училища	-11.0783
_немецких	-11.0784
_фа	-11.0786
_страдании	-11.0786
_щит	-11.0787
_светлыи	-11.0792
_марте	-11.0794
_членами	-11.0796
_счастлива	-11.0796
_смеха	-11.0797
_дрожа	-11.0797
_молчит	-11.0799
_стремления	-11.0803
_револвер	-11.0804
_собирается	-11.0813
ющими	-11.0814
_намек	-11.0818
_отечественнои	-11.0821
_фонар	-11.0821
_плоти	-11.0822
_полши	-11.0825
_геине	-11.0826
_отчетливо	-11.0829
_возрасте	-11.0829
_новыя	-11.0832
_отзыв	-11.0832
_жаром	-11.0833
_связаны	-11.0835
_случается	-11.0836
_иванова	-11.0837
_знакомства	-11.0839
_драма	-11.0842
_выгоды	-11.0843
_илич	-11.0848
_заседания	-11.0848
_дума	-11.0848
_идею	-11.0852
_сообщает	-11.0853
_свидетелство	-11.086
_творчество	-11.0862
_появляется	-11.0865
_красивая	-11.0865
_перенес	-11.0866
_признал	-11.0866
_пятна	-11.0869
_изгнан	-11.087
_многочисленные	-11.087
_длиннои	-11.0871
_горкого	-11.0871
_сор	-11.0872
_вооруженных	-11.0873
_публике	-11.0875
_покров	-11.0877
_потеря	-11.0878
_источником	-11.088
_оперы	-11.0881
_принимают	-11.0884
_собственными	-11.0885
_митрополит	-11.0885
_терят	-11.0887
_философия	-11.0888
_волна	-11.0889
_увидав	-11.089
_никита	-11.0891
_наступление	-11.0892
_воспоминание	-11.0894
_проекта	-11.0894
_долгом	-11.0895
_ххи	-11.0898
_достал	-11.0905
_выполнения	-11.0907
_отчаяние	-11.0908
_высшее	-11.091
ряд	-11.0912
_высочество	-11.0914
_григор	-11.0915
ген	-11.0915
_гаван	-11.0916
_толстым	-11.0918
_окружающеи	-11.092
_слаб	-11.0922
_ют	-11.0924
ушки	-11.0926
_вызывает	-11.0928
_листов	-11.0929
_проходили	-11.0932
_особого	-11.0934
_владен	-11.0935
_языки	-11.0936
_народные	-11.0936
_тар	-11.0939
_разбоиник	-11.0941
_взглядов	-11.0941
_сухои	-11.0941
_выражается	-11.0942
_написана	-11.0945
_англичанин	-11.0946
_указанным	-11.0947
_замечания	-11.0948
_грехов	-11.0949
_учет	-11.0952
_порою	-11.0953
_перечен	-11.0953
_закончил	-11.0955
_огромнои	-11.0956
_сопровождении	-11.0959
_избу	-11.096
_прекратит	-11.0961
_придат	-11.0963
_исповед	-11.0963
_надлежит	-11.0964
_парад	-11.0966
несении	-11.0966
_чистыи	-11.0966
_христианство	-11.0968
_погубит	-11.097
_русско	-11.0971
олог	-11.0971
_старшего	-11.0972
_захотелос	-11.0972
_супруги	-11.0973
_общую	-11.0976
_знаи	-11.0978
_разрешит	-11.0979
_просвещен	-11.098
гул	-11.0981
_белое	-11.0982
очных	-11.0984
жал	-11.0988
ическое	-11.0995
_увижу	-11.0995
_теор	-11.0996
_залы	-11.0996
_освобождение	-11.0997
_княгини	-11.0998
_растен	-11.0999
_поддерживат	-11.1
_секунд	-11.1001
_представлят	-11.1003
_националного	-11.1003
овскои	-11.1003
_орден	-11.1005
_ходила	-11.1005
_говорим	-11.1006
_примечание	-11.1011
_питер	-11.1012
_техники	-11.1013
_понимают	-11.1014
_консул	-11.1014
_поколения	-11.1015
_обязателно	-11.1015
_верховныи	-11.1016
_дадут	-11.1018
_личных	-11.1019
_испании	-11.1021
_маз	-11.1022
_буквы	-11.1022
_хана	-11.1023
_особ	-11.1024
_интересах	-11.1027
_специалных	-11.1028
_пророк	-11.1029
_известност	-11.1029
_шепнул	-11.103
_садов	-11.103
_развитию	-11.1031
_обсуждение	-11.1033
_масло	-11.1033
_ап	-11.1035
_несправедливо	-11.1035
_напечатал	-11.1037
_пролетариата	-11.1038
_вселеннои	-11.1039
_евген	-11.1039
_удобно	-11.1042
_получается	-11.1043
_курса	-11.1045
_гении	-11.1046
_давала	-11.1046
_социалистическо	-11.1046
_моисеи	-11.1047
_сара	-11.1048
_мера	-11.1048
_употребит	-11.105
_матросы	-11.105
_сосуд	-11.1051
_четверти	-11.1054
дет	-11.1055
_поручик	-11.1055
_милои	-11.1056
_начнет	-11.1058
_колена	-11.1058
_редакцию	-11.1061
_великом	-11.1063
_реализации	-11.1063
_устава	-11.1065
_прибыт	-11.1066
чку	-11.1067
_жертва	-11.1069
пан	-11.1069
евскии	-11.107
кр	-11.1073
_телу	-11.1076
_политическии	-11.1077
_вечнои	-11.1077
пел	-11.1079
ини	-11.1079
_кризис	-11.108
_оглянулся	-11.108
_генри	-11.1081
_сестер	-11.1082
_значило	-11.1084
_поворот	-11.1084
_рассказов	-11.1084
_простого	-11.1085
_утверждение	-11.1086
_столб	-11.1086
_счастливы	-11.1087
_выходили	-11.1087
_указанного	-11.1087
_визит	-11.1087
чки	-11.1088
_важныи	-11.109
_лом	-11.109
_погоди	-11.1093
_живая	-11.1094
_сет	-11.1095
_занятся	-11.1096
_открытом	-11.1096
вет	-11.1097
_леонид	-11.1097
_родом	-11.1098
уч	-11.1102
_спокоиствие	-11.1103
_испытывал	-11.1104
_россииская	-11.1104
_внешних	-11.1104
_зима	-11.1105
_сыр	-11.1105
_сажен	-11.1106
_делаю	-11.1106
_гарантии	-11.1106
_будущеи	-11.1107
лег	-11.1109
_убииства	-11.1111
_поприще	-11.1114
_кад	-11.1115
_государственном	-11.1117
_похвал	-11.1119
_имеете	-11.1119
авшего	-11.112
ота	-11.112
_римлян	-11.1122
_духовенства	-11.1123
пт	-11.1125
_домах	-11.1126
_боитес	-11.1127
_танков	-11.1129
_привыкли	-11.113
_творит	-11.1131
_палубе	-11.1133
_копеек	-11.1134
_поехали	-11.1134
_траву	-11.1136
_тою	-11.1137
_пород	-11.1137
_волков	-11.1138
_недостатки	-11.1139
_древние	-11.1144
_глядет	-11.1144
_порыв	-11.1144
_беды	-11.1145
_приложен	-11.1146
_эпизод	-11.1147
_уважения	-11.1148
_шутку	-11.1148
_быстрее	-11.115
_копия	-11.1151
_аббат	-11.1152
_берегам	-11.1153
_элемент	-11.1154
_наблюдал	-11.1157
_встретится	-11.1157
_гостиную	-11.1159
_шумом	-11.1161
_державин	-11.1161
_утешен	-11.1162
_началнику	-11.1165
_давая	-11.1171
пы	-11.1175
_материала	-11.1177
_слушала	-11.1177
_потребности	-11.1178
_социал	-11.1179
_иер	-11.118
_железо	-11.1182
_порог	-11.1182
_малои	-11.1183
_похорон	-11.1189
_лар	-11.1191
_обоим	-11.1191
_общаго	-11.1191
луч	-11.1192
ест	-11.1194
_свадбы	-11.1194
_ползовалис	-11.1195
_почтенныи	-11.1197
_одежде	-11.1201
_заглавием	-11.1201
_председателем	-11.1203
_вожд	-11.1204
_богатыр	-11.1206
_наступил	-11.1206
эр	-11.1207
_заставила	-11.1208
_общин	-11.1208
_пару	-11.1212
_падение	-11.1213
_скончался	-11.1215
_экспедиции	-11.1218
_полиц	-11.1218
_делалос	-11.1218
_стыда	-11.122
_императору	-11.122
_дул	-11.1221
_головами	-11.1221
_петербургскои	-11.1223
_советовал	-11.1227
оне	-11.1227
_являлис	-11.1228
_играют	-11.1231
говор	-11.1234
_болшее	-11.1235
_представлении	-11.1236
_машина	-11.1237
_распространен	-11.1239
емого	-11.1239
_лучами	-11.1241
_задач	-11.1241
_фет	-11.1242
уш	-11.1243
_странная	-11.1244
нис	-11.1247
_выносит	-11.1248
_иси	-11.125
_экипажа	-11.1253
_упор	-11.1253
_бодр	-11.1254
ливая	-11.1254
_шагами	-11.1256
_экономического	-11.1256
_состояла	-11.1258
_пошлин	-11.126
_кверху	-11.126
сты	-11.126
_ожидает	-11.1261
_корм	-11.1261
_гармон	-11.1261
_научно	-11.1262
_открыла	-11.1263
бал	-11.127
_военная	-11.1274
_лавки	-11.1275
_особых	-11.1279
_рые	-11.1279
_слои	-11.1284
_собственному	-11.1284
дол	-11.1285
_рубеж	-11.1285
_кресле	-11.1286
_имение	-11.1287
_духовного	-11.1287
_вещества	-11.1287
шек	-11.1289
эл	-11.1291
_флаг	-11.1291
_относился	-11.1292
_вспоминал	-11.1295
_вернут	-11.1296
_беседу	-11.1297
_сомневатся	-11.1297
_положением	-11.1299
_моста	-11.1301
_единои	-11.1303
_лил	-11.1303
_негодован	-11.1304
_устанавливается	-11.1304
_началом	-11.1307
_холм	-11.1308
_андреев	-11.1309
_жалост	-11.1309
_окончания	-11.1311
_происхождение	-11.1311
_мах	-11.1312
ены	-11.1313
_бывш	-11.1314
_тр	-11.1316
_оста	-11.1316
_иоганн	-11.1317
_согласилас	-11.1318
_отчаяния	-11.1318
_видат	-11.1318
_прогресс	-11.1319
_темы	-11.1321
_тишине	-11.1323
бур	-11.1323
_воспитания	-11.1323
_чуд	-11.1323
_забав	-11.1324
ящ	-11.1325
_веселым	-11.1325
_народное	-11.1326
_разговоров	-11.1326
_колонны	-11.1329
_семена	-11.1329
_границе	-11.133
_мужика	-11.1331
бор	-11.1332
_домик	-11.1333
шую	-11.1334
_усмехнулся	-11.1343
_осени	-11.1344
_пишут	-11.1344
_необычаино	-11.1347
_образе	-11.1349
_отцы	-11.1353
рожден	-11.1354
_косы	-11.1356
бира	-11.1357
_описания	-11.1357
_гордости	-11.1357
_молчи	-11.1359
анов	-11.136
вшую	-11.1362
_кинжал	-11.1365
_култ	-11.1367
_железных	-11.137
_сокол	-11.137
_выкуп	-11.1371
_гамлет	-11.1372
_отличие	-11.1372
_трубку	-11.1373
_публику	-11.1374
_собственныи	-11.1374
_переписка	-11.1375
_лучш	-11.1379
_устроен	-11.1379
_сша	-11.1379
_громче	-11.138
_здравствуите	-11.138
_покачал	-11.1382
_свидетелствует	-11.1383
_помощник	-11.1384
_форт	-11.1384
_схватит	-11.1385
_самостоятелно	-11.1386
_снегу	-11.1386
_хорошеи	-11.139
_разрыв	-11.1392
_руководство	-11.1394
_тоски	-11.1397
_удовлетворит	-11.1397
_литературу	-11.1397
_муз	-11.1403
_благодарности	-11.1404
_эксплуатации	-11.1406
_токмо	-11.141
_авраам	-11.141
_кончит	-11.141
_немецкои	-11.1411
_мудрости	-11.1412
иста	-11.1415
_одежда	-11.1417
_кормит	-11.1418
_подписи	-11.142
_дополнително	-11.142
_единство	-11.142
_сердится	-11.142
_встает	-11.1421
_обем	-11.1421
_августе	-11.1423
_стон	-11.1425
_старатся	-11.1427
_топ	-11.1428
ствоват	-11.143
_лицах	-11.1431
_скрип	-11.1433
_леп	-11.1433
_честно	-11.1435
_бедные	-11.1435
_значителное	-11.1437
_новости	-11.144
_французски	-11.1442
_пас	-11.1442
_шутки	-11.1443
_высшим	-11.1443
_марка	-11.1445
_усерд	-11.1445
_расположение	-11.1446
_управлят	-11.1447
_пролив	-11.1449
нес	-11.1451
_старш	-11.1452
_дошло	-11.1454
нку	-11.1454
_кассационно	-11.1455
_раздражен	-11.1456
_умру	-11.146
_мастера	-11.1461
_государственная	-11.1461
_исползоват	-11.1462
_приют	-11.1463
_напечатан	-11.1464
_избежат	-11.1464
_приложение	-11.1466
_дохода	-11.1466
_невесты	-11.1466
_дворянства	-11.1468
_немец	-11.147
_пределов	-11.1473
_речеи	-11.1473
_жид	-11.1473
_поверте	-11.1475
_фронт	-11.1479
_кожа	-11.1479
емое	-11.1482
_добычу	-11.1483
_порядку	-11.1483
_отыскат	-11.1483
_глупост	-11.1483
_несчастная	-11.1483
_обнял	-11.1484
_прилично	-11.1485
_жуковского	-11.1485
руж	-11.1486
зи	-11.1486
_падали	-11.1486
ация	-11.1488
_вавилон	-11.1489
_самгин	-11.149
_воевода	-11.149
_несправедливост	-11.1492
_метров	-11.1493
_употреблен	-11.1493
_демон	-11.1494
_прочитал	-11.1495
вещ	-11.1495
_испугался	-11.1499
_служащих	-11.15
_показатся	-11.15
_простые	-11.1503
_брон	-11.1503
_находили	-11.1506
_должностных	-11.1507
лад	-11.1507
_доселе	-11.1507
_поляков	-11.1509
_пусто	-11.1509
_хлебом	-11.1509
_корабли	-11.1511
_восторге	-11.1513
_приехат	-11.1514
_важным	-11.1518
_высоким	-11.1519
_окнами	-11.1519
_тексту	-11.152
_числом	-11.152
_необходимых	-11.1522
_написаны	-11.1523
_романе	-11.1524
_пустыни	-11.1524
_вовремя	-11.1524
_причинам	-11.1525
_смеялис	-11.1525
_точности	-11.1526
_грац	-11.1527
_нравы	-11.1528
_московском	-11.1528
_тиран	-11.1529
_горничная	-11.1531
_немногих	-11.1532
_коего	-11.1532
_коллегия	-11.1533
_благородныи	-11.1534
_переведен	-11.1536
_ревност	-11.1536
_меру	-11.1537
_передачи	-11.154
_изучения	-11.154
_караван	-11.1541
_полагал	-11.1547
_бояре	-11.1547
_суп	-11.1548
_покоиного	-11.1549
_стиха	-11.1551
_баи	-11.1553
_праву	-11.1553
_уныло	-11.1553
_победит	-11.1554
_усиленно	-11.1555
_севере	-11.1557
_борода	-11.1558
_стада	-11.1559
нт	-11.1559
фе	-11.1559
_удовлетворен	-11.1561
_возбужден	-11.1561
_ххх	-11.1564
_различие	-11.1564
пре	-11.1569
_освящен	-11.157
_уходил	-11.1572
_хороши	-11.1572
_породы	-11.1578
_прожит	-11.158
_якобы	-11.158
_добром	-11.1583
_вступления	-11.1585
_мала	-11.1586
_благодетел	-11.1587
шис	-11.1588
_железа	-11.1588
_топор	-11.1591
_маленким	-11.1594
_эдуард	-11.1597
_угля	-11.1598
_костер	-11.1601
_скуп	-11.1601
_бороду	-11.1602
_изображение	-11.1603
_малчики	-11.1603
_мечтал	-11.1604
_предлагал	-11.1606
_поручил	-11.1608
_центра	-11.1608
_адолф	-11.1609
_уверенност	-11.1609
_фоне	-11.1611
сом	-11.1613
_беседа	-11.1614
зем	-11.1614
_лорда	-11.1614
_эффект	-11.1616
_безобраз	-11.1617
_поднимается	-11.1619
_достигает	-11.162
_женат	-11.162
_обидно	-11.1621
_петру	-11.1621
_эконом	-11.1621
_расп	-11.1622
_землею	-11.1623
щиков	-11.1624
_материи	-11.1624
_обыкновен	-11.1625
_желанию	-11.1627
_начался	-11.1628
шему	-11.163
зен	-11.1631
_подняли	-11.1631
_выступает	-11.1632
_посетил	-11.1634
_познан	-11.1635
_наблюден	-11.1638
_таможенно	-11.1638
_мудрост	-11.1639
пил	-11.1639
_утверждал	-11.164
_отчета	-11.164
_ошибся	-11.1641
_упоминается	-11.1642
_отличался	-11.1644
_лап	-11.1644
_климат	-11.1644
_морского	-11.1645
_бедным	-11.1645
_истинное	-11.1645
_любопытно	-11.1646
_старом	-11.1646
_мужество	-11.1647
_амур	-11.1654
_оставляет	-11.1654
_спасение	-11.1657
_жир	-11.166
_важност	-11.166
_чя	-11.1662
_тоску	-11.1663
_матросов	-11.1663
_шан	-11.1664
_доходы	-11.1664
_нит	-11.1664
_надзор	-11.1667
_атлас	-11.1668
_вариант	-11.1669
_электро	-11.1669
бург	-11.167
_полевои	-11.1674
_настоичиво	-11.1674
_семенович	-11.1674
_участи	-11.1675
_писания	-11.1677
_приняты	-11.1678
_сделки	-11.1678
дж	-11.1682
_высказат	-11.1683
_характером	-11.1683
_пристани	-11.1683
овали	-11.1685
_погребен	-11.1686
_автомобил	-11.169
_примерно	-11.169
авш	-11.169
_ели	-11.169
_блока	-11.1691
_годится	-11.1693
_суток	-11.1693
_трои	-11.1694
_недостатка	-11.1694
_подумаите	-11.1695
_находят	-11.1696
_богиня	-11.1699
_лучеи	-11.1699
_торговых	-11.1702
_вздумал	-11.1705
_сообщение	-11.1708
_перехода	-11.1708
_старики	-11.1708
_лжи	-11.171
_шу	-11.1711
_литературныи	-11.1712
_быстротои	-11.1713
_дипломат	-11.1713
_терпен	-11.1715
_овладет	-11.1717
_поэма	-11.1717
_настоящему	-11.1718
_людмила	-11.1721
_сопротивление	-11.1721
_выходят	-11.1722
_встат	-11.1725
_боялис	-11.1725
_усовершенствова	-11.1725
_отныне	-11.1726
лд	-11.1727
_восстания	-11.1728
_улица	-11.1731
_предпринят	-11.1734
_сентябр	-11.1734
_годом	-11.1737
_полюбил	-11.1737
_чудес	-11.1738
рет	-11.1738
_характере	-11.1738
_послали	-11.1739
_выпустил	-11.1741
_оставляя	-11.1741
_набор	-11.1742
_купцы	-11.1743
_спали	-11.1743
_переворот	-11.1744
_обител	-11.1744
_столице	-11.1744
_покор	-11.1749
_встретила	-11.1749
цкии	-11.175
_лениво	-11.175
_счастливыи	-11.1751
_нападения	-11.1753
_предлогом	-11.1754
_предо	-11.1754
_повторила	-11.1755
_доля	-11.1756
_знакомы	-11.1756
_таможенных	-11.176
_учета	-11.176
_оправдан	-11.1762
_реформы	-11.1768
_обыкновению	-11.1768
_прикрыт	-11.177
ическ	-11.177
_знании	-11.177
_энергично	-11.1771
_полны	-11.1773
_исправлен	-11.1774
_обители	-11.1775
_евгении	-11.1775
_нек	-11.1782
_благ	-11.1784
_свидетелеи	-11.1785
иса	-11.1787
_нана	-11.1787
ковскии	-11.1788
очке	-11.1796
_колокола	-11.1797
_заводов	-11.1798
_красных	-11.1799
_назначил	-11.1802
_отрицателно	-11.1803
_родственников	-11.1805
_жажда	-11.1807
_трус	-11.1807
нова	-11.1808
_ов	-11.1812
_выидя	-11.1812
кер	-11.1813
_явля	-11.1814
_основу	-11.1817
_перенести	-11.1817
лл	-11.1817
_купца	-11.1818
_показывал	-11.1818
зу	-11.182
_признак	-11.182
_берут	-11.1821
_паспорт	-11.1827
_показывая	-11.1829
_спорам	-11.1829
_поступки	-11.1829
_мк	-11.183
_встретилис	-11.183
_судебном	-11.183
_повар	-11.1831
_воров	-11.1833
_поведен	-11.1836
_важные	-11.1837
_посылает	-11.1837
_библии	-11.1837
_иудеи	-11.1838
_отсутствии	-11.184
_метод	-11.1841
_скверно	-11.1842
_счастливым	-11.1842
_черное	-11.1844
_вооружен	-11.1846
_воображение	-11.1847
_громким	-11.1849
_саж	-11.1849
_имп	-11.1851
суд	-11.1852
_потерят	-11.1854
_пе	-11.1857
_ползования	-11.1857
_меди	-11.1858
_подобныи	-11.1858
_парламента	-11.1859
_приходят	-11.1861
_преступлении	-11.1863
_держится	-11.1863
_лодке	-11.1864
_приложил	-11.1865
_василев	-11.1865
_заслуживает	-11.1866
_человеческии	-11.1866
_всею	-11.1867
пла	-11.1867
_профессором	-11.1867
_франк	-11.1868
_республик	-11.187
_дыхан	-11.1873
_судебная	-11.1875
_оружием	-11.1876
_колонии	-11.1876
_отметит	-11.1877
_называются	-11.1877
_отрывок	-11.1877
_правую	-11.1878
_пение	-11.188
_божества	-11.188
_паруса	-11.1882
_знамя	-11.1882
_фар	-11.1883
_существовало	-11.1884
_положила	-11.1884
_европу	-11.1884
_жилища	-11.1886
_резултатов	-11.1886
_подоити	-11.1888
_букет	-11.1889
щен	-11.1889
_муниципалных	-11.189
_верным	-11.189
прав	-11.1891
_исторического	-11.1891
ител	-11.1892
_нарушен	-11.1893
_аксаков	-11.1897
_кредитнои	-11.1899
_ужасныи	-11.1899
_джемс	-11.1899
_бас	-11.19
_даваите	-11.1901
_божие	-11.1901
_проход	-11.1902
_электронно	-11.1902
_выборах	-11.1902
_кр	-11.1903
неиших	-11.1903
_погреб	-11.1906
_ярост	-11.1906
_положили	-11.1908
_разговоре	-11.1909
_справится	-11.191
_искренне	-11.1913
_наидете	-11.1913
_страшным	-11.1913
_зала	-11.1914
_мм	-11.1915
_могиле	-11.1915
_тверд	-11.1916
_анне	-11.1917
_разделит	-11.1918
_скромно	-11.1919
_успехи	-11.192
_парохода	-11.192
_команды	-11.1921
_переносит	-11.193
_били	-11.1932
_тяжелых	-11.1933
пор	-11.1934
_грозно	-11.1936
_ши	-11.1936
_кун	-11.1937
_пустит	-11.1939
_соображен	-11.1941
_масла	-11.1942
_бре	-11.1942
_меншеи	-11.1943
_привело	-11.1944
_сезд	-11.1945
гин	-11.1946
_занимат	-11.195
_исследовании	-11.195
_попа	-11.1951
_сб	-11.1951
_почвы	-11.1953
_страшные	-11.1953
_греции	-11.1954
_ошибку	-11.1954
ником	-11.1955
_пожара	-11.1955
_опустился	-11.1958
_артанян	-11.1959
_залог	-11.196
_распространение	-11.1961
_предосторожност	-11.1964
_открытия	-11.1964
_надет	-11.1964
_виднелис	-11.1965
яр	-11.1965
_детстве	-11.1966
_дна	-11.1966
_иска	-11.1968
_образов	-11.1968
_искусством	-11.1971
_остроум	-11.1972
_заключает	-11.1972
_нижнеи	-11.1973
нных	-11.1974
_поутру	-11.1975
_почву	-11.1977
_выехал	-11.1978
_гнездо	-11.1978
_поют	-11.1979
_дочереи	-11.1981
_силнои	-11.1981
_стенами	-11.1982
овича	-11.1982
_основал	-11.1983
_трети	-11.1983
_реформ	-11.1983
инов	-11.1983
_убеждения	-11.1985
_освобождения	-11.199
_избавится	-11.199
бин	-11.1991
рем	-11.1991
_вез	-11.1993
_монахи	-11.1993
_имения	-11.1994
_моск	-11.1995
_разсужден	-11.1997
_искали	-11.1997
_снегом	-11.1998
_потеряли	-11.1998
_статуи	-11.1999
_слеп	-11.2
_записка	-11.2002
_мучително	-11.2002
_камер	-11.2002
_свидетел	-11.2003
нец	-11.2003
_сонет	-11.2006
_восторженно	-11.2007
_захватит	-11.2012
_содержанию	-11.2014
_книжка	-11.2015
_спала	-11.2016
_выбрат	-11.2017
_обращая	-11.2017
_простая	-11.2018
_видали	-11.2019
_вполголоса	-11.2019
_подоидя	-11.2019
_яица	-11.2021
_полеи	-11.2023
кан	-11.2024
_посвятил	-11.2025
_главу	-11.2025
_натура	-11.2026
_моею	-11.2029
ирован	-11.203
_корабле	-11.203
бар	-11.203
_работали	-11.2031
_представителя	-11.2031
_приготовления	-11.2031
_святым	-11.2032
_приступ	-11.2032
_исе	-11.2033
_слепои	-11.2033
_транспорт	-11.2034
_награжден	-11.2035
_гулят	-11.2036
_семенов	-11.2038
_здравствуи	-11.204
_монет	-11.2043
_телефон	-11.2043
_смес	-11.2044
_подданных	-11.2045
_споры	-11.2045
_парус	-11.2046
_раст	-11.2051
_принципы	-11.2052
быт	-11.2053
_кафтан	-11.2053
енного	-11.2053
_отделение	-11.2053
_круто	-11.2054
еров	-11.2054
_продажи	-11.2057
_фигур	-11.2057
_особым	-11.2064
_соседнеи	-11.2066
_студентов	-11.2068
_защита	-11.2068
_ставил	-11.2068
енным	-11.2069
_пали	-11.207
_ари	-11.207
_отпустит	-11.207
_военное	-11.2073
_послание	-11.2074
_признание	-11.2077
_участвоват	-11.208
_европа	-11.208
_уничтожен	-11.2083
лич	-11.2084
_сладост	-11.2084
_удержатся	-11.2084
_обид	-11.2085
_умен	-11.2087
_краски	-11.2088
_бунт	-11.209
_смирен	-11.2091
аг	-11.2092
_соловева	-11.2094
_востоку	-11.2097
_течения	-11.2099
_передаче	-11.2103
_леснои	-11.2103
_восстание	-11.2104
_приближа	-11.2104
_шутка	-11.2108
_получен	-11.2109
_степанович	-11.2109
_уроки	-11.211
_деревями	-11.2111
_прожил	-11.2111
_шара	-11.2112
_подарил	-11.2113
_страхов	-11.2113
_размещения	-11.2114
_церковю	-11.2116
_поистине	-11.2119
_резултатом	-11.2119
ении	-11.212
_бегут	-11.2121
_этаже	-11.2122
_контракт	-11.2123
_вниманием	-11.2124
_анализ	-11.2125
_выбрал	-11.2125
_волеи	-11.2126
_согласилис	-11.2126
_пролет	-11.2126
_интеллигенции	-11.2127
_подвод	-11.2129
_билет	-11.2129
_любимои	-11.213
_награду	-11.2133
уса	-11.2133
_годами	-11.2134
_древнего	-11.2135
_сергея	-11.2136
_сообразно	-11.2136
_тютчев	-11.2136
_музыке	-11.2138
_прочее	-11.2138
_привычка	-11.2139
_неболшое	-11.2142
_ограничен	-11.2143
_букв	-11.2143
_департамента	-11.2144
_бумаге	-11.2145
_обращался	-11.215
_бегство	-11.2151
_старше	-11.2152
_друзям	-11.2153
_продуктов	-11.2156
_злобы	-11.2156
_просбы	-11.2157
_переводы	-11.2158
уха	-11.2158
жил	-11.2159
_кат	-11.2162
_кажутся	-11.2164
_находяс	-11.2165
_крае	-11.2165
_говорилос	-11.2165
шит	-11.2166
_прекрасных	-11.2166
_царское	-11.2168
_мероприятии	-11.2169
_девяти	-11.2172
_курил	-11.2172
ланд	-11.2172
_рам	-11.2174
_клин	-11.2174
_публикации	-11.2175
_важности	-11.2176
_дневнике	-11.2176
иды	-11.2178
_костя	-11.2179
_следуя	-11.2181
_горели	-11.2181
_писму	-11.2183
_данныи	-11.2183
город	-11.2183
_вскрикнул	-11.2186
_кучер	-11.2186
_образцов	-11.2187
_ценност	-11.2188
_крикнула	-11.219
_происхожден	-11.219
_образовании	-11.2191
_спора	-11.2194
_испытат	-11.2195
_обещание	-11.2196
_михаилов	-11.2198
_алгасов	-11.22
_брит	-11.2202
_вздох	-11.2202
_бют	-11.2202
_продолжалос	-11.2205
_честное	-11.2205
_духовенство	-11.2205
_жу	-11.2205
_северу	-11.2214
_поближе	-11.2214
_царстве	-11.2215
лог	-11.2221
_вечерам	-11.2221
_страниц	-11.2222
_алексеев	-11.2223
_дор	-11.2223
_мур	-11.2225
_урод	-11.2225
_малу	-11.2226
_руссо	-11.223
гл	-11.2233
_царскои	-11.2233
лян	-11.2233
евых	-11.2242
_мужиков	-11.2244
_уехала	-11.2244
_источника	-11.2245
вест	-11.2247
_девочку	-11.2248
_процессуалного	-11.2248
_сроки	-11.225
_трактир	-11.2251
_погружен	-11.2251
ообраз	-11.2252
ицкии	-11.2253
_родные	-11.2253
_близок	-11.2254
_долше	-11.2254
_морал	-11.2254
_современника	-11.2255
_вырос	-11.2256
_звания	-11.2256
_совете	-11.2257
_начинаю	-11.2258
_различными	-11.2259
_величаиш	-11.2259
_существ	-11.226
аш	-11.2263
_горных	-11.2263
гел	-11.2264
_юге	-11.2264
_огромная	-11.2265
фф	-11.2266
_темная	-11.2267
_дышат	-11.2267
_асе	-11.2269
_позвал	-11.227
_тягост	-11.2271
_ввел	-11.2273
_юр	-11.2273
_дается	-11.2279
_легкои	-11.228
_предположит	-11.2281
_композитор	-11.2283
_карета	-11.2283
_среду	-11.2285
_похожи	-11.2286
_имеющие	-11.2293
_банков	-11.2295
_сокровища	-11.2296
иты	-11.23
_наиден	-11.2301
_акции	-11.2301
_могила	-11.2303
_леон	-11.2304
_японцев	-11.2305
_впал	-11.2306
_мужеи	-11.2308
_дружески	-11.2312
_попали	-11.2314
_един	-11.2314
_свеж	-11.2314
_задачеи	-11.2314
_счета	-11.2315
_силен	-11.2315
_протест	-11.2316
_соседеи	-11.2319
_берегах	-11.2319
_костеи	-11.2321
_возвращаяс	-11.2324
_третем	-11.2324
_юныи	-11.2324
иф	-11.2325
_сознатся	-11.2326
ключ	-11.2327
_предоставит	-11.2328
_легкии	-11.2331
_искусству	-11.2335
_небрежно	-11.2336
_нрав	-11.2338
_нравственности	-11.2338
_гвардии	-11.2338
_людовика	-11.2338
_широк	-11.234
_включен	-11.2341
_свободного	-11.2341
_окном	-11.2345
_страдат	-11.2345
_малеишеи	-11.2346
_полет	-11.2347
_соединения	-11.2349
_полов	-11.235
_общественные	-11.235
_рога	-11.2351
_собственном	-11.2353
_славе	-11.2354
_встретился	-11.2354
_ступени	-11.2355
_ярослав	-11.2356
_показан	-11.236
гра	-11.2361
_промышленност	-11.2362
_заводы	-11.2364
_аристократ	-11.2365
_реи	-11.2366
_ссылки	-11.2367
_бормотал	-11.2367
_слышите	-11.2369
_уч	-11.2369
ож	-11.2369
мысл	-11.2373
_благодарен	-11.2374
_широкое	-11.2374
_вагон	-11.2376
_основы	-11.2377
_утверждат	-11.2378
авшеи	-11.2379
_волости	-11.238
_махнул	-11.2381
_соблазн	-11.2382
_валер	-11.2389
кнул	-11.2389
_сделаны	-11.2391
_голубои	-11.2392
зин	-11.2394
_гм	-11.2395
_появилос	-11.2396
_жалованя	-11.2396
_держался	-11.2397
_ручку	-11.2404
_неболшую	-11.2404
_выходе	-11.2404
_врагами	-11.2405
_яд	-11.2409
_ремонт	-11.241
_графини	-11.2412
_дана	-11.2414
_серебра	-11.2414
_наиду	-11.2416
_умеют	-11.2416
оч	-11.2417
_основател	-11.2418
_безмолвно	-11.2419
_учебных	-11.2421
_велит	-11.2422
_мебел	-11.2423
_оф	-11.2424
_практике	-11.2424
_множества	-11.2424
_бросила	-11.2424
_раздалис	-11.2425
_незнаком	-11.2427
_девицы	-11.2428
нныи	-11.2431
_проведении	-11.2431
_быта	-11.2432
_камнями	-11.2433
_московские	-11.2433
_ростом	-11.2433
_нетерпением	-11.2435
_изучен	-11.2435
_группу	-11.2436
_написан	-11.2436
_резерв	-11.2436
_животные	-11.2437
_приду	-11.2437
_свободное	-11.2437
_образу	-11.2439
_обряд	-11.2439
_полные	-11.244
_наполовину	-11.2441
_попробовал	-11.2441
тяж	-11.2441
_ци	-11.2443
_местные	-11.2443
_земного	-11.2443
ац	-11.2444
_сношения	-11.2445
_привязанност	-11.245
_способы	-11.245
_патриарх	-11.2451
_грозныи	-11.2453
_свидание	-11.2454
_ужасе	-11.2456
_настоящих	-11.2457
_вечныи	-11.2457
гал	-11.2461
_сердечно	-11.2462
_вопросами	-11.2463
_послышалис	-11.2464
_сергеевна	-11.2466
_источники	-11.2467
_скрыват	-11.2467
_узнаю	-11.247
_комедия	-11.2472
_июл	-11.2474
нах	-11.2474
_показания	-11.2475
_сохранилис	-11.2475
_станем	-11.2476
_организм	-11.2477
_художеств	-11.2479
ук	-11.248
_понимали	-11.248
_надежд	-11.2482
_возраст	-11.2483
_сената	-11.2485
_пунктов	-11.2485
_капиталистическ	-11.2485
_представляла	-11.2486
_рабочим	-11.2488
_малых	-11.2491
_едем	-11.2493
_повиноватся	-11.2493
_постараюс	-11.2493
_пехоты	-11.2493
_диване	-11.2494
_листок	-11.2495
вшагося	-11.2496
_стена	-11.2497
_тетя	-11.2498
_декабре	-11.2499
_опыты	-11.25
_частнои	-11.25
_карету	-11.2504
_поболше	-11.2505
_приступит	-11.2506
_местам	-11.2506
_промолвил	-11.2509
_лун	-11.2511
_золотая	-11.2513
_понятии	-11.2513
_бедного	-11.2514
_звал	-11.2514
_хмел	-11.2515
_неправилно	-11.2515
_проидя	-11.2516
_становилис	-11.2517
_тим	-11.2519
_ятеля	-11.2521
_добратся	-11.2522
_каменныи	-11.2522
_четверо	-11.2523
_остро	-11.2525
_наличии	-11.2528
_свидетелства	-11.2529
_турки	-11.253
_требовали	-11.2532
_приехала	-11.2533
_введен	-11.2537
_ущерб	-11.2539
_плут	-11.254
_серые	-11.2544
_желали	-11.2546
_планов	-11.2546
_кабы	-11.2546
_определяет	-11.2546
_дурного	-11.2546
изации	-11.2547
_процент	-11.2549
_искусств	-11.2551
_собственную	-11.2552
_уидет	-11.2552
_вступает	-11.2554
_умират	-11.2557
_тексте	-11.2558
_газа	-11.2559
_главную	-11.2561
_тяжелая	-11.2563
_номера	-11.2564
_забыват	-11.2566
_вызов	-11.2569
_табак	-11.2572
_разорен	-11.2573
_возникает	-11.2575
_спалню	-11.2575
_шит	-11.2575
_пропал	-11.2576
_реестр	-11.2581
_организациеи	-11.2581
_мозга	-11.2581
_квартира	-11.2583
_бери	-11.2586
_снаружи	-11.2586
_прекрасным	-11.2587
_неудобно	-11.2587
_спустился	-11.2588
_дико	-11.2589
лина	-11.2591
_центром	-11.2594
_бросится	-11.2596
_зрител	-11.2598
_наименование	-11.2599
_линия	-11.2601
_здоровы	-11.2602
_езд	-11.2602
_старухи	-11.2604
_графом	-11.2605
_представте	-11.2606
_розанов	-11.2606
_собрался	-11.2607
_кружок	-11.2609
_летит	-11.261
_освещен	-11.261
_голицын	-11.2611
_христианскои	-11.2612
_противно	-11.2614
сан	-11.2615
_апреле	-11.2616
_грудю	-11.2616
_разнообраз	-11.2616
_политического	-11.2618
_петербургского	-11.2618
ящих	-11.2619
_предоставления	-11.262
_гу	-11.262
_чист	-11.2621
_нечаянно	-11.2621
_наружу	-11.2621
_красными	-11.2623
_длина	-11.2624
_весною	-11.2624
_авторов	-11.2625
_читая	-11.2626
_договоров	-11.2627
_лис	-11.2628
_карта	-11.2629
_дрова	-11.263
_обвинения	-11.263
_добры	-11.2631
_соборе	-11.2632
евым	-11.2632
_гусар	-11.2634
_глубок	-11.2635
_эпоха	-11.2635
_учителеи	-11.2636
_положив	-11.2636
_димитрии	-11.2636
_двинулся	-11.2637
_месяце	-11.2639
ливат	-11.2639
_красное	-11.2642
ада	-11.2642
_входил	-11.2642
_пожалуите	-11.2645
_представляли	-11.2646
_посла	-11.2647
_разныя	-11.2649
_почва	-11.2649
_мнении	-11.2651
_государственную	-11.2654
_подчинен	-11.2655
_дроб	-11.2656
_стою	-11.2656
_потихонку	-11.2656
_носу	-11.2656
_организма	-11.2656
_труднее	-11.2658
_слушает	-11.2658
_барина	-11.2659
_опасаяс	-11.2662
_новост	-11.2663
_улыбался	-11.2663
_произносит	-11.2663
ог	-11.2664
_проведение	-11.2666
_якор	-11.2667
_дружба	-11.2668
_подписан	-11.267
_марфа	-11.2671
_сыновя	-11.2671
_султан	-11.2671
_ол	-11.2675
_сравнен	-11.2676
_обяснял	-11.2678
руб	-11.2679
роз	-11.2679
_пушек	-11.268
_нар	-11.268
_видна	-11.2682
_поведение	-11.2683
_странные	-11.2683
_желаем	-11.2684
_церковных	-11.2685
_услугу	-11.2685
_дворянин	-11.2686
_пота	-11.2687
_исторические	-11.2688
_чиновники	-11.269
_типограф	-11.2693
_толстыи	-11.2693
_обиды	-11.2695
_беи	-11.2696
_кухне	-11.2697
син	-11.2698
_ваня	-11.2698
_здорова	-11.27
_суды	-11.27
_величаишим	-11.27
_январе	-11.27
_сенор	-11.2702
_клим	-11.2703
_вынес	-11.2705
_принялас	-11.2706
ивших	-11.2709
_особенного	-11.2709
_зимою	-11.271
_заключении	-11.2711
_дивизия	-11.2711
_архиепископ	-11.2712
_поддержат	-11.2713
ад	-11.2715
_простое	-11.2715
_нижнем	-11.2715
_тронут	-11.2716
_торжества	-11.2716
_унтер	-11.2717
_забор	-11.2717
_дж	-11.2718
_оставлен	-11.2718
_миф	-11.2718
_колеса	-11.2718
_ответом	-11.2719
ическим	-11.2721
_бессознателно	-11.2723
_кав	-11.2728
_внутреннее	-11.2729
_понимала	-11.2732
_фонтан	-11.2733
_боися	-11.2734
_вскричала	-11.2736
_привлеч	-11.2738
_жест	-11.2739
_буде	-11.2739
_улиц	-11.274
_следов	-11.2741
_истинным	-11.2743
_плане	-11.2744
_поэтом	-11.2744
_искр	-11.2745
_столовую	-11.2745
_стараются	-11.2746
цен	-11.2748
_стихии	-11.2748
_связанные	-11.2748
_зов	-11.2749
_пожелал	-11.275
_прислат	-11.2751
пал	-11.2752
зер	-11.2752
_конверт	-11.2756
_шире	-11.2757
_изменение	-11.2759
_донос	-11.276
_лесах	-11.2761
_молока	-11.2763
_плечах	-11.2765
_размеры	-11.2765
_зеленые	-11.2769
_разочарован	-11.2771
_нравов	-11.2771
_устах	-11.2773
_изучал	-11.2774
_даты	-11.2774
_божиеи	-11.2775
лат	-11.2775
ающие	-11.2777
_защитит	-11.2779
_всяким	-11.2779
_расскажу	-11.278
_приобрел	-11.2781
_окружающих	-11.2781
_государством	-11.2782
_сестрои	-11.2782
_привела	-11.2783
_сыщик	-11.2784
_наступает	-11.2786
_широкие	-11.2787
_сохранил	-11.2787
_замечание	-11.2788
_зимы	-11.2789
_рабочеи	-11.2789
_открытым	-11.279
_подлец	-11.2791
_десятин	-11.2791
_изделия	-11.2792
_горю	-11.2792
_полюбит	-11.2792
_злые	-11.2793
_милые	-11.2793
_сходит	-11.2796
_удалится	-11.2802
_пудов	-11.2804
_неверно	-11.2804
_пад	-11.2805
_напаст	-11.2805
_незнакомец	-11.2805
_поглядел	-11.2806
_лучшии	-11.2806
_высокое	-11.2808
_бестужев	-11.2809
_адресу	-11.281
нк	-11.281
_триста	-11.2811
_корпорации	-11.2812
_виш	-11.2812
_удавалос	-11.2815
_вещах	-11.2816
ича	-11.2816
_звучит	-11.2816
_лав	-11.2817
_вопросе	-11.2819
_поневоле	-11.2822
_вывести	-11.2822
_учителем	-11.2825
_вопросах	-11.2826
неишим	-11.2827
ствует	-11.2828
_кухню	-11.2828
_контракта	-11.2828
_базар	-11.2829
_глагол	-11.283
_вздохом	-11.2831
_свободныи	-11.2831
_леч	-11.2832
_заявлен	-11.2834
_игнат	-11.2835
_рубл	-11.2836
_надеяс	-11.2836
_францию	-11.2838
_серыи	-11.2838
_похожа	-11.2839
_шапки	-11.284
_занимается	-11.2841
сад	-11.2841
_церковнои	-11.2842
ура	-11.2842
_октав	-11.2844
шке	-11.2846
_охотники	-11.2847
_вторым	-11.2848
_гус	-11.2848
_погибли	-11.2849
_поселился	-11.285
ившиеся	-11.2851
_описат	-11.2851
_сражения	-11.2852
_единственнои	-11.2856
_последствии	-11.2856
_рож	-11.2857
_человеческая	-11.2857
_группе	-11.2858
_высокую	-11.2858
_арест	-11.2858
_стула	-11.2859
_трактат	-11.286
_погибнут	-11.2861
_держали	-11.2862
_подобным	-11.2862
_огород	-11.2862
истыи	-11.2862
_женщинам	-11.2864
_удовлетворения	-11.2865
_ирли	-11.2866
ссе	-11.2869
_зараз	-11.2869
_ужина	-11.2869
_октябре	-11.2869
_эк	-11.2872
_являлас	-11.2872
_этою	-11.2874
_лицензии	-11.2876
_платком	-11.2877
_дол	-11.2878
_основателно	-11.288
нина	-11.2881
_тетрад	-11.2883
_рог	-11.2884
_дневника	-11.2884
_заимствован	-11.2885
_обрадовался	-11.2885
_зеленои	-11.2885
_отсутствия	-11.2886
_достоино	-11.2887
_железные	-11.2888
_жаловатся	-11.289
_прямым	-11.2891
_мыслях	-11.2891
_генералного	-11.2891
_небос	-11.2891
_силного	-11.2892
_добыт	-11.2893
_сти	-11.2894
_покрыт	-11.2894
_тяжко	-11.2896
_проверки	-11.2896
_лест	-11.2896
_чужие	-11.2899
_восползовался	-11.29
_амин	-11.2901
_болезнеи	-11.2902
_замолчал	-11.2902
_таня	-11.2904
_облик	-11.2904
_наидеш	-11.2908
_основанием	-11.291
_золотыми	-11.2911
_приказа	-11.2915
_ирланд	-11.2916
_мирабо	-11.2916
_научных	-11.2918
_рое	-11.2919
_богатои	-11.2921
_станов	-11.2923
_оценки	-11.2924
_свидетелству	-11.2926
уп	-11.2926
_фабрики	-11.2928
_долина	-11.2929
_цивилизации	-11.2929
_примеры	-11.293
_певец	-11.293
ент	-11.2931
_юня	-11.2932
_желаете	-11.2933
_языках	-11.2933
авшие	-11.2934
_слуха	-11.2934
очнои	-11.2934
_кам	-11.2935
_палубу	-11.2935
_жива	-11.2938
_ласки	-11.2939
_влас	-11.294
_западу	-11.2941
_кареты	-11.2941
_международно	-11.2943
_какова	-11.2945
_ввести	-11.2946
_царствования	-11.2946
_канцелярии	-11.2947
_бедност	-11.2947
_счастем	-11.2948
_первыми	-11.295
_мелоч	-11.295
_дало	-11.295
_исправит	-11.2954
кур	-11.2956
_надя	-11.2957
_свято	-11.2957
_пары	-11.2959
_ткани	-11.2959
бра	-11.2961
ающии	-11.2962
_уважением	-11.2963
ившего	-11.2964
_надеждои	-11.2964
_куплен	-11.2966
_опираяс	-11.2967
_свят	-11.2968
_исключая	-11.2969
_ростов	-11.2971
_ведения	-11.2971
_послужит	-11.2971
_женскои	-11.2972
_нервно	-11.2973
_окрестностях	-11.2973
_посылаю	-11.2973
_бег	-11.2974
_французском	-11.2977
_плечу	-11.2978
_покажется	-11.2978
_сумерки	-11.2979
_выступал	-11.298
_помнил	-11.2983
_литературного	-11.2984
_экономических	-11.2984
_приготовит	-11.2987
_протянула	-11.2989
_мучит	-11.299
_протяжении	-11.299
_наступило	-11.299
_сюжет	-11.299
_терпеливо	-11.299
_современников	-11.2991
_подавлен	-11.2991
_подалше	-11.2992
_исполнении	-11.2993
_перешла	-11.2997
_ушах	-11.2998
_пуще	-11.2998
_убитых	-11.2999
_покраснел	-11.2999
_красивои	-11.2999
чев	-11.3
_выдержал	-11.3001
_доходит	-11.3002
очкои	-11.3003
_фраза	-11.3004
_способны	-11.3005
_предлагает	-11.3005
_мили	-11.3007
_покончит	-11.3009
_немецкого	-11.3012
_чернышевскии	-11.3013
_размера	-11.3013
_отправилас	-11.3014
_соединенных	-11.3016
_соня	-11.3017
_брюсов	-11.3018
_собират	-11.302
_пережит	-11.3021
_взгляде	-11.3024
_читала	-11.3024
_правит	-11.3025
_прокурора	-11.3025
_фиг	-11.3026
_приезда	-11.3026
_ала	-11.3027
_грамоты	-11.3028
_худ	-11.3028
_раба	-11.3029
_безнадежно	-11.3034
_особую	-11.3034
_жуан	-11.3035
_пера	-11.3036
_обратилис	-11.3037
_наскоро	-11.3039
_помешат	-11.304
_руд	-11.3041
_сержант	-11.3042
_долину	-11.3043
_областеи	-11.3044
_партию	-11.3046
_нарушит	-11.3047
_барабан	-11.3047
_провели	-11.305
_отказат	-11.305
_ивану	-11.3052
_подходя	-11.3052
_достижения	-11.3054
_кошка	-11.3054
_появления	-11.3055
_собаку	-11.3056
_гетман	-11.3057
_режима	-11.3057
_едино	-11.3057
_халат	-11.3058
_маршал	-11.3059
рам	-11.3059
_кораблеи	-11.3059
_орел	-11.3059
_жалости	-11.306
_люб	-11.306
_помилуи	-11.3062
_треск	-11.3062
_невозможным	-11.3063
_толстая	-11.3063
_прекрасную	-11.3064
_румян	-11.3064
_вдохновен	-11.3065
_носили	-11.3066
_мучител	-11.3066
_ударов	-11.3066
_геи	-11.3066
_обход	-11.3067
ющуюся	-11.3069
_несчастного	-11.3069
_прежним	-11.3078
_употреблят	-11.3078
_заговорит	-11.3083
_федералных	-11.3083
_петровича	-11.3083
_виновата	-11.3086
_работник	-11.309
_зари	-11.309
_фразу	-11.3092
_селского	-11.3092
_военным	-11.3092
_деятелеи	-11.3092
_приведен	-11.3093
_судами	-11.3096
_настал	-11.3097
рю	-11.3099
нск	-11.3099
_роскоши	-11.3099
_академ	-11.31
_поддержку	-11.3101
_песу	-11.3101
_затруднен	-11.3103
_девка	-11.3104
_александру	-11.3104
три	-11.3104
_юн	-11.3106
_малчишка	-11.3107
_некотором	-11.3107
_возбудит	-11.3107
хват	-11.3109
тит	-11.311
_иш	-11.311
кт	-11.3112
_фур	-11.3112
ано	-11.3113
_няня	-11.3113
_албом	-11.3113
_знаменитого	-11.3114
_израил	-11.3115
_сборнике	-11.3117
_апелляционнои	-11.3118
_детскои	-11.3119
_следующую	-11.312
_почтовои	-11.3121
_даю	-11.3122
зд	-11.3123
_мечтател	-11.3124
_счастливо	-11.3124
щее	-11.3126
_напряжен	-11.3127
_настроении	-11.3127
тра	-11.3127
_близости	-11.3128
_губам	-11.3128
_добр	-11.3128
_седои	-11.3131
_улыбку	-11.3131
_юга	-11.3132
_постоял	-11.3136
_девы	-11.3136
_александрии	-11.3136
_вкуса	-11.3137
_помилуите	-11.314
_маргарита	-11.314
_широких	-11.3141
_заслуги	-11.3143
_плодов	-11.3144
пред	-11.3145
_мраке	-11.3146
_честю	-11.3147
_нежныи	-11.3147
_отчаянно	-11.3147
_примером	-11.3148
_догадался	-11.315
_широким	-11.3153
_молоко	-11.3153
еют	-11.3155
бои	-11.3156
_референдума	-11.3156
_книжке	-11.3157
_художественнои	-11.3157
_утру	-11.3159
_торговле	-11.3159
_игор	-11.3162
_чистая	-11.3164
_чемодан	-11.3165
чек	-11.3166
ывал	-11.3166
_страдает	-11.3169
_строителство	-11.317
_правителственны	-11.317
_читателю	-11.317
_серезным	-11.3172
_попало	-11.3173
_фронте	-11.3174
_сомневаюс	-11.3175
люс	-11.3177
_сижу	-11.3178
_петроград	-11.3178
_определеннои	-11.3178
_паден	-11.3179
_покажу	-11.3179
_проник	-11.3179
дра	-11.318
сох	-11.3181
_падал	-11.3183
_мундир	-11.3183
_уд	-11.3184
_науку	-11.3185
_предполагал	-11.3187
_шестдесят	-11.3187
_причиною	-11.3188
град	-11.3189
_библиотеке	-11.319
_открытие	-11.3192
_юношеи	-11.3192
тек	-11.3192
_лазур	-11.3194
_заре	-11.3194
_соглашение	-11.3196
_происходили	-11.3197
_правлен	-11.3199
_уверяю	-11.32
_предмету	-11.32
джи	-11.32
_струи	-11.3201
_канцеляр	-11.3203
_жуковскии	-11.3203
_посылал	-11.3203
_пела	-11.3207
_обладал	-11.3208
_разбоиники	-11.3208
_магазин	-11.3211
_процессуалны	-11.3211
_сав	-11.3212
лес	-11.3212
_отрывки	-11.3213
_бумага	-11.3216
_нуждается	-11.3216
_платонов	-11.3217
_пассажиров	-11.3217
_шептал	-11.3218
_леонтев	-11.3219
ченко	-11.3219
_главои	-11.3219
_плату	-11.3219
_осуществляет	-11.322
_невыносимо	-11.322
_перевал	-11.3224
_трудящихся	-11.3225
_бутылку	-11.3225
_приходило	-11.3228
_направил	-11.3229
_произносил	-11.323
_луга	-11.323
_концерт	-11.3231
_плеч	-11.3232
_экземпляр	-11.3232
_оказал	-11.3232
_скуки	-11.3232
_уверял	-11.3233
_дек	-11.3234
_квартир	-11.3236
_фонд	-11.3236
_захар	-11.3236
_бледно	-11.3236
_уровен	-11.3237
_хорошую	-11.3237
_команда	-11.3237
_стад	-11.3237
_твер	-11.3238
_юридического	-11.3239
_лыс	-11.324
_рабы	-11.3241
_готовится	-11.3241
_частично	-11.3241
пят	-11.3242
_рие	-11.3242
_признании	-11.3242
_уединен	-11.3244
_кружка	-11.3244
_актами	-11.3245
_спрашивала	-11.3245
_исползованием	-11.3246
_свт	-11.3246
_алмаз	-11.3249
_древн	-11.3252
_проявил	-11.3252
_пробыл	-11.3253
_дров	-11.3255
_попытку	-11.3255
_машинално	-11.3256
_поди	-11.3256
_достоинством	-11.326
_молчали	-11.326
_бориса	-11.326
кро	-11.3262
_лавку	-11.3265
_белую	-11.3265
пет	-11.3268
_холодным	-11.3272
_поездка	-11.3273
_каков	-11.3273
_исо	-11.3274
_атаман	-11.3277
_упомянут	-11.3277
_глубокая	-11.3279
_многом	-11.3281
_звука	-11.3283
_счастливои	-11.3285
_показывают	-11.3285
як	-11.3286
_сословия	-11.3288
_обясняет	-11.3289
_сию	-11.329
_издателство	-11.329
_старо	-11.329
_аппарат	-11.329
_листев	-11.3293
_чудак	-11.3293
_противоречия	-11.3295
_допрос	-11.3295
_церемон	-11.3296
_люсен	-11.3296
_сунул	-11.3297
рок	-11.3297
_судорожно	-11.3298
_обстоятелствам	-11.3299
_купцов	-11.3299
_покрыты	-11.3299
_религиозных	-11.33
_мих	-11.33
ничат	-11.3301
_возвращение	-11.3301
_открыли	-11.3303
_приказано	-11.3303
_выходя	-11.3304
_глубокии	-11.3305
_средством	-11.3305
_бродит	-11.3305
_предположение	-11.3307
кая	-11.3309
_народныи	-11.3309
_камнем	-11.331
_владыка	-11.331
_запрет	-11.331
_югу	-11.3311
_тетушка	-11.3312
_силная	-11.3315
_носа	-11.3315
_доверие	-11.3316
_поезда	-11.3318
_интереса	-11.3318
_кучу	-11.3321
_поднес	-11.3321
_властеи	-11.3321
_просим	-11.3323
_выборов	-11.3323
_задумал	-11.3326
_верхне	-11.3329
остю	-11.3332
вес	-11.3332
_искус	-11.3333
_фе	-11.3334
_артиллер	-11.3334
_проходят	-11.3337
_звонок	-11.3337
_почет	-11.3339
_гимн	-11.3342
_разбил	-11.3343
_прогулки	-11.3343
_заводе	-11.3345
_родная	-11.3346
_звонко	-11.3346
_приток	-11.3348
_невесту	-11.3349
_пахнет	-11.335
_признаков	-11.3353
_помещиков	-11.3353
_подхватил	-11.3354
_подали	-11.3357
лея	-11.3357
_исчезает	-11.3357
_пленных	-11.3358
_ноябр	-11.3358
_бледное	-11.3359
двор	-11.3362
_гордостю	-11.3363
_филиппа	-11.3365
_завтрак	-11.3365
_дес	-11.3366
_россиеи	-11.3369
шем	-11.3369
_вытащил	-11.337
_крыши	-11.3371
_назначит	-11.3375
сим	-11.3375
верен	-11.3378
_хватило	-11.338
_разошлис	-11.3381
_подозрен	-11.3381
_воздухом	-11.3385
_канат	-11.3386
_сплав	-11.3388
_событие	-11.3388
цк	-11.3389
_независимост	-11.3389
_деда	-11.3391
_телеграмму	-11.3391
_герцен	-11.3392
_низ	-11.3394
_настроения	-11.3396
сона	-11.3398
_сношен	-11.3399
_посоветовал	-11.34
_предстояло	-11.3401
_разсказал	-11.3401
ливо	-11.3401
_зо	-11.3403
_президентом	-11.3404
_казны	-11.3404
_евангелие	-11.3404
_громадныи	-11.3405
_нетерпен	-11.3406
_рассуждения	-11.3406
_признается	-11.3406
_деиствуют	-11.3408
_глуб	-11.3408
_отворил	-11.3413
_императорского	-11.3416
_поедем	-11.3416
_отверстие	-11.3416
кос	-11.3418
_старику	-11.3418
_информационно	-11.3418
_принимаю	-11.3418
_жажду	-11.342
_исследование	-11.3422
_опасен	-11.3423
_отворилас	-11.3424
_пузыр	-11.3426
_общественныи	-11.3426
_рукав	-11.3427
_бородои	-11.3427
_непри	-11.3429
_баку	-11.343
_нездоров	-11.3433
_одарен	-11.3433
_выгодно	-11.3435
_фантазии	-11.3435
_игре	-11.3435
_длинных	-11.3436
_щедро	-11.3436
бен	-11.3441
_огонек	-11.3442
роч	-11.3445
_николаев	-11.3445
_кут	-11.3446
_характеру	-11.3446
_рисовал	-11.3447
_открыв	-11.3447
_духовное	-11.3449
_предисловие	-11.3449
_лицемер	-11.3452
дав	-11.3453
_очереди	-11.3456
_дагестан	-11.3457
дум	-11.3458
_достоин	-11.3459
_разобрат	-11.3459
_армиеи	-11.346
_записках	-11.346
_мрачныи	-11.346
аны	-11.3461
_подобнаго	-11.3462
_шага	-11.3463
_приедет	-11.3463
_нежнои	-11.3464
_связано	-11.3466
_долгих	-11.3466
_вилям	-11.3467
_находя	-11.3469
_бедств	-11.3469
_мечом	-11.3469
_хозяики	-11.347
_возведен	-11.3471
_нету	-11.3472
фи	-11.3472
жд	-11.3473
_следствие	-11.3473
тре	-11.3473
_братями	-11.3474
_сентябре	-11.3477
_книгами	-11.3478
цах	-11.3479
_верност	-11.348
_останавливается	-11.3482
ывает	-11.3482
_огромную	-11.3482
_изучение	-11.3484
рак	-11.3485
_спуска	-11.3487
_выводы	-11.3487
_боле	-11.3487
_овец	-11.3487
вшаго	-11.3487
_царицы	-11.3488
_деиствовал	-11.3488
_пятнадцати	-11.3489
_необходимое	-11.3492
_пребыван	-11.3494
_заглав	-11.3495
_заседание	-11.3495
_дружбу	-11.3495
_свидетелем	-11.3495
_вихр	-11.3497
_императором	-11.3498
_серебро	-11.3498
сса	-11.35
_стариков	-11.3503
_директором	-11.3505
_вывел	-11.3506
ево	-11.3507
_президиума	-11.3509
_стекло	-11.3509
_кратко	-11.3512
_тяжести	-11.3515
_признания	-11.3517
_приказания	-11.3517
_рыцаря	-11.352
_понеделник	-11.3521
_крылцо	-11.3521
_инспектор	-11.3521
_противоречит	-11.3524
_мук	-11.3525
_среднем	-11.3526
_костра	-11.3527
_отрядом	-11.353
_основ	-11.3533
писан	-11.3533
_природои	-11.3534
_попала	-11.3535
_идя	-11.3535
_чувству	-11.3536
_макс	-11.3537
_англия	-11.3537
_стрелы	-11.3537
_голубые	-11.3538
_страшную	-11.3541
_одиноко	-11.3542
_тмы	-11.3544
_длины	-11.3546
_слабым	-11.3547
елем	-11.355
_направит	-11.355
_ибн	-11.3552
_лл	-11.3554
_хаджи	-11.3554
_толстому	-11.3554
_политику	-11.3554
_далнеиших	-11.3556
_открытое	-11.3556
ивает	-11.3559
_младшии	-11.3559
_товарищества	-11.356
_подробнее	-11.356
_сборника	-11.3563
зо	-11.3566
_своиство	-11.3566
_макбет	-11.3566
_радио	-11.3567
_совершенства	-11.3567
_трем	-11.3569
_разделен	-11.3569
_физических	-11.3573
_окончив	-11.3575
_точек	-11.3576
_фауст	-11.3577
_судах	-11.3577
_интеллигент	-11.3578
_тма	-11.358
_перестали	-11.3582
_записал	-11.3582
_молитве	-11.3584
числен	-11.3584
_прочно	-11.3587
_решением	-11.3587
_исходя	-11.359
_полосы	-11.359
_продал	-11.359
_некоторого	-11.3591
_расследования	-11.3591
_нужд	-11.3592
_придти	-11.3592
_укрепления	-11.3595
_господу	-11.3596
_избавит	-11.3597
_деиствующих	-11.36
_нежност	-11.3601
_знакомым	-11.3601
_подписал	-11.3601
_глазом	-11.3601
_чер	-11.3602
_осмотрел	-11.3602
пен	-11.3603
_обязана	-11.3606
_уехали	-11.3607
_несут	-11.3607
_нил	-11.3607
ающего	-11.3608
_сии	-11.361
_колумб	-11.361
_восстановит	-11.3613
_произвела	-11.3615
_режим	-11.3616
_широкая	-11.3616
вшемуся	-11.3616
_похода	-11.3617
_сослов	-11.3617
_переменит	-11.3618
_полского	-11.3618
_софи	-11.3619
_женщинами	-11.3619
_современного	-11.3619
_художественного	-11.3619
_злая	-11.362
_кирпич	-11.362
_оркестр	-11.3623
_сделаите	-11.3623
_римского	-11.3623
нских	-11.3624
_жителства	-11.3624
_столицу	-11.3626
_манифест	-11.3626
чеи	-11.3627
тя	-11.3628
_субботу	-11.3632
_услыхал	-11.3634
_выходила	-11.3634
_серезное	-11.3635
_опал	-11.3635
_незадолго	-11.3637
_ситуации	-11.3637
_джеин	-11.3637
_намерении	-11.3639
_лишит	-11.3639
_чувствовали	-11.364
_полагат	-11.364
_попросит	-11.3643
_припомнит	-11.3643
_воидя	-11.3644
_посвящен	-11.3645
_товарищем	-11.3646
_полоса	-11.3646
_ощущен	-11.3647
_учреждение	-11.3647
нок	-11.3647
_личное	-11.3648
_черную	-11.3648
_пра	-11.3649
_привычки	-11.365
_вздохнула	-11.365
_ответы	-11.365
_стремително	-11.3651
_приходила	-11.3652
лиз	-11.3654
_подает	-11.3656
_болезненно	-11.3657
тка	-11.3658
_шумно	-11.3661
_свободен	-11.3661
_фан	-11.3662
_свадба	-11.3663
_высоту	-11.3663
_падения	-11.3664
_придут	-11.3666
_пяныи	-11.3667
бан	-11.3667
_тонкие	-11.3668
ающеи	-11.3668
_случаем	-11.3669
_адмирала	-11.3669
_старца	-11.367
_вызвало	-11.367
_просба	-11.3674
_спрашивали	-11.3675
_молнии	-11.3676
_взамен	-11.3676
_псков	-11.3676
_чертах	-11.3676
_человеческие	-11.3678
_ясныи	-11.3678
_плав	-11.3681
_убежище	-11.3684
_неболшого	-11.3684
_цене	-11.3684
_маиора	-11.3684
_применен	-11.3685
_обез	-11.3685
_полез	-11.3686
_обет	-11.3688
_насквоз	-11.3689
_быват	-11.369
_англиискои	-11.3691
_единыи	-11.3693
_штук	-11.3693
тат	-11.3693
_склонност	-11.3694
_греческои	-11.3694
_сохрани	-11.3695
нэ	-11.3696
_работают	-11.3697
_социално	-11.3698
_кусты	-11.3699
_лид	-11.3701
_непонятно	-11.3701
ард	-11.3702
_ожидания	-11.3703
_иностранного	-11.3703
_чаем	-11.3704
_лежало	-11.3704
_продолжается	-11.3709
овыя	-11.371
_возврат	-11.371
_централнои	-11.371
_бросается	-11.3712
_программ	-11.3712
рот	-11.3714
_наступления	-11.3714
_пристан	-11.3714
ске	-11.3719
_алберт	-11.3719
_проще	-11.3721
_дышит	-11.3721
_дружно	-11.3723
_шлем	-11.3723
_велено	-11.3724
_вершине	-11.3726
_испытал	-11.3727
_широкии	-11.3727
_останус	-11.3728
нскии	-11.3728
_спокоен	-11.3732
_присутствовал	-11.3732
_посещен	-11.3736
_выпуска	-11.3737
_слог	-11.3737
_вежливо	-11.3738
_настаивал	-11.3739
_миша	-11.374
_благопр	-11.3741
_особые	-11.3742
_подходил	-11.3744
_пеш	-11.3744
_бросив	-11.3744
_сезда	-11.3744
чке	-11.3744
_глядела	-11.3745
_бул	-11.3747
_удобнее	-11.3748
ач	-11.3748
_стенои	-11.375
_ноябре	-11.3751
_строг	-11.3752
_расположены	-11.3754
_некоторую	-11.3754
_хлоп	-11.3754
_праздника	-11.3755
_гнезда	-11.3756
_ут	-11.3757
_схватила	-11.3759
_пустил	-11.3759
_племена	-11.3761
_видала	-11.3763
_штатов	-11.3764
_страшного	-11.3765
_собираются	-11.3766
нен	-11.3768
_мастерскои	-11.3768
_жалобно	-11.3773
_батюшки	-11.3774
_отчаянии	-11.3774
_чужим	-11.3777
_изображения	-11.3777
_особеннои	-11.3781
_преимуществу	-11.3782
_дурнои	-11.3783
_ошибочно	-11.3783
ела	-11.3785
_физ	-11.3787
_бут	-11.3787
_считала	-11.3788
_полиция	-11.3789
_лукаво	-11.379
_доктором	-11.379
_смут	-11.379
_мыш	-11.3791
_помещик	-11.3791
_хозяином	-11.3792
_беру	-11.3796
_переговоров	-11.3797
_заповед	-11.3798
_утратил	-11.3798
_воиском	-11.3799
_усилива	-11.3801
_эн	-11.3801
_советского	-11.3802
ари	-11.3803
_анри	-11.3803
_товарищам	-11.3804
_заглянул	-11.3807
_крепче	-11.3807
_рамках	-11.3807
_брод	-11.3809
_прот	-11.3809
руч	-11.3811
_делаются	-11.3811
_основным	-11.3811
_самостоятелност	-11.3812
_увидя	-11.3812
_информацию	-11.3813
_различия	-11.3813
_дл	-11.3814
_сокровище	-11.3814
_постановлен	-11.3814
_отвращение	-11.3815
стои	-11.3816
_биографии	-11.3818
_крестянина	-11.3819
_шутит	-11.382
_раул	-11.382
_владет	-11.382
_хитро	-11.3821
_стихотвор	-11.3821
_марина	-11.3822
_лагере	-11.3822
_грамот	-11.3823
_доставлен	-11.3825
_руководителя	-11.3825
_единства	-11.3827
_спасителя	-11.383
иде	-11.3831
_показали	-11.3831
_зад	-11.3832
_прежн	-11.3833
подоб	-11.3833
_крестом	-11.3833
ред	-11.3837
_множеством	-11.3837
_наличие	-11.384
бил	-11.3841
_следа	-11.3842
_поли	-11.3843
_решению	-11.3843
_бедности	-11.3845
_строгим	-11.3847
шаго	-11.3848
_слушали	-11.3851
_оса	-11.3852
_мила	-11.3853
_выражает	-11.3853
_романы	-11.3855
_григорев	-11.3855
_мешат	-11.3856
_возвращатся	-11.3856
_узел	-11.3859
кул	-11.3859
_создает	-11.386
_баталона	-11.3861
_обоитис	-11.3861
_кулаком	-11.3863
_этаж	-11.3865
_провал	-11.3865
_грамоте	-11.3865
_тревога	-11.3865
_волнои	-11.3867
_приезжал	-11.387
_государству	-11.3871
_светлые	-11.3873
_имуществом	-11.3876
_неделе	-11.3876
_роланд	-11.3876
лена	-11.3877
_исчезло	-11.3877
_яз	-11.3877
_бросает	-11.3877
_тысяча	-11.388
_представителем	-11.388
_выражению	-11.3881
_порта	-11.3883
_монте	-11.3884
_показыват	-11.3884
_гражданских	-11.3884
_карт	-11.3885
_ликвидации	-11.3886
бет	-11.3887
_рабство	-11.3888
_установления	-11.3888
_шепот	-11.3889
_неболшие	-11.3889
зов	-11.389
_шах	-11.3891
_правах	-11.3892
_це	-11.3893
_мет	-11.3894
_супруг	-11.3896
_правыи	-11.3897
_смелост	-11.3898
_потеряла	-11.3899
_обращал	-11.39
_бедствия	-11.3903
_глазки	-11.3904
_рассказывали	-11.3904
_открытого	-11.3905
_разбоиников	-11.3905
_очарован	-11.3906
_родилас	-11.3907
ително	-11.3907
др	-11.3907
_открывается	-11.3908
_младенца	-11.3913
_обединения	-11.3913
_шоссе	-11.3914
_царствование	-11.3914
_врачеи	-11.3915
_выходило	-11.3917
_турции	-11.3918
_богам	-11.3918
_выполнит	-11.3919
_кричала	-11.392
_дарован	-11.3921
_вспомнила	-11.3925
_ангела	-11.3925
_политическая	-11.3926
_департамент	-11.3926
_напишу	-11.3926
_авос	-11.3927
_поднимая	-11.3929
_прося	-11.393
_контору	-11.3931
_ожидала	-11.3931
_ручеи	-11.3933
_верности	-11.3933
_китаи	-11.3935
_пароходе	-11.3938
_ны	-11.3938
_отомстит	-11.3939
_искры	-11.394
_пища	-11.3942
_длинная	-11.3945
_молчала	-11.3945
_насилия	-11.3945
_выговор	-11.3947
_туалет	-11.3949
_гроза	-11.3951
_факта	-11.3952
_чудовище	-11.3953
_соседних	-11.3953
_целыми	-11.3954
_захват	-11.3957
_леиб	-11.3958
_очистит	-11.3959
_досадно	-11.3959
_существенно	-11.396
_натуре	-11.3961
_волтер	-11.3962
_овладел	-11.3964
_родного	-11.3965
_проповеди	-11.3966
елнее	-11.3967
ирования	-11.3967
_держала	-11.3972
_принесет	-11.3973
_замерз	-11.3974
_революционнои	-11.3974
_есенин	-11.3974
фу	-11.3975
_конторе	-11.3977
_бархат	-11.3977
_последовало	-11.3977
_колдун	-11.3978
_валентин	-11.3978
_подготовка	-11.3979
_пункты	-11.3981
_угрозы	-11.3982
_несчастю	-11.3983
_легк	-11.3985
_доски	-11.3985
_речю	-11.3985
_левом	-11.3986
_банкир	-11.3986
_написала	-11.3986
_николаевича	-11.3987
_сологуб	-11.3987
_владимирович	-11.3988
_осмотрет	-11.399
_поидут	-11.3993
крыл	-11.3993
_дешево	-11.3994
_кузмич	-11.3994
_премер	-11.3996
_естественным	-11.3997
_препятств	-11.3998
_технических	-11.3999
_произошел	-11.3999
_култура	-11.4
_стремлении	-11.4
иров	-11.4
_месяцы	-11.4001
_учил	-11.4001
_левин	-11.4003
_поверил	-11.4005
_дождем	-11.4005
_истиннои	-11.4005
_гневом	-11.4006
_закрыв	-11.4007
инскои	-11.4007
_оставлят	-11.4007
_позиц	-11.4007
гля	-11.4008
_влево	-11.4008
_вывоз	-11.4008
_псс	-11.4009
_журналах	-11.4009
_пастух	-11.401
_повторит	-11.4011
нные	-11.4011
_выборы	-11.4012
_фор	-11.4013
_редкост	-11.4013
_денгах	-11.4013
дминистративного	-11.4014
_нападен	-11.4015
_произвели	-11.4015
_легких	-11.4016
иха	-11.4017
_напечатана	-11.4017
_православнои	-11.4018
_стрелков	-11.402
_нравственнои	-11.4021
_почты	-11.4021
_страстю	-11.4022
_выдал	-11.4023
_бросили	-11.4024
_животного	-11.4027
_неболших	-11.4028
_веселе	-11.4028
_эдак	-11.4029
_знач	-11.403
_древнии	-11.4032
_плит	-11.4033
_шепчет	-11.4033
_полудня	-11.4034
гад	-11.4034
_готовит	-11.4034
_долгов	-11.4035
_кре	-11.4036
_ужасная	-11.4036
_встав	-11.4038
_сравнению	-11.4039
_сравнении	-11.4039
_матвеи	-11.4039
_издалека	-11.404
_шорох	-11.404
_международных	-11.4041
_установление	-11.4041
_маленкими	-11.4043
зар	-11.4043
_подала	-11.4044
_изложен	-11.4046
нская	-11.4046
_обстановка	-11.4047
_лежа	-11.4048
_римляне	-11.4048
_применяется	-11.405
_жилищ	-11.405
_определенных	-11.405
слу	-11.4051
_приключен	-11.4054
_далнеишее	-11.4055
зан	-11.4056
_заступ	-11.4056
_пламени	-11.4057
пл	-11.4058
_социализм	-11.4058
_паче	-11.4061
_недурно	-11.4061
_бледная	-11.4063
_значителные	-11.4064
_речка	-11.4068
_лампы	-11.4069
еннаго	-11.407
_читаю	-11.407
_голоду	-11.4071
_далек	-11.4072
_оценит	-11.4074
_резк	-11.4074
_нетрудно	-11.4074
_поддерживал	-11.4074
_малчиков	-11.4074
_бич	-11.4075
_прост	-11.4075
очныи	-11.4075
_мощ	-11.4075
_горд	-11.4076
_пером	-11.4077
_громадное	-11.4077
_принадлежали	-11.4078
_судебные	-11.4078
_уверит	-11.4078
_палате	-11.4082
_бан	-11.4082
_посылат	-11.4083
_ведомства	-11.4083
зр	-11.4083
_немногие	-11.4084
ления	-11.4087
бери	-11.409
_ропот	-11.409
_теряет	-11.409
_легенда	-11.409
_соединение	-11.4094
_инстинктивно	-11.4095
_слепо	-11.4095
_рая	-11.4096
_ревел	-11.4099
_сережа	-11.4101
_подарки	-11.4101
щим	-11.4101
_отвращен	-11.4102
_выполнение	-11.4102
_кер	-11.4103
_владел	-11.4103
_признавал	-11.4104
_научнои	-11.4106
_ще	-11.4107
_стоявш	-11.4107
_журналов	-11.4108
_своиств	-11.4108
_занимаются	-11.411
_простится	-11.411
_посетителеи	-11.4111
_каза	-11.4113
_генриха	-11.4113
_поколен	-11.4113
_монахов	-11.4115
_ехала	-11.4118
_положению	-11.4118
_рощи	-11.4118
_приговора	-11.4119
_курер	-11.412
_отравлен	-11.412
_сапог	-11.4121
гада	-11.4121
_пин	-11.4125
_каз	-11.4126
_установлены	-11.4126
_исползование	-11.4128
_подождат	-11.4128
_наружности	-11.4132
_рукам	-11.4132
_наследника	-11.4135
_наталя	-11.4135
рах	-11.4139
_построит	-11.414
_сумм	-11.4141
_создании	-11.4141
_союзе	-11.4143
_привезли	-11.4143
_убиват	-11.4144
_отдам	-11.4145
_осуществлении	-11.4146
_родится	-11.4148
меня	-11.4149
_трагед	-11.4149
_воспитател	-11.4152
_насилно	-11.4153
_доказателством	-11.4157
_волнении	-11.4158
_храброст	-11.4161
_осуществлен	-11.4163
_занимали	-11.4166
_императрице	-11.4166
_грамота	-11.4168
_сынов	-11.4169
_пустын	-11.4169
_гостинице	-11.4169
_прощен	-11.4169
_ощущение	-11.4173
ег	-11.4173
_заняли	-11.4174
_невы	-11.4174
_массе	-11.4176
_малеишаго	-11.4177
_целоват	-11.4177
_работах	-11.4179
спор	-11.418
_славно	-11.418
_взаимно	-11.4181
_негр	-11.4182
_чуж	-11.4183
_экономики	-11.4183
_феврале	-11.4183
_отнести	-11.4186
_наз	-11.4186
_виноваты	-11.4186
_помни	-11.4188
_андреевна	-11.4188
_западного	-11.4188
_девушкои	-11.4189
_рассматриват	-11.419
_известная	-11.419
_перевести	-11.4191
_чет	-11.4192
_получали	-11.4192
_желтыи	-11.4192
_эфир	-11.4193
мп	-11.4194
_намерева	-11.4195
_апрел	-11.4195
_криками	-11.4196
сыл	-11.4196
_очутилис	-11.4197
_замечая	-11.4198
_водку	-11.42
_каса	-11.4201
_сохранилос	-11.4201
_городок	-11.4201
_хода	-11.4202
_дрожал	-11.4203
_летописи	-11.4203
ира	-11.4206
_трагедия	-11.4207
_преступ	-11.4207
_сады	-11.421
_условием	-11.4211
_отражен	-11.4211
_делаете	-11.4211
_забуду	-11.4212
_встречалис	-11.4212
_заима	-11.4213
_служила	-11.4214
_приветливо	-11.4214
_стихами	-11.4214
чика	-11.4215
_греб	-11.4216
_ярче	-11.4218
_резултатам	-11.4221
_последнему	-11.4222
_листы	-11.4223
_засмеялас	-11.4224
_ры	-11.4225
_молвил	-11.4226
_привязан	-11.4226
_коим	-11.4226
_нелепо	-11.4227
еру	-11.4229
_помощника	-11.423
чиков	-11.4231
слов	-11.4231
_соломон	-11.4232
_столик	-11.4234
_франсуа	-11.4238
_вправо	-11.4238
_штука	-11.4238
_владелец	-11.4239
_слушателеи	-11.4239
_очаг	-11.424
_отделными	-11.4241
_хозяину	-11.4244
_процента	-11.4245
_юлия	-11.4245
_нерв	-11.4248
_предполагат	-11.4249
_ударит	-11.425
_ярким	-11.4251
_доложил	-11.4251
_портреты	-11.4252
_искаго	-11.4255
_смертелно	-11.4256
_запретил	-11.4257
_мистеру	-11.4258
_сиятелство	-11.4258
атор	-11.4259
_вождя	-11.426
_сознании	-11.4261
_англию	-11.4261
юр	-11.4264
_пунктах	-11.4267
_депутат	-11.4267
_тесн	-11.4268
_вася	-11.4269
овом	-11.4271
_заседан	-11.4272
_остаток	-11.4272
_вскрикнула	-11.4272
_экономии	-11.4273
_руководил	-11.4275
_завтрака	-11.4278
_обнимаю	-11.4279
_магнит	-11.4279
_берез	-11.4279
_ветру	-11.4282
_крупныи	-11.4283
_унижен	-11.4284
_хранится	-11.4284
_ростовска	-11.4285
_широкую	-11.4287
_мертвым	-11.4288
_истинного	-11.429
_отходит	-11.4291
_генералу	-11.4291
_левую	-11.4292
_королевскои	-11.4292
_перу	-11.4292
_молот	-11.4293
_решилис	-11.4294
чина	-11.4295
_законе	-11.4296
_тонко	-11.4296
низ	-11.4297
_наступит	-11.4298
_гражданства	-11.4298
_уплаты	-11.4298
_французские	-11.4298
_опасения	-11.4299
_рту	-11.43
_обезян	-11.4302
_естли	-11.4302
_открыты	-11.4303
_ясное	-11.4303
_вносит	-11.4304
_уму	-11.4304
_скорост	-11.4305
_температура	-11.4306
сер	-11.4307
_народная	-11.4308
_ищут	-11.4308
_киеве	-11.4309
_юж	-11.4309
_версты	-11.4311
_литературная	-11.4312
_традиции	-11.4312
_велела	-11.4312
_чистого	-11.4316
_ода	-11.4317
_личным	-11.4318
_спешил	-11.432
_твор	-11.432
_кип	-11.432
_сумеет	-11.4321
_смертнои	-11.4321
_выступит	-11.4322
_пояса	-11.4323
_испуга	-11.4323
_лвович	-11.4324
_кожу	-11.4324
_бала	-11.4325
_комнатах	-11.4326
_получение	-11.4326
_желез	-11.4326
_обеду	-11.4326
_маленком	-11.4327
_гордон	-11.4328
_слышится	-11.4329
аты	-11.4329
_татары	-11.433
_слыша	-11.433
числ	-11.4331
_производстве	-11.4331
_доложит	-11.4332
_дворянство	-11.4334
_котел	-11.4334
_анекдот	-11.4334
_документации	-11.4335
ап	-11.4337
ковского	-11.4337
_сотрудников	-11.4337
иком	-11.4338
_ток	-11.4338
нскои	-11.4339
_выводит	-11.4339
_сыт	-11.434
_зелени	-11.434
_французская	-11.434
_зрителеи	-11.4341
_рассмотрет	-11.4341
_вит	-11.4341
_централного	-11.4343
онов	-11.4344
_памятники	-11.4344
_утес	-11.4344
_маркса	-11.4344
_уз	-11.4345
_образец	-11.4345
_жесток	-11.4346
_реакции	-11.4346
_огромным	-11.4346
_думу	-11.4346
_подумаи	-11.4347
_слышалис	-11.4347
_указу	-11.4349
_изменил	-11.4349
_судбои	-11.435
_экз	-11.4351
овская	-11.4351
бес	-11.4352
_хитрост	-11.4353
ывая	-11.4353
_доводы	-11.4355
_изволите	-11.4358
_подписю	-11.4358
_паша	-11.436
_покоиныи	-11.4362
_пугачев	-11.4363
_бока	-11.4364
_значителную	-11.4364
ливает	-11.4365
_крылца	-11.4365
_организацию	-11.4366
_убежал	-11.4366
_чиновника	-11.4367
_существом	-11.4368
_надписю	-11.4368
_облегчит	-11.4369
_узнаеш	-11.4369
_возмем	-11.437
_гур	-11.4372
_начинали	-11.4373
_притч	-11.4376
_староста	-11.4376
_уголок	-11.4376
_гроз	-11.4377
_присутствующих	-11.4377
_короленко	-11.4378
_белинского	-11.4378
_серия	-11.4379
еву	-11.4379
_красивые	-11.4379
_склонен	-11.438
леч	-11.4381
_ничут	-11.4382
_честным	-11.4383
еры	-11.4384
_оборудования	-11.4385
рб	-11.4388
_перенос	-11.4389
_дошла	-11.439
_заставлял	-11.4391
_завоеван	-11.4392
_возник	-11.4394
оны	-11.4394
_чек	-11.4394
_послушат	-11.4397
_помогает	-11.4398
_одобрен	-11.4398
душ	-11.4399
_таин	-11.4399
_энгелс	-11.4399
_экспедиц	-11.44
_жестокост	-11.44
_тряс	-11.4401
_смиренно	-11.4401
_египет	-11.4402
_приема	-11.4404
_обл	-11.4404
_господином	-11.4405
_цезаря	-11.4405
нутся	-11.4406
ирование	-11.4408
_усталости	-11.4408
_музыкант	-11.4409
_соединении	-11.4409
_обстановки	-11.4411
_скоп	-11.4412
_видах	-11.4412
веден	-11.4416
_осуществит	-11.4421
лива	-11.4421
_открывает	-11.4423
_гладко	-11.4424
_морские	-11.4425
_приказала	-11.4426
_горизонт	-11.4426
_вызвали	-11.4428
_исполнял	-11.4428
_сцен	-11.4431
_спокоинои	-11.4431
_распространения	-11.4433
_определении	-11.4433
_соответствующие	-11.4435
_известную	-11.4436
_перенесен	-11.4436
_доказал	-11.4436
_правление	-11.4438
_поимат	-11.444
ску	-11.4441
_интересам	-11.4441
_останавливаяс	-11.4442
_муравев	-11.4442
_инструмент	-11.4443
_желают	-11.4444
_настоятел	-11.4446
_декабр	-11.4447
мах	-11.4447
_наследства	-11.4447
прашива	-11.4448
_шат	-11.445
_углов	-11.445
_крон	-11.4451
_ножом	-11.4452
_противном	-11.4452
_похищен	-11.4452
_плачу	-11.4452
_раскрыл	-11.4455
_близост	-11.4455
_короче	-11.4456
_речки	-11.4456
_старшим	-11.4456
_началу	-11.4458
_допущен	-11.4459
_принципа	-11.4459
_жанна	-11.446
_кувшин	-11.446
_болная	-11.4461
_нравственно	-11.4463
_гун	-11.4463
_ступаите	-11.4464
_община	-11.4467
_джона	-11.4467
_поперек	-11.4467
_госпожи	-11.4467
_улыба	-11.4467
_легла	-11.4468
_отделным	-11.4469
_начинат	-11.4469
_шкаф	-11.447
_оправдат	-11.447
_принимается	-11.4473
_столетии	-11.4474
_подобнои	-11.4474
_пустился	-11.4477
_марс	-11.4478
_утоп	-11.4478
_никон	-11.4479
_январ	-11.4479
_занятие	-11.4479
_алфред	-11.448
_продават	-11.4482
_занималис	-11.4482
_дяде	-11.4482
_относилис	-11.4486
_произвело	-11.4486
_предмете	-11.4488
_топот	-11.4489
_живы	-11.449
_замет	-11.449
_горел	-11.449
_восхищен	-11.4491
_концы	-11.4492
_реш	-11.4492
_ярости	-11.4494
_любимыи	-11.4496
_важнее	-11.4496
_карамзина	-11.4497
_неделя	-11.4498
_вине	-11.4498
_сирии	-11.45
_удивление	-11.4501
_ценит	-11.4501
_выстрела	-11.4501
_встали	-11.4501
_доли	-11.4502
_определяются	-11.4502
_железная	-11.4503
_казач	-11.4503
_гел	-11.4503
_удивленно	-11.4504
_умела	-11.4505
_фантаз	-11.4506
_турецкои	-11.4507
_индеицев	-11.4509
_дем	-11.451
_опустилас	-11.451
_люба	-11.451
_советских	-11.4511
стрел	-11.4512
_подтвержден	-11.4512
_губах	-11.4512
_валтер	-11.4513
_заведении	-11.4514
_пд	-11.4514
_внести	-11.4515
_октябр	-11.4516
_лермонтова	-11.4516
_приговорен	-11.4516
_неподалеку	-11.4516
_автору	-11.4517
_отвечаю	-11.4518
_третих	-11.4519
_рекои	-11.4519
ическими	-11.4522
_ката	-11.4523
_огромных	-11.4524
_нежности	-11.4525
_завел	-11.4527
_веселые	-11.4528
_позвол	-11.4529
_сооружении	-11.453
вис	-11.4532
_рассматривал	-11.4534
_капитализма	-11.4536
_ученого	-11.4536
_повелител	-11.4537
_цифры	-11.4538
_рынке	-11.4539
_следовал	-11.4541
_лондона	-11.4543
обра	-11.4543
_уиду	-11.4543
_твар	-11.4545
_рассказала	-11.4546
_ценил	-11.4547
_эмма	-11.4548
_другою	-11.4548
оты	-11.4549
_молчания	-11.455
_струн	-11.455
_ружеи	-11.4551
_судопроизводств	-11.4552
_болна	-11.4553
_расколников	-11.4554
_лу	-11.4555
_бывшие	-11.4556
_хохот	-11.4557
_ужаснои	-11.4557
_глядели	-11.4558
нил	-11.4558
_обычнои	-11.4559
_передонов	-11.4559
_условие	-11.4559
_наполнен	-11.4559
_происходят	-11.456
_командовал	-11.456
_поимет	-11.4561
_входя	-11.4562
_раздавалис	-11.4562
_ценности	-11.4564
_дружбе	-11.4566
_обил	-11.4567
_коне	-11.4567
_таинственно	-11.4567
лова	-11.4568
вир	-11.4569
_сообщал	-11.4569
_гражданам	-11.4569
_эхо	-11.457
_кузмин	-11.4571
_серезныи	-11.4572
_селскохозяиств	-11.4573
_донес	-11.4573
_соответствующим	-11.4575
_собира	-11.4576
мед	-11.4576
_развалины	-11.4579
_женских	-11.4579
_мешало	-11.4581
_драгун	-11.4582
_спо	-11.4583
_верои	-11.4583
_оставшис	-11.4583
_пребывание	-11.4584
_рва	-11.4584
шат	-11.4584
_балкон	-11.4584
_обучения	-11.4584
_наперед	-11.4587
ящии	-11.4588
_нести	-11.4588
_стремился	-11.4588
_корни	-11.4589
_физическои	-11.459
_утверждения	-11.4592
_комендант	-11.4592
_поднима	-11.4593
_душевнои	-11.4596
_стрелковои	-11.4598
_придумат	-11.4599
_молн	-11.4599
вая	-11.4601
_цк	-11.4602
_равным	-11.4602
_одетыи	-11.4603
_квадрат	-11.4604
_владение	-11.4605
_харков	-11.4606
_горами	-11.4607
_отпустил	-11.4608
_дядю	-11.4608
_волну	-11.461
_поиски	-11.461
_приказу	-11.461
_небеса	-11.461
_напечатаны	-11.461
ограф	-11.4611
_иностраннои	-11.4611
_классы	-11.4612
очные	-11.4614
_привезен	-11.4615
_секретарем	-11.4615
_чересчур	-11.4616
_становилас	-11.4617
_поступает	-11.4617
_применяются	-11.462
_пруссии	-11.462
_раскол	-11.4622
_произведениях	-11.4623
_способа	-11.4624
авшим	-11.4625
_восточных	-11.4625
_изданию	-11.4628
_философов	-11.4629
_способна	-11.4631
_четверг	-11.4632
_мя	-11.4633
_высокими	-11.4634
_гир	-11.4636
_обретен	-11.4638
_обычным	-11.4639
щему	-11.4639
_герм	-11.464
_запасы	-11.464
_торгов	-11.4641
_тратит	-11.4641
_указывал	-11.4645
_ево	-11.4646
_длинную	-11.4646
шт	-11.4646
_жалоба	-11.4647
_обращении	-11.4648
_тре	-11.4648
_веселая	-11.4648
_свободных	-11.4649
_зав	-11.465
_длинным	-11.4652
_аса	-11.4652
_выбран	-11.4652
_медведя	-11.4653
щика	-11.4656
_воевод	-11.4656
_пеи	-11.4656
_доктору	-11.4657
_металл	-11.4659
_блаженство	-11.4659
_маневр	-11.4659
_балет	-11.4661
_наступлен	-11.4661
_пу	-11.4663
_коллег	-11.4663
_областях	-11.4663
_симпат	-11.4664
_морозов	-11.4664
_ленинград	-11.4665
_георгии	-11.4666
_несчастя	-11.4667
_экзамен	-11.4668
ющему	-11.4669
_ясен	-11.4669
_шляпе	-11.467
_критике	-11.4672
_языку	-11.4672
_несли	-11.4672
_ребят	-11.4674
_константинович	-11.4677
_вдал	-11.4678
глас	-11.4678
_заключению	-11.4679
_высота	-11.468
_склада	-11.468
_повели	-11.4682
_тревоги	-11.4682
_испытания	-11.4682
_бра	-11.4682
_приспособлен	-11.4683
_чистое	-11.4684
_эмил	-11.4684
_рабоч	-11.4685
_болит	-11.4687
_индеицы	-11.4688
_великолепно	-11.4688
_спят	-11.4688
_охотников	-11.4689
_чая	-11.4689
_назначенныи	-11.4692
_бесполезно	-11.4693
_фанни	-11.4693
_отступил	-11.4695
_окт	-11.4696
реи	-11.4696
_отдали	-11.4697
_публично	-11.4697
_палата	-11.4697
_храни	-11.4698
_формах	-11.4699
_схватив	-11.47
_пролит	-11.4701
_гнил	-11.4701
_освободится	-11.4702
_вдобавок	-11.4702
_старичок	-11.4702
_селения	-11.4703
_приказанию	-11.4703
_гв	-11.4704
_пуля	-11.4705
_безконечно	-11.4705
вши	-11.4706
_предател	-11.4707
_границах	-11.4709
лем	-11.4711
_нравственное	-11.4711
_употребляется	-11.4712
_подлинник	-11.4712
_хвалит	-11.4713
_гавани	-11.4713
_чаикин	-11.4716
_серг	-11.4717
_вопл	-11.4718
_глубокую	-11.4718
_домашних	-11.4718
_кончилас	-11.4719
_поляки	-11.472
_мср	-11.4721
_страхе	-11.4721
_договором	-11.4722
_статями	-11.4724
_палцев	-11.4725
_развитием	-11.4726
_чертами	-11.4726
метр	-11.4728
_дивизион	-11.473
мин	-11.473
_баирона	-11.473
очная	-11.4731
_бодро	-11.4731
_шелест	-11.4731
_метр	-11.4732
_святое	-11.4733
_владении	-11.4733
инск	-11.4733
хан	-11.4733
_желанием	-11.4733
_холодная	-11.4733
_смеет	-11.4738
_отыскал	-11.4738
енное	-11.474
_иуда	-11.474
ивают	-11.4741
_смертныи	-11.4742
_сжал	-11.4742
_петух	-11.4742
_сделана	-11.4743
_гостиницы	-11.4744
_образует	-11.4748
_вины	-11.4749
_основа	-11.475
_отдават	-11.4752
_куп	-11.4753
_беду	-11.4755
_жертвои	-11.4755
_карандашом	-11.4757
дох	-11.4759
_советника	-11.4761
_потребления	-11.4761
_болота	-11.4762
_прикажете	-11.4762
_четырнадцат	-11.4763
_долги	-11.4763
_жаловался	-11.4763
_болным	-11.4763
_показала	-11.4764
_вернус	-11.4765
_посредине	-11.4765
_странник	-11.4765
_ствол	-11.4767
_выбират	-11.4767
_занялся	-11.4768
_осел	-11.4768
_роковои	-11.477
_стиля	-11.4771
_поцеловала	-11.4772
_тяжелую	-11.4772
_лора	-11.4774
_рисунок	-11.4774
_полезным	-11.4775
_рапорт	-11.4777
_устанавливаются	-11.4778
_поляр	-11.4779
_повелел	-11.4779
ума	-11.4782
_сочувств	-11.4783
_северянин	-11.4784
_разнообразных	-11.4784
_древне	-11.4784
_прекрасного	-11.4786
_умоляю	-11.4787
_сани	-11.4788
_бах	-11.4789
_контраст	-11.4789
_прислуга	-11.4789
_понравилос	-11.4789
_отечественных	-11.479
_северных	-11.479
_анну	-11.479
_лавке	-11.4792
_державы	-11.4793
_божию	-11.4793
_чугун	-11.4794
_отрасли	-11.4795
емы	-11.4795
_принадлежности	-11.4796
_отдает	-11.4796
цеп	-11.4796
_отвечая	-11.4796
_внук	-11.4798
_соображения	-11.4799
кус	-11.4799
_еси	-11.48
_богини	-11.4804
_обещает	-11.4804
_механизм	-11.4804
_дворник	-11.4804
_приезде	-11.4804
_отнес	-11.4806
_смотрител	-11.4807
_отличалис	-11.4807
_кавказе	-11.4807
_пепел	-11.4808
_дякон	-11.4809
_алексеевна	-11.4809
_плата	-11.4809
_сохранен	-11.4809
меистер	-11.481
_работами	-11.481
_исключения	-11.481
_хром	-11.4811
_любител	-11.4811
стоя	-11.4811
_теню	-11.4812
_хвостом	-11.4813
_труду	-11.4814
нке	-11.4815
_возвраща	-11.4816
_любимым	-11.4817
сту	-11.4818
_кра	-11.4819
_фланг	-11.482
_описал	-11.482
_леипциг	-11.4822
_пещеры	-11.4822
_почта	-11.4823
_необ	-11.4825
_интернет	-11.4826
_заряд	-11.4826
_революционного	-11.483
_отрицат	-11.483
_тоне	-11.4831
_поглощен	-11.4833
_горем	-11.4834
_предупредил	-11.4835
_утвердил	-11.4835
_сооружения	-11.4835
_сознавая	-11.4836
_планет	-11.4837
_лишился	-11.4839
_перестала	-11.484
_позват	-11.484
_пруд	-11.4841
вшемся	-11.4841
_безмолв	-11.4843
_демократ	-11.4843
_садитес	-11.4844
_двигатся	-11.4845
_прасковя	-11.4847
_выскочил	-11.4848
_выслушат	-11.4848
_хватало	-11.4849
_даря	-11.4849
_обморок	-11.4849
_рукописеи	-11.485
мира	-11.485
див	-11.4852
_аккуратно	-11.4852
_видение	-11.4853
_послала	-11.4855
_своиственно	-11.4855
_услугам	-11.4856
_кирилл	-11.4856
_дикои	-11.4856
_долгу	-11.4857
_бется	-11.4859
_раствор	-11.4859
_экс	-11.4859
_ирина	-11.486
_лог	-11.486
_гаи	-11.4861
_сопротивления	-11.4861
_выдержат	-11.4862
_теплыи	-11.4865
_называемых	-11.4865
_грохот	-11.4865
_тоскои	-11.4867
_верте	-11.4867
_колца	-11.4867
_заклад	-11.4868
_луг	-11.4869
_улыбки	-11.4869
_понеже	-11.4869
_провела	-11.487
_отездом	-11.4871
_леихтвеис	-11.4871
_тянется	-11.4871
_входили	-11.4872
_северныи	-11.4873
_прочими	-11.4873
_мосту	-11.4875
_россииского	-11.4876
_маменка	-11.4877
_французск	-11.4877
_губернатором	-11.4878
_лип	-11.488
_приблизился	-11.4882
_шо	-11.4882
_мертвыи	-11.4883
_ревности	-11.4883
ировали	-11.4884
_руч	-11.4884
_идеала	-11.4885
_открытои	-11.4886
_отходов	-11.4887
_удален	-11.4887
_плат	-11.4888
_отступит	-11.489
_субект	-11.4891
_глубокие	-11.4891
_управлял	-11.4892
_почту	-11.4893
_лов	-11.4894
_пыталис	-11.4894
_награды	-11.4894
_англииских	-11.4895
_религиозного	-11.4895
_поручение	-11.4895
_дрожит	-11.4896
_разрешил	-11.4896
_округе	-11.4896
_подготовке	-11.4899
_глазу	-11.4899
_служанка	-11.4899
_преимущество	-11.4899
_опасатся	-11.4899
_митрополита	-11.49
_христиане	-11.49
_обречен	-11.4903
_фамилию	-11.4904
_джул	-11.4905
_мужественно	-11.4905
_охоте	-11.4905
_вспоминат	-11.4906
_задыхаяс	-11.4907
_представлялос	-11.4908
_красавицы	-11.4909
_серебром	-11.4912
_побледнел	-11.4913
_полноте	-11.4913
_осмелился	-11.4914
_довести	-11.4914
_успокоится	-11.4914
_живописец	-11.4915
_седла	-11.4916
_тов	-11.4916
_теряя	-11.4916
_астроном	-11.4918
_начинала	-11.4918
_леонардо	-11.492
_опор	-11.492
_египта	-11.4921
_представ	-11.4922
_настоящие	-11.4923
_наивно	-11.4924
_злоба	-11.4924
_федоровна	-11.4925
_закрыты	-11.4927
_полагает	-11.4927
_правилами	-11.4928
_платона	-11.4928
_распут	-11.493
_увеличит	-11.4931
_попался	-11.4931
_гегел	-11.4933
_стенам	-11.4934
_траур	-11.4935
_богато	-11.4935
_би	-11.4936
_кончины	-11.4936
_деревянныи	-11.4936
_отдала	-11.4936
_святую	-11.4937
_нимало	-11.4938
_греческих	-11.4938
ено	-11.494
_плет	-11.4941
_афон	-11.4941
_перво	-11.4942
_указание	-11.4942
_абсолютно	-11.4942
_возвышен	-11.4943
_рана	-11.4944
_мери	-11.4945
_печалныи	-11.4945
_преследоват	-11.4945
рик	-11.4945
_неизвестныи	-11.4946
_очки	-11.4947
истои	-11.4947
_громад	-11.4948
_кумир	-11.4949
_запрос	-11.495
_архиве	-11.4951
_линию	-11.4952
_изменилос	-11.4952
_ше	-11.4952
_грез	-11.4953
_зевс	-11.4956
_гбл	-11.4957
чал	-11.4959
_подозрително	-11.4959
_постояннои	-11.496
_производил	-11.4962
_богатым	-11.4962
_программа	-11.4963
_взвод	-11.4964
_исполнител	-11.4964
_вашими	-11.4964
_березов	-11.4964
вяз	-11.4965
_рыж	-11.4966
_придя	-11.4966
_страницах	-11.4966
_целует	-11.4968
_чистым	-11.4968
_таинственныи	-11.4968
плав	-11.4969
_испан	-11.4971
_молился	-11.4971
_антуан	-11.4973
_боико	-11.4974
_участием	-11.4974
_копеики	-11.4975
_обеим	-11.4976
_порок	-11.4976
_ницше	-11.4977
_считался	-11.4977
_темную	-11.4977
_продолжалас	-11.4977
_рукава	-11.498
_земных	-11.498
_впадает	-11.4981
_состояло	-11.4981
_приняло	-11.4983
_брали	-11.4984
_дикии	-11.4985
_ткан	-11.4985
_утешит	-11.4986
_вторник	-11.4986
_мудр	-11.4989
_козлов	-11.4992
_пустое	-11.4992
_возмущен	-11.4993
_спрятал	-11.4994
_необходима	-11.4996
_сделаи	-11.4997
гран	-11.4997
бит	-11.4999
_чины	-11.4999
_ощущения	-11.5
_наружност	-11.5
_страннои	-11.5
_канала	-11.5004
_тме	-11.5008
_завист	-11.5009
_принимала	-11.5009
_убедително	-11.5009
_диким	-11.501
_указател	-11.5011
_постоянное	-11.5013
_классе	-11.5013
еп	-11.5014
_слышался	-11.5015
_божество	-11.5016
_напомнит	-11.5017
_верен	-11.5017
_мех	-11.5019
_опера	-11.5022
_редактора	-11.5023
люб	-11.5024
_губернатору	-11.5024
_разбудил	-11.5024
_хребта	-11.5024
_закончен	-11.5024
_вскочила	-11.5025
_обещала	-11.5026
_безумно	-11.5027
_левыи	-11.5027
_тонкии	-11.5028
_росла	-11.5031
_оре	-11.5032
_всеобщее	-11.5032
рил	-11.5033
_отечеству	-11.5034
_зерна	-11.5034
_вписано	-11.5035
_уходя	-11.5035
_качество	-11.5035
_ветвеи	-11.5036
_пех	-11.5039
_тревож	-11.5039
_оставаяс	-11.5039
_участки	-11.5044
_велмож	-11.5046
_легкие	-11.5046
_пределами	-11.5046
_погоду	-11.5047
_упоминает	-11.5048
_здрав	-11.5048
ируют	-11.5048
_страхово	-11.5049
_поимал	-11.5049
_странице	-11.5052
_поручено	-11.5053
_поехат	-11.5055
_коем	-11.5055
_горячеи	-11.5056
_олимп	-11.5056
_организациями	-11.5057
_украинскои	-11.5058
_телеграмма	-11.506
_недоволен	-11.5062
_уполномоченным	-11.5062
_песе	-11.5062
_служивш	-11.5063
_чувствами	-11.5065
_дун	-11.5065
_заходил	-11.5066
ившеися	-11.5066
анд	-11.5067
_противников	-11.5068
_собеседник	-11.5069
_оказывал	-11.5071
_боге	-11.5073
_сражение	-11.5073
_обект	-11.5075
_стиле	-11.5075
_художники	-11.5075
_попрежнему	-11.5077
_сур	-11.5077
_подчас	-11.5078
_нанес	-11.5078
_историко	-11.5079
_тишины	-11.5079
_предшественник	-11.5081
_варвар	-11.5082
_битве	-11.5082
_поставлены	-11.5084
_памятников	-11.5084
_побежала	-11.5085
_любовник	-11.5085
нг	-11.5086
_размышлен	-11.5087
утся	-11.5087
_повторят	-11.5087
_рул	-11.509
_помогал	-11.509
_высоком	-11.5091
_подозревал	-11.5091
линг	-11.5091
_последоват	-11.5092
_колено	-11.5092
_крылями	-11.5093
_волка	-11.5093
_канон	-11.5094
_колоколчик	-11.5096
_принадлежала	-11.5097
_ключи	-11.5098
_юрист	-11.5101
_министру	-11.5103
_капитану	-11.5103
_ухода	-11.5104
_капиталного	-11.5105
_окне	-11.5105
_одинок	-11.5107
_наидем	-11.5107
_тесс	-11.5108
_длину	-11.5108
_соединит	-11.511
_обыск	-11.5111
нте	-11.5111
_покупат	-11.5113
евского	-11.5114
_усталост	-11.5115
_германия	-11.5116
_разорвал	-11.5116
_последовател	-11.5118
_пиши	-11.5119
_определил	-11.512
_вечное	-11.5121
_поместил	-11.5121
_пятсот	-11.5122
_туго	-11.5122
_расстатся	-11.5122
_апостола	-11.5125
_излишне	-11.5126
_клятву	-11.5126
_направилис	-11.5127
_заведения	-11.5127
_советую	-11.5128
_нравственного	-11.5129
_редакц	-11.5129
_отмене	-11.5129
_пожалован	-11.5135
_аркадии	-11.514
ившие	-11.514
_шерст	-11.5141
_гряд	-11.5141
_вставая	-11.5141
_сравнит	-11.5144
_подоб	-11.5145
_крестянскои	-11.5145
_наслед	-11.5145
_мант	-11.5145
_закат	-11.5146
_осип	-11.5147
_верили	-11.5147
_долои	-11.5147
_книгои	-11.5148
_нераз	-11.5149
_влад	-11.5149
_охотника	-11.515
_осуществлят	-11.5151
_совестно	-11.5151
_чулков	-11.5152
_неболшим	-11.5152
_обявила	-11.5158
_следовател	-11.5158
_бывшеи	-11.5158
_сени	-11.5159
печат	-11.5161
_плену	-11.5162
_желателно	-11.5162
_кош	-11.5163
_молчаливо	-11.5163
_злых	-11.5164
_застав	-11.5164
_неясно	-11.5165
_практики	-11.5166
_сторожа	-11.5167
_горизонте	-11.5167
_бытие	-11.5168
_николаю	-11.5168
никами	-11.517
_острыи	-11.517
ере	-11.517
_штрафа	-11.5171
_юношу	-11.5172
_пестр	-11.5173
_поражение	-11.5173
шихся	-11.5174
_ланд	-11.5175
_подлинно	-11.5176
_аукциона	-11.5176
_санитарно	-11.5177
_карту	-11.5178
_кг	-11.5179
_благоразум	-11.518
_осо	-11.5181
_хаос	-11.5182
чив	-11.5182
_зорко	-11.5182
_слышен	-11.5184
_евангелия	-11.5185
_читаем	-11.5187
_представителями	-11.5189
_родным	-11.5189
_стоны	-11.519
_развернул	-11.5191
_бон	-11.5191
_посещал	-11.5191
_кочев	-11.5193
_мотивы	-11.5193
_чувствуется	-11.5193
_оканчива	-11.5195
_проявлен	-11.5195
_условиям	-11.5195
_разряд	-11.5197
_оставим	-11.5198
_бегушев	-11.5198
_возражал	-11.52
_занимают	-11.5201
_всадник	-11.5201
_споров	-11.5202
_управлении	-11.5202
_подозрение	-11.5203
_герцогиня	-11.5205
_бук	-11.5205
_подряд	-11.5205
_датируется	-11.5206
_кошмар	-11.5206
_холма	-11.5206
_сожжен	-11.5207
_погас	-11.5208
_трудности	-11.5209
_славои	-11.5209
_произ	-11.5209
_открылас	-11.521
_социализма	-11.521
_томас	-11.521
_жалобу	-11.5211
мент	-11.5212
_решителныи	-11.5212
_рассчитыват	-11.5212
_ленина	-11.5213
_шестнадцат	-11.5216
_тумане	-11.5217
_чужого	-11.5217
_заболел	-11.5217
_придает	-11.5217
_кулак	-11.5217
_соседи	-11.5218
_закричала	-11.5219
_реин	-11.5219
_посторонних	-11.5221
_тюрма	-11.5221
_небесныи	-11.5223
вато	-11.5223
_солон	-11.5225
_насил	-11.5226
_воеводы	-11.5227
_севастополя	-11.5228
_предоставлен	-11.5229
_пробежал	-11.523
_приемы	-11.523
_удовлетворителн	-11.523
_человеческаго	-11.523
_юстиции	-11.5231
_карандаш	-11.5231
ола	-11.5231
_детских	-11.5231
_сед	-11.5232
_мыслит	-11.5233
_помолчал	-11.5235
_присел	-11.5236
_уполномоченныи	-11.5237
_едят	-11.5237
_самою	-11.5237
_шляпы	-11.5237
_затруднения	-11.5238
_интересом	-11.5238
_воздеиствия	-11.524
_винт	-11.5241
_вулф	-11.5242
_нравственных	-11.5244
_предводител	-11.5244
_тщеслав	-11.5244
_легкая	-11.5244
_называемыи	-11.5245
_торг	-11.5246
_заплатил	-11.5249
_дурное	-11.525
нная	-11.5252
_предусмотренные	-11.5253
ически	-11.5254
_страшных	-11.5255
_воззрения	-11.5255
_переднюю	-11.5256
_июне	-11.5256
_гимназ	-11.5257
_принципов	-11.5257
_научит	-11.5257
_дикие	-11.5258
кот	-11.5258
_чашку	-11.5259
_нормы	-11.5263
_эд	-11.5264
_обвинител	-11.5265
_анализа	-11.5266
_обявили	-11.5266
_порога	-11.5267
_скором	-11.5267
_равнодуш	-11.5268
_дерзост	-11.5271
_угас	-11.5271
_константина	-11.5271
_рядах	-11.5272
_разрыва	-11.5272
_фрак	-11.5272
_чад	-11.5273
_сине	-11.5273
_оказыват	-11.5274
_суше	-11.5275
ани	-11.5276
алная	-11.5276
_государственное	-11.5278
_уголовного	-11.5279
_америку	-11.528
_имеющим	-11.528
_размерах	-11.5281
_твердым	-11.5281
_участке	-11.5281
_желтые	-11.5283
рош	-11.5283
_подробностеи	-11.5284
_сложен	-11.5285
_десятков	-11.5286
_родственник	-11.5288
_страхования	-11.5289
_невероятно	-11.529
_сверкали	-11.5291
_кротко	-11.5293
_ареста	-11.5293
елная	-11.5294
_южного	-11.5295
_некуда	-11.5296
_беспокоиство	-11.5297
_стефан	-11.5299
_мучен	-11.53
ток	-11.53
_костюме	-11.5301
_облек	-11.5302
_священныи	-11.5303
_вспоминая	-11.5304
_полгода	-11.5304
_авг	-11.5304
_всевозможных	-11.5304
_читателям	-11.5304
_фелдмаршал	-11.5304
_эсг	-11.5305
_умерли	-11.5306
_изобразит	-11.5308
ающим	-11.5308
зон	-11.5312
тона	-11.5312
_старинных	-11.5314
бирал	-11.5315
_поставила	-11.5315
_предполагает	-11.5315
_покровителство	-11.5315
_полагается	-11.5319
_читатели	-11.5319
овск	-11.5319
_пана	-11.5321
_гордыи	-11.5322
_кипр	-11.5322
_журналы	-11.5324
_усте	-11.5326
_бирон	-11.5326
_требую	-11.5328
_предание	-11.5329
_западных	-11.5331
_подозрения	-11.5331
_тонким	-11.5332
_хозяев	-11.5334
_родина	-11.5334
_ощущал	-11.5334
_изложит	-11.5334
_воспоминаниях	-11.5335
_бежала	-11.5335
_июле	-11.5336
_обвинение	-11.5337
_возвращалис	-11.5337
_указано	-11.5338
_лебед	-11.5339
_надписи	-11.534
_янв	-11.5342
_башне	-11.5342
_обещали	-11.5343
_потер	-11.5343
_неохотно	-11.5343
_следуют	-11.5345
_рассмотрении	-11.5346
_окруженныи	-11.5346
_казани	-11.5348
_мужества	-11.5351
_сделается	-11.5351
глаз	-11.5351
_окнах	-11.5351
_нижних	-11.5352
_толк	-11.5352
_суровыи	-11.5352
_страдание	-11.5352
_пистолет	-11.5354
_пари	-11.5356
_родственники	-11.5356
_серб	-11.5356
_пчел	-11.5357
_водится	-11.5357
_ответчика	-11.5357
_живую	-11.5358
_шелли	-11.5361
_установленным	-11.5361
_светит	-11.5362
_кончается	-11.5363
_ковер	-11.5363
_рак	-11.5364
_ласка	-11.5364
_шопенгауэр	-11.5365
_выяснит	-11.5365
_введение	-11.5365
_чис	-11.5368
_перя	-11.5369
_наследник	-11.5369
_посланник	-11.5371
_появится	-11.5374
_спирт	-11.5374
_колпак	-11.5374
_музея	-11.5374
_похвалы	-11.5374
_тонкои	-11.5374
_размышления	-11.5375
_точнее	-11.5375
_вагона	-11.5377
стеи	-11.5377
_принцессы	-11.5377
_прекращения	-11.5377
_опытом	-11.5379
_кант	-11.538
_добродуш	-11.5384
_отче	-11.5384
_муч	-11.5384
_вытекает	-11.5385
_внутреннии	-11.5387
_колонна	-11.5388
_смеялас	-11.5389
_атаку	-11.5389
_полн	-11.5391
_ресторан	-11.5391
_двинулис	-11.5391
_восемнадцат	-11.5392
_квартал	-11.5392
_происходил	-11.5393
_пятыи	-11.5395
_усилии	-11.5395
_указаннои	-11.5397
_дявола	-11.5398
_бассеин	-11.54
ившегося	-11.54
_элемента	-11.5401
_прод	-11.5405
_пожаловал	-11.5406
_ушеи	-11.5406
_сны	-11.5406
_газов	-11.5408
_государем	-11.5409
_дочка	-11.5409
_лгот	-11.5411
чныи	-11.5411
_храмов	-11.5414
_ограничения	-11.5416
_граница	-11.5421
рт	-11.5421
_исполнению	-11.5422
_эс	-11.5423
тич	-11.5423
_вызвала	-11.5424
_хорошаго	-11.5425
нел	-11.5426
_жестокости	-11.5426
_капел	-11.5426
_миллион	-11.5427
_ходом	-11.5427
_бабу	-11.5427
_почин	-11.5427
_отстал	-11.5429
_обрыв	-11.5429
_сохранял	-11.5429
_условиями	-11.5431
_одушевлен	-11.5435
_выстрелы	-11.5438
станов	-11.5438
_представителств	-11.5439
_лестницу	-11.544
_герб	-11.5441
авшихся	-11.5441
_зеркал	-11.5442
_тянет	-11.5442
_целовал	-11.5443
_сообща	-11.5443
_кредита	-11.5443
_бого	-11.5444
_колебл	-11.5445
_посетит	-11.5445
ушек	-11.5447
_садис	-11.5447
_опо	-11.5449
_информация	-11.545
_изобретен	-11.5452
ании	-11.5453
_понимания	-11.5454
_акц	-11.5455
_россииских	-11.5455
ствовал	-11.5455
_цит	-11.5455
_применении	-11.5456
_программу	-11.5456
_жюл	-11.5456
_конституционно	-11.5457
_военному	-11.5457
_достоиным	-11.5457
_мелник	-11.5457
_гляжу	-11.5458
_шутя	-11.5458
рица	-11.5459
_нежным	-11.546
_брани	-11.5462
_рецензии	-11.5463
_отделатся	-11.5464
_доволна	-11.5464
_мудрено	-11.5465
_инструментов	-11.5465
_карете	-11.5467
_заснут	-11.5468
_преимущества	-11.5469
рас	-11.547
_обнаружил	-11.547
_последовали	-11.5471
_долее	-11.5472
_ошибаюс	-11.5473
_приятеля	-11.5475
_солнцу	-11.5479
_смет	-11.5479
_началников	-11.548
_благословение	-11.5481
_называемои	-11.5481
_понравится	-11.5481
_позволю	-11.5482
_лос	-11.5482
_дрожали	-11.5484
_колебания	-11.5484
_политическим	-11.5484
_указанием	-11.5485
_гам	-11.5485
кину	-11.5486
_походе	-11.5487
_социалных	-11.5487
_поцеловат	-11.5489
_предыдущ	-11.549
_умерших	-11.5492
_прислан	-11.5493
_командиров	-11.5493
_бокал	-11.5493
_дерзко	-11.5494
_проводили	-11.5494
_федоров	-11.5494
_королеве	-11.5495
_истинная	-11.5495
_скат	-11.5496
_позволен	-11.5497
_закрыла	-11.5498
_тихая	-11.55
_извозчик	-11.55
_тема	-11.5501
щики	-11.5501
_частные	-11.5502
_детство	-11.5502
_психолог	-11.5502
_позицию	-11.5503
_нерешително	-11.5503
_заслужил	-11.5503
_надлежало	-11.5505
_старшин	-11.5505
_точке	-11.5506
_госпитал	-11.5507
_напряжения	-11.5508
_поверх	-11.5508
_мусулман	-11.5509
_глеб	-11.5509
_выражении	-11.551
_студенты	-11.551
_оанн	-11.551
_расцвет	-11.5513
_проводник	-11.5515
_называемые	-11.5515
_распространяет	-11.5516
_производят	-11.5516
_око	-11.5517
_идее	-11.5517
_возмут	-11.5518
_надела	-11.5519
_гре	-11.5521
_нападение	-11.5522
_совершения	-11.5523
_мережковскии	-11.5523
_хозяистве	-11.5524
_согласна	-11.5524
_копе	-11.5525
стар	-11.5526
рек	-11.5526
_маня	-11.5526
вшему	-11.5527
яне	-11.5528
енно	-11.553
_хозяева	-11.5531
_магазина	-11.5532
бегают	-11.5532
_василевича	-11.5532
_учении	-11.5533
_избранные	-11.5536
_построил	-11.5536
_следовали	-11.5537
_смог	-11.5538
_молния	-11.5539
_падают	-11.5539
_пятно	-11.554
ивая	-11.5541
_выступили	-11.5542
_признават	-11.5543
_наравне	-11.5544
_удивлятся	-11.5545
_ночеи	-11.5546
_умолк	-11.5548
_неболшом	-11.5548
_отце	-11.5548
_холоп	-11.5549
_особа	-11.5549
_печатат	-11.555
_указа	-11.555
_днепр	-11.5552
_тускло	-11.5553
_федора	-11.5554
_собралас	-11.5554
_никакая	-11.5556
_ясным	-11.5557
_водо	-11.5557
ецкии	-11.5561
_уважат	-11.5561
_правовых	-11.5562
_верб	-11.5563
_отнял	-11.5563
_старшина	-11.5567
_ребенку	-11.5567
_бухар	-11.5568
_разсказа	-11.5569
_произнести	-11.5572
_злато	-11.5572
тро	-11.5575
_заплакал	-11.5575
_картине	-11.5576
_захватил	-11.5577
_горят	-11.5578
_энциклопедия	-11.558
_надоело	-11.558
_слыхали	-11.5583
_раздела	-11.5584
_мертвые	-11.5588
_абзац	-11.5589
_рене	-11.5589
_зерно	-11.5589
_кампании	-11.559
_предусмотрено	-11.5591
_любопытства	-11.5591
_сторонами	-11.5593
_дверям	-11.5593
_глухим	-11.5593
_гриб	-11.5595
рия	-11.5596
_подло	-11.5597
_перикл	-11.5597
_тоскливо	-11.5598
_угнетен	-11.5599
_вынести	-11.56
_дратся	-11.56
_вздрогнула	-11.5601
_предположения	-11.5601
_контр	-11.5602
_щел	-11.5603
_просят	-11.5604
_соколов	-11.5606
_подвергнут	-11.5606
_крестянских	-11.5607
_государыни	-11.5607
_девиц	-11.5607
_руководит	-11.5611
_приступил	-11.5612
_увлека	-11.5613
_яр	-11.5615
_селских	-11.5615
_историеи	-11.5615
_подвиги	-11.5615
_щи	-11.5616
_пух	-11.5616
бож	-11.5616
_облаков	-11.5616
_хлор	-11.5616
_убиица	-11.562
_доити	-11.562
_загадочно	-11.562
инки	-11.562
_вкусу	-11.5621
_рожд	-11.5621
_транспорта	-11.5622
_ряде	-11.5623
_защищен	-11.5623
_привыкла	-11.5623
_налог	-11.5624
_буквами	-11.5627
_делаеш	-11.5629
_вводит	-11.563
_полскии	-11.563
_ближаиших	-11.5632
_законодател	-11.5634
_крыла	-11.5634
_посему	-11.5634
_проверит	-11.5634
_остр	-11.5635
_десяток	-11.5636
печ	-11.5637
_всеволод	-11.5637
_критику	-11.5637
_встречаем	-11.5638
_республике	-11.5639
_существовании	-11.5641
_пушкину	-11.5641
_любя	-11.5642
няк	-11.5642
_задал	-11.5644
_общественным	-11.5644
полз	-11.5645
_бродил	-11.5645
_сезон	-11.5645
_широкими	-11.5649
_михаиловича	-11.5649
_паж	-11.5653
_удаля	-11.5653
_спеша	-11.5653
_уничтожение	-11.5653
_запер	-11.5653
_пролетариат	-11.5655
_выслушал	-11.5656
ыр	-11.5657
_христова	-11.5658
_временного	-11.5659
_старших	-11.566
_старину	-11.566
чива	-11.566
_призвал	-11.5662
_потряс	-11.5662
_нечем	-11.5662
_солнышко	-11.5662
_безразлично	-11.5662
_предвидел	-11.5663
_живя	-11.5663
ером	-11.5663
_живущих	-11.5665
_выиграл	-11.5668
_сужден	-11.5669
_павлов	-11.5669
_послов	-11.5671
_поддел	-11.5673
_историческое	-11.5673
енку	-11.5673
готов	-11.5673
_упрек	-11.5674
_лавров	-11.5675
_гримм	-11.5675
_средние	-11.5675
ившая	-11.5676
_фердинанд	-11.5676
_сердцах	-11.5676
_внешним	-11.5677
_либерал	-11.5678
_политическое	-11.568
_убран	-11.5681
_бир	-11.5681
_запахом	-11.5681
_вступили	-11.5681
рова	-11.5683
мышл	-11.5683
_миллионы	-11.5684
_оценке	-11.5686
_слабые	-11.5686
_ритм	-11.5686
_пропуск	-11.5687
_грабеж	-11.569
_сообразил	-11.5692
_вулкан	-11.5694
_едут	-11.5694
_елены	-11.5694
_торговлю	-11.5694
_безопасност	-11.5695
_наслаждения	-11.5695
_просидел	-11.5697
_пют	-11.5697
_преступников	-11.5701
_свежии	-11.5701
_заплакала	-11.5702
_темном	-11.5703
_заговорили	-11.5703
_сочувствие	-11.5703
_философа	-11.5704
_сул	-11.5704
_пива	-11.5705
_знаков	-11.5706
_мул	-11.5707
_гражданами	-11.5708
_здравствует	-11.571
_забота	-11.5712
_промах	-11.5713
_обяснят	-11.5714
_дет	-11.5714
_ограф	-11.5714
_отказе	-11.5716
ющаго	-11.5717
верт	-11.5717
_внутренняя	-11.5718
_твердои	-11.5718
_малчиком	-11.5718
_пат	-11.572
_эв	-11.572
_блестящих	-11.572
_презрением	-11.5721
_поразило	-11.5721
_аркад	-11.5723
_открыта	-11.5725
_темными	-11.5726
_подруги	-11.5726
_разрушит	-11.5727
_изготовлен	-11.5727
_впечатлении	-11.5729
_расположенных	-11.573
_орудие	-11.573
_кинулся	-11.5731
вшем	-11.5731
имен	-11.5731
_штурм	-11.5731
деж	-11.5732
_июн	-11.5732
_местнои	-11.5733
_затвор	-11.5735
_трижды	-11.5735
_бедную	-11.5736
_осиф	-11.5737
_поднимался	-11.5737
_проблемы	-11.5737
_искусственно	-11.5737
_упрям	-11.5738
_старателно	-11.5738
_облако	-11.5738
_невозможности	-11.5739
_литератор	-11.5739
ери	-11.574
_писар	-11.5741
_громадные	-11.5741
_сомневался	-11.5742
_имееш	-11.5743
_улыбается	-11.5744
_платежеи	-11.5745
_дубин	-11.5746
_великолепныи	-11.5746
_поэту	-11.5747
_законных	-11.5748
_быстрым	-11.5748
_потерян	-11.5748
_дары	-11.575
лак	-11.575
_старина	-11.575
_военном	-11.5751
_женскии	-11.5751
_настя	-11.5751
буд	-11.5752
_утомлен	-11.5752
_нав	-11.5752
_очищен	-11.5753
лик	-11.5755
_жалею	-11.5757
_блажен	-11.5759
_присутствоват	-11.5759
образ	-11.576
_ряб	-11.576
_методов	-11.5762
_наказ	-11.5762
_вредно	-11.5764
_типов	-11.5764
_лда	-11.5765
_милостиво	-11.5765
_дата	-11.5766
_фед	-11.5767
_хрустал	-11.5772
_подавая	-11.5772
_прелести	-11.5773
_связана	-11.5773
_дорошевич	-11.5774
_кист	-11.5774
_подвал	-11.5774
_всевозможные	-11.5774
форд	-11.5776
_веселя	-11.5776
_думаем	-11.5776
_бухгалтер	-11.5776
_адел	-11.5777
_обращалис	-11.5777
_несчастным	-11.5779
_суждения	-11.578
_верху	-11.5782
_маскарад	-11.5782
пуст	-11.5783
_необходимы	-11.5784
_прогресса	-11.5784
_обеме	-11.5784
_свободным	-11.5785
_династии	-11.5786
_вспыхнула	-11.5786
_рр	-11.5786
_отряды	-11.5787
_сундук	-11.5787
_разсчет	-11.579
_определенные	-11.579
_взрыва	-11.5791
_вечная	-11.5795
_несчастные	-11.5795
_ефим	-11.5796
_узкои	-11.5801
_чернов	-11.5802
_скуч	-11.5802
_тетки	-11.5803
_проклятыи	-11.5803
_глупыи	-11.5804
_творения	-11.5804
_преступника	-11.5804
авшая	-11.5805
_обятия	-11.5805
пов	-11.5805
_руководства	-11.5812
_выбора	-11.5812
_являлос	-11.5816
_дин	-11.5817
_избрал	-11.582
_поговорим	-11.5821
_малколм	-11.5822
_уселся	-11.5823
_горст	-11.5824
_заходит	-11.5825
_подушки	-11.5825
_таиныи	-11.5825
пон	-11.5825
_божественнои	-11.5826
_ложится	-11.5827
_почитат	-11.5828
_строен	-11.5829
_удивления	-11.5829
стал	-11.5831
_училищ	-11.5831
_римскии	-11.5832
_труде	-11.5835
_слыш	-11.5835
ворот	-11.5836
_дивиз	-11.5836
_неудач	-11.5837
рои	-11.5837
_раздается	-11.5837
_сбора	-11.5839
_соловеи	-11.5841
_христианского	-11.5842
_расположения	-11.5844
_палач	-11.5845
_фредерик	-11.5846
_свадбу	-11.5846
_людвиг	-11.5846
_выдаче	-11.5846
_составлял	-11.5847
_рота	-11.5853
_третю	-11.5853
_управляющии	-11.5853
_домна	-11.5854
_возвратил	-11.5854
_ночеват	-11.5854
_раздуме	-11.5854
стон	-11.5856
куп	-11.5856
свет	-11.5856
_переговорит	-11.5857
_опере	-11.5858
очен	-11.5858
_храбрыи	-11.5858
_точностю	-11.5858
лета	-11.5859
_сомнение	-11.5859
вою	-11.5859
_лаи	-11.586
_автоном	-11.586
_острог	-11.5862
_пропитан	-11.5863
_семеиств	-11.5863
_оклад	-11.5863
_физически	-11.5864
_преступник	-11.5865
_оправдание	-11.5865
_достигла	-11.5866
_необходим	-11.5866
_лугов	-11.5867
_настоящаго	-11.587
_понимание	-11.587
_привычке	-11.587
_поправит	-11.587
_тревогу	-11.5871
_аристократическ	-11.5872
_исходит	-11.5872
_тан	-11.5873
_обявление	-11.5877
_мертвая	-11.5878
нского	-11.5878
_уверенностю	-11.5879
_написанное	-11.5881
_лазарет	-11.5881
_пурпур	-11.5882
_оживлен	-11.5883
_вознагражден	-11.5884
лила	-11.5884
_джи	-11.5885
_ведется	-11.5886
_покоинои	-11.5886
_проезд	-11.5887
верн	-11.5887
_некии	-11.5891
_узнаете	-11.5892
_заключенных	-11.5892
_приводят	-11.5892
[...]
