<unk>	0
<s>	0
</s>	0
▁и	-3.16402
▁в	-3.60551
▁не	-4.22165
▁на	-4.38281
▁с	-4.39795
и	-4.54256
▁а	-4.57257
▁я	-4.60445
▁что	-4.63182
▁е	-4.79356
а	-4.81822
е	-4.94044
▁он	-4.95384
▁о	-4.96594
▁к	-5.06033
▁как	-5.13277
▁по	-5.13946
▁его	-5.22638
▁но	-5.38743
▁то	-5.41537
▁за	-5.41619
▁из	-5.46261
▁от	-5.49396
м	-5.58947
▁все	-5.59829
▁это	-5.60701
▁у	-5.62324
у	-5.7544
▁так	-5.771
▁же	-5.785
▁она	-5.89246
▁для	-5.9484
▁вы	-5.97857
▁было	-6.00703
▁бы	-6.01639
х	-6.05363
▁толко	-6.08837
▁до	-6.10696
▁был	-6.11805
▁мне	-6.12892
ы	-6.14044
▁или	-6.18774
▁ее	-6.20088
▁их	-6.20622
о	-6.21369
▁мы	-6.24227
ом	-6.24322
▁г	-6.25429
▁при	-6.26006
▁меня	-6.26502
▁когда	-6.26809
▁ты	-6.34276
▁еще	-6.35588
▁они	-6.37526
я	-6.37703
ся	-6.41516
▁да	-6.41989
▁ему	-6.44933
▁ни	-6.4612
▁если	-6.48468
▁под	-6.51975
▁во	-6.53185
ю	-6.53657
ов	-6.55769
▁быт	-6.6049
▁уже	-6.60829
▁р	-6.60957
▁чтобы	-6.61174
▁со	-6.61275
го	-6.65853
▁ли	-6.70175
ми	-6.71446
▁время	-6.7514
▁были	-6.77786
▁была	-6.79653
▁вот	-6.80527
▁нет	-6.82411
▁т	-6.84586
▁может	-6.84588
▁тепер	-6.87125
ии	-6.87152
▁раз	-6.87295
▁где	-6.87532
▁об	-6.87592
▁того	-6.89326
ая	-6.8968
▁без	-6.9025
▁чем	-6.91118
▁него	-6.91542
▁себя	-6.93425
т	-6.93691
▁этого	-6.93963
▁очен	-6.95267
ои	-6.95851
▁м	-6.97396
▁даже	-6.98624
▁ест	-6.99561
▁тем	-7.0027
ных	-7.01035
▁сказал	-7.01787
▁нас	-7.06404
▁том	-7.07256
▁себе	-7.07704
▁будет	-7.07996
▁вас	-7.08574
с	-7.08584
▁еи	-7.10587
ами	-7.11328
▁вам	-7.12476
▁после	-7.12886
▁более	-7.13733
▁ю	-7.15115
▁между	-7.16198
▁мои	-7.16685
▁свои	-7.16704
▁этот	-7.17242
▁них	-7.17661
▁всех	-7.17716
▁этом	-7.19567
ная	-7.20183
▁здес	-7.2027
▁там	-7.21344
ные	-7.21562
▁которыи	-7.21675
▁своеи	-7.22144
▁кто	-7.22895
ныи	-7.22963
▁которые	-7.24283
нои	-7.24714
▁п	-7.25245
ую	-7.27667
▁человек	-7.27857
▁один	-7.29524
▁эти	-7.31031
▁потому	-7.31328
▁ничего	-7.35006
▁жизни	-7.35688
▁им	-7.36101
▁ним	-7.3691
▁тогда	-7.37713
▁над	-7.37821
▁говорит	-7.3789
ного	-7.38445
▁ну	-7.38535
▁сам	-7.39733
▁н	-7.39757
▁нибуд	-7.40589
▁нам	-7.40726
▁несколко	-7.42032
ия	-7.44157
▁д	-7.44566
▁также	-7.44728
▁дело	-7.44914
▁свою	-7.45594
▁перед	-7.46779
▁тебя	-7.47393
▁тебе	-7.47639
▁своего	-7.47805
▁можно	-7.49018
ка	-7.49246
▁своих	-7.49454
ие	-7.50077
ет	-7.50519
ную	-7.50604
ем	-7.50935
▁ден	-7.51695
▁этои	-7.51968
▁года	-7.52104
▁л	-7.53892
▁статя	-7.54535
▁через	-7.55365
▁вед	-7.55644
▁много	-7.56218
▁лет	-7.58255
ным	-7.58584
▁б	-7.58869
▁тут	-7.5888
▁х	-7.5992
еи	-7.60216
▁потом	-7.60262
▁всего	-7.60267
▁ем	-7.60294
ию	-7.62831
▁болше	-7.6285
▁мог	-7.62956
▁про	-7.63295
▁хотя	-7.63543
▁жизн	-7.64348
▁част	-7.65409
▁се	-7.65505
▁всегда	-7.67577
▁ея	-7.70198
н	-7.70738
▁которых	-7.71008
▁тот	-7.71136
▁надо	-7.71665
ого	-7.7181
ки	-7.7193
▁два	-7.72017
л	-7.72925
▁против	-7.73366
▁неи	-7.74856
▁всем	-7.75135
▁людеи	-7.75401
▁ор	-7.75723
▁этих	-7.75807
▁какои	-7.76222
▁другои	-7.7683
▁которои	-7.76921
ис	-7.77108
▁свое	-7.7737
▁эта	-7.78011
аго	-7.78361
▁уж	-7.78846
▁см	-7.78906
▁друг	-7.78964
▁лиш	-7.79166
▁человека	-7.79819
▁сказат	-7.80713
▁почти	-7.80771
▁наконец	-7.80954
ах	-7.81274
▁слова	-7.81689
▁своим	-7.81707
▁такои	-7.82272
▁глаза	-7.82668
▁нем	-7.82911
▁ко	-7.82966
ное	-7.83094
ым	-7.83276
на	-7.83753
▁чего	-7.84132
▁опят	-7.84596
ых	-7.8468
▁времени	-7.84929
▁которая	-7.85131
ли	-7.8558
▁никогда	-7.85655
▁вместе	-7.8599
▁хорошо	-7.86306
▁совершенно	-7.86489
▁люди	-7.87181
▁пр	-7.87746
▁ра	-7.89728
▁оно	-7.90529
▁образом	-7.90863
▁конечно	-7.90962
▁вдруг	-7.9119
му	-7.91955
▁три	-7.91999
▁однако	-7.92227
▁должен	-7.92846
▁эту	-7.93717
▁совсем	-7.93807
▁чтоб	-7.94706
▁тех	-7.9491
▁стал	-7.95576
ского	-7.9614
им	-7.96648
▁стр	-7.96922
▁вес	-7.97166
▁ж	-7.97211
▁таким	-7.982
▁те	-7.9851
▁тоже	-7.99277
скои	-7.99587
▁этим	-7.99871
в	-8.00169
▁руки	-8.00732
▁будто	-8.00859
▁других	-8.0094
▁знаю	-8.01056
▁затем	-8.0153
▁тому	-8.01644
ку	-8.01858
▁стороны	-8.01978
▁одно	-8.02371
▁случае	-8.02967
ыи	-8.03204
▁кроме	-8.03313
▁одного	-8.03967
▁лучше	-8.04129
▁говорил	-8.0539
наго	-8.0547
▁пока	-8.05752
▁которое	-8.05911
но	-8.07003
▁прежде	-8.07815
▁точно	-8.08128
ном	-8.08388
▁лицо	-8.08584
▁снова	-8.08829
▁однои	-8.08832
▁мало	-8.10142
ными	-8.10291
ит	-8.10836
скии	-8.11065
ам	-8.11097
▁дела	-8.11903
▁такое	-8.12094
▁которого	-8.12704
ст	-8.12828
▁нелзя	-8.13022
▁россиискои	-8.1359
▁кажется	-8.14033
▁место	-8.14459
▁моя	-8.14572
▁сердце	-8.15043
▁спросил	-8.15081
▁должны	-8.15189
их	-8.15319
▁могу	-8.15327
ос	-8.15355
ла	-8.15471
▁нужно	-8.16314
▁сеичас	-8.16592
ас	-8.1713
▁страница	-8.17781
▁руку	-8.17802
▁го	-8.18145
▁году	-8.18275
ые	-8.18443
▁федерации	-8.19104
▁двух	-8.20334
▁особенно	-8.20531
▁сказала	-8.21014
▁около	-8.21255
▁именно	-8.21315
▁части	-8.21888
▁ф	-8.22212
▁всю	-8.22252
▁нее	-8.22288
▁куда	-8.22317
ен	-8.22484
▁одна	-8.22607
▁нему	-8.23301
▁дома	-8.23468
▁бог	-8.24023
▁писмо	-8.24241
▁моеи	-8.24683
▁среди	-8.24786
ок	-8.25207
▁почему	-8.25261
▁пор	-8.253
ют	-8.25497
▁часто	-8.27334
▁дня	-8.27451
▁должно	-8.27621
▁скоро	-8.27743
▁своем	-8.27755
▁де	-8.28292
ны	-8.28774
▁мат	-8.28973
▁россии	-8.29266
▁голову	-8.29341
▁мое	-8.30175
ое	-8.31077
ою	-8.31157
ке	-8.31374
▁право	-8.31909
▁которую	-8.32277
▁либо	-8.33039
▁стол	-8.33652
▁отец	-8.3368
▁та	-8.33829
▁первыи	-8.33847
▁разве	-8.33872
ск	-8.34209
▁ними	-8.34361
▁сколко	-8.3445
▁долго	-8.35499
▁собои	-8.36506
▁никто	-8.37009
▁пере	-8.37176
ских	-8.37484
ется	-8.3775
▁иногда	-8.37899
▁слишком	-8.38151
▁хот	-8.38608
▁минуту	-8.38711
▁котором	-8.38849
▁город	-8.3923
▁доволно	-8.39271
▁хотел	-8.39711
▁слово	-8.40017
▁ноч	-8.40093
▁имеет	-8.40424
▁ст	-8.40447
▁весма	-8.41253
▁год	-8.41534
▁смерти	-8.41748
▁этому	-8.41786
▁менее	-8.42734
▁дом	-8.42965
▁могут	-8.43029
▁брат	-8.43167
▁каждыи	-8.43332
▁лица	-8.43336
▁значит	-8.44391
▁деиствително	-8.44439
ская	-8.44834
ш	-8.4539
▁ибо	-8.45535
▁деле	-8.45541
▁голос	-8.45765
▁вообще	-8.45887
▁две	-8.461
ныя	-8.46441
▁сделат	-8.46818
▁собою	-8.46894
ному	-8.47163
▁мысли	-8.47219
▁пуст	-8.47238
▁могли	-8.47404
▁какое	-8.47663
▁просто	-8.47826
лис	-8.48008
▁быстро	-8.48064
▁видел	-8.48181
▁давно	-8.48593
▁народ	-8.48619
▁сегодня	-8.48746
▁моего	-8.48884
▁прямо	-8.49209
▁начал	-8.49353
▁которым	-8.49453
▁вопрос	-8.49742
▁пред	-8.50059
▁делат	-8.50208
▁своему	-8.50344
▁ту	-8.50439
▁имя	-8.5051
▁казалос	-8.50803
▁самом	-8.51056
▁отвечал	-8.51852
▁жит	-8.52108
▁ех	-8.52131
▁вся	-8.52323
▁мир	-8.52478
▁любов	-8.52682
▁сын	-8.53108
▁мысл	-8.5318
▁буду	-8.53286
▁знал	-8.53557
▁свет	-8.53578
▁наш	-8.53885
▁идет	-8.54498
▁своими	-8.54587
▁будут	-8.54853
▁стати	-8.55877
▁кого	-8.55924
▁места	-8.56032
▁пункт	-8.56159
▁княз	-8.56219
▁иии	-8.56263
▁другие	-8.56308
▁назад	-8.56589
▁самого	-8.57066
▁земли	-8.57096
▁наши	-8.57427
▁едва	-8.5746
▁таких	-8.57701
▁такого	-8.57765
▁любви	-8.57902
▁города	-8.58002
▁правда	-8.58055
тся	-8.58083
▁ах	-8.58598
▁сама	-8.587
яс	-8.58948
▁ч	-8.58992
▁отца	-8.59048
▁впрочем	-8.59166
▁должна	-8.59189
▁тои	-8.59299
▁какая	-8.59745
▁ответил	-8.60163
ят	-8.60231
▁могла	-8.60575
▁ваше	-8.60646
▁власти	-8.60704
▁сюда	-8.6073
▁пут	-8.61146
▁стало	-8.61266
▁всеи	-8.62011
▁каким	-8.62845
сти	-8.63283
▁стали	-8.63421
▁видет	-8.63644
▁твои	-8.6389
▁права	-8.6405
▁вполне	-8.6421
▁знает	-8.64629
▁суда	-8.64926
▁ре	-8.65381
▁самое	-8.65575
не	-8.65584
▁общества	-8.65748
▁стоит	-8.65792
▁з	-8.65859
▁болшои	-8.65878
▁нашего	-8.66228
▁месте	-8.66464
▁денги	-8.66496
▁одним	-8.67188
▁является	-8.67204
▁силы	-8.67388
▁мере	-8.67638
▁нашеи	-8.67786
▁вероятно	-8.67842
▁виде	-8.68006
▁глава	-8.68043
ском	-8.68232
▁сторону	-8.6859
▁вместо	-8.68614
▁мнои	-8.68628
лас	-8.69112
▁таки	-8.69165
▁самои	-8.6922
▁знат	-8.69888
▁днеи	-8.69948
▁ис	-8.70055
▁двер	-8.70189
▁глазами	-8.70324
▁зачем	-8.7043
▁вид	-8.70508
▁мною	-8.70514
кои	-8.70736
▁молодои	-8.70879
▁дал	-8.71034
▁наших	-8.7116
▁души	-8.71479
▁бога	-8.71512
▁сами	-8.72122
▁говорят	-8.72153
ло	-8.72448
▁писма	-8.72703
▁церкви	-8.72858
▁вперед	-8.72915
ются	-8.72919
▁следует	-8.73078
▁ш	-8.73163
▁тотчас	-8.73399
▁одну	-8.73583
▁дел	-8.7376
▁э	-8.7391
▁дат	-8.74213
ому	-8.7449
▁области	-8.74862
▁друга	-8.75013
▁какие	-8.75043
▁иван	-8.75107
▁имел	-8.75296
▁выше	-8.75337
еш	-8.75338
▁поэтому	-8.75504
▁эсбе	-8.75851
▁думал	-8.76314
▁цар	-8.76468
▁чут	-8.76612
▁детеи	-8.7675
▁немного	-8.7724
▁смерт	-8.77691
▁истории	-8.7812
▁видно	-8.78393
▁ро	-8.78887
▁час	-8.79298
▁слов	-8.79381
▁хочу	-8.79403
▁силу	-8.79469
▁имет	-8.79781
▁глаз	-8.80013
▁суд	-8.80139
▁далеко	-8.80262
▁несмотря	-8.80436
▁трех	-8.80532
▁пят	-8.80578
▁матери	-8.80846
▁тихо	-8.80914
▁народа	-8.80929
▁часов	-8.8117
▁сделал	-8.8123
▁словно	-8.81376
▁лиц	-8.81401
▁туда	-8.81624
▁нами	-8.81916
▁тсд	-8.81989
▁заметил	-8.82021
▁получил	-8.82256
▁реч	-8.83288
▁генерал	-8.83316
лся	-8.83625
▁женщина	-8.83851
▁граф	-8.83931
▁моих	-8.84048
▁силно	-8.84122
▁землю	-8.84252
▁мою	-8.84277
▁легко	-8.84919
▁ответ	-8.84996
те	-8.85008
▁такие	-8.8536
скаго	-8.85673
▁продолжал	-8.85721
ну	-8.85746
▁женщины	-8.8608
▁тысяч	-8.86137
▁пути	-8.86358
▁старик	-8.86553
▁отношении	-8.86616
▁воины	-8.86712
ские	-8.86809
▁море	-8.86852
▁работы	-8.86931
▁равно	-8.87336
▁сил	-8.87566
▁самыи	-8.87631
▁конце	-8.87844
▁земле	-8.87852
▁жена	-8.87881
к	-8.87882
ат	-8.883
▁александр	-8.88353
ским	-8.88612
▁руках	-8.88714
▁род	-8.88783
▁любит	-8.89186
▁сих	-8.89253
▁связи	-8.89287
ж	-8.89313
▁деятелности	-8.89418
▁вами	-8.89526
▁доме	-8.89664
▁мистер	-8.89683
▁мира	-8.8989
▁столко	-8.89901
▁думаю	-8.89905
ова	-8.89931
▁св	-8.90022
ил	-8.90164
▁писал	-8.90723
▁русскои	-8.9082
▁ясно	-8.91079
▁вовсе	-8.91171
▁например	-8.91238
▁иначе	-8.91295
▁пришел	-8.91444
▁воды	-8.9165
ское	-8.92015
▁стоял	-8.92029
▁взял	-8.92355
▁вокруг	-8.92668
▁знаете	-8.92771
▁др	-8.92888
▁другим	-8.93365
▁пошел	-8.93386
ин	-8.93447
▁начала	-8.93681
▁корол	-8.93766
▁второи	-8.93994
▁домои	-8.94341
▁скорее	-8.94457
▁которому	-8.94608
▁рода	-8.94702
▁известно	-8.94902
▁одном	-8.94914
▁оба	-8.94916
▁вышел	-8.95346
ев	-8.95481
▁доч	-8.95563
▁организации	-8.95791
▁сына	-8.95816
▁другого	-8.95871
▁ка	-8.96712
▁говорю	-8.96861
▁завтра	-8.96943
скую	-8.97059
▁трудно	-8.97424
▁первои	-8.97478
▁сразу	-8.97512
▁понят	-8.97688
▁господин	-8.97713
▁такая	-8.9785
▁всеми	-8.97852
▁некоторые	-8.97964
ями	-8.98095
▁далше	-8.98096
▁виду	-8.98145
▁взят	-8.98407
ни	-8.98418
цы	-8.98517
▁книги	-8.98674
▁говорили	-8.98906
▁прав	-8.98966
▁дни	-8.9914
▁хочет	-8.99493
▁сначала	-8.99797
▁душе	-8.99812
▁изд	-8.99958
▁степени	-8.99979
▁	-9.00201
▁ноги	-9.00473
ыми	-9.00674
▁стала	-9.00753
▁кров	-9.00866
▁солнце	-9.01073
▁случаи	-9.01869
▁князя	-9.01872
ием	-9.01947
▁далее	-9.01948
▁жил	-9.02022
ее	-9.02098
▁ради	-9.0219
▁рядом	-9.02287
▁принят	-9.02591
▁другое	-9.02772
д	-9.03122
▁числе	-9.0365
▁дух	-9.03654
▁пер	-9.03667
ец	-9.0372
нее	-9.03913
▁ваш	-9.04006
▁многих	-9.04072
▁первых	-9.04258
▁петр	-9.04585
▁головои	-9.0462
б	-9.04641
▁гораздо	-9.04644
его	-9.04682
▁вскоре	-9.05035
▁ио	-9.05066
▁служит	-9.05093
▁какую	-9.05099
ив	-9.05127
▁свете	-9.05156
ков	-9.05193
▁ях	-9.05474
▁верно	-9.05618
▁пол	-9.05796
▁имени	-9.05868
▁таком	-9.05966
▁гор	-9.05988
▁рублеи	-9.06197
▁денег	-9.06402
▁четыре	-9.06612
▁богу	-9.06621
▁голосом	-9.06626
▁сердца	-9.06687
▁полу	-9.06879
▁дети	-9.06994
▁идти	-9.07332
▁самых	-9.07335
▁сем	-9.07506
▁ум	-9.07645
▁течение	-9.07682
▁комнату	-9.07818
▁государ	-9.07858
▁власт	-9.08376
▁увидел	-9.08589
▁какого	-9.08683
▁ранше	-9.08804
та	-9.08861
▁откуда	-9.0903
▁вижу	-9.09164
▁очевидно	-9.09304
▁руками	-9.09725
▁благодаря	-9.09887
▁краинеи	-9.0993
▁лице	-9.09949
▁пришлос	-9.09981
▁доктор	-9.10061
▁никакого	-9.10372
▁другом	-9.10488
▁глазах	-9.10809
▁чест	-9.10829
▁взгляд	-9.10909
▁николаи	-9.11232
▁проч	-9.11329
▁кому	-9.11409
▁иванович	-9.11527
▁закон	-9.11741
▁десят	-9.11933
▁чувство	-9.12
скому	-9.12154
▁новыи	-9.12599
▁ас	-9.12654
▁котораго	-9.12735
▁ночи	-9.12752
▁господ	-9.12814
▁говоря	-9.12837
▁капитан	-9.12874
▁берегу	-9.13043
▁которыя	-9.13293
▁возможност	-9.13295
▁обыкновенно	-9.13437
▁рукои	-9.13808
▁достаточно	-9.13929
▁душа	-9.13985
▁умер	-9.14097
▁многие	-9.14316
▁москве	-9.14332
▁шел	-9.14418
▁находится	-9.14515
ца	-9.14611
▁буд	-9.14697
▁возможно	-9.14758
▁положение	-9.14849
▁рас	-9.14917
ком	-9.14969
▁душу	-9.15092
▁самым	-9.15337
▁двери	-9.15354
▁минут	-9.15533
▁лицом	-9.15543
▁конца	-9.15549
▁вечер	-9.15564
▁впервые	-9.15919
▁наше	-9.16036
▁словом	-9.16072
ками	-9.16073
▁будем	-9.16517
▁муж	-9.16525
▁конец	-9.1673
▁тело	-9.16739
▁русских	-9.17025
▁необходимо	-9.17107
▁могло	-9.17146
▁спокоино	-9.17301
▁постоянно	-9.18002
▁века	-9.18104
▁старыи	-9.18252
▁нею	-9.18255
▁знаеш	-9.18365
▁воскликнул	-9.18422
▁однажды	-9.18431
▁совета	-9.18515
▁вашего	-9.18981
▁характер	-9.19072
цев	-9.19166
▁разговор	-9.19182
▁сеи	-9.192
▁гг	-9.19385
▁девушка	-9.19409
ня	-9.19453
▁государственнои	-9.19536
▁соответствии	-9.19583
ши	-9.19598
▁церков	-9.19716
▁господа	-9.1973
▁спб	-9.19734
▁сего	-9.1982
▁автор	-9.20003
▁язык	-9.20453
ства	-9.20466
▁закона	-9.2055
▁делу	-9.20553
▁лес	-9.20577
▁сквоз	-9.20578
иш	-9.20692
▁словами	-9.20708
▁внов	-9.20797
▁думат	-9.21033
▁ями	-9.21155
▁готов	-9.21195
▁чему	-9.21223
▁средств	-9.21268
▁люблю	-9.21384
▁дороге	-9.21555
ною	-9.21608
▁положен	-9.21744
▁ряд	-9.21843
▁ночю	-9.21952
▁мар	-9.21968
▁комнате	-9.22047
ич	-9.22166
▁хотелос	-9.22177
▁имеют	-9.22196
▁аи	-9.2229
▁говорила	-9.22417
▁сидел	-9.22419
▁солдат	-9.2248
ите	-9.22491
▁которыми	-9.22616
▁моему	-9.22676
▁бывает	-9.22707
ится	-9.22721
▁неужели	-9.22782
▁вчера	-9.22916
▁вечером	-9.23089
▁горе	-9.23176
▁мужа	-9.233
▁рол	-9.23379
▁ползу	-9.23598
▁ха	-9.2378
▁разумеется	-9.23789
▁дает	-9.23821
▁тобои	-9.23828
▁ума	-9.23874
▁вещи	-9.23879
▁нечего	-9.23929
▁собрание	-9.24191
▁порядке	-9.24901
▁мимо	-9.24945
▁русского	-9.25155
▁петербург	-9.25205
▁боже	-9.2529
▁наша	-9.25729
▁мая	-9.25803
▁кн	-9.25874
▁поэт	-9.25913
▁нашел	-9.25917
▁наиболее	-9.25986
▁одни	-9.25993
▁относително	-9.26073
▁сел	-9.26194
▁короля	-9.26198
▁августа	-9.26312
ина	-9.26518
▁армии	-9.26888
▁ею	-9.27008
ности	-9.27099
ал	-9.2727
▁каких	-9.27303
▁чувства	-9.27349
▁годы	-9.27391
▁разных	-9.27441
▁отсюда	-9.27447
▁общество	-9.27622
▁земля	-9.2777
▁медленно	-9.27778
▁частю	-9.27795
▁узнал	-9.28021
▁сторон	-9.28022
▁брата	-9.28185
лос	-9.28528
▁ныне	-9.2871
▁утром	-9.28844
▁двадцат	-9.28869
▁значение	-9.2892
ях	-9.28997
▁такую	-9.29393
ц	-9.29482
▁спросила	-9.29517
▁случилос	-9.29542
▁невозможно	-9.29542
▁внимание	-9.2958
▁небо	-9.29704
ыя	-9.29827
▁самые	-9.29966
▁наити	-9.30119
▁само	-9.30137
▁реки	-9.30248
▁последнии	-9.30263
ко	-9.30634
▁вашеи	-9.30723
▁партии	-9.30763
▁часа	-9.30804
▁комнаты	-9.31079
▁любил	-9.31282
▁первое	-9.31362
▁рук	-9.31397
▁слезы	-9.31399
▁духа	-9.31479
▁помощи	-9.31496
▁порядок	-9.31527
▁цел	-9.31555
ч	-9.31569
▁дороги	-9.31958
▁царя	-9.32034
или	-9.32068
▁хотите	-9.3209
▁число	-9.321
▁сон	-9.32108
▁новои	-9.32138
иеи	-9.32333
▁марта	-9.32426
▁всему	-9.32456
▁счет	-9.3272
▁поле	-9.32747
▁начало	-9.33255
▁некоторых	-9.3339
ва	-9.33491
▁труда	-9.335
▁моим	-9.3357
▁груд	-9.33586
▁страшно	-9.33704
▁последнее	-9.33908
▁качестве	-9.34005
ел	-9.34324
ими	-9.34376
▁головы	-9.34515
▁моря	-9.34516
▁кругом	-9.34623
▁новые	-9.34699
ство	-9.34737
▁городе	-9.34861
▁хи	-9.34885
▁минуты	-9.35112
▁вошел	-9.35156
п	-9.35354
▁новых	-9.35372
▁смотрел	-9.35387
▁обо	-9.3546
▁речи	-9.35611
▁написал	-9.35617
▁человеком	-9.35753
▁просит	-9.35867
▁отношен	-9.35889
▁государства	-9.35963
▁писат	-9.36089
▁русскии	-9.36095
▁образ	-9.36204
г	-9.36316
▁другими	-9.36593
▁сто	-9.36606
▁случаях	-9.3675
▁женщин	-9.3679
▁прошу	-9.36812
▁сила	-9.3685
▁возможности	-9.36999
▁горы	-9.37035
ност	-9.37082
▁целыи	-9.37182
▁никак	-9.37196
▁утра	-9.37457
▁работу	-9.3749
▁срок	-9.37591
▁тела	-9.37701
▁напротив	-9.37745
▁огон	-9.38015
▁немедленно	-9.38043
▁ар	-9.38095
▁угодно	-9.3814
▁никаких	-9.38188
овои	-9.38288
▁англ	-9.38504
▁счасте	-9.38559
▁удалос	-9.38702
▁путем	-9.38818
▁особенности	-9.38913
▁голова	-9.3896
▁страны	-9.39066
▁одному	-9.39098
▁непременно	-9.39146
▁семи	-9.3924
▁настоящего	-9.39255
▁ваши	-9.39313
▁стороне	-9.39363
▁история	-9.39376
▁кол	-9.394
▁видели	-9.39663
ник	-9.39769
▁природы	-9.39778
▁рабочих	-9.39836
▁октября	-9.39963
▁другую	-9.40018
▁рад	-9.40055
▁света	-9.40292
▁хочеш	-9.40296
▁вон	-9.40361
▁новое	-9.40468
▁касается	-9.40473
▁людми	-9.40614
▁понял	-9.40686
▁человеку	-9.40724
▁окна	-9.40888
▁цели	-9.40897
▁голове	-9.40947
▁менше	-9.41046
▁смысле	-9.41059
▁труд	-9.41064
▁нового	-9.41141
▁скажу	-9.41149
р	-9.41265
▁груди	-9.41389
▁ходит	-9.41398
ер	-9.41433
▁шест	-9.41443
▁ссср	-9.41535
ик	-9.4158
▁ал	-9.417
▁губ	-9.41758
▁всякого	-9.41849
▁росс	-9.4191
▁плате	-9.41962
▁проговорил	-9.42067
▁помощ	-9.42086
▁сочинении	-9.42164
▁произнес	-9.42174
▁кое	-9.42189
▁громко	-9.42248
▁гл	-9.42262
▁правителства	-9.42287
▁чувствовал	-9.424
▁живет	-9.4255
▁людям	-9.4268
▁жал	-9.42771
▁несколких	-9.42808
▁памят	-9.4291
▁узнат	-9.4297
▁подумал	-9.42986
▁глубоко	-9.4311
▁полное	-9.43273
▁пожалуи	-9.43311
▁слышал	-9.43328
▁занят	-9.43433
▁начале	-9.43449
ра	-9.43528
▁ехат	-9.43536
ша	-9.43561
▁последние	-9.43651
▁шум	-9.43658
▁самому	-9.43746
▁двумя	-9.43934
▁чрезвычаино	-9.44224
▁подошел	-9.44296
▁июля	-9.44387
▁великии	-9.44524
▁хлеб	-9.44533
▁января	-9.44547
▁состоянии	-9.44552
▁никого	-9.44558
▁первого	-9.44563
▁остается	-9.44586
▁болшая	-9.44636
▁воз	-9.44639
▁состав	-9.44674
▁получит	-9.44742
▁анна	-9.44786
▁декабря	-9.44805
▁весело	-9.44833
ля	-9.44897
▁кон	-9.44994
▁ветер	-9.45095
▁идеи	-9.4515
▁болшим	-9.45318
▁лошад	-9.45451
▁настоящее	-9.45474
▁чрез	-9.45478
▁отчего	-9.45552
▁дорогу	-9.4568
▁первая	-9.45765
▁ос	-9.46012
▁молча	-9.46069
▁истор	-9.46123
▁двор	-9.46242
▁этими	-9.46491
▁крепко	-9.46609
▁целю	-9.46752
▁принял	-9.46958
он	-9.46969
▁итак	-9.46974
▁можете	-9.47093
▁развития	-9.47109
▁жены	-9.47135
▁воздух	-9.47148
▁ноября	-9.47251
▁всяком	-9.47414
▁воиска	-9.4754
▁искусства	-9.47688
▁первые	-9.47844
▁утро	-9.47975
▁делает	-9.48142
▁понимаю	-9.48211
▁вследствие	-9.4826
▁болшую	-9.48281
▁средства	-9.48393
▁смотрет	-9.48405
▁месяц	-9.48478
▁участие	-9.48507
ес	-9.48518
▁апреля	-9.48568
▁решително	-9.4858
ле	-9.48613
▁оттуда	-9.48721
▁подобно	-9.48722
▁остановился	-9.48824
▁воду	-9.48863
▁решил	-9.49044
▁петербурге	-9.49136
▁сэр	-9.49436
▁службы	-9.4956
▁представляет	-9.49715
▁радост	-9.49785
юс	-9.49805
▁следователно	-9.49834
▁основании	-9.50194
▁шли	-9.50266
▁ес	-9.50278
▁остался	-9.50375
▁никакои	-9.50411
▁выходит	-9.50464
▁состоит	-9.50581
▁будучи	-9.50589
▁рот	-9.50733
▁великого	-9.50889
▁главным	-9.51028
▁ср	-9.51053
▁поводу	-9.51109
▁нежели	-9.51163
▁форме	-9.51166
▁республики	-9.51383
▁стихи	-9.51541
▁камен	-9.51714
▁деятелност	-9.51971
▁тяжело	-9.52149
▁помню	-9.52226
▁толстои	-9.52249
▁крови	-9.52382
▁оставит	-9.52415
▁сентября	-9.52463
▁совет	-9.52559
▁лошади	-9.52587
▁дорогои	-9.52621
▁хуже	-9.52637
▁москва	-9.52649
▁ваша	-9.52782
▁книга	-9.53028
▁всякои	-9.53055
▁всякии	-9.53168
▁числа	-9.53284
▁работа	-9.53466
илис	-9.53489
▁моем	-9.53505
▁дочери	-9.53592
▁имели	-9.53836
▁везде	-9.53909
▁лошадеи	-9.54048
▁неволно	-9.54113
▁главное	-9.54249
▁можем	-9.54284
▁ла	-9.54306
▁улице	-9.54336
▁милыи	-9.54355
▁мисс	-9.54409
▁перевод	-9.54495
▁момент	-9.54613
▁скажи	-9.54653
▁твоя	-9.54658
вер	-9.54678
▁видит	-9.5476
▁период	-9.54788
▁лев	-9.55127
▁воиск	-9.55131
▁берег	-9.55191
▁причем	-9.55285
▁становится	-9.55357
▁деиствия	-9.55372
▁ян	-9.55418
▁впоследствии	-9.55584
▁другая	-9.55686
▁настоящеи	-9.55698
▁малчик	-9.5573
▁пар	-9.55762
▁нечто	-9.55921
неи	-9.5597
▁франц	-9.56114
▁вслед	-9.56144
▁вернулся	-9.56222
▁видимому	-9.56453
▁движения	-9.56593
▁местах	-9.5663
▁солнца	-9.56694
▁положения	-9.56732
▁хотела	-9.56841
▁стены	-9.56904
▁писател	-9.57006
▁ан	-9.57011
▁напрасно	-9.57131
▁деиств	-9.5717
▁статеи	-9.57249
▁принадлежит	-9.5725
▁ниже	-9.5756
▁лежит	-9.57592
▁вопросы	-9.57717
▁вниз	-9.5782
▁голоса	-9.57836
▁франции	-9.5786
▁решения	-9.57911
▁успел	-9.57921
▁просил	-9.57935
▁месяца	-9.58089
▁решение	-9.58331
▁сад	-9.58333
▁июня	-9.58391
ям	-9.58436
же	-9.58451
▁господи	-9.58549
▁вниман	-9.5856
ман	-9.58697
▁болшое	-9.58707
▁руб	-9.58787
▁пяти	-9.58815
▁желан	-9.58856
▁другу	-9.5897
▁каком	-9.59139
▁стоят	-9.59402
▁мире	-9.5943
▁своею	-9.59818
▁василии	-9.6007
▁законом	-9.60132
▁литературы	-9.60189
з	-9.60314
▁са	-9.60327
▁страх	-9.6035
▁явился	-9.60442
▁стояла	-9.60502
▁убит	-9.60592
▁состоян	-9.60632
▁нея	-9.60686
▁очеред	-9.6069
▁знали	-9.6074
▁ребенка	-9.60813
▁мол	-9.60854
▁самая	-9.60873
ился	-9.60933
▁крикнул	-9.61101
ут	-9.61158
▁вышла	-9.61251
▁ям	-9.61343
▁отправился	-9.6141
▁хозяин	-9.61479
▁представит	-9.61504
▁пишет	-9.61504
▁петра	-9.61543
▁движение	-9.61579
▁слава	-9.61638
▁михаил	-9.61699
овых	-9.61804
▁вечера	-9.61823
▁бар	-9.61911
▁первым	-9.61997
▁стояли	-9.62001
▁членов	-9.62069
▁сестра	-9.62094
▁глядя	-9.62104
▁будеш	-9.62231
▁недавно	-9.62232
▁твое	-9.62256
▁ушел	-9.62268
▁жизню	-9.62311
▁воли	-9.62323
▁февраля	-9.62371
▁прошло	-9.62615
▁выражен	-9.6276
▁обратился	-9.62765
▁вне	-9.6298
▁план	-9.63013
▁волосы	-9.63016
▁надобно	-9.63078
▁стат	-9.6308
▁кем	-9.63093
▁пришли	-9.63141
▁именем	-9.63144
▁офицер	-9.63266
ает	-9.63267
▁ног	-9.63447
▁оп	-9.63532
▁берега	-9.63541
▁зато	-9.63575
▁меры	-9.63659
▁придется	-9.63692
▁ближе	-9.63698
▁видя	-9.63843
▁работ	-9.63853
ек	-9.63891
▁окончателно	-9.6401
▁ои	-9.64031
▁андреи	-9.64087
▁пора	-9.64112
▁системы	-9.64153
▁москвы	-9.64196
▁вода	-9.64483
▁пошли	-9.64531
▁русские	-9.6455
▁множество	-9.64605
▁москву	-9.64706
▁твоеи	-9.64767
▁ц	-9.65001
▁читат	-9.65043
са	-9.6512
▁дон	-9.65291
▁раза	-9.65352
▁каждого	-9.65431
▁дворе	-9.65579
▁поэта	-9.65682
▁чаи	-9.65776
▁писме	-9.6579
▁приходилос	-9.65814
га	-9.65818
▁днем	-9.65911
▁верст	-9.65976
▁согласно	-9.65979
▁леса	-9.65991
▁алексеи	-9.66081
▁странно	-9.66105
▁радости	-9.66191
▁петербурга	-9.66201
▁пришла	-9.66205
▁свободы	-9.66212
▁территории	-9.66223
▁уверен	-9.66237
▁революции	-9.66259
▁черт	-9.66262
илас	-9.66384
▁мест	-9.66669
▁высоко	-9.66681
▁скажите	-9.66738
▁крестян	-9.66797
ния	-9.66902
▁плохо	-9.66951
▁являются	-9.66981
▁положении	-9.67175
▁роман	-9.673
▁зная	-9.67342
▁приказал	-9.67367
▁редко	-9.67389
▁желая	-9.67434
▁службу	-9.67453
▁вести	-9.67609
ают	-9.67687
▁каждои	-9.67697
▁читал	-9.6778
▁никому	-9.67801
▁непр	-9.6784
▁участ	-9.67845
стю	-9.67873
▁знала	-9.67888
▁главе	-9.67929
итес	-9.6803
▁правителство	-9.68275
▁напр	-9.68279
▁близко	-9.68283
▁несомненно	-9.68284
▁искат	-9.68338
▁федералного	-9.68347
ятся	-9.6838
▁формы	-9.68443
▁воина	-9.68476
▁настолко	-9.68478
▁силои	-9.68487
▁мер	-9.68748
▁удар	-9.68761
▁часы	-9.68776
▁обе	-9.68988
▁спат	-9.69149
▁павел	-9.69221
▁союза	-9.69386
▁видите	-9.69433
ус	-9.69593
▁ежели	-9.69605
▁государственно	-9.69622
▁произведен	-9.69817
▁книгу	-9.69985
щ	-9.69987
▁чисто	-9.70093
▁пушкина	-9.70391
▁сведения	-9.7043
▁оказалос	-9.70486
▁оставил	-9.70531
▁первом	-9.70576
▁борбы	-9.70605
▁спустя	-9.70678
▁петрович	-9.70694
▁жителеи	-9.70804
▁правду	-9.70946
▁вел	-9.71007
▁отвечала	-9.71094
нут	-9.71096
▁пит	-9.71244
▁четырех	-9.71247
▁хлеба	-9.71269
▁хочется	-9.71301
▁точки	-9.71545
▁встал	-9.71568
▁рано	-9.71613
▁толпа	-9.71616
▁близ	-9.71621
▁прибавил	-9.71642
ович	-9.71772
▁герцог	-9.71782
▁прекрасно	-9.71809
кою	-9.71825
▁графа	-9.71841
▁друзя	-9.71913
▁раси	-9.71954
▁пушкин	-9.71956
ила	-9.71958
ре	-9.71979
▁сказано	-9.71998
▁впереди	-9.72014
▁мнен	-9.72028
▁рука	-9.72043
▁старался	-9.72049
▁языке	-9.72072
▁притом	-9.72107
▁открыт	-9.72193
▁пожалуиста	-9.72263
ница	-9.72289
▁смысл	-9.72294
▁александра	-9.72308
▁слез	-9.72408
▁угол	-9.72432
▁собственно	-9.72522
▁журнал	-9.72562
ников	-9.72588
▁начали	-9.72715
▁тысячи	-9.72788
▁видом	-9.72789
▁шла	-9.7284
▁относится	-9.72887
▁толстого	-9.72906
▁лесу	-9.72947
▁последн	-9.72949
▁исключително	-9.72952
▁вер	-9.72999
от	-9.73057
▁крест	-9.73057
▁назначен	-9.7325
▁песни	-9.73338
▁улыбкои	-9.73358
емся	-9.73411
▁говорите	-9.73462
▁книг	-9.73514
▁бывало	-9.73515
▁входит	-9.73527
▁движен	-9.73546
▁приходится	-9.73558
▁поздно	-9.7359
▁внезапно	-9.73633
▁монастыр	-9.73702
нет	-9.73728
▁бес	-9.73835
▁отношения	-9.7391
стве	-9.73914
▁происходит	-9.73918
▁вина	-9.73945
▁произведения	-9.74195
▁губернии	-9.74199
▁обратно	-9.74265
▁тен	-9.74284
▁вечно	-9.7432
▁месяцев	-9.7439
▁цвет	-9.74515
▁существует	-9.74533
▁ваших	-9.74625
▁судя	-9.74651
▁дам	-9.74707
▁кор	-9.74731
вшихся	-9.7476
▁всякое	-9.74799
▁имею	-9.74852
▁нашим	-9.74903
▁находился	-9.74957
▁друзеи	-9.75088
▁вера	-9.75095
али	-9.75173
▁трудом	-9.75201
▁органов	-9.75302
▁надеюс	-9.75462
▁верит	-9.75543
лю	-9.75575
▁сборник	-9.7572
▁пре	-9.75826
▁памяти	-9.75867
▁прочим	-9.75877
▁ответила	-9.75913
▁ужас	-9.75935
▁дали	-9.76125
▁лицу	-9.76128
▁осталос	-9.76192
▁ждат	-9.76234
▁станет	-9.76246
▁стихотворения	-9.7628
▁края	-9.76287
▁коли	-9.76319
▁нашу	-9.76358
по	-9.76479
▁некоторое	-9.7653
▁бои	-9.76587
оват	-9.76638
▁разные	-9.76779
▁болезни	-9.76903
▁автора	-9.7691
▁руке	-9.76936
▁последних	-9.76995
▁эл	-9.77037
▁посмотрел	-9.77117
▁последнеи	-9.77125
▁постепенно	-9.77256
▁основан	-9.77341
▁жену	-9.77382
▁языка	-9.77419
▁пет	-9.77568
▁девушки	-9.77651
▁школы	-9.77664
▁намерен	-9.77666
▁общего	-9.77757
▁годов	-9.7785
▁отлично	-9.77882
▁внимания	-9.77947
▁словам	-9.77969
▁ил	-9.78027
▁владимир	-9.7809
▁времена	-9.78168
▁тени	-9.78279
▁услов	-9.78306
▁бсэ	-9.78357
ту	-9.78401
▁федералным	-9.78409
▁уходит	-9.78452
▁всяких	-9.78517
▁дому	-9.7854
▁рус	-9.78553
▁надежды	-9.78644
▁сущности	-9.7876
▁науки	-9.78803
▁возле	-9.78883
▁различных	-9.7901
▁санкт	-9.79146
▁болшие	-9.79162
▁веры	-9.79175
ему	-9.79177
▁крик	-9.79216
▁обществе	-9.79346
▁видимо	-9.79377
▁послал	-9.79449
▁молодая	-9.79513
▁вещеи	-9.79584
тер	-9.79655
▁неожиданно	-9.79675
▁императора	-9.79783
▁сергеи	-9.7985
▁велел	-9.79957
▁гости	-9.80204
э	-9.80333
▁народу	-9.80339
▁самую	-9.80351
▁опасности	-9.80372
▁чаще	-9.80406
▁вещ	-9.80419
▁прошел	-9.80598
▁граждан	-9.806
▁искусство	-9.80681
▁связ	-9.8072
▁болших	-9.80734
▁судба	-9.80814
▁непосредственно	-9.80815
▁работат	-9.8084
ан	-9.80872
▁производства	-9.80876
▁смотря	-9.8091
▁поднял	-9.80925
▁имела	-9.80951
▁силнее	-9.80953
▁нашем	-9.80962
▁каждом	-9.81009
▁видиш	-9.81119
▁ход	-9.81204
▁нашему	-9.8124
▁знаем	-9.81248
▁безопасности	-9.81252
▁стате	-9.81366
▁словах	-9.81369
▁ужасно	-9.81615
▁можеш	-9.81625
▁забыл	-9.81628
▁стране	-9.81664
▁управления	-9.81716
ве	-9.81719
▁приказ	-9.81741
▁англии	-9.81817
ею	-9.81953
▁ничто	-9.81953
▁русская	-9.8209
▁бумаги	-9.82211
▁мил	-9.82266
▁париж	-9.82384
▁имея	-9.82486
▁лично	-9.82576
▁отчасти	-9.82593
▁верховного	-9.82682
▁название	-9.82732
▁некогда	-9.82788
ты	-9.828
▁ген	-9.82873
▁двое	-9.82875
▁зло	-9.83006
▁сказали	-9.83009
▁европы	-9.8301
▁идут	-9.83093
▁возразил	-9.83193
▁вашу	-9.83225
▁окно	-9.83252
▁навсегда	-9.83305
▁пошла	-9.83349
▁губы	-9.83443
▁великои	-9.83444
ися	-9.83567
▁желание	-9.83577
ост	-9.83579
▁обязан	-9.83656
▁мед	-9.83686
▁тобою	-9.83757
▁будете	-9.8386
▁знак	-9.83863
▁строго	-9.84037
▁нашли	-9.84114
▁делал	-9.84117
▁сие	-9.84213
▁насколко	-9.84291
▁деиствителности	-9.84355
▁другому	-9.84369
▁век	-9.8447
▁отцу	-9.84594
▁ти	-9.84709
▁недели	-9.84724
▁зрения	-9.84766
▁фз	-9.848
вш	-9.84836
▁сделали	-9.84843
▁села	-9.84888
▁император	-9.84893
▁рассказ	-9.84948
▁добрыи	-9.84969
▁герои	-9.8499
▁характера	-9.85115
▁обоих	-9.85187
кин	-9.85271
▁желал	-9.85295
▁взглядом	-9.85363
▁целую	-9.85429
▁почувствовал	-9.8545
▁показалос	-9.85463
▁видела	-9.85481
▁христа	-9.8549
▁нос	-9.85504
▁болшеи	-9.8552
▁деиствие	-9.85583
▁париже	-9.8567
▁слегка	-9.85678
ги	-9.8568
▁дым	-9.85786
▁населения	-9.85819
▁милая	-9.85847
▁бур	-9.85859
▁россия	-9.85863
▁даи	-9.85932
це	-9.86079
▁газеты	-9.86084
▁требует	-9.86158
▁новая	-9.86159
ющих	-9.86201
▁вашему	-9.86272
▁придет	-9.86286
▁дорога	-9.86341
▁па	-9.86369
▁молодого	-9.86421
▁сидит	-9.8643
▁николаевич	-9.86504
▁профессор	-9.86521
▁смотрит	-9.86572
▁хотели	-9.86629
▁книге	-9.86641
ян	-9.86678
▁количество	-9.86731
ние	-9.86768
▁полка	-9.86803
▁одновременно	-9.86809
▁составляет	-9.86868
▁осталные	-9.86888
▁делом	-9.87004
▁боюс	-9.87036
▁серезно	-9.87236
▁вл	-9.87304
▁ком	-9.87511
▁сут	-9.8756
▁союз	-9.87589
ше	-9.87591
▁внутри	-9.87642
▁ворот	-9.87717
▁преимущественно	-9.87733
▁государя	-9.87793
▁приехал	-9.87801
▁издание	-9.87946
▁необходимости	-9.88005
▁чувств	-9.88015
ках	-9.88228
▁думала	-9.88472
▁долг	-9.88532
▁состояние	-9.88626
▁народов	-9.88689
▁маря	-9.88711
▁держат	-9.88769
▁частеи	-9.88803
▁остров	-9.88852
▁показат	-9.88879
ры	-9.88946
ству	-9.88992
▁дар	-9.89029
▁карл	-9.89146
▁начинает	-9.89358
▁порядка	-9.89375
▁условии	-9.89379
▁вдол	-9.89411
▁ответа	-9.89499
▁судов	-9.89515
▁полк	-9.89534
▁видим	-9.89588
▁краине	-9.89603
▁резко	-9.89614
▁александрович	-9.89728
▁влияние	-9.89768
▁дядя	-9.89897
▁пост	-9.89977
▁началник	-9.89992
▁здорове	-9.90041
▁причины	-9.90081
▁толпы	-9.90106
▁счастя	-9.90106
▁содержание	-9.90173
▁матер	-9.90237
▁федор	-9.90391
▁нередко	-9.90392
▁белыи	-9.90483
▁поля	-9.90513
▁дитя	-9.9052
▁жили	-9.90584
▁воздухе	-9.90693
▁област	-9.90704
▁мнению	-9.90709
▁дан	-9.90795
ева	-9.90806
▁замуж	-9.90825
▁позднее	-9.9088
▁пример	-9.90881
▁велик	-9.9089
▁позволте	-9.90984
▁самим	-9.91262
▁сомнения	-9.91281
▁неделю	-9.91313
▁впечатление	-9.91342
▁михаилович	-9.91444
да	-9.91497
▁деиствии	-9.91548
▁оттого	-9.91563
▁кур	-9.91588
▁тоном	-9.91595
▁мин	-9.91664
▁обязанности	-9.91665
▁вышли	-9.91678
▁помоч	-9.9172
▁противника	-9.91733
▁делается	-9.91744
▁стола	-9.91794
▁василевич	-9.91856
▁вверх	-9.92139
▁называется	-9.92397
▁считат	-9.92399
▁общее	-9.92427
▁следовало	-9.92428
▁условия	-9.92746
▁бо	-9.9281
▁старика	-9.92859
▁округа	-9.92893
▁председател	-9.92896
▁животных	-9.92933
▁твоего	-9.92948
▁благо	-9.92961
▁взглянул	-9.93101
лен	-9.93194
▁концов	-9.93224
▁богом	-9.93231
▁значително	-9.93236
ба	-9.93253
▁театр	-9.93262
▁широко	-9.93266
▁думает	-9.93359
▁святои	-9.93373
▁должности	-9.93472
чи	-9.9348
▁ребенок	-9.9348
▁отделных	-9.93622
▁выражение	-9.93675
▁живут	-9.93778
▁третии	-9.93871
▁заговорил	-9.93904
▁должност	-9.93933
▁удоволств	-9.93971
▁лежал	-9.94024
▁ими	-9.94039
▁внимателно	-9.94071
▁колени	-9.94077
▁новую	-9.94102
ри	-9.9419
мер	-9.94203
▁последнего	-9.94227
▁звуки	-9.94258
▁пыл	-9.94304
▁осталис	-9.9436
▁бен	-9.94361
▁шаг	-9.94373
▁считал	-9.94405
▁такими	-9.94423
▁ногами	-9.94433
▁след	-9.94535
че	-9.94551
пол	-9.94644
▁охотно	-9.94694
▁ма	-9.94841
▁имеется	-9.94874
▁знают	-9.94891
▁батюшка	-9.94903
▁ри	-9.95053
▁случаино	-9.95092
▁молодых	-9.95124
▁наук	-9.95144
▁писем	-9.95147
▁полковник	-9.95375
▁га	-9.95463
▁пан	-9.95508
▁бол	-9.95512
▁текст	-9.95524
▁сестры	-9.95525
вшии	-9.95611
▁рсфср	-9.95645
▁орган	-9.95661
▁выити	-9.95668
▁постели	-9.95723
▁сочинения	-9.95764
▁бросился	-9.95837
▁следующее	-9.95844
▁всяк	-9.95867
▁документов	-9.95907
▁любовю	-9.95994
ика	-9.96006
из	-9.96029
▁болшинство	-9.96073
де	-9.96172
▁продолжала	-9.96261
▁условиях	-9.96277
▁нисколко	-9.96282
▁антон	-9.9636
▁решился	-9.96371
▁вашим	-9.96523
▁приходит	-9.96531
▁дожд	-9.96553
▁хотят	-9.9669
▁черты	-9.96694
▁мэсбе	-9.96697
▁деревне	-9.96727
▁вроде	-9.96745
▁иса	-9.96848
▁зап	-9.96929
▁произошло	-9.96954
▁неизвестно	-9.9699
▁заметит	-9.97063
▁учител	-9.97099
▁группы	-9.97218
▁каждое	-9.97245
▁сделался	-9.97269
▁борба	-9.97506
▁страха	-9.97554
▁мнение	-9.97595
▁полнои	-9.97783
▁факт	-9.97862
овые	-9.97876
▁ад	-9.97896
▁законов	-9.97913
▁коп	-9.97993
▁воине	-9.9801
▁работе	-9.98022
▁опыт	-9.98061
▁всюду	-9.98108
▁вопроса	-9.98129
▁доктора	-9.98201
▁углу	-9.98237
▁свободу	-9.98366
▁ярко	-9.98394
▁первую	-9.984
лы	-9.98425
▁папа	-9.98478
вшиися	-9.98506
▁солдаты	-9.98536
▁ходил	-9.98555
▁театра	-9.98584
▁острова	-9.98653
▁бывают	-9.98662
скими	-9.98662
▁помощю	-9.98665
вшиеся	-9.9869
▁реке	-9.98789
▁неба	-9.98802
▁правил	-9.98825
▁кодекса	-9.98845
▁жене	-9.98864
▁храм	-9.98881
▁прежнему	-9.99096
▁забыт	-9.9915
нии	-9.99235
▁начат	-9.99282
▁фон	-9.99417
▁двора	-9.99458
▁темно	-9.99479
▁комиссии	-9.99523
▁бросил	-9.99548
вшис	-9.99553
▁общеи	-9.99657
▁надежда	-9.99787
▁леди	-9.99847
во	-9.99872
▁слезами	-9.99893
▁старуха	-9.99911
▁предмет	-9.99952
▁арбитражного	-9.99964
▁времен	-10.0006
▁мыслеи	-10.0009
▁способ	-10.0017
▁правила	-10.0019
▁договора	-10.0027
▁значения	-10.0043
▁обявил	-10.0049
▁поднялся	-10.0054
▁товарищ	-10.0054
вал	-10.0058
▁завод	-10.0061
▁играт	-10.0066
▁вспомнил	-10.007
▁предложил	-10.0071
▁отряд	-10.0072
▁борбе	-10.0079
▁стран	-10.008
▁воде	-10.0085
▁скажет	-10.0089
▁законы	-10.009
▁академии	-10.0095
▁цветы	-10.0116
▁отдат	-10.0119
▁река	-10.0122
▁плот	-10.0122
▁болшого	-10.0125
▁делах	-10.0126
▁врагов	-10.0127
▁остатся	-10.013
ешся	-10.0132
▁обеда	-10.014
▁десяти	-10.0149
▁образования	-10.016
▁тридцат	-10.0162
овым	-10.0166
▁покои	-10.0173
▁государственных	-10.0173
▁европе	-10.018
▁исключением	-10.0182
▁вернутся	-10.0183
▁встретил	-10.0184
▁упал	-10.0184
▁роде	-10.0185
ющ	-10.0186
▁огня	-10.0189
▁согласился	-10.019
▁село	-10.0191
▁собрания	-10.0194
▁сперва	-10.0203
▁бежат	-10.0203
▁болезн	-10.021
▁легче	-10.0214
▁имущества	-10.0222
▁литературе	-10.0223
▁сверх	-10.0229
ча	-10.0231
▁страсти	-10.0231
▁германии	-10.0232
▁воину	-10.0242
▁вест	-10.0242
▁мног	-10.0244
▁грех	-10.0256
▁святых	-10.0257
▁новым	-10.0273
▁печати	-10.0275
▁старои	-10.0275
▁мал	-10.0275
▁поиду	-10.0276
ики	-10.0278
▁ок	-10.0279
▁значен	-10.0286
▁философ	-10.0291
▁благодарю	-10.0293
▁сан	-10.0293
▁улицу	-10.0309
▁линии	-10.0309
▁воспоминания	-10.0309
▁требования	-10.0311
▁улицы	-10.0321
▁волю	-10.0324
▁товаров	-10.0327
се	-10.034
▁мама	-10.0351
▁ста	-10.0355
▁семя	-10.0366
▁меж	-10.0371
▁барон	-10.0374
ист	-10.0376
▁твердо	-10.0381
▁отношение	-10.0382
▁слышат	-10.0383
▁деревни	-10.0386
▁рукою	-10.039
▁нравится	-10.0401
▁снег	-10.0403
▁старого	-10.041
▁болно	-10.0422
▁открыл	-10.0427
▁члены	-10.0427
▁развитие	-10.0432
▁страст	-10.0432
▁успех	-10.0432
▁личности	-10.0435
ницы	-10.0439
▁ровно	-10.0457
▁ехал	-10.0458
▁класса	-10.046
▁думаете	-10.0463
▁девочка	-10.0468
▁сидела	-10.047
▁каждым	-10.0472
▁наверное	-10.0474
▁сидели	-10.0476
▁хорош	-10.0476
▁умерет	-10.0478
▁назван	-10.0481
▁носит	-10.0481
▁обяснит	-10.0485
▁заключен	-10.0514
▁показал	-10.0517
ват	-10.0519
▁маленкии	-10.0523
▁лож	-10.0525
▁службе	-10.0536
▁навстречу	-10.0544
▁краи	-10.0545
▁понятно	-10.0545
▁историю	-10.0546
▁ранее	-10.0546
▁временем	-10.0551
▁стен	-10.0555
▁взор	-10.0558
▁ничем	-10.056
▁служил	-10.056
▁возми	-10.0564
▁повторил	-10.0564
▁делают	-10.0572
▁круг	-10.0573
▁твоих	-10.0574
▁берет	-10.0577
▁явление	-10.0578
▁поидем	-10.0584
▁обстоятелства	-10.0584
ар	-10.0595
▁народнои	-10.0598
вин	-10.0599
▁родился	-10.06
▁сделала	-10.0604
▁явлен	-10.0606
▁деиствоват	-10.0611
▁картины	-10.0616
▁естественно	-10.0619
▁бедныи	-10.0624
ины	-10.0627
▁собственности	-10.0632
▁иск	-10.0633
▁настоящим	-10.0634
▁уст	-10.0635
то	-10.0639
дер	-10.0645
▁кабинет	-10.0654
▁система	-10.066
▁нынче	-10.066
▁желаю	-10.0661
за	-10.0667
▁водои	-10.0672
▁оставалос	-10.0676
▁записки	-10.0679
▁природа	-10.0679
▁жив	-10.068
▁отдал	-10.0683
цу	-10.0687
▁судит	-10.069
▁площади	-10.0691
▁общем	-10.0699
▁стараяс	-10.0705
▁тыс	-10.0708
▁товарищеи	-10.071
▁печат	-10.0716
▁женои	-10.0717
▁молодые	-10.0717
▁заставит	-10.0724
▁воле	-10.0725
▁ведет	-10.0727
▁процесс	-10.0733
▁лоб	-10.0733
▁воля	-10.0735
▁стих	-10.0736
▁душ	-10.074
▁сердцем	-10.0742
▁братя	-10.0745
▁отвечает	-10.0747
▁цвета	-10.075
▁вод	-10.0756
▁законодателство	-10.0756
▁написат	-10.0761
▁слушат	-10.0762
▁направлен	-10.0763
▁написано	-10.0767
▁ы	-10.0776
▁посредством	-10.0782
▁плен	-10.0784
▁гостеи	-10.0786
▁имен	-10.0786
▁земел	-10.0791
▁смех	-10.0791
▁дабы	-10.0824
▁осталас	-10.0841
▁полном	-10.0844
шеи	-10.0845
▁нигде	-10.0845
▁летом	-10.0847
▁дивизии	-10.085
▁добро	-10.0859
▁христ	-10.0867
▁каждая	-10.0871
▁уехал	-10.088
▁положил	-10.0882
▁местного	-10.0882
вы	-10.0888
▁подобных	-10.0893
▁передат	-10.0897
▁рим	-10.0902
ину	-10.0908
ющии	-10.0919
▁насчет	-10.0921
вших	-10.093
▁тон	-10.0932
▁мари	-10.0933
▁дают	-10.0935
▁неболшои	-10.0935
▁живои	-10.0952
▁принес	-10.0953
▁вдали	-10.0957
▁замок	-10.0963
▁государство	-10.0968
▁чувствую	-10.0976
▁волны	-10.098
▁шести	-10.0988
гу	-10.0992
▁глубине	-10.1008
▁столом	-10.1009
▁писателя	-10.1018
▁находятся	-10.1026
▁кстати	-10.1028
▁королева	-10.1033
▁пал	-10.1034
▁вино	-10.1047
▁обед	-10.1053
▁совести	-10.1057
дел	-10.1057
▁поэзии	-10.1059
▁старая	-10.1059
▁уити	-10.1066
▁графиня	-10.1079
▁оставатся	-10.1081
▁брак	-10.1087
▁волос	-10.109
▁россию	-10.1094
▁сен	-10.1098
▁сочинен	-10.1103
▁раздался	-10.1114
▁шею	-10.1117
▁герман	-10.1119
▁заключается	-10.112
ден	-10.1121
▁милости	-10.1127
ф	-10.1131
▁течен	-10.1133
▁думы	-10.1133
▁веру	-10.1135
▁осторожно	-10.114
ющихся	-10.1142
▁смело	-10.1143
▁мак	-10.1148
▁суди	-10.1151
ро	-10.1157
▁товарищи	-10.1158
▁гогол	-10.116
▁исполнит	-10.1162
ала	-10.1163
▁народных	-10.1165
ню	-10.1166
▁сне	-10.1183
▁величество	-10.1183
▁развит	-10.1185
▁какими	-10.1185
▁красоты	-10.12
▁убежден	-10.1201
▁зубы	-10.1204
▁господина	-10.1223
▁соч	-10.1225
▁направлении	-10.1234
▁джон	-10.1236
▁оказался	-10.1236
▁поднят	-10.1237
▁чехов	-10.1245
▁спросит	-10.127
▁корабл	-10.1272
цами	-10.1273
ти	-10.1274
▁дават	-10.1275
▁миг	-10.1278
▁портрет	-10.1289
▁хх	-10.1293
▁бож	-10.1294
▁видал	-10.1305
▁силами	-10.1308
▁подал	-10.1312
▁ред	-10.1313
▁звук	-10.1315
▁саду	-10.1323
▁подле	-10.1324
▁разум	-10.1324
▁нужны	-10.1332
▁милост	-10.1333
▁зла	-10.1338
▁простои	-10.1338
▁олга	-10.134
▁вопросов	-10.134
▁главныи	-10.1346
▁произведении	-10.1352
▁кровю	-10.1353
▁воскликнула	-10.1356
▁мужчины	-10.1366
▁прибыл	-10.1373
▁ивана	-10.1377
▁решен	-10.1393
▁крепости	-10.1403
▁иностранных	-10.1406
▁лен	-10.1406
▁туман	-10.1409
▁зале	-10.1414
▁спор	-10.1416
▁матушка	-10.1417
▁вторая	-10.1421
▁данных	-10.1422
▁сим	-10.1427
▁поставит	-10.1428
ости	-10.143
▁издан	-10.1431
▁жа	-10.1434
▁полно	-10.1443
лет	-10.1444
▁смотрели	-10.1448
▁природе	-10.1457
▁беда	-10.1466
▁городов	-10.1467
су	-10.1471
▁понимал	-10.1476
▁желает	-10.1487
▁сер	-10.1501
▁говори	-10.1501
▁смотри	-10.1502
▁женщину	-10.1502
▁меч	-10.1503
▁собственнои	-10.1507
▁спасибо	-10.1511
▁предложен	-10.1512
▁дерева	-10.1512
▁свободно	-10.1517
▁каждому	-10.1519
▁ласково	-10.1523
▁черные	-10.1529
▁член	-10.1529
▁останется	-10.1544
▁высшеи	-10.155
▁вал	-10.1552
▁ненавист	-10.1563
▁приятно	-10.1564
▁министра	-10.1568
▁существо	-10.1571
би	-10.158
▁внизу	-10.1581
ники	-10.1583
▁даст	-10.1584
▁гнев	-10.1585
▁чести	-10.1589
ду	-10.1596
▁вышло	-10.1603
ион	-10.1606
▁бал	-10.1607
род	-10.1611
▁редакции	-10.162
▁восем	-10.1623
▁расположен	-10.1624
вшеися	-10.1626
ющие	-10.1628
▁гр	-10.1635
▁полныи	-10.1635
▁издания	-10.1637
▁делам	-10.1637
▁домов	-10.1647
▁журнала	-10.165
▁назват	-10.1652
▁богов	-10.1658
▁компании	-10.1662
▁защиты	-10.1663
▁евреев	-10.1666
▁духом	-10.1669
▁художник	-10.167
▁сорок	-10.168
▁игра	-10.1691
▁заметила	-10.1691
вар	-10.1693
▁русск	-10.1694
▁закричал	-10.1704
▁продолжат	-10.1704
▁указанных	-10.1705
▁эпохи	-10.1705
▁огнем	-10.1705
▁привести	-10.1706
▁обещал	-10.1706
▁договор	-10.1712
▁дала	-10.1712
▁следующии	-10.1712
▁услуг	-10.1721
▁миссис	-10.1723
▁знаком	-10.1726
▁мария	-10.1729
▁народного	-10.173
▁последняя	-10.1749
▁принимат	-10.175
▁человеческои	-10.1752
▁дама	-10.1753
▁радостно	-10.1759
▁увидет	-10.1762
▁иллюстрация	-10.1765
▁порт	-10.1769
ды	-10.177
▁ключ	-10.1771
▁работал	-10.1783
▁вошли	-10.1787
шка	-10.1803
▁уб	-10.1803
ски	-10.1809
▁сомнен	-10.1813
▁фаил	-10.1815
▁пил	-10.1817
▁фр	-10.1835
▁ждет	-10.1837
▁любила	-10.1842
▁одинаково	-10.1842
▁военных	-10.1851
▁подумат	-10.1851
▁комитета	-10.1856
▁приводит	-10.1861
▁главы	-10.1867
▁ру	-10.1874
тон	-10.1876
▁трое	-10.1884
▁резултате	-10.1887
▁писателеи	-10.1891
▁слушал	-10.1893
▁рф	-10.1896
▁провел	-10.1899
▁поспешно	-10.1901
▁романа	-10.1903
▁барин	-10.1903
▁рассказы	-10.1905
▁царство	-10.1907
▁юноша	-10.1908
▁нарочно	-10.1917
▁ждал	-10.1918
▁поидет	-10.192
▁удивлен	-10.192
▁опасност	-10.1922
▁иванов	-10.1923
▁органа	-10.1923
▁отцом	-10.1932
▁немало	-10.1934
▁старых	-10.1936
▁величества	-10.1954
▁твою	-10.1959
▁иди	-10.1959
▁холодно	-10.1968
▁жила	-10.198
▁вар	-10.1987
▁повидимому	-10.1988
▁чувством	-10.199
▁посмотрет	-10.199
▁небе	-10.1993
▁офицеров	-10.1997
▁литература	-10.2005
▁маленкая	-10.2006
▁хих	-10.2012
▁дамы	-10.2013
▁великим	-10.2014
▁начиная	-10.2015
▁принадлежат	-10.2019
▁ворота	-10.2031
ма	-10.2033
▁судеи	-10.2034
▁силах	-10.2035
▁всякаго	-10.204
▁крепост	-10.2045
▁думаеш	-10.205
жен	-10.2064
▁интерес	-10.2064
▁площад	-10.2065
▁известныи	-10.2067
▁взяла	-10.2073
▁важно	-10.2082
▁попал	-10.2083
▁исполнен	-10.2086
▁случаев	-10.2095
▁находит	-10.2096
▁боятся	-10.2102
▁жители	-10.2105
▁семен	-10.2109
▁озера	-10.2112
▁слуга	-10.2114
▁николая	-10.2121
▁отдел	-10.2125
▁тур	-10.2126
▁впечатлен	-10.213
▁константин	-10.2138
▁исполнителнои	-10.2141
▁указ	-10.2147
▁постел	-10.2147
▁собран	-10.2147
▁виноват	-10.215
▁истины	-10.2151
▁театре	-10.2155
▁сердцу	-10.2156
▁французскии	-10.2156
▁военнои	-10.2161
▁слышно	-10.2175
▁ответит	-10.2181
▁золото	-10.2182
ироват	-10.2194
▁пен	-10.2194
▁проходит	-10.2195
шии	-10.2195
▁произведению	-10.2201
▁золотои	-10.2208
▁проект	-10.2209
▁спас	-10.2212
▁генерала	-10.2227
▁статю	-10.2231
▁спасти	-10.2234
▁звезды	-10.2235
▁священник	-10.2235
▁престол	-10.2236
▁судар	-10.2238
▁оставался	-10.2242
▁старые	-10.2243
▁роли	-10.2247
▁двенадцат	-10.2247
▁обращаяс	-10.225
▁жан	-10.2252
▁дерево	-10.2253
▁признат	-10.2253
▁причин	-10.2257
▁форм	-10.2261
▁веков	-10.2263
▁евреи	-10.2265
▁явится	-10.2265
ющеи	-10.227
▁ангел	-10.2272
▁културы	-10.2278
▁хозяиства	-10.2284
▁лестнице	-10.2284
▁грустно	-10.2289
▁семе	-10.229
▁рис	-10.229
▁борис	-10.2293
▁белые	-10.2293
▁представителеи	-10.2294
▁христос	-10.2296
▁будте	-10.2303
▁наоборот	-10.2307
▁жертву	-10.2314
▁мужик	-10.2314
лин	-10.2316
▁политики	-10.2323
си	-10.2324
▁черныи	-10.2331
▁верх	-10.2333
▁принимает	-10.2334
▁лин	-10.2334
▁счастлив	-10.2336
▁удивително	-10.2337
▁смертю	-10.2345
▁месту	-10.2347
▁пароход	-10.2348
пер	-10.2354
▁арм	-10.2356
▁звер	-10.2357
▁малчика	-10.2361
▁поставил	-10.2362
▁губернатор	-10.2362
▁тер	-10.2363
▁представлен	-10.2364
▁собор	-10.2364
▁зависит	-10.2365
▁праздник	-10.2366
▁обычно	-10.2373
▁деятел	-10.2378
▁курс	-10.2387
▁женится	-10.2388
▁изменения	-10.2389
▁ох	-10.2402
▁государственныи	-10.2403
▁скореи	-10.2407
▁держал	-10.2414
▁принялся	-10.2415
▁повест	-10.242
▁началника	-10.2425
▁силе	-10.2426
▁му	-10.2438
▁мнения	-10.2441
▁штаба	-10.2441
ге	-10.2442
▁стану	-10.2449
▁стар	-10.2453
▁влиянием	-10.2455
▁следующие	-10.2458
▁начинается	-10.246
▁учение	-10.2475
▁коих	-10.248
кат	-10.2482
ило	-10.2483
▁врага	-10.2484
▁вправе	-10.2484
▁фигура	-10.2487
▁горячо	-10.2489
▁дорог	-10.2492
ор	-10.2493
▁интересов	-10.2494
▁справедливо	-10.2496
▁капитал	-10.2499
▁собака	-10.2504
▁руси	-10.2507
▁князю	-10.251
▁депутатов	-10.2513
▁добра	-10.2514
▁ожидат	-10.2517
▁источник	-10.2522
▁новом	-10.2523
▁болнои	-10.2523
▁генрих	-10.2533
▁человечества	-10.2535
▁подпункт	-10.2535
ника	-10.2545
▁производит	-10.2556
▁заявил	-10.2558
▁рукописи	-10.2558
▁причина	-10.2561
чат	-10.2566
▁даром	-10.2569
▁тип	-10.2576
▁ужаса	-10.258
▁необходимост	-10.2584
▁отвечат	-10.2586
▁считает	-10.2589
▁составляют	-10.2599
ву	-10.2603
▁цветов	-10.2604
▁юго	-10.2605
▁боялся	-10.2609
▁находилис	-10.2612
ед	-10.2617
▁улыбаяс	-10.2619
▁иоанн	-10.2619
▁случая	-10.2627
ившис	-10.2629
▁вида	-10.2641
▁раиона	-10.2641
▁извест	-10.2643
▁нежно	-10.2644
▁виктор	-10.2645
▁раб	-10.2649
▁подробно	-10.2657
▁позже	-10.2666
имся	-10.2666
▁говориш	-10.2674
▁переход	-10.2674
▁второго	-10.2675
▁лист	-10.2677
▁северо	-10.2678
▁министр	-10.268
▁корпуса	-10.268
▁словар	-10.2684
ических	-10.2687
▁коня	-10.2689
▁рбс	-10.2689
▁ивановна	-10.269
▁плечами	-10.2696
▁схватил	-10.2697
▁причине	-10.2702
▁ново	-10.2702
▁случаю	-10.2706
▁смотрела	-10.2709
▁тщателно	-10.2717
▁вз	-10.2721
▁спал	-10.2721
леи	-10.2726
▁каждую	-10.2733
нем	-10.2733
ели	-10.2734
вшие	-10.2741
▁внутренних	-10.2742
▁стене	-10.2743
▁московского	-10.2744
▁сделано	-10.2746
▁рыб	-10.2749
атся	-10.2751
▁заранее	-10.2753
▁хии	-10.2756
▁проговорила	-10.2758
▁спрашивал	-10.2759
▁узнав	-10.2761
▁истинно	-10.2767
▁многое	-10.2774
▁кричал	-10.2777
▁теории	-10.2779
▁лето	-10.2781
▁обеспечения	-10.2784
▁политическои	-10.2785
▁раздел	-10.2786
▁двадцати	-10.2788
▁деревя	-10.2793
▁живо	-10.2796
▁ежедневно	-10.2801
▁пола	-10.2807
▁кар	-10.2808
▁ман	-10.281
▁поехал	-10.2813
▁двереи	-10.2813
▁увы	-10.2819
▁сол	-10.2819
▁целые	-10.2819
▁скрыт	-10.282
▁звезд	-10.282
▁капитана	-10.2822
▁сравнително	-10.2828
▁самаго	-10.2829
▁че	-10.2835
▁улыбнулся	-10.2838
▁половине	-10.2839
▁сцены	-10.2845
▁устроит	-10.2848
▁сцене	-10.285
▁дворец	-10.2855
чик	-10.2858
▁получили	-10.2859
▁лорд	-10.2862
▁вскричал	-10.2863
▁силою	-10.2866
▁повести	-10.2867
▁указал	-10.2868
▁проводит	-10.2868
▁ногу	-10.289
▁маленкои	-10.289
▁бит	-10.2897
▁судом	-10.2898
▁горя	-10.2901
▁прошла	-10.2903
▁взяли	-10.2908
▁лицами	-10.2909
▁накануне	-10.2911
▁следы	-10.2912
▁воздуха	-10.2913
▁потерял	-10.2922
▁класс	-10.2927
▁слух	-10.2935
▁шагов	-10.2936
▁сев	-10.2939
до	-10.294
▁рассказал	-10.2943
бо	-10.2944
▁бор	-10.295
▁умел	-10.2952
▁принимал	-10.2954
▁срока	-10.2958
▁прости	-10.2958
▁вошла	-10.2966
▁мистера	-10.2968
▁стихов	-10.2972
▁италии	-10.2972
енко	-10.2973
▁сотни	-10.2978
ыч	-10.298
▁лит	-10.299
▁инои	-10.2994
▁скучно	-10.2995
▁русским	-10.3
▁птицы	-10.3006
изм	-10.3007
▁средство	-10.301
▁уме	-10.3012
▁империи	-10.3017
▁второе	-10.3022
▁повсюду	-10.3023
вшего	-10.3028
▁мор	-10.3034
▁границу	-10.3041
▁великое	-10.3042
▁чи	-10.3043
▁давал	-10.3052
▁монастыря	-10.3052
▁поступил	-10.307
▁музыка	-10.3074
жа	-10.3078
▁фридрих	-10.308
▁общественнои	-10.3083
▁органы	-10.3086
▁княгиня	-10.3088
▁русском	-10.3089
▁готовы	-10.3091
▁даите	-10.3093
▁лучших	-10.3096
▁мужчин	-10.3106
▁гул	-10.3111
▁отношению	-10.3112
▁сударыня	-10.3115
▁учителя	-10.3116
▁философии	-10.3118
▁баба	-10.3122
▁будущем	-10.3126
▁столе	-10.313
▁сзади	-10.3131
илос	-10.3131
рон	-10.3134
▁личност	-10.3134
▁требовании	-10.3137
▁принц	-10.3138
▁картина	-10.3139
▁эпоху	-10.3143
▁сообщит	-10.3145
▁составе	-10.3146
▁сообщил	-10.3147
▁одних	-10.3147
▁населен	-10.3148
▁целях	-10.3153
▁голосов	-10.3155
▁заметно	-10.3155
▁ер	-10.3159
▁великих	-10.3162
▁ставит	-10.3163
▁какому	-10.3164
▁бел	-10.3168
▁епископ	-10.3169
▁половины	-10.3173
▁борбу	-10.3181
▁исполнение	-10.3182
▁хозяина	-10.3188
▁выидет	-10.319
▁прекрасныи	-10.3191
▁древних	-10.3198
▁сест	-10.3201
▁университета	-10.3206
▁сознание	-10.3208
▁неподвижно	-10.3212
▁храма	-10.3215
▁наука	-10.3219
чу	-10.3223
ид	-10.3228
▁религии	-10.3229
▁сыном	-10.3236
▁запах	-10.3248
▁хор	-10.3254
▁душои	-10.3254
▁труды	-10.3257
▁говорится	-10.3257
▁вторых	-10.3265
▁обстоятелство	-10.3267
▁ле	-10.3277
▁плечо	-10.3284
▁будущее	-10.3284
вшегося	-10.3285
▁еслиб	-10.3286
▁отделные	-10.3289
▁верю	-10.3293
▁луч	-10.3298
▁зовут	-10.3299
она	-10.3299
▁хан	-10.3302
▁светом	-10.3305
▁жен	-10.3306
ру	-10.3313
об	-10.3321
▁живых	-10.3326
▁читател	-10.333
▁определения	-10.3335
▁правилно	-10.3335
▁поход	-10.3339
▁языком	-10.334
▁оказывается	-10.334
▁центр	-10.3343
▁выход	-10.3352
▁степан	-10.3353
▁фронта	-10.3355
▁хр	-10.3358
▁девят	-10.3363
▁кои	-10.3365
нов	-10.3369
▁рост	-10.3369
изма	-10.3375
ав	-10.3376
▁годах	-10.3384
▁морскои	-10.3385
▁избран	-10.3386
▁высокои	-10.339
▁воиско	-10.339
▁городу	-10.3391
▁правом	-10.3393
▁сидет	-10.3394
▁границы	-10.3401
▁основания	-10.3404
▁адрес	-10.3406
еля	-10.3409
▁представления	-10.3412
▁обеих	-10.3413
▁сведении	-10.3414
▁тишина	-10.3414
▁купит	-10.3423
▁образован	-10.3431
▁прошли	-10.3436
▁материал	-10.3442
▁получила	-10.3442
бы	-10.3442
▁гоголя	-10.3444
▁художника	-10.3445
▁самих	-10.3445
▁сыну	-10.3446
▁содержан	-10.3446
▁спрашивает	-10.3449
▁рыцар	-10.3451
▁гал	-10.3456
▁подат	-10.3459
▁возраста	-10.346
▁лежат	-10.3464
▁имена	-10.3465
▁роднои	-10.3468
▁думали	-10.3481
▁плечи	-10.3488
▁образование	-10.3502
▁пору	-10.3507
▁постановление	-10.351
▁выбор	-10.3516
▁взяв	-10.3521
▁обязанност	-10.3524
▁настоящии	-10.3527
▁органом	-10.3528
▁простите	-10.353
▁немножко	-10.353
▁вели	-10.3535
▁основе	-10.3535
▁помимо	-10.3535
▁продолжение	-10.354
▁бежал	-10.355
▁змеи	-10.3552
▁елена	-10.3553
▁человеческого	-10.356
▁форму	-10.3561
▁массы	-10.3563
▁местности	-10.3569
▁русское	-10.3575
▁исполнения	-10.3577
▁ев	-10.3581
▁подходит	-10.3583
▁половину	-10.3584
▁родителеи	-10.3588
од	-10.359
вшаяся	-10.3598
▁царю	-10.3601
▁ми	-10.3604
овскии	-10.3609
▁суде	-10.3612
▁екатерина	-10.3614
▁ел	-10.3615
▁благополучно	-10.3617
▁замка	-10.3624
▁позади	-10.3626
▁красота	-10.3634
▁радостю	-10.3636
▁назвал	-10.3639
ете	-10.3643
▁шло	-10.3644
цем	-10.3646
ющего	-10.3647
▁приняли	-10.365
▁красныи	-10.3651
▁королю	-10.3652
мы	-10.3656
▁понимат	-10.3657
▁шаги	-10.3659
▁болшом	-10.366
▁услышал	-10.3661
▁славы	-10.3662
▁ухо	-10.3664
▁доказат	-10.3666
ди	-10.3674
▁сохранит	-10.3675
▁пс	-10.3678
▁отчет	-10.368
▁представляется	-10.3681
ван	-10.3684
▁вестник	-10.3689
▁хорошенко	-10.369
▁окон	-10.3691
▁учен	-10.37
▁документы	-10.3701
▁сидя	-10.3705
чит	-10.3706
▁воин	-10.3709
▁делали	-10.3709
▁стыдно	-10.371
▁звон	-10.3712
▁решили	-10.3713
▁парт	-10.3717
▁нужна	-10.3719
▁врач	-10.3719
мен	-10.3721
▁квартиру	-10.3723
▁братев	-10.3723
▁рос	-10.3726
▁милл	-10.3728
▁силныи	-10.373
▁вопросам	-10.3733
▁ню	-10.374
▁публика	-10.3749
▁вернее	-10.375
▁предан	-10.375
▁дурно	-10.3756
▁болшими	-10.3759
▁восток	-10.3762
▁петровна	-10.3763
▁представляют	-10.3767
▁предложение	-10.3769
▁посреди	-10.377
▁подобные	-10.3772
▁враг	-10.3773
▁прелест	-10.3775
▁филипп	-10.378
тес	-10.3781
▁открыто	-10.3784
▁крестяне	-10.3785
лит	-10.3786
▁исчез	-10.3788
ющая	-10.3789
▁платит	-10.3794
▁лежала	-10.3796
▁пришло	-10.3799
▁отказался	-10.38
▁существа	-10.3802
▁ус	-10.3803
▁отношениях	-10.3808
▁недалеко	-10.381
▁мел	-10.3812
▁поп	-10.3819
▁семеи	-10.382
▁судбы	-10.3824
▁бедная	-10.3828
▁деревев	-10.3831
▁пределах	-10.3839
▁согласится	-10.3848
▁кости	-10.3853
▁судно	-10.3858
▁раи	-10.3869
▁хо	-10.3871
▁рукопис	-10.3871
▁военного	-10.3881
▁масса	-10.3885
▁текста	-10.3886
▁называют	-10.3889
▁кричит	-10.389
▁понятия	-10.389
▁явно	-10.3894
▁убил	-10.3896
▁сумму	-10.3899
▁некоторым	-10.3907
▁издали	-10.3915
▁эх	-10.3916
ств	-10.3918
▁гост	-10.392
▁герцога	-10.392
нка	-10.3935
▁вкус	-10.3937
▁идея	-10.3938
▁сцена	-10.3946
▁стук	-10.3949
▁сверху	-10.3957
▁строи	-10.3958
▁встретит	-10.3963
▁крики	-10.3973
▁противоположно	-10.3979
▁вашем	-10.3983
▁примечания	-10.3991
▁ожидал	-10.3992
▁самоуправления	-10.3999
▁увидал	-10.4001
▁роста	-10.4003
вид	-10.4003
▁казался	-10.4008
▁четверт	-10.4008
▁поверхности	-10.4014
▁вздор	-10.4015
шу	-10.4016
▁пожар	-10.4016
▁высоты	-10.4026
▁государств	-10.4028
▁поговорит	-10.403
▁форма	-10.403
сон	-10.4032
▁народом	-10.4035
шки	-10.4036
▁скот	-10.4039
ица	-10.4043
▁зал	-10.4044
▁золота	-10.4045
▁имущество	-10.4045
▁стоило	-10.4047
▁газет	-10.4048
▁совест	-10.4052
▁доволен	-10.4061
▁журнале	-10.4063
▁запад	-10.4063
▁играет	-10.4066
▁членом	-10.4068
▁мужу	-10.4069
▁всякую	-10.407
▁лондон	-10.4073
лов	-10.4074
▁изменении	-10.4075
▁ветра	-10.4078
▁отказатся	-10.4094
▁славу	-10.4094
▁мужчина	-10.4095
ера	-10.4096
▁такою	-10.4097
▁сент	-10.41
▁платя	-10.4102
▁западнои	-10.4104
▁запас	-10.4109
▁голод	-10.4111
▁отсутствие	-10.4113
▁недел	-10.4117
▁яков	-10.4119
▁отправится	-10.412
▁школа	-10.4123
▁телом	-10.4123
▁деревню	-10.4131
ющим	-10.4131
▁арх	-10.4131
▁печатается	-10.4132
▁сл	-10.414
▁единственныи	-10.4141
▁частности	-10.4142
бер	-10.4145
▁август	-10.4146
▁ползоватся	-10.4151
▁искал	-10.4157
▁детми	-10.4167
▁нужды	-10.4169
ющиеся	-10.4173
▁ряда	-10.4178
▁подробности	-10.4179
▁ди	-10.418
▁материалы	-10.4181
▁иду	-10.4185
▁прочих	-10.4185
▁свобода	-10.4187
▁ловко	-10.4187
▁сознан	-10.4188
▁роз	-10.4193
▁издании	-10.4196
▁видов	-10.4197
▁определит	-10.4201
▁предметом	-10.4202
▁бросит	-10.4204
▁столу	-10.4205
▁рх	-10.4209
▁третеи	-10.4211
▁уши	-10.4211
▁брату	-10.4213
▁настроен	-10.4213
▁птиц	-10.4213
▁прочел	-10.4215
▁нужен	-10.4221
▁увидев	-10.4225
▁незаметно	-10.4229
▁готова	-10.4229
▁девушку	-10.4231
▁вследств	-10.4241
▁эи	-10.4242
▁голов	-10.4242
▁правды	-10.4245
▁волнен	-10.4245
▁случится	-10.4249
▁правителством	-10.4253
▁содержания	-10.4253
▁хорошее	-10.4257
▁товар	-10.4257
▁увидели	-10.4263
▁шар	-10.4263
▁умерла	-10.4264
ение	-10.4269
▁разу	-10.4275
▁воити	-10.428
▁общих	-10.4283
▁бывал	-10.4285
▁разговора	-10.4285
▁размере	-10.4288
▁стихотворении	-10.4288
▁сергеевич	-10.4289
▁краю	-10.4292
▁матерю	-10.4294
▁ба	-10.4295
▁еэбе	-10.4295
▁таину	-10.4295
▁недо	-10.4296
▁закону	-10.4296
▁мгновение	-10.4301
▁пара	-10.4306
шая	-10.4309
▁мужем	-10.431
▁уста	-10.4313
▁послан	-10.4317
▁стоя	-10.4325
▁плакат	-10.4328
▁железнои	-10.4333
▁узнали	-10.4335
▁всякая	-10.434
▁слышу	-10.4344
вшееся	-10.4344
▁кара	-10.4348
▁страшныи	-10.435
овая	-10.4353
▁христиан	-10.4354
▁дурак	-10.4357
▁понимает	-10.4357
▁военно	-10.436
▁теми	-10.4361
▁едет	-10.4365
▁играл	-10.4365
▁приговор	-10.4368
▁учреждения	-10.4373
▁ушла	-10.4374
▁министерства	-10.4376
жи	-10.4376
▁держа	-10.4377
▁пожал	-10.4379
▁посколку	-10.4381
▁боя	-10.4382
▁васил	-10.439
▁пел	-10.4396
▁белых	-10.4398
▁озеро	-10.4402
▁жестоко	-10.4405
▁учения	-10.4416
зы	-10.4422
▁случалос	-10.4423
▁полагаю	-10.4433
▁считаю	-10.4434
ения	-10.4435
▁стан	-10.444
инскии	-10.4445
▁политических	-10.4447
▁достоинства	-10.4455
▁алексеевич	-10.4456
▁головою	-10.4461
ушка	-10.4463
ак	-10.4465
▁реку	-10.4466
▁школ	-10.4467
▁карман	-10.4473
▁тел	-10.4475
▁остановилис	-10.4479
▁тургенев	-10.4479
▁пир	-10.4492
▁желания	-10.4496
▁изредка	-10.4498
▁думая	-10.4499
▁вин	-10.4503
▁сфере	-10.4504
▁послат	-10.4506
▁пятдесят	-10.4508
▁иное	-10.4509
▁кричат	-10.4516
▁картину	-10.452
▁пес	-10.4521
▁принято	-10.4523
▁сделалос	-10.4524
▁божии	-10.4527
▁великому	-10.4529
▁сказав	-10.453
▁берегов	-10.4533
▁вскочил	-10.4536
▁клянус	-10.4536
▁проити	-10.454
▁станции	-10.4541
▁удастся	-10.4542
▁воисками	-10.4542
ового	-10.4544
▁пространство	-10.4545
▁маиор	-10.4548
▁мечты	-10.4548
▁иосиф	-10.4552
▁прощаи	-10.4553
▁задача	-10.4555
▁сведен	-10.4559
▁известны	-10.456
▁общественных	-10.4561
▁достоевскии	-10.4561
▁рассказывал	-10.4562
▁учрежден	-10.4563
▁беле	-10.4569
▁информации	-10.4571
▁обычаи	-10.4579
▁торопливо	-10.458
▁воспоминан	-10.4581
▁требоват	-10.4585
▁университет	-10.459
▁комитет	-10.4592
▁газета	-10.4594
▁привел	-10.4596
▁торговли	-10.4598
▁балмонт	-10.4602
▁показывает	-10.4607
▁остановилас	-10.4608
▁ин	-10.4609
▁религ	-10.461
▁архив	-10.4611
▁любят	-10.4613
▁долю	-10.4616
▁чернои	-10.4616
▁сцену	-10.462
▁положително	-10.4624
▁различные	-10.4626
▁предметы	-10.463
▁дер	-10.4631
ицы	-10.4636
▁собаки	-10.4645
ову	-10.4647
етес	-10.465
▁дворца	-10.4654
▁женщине	-10.4658
▁белои	-10.4659
▁хорошии	-10.4661
▁счастю	-10.4665
кова	-10.4665
▁марии	-10.4666
слав	-10.4672
▁поверхност	-10.4673
▁творчества	-10.4676
▁богатство	-10.4676
▁перешел	-10.4679
▁смехом	-10.4681
▁французскои	-10.4686
ине	-10.4687
▁события	-10.4693
▁км	-10.4693
▁пункта	-10.4694
▁передал	-10.4697
▁описание	-10.4698
▁теле	-10.4707
▁состояния	-10.4708
евич	-10.4713
▁оставив	-10.472
▁севернои	-10.4723
▁интересы	-10.4725
▁производство	-10.4732
▁ладно	-10.4737
▁дав	-10.4737
▁раион	-10.4737
▁помнит	-10.4737
▁таины	-10.4739
▁промышленности	-10.4743
▁классов	-10.4748
▁павла	-10.475
▁бабушка	-10.4751
▁молчал	-10.4751
▁толпе	-10.4753
раз	-10.4754
▁подобное	-10.4754
▁вере	-10.4756
▁маи	-10.4757
бе	-10.4761
▁появился	-10.4764
▁печал	-10.4768
▁камни	-10.4769
▁торжественно	-10.4769
▁хиии	-10.4772
▁общим	-10.4772
▁штаб	-10.4774
▁чужои	-10.4775
▁единственно	-10.4776
▁отчаян	-10.4781
вшая	-10.4781
▁заниматся	-10.4785
▁исключен	-10.4786
пе	-10.4788
▁кусок	-10.4788
▁продолжает	-10.4795
▁знакомых	-10.4797
▁похож	-10.4804
▁существование	-10.4805
▁концу	-10.4808
▁идеал	-10.481
▁погиб	-10.4813
▁публики	-10.4817
▁рожден	-10.482
▁святого	-10.4821
ющее	-10.4825
▁функции	-10.4833
▁определение	-10.4833
▁вопросу	-10.4839
▁заключение	-10.4846
▁смотрите	-10.4849
▁присутств	-10.4851
чин	-10.4854
▁воспитан	-10.4856
▁иваныч	-10.4858
ско	-10.4868
▁вред	-10.4869
▁нашла	-10.487
▁представление	-10.4874
▁кот	-10.4875
▁явилас	-10.4877
▁казни	-10.4878
ющиися	-10.4885
▁председателя	-10.4888
▁лег	-10.4889
▁снял	-10.4892
жу	-10.4894
▁последним	-10.4902
▁аз	-10.4903
▁чувствует	-10.491
▁цен	-10.4912
▁отечества	-10.4913
нос	-10.4916
▁обяснил	-10.4917
▁министров	-10.4918
▁мост	-10.492
▁жак	-10.4921
▁протянул	-10.4922
иц	-10.4926
ших	-10.4932
▁странное	-10.4932
▁движении	-10.4935
▁искренно	-10.4938
▁сети	-10.4939
▁лучи	-10.494
▁пишу	-10.4943
▁силное	-10.4946
ишся	-10.4949
▁духе	-10.4952
▁светло	-10.4954
нув	-10.4955
▁строки	-10.4959
▁считается	-10.496
▁инженер	-10.4961
▁разом	-10.4961
▁вступил	-10.4961
▁типа	-10.4965
▁акт	-10.4965
ров	-10.4966
▁сна	-10.497
▁успели	-10.497
▁провести	-10.4974
▁горко	-10.4975
па	-10.498
▁историк	-10.4983
▁постановления	-10.4986
▁операции	-10.4988
▁низко	-10.4988
▁сибири	-10.4989
▁гибел	-10.499
ово	-10.4991
▁военныи	-10.4991
▁хозяика	-10.4993
▁луна	-10.4994
▁стакан	-10.4995
▁получив	-10.4998
▁учреждении	-10.4999
▁дмитрии	-10.5004
▁откровенно	-10.5007
▁подошла	-10.5015
цов	-10.5017
▁золотом	-10.5018
▁находил	-10.5018
▁белого	-10.5018
▁гору	-10.502
▁поступит	-10.5022
▁группа	-10.5025
▁тепло	-10.503
▁осталных	-10.5037
▁комната	-10.5037
▁пятнадцат	-10.5038
▁верстах	-10.5038
▁привык	-10.5039
вил	-10.5044
▁степен	-10.5044
вед	-10.5044
▁хе	-10.5046
▁обязаны	-10.5048
▁общественного	-10.5049
▁ногах	-10.5049
▁ван	-10.5052
▁гарри	-10.5052
▁старшии	-10.5057
▁казалас	-10.5057
▁поити	-10.5057
▁чеи	-10.5058
▁рабочего	-10.506
▁машин	-10.5061
▁обратится	-10.5066
аются	-10.5067
▁положит	-10.5067
▁обстоятелствах	-10.5067
▁внутреннеи	-10.5076
▁решит	-10.5077
▁боли	-10.5077
▁взгляды	-10.5078
▁бет	-10.5084
▁номер	-10.5089
▁оружие	-10.5091
▁ползы	-10.5091
▁устав	-10.5095
▁полным	-10.5097
▁отряда	-10.51
▁страна	-10.5104
▁прошлом	-10.5105
▁песы	-10.5106
▁чувствоват	-10.5113
▁великая	-10.5113
▁таков	-10.5115
▁учит	-10.5115
▁лицам	-10.5117
▁представител	-10.5117
▁чудо	-10.5118
▁собственных	-10.512
▁принужден	-10.512
▁вынул	-10.5121
▁странах	-10.5128
▁извините	-10.5129
▁маленк	-10.5134
▁изо	-10.5138
▁исследования	-10.5141
▁гражданского	-10.5142
▁кв	-10.5143
▁итал	-10.5146
▁удоволствием	-10.5148
▁командир	-10.5149
▁заключения	-10.5151
▁обман	-10.5151
шего	-10.5156
▁спит	-10.5158
▁толпу	-10.5162
▁достиг	-10.5167
▁управление	-10.5167
▁взгляда	-10.5171
▁ступаи	-10.5173
▁губерн	-10.5185
▁высокии	-10.5187
▁заставил	-10.5188
▁гнева	-10.519
▁денгами	-10.5195
▁участия	-10.5203
▁поезд	-10.5208
▁кал	-10.521
▁привез	-10.5212
▁полную	-10.5221
▁гром	-10.5221
▁верхом	-10.5226
▁слышали	-10.5228
▁достат	-10.5233
▁детям	-10.5239
▁доставит	-10.5243
▁песня	-10.5245
ол	-10.5247
▁момента	-10.5251
▁чувствовала	-10.5253
▁считая	-10.5256
▁занимался	-10.5259
▁музыки	-10.526
▁государю	-10.5264
▁последнюю	-10.5265
▁имело	-10.5268
▁городского	-10.5268
▁отправилис	-10.5272
▁делами	-10.5272
▁жертвы	-10.5273
▁создан	-10.5274
▁николаевна	-10.5274
▁птица	-10.5278
▁страну	-10.528
▁недостаточно	-10.5284
▁госпожа	-10.5287
▁средствами	-10.529
▁семеиства	-10.5291
▁рабочие	-10.5292
▁страдан	-10.5295
▁твоим	-10.5297
▁преступления	-10.5298
▁деревня	-10.5298
▁офицера	-10.5298
▁показался	-10.5299
▁молитвы	-10.5301
▁относятся	-10.5306
▁миру	-10.5307
▁уезда	-10.5313
▁гроб	-10.5314
▁бер	-10.5317
▁южнои	-10.5319
▁павлович	-10.5319
кс	-10.5321
▁молится	-10.5328
▁вып	-10.5331
▁молодости	-10.5331
▁существу	-10.5335
▁наполеон	-10.5342
▁восползоватся	-10.5346
▁бок	-10.5347
▁дед	-10.5347
▁супруга	-10.5347
▁необыкновенно	-10.5348
▁здоровя	-10.535
▁офицеры	-10.535
▁задачи	-10.5351
▁высшего	-10.5352
▁понятие	-10.5353
▁купец	-10.5353
▁называли	-10.5353
▁ятно	-10.5358
▁армия	-10.5361
▁банк	-10.5367
истов	-10.5369
▁печ	-10.537
вшеи	-10.537
чен	-10.5371
▁рек	-10.5371
▁разговоры	-10.5373
▁прим	-10.5373
▁прекрасная	-10.5377
▁заседании	-10.5379
▁лэди	-10.538
▁даваи	-10.538
▁страдания	-10.5382
▁ана	-10.5386
▁числу	-10.5389
гор	-10.5391
▁федорович	-10.5393
▁покинут	-10.5395
▁получает	-10.5397
▁достигнут	-10.5397
▁явления	-10.5398
▁указывая	-10.5403
▁отцов	-10.5405
▁признан	-10.5407
▁ответственност	-10.5408
▁увидела	-10.5408
▁какою	-10.541
▁любезныи	-10.541
▁анны	-10.5411
▁исползования	-10.5415
▁явилис	-10.5415
▁событии	-10.5416
▁поспешил	-10.5423
вшимся	-10.5428
▁град	-10.5431
тор	-10.5435
▁имеем	-10.5435
▁организация	-10.5439
▁тысячу	-10.544
▁школе	-10.544
▁товарища	-10.5444
лер	-10.5446
▁запис	-10.5448
▁суммы	-10.5451
▁советскои	-10.5452
ниц	-10.5454
▁понимаете	-10.5454
▁бросилас	-10.5455
▁послышался	-10.5457
▁позор	-10.5458
▁прошлого	-10.5465
▁талант	-10.5474
▁описан	-10.5474
▁дорого	-10.5481
▁усил	-10.5486
тел	-10.5486
▁рыба	-10.5486
▁законами	-10.5486
▁север	-10.5492
▁бывшии	-10.5496
▁детства	-10.5497
▁болш	-10.5497
▁помните	-10.5498
▁допустит	-10.5501
▁президента	-10.5501
рен	-10.5504
▁полиции	-10.5509
▁здоров	-10.5511
▁приходил	-10.5512
▁труп	-10.5516
▁такому	-10.5517
▁мыслю	-10.5519
енка	-10.552
▁прежних	-10.5521
▁скорб	-10.5524
▁важное	-10.5527
▁сделатся	-10.5528
▁среды	-10.5531
▁разрешения	-10.5532
лу	-10.5533
▁добродетел	-10.5535
▁улыбка	-10.5539
▁страстно	-10.5542
▁требован	-10.5542
▁муки	-10.5546
▁степ	-10.5547
▁правило	-10.5548
▁давали	-10.5549
▁слабо	-10.5552
▁фамил	-10.5555
▁перваго	-10.5555
▁маша	-10.556
оз	-10.5566
▁чин	-10.5569
▁мастер	-10.557
▁поэтов	-10.5574
▁тюрме	-10.558
▁единственным	-10.558
▁обстоятелств	-10.5584
▁пристално	-10.5584
▁молчание	-10.5589
▁обязанностеи	-10.559
▁банка	-10.559
▁трудов	-10.5593
▁нож	-10.5595
▁надел	-10.5595
▁бат	-10.5597
▁население	-10.5598
▁повел	-10.5598
▁доказателства	-10.5598
▁обектов	-10.56
▁зависимости	-10.56
▁марк	-10.5606
▁вздохнул	-10.5613
ум	-10.5613
▁палаты	-10.562
вен	-10.5624
▁небес	-10.5629
▁соглас	-10.5629
▁киев	-10.563
▁сторонам	-10.5631
▁президент	-10.5632
▁счаст	-10.5636
▁обороны	-10.5639
▁стул	-10.564
▁тюрмы	-10.5641
▁умом	-10.5644
▁инд	-10.5648
кон	-10.5648
▁директор	-10.5649
▁глядел	-10.565
▁список	-10.5656
▁оказалас	-10.5656
▁весел	-10.566
▁гряз	-10.5665
▁взглянут	-10.5668
▁называет	-10.5669
иков	-10.5671
▁братом	-10.5672
▁корпус	-10.5672
▁недолго	-10.5676
▁состоял	-10.5678
▁находилас	-10.568
▁удоволствие	-10.5683
▁остав	-10.5685
▁болшею	-10.5695
▁инстанции	-10.5695
▁мелких	-10.5696
иями	-10.5697
▁молчан	-10.57
▁маленкие	-10.57
▁пускаи	-10.5702
▁процентов	-10.5704
▁шляпу	-10.5706
▁тесно	-10.5708
▁справедливости	-10.571
▁боевых	-10.571
▁успехом	-10.5718
▁возвратился	-10.5718
▁карты	-10.5719
▁победы	-10.5721
▁узнала	-10.5724
▁небу	-10.5724
▁таина	-10.5727
▁защиту	-10.5742
емыи	-10.5743
▁героя	-10.5744
▁строка	-10.5749
▁критика	-10.5752
▁богатства	-10.5757
▁акта	-10.5757
▁сознания	-10.576
▁картин	-10.5762
▁участвовал	-10.5762
▁происходило	-10.5763
▁полная	-10.5763
▁часу	-10.5766
▁краснои	-10.5767
▁материалов	-10.5767
▁лакеи	-10.5776
▁оруд	-10.5777
▁фил	-10.5779
▁проф	-10.5781
▁упала	-10.5786
▁цеп	-10.5787
▁длинные	-10.5789
▁библ	-10.5791
▁судна	-10.5793
▁клад	-10.5795
▁оставили	-10.58
емых	-10.5801
▁установленном	-10.5804
▁независимо	-10.5808
▁направление	-10.5811
▁жалобы	-10.5814
▁ужасом	-10.5814
▁оказалис	-10.5815
▁известнои	-10.5815
▁органами	-10.5821
▁молчат	-10.5821
овал	-10.5823
▁эр	-10.5824
▁древнеи	-10.5826
▁мадам	-10.5828
▁секретар	-10.5832
том	-10.5835
▁согласен	-10.5838
▁дорогая	-10.584
▁новаго	-10.5841
▁количестве	-10.5842
▁событ	-10.5842
▁услуги	-10.5843
▁данном	-10.5847
▁встреча	-10.5847
▁левои	-10.5847
▁нац	-10.5847
▁жар	-10.5848
▁некрасов	-10.5848
▁началас	-10.585
▁заставляет	-10.5851
▁оз	-10.5854
▁щ	-10.5856
▁доброе	-10.5858
кам	-10.586
фа	-10.5861
аеш	-10.5872
▁лондоне	-10.5872
▁трет	-10.5874
▁адмирал	-10.5876
▁оруж	-10.5878
▁мороз	-10.5878
▁враги	-10.5878
со	-10.588
▁жалко	-10.5884
▁мо	-10.5885
▁умеет	-10.5885
▁уничтожит	-10.5887
нул	-10.589
▁судбу	-10.589
▁сели	-10.5896
▁главных	-10.5902
▁восторг	-10.5913
▁милостивыи	-10.5916
▁происхождения	-10.5916
▁принцесса	-10.5917
▁духовнои	-10.5924
▁обратил	-10.5926
▁глубокои	-10.5928
▁имеются	-10.5929
▁энергии	-10.5929
▁пот	-10.5931
▁фунтов	-10.5937
▁общ	-10.5939
▁заметив	-10.5944
▁успеха	-10.5945
▁прием	-10.5948
ницу	-10.5955
▁слышала	-10.5964
▁знаменитыи	-10.5964
▁посмотрите	-10.5969
▁несчастныи	-10.597
▁шал	-10.598
▁холод	-10.5981
▁виден	-10.5985
▁твоему	-10.5987
▁настоящем	-10.5987
▁ушли	-10.5989
▁попросил	-10.5989
▁свободе	-10.5993
▁чтения	-10.5994
▁поняла	-10.5996
▁получения	-10.6
▁интересно	-10.6001
▁кофе	-10.6004
алис	-10.6005
▁прощаите	-10.6006
дон	-10.6006
ством	-10.6006
▁молод	-10.6011
▁сущност	-10.6014
▁общии	-10.6016
▁городах	-10.6021
▁страхом	-10.6022
▁принести	-10.6022
▁роза	-10.6023
▁всякие	-10.6024
▁ленин	-10.6029
▁белая	-10.603
▁маленких	-10.6031
▁республика	-10.6032
▁обяснен	-10.6039
▁наказан	-10.604
▁горло	-10.6044
▁волк	-10.6045
▁буря	-10.6045
▁темноте	-10.6051
▁вор	-10.6052
енки	-10.6056
▁встала	-10.6065
очка	-10.6066
▁многим	-10.6068
бол	-10.6068
▁брови	-10.607
▁путешествие	-10.607
▁втором	-10.607
▁расстоянии	-10.6073
▁секрет	-10.6075
▁наст	-10.6076
▁проведения	-10.6076
▁князеи	-10.6077
мел	-10.6077
вол	-10.608
▁маленкую	-10.608
▁волн	-10.6082
▁бран	-10.6087
▁нужным	-10.6089
▁доброволно	-10.609
▁вблизи	-10.6094
▁работои	-10.6095
▁главного	-10.6099
▁ак	-10.61
▁иисус	-10.6104
▁осеню	-10.6108
▁стихотворение	-10.6112
▁лат	-10.6113
▁риме	-10.6113
▁тоска	-10.6114
кар	-10.6115
▁чел	-10.6119
▁указывает	-10.6121
▁масс	-10.6121
▁полчаса	-10.6122
▁считали	-10.6124
▁павловна	-10.6126
▁осуществляется	-10.6127
▁боротся	-10.6128
▁хвост	-10.6129
ним	-10.6131
▁процесса	-10.6135
▁хороша	-10.6135
▁всякому	-10.6138
▁снят	-10.6138
▁спасен	-10.614
▁маркиз	-10.614
▁встречи	-10.6141
ана	-10.6142
▁царства	-10.6143
▁свыше	-10.6143
▁системе	-10.6143
▁свод	-10.6145
▁таковы	-10.6145
▁появилас	-10.6146
▁лучшее	-10.6149
▁дне	-10.6151
▁половина	-10.6153
ностю	-10.6153
▁местами	-10.6154
▁языков	-10.6155
▁собрат	-10.6155
▁што	-10.6158
▁иоанна	-10.6159
▁дано	-10.616
▁добрые	-10.616
▁песен	-10.6166
▁составит	-10.6167
▁огромныи	-10.6171
▁простит	-10.6172
ющеися	-10.6173
▁возвращен	-10.6175
▁днях	-10.6179
▁заявления	-10.6182
пр	-10.6187
▁поклон	-10.6188
▁игры	-10.619
▁последнем	-10.619
тен	-10.619
▁способности	-10.6194
бр	-10.6197
▁направился	-10.6197
▁обратит	-10.62
цам	-10.6206
▁усердно	-10.6209
▁человеке	-10.6209
▁партия	-10.622
▁называл	-10.6222
▁блеск	-10.6224
▁ран	-10.6227
▁отнюд	-10.6235
▁чувствуя	-10.6238
ида	-10.6238
▁появилис	-10.6239
▁качества	-10.6239
▁пояс	-10.6239
ха	-10.6241
▁предметов	-10.6243
▁улицам	-10.6244
▁критик	-10.6249
▁местных	-10.6249
▁рада	-10.6254
▁ищет	-10.6255
▁тюрму	-10.6261
▁чорт	-10.6262
▁глубины	-10.6264
▁фигуры	-10.6266
▁документ	-10.6267
▁корабля	-10.6269
▁индии	-10.6271
▁кровати	-10.6272
▁проводил	-10.6273
ур	-10.6273
▁восточнои	-10.6277
▁шагом	-10.628
▁презрен	-10.628
▁востока	-10.628
▁брака	-10.6281
▁строителства	-10.6282
▁упорно	-10.6286
▁дявол	-10.6286
ается	-10.6288
▁собралис	-10.6291
овского	-10.6293
▁полного	-10.6294
▁старалис	-10.6295
▁истину	-10.6298
▁акты	-10.63
▁вывод	-10.6303
▁бумагу	-10.6309
▁третего	-10.631
▁песн	-10.6311
▁разума	-10.6312
▁цепи	-10.6313
▁лишен	-10.6314
нер	-10.6318
ста	-10.6318
▁остановится	-10.6323
▁судбе	-10.6324
▁библиотека	-10.6324
▁показалас	-10.6326
▁клуб	-10.6327
▁решении	-10.6331
▁наверно	-10.6332
▁следующ	-10.6336
▁дик	-10.6337
▁своиства	-10.6339
▁спину	-10.6341
▁сторона	-10.6351
▁обр	-10.6354
▁встречаются	-10.6355
▁ударил	-10.6358
▁держатся	-10.6359
▁стремится	-10.636
▁поклонился	-10.636
сов	-10.6361
вшуюся	-10.6362
▁глас	-10.6363
▁ползовался	-10.6366
▁востоке	-10.6368
▁временам	-10.6371
▁выступил	-10.6371
▁ученых	-10.6374
▁ага	-10.6375
очек	-10.6377
▁изображен	-10.6382
▁ходили	-10.6384
▁специално	-10.6387
▁целое	-10.6388
▁скалы	-10.6391
▁бежит	-10.6392
▁блок	-10.6399
▁контрол	-10.6404
лив	-10.6412
▁парен	-10.6413
▁которою	-10.6413
шие	-10.6418
▁нашими	-10.642
▁мужики	-10.6423
▁критики	-10.6428
▁гостя	-10.6433
▁казалис	-10.6434
▁попытки	-10.6438
▁очерк	-10.6439
▁деиствует	-10.6445
▁служат	-10.6448
▁андреевич	-10.6449
▁выпуск	-10.6451
▁ник	-10.6452
▁став	-10.6454
▁прах	-10.6454
▁покоя	-10.6455
▁венец	-10.6455
▁ученыи	-10.6455
шим	-10.6459
▁московскои	-10.6463
▁равнодушно	-10.6465
▁лагер	-10.6466
▁рев	-10.6468
▁чаю	-10.6469
▁растении	-10.6471
▁подобного	-10.6472
▁ром	-10.6477
▁новгород	-10.6477
▁расходов	-10.6477
▁наташа	-10.6479
▁данные	-10.6482
▁поднялас	-10.6483
▁луи	-10.6486
▁окончил	-10.6486
▁ежегодно	-10.6488
▁красавица	-10.6489
▁известных	-10.649
▁городом	-10.6491
сп	-10.6497
▁бр	-10.6498
▁квартире	-10.65
▁занимает	-10.6501
▁отличается	-10.6501
▁денежных	-10.6503
▁михаила	-10.6504
▁малыи	-10.6507
▁колен	-10.6508
▁задумчиво	-10.6509
▁сделает	-10.6513
▁сибир	-10.6514
▁машины	-10.6516
▁праве	-10.6517
▁смеяс	-10.6522
▁волосами	-10.6523
▁правои	-10.6524
▁мон	-10.6525
▁лед	-10.6526
очки	-10.6532
▁палцы	-10.6532
▁хорошего	-10.6532
▁собственност	-10.6533
▁сердито	-10.6534
аем	-10.6536
▁муниципалного	-10.6538
▁приносит	-10.654
▁любим	-10.6541
▁иисуса	-10.6543
▁встречается	-10.6545
▁входят	-10.6549
▁профессора	-10.6549
▁достоевского	-10.655
уют	-10.655
▁предусмотренных	-10.6551
▁селе	-10.6551
▁племени	-10.6552
▁экипаж	-10.6554
▁приняла	-10.6556
▁еле	-10.6562
ическая	-10.6564
чет	-10.6564
▁исход	-10.6566
▁веселыи	-10.657
▁привет	-10.657
▁выразит	-10.6575
▁слыхал	-10.6576
▁печали	-10.658
▁ехали	-10.658
▁суду	-10.6581
▁боги	-10.6582
▁казн	-10.6587
▁высоких	-10.6587
▁собрании	-10.6592
ена	-10.6593
▁гол	-10.6594
▁поскорее	-10.6594
▁живот	-10.6597
▁известен	-10.6598
▁родину	-10.66
▁производится	-10.66
▁собора	-10.6602
▁думают	-10.6602
▁увидите	-10.6604
▁выхода	-10.6604
▁повод	-10.661
▁переходит	-10.6612
нки	-10.6612
▁девица	-10.662
▁актов	-10.6622
▁сожалению	-10.6627
▁отд	-10.6629
▁фин	-10.6637
▁прекраснои	-10.6638
▁соловев	-10.6638
▁раионе	-10.6639
▁несчаст	-10.6639
▁подпис	-10.6641
▁лежали	-10.6643
▁баб	-10.6644
▁сада	-10.6648
▁очи	-10.6651
елен	-10.6652
▁немецкии	-10.6653
▁занял	-10.6656
▁газете	-10.6657
енныи	-10.6658
▁ящик	-10.6662
▁учится	-10.6662
▁кресло	-10.6662
▁толку	-10.6665
▁губернатора	-10.6667
▁рыбы	-10.6673
▁влияния	-10.6674
▁надежду	-10.6676
▁погода	-10.6679
▁современнои	-10.6688
▁царица	-10.669
▁од	-10.669
▁целеи	-10.669
▁флот	-10.6691
▁попов	-10.67
▁преступлен	-10.6708
▁создат	-10.671
▁звери	-10.671
▁разными	-10.671
▁длинныи	-10.671
▁властю	-10.6713
▁новому	-10.6713
▁цветами	-10.6714
▁вопросом	-10.6723
эн	-10.673
▁периода	-10.6731
мет	-10.6731
▁исаак	-10.6732
▁бояс	-10.6734
▁лета	-10.6734
▁начинал	-10.6737
▁злои	-10.6738
▁боится	-10.6739
▁законодателства	-10.674
▁почтително	-10.6741
▁учеников	-10.6742
▁знакомыи	-10.6744
▁способност	-10.6752
▁мгновенно	-10.6754
▁осуществления	-10.6755
▁тридцати	-10.6757
▁определяется	-10.6758
▁звезда	-10.6759
▁обещан	-10.676
▁кончил	-10.6761
рин	-10.6764
▁осталное	-10.6765
▁виды	-10.677
▁истина	-10.677
▁революция	-10.6772
▁состава	-10.6775
▁систему	-10.6775
▁занимал	-10.6779
▁изменит	-10.678
▁участка	-10.6782
▁народы	-10.6784
▁передо	-10.6789
▁королем	-10.6791
▁бояр	-10.6792
щего	-10.6795
енных	-10.6795
▁священника	-10.6797
▁высших	-10.6799
▁ребята	-10.6807
про	-10.6812
▁парижа	-10.6816
▁справедливост	-10.6817
▁древности	-10.6817
▁приблизително	-10.682
▁плод	-10.6822
▁животное	-10.6836
▁молодым	-10.6837
▁сухо	-10.6842
▁пищи	-10.6849
▁бедных	-10.6854
▁человеческих	-10.6854
▁существован	-10.6856
▁оборот	-10.6859
▁расчет	-10.6861
▁одежды	-10.6863
▁оставалис	-10.6864
▁яко	-10.6865
▁огромное	-10.6867
▁пределы	-10.687
▁лик	-10.6872
▁такова	-10.6878
▁знания	-10.6883
оп	-10.6884
▁надеятся	-10.6887
▁главные	-10.6899
▁понимаеш	-10.6899
▁скал	-10.69
▁остатки	-10.69
▁направо	-10.69
▁обяснения	-10.6901
▁третя	-10.6904
▁провинции	-10.6904
▁мф	-10.6904
▁узнает	-10.6905
▁достоинство	-10.6905
▁леитенант	-10.6907
▁перо	-10.6909
▁миром	-10.6909
▁уважен	-10.6911
▁дедушка	-10.6913
▁представители	-10.6917
▁воскресене	-10.6922
▁ответственности	-10.6924
▁белом	-10.6926
▁палцами	-10.6927
▁великаго	-10.6928
▁заменит	-10.6929
▁пламя	-10.693
▁полон	-10.6935
▁ранен	-10.6938
▁правы	-10.6943
▁океан	-10.6946
▁слуги	-10.6953
▁лучшие	-10.696
▁горах	-10.6961
▁али	-10.6962
сил	-10.6966
▁королевы	-10.6969
▁пунктом	-10.6969
▁социалнои	-10.6973
▁капитала	-10.6985
▁вынужден	-10.6986
▁миллионов	-10.6989
▁начинают	-10.6992
ировал	-10.6995
▁будущего	-10.6995
▁черных	-10.6997
инг	-10.6998
▁евр	-10.6999
▁людях	-10.7
▁звали	-10.7004
▁следит	-10.7004
▁здания	-10.7005
▁полях	-10.7005
▁университете	-10.7006
▁купил	-10.7006
▁училище	-10.7013
▁нации	-10.7015
▁сказки	-10.7018
▁иные	-10.702
▁помалу	-10.7023
▁верил	-10.7025
▁проникнут	-10.7026
▁заметили	-10.7029
▁сему	-10.7029
▁просвещения	-10.703
▁главнои	-10.7033
▁установит	-10.7043
▁резултаты	-10.7044
▁уехат	-10.7046
▁пешком	-10.7047
▁вспомнит	-10.7048
▁каково	-10.7053
▁прос	-10.7054
▁поры	-10.7054
▁еду	-10.7061
нит	-10.7062
▁софя	-10.7069
▁примеч	-10.7077
ска	-10.7082
▁вице	-10.7083
▁предмета	-10.7084
▁прекрасное	-10.7086
ивш	-10.7088
▁татар	-10.7093
▁кредит	-10.7096
▁знан	-10.7099
▁зиму	-10.71
▁разсказ	-10.7102
▁ур	-10.7102
▁удоволствия	-10.7105
▁обращен	-10.7107
▁приход	-10.7108
▁доход	-10.7111
▁смысла	-10.7115
▁еслибы	-10.7119
▁взглянула	-10.7121
рад	-10.7121
▁главная	-10.7121
▁проидет	-10.7124
▁друзями	-10.7124
▁отдыха	-10.7125
зе	-10.7125
▁греков	-10.7127
▁лекции	-10.7128
▁неловко	-10.7129
▁перебил	-10.713
▁дю	-10.7132
▁примет	-10.7133
ался	-10.7134
▁моими	-10.7144
▁смел	-10.7146
▁бело	-10.7146
▁являлся	-10.7147
▁тщетно	-10.7147
▁подвиг	-10.7148
▁французов	-10.7148
▁отозвался	-10.7149
▁пищу	-10.7149
▁разрешен	-10.715
▁варвара	-10.716
▁пян	-10.7166
▁роду	-10.7167
▁направления	-10.7174
▁факты	-10.7174
вод	-10.7176
▁распоряжения	-10.7178
▁настроение	-10.718
▁записку	-10.7182
▁гостинои	-10.7182
▁полностю	-10.7187
▁чу	-10.7187
▁глухо	-10.719
▁побежал	-10.7191
▁гора	-10.7192
▁путешествия	-10.7192
▁высок	-10.7192
▁гар	-10.7192
рос	-10.7194
▁отделно	-10.7194
▁кир	-10.7195
▁финансов	-10.7195
▁усилия	-10.7196
▁самыми	-10.7198
▁императрицы	-10.7198
▁отдохнут	-10.72
▁верныи	-10.72
▁направлению	-10.7201
▁началство	-10.7202
▁поцеловал	-10.7203
▁коротко	-10.7206
▁вслух	-10.7219
▁отсутств	-10.7219
ическои	-10.722
▁отказ	-10.7222
▁караул	-10.7223
▁состоят	-10.7227
ания	-10.7229
▁поняли	-10.7229
▁живу	-10.7233
▁любили	-10.7239
▁писан	-10.724
▁способом	-10.7241
▁следующих	-10.7243
▁хозяиство	-10.7243
▁наказания	-10.7245
▁воинов	-10.7247
▁безусловно	-10.7247
▁искусстве	-10.7249
▁смешно	-10.7255
▁стремление	-10.7256
▁школу	-10.7256
▁военные	-10.7256
▁слове	-10.7257
▁удел	-10.7259
▁определен	-10.726
▁присутствии	-10.726
▁вол	-10.7261
гар	-10.7262
▁нов	-10.7262
▁красно	-10.7264
▁платон	-10.7266
▁дочерю	-10.727
▁надобности	-10.727
▁падает	-10.7271
аз	-10.7271
▁чинов	-10.7275
▁андрея	-10.728
шку	-10.7285
▁названием	-10.7291
▁рождения	-10.7292
▁красные	-10.7293
бел	-10.7293
▁недостаток	-10.7294
▁мартин	-10.7296
▁титул	-10.7296
▁настоящая	-10.7298
▁дум	-10.7298
▁указат	-10.7299
▁монах	-10.7301
▁ша	-10.7301
▁комментарии	-10.7302
▁тремя	-10.7304
▁середине	-10.7306
▁щеки	-10.7307
▁распоряжение	-10.7307
работ	-10.7308
▁началос	-10.7309
▁читает	-10.7312
▁великие	-10.7316
енные	-10.7318
▁целом	-10.7319
▁сд	-10.7319
▁селен	-10.732
▁ребенком	-10.7325
▁указан	-10.7325
▁известия	-10.7325
▁веснои	-10.7328
▁отдела	-10.733
▁сар	-10.7332
▁сообщения	-10.7332
▁кап	-10.7334
▁простор	-10.7336
▁болных	-10.7338
▁стоимости	-10.734
▁вступит	-10.7343
▁флота	-10.7346
▁цену	-10.7348
▁несколкими	-10.735
▁городскои	-10.735
▁субектов	-10.7352
▁таково	-10.7354
▁палто	-10.7357
▁гражданскои	-10.736
▁попаст	-10.7361
▁землеи	-10.7365
▁швеицар	-10.7367
▁получат	-10.7368
▁песню	-10.7369
▁актер	-10.7373
▁принца	-10.7376
▁планы	-10.7379
▁ждали	-10.738
▁среднеи	-10.7387
▁переводе	-10.7389
▁прямои	-10.7389
▁явлении	-10.7392
▁дворце	-10.7395
▁следоват	-10.7398
▁привели	-10.7398
▁сп	-10.7399
▁видят	-10.7406
▁платок	-10.741
▁слабост	-10.7411
▁силным	-10.7412
▁необходимым	-10.7414
▁поет	-10.7415
▁особои	-10.7429
▁вэ	-10.7431
▁тома	-10.7431
▁сестре	-10.7434
▁слушаи	-10.7435
▁мрак	-10.7436
▁порои	-10.7438
▁субекта	-10.744
▁завещан	-10.7443
▁просила	-10.7446
▁григории	-10.7447
▁повернулся	-10.7449
▁идем	-10.745
▁существуют	-10.7453
▁издал	-10.7453
▁удержат	-10.7456
▁сторож	-10.7458
▁свету	-10.746
▁страшное	-10.7462
▁правления	-10.7462
▁народе	-10.7462
▁дневник	-10.7463
▁согласия	-10.7464
▁золотые	-10.7464
▁острове	-10.7466
▁решено	-10.7468
▁французского	-10.7468
▁лиза	-10.7469
▁причину	-10.7472
▁ун	-10.7473
ган	-10.7475
▁вряд	-10.7475
▁сделав	-10.7477
▁произнесла	-10.7479
▁тише	-10.748
▁поражен	-10.7483
▁позиции	-10.7483
▁ск	-10.7485
▁оскорблен	-10.7486
▁помещен	-10.7489
▁руже	-10.7493
▁печално	-10.7494
▁фамилии	-10.7495
▁жду	-10.7495
▁наидет	-10.7495
▁победу	-10.7495
▁труб	-10.7495
▁тал	-10.7496
▁тихонко	-10.7496
▁признатся	-10.7499
▁крупных	-10.7499
▁ло	-10.7499
▁повторяю	-10.7499
нс	-10.7502
▁ир	-10.7502
сы	-10.7504
▁арбитражныи	-10.7509
▁замечает	-10.7511
▁родители	-10.7513
▁основных	-10.7514
▁шекспира	-10.7515
▁данным	-10.7517
▁взглянув	-10.7519
▁мясо	-10.752
▁стремлен	-10.7521
▁принцип	-10.7521
▁рскд	-10.7527
нят	-10.7529
▁единственное	-10.7536
▁бросилис	-10.7538
▁робко	-10.754
▁мешает	-10.7542
▁добавил	-10.7544
ические	-10.7544
гр	-10.7546
▁положим	-10.7548
▁коленях	-10.7549
▁известие	-10.7551
▁апостол	-10.7554
▁мертвых	-10.7556
сто	-10.7556
▁молодец	-10.7557
ант	-10.7558
▁элементов	-10.7561
▁кладбище	-10.7564
▁англиискии	-10.7565
▁движением	-10.7568
▁темные	-10.7568
▁смотрят	-10.7572
▁целым	-10.7572
▁божия	-10.7573
▁берлин	-10.7574
▁женился	-10.758
▁выражения	-10.758
▁лодки	-10.7581
▁анти	-10.7583
▁всецело	-10.7583
▁голода	-10.7584
▁окончании	-10.7588
ует	-10.7589
▁государственным	-10.7591
▁забот	-10.7593
▁сбор	-10.7594
▁волнения	-10.7594
▁обществу	-10.7597
▁сделаю	-10.7599
▁сестру	-10.7603
▁вилгелм	-10.7604
кол	-10.7606
▁рои	-10.7611
▁лад	-10.7611
вшим	-10.7612
▁гибели	-10.7614
чка	-10.7618
▁черными	-10.7619
▁заключит	-10.762
кал	-10.7621
▁диван	-10.7624
▁героев	-10.7626
▁полку	-10.7627
▁костюм	-10.7629
▁плачет	-10.7629
▁благодарност	-10.763
▁занавес	-10.763
▁казаки	-10.7632
▁приглашен	-10.7632
▁князем	-10.7635
▁странным	-10.7635
▁считают	-10.7637
▁конституции	-10.7639
▁нужда	-10.7639
▁контроля	-10.7642
▁племен	-10.7645
▁трав	-10.7652
▁выражением	-10.7653
▁пребывания	-10.7658
бу	-10.7661
▁говор	-10.7663
▁черная	-10.7665
▁земнои	-10.7667
▁прошептал	-10.7668
▁трава	-10.7669
▁черта	-10.767
▁чиновник	-10.7672
▁несчасте	-10.7674
▁юности	-10.7675
▁добродетели	-10.7679
▁редактор	-10.768
рез	-10.7684
▁перестал	-10.7684
▁любиш	-10.7684
▁носом	-10.7692
▁рат	-10.7693
уд	-10.7693
▁дуб	-10.7695
▁помещения	-10.7696
мар	-10.7696
▁кл	-10.7696
▁границеи	-10.77
▁черн	-10.7701
овое	-10.7704
▁забыли	-10.7707
▁странныи	-10.771
▁доказателство	-10.7714
▁велика	-10.7717
▁играли	-10.7721
▁поток	-10.7721
▁гете	-10.7722
▁императрица	-10.7722
▁рассказат	-10.7723
▁терпет	-10.7726
▁рима	-10.7726
▁газ	-10.7727
▁прочие	-10.7729
▁шут	-10.7733
▁пошло	-10.7735
▁очутился	-10.7737
▁братец	-10.7738
▁строя	-10.7739
▁победа	-10.7741
▁ведут	-10.7744
▁частных	-10.7744
▁налево	-10.7744
▁автограф	-10.7747
▁кармана	-10.7747
▁фактически	-10.7748
▁институт	-10.7751
▁своя	-10.7755
▁слухи	-10.7756
▁вернулас	-10.776
▁лестницы	-10.776
ще	-10.7761
▁расходы	-10.7763
▁наполеона	-10.7767
▁знакомство	-10.7768
▁первоначално	-10.7769
▁казаков	-10.777
▁ввиду	-10.777
▁спасения	-10.7776
▁всячески	-10.778
▁совету	-10.7781
▁отделения	-10.7785
▁огни	-10.7787
▁путешеств	-10.7788
▁кабинете	-10.7789
▁неоднократно	-10.779
▁водки	-10.7792
▁втор	-10.7793
▁поверит	-10.7795
▁доклад	-10.7796
▁трете	-10.7796
▁содержат	-10.78
▁работников	-10.78
рал	-10.7803
▁гордост	-10.7803
▁сыновеи	-10.7804
▁горит	-10.7806
▁засмеялся	-10.7809
▁двум	-10.7812
▁основные	-10.7813
▁собирался	-10.7814
▁пытался	-10.7814
▁казан	-10.7815
▁окну	-10.7816
▁романов	-10.7818
▁охота	-10.7818
▁рабочии	-10.7818
▁примеру	-10.7819
ез	-10.782
▁мистрисс	-10.782
▁ходу	-10.7825
▁сосед	-10.7825
▁требуется	-10.7828
▁голубчик	-10.7829
▁жадно	-10.7832
▁екатерины	-10.7833
▁существования	-10.7834
▁граждане	-10.7834
▁оригинал	-10.7835
▁сумма	-10.7841
▁вечеру	-10.7845
ран	-10.7849
вор	-10.7849
▁собак	-10.7849
овую	-10.7852
▁жених	-10.7852
▁сделалас	-10.7852
▁глубокое	-10.7853
▁особливо	-10.786
▁живое	-10.7867
▁зимои	-10.7869
▁первому	-10.7874
ревосходителство	-10.7876
▁родов	-10.7876
▁прежнее	-10.7879
пат	-10.7886
▁кроват	-10.7888
▁оружия	-10.789
▁арт	-10.7891
▁преступление	-10.7891
▁согласны	-10.7893
ул	-10.7898
▁залу	-10.7901
▁московскии	-10.7904
▁дворян	-10.7905
▁долга	-10.7911
▁бу	-10.7911
▁гордо	-10.7914
▁любопытством	-10.7919
▁содержит	-10.7922
▁замечателно	-10.7923
▁внешнеи	-10.7924
ало	-10.7924
▁крым	-10.7924
▁пристав	-10.7925
▁готово	-10.7931
▁монастыре	-10.7933
▁увидим	-10.7934
▁покуда	-10.7936
▁стои	-10.7936
▁каждаго	-10.7936
▁сожален	-10.7937
▁увидит	-10.7939
▁адам	-10.7942
▁принятия	-10.7945
▁плач	-10.7947
▁квартиры	-10.7948
▁старается	-10.7956
▁строит	-10.7957
▁слав	-10.7958
▁океана	-10.7958
▁отделен	-10.796
▁подняв	-10.7966
▁семю	-10.7973
▁целая	-10.7973
▁создания	-10.7977
▁свидан	-10.7977
▁шеи	-10.7979
▁надпис	-10.7981
▁хорошая	-10.7985
▁дверях	-10.7988
▁читателя	-10.7989
▁франков	-10.7991
дал	-10.7992
▁довер	-10.7997
▁увидиш	-10.7998
ющегося	-10.8001
цвет	-10.8002
▁глупо	-10.8003
▁поддержки	-10.8006
▁алексея	-10.8006
▁богатыи	-10.8007
▁лбу	-10.8008
▁способен	-10.8016
▁бабы	-10.8017
▁основнои	-10.8021
▁прежнеи	-10.8024
▁становилос	-10.8024
▁дмитр	-10.8025
▁следующим	-10.8026
▁плоды	-10.8026
▁сред	-10.8027
▁обществом	-10.803
▁кожи	-10.8031
▁камнеи	-10.8033
▁старому	-10.8033
▁ду	-10.8034
▁молодежи	-10.8038
▁горкии	-10.804
▁студент	-10.804
▁огромные	-10.8043
▁растет	-10.8047
щая	-10.8048
▁широкои	-10.8049
▁продолжали	-10.8053
▁обер	-10.8056
▁русскому	-10.8059
▁веке	-10.8069
▁покое	-10.8072
▁старости	-10.8075
▁шекспир	-10.808
стр	-10.8084
▁полков	-10.8084
▁джордж	-10.8085
▁азии	-10.8087
▁массу	-10.8087
▁общие	-10.8088
▁целых	-10.8091
▁грубо	-10.8093
▁идите	-10.8093
▁петров	-10.8094
очку	-10.8095
▁доброи	-10.8099
▁америке	-10.8103
▁барыня	-10.8103
ющимся	-10.8103
▁правде	-10.8105
▁кул	-10.8106
нин	-10.8108
▁получал	-10.8108
▁бил	-10.8112
▁освобожден	-10.8117
▁мировои	-10.8117
ища	-10.8117
▁спинои	-10.8119
▁камня	-10.8119
▁добрая	-10.812
▁стыд	-10.8121
ницеи	-10.8121
▁колокол	-10.8123
▁переднеи	-10.8123
▁произведение	-10.8125
евои	-10.8133
▁ходят	-10.8138
▁стихах	-10.8139
▁голуб	-10.8142
▁перемен	-10.8142
лом	-10.8144
▁доброго	-10.8147
енная	-10.8149
▁участников	-10.8152
▁внутреннего	-10.8152
▁ча	-10.8155
▁захотел	-10.8155
▁добится	-10.8155
▁русскую	-10.8156
▁баран	-10.8158
▁рассказывает	-10.8161
▁представлял	-10.8161
▁пробормотал	-10.8162
иан	-10.8163
▁среде	-10.8164
▁особыи	-10.8164
▁впред	-10.8165
▁ряды	-10.8165
▁норм	-10.8167
▁охотник	-10.8167
▁поэз	-10.8171
▁сапоги	-10.8172
▁ездил	-10.8172
▁битвы	-10.8174
▁прочест	-10.8175
▁кос	-10.8177
▁палцем	-10.8178
▁столет	-10.8182
▁пункте	-10.8182
ике	-10.8183
▁морю	-10.8185
▁полноч	-10.8187
▁ученик	-10.819
▁застал	-10.8192
▁сладко	-10.8192
▁ивановича	-10.8192
▁воскрес	-10.8194
▁отправлен	-10.8194
▁царем	-10.8197
▁сорока	-10.8199
▁разбит	-10.82
вит	-10.8201
▁самыя	-10.8206
гре	-10.8207
▁барышня	-10.8207
▁юрии	-10.821
▁тяжелые	-10.8211
▁продолжен	-10.8211
▁требовал	-10.8212
▁болного	-10.8212
▁невеста	-10.8216
▁служба	-10.8218
▁особое	-10.8223
▁хватит	-10.8223
▁выс	-10.8223
инои	-10.8224
▁малеишего	-10.8226
▁поэмы	-10.8228
▁основание	-10.8229
▁ночнои	-10.8232
▁причинои	-10.8232
▁смею	-10.8235
▁сочинение	-10.8236
▁означает	-10.8238
▁ложе	-10.8246
▁гимназии	-10.825
▁протокол	-10.825
▁приити	-10.825
▁восми	-10.8251
▁женщинои	-10.8252
▁родине	-10.8254
▁полномочии	-10.8255
▁вершины	-10.8256
▁подем	-10.8258
▁доступ	-10.8259
▁прервал	-10.826
▁георг	-10.8264
▁предприятия	-10.8265
▁повторял	-10.8266
▁выпит	-10.8268
▁страшная	-10.8269
▁поэзия	-10.827
▁украины	-10.8272
▁многими	-10.8273
▁впечатления	-10.8275
▁пространстве	-10.8275
▁синор	-10.8275
▁сср	-10.8278
▁цены	-10.8279
▁юридических	-10.828
▁наблюдат	-10.828
▁принимая	-10.8282
▁спине	-10.8284
▁неприятеля	-10.8287
▁ногам	-10.8293
▁успела	-10.8294
▁обеспечение	-10.8295
▁вернулис	-10.8296
скою	-10.83
▁переити	-10.8302
▁старушка	-10.8302
▁полковника	-10.8304
▁женою	-10.8304
▁просбу	-10.8307
▁плакала	-10.8309
▁оставалас	-10.8309
▁ворон	-10.8309
▁посад	-10.831
▁среднего	-10.8311
▁недаром	-10.8313
ря	-10.8314
▁потребност	-10.8314
лан	-10.8316
▁тяжелыи	-10.8318
▁дяди	-10.8321
▁подумала	-10.8321
▁отезда	-10.8323
▁бою	-10.8329
▁решила	-10.8329
▁замке	-10.833
▁вт	-10.8332
▁парламент	-10.8333
▁зрелище	-10.8335
▁карла	-10.8335
рит	-10.8338
▁млн	-10.8339
▁добрых	-10.8339
▁становятся	-10.834
▁вплот	-10.834
▁свидания	-10.8342
▁блага	-10.8343
▁ед	-10.8343
▁греч	-10.8343
▁благодат	-10.8346
нице	-10.8347
▁аромат	-10.8347
▁чтен	-10.8349
▁весна	-10.835
▁стену	-10.835
емая	-10.8351
▁работает	-10.8351
▁держав	-10.8351
▁некоторои	-10.8363
▁беседы	-10.8364
▁владимира	-10.8366
▁сир	-10.8366
▁капли	-10.8372
▁обратилас	-10.8372
▁мозг	-10.8372
▁исчезла	-10.8375
▁доказателств	-10.8375
▁темнои	-10.8375
▁облака	-10.8377
▁мэри	-10.8381
▁водою	-10.8381
▁общая	-10.8383
▁живым	-10.8385
ившихся	-10.8385
ющаяся	-10.8385
▁вход	-10.8386
▁скол	-10.8386
▁шее	-10.8387
▁столетия	-10.8388
▁тургенева	-10.8388
▁брал	-10.8389
▁зуб	-10.8389
▁красоту	-10.839
▁читателеи	-10.8392
▁приказан	-10.8395
мон	-10.8396
▁порядком	-10.8397
▁святая	-10.84
▁построен	-10.8402
▁местност	-10.8402
▁принадлежал	-10.8404
▁частях	-10.8405
▁опубликовано	-10.841
емые	-10.8411
▁предварително	-10.8412
▁здан	-10.8413
▁нина	-10.8414
▁резултат	-10.8417
▁занятия	-10.8417
▁нарушение	-10.8418
▁постои	-10.8419
ции	-10.842
▁спрашиваю	-10.8421
▁вызват	-10.8424
▁держит	-10.843
дар	-10.8431
▁лва	-10.8436
▁отставку	-10.8437
▁политика	-10.844
▁проб	-10.8449
▁залив	-10.8449
▁прибыли	-10.8449
▁штат	-10.8451
▁распоряжен	-10.8451
▁чар	-10.8451
▁черно	-10.8453
▁обращения	-10.8457
▁зелен	-10.846
▁мистрис	-10.8465
▁вопреки	-10.8466
▁остановил	-10.8469
▁тучи	-10.8471
▁прибавила	-10.8474
▁главнокомандующ	-10.8474
▁пустыне	-10.8475
▁русскаго	-10.8475
▁молодеж	-10.8477
▁путешественник	-10.8481
▁зубами	-10.8485
▁бред	-10.8485
▁разница	-10.8487
▁нач	-10.8489
▁выстрел	-10.8489
▁прошлое	-10.8496
▁максим	-10.8496
▁бытия	-10.8499
▁чехова	-10.8501
▁заявление	-10.8503
▁садится	-10.8505
▁неприятно	-10.8506
▁размер	-10.8507
▁переговоры	-10.8508
▁возвращении	-10.8511
▁новыми	-10.8514
▁предложит	-10.8514
▁стекла	-10.8515
щик	-10.8516
▁маг	-10.8517
▁арестован	-10.8523
▁долгое	-10.8525
▁холодныи	-10.8525
▁ант	-10.8532
▁корен	-10.8533
▁количества	-10.8535
▁высокого	-10.8536
▁ожидая	-10.854
ир	-10.8543
▁выходил	-10.8544
▁писала	-10.8545
▁гляди	-10.8545
рис	-10.8546
▁немцы	-10.8546
▁заплатит	-10.8549
▁рассказыват	-10.8549
▁называт	-10.8549
▁расход	-10.8551
▁приехали	-10.8552
▁групп	-10.8552
▁проснулся	-10.8552
▁обедат	-10.8554
▁судебного	-10.8555
▁учился	-10.8558
▁густои	-10.8559
▁послушаите	-10.8562
▁шепотом	-10.8563
▁исполнят	-10.8563
▁литературнои	-10.8564
▁димитрия	-10.8565
▁воспоминании	-10.8568
▁грязи	-10.8568
▁повер	-10.8569
▁лука	-10.857
при	-10.8571
▁дверю	-10.8576
▁богат	-10.8578
▁историческии	-10.8579
исты	-10.858
▁дыхание	-10.8582
▁кост	-10.8582
▁наряд	-10.8583
▁украшен	-10.8584
▁бе	-10.8584
тои	-10.8584
▁остаются	-10.8588
▁перевода	-10.8589
▁покорно	-10.8591
▁смеятся	-10.8595
мол	-10.8599
▁тор	-10.8608
▁степи	-10.8609
▁епископа	-10.8612
▁некоторыя	-10.8614
▁составил	-10.8615
▁соответственно	-10.8616
ял	-10.8617
▁мысленно	-10.863
▁добрым	-10.863
мор	-10.8631
▁пастор	-10.8633
▁испытан	-10.8637
▁ят	-10.8638
▁таино	-10.8639
▁чтение	-10.8639
▁полномочия	-10.8643
▁лук	-10.8646
▁неизбежно	-10.8648
▁сражен	-10.8648
▁систем	-10.8659
▁устроиство	-10.8659
▁известного	-10.8664
уз	-10.8664
▁автором	-10.8669
▁чужих	-10.8671
▁красная	-10.8673
▁удивился	-10.8674
▁потери	-10.8675
▁постановлением	-10.8684
▁составляли	-10.8689
▁ползуяс	-10.8691
▁болен	-10.8691
▁встрече	-10.8692
▁духов	-10.8692
▁роберт	-10.8693
▁ров	-10.8695
▁греха	-10.8695
▁боевои	-10.8702
иею	-10.8705
▁станут	-10.8705
▁видны	-10.8706
▁фактов	-10.8707
раж	-10.8708
▁предприятии	-10.8709
▁велико	-10.871
▁опыта	-10.8712
▁участков	-10.8715
▁свободнои	-10.8715
▁носил	-10.8715
▁ужин	-10.8718
▁высокая	-10.8719
▁комедии	-10.8722
▁образа	-10.8723
▁несет	-10.8727
▁создал	-10.8727
▁требованиям	-10.8728
▁высоте	-10.8728
▁смущен	-10.8729
▁смутно	-10.8729
▁гос	-10.8732
▁следующем	-10.8732
▁гер	-10.8733
▁старалас	-10.8734
▁принесли	-10.8734
▁гражданин	-10.8736
▁похоже	-10.8737
▁криком	-10.8738
▁дороже	-10.8746
▁подняла	-10.875
▁посмотрим	-10.875
▁чистои	-10.8753
▁намерения	-10.8754
▁заря	-10.8754
▁болгар	-10.8754
▁красивыи	-10.8755
▁раны	-10.8757
▁лодка	-10.8759
▁мод	-10.8762
▁возможным	-10.8762
▁патр	-10.8763
▁травы	-10.8764
▁розы	-10.8764
▁листя	-10.8768
▁возвратится	-10.8768
▁сошел	-10.877
▁комнат	-10.8771
▁фу	-10.8775
▁заботится	-10.8777
яв	-10.8779
▁сплош	-10.8779
▁создание	-10.878
▁красным	-10.8781
▁беспрестанно	-10.8781
▁целиком	-10.8781
▁сумел	-10.8782
▁вдвоем	-10.8783
▁человечество	-10.8783
мат	-10.8784
▁изменен	-10.8784
▁слышит	-10.8784
▁административно	-10.8784
овыи	-10.8785
▁юг	-10.8785
▁мечта	-10.8788
▁советы	-10.879
▁отправил	-10.879
▁ждала	-10.8791
▁графу	-10.8792
щи	-10.8797
▁включая	-10.88
▁кричали	-10.8803
▁отошел	-10.8804
▁славян	-10.8805
▁гражданина	-10.8806
пад	-10.8809
▁худо	-10.8813
▁суждено	-10.8814
▁стенах	-10.8822
▁посмотрела	-10.8824
▁предложения	-10.8824
▁оказат	-10.8826
▁убедится	-10.8827
ци	-10.8828
▁бумаг	-10.8829
▁писмом	-10.8829
▁вероятности	-10.883
▁соединен	-10.8831
ане	-10.8832
▁слышиш	-10.8833
▁осуществление	-10.8835
▁надежде	-10.8836
рат	-10.8838
▁комиссия	-10.8839
▁применения	-10.8841
▁ошибки	-10.8841
фер	-10.8843
▁никуда	-10.8844
▁рассмотрения	-10.8845
▁духу	-10.8847
▁предпринимател	-10.8848
▁ля	-10.8848
▁утвержден	-10.885
▁устроиства	-10.8852
▁саша	-10.8853
▁влечет	-10.8853
▁грозит	-10.8853
▁ездит	-10.8854
▁взоры	-10.8857
вшимися	-10.8857
▁обявит	-10.8858
▁признаюс	-10.8858
▁ведомости	-10.8859
▁завет	-10.8859
▁различ	-10.8859
щих	-10.8859
▁обманут	-10.8861
лев	-10.8867
шев	-10.8867
▁успешно	-10.8868
▁ветви	-10.8869
лож	-10.8871
▁подошли	-10.8872
▁компан	-10.888
▁данного	-10.8881
▁юноши	-10.8889
▁завода	-10.8889
▁беднои	-10.8891
▁солнцем	-10.8892
▁считатся	-10.8892
▁товара	-10.8893
▁пап	-10.8894
▁могилу	-10.8894
▁федералныи	-10.8895
дов	-10.89
▁приготовлен	-10.8901
▁катерина	-10.8901
▁охраны	-10.8902
▁желат	-10.8902
иват	-10.8904
▁пи	-10.8906
▁сует	-10.8907
▁вторично	-10.8907
▁аполлон	-10.891
ене	-10.891
▁скандал	-10.8912
нич	-10.8912
▁бледныи	-10.8912
овна	-10.8913
▁жарко	-10.8915
▁пропаст	-10.8916
▁ветром	-10.8918
▁круга	-10.892
▁конеи	-10.8922
▁восторга	-10.8927
▁обществ	-10.8929
ован	-10.893
▁памятник	-10.8931
▁крупные	-10.8931
тал	-10.8932
емои	-10.8934
стер	-10.8934
▁французы	-10.8934
щу	-10.8935
▁особо	-10.8935
▁собственного	-10.8935
зна	-10.8938
иях	-10.894
еннои	-10.8945
▁признает	-10.895
▁суворова	-10.8951
▁лесов	-10.8952
▁девушке	-10.8953
▁трепет	-10.8954
▁золотых	-10.8954
▁смеется	-10.8955
тр	-10.8955
▁болот	-10.8956
▁почве	-10.8957
▁поступок	-10.8958
▁московских	-10.8959
▁непо	-10.8961
▁велич	-10.8961
▁остановит	-10.8964
▁трон	-10.8965
▁превосходно	-10.8966
▁лодку	-10.8967
▁успокоит	-10.897
овыми	-10.8971
▁джим	-10.8971
▁орлов	-10.8972
▁литературных	-10.8977
▁собственным	-10.8978
▁бывали	-10.8979
▁престола	-10.8982
▁умрет	-10.8983
▁голосе	-10.8983
▁несравненно	-10.8983
▁скажем	-10.8985
▁помниш	-10.8987
▁предпр	-10.899
▁часам	-10.8991
▁богатых	-10.8992
▁милорд	-10.8995
твор	-10.8995
▁прислал	-10.8997
▁страницы	-10.8998
тур	-10.8998
▁сообщен	-10.9
▁разстоян	-10.9
▁станц	-10.9006
▁жи	-10.9006
▁опер	-10.9009
▁деиствителност	-10.9011
▁фи	-10.9012
тов	-10.9013
▁западе	-10.9013
▁безум	-10.9013
▁анненков	-10.9014
▁цветок	-10.9014
вои	-10.9016
▁белыми	-10.9016
▁осен	-10.9017
▁свист	-10.9019
▁присутствие	-10.9019
▁колон	-10.9021
▁товары	-10.9024
▁кругу	-10.9026
▁наряду	-10.9027
▁минута	-10.9027
щии	-10.903
▁колцо	-10.9036
▁наверх	-10.9037
▁позволяет	-10.9037
кина	-10.9042
▁трубы	-10.9043
▁убили	-10.9044
▁мен	-10.9044
▁прибавит	-10.9044
▁целои	-10.9045
▁живого	-10.9045
ющееся	-10.9046
▁кончено	-10.9046
▁обязателств	-10.9052
▁элементы	-10.9052
▁бед	-10.9052
▁пыли	-10.9053
▁произвести	-10.9055
▁старым	-10.906
▁последств	-10.906
▁обернулся	-10.9061
▁син	-10.9061
▁делая	-10.9061
▁слову	-10.9063
▁одет	-10.9067
▁перемена	-10.9068
▁василевна	-10.9071
▁медвед	-10.9071
▁роты	-10.9071
▁словесности	-10.9071
▁исполнил	-10.9072
▁обявлен	-10.9073
▁подлежат	-10.9074
ход	-10.9077
▁нетерпеливо	-10.9079
▁прежнего	-10.908
▁сос	-10.9083
▁плащ	-10.9083
▁советов	-10.9086
▁администрации	-10.9086
▁чиновников	-10.9088
▁современных	-10.909
▁губами	-10.9096
▁хорошие	-10.9096
жив	-10.9099
▁драмы	-10.9099
▁установлен	-10.9103
▁поручен	-10.9104
ание	-10.9106
▁согласие	-10.9107
▁домом	-10.9109
▁значителнои	-10.911
▁законам	-10.9111
▁взором	-10.9113
▁княжна	-10.9115
▁французских	-10.9115
▁последовал	-10.9119
▁фонда	-10.9121
жит	-10.9121
▁заботы	-10.9125
▁настоящую	-10.9127
▁англичан	-10.9127
▁скорби	-10.9128
под	-10.913
▁тревожно	-10.9133
▁буквално	-10.9134
лон	-10.9135
▁наказание	-10.9138
▁бесконечно	-10.9142
▁жертв	-10.9143
▁представил	-10.9144
ического	-10.915
▁сахар	-10.9158
▁ган	-10.9163
▁запада	-10.9164
▁судебнои	-10.9164
▁следующего	-10.9164
▁царского	-10.9164
▁перев	-10.9166
ром	-10.9167
▁александровна	-10.9169
▁уверены	-10.9169
▁образы	-10.9172
▁спец	-10.9173
▁управлен	-10.9174
▁исторических	-10.9174
▁туч	-10.9175
мир	-10.9176
▁развитии	-10.9178
▁журналист	-10.9182
▁негодяи	-10.9187
▁коллегии	-10.9189
▁теория	-10.9192
▁глубже	-10.9192
▁белым	-10.9193
▁зубов	-10.9194
▁зрен	-10.9198
▁змея	-10.92
▁пустои	-10.92
▁мгновен	-10.9202
▁зол	-10.9205
▁зван	-10.9207
▁давид	-10.9207
▁василия	-10.9209
▁жорж	-10.9213
▁служили	-10.9217
▁старое	-10.9219
▁надеялся	-10.922
▁насмешливо	-10.9224
▁наследство	-10.9225
▁умею	-10.9228
▁ожидании	-10.9231
има	-10.9234
▁свечи	-10.9236
▁веществ	-10.9237
▁наверху	-10.924
▁крыля	-10.9241
▁мяса	-10.9242
▁бек	-10.9243
▁оси	-10.9245
▁кавалер	-10.9246
леп	-10.9249
▁пятидесяти	-10.9253
▁возмет	-10.9256
▁продолжая	-10.9257
▁помещении	-10.9258
▁духовных	-10.9259
▁религия	-10.9261
аите	-10.9262
пу	-10.9263
▁разврат	-10.9269
тар	-10.927
▁противник	-10.9273
▁боярин	-10.9273
мо	-10.9277
▁взад	-10.9277
▁экономическои	-10.928
▁ночам	-10.928
▁науке	-10.9281
▁газетах	-10.9282
▁позволит	-10.9282
▁природу	-10.9283
▁совершит	-10.9284
▁сознателно	-10.9285
▁мрамор	-10.9286
▁помог	-10.9287
▁приходили	-10.9288
▁куб	-10.9289
▁опустил	-10.929
тол	-10.929
▁озер	-10.9294
▁ждут	-10.9296
▁силных	-10.9298
▁груз	-10.93
▁встречу	-10.9303
▁вину	-10.9306
▁барона	-10.9306
▁здание	-10.9308
▁бывших	-10.9309
▁точку	-10.9314
овы	-10.9314
▁лучшим	-10.9315
кор	-10.9317
▁русскими	-10.9317
▁красиво	-10.9319
ита	-10.932
▁связанных	-10.9321
▁любите	-10.9325
▁ожидан	-10.9327
▁глядит	-10.9327
▁обясняется	-10.9328
▁казатся	-10.9331
▁одежду	-10.9331
▁дев	-10.9335
▁луны	-10.9338
▁елизавета	-10.9339
▁платы	-10.9346
вел	-10.9347
▁великую	-10.9349
▁америки	-10.935
▁глупости	-10.9353
▁сирот	-10.9354
▁началством	-10.9357
▁целого	-10.936
▁зверя	-10.9365
▁красного	-10.9367
▁близких	-10.9368
▁проповед	-10.937
▁зовет	-10.9372
ику	-10.9372
▁посол	-10.9377
ивал	-10.9381
▁замечал	-10.9386
▁орудия	-10.9388
▁напоминает	-10.9388
▁шир	-10.9389
▁скота	-10.939
▁заведен	-10.939
▁фамилия	-10.939
▁четвертыи	-10.939
▁европеиских	-10.9394
▁немцев	-10.9398
ща	-10.9401
▁девочки	-10.9401
▁сидят	-10.9402
▁находим	-10.9404
▁мятеж	-10.9405
▁обращается	-10.9405
▁снега	-10.9408
▁компания	-10.9409
▁жития	-10.9411
▁члена	-10.9412
▁соли	-10.9415
▁одною	-10.9418
▁делала	-10.942
▁ме	-10.9423
▁душою	-10.9424
ившии	-10.9424
▁указанные	-10.9425
▁знаки	-10.9427
▁слуг	-10.9427
▁торговля	-10.9427
▁задачу	-10.9432
рев	-10.9432
▁маркс	-10.9433
▁восторгом	-10.9437
▁продукции	-10.9439
▁поцелуи	-10.944
▁рых	-10.944
ическии	-10.944
▁возму	-10.9441
пи	-10.9443
▁судебных	-10.9443
▁подтвердил	-10.9444
▁даннои	-10.9445
ора	-10.9445
▁имеющих	-10.9446
▁григоревич	-10.9448
▁ошибка	-10.9451
нев	-10.9452
▁кабинета	-10.9453
▁ятел	-10.9453
▁кро	-10.9454
стан	-10.9455
▁обзор	-10.9457
▁слабости	-10.9458
▁ползуется	-10.946
▁артиллерии	-10.9461
▁старост	-10.9462
▁родины	-10.9464
▁учетом	-10.9465
▁сходство	-10.9467
▁хотим	-10.9471
▁забыла	-10.9471
▁каковы	-10.9474
▁живем	-10.9474
▁мило	-10.9475
▁верхов	-10.9477
вшими	-10.9478
▁призрак	-10.9478
▁рез	-10.9479
▁марш	-10.9479
▁угла	-10.9479
▁длинными	-10.9482
▁бывшего	-10.9484
пп	-10.9489
▁совр	-10.949
▁назначения	-10.9492
▁освободит	-10.9492
▁егор	-10.9494
▁черту	-10.9495
▁импер	-10.9504
▁хороших	-10.9505
▁советом	-10.9506
▁красоте	-10.9506
▁живописи	-10.9508
▁двести	-10.9508
▁вене	-10.951
▁рта	-10.9513
▁коз	-10.9513
▁плана	-10.9518
▁подлежит	-10.9518
вшее	-10.952
▁встретили	-10.9524
▁записи	-10.9524
▁пригласил	-10.9526
▁мелкие	-10.9527
▁вдова	-10.9529
▁гуд	-10.953
▁искусно	-10.953
▁неизменно	-10.9531
▁входа	-10.9531
▁вздрогнул	-10.9532
▁мелк	-10.9533
▁ура	-10.9534
▁удачно	-10.9534
▁доволны	-10.9535
▁тит	-10.9544
▁угрюмо	-10.9545
▁ричард	-10.9545
▁захочет	-10.9547
гер	-10.9547
сме	-10.9549
▁слева	-10.9549
▁бюджета	-10.955
▁совместно	-10.9552
▁грот	-10.9555
▁людовик	-10.9555
▁копии	-10.9555
▁следств	-10.9555
▁историческои	-10.9556
▁долларов	-10.9558
ицу	-10.956
▁вела	-10.9561
▁института	-10.9566
брос	-10.957
▁сенат	-10.9571
▁ружя	-10.9572
▁черного	-10.9572
▁помогат	-10.9573
▁катя	-10.9576
▁племя	-10.9577
▁призван	-10.9577
▁ученые	-10.9578
▁оставте	-10.9578
▁умныи	-10.958
▁пространства	-10.9581
▁требуют	-10.9583
ун	-10.9585
▁желала	-10.9585
▁шапку	-10.9586
▁дно	-10.9587
▁кле	-10.9589
▁дур	-10.9589
▁жениха	-10.9591
тан	-10.9591
▁старец	-10.9592
▁орудии	-10.9593
▁внутр	-10.9593
▁лк	-10.9595
▁директора	-10.9597
▁страдал	-10.9598
▁плакал	-10.9603
пар	-10.9603
авших	-10.9604
▁севера	-10.9605
▁заговорила	-10.9605
▁наидется	-10.9606
▁пороге	-10.9607
▁тяжелое	-10.9609
▁высокие	-10.961
▁услышав	-10.961
▁заставили	-10.9611
▁назначение	-10.9612
▁дошли	-10.9614
пут	-10.9617
▁обращение	-10.9617
▁правилам	-10.9618
▁министром	-10.9619
▁ада	-10.9623
▁нехорошо	-10.9623
▁круп	-10.9623
▁ненависти	-10.9623
▁удивлением	-10.9623
▁знамен	-10.9625
▁шума	-10.9625
▁националнои	-10.9629
▁стараго	-10.963
▁признаки	-10.9631
▁укреплен	-10.9631
▁выдат	-10.9632
▁наблюдения	-10.9633
▁улыбнулас	-10.9633
▁летопис	-10.9635
▁сном	-10.9637
▁крестянин	-10.9638
▁бури	-10.9638
нд	-10.964
▁полтора	-10.9642
▁установленных	-10.9642
▁русски	-10.9644
▁изумлен	-10.9649
▁могилы	-10.9652
▁полки	-10.9653
▁однакож	-10.9655
▁разрешение	-10.9661
▁государыня	-10.9663
▁простым	-10.9664
▁футов	-10.9665
▁опасно	-10.9666
инского	-10.9666
▁томах	-10.9667
▁ул	-10.9668
▁морских	-10.9668
▁двору	-10.967
щеи	-10.9671
▁обоз	-10.9674
▁возмите	-10.9674
▁поставлен	-10.9674
▁книппер	-10.9685
▁подарок	-10.9685
▁грехи	-10.9685
▁морем	-10.9686
▁точ	-10.9689
▁городских	-10.9689
▁молитву	-10.9691
▁глав	-10.9692
▁бежали	-10.9693
▁родных	-10.9694
пит	-10.9698
▁защищат	-10.9698
▁временно	-10.9699
▁началис	-10.9699
▁предположен	-10.97
▁колес	-10.97
▁возвращался	-10.9705
оф	-10.9707
▁кодекс	-10.9707
▁скажут	-10.9707
▁племянник	-10.9708
ации	-10.9709
▁красотои	-10.971
▁веки	-10.971
▁рубля	-10.9711
▁мирно	-10.9712
▁огне	-10.9712
▁проклят	-10.9712
▁японцы	-10.9716
▁адютант	-10.9717
▁произвол	-10.9718
▁поможет	-10.972
▁решится	-10.9725
▁обят	-10.9727
▁фигуру	-10.9727
▁рыбу	-10.973
▁занятии	-10.9732
▁совершен	-10.9734
ош	-10.9734
▁личнои	-10.9734
▁следующеи	-10.9737
▁участок	-10.9738
▁вреда	-10.974
▁тих	-10.9741
▁батареи	-10.9742
▁волнение	-10.9742
▁некрасова	-10.9744
▁закрыт	-10.9744
▁глазам	-10.9744
▁категории	-10.9745
▁командира	-10.9747
▁впоследств	-10.9748
▁кресла	-10.9749
▁улицах	-10.9752
▁семеиство	-10.9752
▁повернул	-10.9752
▁попытка	-10.9753
▁отдых	-10.9757
▁пели	-10.9757
▁владения	-10.9758
▁трагедии	-10.9758
▁убедит	-10.9761
чер	-10.9764
▁вначале	-10.9764
▁плотно	-10.9765
▁очерки	-10.9767
▁канал	-10.9769
▁воображен	-10.977
▁каприз	-10.9772
▁замечан	-10.9773
▁мае	-10.9774
▁тихим	-10.9774
▁осужден	-10.9776
▁записок	-10.9777
▁последняго	-10.9777
▁сократ	-10.9779
▁дошел	-10.9779
▁дева	-10.9779
▁деиствиях	-10.9781
▁телеграф	-10.9786
▁политике	-10.9786
▁закрыл	-10.9787
▁утверждает	-10.9791
▁склад	-10.9795
▁отпуск	-10.9795
▁разным	-10.9795
▁любои	-10.9797
▁секретаря	-10.9799
▁стояло	-10.98
▁хорошим	-10.9804
▁любезно	-10.9806
▁весны	-10.9816
▁пушки	-10.9817
▁креста	-10.9818
▁заговор	-10.9821
▁обще	-10.9821
▁энерг	-10.9822
▁твоем	-10.9822
▁пили	-10.9822
▁цена	-10.9823
▁сутки	-10.9826
▁симон	-10.9826
▁устя	-10.9827
▁шагах	-10.9827
▁поступат	-10.9827
▁собиралис	-10.9829
стро	-10.9829
▁влюблен	-10.983
овка	-10.9831
▁святые	-10.9835
▁заключил	-10.9837
▁соц	-10.9838
▁груст	-10.9839
▁общественное	-10.9841
▁играла	-10.9841
ище	-10.9842
▁авторитет	-10.9846
▁прежние	-10.9848
▁кум	-10.985
▁выпил	-10.985
▁регистрации	-10.9852
▁необходимые	-10.9853
▁коров	-10.9854
▁поднялис	-10.9854
▁темныи	-10.9855
▁таланта	-10.9858
▁звание	-10.9858
▁предупредит	-10.9862
▁федералнои	-10.9863
▁налогов	-10.9864
ино	-10.9864
нием	-10.9865
▁зем	-10.9866
▁выгод	-10.9868
▁государстве	-10.9869
▁расстояние	-10.987
▁богослов	-10.9871
▁бюджет	-10.9873
▁череп	-10.988
▁важных	-10.988
щем	-10.9881
▁песа	-10.9881
▁чт	-10.9882
▁мести	-10.9884
▁вторую	-10.9888
▁общему	-10.9888
▁испуганно	-10.9889
▁решилас	-10.9889
▁вернувшис	-10.9893
▁намерение	-10.9894
▁переводчик	-10.9895
▁звуков	-10.9896
▁возвратит	-10.9902
▁адвокат	-10.9902
▁пустяки	-10.9903
▁границ	-10.9906
▁посту	-10.9906
▁музыку	-10.9911
▁долине	-10.9912
▁взрыв	-10.9912
▁указания	-10.9916
▁чудеса	-10.9919
▁известное	-10.992
▁совершил	-10.9926
▁еся	-10.9926
▁пик	-10.9927
▁кавказ	-10.9928
▁источников	-10.9929
▁исчезли	-10.993
▁столовои	-10.9934
▁правителству	-10.9936
▁любопытство	-10.9936
▁март	-10.9937
▁обеспечит	-10.9938
тин	-10.9938
ице	-10.994
▁заняты	-10.9943
▁справа	-10.9952
дин	-10.9957
▁умирает	-10.9959
▁познакомился	-10.996
▁советник	-10.9962
▁последователно	-10.9964
▁стадо	-10.9965
▁знакомые	-10.9967
▁никол	-10.9968
▁дружбы	-10.9968
▁молодую	-10.997
▁удары	-10.997
▁мягко	-10.997
▁воен	-10.997
▁рассказа	-10.9974
берг	-10.9975
▁раненых	-10.9976
▁приказание	-10.9979
▁нарушения	-10.9984
дан	-10.9986
▁зеркало	-10.9988
▁строк	-10.9989
▁социалистическ	-10.9989
выи	-10.9989
▁газету	-10.9989
▁ряду	-10.999
▁публицист	-10.9992
▁толпои	-10.9993
▁роскош	-10.9995
воз	-11
▁фразы	-11.0002
▁краев	-11.0002
▁болшинстве	-11.0004
▁сход	-11.0005
▁истинныи	-11.0013
▁возвращается	-11.0014
▁уходят	-11.0016
▁стихотворен	-11.0018
▁экономическим	-11.002
▁послушаи	-11.002
▁местом	-11.002
▁малого	-11.0021
▁отнят	-11.0025
▁произвел	-11.0029
мана	-11.003
▁владим	-11.003
▁мыслями	-11.003
▁уступит	-11.0035
▁див	-11.0039
▁кардинал	-11.0039
▁требование	-11.004
▁пакет	-11.0041
▁обекта	-11.0043
▁вернется	-11.0044
▁мот	-11.0046
вали	-11.0047
▁двенадцати	-11.0049
▁честныи	-11.005
▁отечество	-11.005
▁посмотри	-11.005
▁бот	-11.0053
▁печи	-11.0057
▁виноград	-11.0057
▁христианства	-11.006
▁кончилос	-11.0063
алас	-11.0065
▁отправит	-11.0068
▁скажеш	-11.007
▁сделан	-11.0072
▁торжество	-11.0072
▁возразила	-11.0072
▁предел	-11.0073
▁уверена	-11.0074
цел	-11.0076
▁деятелностю	-11.0078
▁маленкого	-11.0079
▁соответствует	-11.0081
▁умы	-11.0083
▁книжки	-11.0083
▁островов	-11.0083
▁густо	-11.0084
▁джентлмен	-11.0084
енную	-11.0085
▁лют	-11.0086
▁средних	-11.0087
▁путеи	-11.0088
▁турок	-11.0088
▁ловит	-11.0091
▁дмитриевич	-11.0092
▁настоящ	-11.0092
▁покинул	-11.0093
▁наблюдател	-11.0098
▁злодеи	-11.0103
▁сказка	-11.0107
▁задумался	-11.0107
▁издател	-11.0107
▁живопис	-11.0109
▁суворов	-11.0111
▁лю	-11.0112
дит	-11.0113
▁краиности	-11.0114
▁отказа	-11.0114
▁паст	-11.0116
▁осмотр	-11.0117
▁зашел	-11.0117
▁полезно	-11.0118
▁джек	-11.0122
▁игумен	-11.0123
▁густав	-11.0123
▁поеду	-11.0124
▁рассмотрение	-11.0124
▁благодарит	-11.0127
▁удалился	-11.013
▁значении	-11.0134
▁руководством	-11.0137
▁звереи	-11.0139
▁кончится	-11.0142
▁надзора	-11.0144
▁разрушен	-11.0145
▁другаго	-11.0147
▁величины	-11.0149
▁благословен	-11.0153
▁неза	-11.0153
▁стрелят	-11.0154
▁подготовки	-11.0154
▁татяна	-11.0154
▁презрително	-11.0155
▁охоты	-11.0156
▁писмах	-11.0157
▁михаиловна	-11.0158
▁спокоиств	-11.016
▁появлен	-11.016
▁показалис	-11.0161
▁увлечен	-11.0164
▁прошептала	-11.0168
▁ползуются	-11.0168
▁глуп	-11.0168
▁связан	-11.0175
▁буржуазии	-11.0179
▁нахожу	-11.0182
▁шагу	-11.0182
▁познания	-11.0186
▁пул	-11.0186
аф	-11.0187
▁уважение	-11.019
▁болшинства	-11.0191
▁художников	-11.0196
▁старую	-11.0197
▁собрал	-11.0198
▁раскрыт	-11.02
▁дрян	-11.02
▁редакция	-11.02
▁советская	-11.02
▁человеческое	-11.0201
сс	-11.0202
▁врача	-11.0204
▁шарл	-11.0206
▁армию	-11.0206
▁собр	-11.0206
▁поэты	-11.0207
нию	-11.0209
▁отлич	-11.0211
▁блеском	-11.0211
▁последствия	-11.0211
▁частями	-11.0212
▁понемногу	-11.0214
▁слушая	-11.0215
цион	-11.0215
▁цыган	-11.0218
▁франция	-11.0221
▁окажется	-11.0222
рус	-11.0225
▁тему	-11.0225
▁далнеишем	-11.0225
▁обедом	-11.0226
▁данное	-11.0226
▁изследован	-11.0226
▁борт	-11.0226
▁англичане	-11.0229
▁юл	-11.0232
▁распоряжении	-11.0232
▁многочисленных	-11.0233
▁стоимост	-11.0235
▁носят	-11.0236
▁деян	-11.0239
▁защите	-11.024
▁вост	-11.0242
▁вызвал	-11.0243
▁познакомится	-11.0243
неш	-11.0243
▁скажете	-11.0245
▁ордена	-11.0246
▁смотрю	-11.0247
стра	-11.0249
эт	-11.025
рав	-11.025
▁ходе	-11.0251
▁спешит	-11.0251
▁ганс	-11.0252
▁документа	-11.0253
строи	-11.0253
▁рок	-11.0254
▁гроба	-11.0254
▁маленкое	-11.0254
▁страшнои	-11.0258
▁писатели	-11.026
▁уезд	-11.0261
▁прокурор	-11.0262
▁столицы	-11.0267
▁известным	-11.0271
лят	-11.0271
▁лан	-11.0274
▁революц	-11.0274
ирует	-11.0275
▁наслажден	-11.0282
▁кан	-11.0283
▁отличаются	-11.0285
▁глубину	-11.0287
▁изволте	-11.0288
▁программы	-11.0289
▁яковлевич	-11.029
▁особенным	-11.0291
ющимися	-11.0291
▁разговариват	-11.0292
▁продат	-11.0292
▁добродушно	-11.0293
▁казак	-11.0295
▁услышат	-11.0297
▁родител	-11.03
▁книгах	-11.0303
ающих	-11.0304
▁обладает	-11.0306
▁девушек	-11.0306
▁лермонтов	-11.0307
▁провинц	-11.0308
▁сознавал	-11.0311
▁долины	-11.0312
дом	-11.0314
▁европеискои	-11.0314
▁процессе	-11.0314
авшии	-11.032
▁единого	-11.032
▁полна	-11.0321
▁обмен	-11.0323
▁страстеи	-11.0326
▁холоднои	-11.0328
▁полше	-11.033
▁спасител	-11.0331
▁слабыи	-11.0333
▁приятел	-11.0333
▁составлен	-11.0334
▁почувствовала	-11.0334
▁обычаю	-11.0334
▁проходя	-11.0334
▁башни	-11.0334
▁убииство	-11.0343
▁черным	-11.0345
▁жилище	-11.0346
▁братцы	-11.0346
▁боялас	-11.0346
▁принимали	-11.0347
▁яснее	-11.0349
▁проходил	-11.0349
▁известные	-11.0355
▁устроил	-11.0356
▁пром	-11.0357
▁цареи	-11.0359
▁бак	-11.0359
▁знание	-11.0364
▁глухои	-11.0366
▁пуд	-11.037
▁дыма	-11.0371
▁принялис	-11.0373
▁маркиза	-11.0374
▁кивнул	-11.0377
▁перемены	-11.0379
▁небом	-11.0379
▁установлено	-11.038
▁обращатся	-11.0381
▁артур	-11.0382
▁высказал	-11.0382
▁собственное	-11.0384
▁лагеря	-11.0386
▁исх	-11.0387
▁самовар	-11.0387
▁обязателства	-11.0389
▁джо	-11.0389
▁писали	-11.0391
▁глубоким	-11.0395
лил	-11.0396
ившиися	-11.0397
▁названия	-11.0397
▁славныи	-11.0399
▁надолго	-11.04
▁палец	-11.04
▁воспитание	-11.0401
▁сот	-11.0403
▁непрерывно	-11.0403
жат	-11.0405
▁юля	-11.041
▁стрел	-11.041
▁тяжест	-11.0413
▁чехову	-11.0413
▁обвинен	-11.0413
▁австрии	-11.0413
▁окружен	-11.0415
▁злобно	-11.0416
▁соответствующих	-11.0419
▁церквеи	-11.0419
вр	-11.042
▁огорчен	-11.0421
▁сурово	-11.0421
▁хранит	-11.0421
▁слушаю	-11.0424
▁мут	-11.0426
▁шп	-11.0426
▁мешок	-11.0428
▁иля	-11.0429
▁смол	-11.0432
▁итти	-11.0433
▁лучшего	-11.0437
▁мотив	-11.0438
▁сум	-11.0439
▁греки	-11.044
▁понимая	-11.0441
▁политические	-11.0441
▁растения	-11.0442
▁ожидали	-11.0443
▁явилос	-11.0443
▁билл	-11.0443
▁неправда	-11.0444
▁поднятся	-11.0446
▁матрос	-11.0446
инка	-11.0446
▁дождя	-11.0448
▁опустив	-11.0449
▁заметки	-11.0449
▁сал	-11.0453
▁ногои	-11.0453
▁особенное	-11.0454
▁государственные	-11.0455
▁сделалис	-11.0459
▁общины	-11.0462
▁известна	-11.0463
▁местечко	-11.0463
ата	-11.0464
▁снизу	-11.0466
▁одиннадцат	-11.0472
▁социалного	-11.0476
▁дура	-11.0476
▁наедине	-11.048
▁реже	-11.048
▁люд	-11.0482
▁несчастных	-11.0482
▁дрож	-11.0488
▁становился	-11.0489
▁взялся	-11.049
▁макар	-11.049
▁зват	-11.049
▁просили	-11.049
▁лесом	-11.0491
▁точка	-11.0492
зор	-11.0493
▁сигнал	-11.0495
▁дву	-11.0495
▁принесла	-11.0497
учен	-11.0497
▁цезар	-11.0501
▁счел	-11.0502
▁этак	-11.0503
▁листа	-11.0504
▁комед	-11.0504
▁земелного	-11.0505
▁прекрасные	-11.0505
▁десятки	-11.0508
▁дважды	-11.0509
▁берлине	-11.051
▁холода	-11.0513
▁креп	-11.0514
бран	-11.0514
▁залива	-11.0515
▁тетка	-11.0516
▁договору	-11.0517
▁молитва	-11.0519
▁появление	-11.052
▁солдата	-11.0521
▁устал	-11.0525
▁святаго	-11.0525
▁спрашиват	-11.0529
▁ужасное	-11.053
▁следил	-11.053
▁убедился	-11.0531
▁шт	-11.0532
▁находящихся	-11.0532
▁навеки	-11.0533
▁выразил	-11.0534
▁соглашения	-11.0534
▁поза	-11.0534
▁фер	-11.0534
▁молодому	-11.0535
▁диких	-11.0536
▁перевел	-11.054
▁поста	-11.0541
▁книжку	-11.0542
▁лвов	-11.0542
▁министерство	-11.0543
▁достигли	-11.0543
▁неприятел	-11.0543
▁жаловане	-11.0547
▁личного	-11.0547
▁папы	-11.0547
▁ударом	-11.055
▁деревен	-11.055
▁прихода	-11.0551
▁короткое	-11.0551
▁просбои	-11.0553
▁полза	-11.0553
▁гарнизон	-11.0555
▁позволил	-11.0556
ара	-11.0557
▁коридор	-11.0557
▁предков	-11.0559
▁существоват	-11.0562
▁стил	-11.0563
▁избе	-11.0563
▁доходов	-11.0565
▁отвечали	-11.0566
▁таинои	-11.0566
▁жутко	-11.0566
▁величеству	-11.0567
▁силные	-11.0569
сел	-11.0573
▁запрещен	-11.0575
▁просбе	-11.0576
пс	-11.058
▁ученики	-11.0581
гла	-11.0581
▁поставили	-11.0581
▁размеров	-11.0582
▁напечатано	-11.0583
ыват	-11.0584
▁горяч	-11.0586
пис	-11.0586
шее	-11.0586
▁порядочно	-11.0586
елеи	-11.0587
▁баирон	-11.0588
▁бюро	-11.0593
▁желании	-11.0594
▁куски	-11.0596
▁таможенного	-11.0598
▁некоторыми	-11.06
▁иерусалим	-11.0602
щие	-11.0604
▁тихии	-11.0605
▁забыв	-11.0606
▁центре	-11.0607
иг	-11.0609
▁храме	-11.061
▁читали	-11.061
▁живые	-11.0612
▁легким	-11.0615
▁доказывает	-11.0616
▁врагом	-11.0617
▁удара	-11.0617
▁слушаите	-11.0618
▁истине	-11.0619
▁молодост	-11.062
▁спокоиным	-11.0626
▁коля	-11.0626
▁термин	-11.063
▁царевич	-11.0635
▁кони	-11.0637
▁обстановке	-11.0637
▁товарищами	-11.0638
▁административны	-11.0639
▁господину	-11.0639
▁перешли	-11.0642
▁собственные	-11.0642
▁мещан	-11.0642
▁зеленыи	-11.0642
▁началником	-11.0642
▁течет	-11.0644
▁секунду	-11.0644
▁убор	-11.0646
▁натуры	-11.0647
▁богатые	-11.0647
▁вином	-11.0651
▁спи	-11.0654
▁приняв	-11.0656
▁уровня	-11.0656
▁музеи	-11.0656
▁прилич	-11.0657
▁оставила	-11.0659
▁австр	-11.0662
▁получают	-11.0663
▁полден	-11.0664
▁нога	-11.0666
▁нервы	-11.0667
▁началства	-11.0669
▁римскои	-11.0673
▁спорит	-11.0674
▁комиссар	-11.0676
▁черном	-11.0678
▁песок	-11.068
дор	-11.0682
▁простых	-11.0683
▁литературные	-11.0684
▁зря	-11.0684
▁усы	-11.0685
▁уезде	-11.0686
▁удал	-11.0687
▁округ	-11.0687
▁совершается	-11.0687
▁находилос	-11.069
▁помещение	-11.069
▁оратор	-11.069
▁сия	-11.0693
▁мрачно	-11.0695
▁урок	-11.0695
▁встречал	-11.0697
▁драматург	-11.0697
▁хватает	-11.0698
▁предстоит	-11.0699
сен	-11.0699
ическую	-11.07
▁игру	-11.07
▁тяжелои	-11.0702
▁неболшая	-11.0703
▁артист	-11.0707
▁траве	-11.0712
▁несчастнои	-11.0714
▁вил	-11.0715
▁кармане	-11.0716
▁военную	-11.0717
▁карамзин	-11.0717
▁галл	-11.0718
▁единственная	-11.0719
▁библиотеки	-11.0719
▁обяснение	-11.072
ция	-11.0723
▁применение	-11.0725
▁пламен	-11.0725
▁верхнеи	-11.0725
▁скрылся	-11.0726
▁здорово	-11.0728
▁заставило	-11.0728
раст	-11.073
▁вдвое	-11.073
▁могил	-11.0731
▁произошла	-11.0733
▁смеялся	-11.0734
▁современник	-11.0735
▁рабов	-11.0736
▁избы	-11.0736
▁наступила	-11.0736
▁англииского	-11.0736
▁тяжелым	-11.0737
▁поидемте	-11.0737
▁заснул	-11.074
▁константинопол	-11.0742
▁милосерд	-11.0743
шин	-11.0744
▁потребовал	-11.0744
▁парк	-11.0745
▁поездки	-11.0746
▁дворов	-11.0749
▁символ	-11.0749
▁побед	-11.0749
▁брос	-11.0751
▁рады	-11.0751
шен	-11.0752
ющую	-11.0753
▁допускается	-11.0753
▁окончан	-11.0754
бл	-11.0755
▁пророка	-11.0756
▁призыв	-11.0757
▁тол	-11.0757
▁святыи	-11.0757
▁охоту	-11.076
▁темных	-11.0762
▁обеими	-11.0764
▁почтен	-11.0766
▁построики	-11.0767
▁ео	-11.0768
▁здании	-11.0771
▁участника	-11.0772
тив	-11.0772
▁гран	-11.0773
▁француз	-11.0774
▁хлопот	-11.0775
▁возвращения	-11.0777
▁участник	-11.0778
▁баталон	-11.0779
▁белинскии	-11.0781
▁училища	-11.0783
▁немецких	-11.0784
▁фа	-11.0786
▁страдании	-11.0786
▁щит	-11.0787
▁светлыи	-11.0792
▁марте	-11.0794
▁членами	-11.0796
▁счастлива	-11.0796
▁смеха	-11.0797
▁дрожа	-11.0797
▁молчит	-11.0799
▁стремления	-11.0803
▁револвер	-11.0804
▁собирается	-11.0813
ющими	-11.0814
▁намек	-11.0818
▁отечественнои	-11.0821
▁фонар	-11.0821
▁плоти	-11.0822
▁полши	-11.0825
▁геине	-11.0826
▁отчетливо	-11.0829
▁возрасте	-11.0829
▁новыя	-11.0832
▁отзыв	-11.0832
▁жаром	-11.0833
▁связаны	-11.0835
▁случается	-11.0836
▁иванова	-11.0837
▁знакомства	-11.0839
▁драма	-11.0842
▁выгоды	-11.0843
▁илич	-11.0848
▁заседания	-11.0848
▁дума	-11.0848
▁идею	-11.0852
▁сообщает	-11.0853
▁свидетелство	-11.086
▁творчество	-11.0862
▁появляется	-11.0865
▁красивая	-11.0865
▁перенес	-11.0866
▁признал	-11.0866
▁пятна	-11.0869
▁изгнан	-11.087
▁многочисленные	-11.087
▁длиннои	-11.0871
▁горкого	-11.0871
▁сор	-11.0872
▁вооруженных	-11.0873
▁публике	-11.0875
▁покров	-11.0877
▁потеря	-11.0878
▁источником	-11.088
▁оперы	-11.0881
▁принимают	-11.0884
▁собственными	-11.0885
▁митрополит	-11.0885
▁терят	-11.0887
▁философия	-11.0888
▁волна	-11.0889
▁увидав	-11.089
▁никита	-11.0891
▁наступление	-11.0892
▁воспоминание	-11.0894
▁проекта	-11.0894
▁долгом	-11.0895
▁ххи	-11.0898
▁достал	-11.0905
▁выполнения	-11.0907
▁отчаяние	-11.0908
▁высшее	-11.091
ряд	-11.0912
▁высочество	-11.0914
▁григор	-11.0915
ген	-11.0915
▁гаван	-11.0916
▁толстым	-11.0918
▁окружающеи	-11.092
▁слаб	-11.0922
▁ют	-11.0924
ушки	-11.0926
▁вызывает	-11.0928
▁листов	-11.0929
▁проходили	-11.0932
▁особого	-11.0934
▁владен	-11.0935
▁языки	-11.0936
▁народные	-11.0936
▁тар	-11.0939
▁разбоиник	-11.0941
▁взглядов	-11.0941
▁сухои	-11.0941
▁выражается	-11.0942
▁написана	-11.0945
▁англичанин	-11.0946
▁указанным	-11.0947
▁замечания	-11.0948
▁грехов	-11.0949
▁учет	-11.0952
▁порою	-11.0953
▁перечен	-11.0953
▁закончил	-11.0955
▁огромнои	-11.0956
▁сопровождении	-11.0959
▁избу	-11.096
▁прекратит	-11.0961
▁придат	-11.0963
▁исповед	-11.0963
▁надлежит	-11.0964
▁парад	-11.0966
несении	-11.0966
▁чистыи	-11.0966
▁христианство	-11.0968
▁погубит	-11.097
▁русско	-11.0971
олог	-11.0971
▁старшего	-11.0972
▁захотелос	-11.0972
▁супруги	-11.0973
▁общую	-11.0976
▁знаи	-11.0978
▁разрешит	-11.0979
▁просвещен	-11.098
гул	-11.0981
▁белое	-11.0982
очных	-11.0984
жал	-11.0988
ическое	-11.0995
▁увижу	-11.0995
▁теор	-11.0996
▁залы	-11.0996
▁освобождение	-11.0997
▁княгини	-11.0998
▁растен	-11.0999
▁поддерживат	-11.1
▁секунд	-11.1001
▁представлят	-11.1003
▁националного	-11.1003
овскои	-11.1003
▁орден	-11.1005
▁ходила	-11.1005
▁говорим	-11.1006
▁примечание	-11.1011
▁питер	-11.1012
▁техники	-11.1013
▁понимают	-11.1014
▁консул	-11.1014
▁поколения	-11.1015
▁обязателно	-11.1015
▁верховныи	-11.1016
▁дадут	-11.1018
▁личных	-11.1019
▁испании	-11.1021
▁маз	-11.1022
▁буквы	-11.1022
▁хана	-11.1023
▁особ	-11.1024
▁интересах	-11.1027
▁специалных	-11.1028
▁пророк	-11.1029
▁известност	-11.1029
▁шепнул	-11.103
▁садов	-11.103
▁развитию	-11.1031
▁обсуждение	-11.1033
▁масло	-11.1033
▁ап	-11.1035
▁несправедливо	-11.1035
▁напечатал	-11.1037
▁пролетариата	-11.1038
▁вселеннои	-11.1039
▁евген	-11.1039
▁удобно	-11.1042
▁получается	-11.1043
▁курса	-11.1045
▁гении	-11.1046
▁давала	-11.1046
▁социалистическо	-11.1046
▁моисеи	-11.1047
▁сара	-11.1048
▁мера	-11.1048
▁употребит	-11.105
▁матросы	-11.105
▁сосуд	-11.1051
▁четверти	-11.1054
дет	-11.1055
▁поручик	-11.1055
▁милои	-11.1056
▁начнет	-11.1058
▁колена	-11.1058
▁редакцию	-11.1061
▁великом	-11.1063
▁реализации	-11.1063
▁устава	-11.1065
▁прибыт	-11.1066
чку	-11.1067
▁жертва	-11.1069
пан	-11.1069
евскии	-11.107
кр	-11.1073
▁телу	-11.1076
▁политическии	-11.1077
▁вечнои	-11.1077
пел	-11.1079
ини	-11.1079
▁кризис	-11.108
▁оглянулся	-11.108
▁генри	-11.1081
▁сестер	-11.1082
▁значило	-11.1084
▁поворот	-11.1084
▁рассказов	-11.1084
▁простого	-11.1085
▁утверждение	-11.1086
▁столб	-11.1086
▁счастливы	-11.1087
▁выходили	-11.1087
▁указанного	-11.1087
▁визит	-11.1087
чки	-11.1088
▁важныи	-11.109
▁лом	-11.109
▁погоди	-11.1093
▁живая	-11.1094
▁сет	-11.1095
▁занятся	-11.1096
▁открытом	-11.1096
вет	-11.1097
▁леонид	-11.1097
▁родом	-11.1098
уч	-11.1102
▁спокоиствие	-11.1103
▁испытывал	-11.1104
▁россииская	-11.1104
▁внешних	-11.1104
▁зима	-11.1105
▁сыр	-11.1105
▁сажен	-11.1106
▁делаю	-11.1106
▁гарантии	-11.1106
▁будущеи	-11.1107
лег	-11.1109
▁убииства	-11.1111
▁поприще	-11.1114
▁кад	-11.1115
▁государственном	-11.1117
▁похвал	-11.1119
▁имеете	-11.1119
авшего	-11.112
ота	-11.112
▁римлян	-11.1122
▁духовенства	-11.1123
пт	-11.1125
▁домах	-11.1126
▁боитес	-11.1127
▁танков	-11.1129
▁привыкли	-11.113
▁творит	-11.1131
▁палубе	-11.1133
▁копеек	-11.1134
▁поехали	-11.1134
▁траву	-11.1136
▁тою	-11.1137
▁пород	-11.1137
▁волков	-11.1138
▁недостатки	-11.1139
▁древние	-11.1144
▁глядет	-11.1144
▁порыв	-11.1144
▁беды	-11.1145
▁приложен	-11.1146
▁эпизод	-11.1147
▁уважения	-11.1148
▁шутку	-11.1148
▁быстрее	-11.115
▁копия	-11.1151
▁аббат	-11.1152
▁берегам	-11.1153
▁элемент	-11.1154
▁наблюдал	-11.1157
▁встретится	-11.1157
▁гостиную	-11.1159
▁шумом	-11.1161
▁державин	-11.1161
▁утешен	-11.1162
▁началнику	-11.1165
▁давая	-11.1171
пы	-11.1175
▁материала	-11.1177
▁слушала	-11.1177
▁потребности	-11.1178
▁социал	-11.1179
▁иер	-11.118
▁железо	-11.1182
▁порог	-11.1182
▁малои	-11.1183
▁похорон	-11.1189
▁лар	-11.1191
▁обоим	-11.1191
▁общаго	-11.1191
луч	-11.1192
ест	-11.1194
▁свадбы	-11.1194
▁ползовалис	-11.1195
▁почтенныи	-11.1197
▁одежде	-11.1201
▁заглавием	-11.1201
▁председателем	-11.1203
▁вожд	-11.1204
▁богатыр	-11.1206
▁наступил	-11.1206
эр	-11.1207
▁заставила	-11.1208
▁общин	-11.1208
▁пару	-11.1212
▁падение	-11.1213
▁скончался	-11.1215
▁экспедиции	-11.1218
▁полиц	-11.1218
▁делалос	-11.1218
▁стыда	-11.122
▁императору	-11.122
▁дул	-11.1221
▁головами	-11.1221
▁петербургскои	-11.1223
▁советовал	-11.1227
оне	-11.1227
▁являлис	-11.1228
▁играют	-11.1231
говор	-11.1234
▁болшее	-11.1235
▁представлении	-11.1236
▁машина	-11.1237
▁распространен	-11.1239
емого	-11.1239
▁лучами	-11.1241
▁задач	-11.1241
▁фет	-11.1242
уш	-11.1243
▁странная	-11.1244
нис	-11.1247
▁выносит	-11.1248
▁иси	-11.125
▁экипажа	-11.1253
▁упор	-11.1253
▁бодр	-11.1254
ливая	-11.1254
▁шагами	-11.1256
▁экономического	-11.1256
▁состояла	-11.1258
▁пошлин	-11.126
▁кверху	-11.126
сты	-11.126
▁ожидает	-11.1261
▁корм	-11.1261
▁гармон	-11.1261
▁научно	-11.1262
▁открыла	-11.1263
бал	-11.127
▁военная	-11.1274
▁лавки	-11.1275
▁особых	-11.1279
▁рые	-11.1279
▁слои	-11.1284
▁собственному	-11.1284
дол	-11.1285
▁рубеж	-11.1285
▁кресле	-11.1286
▁имение	-11.1287
▁духовного	-11.1287
▁вещества	-11.1287
шек	-11.1289
эл	-11.1291
▁флаг	-11.1291
▁относился	-11.1292
▁вспоминал	-11.1295
▁вернут	-11.1296
▁беседу	-11.1297
▁сомневатся	-11.1297
▁положением	-11.1299
▁моста	-11.1301
▁единои	-11.1303
▁лил	-11.1303
▁негодован	-11.1304
▁устанавливается	-11.1304
▁началом	-11.1307
▁холм	-11.1308
▁андреев	-11.1309
▁жалост	-11.1309
▁окончания	-11.1311
▁происхождение	-11.1311
▁мах	-11.1312
ены	-11.1313
▁бывш	-11.1314
▁тр	-11.1316
▁оста	-11.1316
▁иоганн	-11.1317
▁согласилас	-11.1318
▁отчаяния	-11.1318
▁видат	-11.1318
▁прогресс	-11.1319
▁темы	-11.1321
▁тишине	-11.1323
бур	-11.1323
▁воспитания	-11.1323
▁чуд	-11.1323
▁забав	-11.1324
ящ	-11.1325
▁веселым	-11.1325
▁народное	-11.1326
▁разговоров	-11.1326
▁колонны	-11.1329
▁семена	-11.1329
▁границе	-11.133
▁мужика	-11.1331
бор	-11.1332
▁домик	-11.1333
шую	-11.1334
▁усмехнулся	-11.1343
▁осени	-11.1344
▁пишут	-11.1344
▁необычаино	-11.1347
▁образе	-11.1349
▁отцы	-11.1353
рожден	-11.1354
▁косы	-11.1356
бира	-11.1357
▁описания	-11.1357
▁гордости	-11.1357
▁молчи	-11.1359
анов	-11.136
вшую	-11.1362
▁кинжал	-11.1365
▁култ	-11.1367
▁железных	-11.137
▁сокол	-11.137
▁выкуп	-11.1371
▁гамлет	-11.1372
▁отличие	-11.1372
▁трубку	-11.1373
▁публику	-11.1374
▁собственныи	-11.1374
▁переписка	-11.1375
▁лучш	-11.1379
▁устроен	-11.1379
▁сша	-11.1379
▁громче	-11.138
▁здравствуите	-11.138
▁покачал	-11.1382
▁свидетелствует	-11.1383
▁помощник	-11.1384
▁форт	-11.1384
▁схватит	-11.1385
▁самостоятелно	-11.1386
▁снегу	-11.1386
▁хорошеи	-11.139
▁разрыв	-11.1392
▁руководство	-11.1394
▁тоски	-11.1397
▁удовлетворит	-11.1397
▁литературу	-11.1397
▁муз	-11.1403
▁благодарности	-11.1404
▁эксплуатации	-11.1406
▁токмо	-11.141
▁авраам	-11.141
▁кончит	-11.141
▁немецкои	-11.1411
▁мудрости	-11.1412
иста	-11.1415
▁одежда	-11.1417
▁кормит	-11.1418
▁подписи	-11.142
▁дополнително	-11.142
▁единство	-11.142
▁сердится	-11.142
▁встает	-11.1421
▁обем	-11.1421
▁августе	-11.1423
▁стон	-11.1425
▁старатся	-11.1427
▁топ	-11.1428
ствоват	-11.143
▁лицах	-11.1431
▁скрип	-11.1433
▁леп	-11.1433
▁честно	-11.1435
▁бедные	-11.1435
▁значителное	-11.1437
▁новости	-11.144
▁французски	-11.1442
▁пас	-11.1442
▁шутки	-11.1443
▁высшим	-11.1443
▁марка	-11.1445
▁усерд	-11.1445
▁расположение	-11.1446
▁управлят	-11.1447
▁пролив	-11.1449
нес	-11.1451
▁старш	-11.1452
▁дошло	-11.1454
нку	-11.1454
▁кассационно	-11.1455
▁раздражен	-11.1456
▁умру	-11.146
▁мастера	-11.1461
▁государственная	-11.1461
▁исползоват	-11.1462
▁приют	-11.1463
▁напечатан	-11.1464
▁избежат	-11.1464
▁приложение	-11.1466
▁дохода	-11.1466
▁невесты	-11.1466
▁дворянства	-11.1468
▁немец	-11.147
▁пределов	-11.1473
▁речеи	-11.1473
▁жид	-11.1473
▁поверте	-11.1475
▁фронт	-11.1479
▁кожа	-11.1479
емое	-11.1482
▁добычу	-11.1483
▁порядку	-11.1483
▁отыскат	-11.1483
▁глупост	-11.1483
▁несчастная	-11.1483
▁обнял	-11.1484
▁прилично	-11.1485
▁жуковского	-11.1485
руж	-11.1486
зи	-11.1486
▁падали	-11.1486
ация	-11.1488
▁вавилон	-11.1489
▁самгин	-11.149
▁воевода	-11.149
▁несправедливост	-11.1492
▁метров	-11.1493
▁употреблен	-11.1493
▁демон	-11.1494
▁прочитал	-11.1495
вещ	-11.1495
▁испугался	-11.1499
▁служащих	-11.15
▁показатся	-11.15
▁простые	-11.1503
▁брон	-11.1503
▁находили	-11.1506
▁должностных	-11.1507
лад	-11.1507
▁доселе	-11.1507
▁поляков	-11.1509
▁пусто	-11.1509
▁хлебом	-11.1509
▁корабли	-11.1511
▁восторге	-11.1513
▁приехат	-11.1514
▁важным	-11.1518
▁высоким	-11.1519
▁окнами	-11.1519
▁тексту	-11.152
▁числом	-11.152
▁необходимых	-11.1522
▁написаны	-11.1523
▁романе	-11.1524
▁пустыни	-11.1524
▁вовремя	-11.1524
▁причинам	-11.1525
▁смеялис	-11.1525
▁точности	-11.1526
▁грац	-11.1527
▁нравы	-11.1528
▁московском	-11.1528
▁тиран	-11.1529
▁горничная	-11.1531
▁немногих	-11.1532
▁коего	-11.1532
▁коллегия	-11.1533
▁благородныи	-11.1534
▁переведен	-11.1536
▁ревност	-11.1536
▁меру	-11.1537
▁передачи	-11.154
▁изучения	-11.154
▁караван	-11.1541
▁полагал	-11.1547
▁бояре	-11.1547
▁суп	-11.1548
▁покоиного	-11.1549
▁стиха	-11.1551
▁баи	-11.1553
▁праву	-11.1553
▁уныло	-11.1553
▁победит	-11.1554
▁усиленно	-11.1555
▁севере	-11.1557
▁борода	-11.1558
▁стада	-11.1559
нт	-11.1559
фе	-11.1559
▁удовлетворен	-11.1561
▁возбужден	-11.1561
▁ххх	-11.1564
▁различие	-11.1564
пре	-11.1569
▁освящен	-11.157
▁уходил	-11.1572
▁хороши	-11.1572
▁породы	-11.1578
▁прожит	-11.158
▁якобы	-11.158
▁добром	-11.1583
▁вступления	-11.1585
▁мала	-11.1586
▁благодетел	-11.1587
шис	-11.1588
▁железа	-11.1588
▁топор	-11.1591
▁маленким	-11.1594
▁эдуард	-11.1597
▁угля	-11.1598
▁костер	-11.1601
▁скуп	-11.1601
▁бороду	-11.1602
▁изображение	-11.1603
▁малчики	-11.1603
▁мечтал	-11.1604
▁предлагал	-11.1606
▁поручил	-11.1608
▁центра	-11.1608
▁адолф	-11.1609
▁уверенност	-11.1609
▁фоне	-11.1611
сом	-11.1613
▁беседа	-11.1614
зем	-11.1614
▁лорда	-11.1614
▁эффект	-11.1616
▁безобраз	-11.1617
▁поднимается	-11.1619
▁достигает	-11.162
▁женат	-11.162
▁обидно	-11.1621
▁петру	-11.1621
▁эконом	-11.1621
▁расп	-11.1622
▁землею	-11.1623
щиков	-11.1624
▁материи	-11.1624
▁обыкновен	-11.1625
▁желанию	-11.1627
▁начался	-11.1628
шему	-11.163
зен	-11.1631
▁подняли	-11.1631
▁выступает	-11.1632
▁посетил	-11.1634
▁познан	-11.1635
▁наблюден	-11.1638
▁таможенно	-11.1638
▁мудрост	-11.1639
пил	-11.1639
▁утверждал	-11.164
▁отчета	-11.164
▁ошибся	-11.1641
▁упоминается	-11.1642
▁отличался	-11.1644
▁лап	-11.1644
▁климат	-11.1644
▁морского	-11.1645
▁бедным	-11.1645
▁истинное	-11.1645
▁любопытно	-11.1646
▁старом	-11.1646
▁мужество	-11.1647
▁амур	-11.1654
▁оставляет	-11.1654
▁спасение	-11.1657
▁жир	-11.166
▁важност	-11.166
▁чя	-11.1662
▁тоску	-11.1663
▁матросов	-11.1663
▁шан	-11.1664
▁доходы	-11.1664
▁нит	-11.1664
▁надзор	-11.1667
▁атлас	-11.1668
▁вариант	-11.1669
▁электро	-11.1669
бург	-11.167
▁полевои	-11.1674
▁настоичиво	-11.1674
▁семенович	-11.1674
▁участи	-11.1675
▁писания	-11.1677
▁приняты	-11.1678
▁сделки	-11.1678
дж	-11.1682
▁высказат	-11.1683
▁характером	-11.1683
▁пристани	-11.1683
овали	-11.1685
▁погребен	-11.1686
▁автомобил	-11.169
▁примерно	-11.169
авш	-11.169
▁ели	-11.169
▁блока	-11.1691
▁годится	-11.1693
▁суток	-11.1693
▁трои	-11.1694
▁недостатка	-11.1694
▁подумаите	-11.1695
▁находят	-11.1696
▁богиня	-11.1699
▁лучеи	-11.1699
▁торговых	-11.1702
▁вздумал	-11.1705
▁сообщение	-11.1708
▁перехода	-11.1708
▁старики	-11.1708
▁лжи	-11.171
▁шу	-11.1711
▁литературныи	-11.1712
▁быстротои	-11.1713
▁дипломат	-11.1713
▁терпен	-11.1715
▁овладет	-11.1717
▁поэма	-11.1717
▁настоящему	-11.1718
▁людмила	-11.1721
▁сопротивление	-11.1721
▁выходят	-11.1722
▁встат	-11.1725
▁боялис	-11.1725
▁усовершенствова	-11.1725
▁отныне	-11.1726
лд	-11.1727
▁восстания	-11.1728
▁улица	-11.1731
▁предпринят	-11.1734
▁сентябр	-11.1734
▁годом	-11.1737
▁полюбил	-11.1737
▁чудес	-11.1738
рет	-11.1738
▁характере	-11.1738
▁послали	-11.1739
▁выпустил	-11.1741
▁оставляя	-11.1741
▁набор	-11.1742
▁купцы	-11.1743
▁спали	-11.1743
▁переворот	-11.1744
▁обител	-11.1744
▁столице	-11.1744
▁покор	-11.1749
▁встретила	-11.1749
цкии	-11.175
▁лениво	-11.175
▁счастливыи	-11.1751
▁нападения	-11.1753
▁предлогом	-11.1754
▁предо	-11.1754
▁повторила	-11.1755
▁доля	-11.1756
▁знакомы	-11.1756
▁таможенных	-11.176
▁учета	-11.176
▁оправдан	-11.1762
▁реформы	-11.1768
▁обыкновению	-11.1768
▁прикрыт	-11.177
ическ	-11.177
▁знании	-11.177
▁энергично	-11.1771
▁полны	-11.1773
▁исправлен	-11.1774
▁обители	-11.1775
▁евгении	-11.1775
▁нек	-11.1782
▁благ	-11.1784
▁свидетелеи	-11.1785
иса	-11.1787
▁нана	-11.1787
ковскии	-11.1788
очке	-11.1796
▁колокола	-11.1797
▁заводов	-11.1798
▁красных	-11.1799
▁назначил	-11.1802
▁отрицателно	-11.1803
▁родственников	-11.1805
▁жажда	-11.1807
▁трус	-11.1807
нова	-11.1808
▁ов	-11.1812
▁выидя	-11.1812
кер	-11.1813
▁явля	-11.1814
▁основу	-11.1817
▁перенести	-11.1817
лл	-11.1817
▁купца	-11.1818
▁показывал	-11.1818
зу	-11.182
▁признак	-11.182
▁берут	-11.1821
▁паспорт	-11.1827
▁показывая	-11.1829
▁спорам	-11.1829
▁поступки	-11.1829
▁мк	-11.183
▁встретилис	-11.183
▁судебном	-11.183
▁повар	-11.1831
▁воров	-11.1833
▁поведен	-11.1836
▁важные	-11.1837
▁посылает	-11.1837
▁библии	-11.1837
▁иудеи	-11.1838
▁отсутствии	-11.184
▁метод	-11.1841
▁скверно	-11.1842
▁счастливым	-11.1842
▁черное	-11.1844
▁вооружен	-11.1846
▁воображение	-11.1847
▁громким	-11.1849
▁саж	-11.1849
▁имп	-11.1851
суд	-11.1852
▁потерят	-11.1854
▁пе	-11.1857
▁ползования	-11.1857
▁меди	-11.1858
▁подобныи	-11.1858
▁парламента	-11.1859
▁приходят	-11.1861
▁преступлении	-11.1863
▁держится	-11.1863
▁лодке	-11.1864
▁приложил	-11.1865
▁василев	-11.1865
▁заслуживает	-11.1866
▁человеческии	-11.1866
▁всею	-11.1867
пла	-11.1867
▁профессором	-11.1867
▁франк	-11.1868
▁республик	-11.187
▁дыхан	-11.1873
▁судебная	-11.1875
▁оружием	-11.1876
▁колонии	-11.1876
▁отметит	-11.1877
▁называются	-11.1877
▁отрывок	-11.1877
▁правую	-11.1878
▁пение	-11.188
▁божества	-11.188
▁паруса	-11.1882
▁знамя	-11.1882
▁фар	-11.1883
▁существовало	-11.1884
▁положила	-11.1884
▁европу	-11.1884
▁жилища	-11.1886
▁резултатов	-11.1886
▁подоити	-11.1888
▁букет	-11.1889
щен	-11.1889
▁муниципалных	-11.189
▁верным	-11.189
прав	-11.1891
▁исторического	-11.1891
ител	-11.1892
▁нарушен	-11.1893
▁аксаков	-11.1897
▁кредитнои	-11.1899
▁ужасныи	-11.1899
▁джемс	-11.1899
▁бас	-11.19
▁даваите	-11.1901
▁божие	-11.1901
▁проход	-11.1902
▁электронно	-11.1902
▁выборах	-11.1902
▁кр	-11.1903
неиших	-11.1903
▁погреб	-11.1906
▁ярост	-11.1906
▁положили	-11.1908
▁разговоре	-11.1909
▁справится	-11.191
▁искренне	-11.1913
▁наидете	-11.1913
▁страшным	-11.1913
▁зала	-11.1914
▁мм	-11.1915
▁могиле	-11.1915
▁тверд	-11.1916
▁анне	-11.1917
▁разделит	-11.1918
▁скромно	-11.1919
▁успехи	-11.192
▁парохода	-11.192
▁команды	-11.1921
▁переносит	-11.193
▁били	-11.1932
▁тяжелых	-11.1933
пор	-11.1934
▁грозно	-11.1936
▁ши	-11.1936
▁кун	-11.1937
▁пустит	-11.1939
▁соображен	-11.1941
▁масла	-11.1942
▁бре	-11.1942
▁меншеи	-11.1943
▁привело	-11.1944
▁сезд	-11.1945
гин	-11.1946
▁занимат	-11.195
▁исследовании	-11.195
▁попа	-11.1951
▁сб	-11.1951
▁почвы	-11.1953
▁страшные	-11.1953
▁греции	-11.1954
▁ошибку	-11.1954
ником	-11.1955
▁пожара	-11.1955
▁опустился	-11.1958
▁артанян	-11.1959
▁залог	-11.196
▁распространение	-11.1961
▁предосторожност	-11.1964
▁открытия	-11.1964
▁надет	-11.1964
▁виднелис	-11.1965
яр	-11.1965
▁детстве	-11.1966
▁дна	-11.1966
▁иска	-11.1968
▁образов	-11.1968
▁искусством	-11.1971
▁остроум	-11.1972
▁заключает	-11.1972
▁нижнеи	-11.1973
нных	-11.1974
▁поутру	-11.1975
▁почву	-11.1977
▁выехал	-11.1978
▁гнездо	-11.1978
▁поют	-11.1979
▁дочереи	-11.1981
▁силнои	-11.1981
▁стенами	-11.1982
овича	-11.1982
▁основал	-11.1983
▁трети	-11.1983
▁реформ	-11.1983
инов	-11.1983
▁убеждения	-11.1985
▁освобождения	-11.199
▁избавится	-11.199
бин	-11.1991
рем	-11.1991
▁вез	-11.1993
▁монахи	-11.1993
▁имения	-11.1994
▁моск	-11.1995
▁разсужден	-11.1997
▁искали	-11.1997
▁снегом	-11.1998
▁потеряли	-11.1998
▁статуи	-11.1999
▁слеп	-11.2
▁записка	-11.2002
▁мучително	-11.2002
▁камер	-11.2002
▁свидетел	-11.2003
нец	-11.2003
▁сонет	-11.2006
▁восторженно	-11.2007
▁захватит	-11.2012
▁содержанию	-11.2014
▁книжка	-11.2015
▁спала	-11.2016
▁выбрат	-11.2017
▁обращая	-11.2017
▁простая	-11.2018
▁видали	-11.2019
▁вполголоса	-11.2019
▁подоидя	-11.2019
▁яица	-11.2021
▁полеи	-11.2023
кан	-11.2024
▁посвятил	-11.2025
▁главу	-11.2025
▁натура	-11.2026
▁моею	-11.2029
ирован	-11.203
▁корабле	-11.203
бар	-11.203
▁работали	-11.2031
▁представителя	-11.2031
▁приготовления	-11.2031
▁святым	-11.2032
▁приступ	-11.2032
▁исе	-11.2033
▁слепои	-11.2033
▁транспорт	-11.2034
▁награжден	-11.2035
▁гулят	-11.2036
▁семенов	-11.2038
▁здравствуи	-11.204
▁монет	-11.2043
▁телефон	-11.2043
▁смес	-11.2044
▁подданных	-11.2045
▁споры	-11.2045
▁парус	-11.2046
▁раст	-11.2051
▁принципы	-11.2052
быт	-11.2053
▁кафтан	-11.2053
енного	-11.2053
▁отделение	-11.2053
▁круто	-11.2054
еров	-11.2054
▁продажи	-11.2057
▁фигур	-11.2057
▁особым	-11.2064
▁соседнеи	-11.2066
▁студентов	-11.2068
▁защита	-11.2068
▁ставил	-11.2068
енным	-11.2069
▁пали	-11.207
▁ари	-11.207
▁отпустит	-11.207
▁военное	-11.2073
▁послание	-11.2074
▁признание	-11.2077
▁участвоват	-11.208
▁европа	-11.208
▁уничтожен	-11.2083
лич	-11.2084
▁сладост	-11.2084
▁удержатся	-11.2084
▁обид	-11.2085
▁умен	-11.2087
▁краски	-11.2088
▁бунт	-11.209
▁смирен	-11.2091
аг	-11.2092
▁соловева	-11.2094
▁востоку	-11.2097
▁течения	-11.2099
▁передаче	-11.2103
▁леснои	-11.2103
▁восстание	-11.2104
▁приближа	-11.2104
▁шутка	-11.2108
▁получен	-11.2109
▁степанович	-11.2109
▁уроки	-11.211
▁деревями	-11.2111
▁прожил	-11.2111
▁шара	-11.2112
▁подарил	-11.2113
▁страхов	-11.2113
▁размещения	-11.2114
▁церковю	-11.2116
▁поистине	-11.2119
▁резултатом	-11.2119
ении	-11.212
▁бегут	-11.2121
▁этаже	-11.2122
▁контракт	-11.2123
▁вниманием	-11.2124
▁анализ	-11.2125
▁выбрал	-11.2125
▁волеи	-11.2126
▁согласилис	-11.2126
▁пролет	-11.2126
▁интеллигенции	-11.2127
▁подвод	-11.2129
▁билет	-11.2129
▁любимои	-11.213
▁награду	-11.2133
уса	-11.2133
▁годами	-11.2134
▁древнего	-11.2135
▁сергея	-11.2136
▁сообразно	-11.2136
▁тютчев	-11.2136
▁музыке	-11.2138
▁прочее	-11.2138
▁привычка	-11.2139
▁неболшое	-11.2142
▁ограничен	-11.2143
▁букв	-11.2143
▁департамента	-11.2144
▁бумаге	-11.2145
▁обращался	-11.215
▁бегство	-11.2151
▁старше	-11.2152
▁друзям	-11.2153
▁продуктов	-11.2156
▁злобы	-11.2156
▁просбы	-11.2157
▁переводы	-11.2158
уха	-11.2158
жил	-11.2159
▁кат	-11.2162
▁кажутся	-11.2164
▁находяс	-11.2165
▁крае	-11.2165
▁говорилос	-11.2165
шит	-11.2166
▁прекрасных	-11.2166
▁царское	-11.2168
▁мероприятии	-11.2169
▁девяти	-11.2172
▁курил	-11.2172
ланд	-11.2172
▁рам	-11.2174
▁клин	-11.2174
▁публикации	-11.2175
▁важности	-11.2176
▁дневнике	-11.2176
иды	-11.2178
▁костя	-11.2179
▁следуя	-11.2181
▁горели	-11.2181
▁писму	-11.2183
▁данныи	-11.2183
город	-11.2183
▁вскрикнул	-11.2186
▁кучер	-11.2186
▁образцов	-11.2187
▁ценност	-11.2188
▁крикнула	-11.219
▁происхожден	-11.219
▁образовании	-11.2191
▁спора	-11.2194
▁испытат	-11.2195
▁обещание	-11.2196
▁михаилов	-11.2198
▁алгасов	-11.22
▁брит	-11.2202
▁вздох	-11.2202
▁бют	-11.2202
▁продолжалос	-11.2205
▁честное	-11.2205
▁духовенство	-11.2205
▁жу	-11.2205
▁северу	-11.2214
▁поближе	-11.2214
▁царстве	-11.2215
лог	-11.2221
▁вечерам	-11.2221
▁страниц	-11.2222
▁алексеев	-11.2223
▁дор	-11.2223
▁мур	-11.2225
▁урод	-11.2225
▁малу	-11.2226
▁руссо	-11.223
гл	-11.2233
▁царскои	-11.2233
лян	-11.2233
евых	-11.2242
▁мужиков	-11.2244
▁уехала	-11.2244
▁источника	-11.2245
вест	-11.2247
▁девочку	-11.2248
▁процессуалного	-11.2248
▁сроки	-11.225
▁трактир	-11.2251
▁погружен	-11.2251
ообраз	-11.2252
ицкии	-11.2253
▁родные	-11.2253
▁близок	-11.2254
▁долше	-11.2254
▁морал	-11.2254
▁современника	-11.2255
▁вырос	-11.2256
▁звания	-11.2256
▁совете	-11.2257
▁начинаю	-11.2258
▁различными	-11.2259
▁величаиш	-11.2259
▁существ	-11.226
аш	-11.2263
▁горных	-11.2263
гел	-11.2264
▁юге	-11.2264
▁огромная	-11.2265
фф	-11.2266
▁темная	-11.2267
▁дышат	-11.2267
▁асе	-11.2269
▁позвал	-11.227
▁тягост	-11.2271
▁ввел	-11.2273
▁юр	-11.2273
▁дается	-11.2279
▁легкои	-11.228
▁предположит	-11.2281
▁композитор	-11.2283
▁карета	-11.2283
▁среду	-11.2285
▁похожи	-11.2286
▁имеющие	-11.2293
▁банков	-11.2295
▁сокровища	-11.2296
иты	-11.23
▁наиден	-11.2301
▁акции	-11.2301
▁могила	-11.2303
▁леон	-11.2304
▁японцев	-11.2305
▁впал	-11.2306
▁мужеи	-11.2308
▁дружески	-11.2312
▁попали	-11.2314
▁един	-11.2314
▁свеж	-11.2314
▁задачеи	-11.2314
▁счета	-11.2315
▁силен	-11.2315
▁протест	-11.2316
▁соседеи	-11.2319
▁берегах	-11.2319
▁костеи	-11.2321
▁возвращаяс	-11.2324
▁третем	-11.2324
▁юныи	-11.2324
иф	-11.2325
▁сознатся	-11.2326
ключ	-11.2327
▁предоставит	-11.2328
▁легкии	-11.2331
▁искусству	-11.2335
▁небрежно	-11.2336
▁нрав	-11.2338
▁нравственности	-11.2338
▁гвардии	-11.2338
▁людовика	-11.2338
▁широк	-11.234
▁включен	-11.2341
▁свободного	-11.2341
▁окном	-11.2345
▁страдат	-11.2345
▁малеишеи	-11.2346
▁полет	-11.2347
▁соединения	-11.2349
▁полов	-11.235
▁общественные	-11.235
▁рога	-11.2351
▁собственном	-11.2353
▁славе	-11.2354
▁встретился	-11.2354
▁ступени	-11.2355
▁ярослав	-11.2356
▁показан	-11.236
гра	-11.2361
▁промышленност	-11.2362
▁заводы	-11.2364
▁аристократ	-11.2365
▁реи	-11.2366
▁ссылки	-11.2367
▁бормотал	-11.2367
▁слышите	-11.2369
▁уч	-11.2369
ож	-11.2369
мысл	-11.2373
▁благодарен	-11.2374
▁широкое	-11.2374
▁вагон	-11.2376
▁основы	-11.2377
▁утверждат	-11.2378
авшеи	-11.2379
▁волости	-11.238
▁махнул	-11.2381
▁соблазн	-11.2382
▁валер	-11.2389
кнул	-11.2389
▁сделаны	-11.2391
▁голубои	-11.2392
зин	-11.2394
▁гм	-11.2395
▁появилос	-11.2396
▁жалованя	-11.2396
▁держался	-11.2397
▁ручку	-11.2404
▁неболшую	-11.2404
▁выходе	-11.2404
▁врагами	-11.2405
▁яд	-11.2409
▁ремонт	-11.241
▁графини	-11.2412
▁дана	-11.2414
▁серебра	-11.2414
▁наиду	-11.2416
▁умеют	-11.2416
оч	-11.2417
▁основател	-11.2418
▁безмолвно	-11.2419
▁учебных	-11.2421
▁велит	-11.2422
▁мебел	-11.2423
▁оф	-11.2424
▁практике	-11.2424
▁множества	-11.2424
▁бросила	-11.2424
▁раздалис	-11.2425
▁незнаком	-11.2427
▁девицы	-11.2428
нныи	-11.2431
▁проведении	-11.2431
▁быта	-11.2432
▁камнями	-11.2433
▁московские	-11.2433
▁ростом	-11.2433
▁нетерпением	-11.2435
▁изучен	-11.2435
▁группу	-11.2436
▁написан	-11.2436
▁резерв	-11.2436
▁животные	-11.2437
▁приду	-11.2437
▁свободное	-11.2437
▁образу	-11.2439
▁обряд	-11.2439
▁полные	-11.244
▁наполовину	-11.2441
▁попробовал	-11.2441
тяж	-11.2441
▁ци	-11.2443
▁местные	-11.2443
▁земного	-11.2443
ац	-11.2444
▁сношения	-11.2445
▁привязанност	-11.245
▁способы	-11.245
▁патриарх	-11.2451
▁грозныи	-11.2453
▁свидание	-11.2454
▁ужасе	-11.2456
▁настоящих	-11.2457
▁вечныи	-11.2457
гал	-11.2461
▁сердечно	-11.2462
▁вопросами	-11.2463
▁послышалис	-11.2464
▁сергеевна	-11.2466
▁источники	-11.2467
▁скрыват	-11.2467
▁узнаю	-11.247
▁комедия	-11.2472
▁июл	-11.2474
нах	-11.2474
▁показания	-11.2475
▁сохранилис	-11.2475
▁станем	-11.2476
▁организм	-11.2477
▁художеств	-11.2479
ук	-11.248
▁понимали	-11.248
▁надежд	-11.2482
▁возраст	-11.2483
▁сената	-11.2485
▁пунктов	-11.2485
▁капиталистическ	-11.2485
▁представляла	-11.2486
▁рабочим	-11.2488
▁малых	-11.2491
▁едем	-11.2493
▁повиноватся	-11.2493
▁постараюс	-11.2493
▁пехоты	-11.2493
▁диване	-11.2494
▁листок	-11.2495
вшагося	-11.2496
▁стена	-11.2497
▁тетя	-11.2498
▁декабре	-11.2499
▁опыты	-11.25
▁частнои	-11.25
▁карету	-11.2504
▁поболше	-11.2505
▁приступит	-11.2506
▁местам	-11.2506
▁промолвил	-11.2509
▁лун	-11.2511
▁золотая	-11.2513
▁понятии	-11.2513
▁бедного	-11.2514
▁звал	-11.2514
▁хмел	-11.2515
▁неправилно	-11.2515
▁проидя	-11.2516
▁становилис	-11.2517
▁тим	-11.2519
▁ятеля	-11.2521
▁добратся	-11.2522
▁каменныи	-11.2522
▁четверо	-11.2523
▁остро	-11.2525
▁наличии	-11.2528
▁свидетелства	-11.2529
▁турки	-11.253
▁требовали	-11.2532
▁приехала	-11.2533
▁введен	-11.2537
▁ущерб	-11.2539
▁плут	-11.254
▁серые	-11.2544
▁желали	-11.2546
▁планов	-11.2546
▁кабы	-11.2546
▁определяет	-11.2546
▁дурного	-11.2546
изации	-11.2547
▁процент	-11.2549
▁искусств	-11.2551
▁собственную	-11.2552
▁уидет	-11.2552
▁вступает	-11.2554
▁умират	-11.2557
▁тексте	-11.2558
▁газа	-11.2559
▁главную	-11.2561
▁тяжелая	-11.2563
▁номера	-11.2564
▁забыват	-11.2566
▁вызов	-11.2569
▁табак	-11.2572
▁разорен	-11.2573
▁возникает	-11.2575
▁спалню	-11.2575
▁шит	-11.2575
▁пропал	-11.2576
▁реестр	-11.2581
▁организациеи	-11.2581
▁мозга	-11.2581
▁квартира	-11.2583
▁бери	-11.2586
▁снаружи	-11.2586
▁прекрасным	-11.2587
▁неудобно	-11.2587
▁спустился	-11.2588
▁дико	-11.2589
лина	-11.2591
▁центром	-11.2594
▁бросится	-11.2596
▁зрител	-11.2598
▁наименование	-11.2599
▁линия	-11.2601
▁здоровы	-11.2602
▁езд	-11.2602
▁старухи	-11.2604
▁графом	-11.2605
▁представте	-11.2606
▁розанов	-11.2606
▁собрался	-11.2607
▁кружок	-11.2609
▁летит	-11.261
▁освещен	-11.261
▁голицын	-11.2611
▁христианскои	-11.2612
▁противно	-11.2614
сан	-11.2615
▁апреле	-11.2616
▁грудю	-11.2616
▁разнообраз	-11.2616
▁политического	-11.2618
▁петербургского	-11.2618
ящих	-11.2619
▁предоставления	-11.262
▁гу	-11.262
▁чист	-11.2621
▁нечаянно	-11.2621
▁наружу	-11.2621
▁красными	-11.2623
▁длина	-11.2624
▁весною	-11.2624
▁авторов	-11.2625
▁читая	-11.2626
▁договоров	-11.2627
▁лис	-11.2628
▁карта	-11.2629
▁дрова	-11.263
▁обвинения	-11.263
▁добры	-11.2631
▁соборе	-11.2632
евым	-11.2632
▁гусар	-11.2634
▁глубок	-11.2635
▁эпоха	-11.2635
▁учителеи	-11.2636
▁положив	-11.2636
▁димитрии	-11.2636
▁двинулся	-11.2637
▁месяце	-11.2639
ливат	-11.2639
▁красное	-11.2642
ада	-11.2642
▁входил	-11.2642
▁пожалуите	-11.2645
▁представляли	-11.2646
▁посла	-11.2647
▁разныя	-11.2649
▁почва	-11.2649
▁мнении	-11.2651
▁государственную	-11.2654
▁подчинен	-11.2655
▁дроб	-11.2656
▁стою	-11.2656
▁потихонку	-11.2656
▁носу	-11.2656
▁организма	-11.2656
▁труднее	-11.2658
▁слушает	-11.2658
▁барина	-11.2659
▁опасаяс	-11.2662
▁новост	-11.2663
▁улыбался	-11.2663
▁произносит	-11.2663
ог	-11.2664
▁проведение	-11.2666
▁якор	-11.2667
▁дружба	-11.2668
▁подписан	-11.267
▁марфа	-11.2671
▁сыновя	-11.2671
▁султан	-11.2671
▁ол	-11.2675
▁сравнен	-11.2676
▁обяснял	-11.2678
руб	-11.2679
роз	-11.2679
▁пушек	-11.268
▁нар	-11.268
▁видна	-11.2682
▁поведение	-11.2683
▁странные	-11.2683
▁желаем	-11.2684
▁церковных	-11.2685
▁услугу	-11.2685
▁дворянин	-11.2686
▁пота	-11.2687
▁исторические	-11.2688
▁чиновники	-11.269
▁типограф	-11.2693
▁толстыи	-11.2693
▁обиды	-11.2695
▁беи	-11.2696
▁кухне	-11.2697
син	-11.2698
▁ваня	-11.2698
▁здорова	-11.27
▁суды	-11.27
▁величаишим	-11.27
▁январе	-11.27
▁сенор	-11.2702
▁клим	-11.2703
▁вынес	-11.2705
▁принялас	-11.2706
ивших	-11.2709
▁особенного	-11.2709
▁зимою	-11.271
▁заключении	-11.2711
▁дивизия	-11.2711
▁архиепископ	-11.2712
▁поддержат	-11.2713
ад	-11.2715
▁простое	-11.2715
▁нижнем	-11.2715
▁тронут	-11.2716
▁торжества	-11.2716
▁унтер	-11.2717
▁забор	-11.2717
▁дж	-11.2718
▁оставлен	-11.2718
▁миф	-11.2718
▁колеса	-11.2718
▁ответом	-11.2719
ическим	-11.2721
▁бессознателно	-11.2723
▁кав	-11.2728
▁внутреннее	-11.2729
▁понимала	-11.2732
▁фонтан	-11.2733
▁боися	-11.2734
▁вскричала	-11.2736
▁привлеч	-11.2738
▁жест	-11.2739
▁буде	-11.2739
▁улиц	-11.274
▁следов	-11.2741
▁истинным	-11.2743
▁плане	-11.2744
▁поэтом	-11.2744
▁искр	-11.2745
▁столовую	-11.2745
▁стараются	-11.2746
цен	-11.2748
▁стихии	-11.2748
▁связанные	-11.2748
▁зов	-11.2749
▁пожелал	-11.275
▁прислат	-11.2751
пал	-11.2752
зер	-11.2752
▁конверт	-11.2756
▁шире	-11.2757
▁изменение	-11.2759
▁донос	-11.276
▁лесах	-11.2761
▁молока	-11.2763
▁плечах	-11.2765
▁размеры	-11.2765
▁зеленые	-11.2769
▁разочарован	-11.2771
▁нравов	-11.2771
▁устах	-11.2773
▁изучал	-11.2774
▁даты	-11.2774
▁божиеи	-11.2775
лат	-11.2775
ающие	-11.2777
▁защитит	-11.2779
▁всяким	-11.2779
▁расскажу	-11.278
▁приобрел	-11.2781
▁окружающих	-11.2781
▁государством	-11.2782
▁сестрои	-11.2782
▁привела	-11.2783
▁сыщик	-11.2784
▁наступает	-11.2786
▁широкие	-11.2787
▁сохранил	-11.2787
▁замечание	-11.2788
▁зимы	-11.2789
▁рабочеи	-11.2789
▁открытым	-11.279
▁подлец	-11.2791
▁десятин	-11.2791
▁изделия	-11.2792
▁горю	-11.2792
▁полюбит	-11.2792
▁злые	-11.2793
▁милые	-11.2793
▁сходит	-11.2796
▁удалится	-11.2802
▁пудов	-11.2804
▁неверно	-11.2804
▁пад	-11.2805
▁напаст	-11.2805
▁незнакомец	-11.2805
▁поглядел	-11.2806
▁лучшии	-11.2806
▁высокое	-11.2808
▁бестужев	-11.2809
▁адресу	-11.281
нк	-11.281
▁триста	-11.2811
▁корпорации	-11.2812
▁виш	-11.2812
▁удавалос	-11.2815
▁вещах	-11.2816
ича	-11.2816
▁звучит	-11.2816
▁лав	-11.2817
▁вопросе	-11.2819
▁поневоле	-11.2822
▁вывести	-11.2822
▁учителем	-11.2825
▁вопросах	-11.2826
неишим	-11.2827
ствует	-11.2828
▁кухню	-11.2828
▁контракта	-11.2828
▁базар	-11.2829
▁глагол	-11.283
▁вздохом	-11.2831
▁свободныи	-11.2831
▁леч	-11.2832
▁заявлен	-11.2834
▁игнат	-11.2835
▁рубл	-11.2836
▁надеяс	-11.2836
▁францию	-11.2838
▁серыи	-11.2838
▁похожа	-11.2839
▁шапки	-11.284
▁занимается	-11.2841
сад	-11.2841
▁церковнои	-11.2842
ура	-11.2842
▁октав	-11.2844
шке	-11.2846
▁охотники	-11.2847
▁вторым	-11.2848
▁гус	-11.2848
▁погибли	-11.2849
▁поселился	-11.285
ившиеся	-11.2851
▁описат	-11.2851
▁сражения	-11.2852
▁единственнои	-11.2856
▁последствии	-11.2856
▁рож	-11.2857
▁человеческая	-11.2857
▁группе	-11.2858
▁высокую	-11.2858
▁арест	-11.2858
▁стула	-11.2859
▁трактат	-11.286
▁погибнут	-11.2861
▁держали	-11.2862
▁подобным	-11.2862
▁огород	-11.2862
истыи	-11.2862
▁женщинам	-11.2864
▁удовлетворения	-11.2865
▁ирли	-11.2866
ссе	-11.2869
▁зараз	-11.2869
▁ужина	-11.2869
▁октябре	-11.2869
▁эк	-11.2872
▁являлас	-11.2872
▁этою	-11.2874
▁лицензии	-11.2876
▁платком	-11.2877
▁дол	-11.2878
▁основателно	-11.288
нина	-11.2881
▁тетрад	-11.2883
▁рог	-11.2884
▁дневника	-11.2884
▁заимствован	-11.2885
▁обрадовался	-11.2885
▁зеленои	-11.2885
▁отсутствия	-11.2886
▁достоино	-11.2887
▁железные	-11.2888
▁жаловатся	-11.289
▁прямым	-11.2891
▁мыслях	-11.2891
▁генералного	-11.2891
▁небос	-11.2891
▁силного	-11.2892
▁добыт	-11.2893
▁сти	-11.2894
▁покрыт	-11.2894
▁тяжко	-11.2896
▁проверки	-11.2896
▁лест	-11.2896
▁чужие	-11.2899
▁восползовался	-11.29
▁амин	-11.2901
▁болезнеи	-11.2902
▁замолчал	-11.2902
▁таня	-11.2904
▁облик	-11.2904
▁наидеш	-11.2908
▁основанием	-11.291
▁золотыми	-11.2911
▁приказа	-11.2915
▁ирланд	-11.2916
▁мирабо	-11.2916
▁научных	-11.2918
▁рое	-11.2919
▁богатои	-11.2921
▁станов	-11.2923
▁оценки	-11.2924
▁свидетелству	-11.2926
уп	-11.2926
▁фабрики	-11.2928
▁долина	-11.2929
▁цивилизации	-11.2929
▁примеры	-11.293
▁певец	-11.293
ент	-11.2931
▁юня	-11.2932
▁желаете	-11.2933
▁языках	-11.2933
авшие	-11.2934
▁слуха	-11.2934
очнои	-11.2934
▁кам	-11.2935
▁палубу	-11.2935
▁жива	-11.2938
▁ласки	-11.2939
▁влас	-11.294
▁западу	-11.2941
▁кареты	-11.2941
▁международно	-11.2943
▁какова	-11.2945
▁ввести	-11.2946
▁царствования	-11.2946
▁канцелярии	-11.2947
▁бедност	-11.2947
▁счастем	-11.2948
▁первыми	-11.295
▁мелоч	-11.295
▁дало	-11.295
▁исправит	-11.2954
кур	-11.2956
▁надя	-11.2957
▁свято	-11.2957
▁пары	-11.2959
▁ткани	-11.2959
бра	-11.2961
ающии	-11.2962
▁уважением	-11.2963
ившего	-11.2964
▁надеждои	-11.2964
▁куплен	-11.2966
▁опираяс	-11.2967
▁свят	-11.2968
▁исключая	-11.2969
▁ростов	-11.2971
▁ведения	-11.2971
▁послужит	-11.2971
▁женскои	-11.2972
▁нервно	-11.2973
▁окрестностях	-11.2973
▁посылаю	-11.2973
▁бег	-11.2974
▁французском	-11.2977
▁плечу	-11.2978
▁покажется	-11.2978
▁сумерки	-11.2979
▁выступал	-11.298
▁помнил	-11.2983
▁литературного	-11.2984
▁экономических	-11.2984
▁приготовит	-11.2987
▁протянула	-11.2989
▁мучит	-11.299
▁протяжении	-11.299
▁наступило	-11.299
▁сюжет	-11.299
▁терпеливо	-11.299
▁современников	-11.2991
▁подавлен	-11.2991
▁подалше	-11.2992
▁исполнении	-11.2993
▁перешла	-11.2997
▁ушах	-11.2998
▁пуще	-11.2998
▁убитых	-11.2999
▁покраснел	-11.2999
▁красивои	-11.2999
чев	-11.3
▁выдержал	-11.3001
▁доходит	-11.3002
очкои	-11.3003
▁фраза	-11.3004
▁способны	-11.3005
▁предлагает	-11.3005
▁мили	-11.3007
▁покончит	-11.3009
▁немецкого	-11.3012
▁чернышевскии	-11.3013
▁размера	-11.3013
▁отправилас	-11.3014
▁соединенных	-11.3016
▁соня	-11.3017
▁брюсов	-11.3018
▁собират	-11.302
▁пережит	-11.3021
▁взгляде	-11.3024
▁читала	-11.3024
▁правит	-11.3025
▁прокурора	-11.3025
▁фиг	-11.3026
▁приезда	-11.3026
▁ала	-11.3027
▁грамоты	-11.3028
▁худ	-11.3028
▁раба	-11.3029
▁безнадежно	-11.3034
▁особую	-11.3034
▁жуан	-11.3035
▁пера	-11.3036
▁обратилис	-11.3037
▁наскоро	-11.3039
▁помешат	-11.304
▁руд	-11.3041
▁сержант	-11.3042
▁долину	-11.3043
▁областеи	-11.3044
▁партию	-11.3046
▁нарушит	-11.3047
▁барабан	-11.3047
▁провели	-11.305
▁отказат	-11.305
▁ивану	-11.3052
▁подходя	-11.3052
▁достижения	-11.3054
▁кошка	-11.3054
▁появления	-11.3055
▁собаку	-11.3056
▁гетман	-11.3057
▁режима	-11.3057
▁едино	-11.3057
▁халат	-11.3058
▁маршал	-11.3059
рам	-11.3059
▁кораблеи	-11.3059
▁орел	-11.3059
▁жалости	-11.306
▁люб	-11.306
▁помилуи	-11.3062
▁треск	-11.3062
▁невозможным	-11.3063
▁толстая	-11.3063
▁прекрасную	-11.3064
▁румян	-11.3064
▁вдохновен	-11.3065
▁носили	-11.3066
▁мучител	-11.3066
▁ударов	-11.3066
▁геи	-11.3066
▁обход	-11.3067
ющуюся	-11.3069
▁несчастного	-11.3069
▁прежним	-11.3078
▁употреблят	-11.3078
▁заговорит	-11.3083
▁федералных	-11.3083
▁петровича	-11.3083
▁виновата	-11.3086
▁работник	-11.309
▁зари	-11.309
▁фразу	-11.3092
▁селского	-11.3092
▁военным	-11.3092
▁деятелеи	-11.3092
▁приведен	-11.3093
▁судами	-11.3096
▁настал	-11.3097
рю	-11.3099
нск	-11.3099
▁роскоши	-11.3099
▁академ	-11.31
▁поддержку	-11.3101
▁песу	-11.3101
▁затруднен	-11.3103
▁девка	-11.3104
▁александру	-11.3104
три	-11.3104
▁юн	-11.3106
▁малчишка	-11.3107
▁некотором	-11.3107
▁возбудит	-11.3107
хват	-11.3109
тит	-11.311
▁иш	-11.311
кт	-11.3112
▁фур	-11.3112
ано	-11.3113
▁няня	-11.3113
▁албом	-11.3113
▁знаменитого	-11.3114
▁израил	-11.3115
▁сборнике	-11.3117
▁апелляционнои	-11.3118
▁детскои	-11.3119
▁следующую	-11.312
▁почтовои	-11.3121
▁даю	-11.3122
зд	-11.3123
▁мечтател	-11.3124
▁счастливо	-11.3124
щее	-11.3126
▁напряжен	-11.3127
▁настроении	-11.3127
тра	-11.3127
▁близости	-11.3128
▁губам	-11.3128
▁добр	-11.3128
▁седои	-11.3131
▁улыбку	-11.3131
▁юга	-11.3132
▁постоял	-11.3136
▁девы	-11.3136
▁александрии	-11.3136
▁вкуса	-11.3137
▁помилуите	-11.314
▁маргарита	-11.314
▁широких	-11.3141
▁заслуги	-11.3143
▁плодов	-11.3144
пред	-11.3145
▁мраке	-11.3146
▁честю	-11.3147
▁нежныи	-11.3147
▁отчаянно	-11.3147
▁примером	-11.3148
▁догадался	-11.315
▁широким	-11.3153
▁молоко	-11.3153
еют	-11.3155
бои	-11.3156
▁референдума	-11.3156
▁книжке	-11.3157
▁художественнои	-11.3157
▁утру	-11.3159
▁торговле	-11.3159
▁игор	-11.3162
▁чистая	-11.3164
▁чемодан	-11.3165
чек	-11.3166
ывал	-11.3166
▁страдает	-11.3169
▁строителство	-11.317
▁правителственны	-11.317
▁читателю	-11.317
▁серезным	-11.3172
▁попало	-11.3173
▁фронте	-11.3174
▁сомневаюс	-11.3175
люс	-11.3177
▁сижу	-11.3178
▁петроград	-11.3178
▁определеннои	-11.3178
▁паден	-11.3179
▁покажу	-11.3179
▁проник	-11.3179
дра	-11.318
сох	-11.3181
▁падал	-11.3183
▁мундир	-11.3183
▁уд	-11.3184
▁науку	-11.3185
▁предполагал	-11.3187
▁шестдесят	-11.3187
▁причиною	-11.3188
град	-11.3189
▁библиотеке	-11.319
▁открытие	-11.3192
▁юношеи	-11.3192
тек	-11.3192
▁лазур	-11.3194
▁заре	-11.3194
▁соглашение	-11.3196
▁происходили	-11.3197
▁правлен	-11.3199
▁уверяю	-11.32
▁предмету	-11.32
джи	-11.32
▁струи	-11.3201
▁канцеляр	-11.3203
▁жуковскии	-11.3203
▁посылал	-11.3203
▁пела	-11.3207
▁обладал	-11.3208
▁разбоиники	-11.3208
▁магазин	-11.3211
▁процессуалны	-11.3211
▁сав	-11.3212
лес	-11.3212
▁отрывки	-11.3213
▁бумага	-11.3216
▁нуждается	-11.3216
▁платонов	-11.3217
▁пассажиров	-11.3217
▁шептал	-11.3218
▁леонтев	-11.3219
ченко	-11.3219
▁главои	-11.3219
▁плату	-11.3219
▁осуществляет	-11.322
▁невыносимо	-11.322
▁перевал	-11.3224
▁трудящихся	-11.3225
▁бутылку	-11.3225
▁приходило	-11.3228
▁направил	-11.3229
▁произносил	-11.323
▁луга	-11.323
▁концерт	-11.3231
▁плеч	-11.3232
▁экземпляр	-11.3232
▁оказал	-11.3232
▁скуки	-11.3232
▁уверял	-11.3233
▁дек	-11.3234
▁квартир	-11.3236
▁фонд	-11.3236
▁захар	-11.3236
▁бледно	-11.3236
▁уровен	-11.3237
▁хорошую	-11.3237
▁команда	-11.3237
▁стад	-11.3237
▁твер	-11.3238
▁юридического	-11.3239
▁лыс	-11.324
▁рабы	-11.3241
▁готовится	-11.3241
▁частично	-11.3241
пят	-11.3242
▁рие	-11.3242
▁признании	-11.3242
▁уединен	-11.3244
▁кружка	-11.3244
▁актами	-11.3245
▁спрашивала	-11.3245
▁исползованием	-11.3246
▁свт	-11.3246
▁алмаз	-11.3249
▁древн	-11.3252
▁проявил	-11.3252
▁пробыл	-11.3253
▁дров	-11.3255
▁попытку	-11.3255
▁машинално	-11.3256
▁поди	-11.3256
▁достоинством	-11.326
▁молчали	-11.326
▁бориса	-11.326
кро	-11.3262
▁лавку	-11.3265
▁белую	-11.3265
пет	-11.3268
▁холодным	-11.3272
▁поездка	-11.3273
▁каков	-11.3273
▁исо	-11.3274
▁атаман	-11.3277
▁упомянут	-11.3277
▁глубокая	-11.3279
▁многом	-11.3281
▁звука	-11.3283
▁счастливои	-11.3285
▁показывают	-11.3285
як	-11.3286
▁сословия	-11.3288
▁обясняет	-11.3289
▁сию	-11.329
▁издателство	-11.329
▁старо	-11.329
▁аппарат	-11.329
▁листев	-11.3293
▁чудак	-11.3293
▁противоречия	-11.3295
▁допрос	-11.3295
▁церемон	-11.3296
▁люсен	-11.3296
▁сунул	-11.3297
рок	-11.3297
▁судорожно	-11.3298
▁обстоятелствам	-11.3299
▁купцов	-11.3299
▁покрыты	-11.3299
▁религиозных	-11.33
▁мих	-11.33
ничат	-11.3301
▁возвращение	-11.3301
▁открыли	-11.3303
▁приказано	-11.3303
▁выходя	-11.3304
▁глубокии	-11.3305
▁средством	-11.3305
▁бродит	-11.3305
▁предположение	-11.3307
кая	-11.3309
▁народныи	-11.3309
▁камнем	-11.331
▁владыка	-11.331
▁запрет	-11.331
▁югу	-11.3311
▁тетушка	-11.3312
▁силная	-11.3315
▁носа	-11.3315
▁доверие	-11.3316
▁поезда	-11.3318
▁интереса	-11.3318
▁кучу	-11.3321
▁поднес	-11.3321
▁властеи	-11.3321
▁просим	-11.3323
▁выборов	-11.3323
▁задумал	-11.3326
▁верхне	-11.3329
остю	-11.3332
вес	-11.3332
▁искус	-11.3333
▁фе	-11.3334
▁артиллер	-11.3334
▁проходят	-11.3337
▁звонок	-11.3337
▁почет	-11.3339
▁гимн	-11.3342
▁разбил	-11.3343
▁прогулки	-11.3343
▁заводе	-11.3345
▁родная	-11.3346
▁звонко	-11.3346
▁приток	-11.3348
▁невесту	-11.3349
▁пахнет	-11.335
▁признаков	-11.3353
▁помещиков	-11.3353
▁подхватил	-11.3354
▁подали	-11.3357
лея	-11.3357
▁исчезает	-11.3357
▁пленных	-11.3358
▁ноябр	-11.3358
▁бледное	-11.3359
двор	-11.3362
▁гордостю	-11.3363
▁филиппа	-11.3365
▁завтрак	-11.3365
▁дес	-11.3366
▁россиеи	-11.3369
шем	-11.3369
▁вытащил	-11.337
▁крыши	-11.3371
▁назначит	-11.3375
сим	-11.3375
верен	-11.3378
▁хватило	-11.338
▁разошлис	-11.3381
▁подозрен	-11.3381
▁воздухом	-11.3385
▁канат	-11.3386
▁сплав	-11.3388
▁событие	-11.3388
цк	-11.3389
▁независимост	-11.3389
▁деда	-11.3391
▁телеграмму	-11.3391
▁герцен	-11.3392
▁низ	-11.3394
▁настроения	-11.3396
сона	-11.3398
▁сношен	-11.3399
▁посоветовал	-11.34
▁предстояло	-11.3401
▁разсказал	-11.3401
ливо	-11.3401
▁зо	-11.3403
▁президентом	-11.3404
▁казны	-11.3404
▁евангелие	-11.3404
▁громадныи	-11.3405
▁нетерпен	-11.3406
▁рассуждения	-11.3406
▁признается	-11.3406
▁деиствуют	-11.3408
▁глуб	-11.3408
▁отворил	-11.3413
▁императорского	-11.3416
▁поедем	-11.3416
▁отверстие	-11.3416
кос	-11.3418
▁старику	-11.3418
▁информационно	-11.3418
▁принимаю	-11.3418
▁жажду	-11.342
▁исследование	-11.3422
▁опасен	-11.3423
▁отворилас	-11.3424
▁пузыр	-11.3426
▁общественныи	-11.3426
▁рукав	-11.3427
▁бородои	-11.3427
▁непри	-11.3429
▁баку	-11.343
▁нездоров	-11.3433
▁одарен	-11.3433
▁выгодно	-11.3435
▁фантазии	-11.3435
▁игре	-11.3435
▁длинных	-11.3436
▁щедро	-11.3436
бен	-11.3441
▁огонек	-11.3442
роч	-11.3445
▁николаев	-11.3445
▁кут	-11.3446
▁характеру	-11.3446
▁рисовал	-11.3447
▁открыв	-11.3447
▁духовное	-11.3449
▁предисловие	-11.3449
▁лицемер	-11.3452
дав	-11.3453
▁очереди	-11.3456
▁дагестан	-11.3457
дум	-11.3458
▁достоин	-11.3459
▁разобрат	-11.3459
▁армиеи	-11.346
▁записках	-11.346
▁мрачныи	-11.346
аны	-11.3461
▁подобнаго	-11.3462
▁шага	-11.3463
▁приедет	-11.3463
▁нежнои	-11.3464
▁связано	-11.3466
▁долгих	-11.3466
▁вилям	-11.3467
▁находя	-11.3469
▁бедств	-11.3469
▁мечом	-11.3469
▁хозяики	-11.347
▁возведен	-11.3471
▁нету	-11.3472
фи	-11.3472
жд	-11.3473
▁следствие	-11.3473
тре	-11.3473
▁братями	-11.3474
▁сентябре	-11.3477
▁книгами	-11.3478
цах	-11.3479
▁верност	-11.348
▁останавливается	-11.3482
ывает	-11.3482
▁огромную	-11.3482
▁изучение	-11.3484
рак	-11.3485
▁спуска	-11.3487
▁выводы	-11.3487
▁боле	-11.3487
▁овец	-11.3487
вшаго	-11.3487
▁царицы	-11.3488
▁деиствовал	-11.3488
▁пятнадцати	-11.3489
▁необходимое	-11.3492
▁пребыван	-11.3494
▁заглав	-11.3495
▁заседание	-11.3495
▁дружбу	-11.3495
▁свидетелем	-11.3495
▁вихр	-11.3497
▁императором	-11.3498
▁серебро	-11.3498
сса	-11.35
▁стариков	-11.3503
▁директором	-11.3505
▁вывел	-11.3506
ево	-11.3507
▁президиума	-11.3509
▁стекло	-11.3509
▁кратко	-11.3512
▁тяжести	-11.3515
▁признания	-11.3517
▁приказания	-11.3517
▁рыцаря	-11.352
▁понеделник	-11.3521
▁крылцо	-11.3521
▁инспектор	-11.3521
▁противоречит	-11.3524
▁мук	-11.3525
▁среднем	-11.3526
▁костра	-11.3527
▁отрядом	-11.353
▁основ	-11.3533
писан	-11.3533
▁природои	-11.3534
▁попала	-11.3535
▁идя	-11.3535
▁чувству	-11.3536
▁макс	-11.3537
▁англия	-11.3537
▁стрелы	-11.3537
▁голубые	-11.3538
▁страшную	-11.3541
▁одиноко	-11.3542
▁тмы	-11.3544
▁длины	-11.3546
▁слабым	-11.3547
елем	-11.355
▁направит	-11.355
▁ибн	-11.3552
▁лл	-11.3554
▁хаджи	-11.3554
▁толстому	-11.3554
▁политику	-11.3554
▁далнеиших	-11.3556
▁открытое	-11.3556
ивает	-11.3559
▁младшии	-11.3559
▁товарищества	-11.356
▁подробнее	-11.356
▁сборника	-11.3563
зо	-11.3566
▁своиство	-11.3566
▁макбет	-11.3566
▁радио	-11.3567
▁совершенства	-11.3567
▁трем	-11.3569
▁разделен	-11.3569
▁физических	-11.3573
▁окончив	-11.3575
▁точек	-11.3576
▁фауст	-11.3577
▁судах	-11.3577
▁интеллигент	-11.3578
▁тма	-11.358
▁перестали	-11.3582
▁записал	-11.3582
▁молитве	-11.3584
числен	-11.3584
▁прочно	-11.3587
▁решением	-11.3587
▁исходя	-11.359
▁полосы	-11.359
▁продал	-11.359
▁некоторого	-11.3591
▁расследования	-11.3591
▁нужд	-11.3592
▁придти	-11.3592
▁укрепления	-11.3595
▁господу	-11.3596
▁избавит	-11.3597
▁деиствующих	-11.36
▁нежност	-11.3601
▁знакомым	-11.3601
▁подписал	-11.3601
▁глазом	-11.3601
▁чер	-11.3602
▁осмотрел	-11.3602
пен	-11.3603
▁обязана	-11.3606
▁уехали	-11.3607
▁несут	-11.3607
▁нил	-11.3607
ающего	-11.3608
▁сии	-11.361
▁колумб	-11.361
▁восстановит	-11.3613
▁произвела	-11.3615
▁режим	-11.3616
▁широкая	-11.3616
вшемуся	-11.3616
▁похода	-11.3617
▁сослов	-11.3617
▁переменит	-11.3618
▁полского	-11.3618
▁софи	-11.3619
▁женщинами	-11.3619
▁современного	-11.3619
▁художественного	-11.3619
▁злая	-11.362
▁кирпич	-11.362
▁оркестр	-11.3623
▁сделаите	-11.3623
▁римского	-11.3623
нских	-11.3624
▁жителства	-11.3624
▁столицу	-11.3626
▁манифест	-11.3626
чеи	-11.3627
тя	-11.3628
▁субботу	-11.3632
▁услыхал	-11.3634
▁выходила	-11.3634
▁серезное	-11.3635
▁опал	-11.3635
▁незадолго	-11.3637
▁ситуации	-11.3637
▁джеин	-11.3637
▁намерении	-11.3639
▁лишит	-11.3639
▁чувствовали	-11.364
▁полагат	-11.364
▁попросит	-11.3643
▁припомнит	-11.3643
▁воидя	-11.3644
▁посвящен	-11.3645
▁товарищем	-11.3646
▁полоса	-11.3646
▁ощущен	-11.3647
▁учреждение	-11.3647
нок	-11.3647
▁личное	-11.3648
▁черную	-11.3648
▁пра	-11.3649
▁привычки	-11.365
▁вздохнула	-11.365
▁ответы	-11.365
▁стремително	-11.3651
▁приходила	-11.3652
лиз	-11.3654
▁подает	-11.3656
▁болезненно	-11.3657
тка	-11.3658
▁шумно	-11.3661
▁свободен	-11.3661
▁фан	-11.3662
▁свадба	-11.3663
▁высоту	-11.3663
▁падения	-11.3664
▁придут	-11.3666
▁пяныи	-11.3667
бан	-11.3667
▁тонкие	-11.3668
ающеи	-11.3668
▁случаем	-11.3669
▁адмирала	-11.3669
▁старца	-11.367
▁вызвало	-11.367
▁просба	-11.3674
▁спрашивали	-11.3675
▁молнии	-11.3676
▁взамен	-11.3676
▁псков	-11.3676
▁чертах	-11.3676
▁человеческие	-11.3678
▁ясныи	-11.3678
▁плав	-11.3681
▁убежище	-11.3684
▁неболшого	-11.3684
▁цене	-11.3684
▁маиора	-11.3684
▁применен	-11.3685
▁обез	-11.3685
▁полез	-11.3686
▁обет	-11.3688
▁насквоз	-11.3689
▁быват	-11.369
▁англиискои	-11.3691
▁единыи	-11.3693
▁штук	-11.3693
тат	-11.3693
▁склонност	-11.3694
▁греческои	-11.3694
▁сохрани	-11.3695
нэ	-11.3696
▁работают	-11.3697
▁социално	-11.3698
▁кусты	-11.3699
▁лид	-11.3701
▁непонятно	-11.3701
ард	-11.3702
▁ожидания	-11.3703
▁иностранного	-11.3703
▁чаем	-11.3704
▁лежало	-11.3704
▁продолжается	-11.3709
овыя	-11.371
▁возврат	-11.371
▁централнои	-11.371
▁бросается	-11.3712
▁программ	-11.3712
рот	-11.3714
▁наступления	-11.3714
▁пристан	-11.3714
ске	-11.3719
▁алберт	-11.3719
▁проще	-11.3721
▁дышит	-11.3721
▁дружно	-11.3723
▁шлем	-11.3723
▁велено	-11.3724
▁вершине	-11.3726
▁испытал	-11.3727
▁широкии	-11.3727
▁останус	-11.3728
нскии	-11.3728
▁спокоен	-11.3732
▁присутствовал	-11.3732
▁посещен	-11.3736
▁выпуска	-11.3737
▁слог	-11.3737
▁вежливо	-11.3738
▁настаивал	-11.3739
▁миша	-11.374
▁благопр	-11.3741
▁особые	-11.3742
▁подходил	-11.3744
▁пеш	-11.3744
▁бросив	-11.3744
▁сезда	-11.3744
чке	-11.3744
▁глядела	-11.3745
▁бул	-11.3747
▁удобнее	-11.3748
ач	-11.3748
▁стенои	-11.375
▁ноябре	-11.3751
▁строг	-11.3752
▁расположены	-11.3754
▁некоторую	-11.3754
▁хлоп	-11.3754
▁праздника	-11.3755
▁гнезда	-11.3756
▁ут	-11.3757
▁схватила	-11.3759
▁пустил	-11.3759
▁племена	-11.3761
▁видала	-11.3763
▁штатов	-11.3764
▁страшного	-11.3765
▁собираются	-11.3766
нен	-11.3768
▁мастерскои	-11.3768
▁жалобно	-11.3773
▁батюшки	-11.3774
▁отчаянии	-11.3774
▁чужим	-11.3777
▁изображения	-11.3777
▁особеннои	-11.3781
▁преимуществу	-11.3782
▁дурнои	-11.3783
▁ошибочно	-11.3783
ела	-11.3785
▁физ	-11.3787
▁бут	-11.3787
▁считала	-11.3788
▁полиция	-11.3789
▁лукаво	-11.379
▁доктором	-11.379
▁смут	-11.379
▁мыш	-11.3791
▁помещик	-11.3791
▁хозяином	-11.3792
▁беру	-11.3796
▁переговоров	-11.3797
▁заповед	-11.3798
▁утратил	-11.3798
▁воиском	-11.3799
▁усилива	-11.3801
▁эн	-11.3801
▁советского	-11.3802
ари	-11.3803
▁анри	-11.3803
▁товарищам	-11.3804
▁заглянул	-11.3807
▁крепче	-11.3807
▁рамках	-11.3807
▁брод	-11.3809
▁прот	-11.3809
руч	-11.3811
▁делаются	-11.3811
▁основным	-11.3811
▁самостоятелност	-11.3812
▁увидя	-11.3812
▁информацию	-11.3813
▁различия	-11.3813
▁дл	-11.3814
▁сокровище	-11.3814
▁постановлен	-11.3814
▁отвращение	-11.3815
стои	-11.3816
▁биографии	-11.3818
▁крестянина	-11.3819
▁шутит	-11.382
▁раул	-11.382
▁владет	-11.382
▁хитро	-11.3821
▁стихотвор	-11.3821
▁марина	-11.3822
▁лагере	-11.3822
▁грамот	-11.3823
▁доставлен	-11.3825
▁руководителя	-11.3825
▁единства	-11.3827
▁спасителя	-11.383
иде	-11.3831
▁показали	-11.3831
▁зад	-11.3832
▁прежн	-11.3833
подоб	-11.3833
▁крестом	-11.3833
ред	-11.3837
▁множеством	-11.3837
▁наличие	-11.384
бил	-11.3841
▁следа	-11.3842
▁поли	-11.3843
▁решению	-11.3843
▁бедности	-11.3845
▁строгим	-11.3847
шаго	-11.3848
▁слушали	-11.3851
▁оса	-11.3852
▁мила	-11.3853
▁выражает	-11.3853
▁романы	-11.3855
▁григорев	-11.3855
▁мешат	-11.3856
▁возвращатся	-11.3856
▁узел	-11.3859
кул	-11.3859
▁создает	-11.386
▁баталона	-11.3861
▁обоитис	-11.3861
▁кулаком	-11.3863
▁этаж	-11.3865
▁провал	-11.3865
▁грамоте	-11.3865
▁тревога	-11.3865
▁волнои	-11.3867
▁приезжал	-11.387
▁государству	-11.3871
▁светлые	-11.3873
▁имуществом	-11.3876
▁неделе	-11.3876
▁роланд	-11.3876
лена	-11.3877
▁исчезло	-11.3877
▁яз	-11.3877
▁бросает	-11.3877
▁тысяча	-11.388
▁представителем	-11.388
▁выражению	-11.3881
▁порта	-11.3883
▁монте	-11.3884
▁показыват	-11.3884
▁гражданских	-11.3884
▁карт	-11.3885
▁ликвидации	-11.3886
бет	-11.3887
▁рабство	-11.3888
▁установления	-11.3888
▁шепот	-11.3889
▁неболшие	-11.3889
зов	-11.389
▁шах	-11.3891
▁правах	-11.3892
▁це	-11.3893
▁мет	-11.3894
▁супруг	-11.3896
▁правыи	-11.3897
▁смелост	-11.3898
▁потеряла	-11.3899
▁обращал	-11.39
▁бедствия	-11.3903
▁глазки	-11.3904
▁рассказывали	-11.3904
▁открытого	-11.3905
▁разбоиников	-11.3905
▁очарован	-11.3906
▁родилас	-11.3907
ително	-11.3907
др	-11.3907
▁открывается	-11.3908
▁младенца	-11.3913
▁обединения	-11.3913
▁шоссе	-11.3914
▁царствование	-11.3914
▁врачеи	-11.3915
▁выходило	-11.3917
▁турции	-11.3918
▁богам	-11.3918
▁выполнит	-11.3919
▁кричала	-11.392
▁дарован	-11.3921
▁вспомнила	-11.3925
▁ангела	-11.3925
▁политическая	-11.3926
▁департамент	-11.3926
▁напишу	-11.3926
▁авос	-11.3927
▁поднимая	-11.3929
▁прося	-11.393
▁контору	-11.3931
▁ожидала	-11.3931
▁ручеи	-11.3933
▁верности	-11.3933
▁китаи	-11.3935
▁пароходе	-11.3938
▁ны	-11.3938
▁отомстит	-11.3939
▁искры	-11.394
▁пища	-11.3942
▁длинная	-11.3945
▁молчала	-11.3945
▁насилия	-11.3945
▁выговор	-11.3947
▁туалет	-11.3949
▁гроза	-11.3951
▁факта	-11.3952
▁чудовище	-11.3953
▁соседних	-11.3953
▁целыми	-11.3954
▁захват	-11.3957
▁леиб	-11.3958
▁очистит	-11.3959
▁досадно	-11.3959
▁существенно	-11.396
▁натуре	-11.3961
▁волтер	-11.3962
▁овладел	-11.3964
▁родного	-11.3965
▁проповеди	-11.3966
елнее	-11.3967
ирования	-11.3967
▁держала	-11.3972
▁принесет	-11.3973
▁замерз	-11.3974
▁революционнои	-11.3974
▁есенин	-11.3974
фу	-11.3975
▁конторе	-11.3977
▁бархат	-11.3977
▁последовало	-11.3977
▁колдун	-11.3978
▁валентин	-11.3978
▁подготовка	-11.3979
▁пункты	-11.3981
▁угрозы	-11.3982
▁несчастю	-11.3983
▁легк	-11.3985
▁доски	-11.3985
▁речю	-11.3985
▁левом	-11.3986
▁банкир	-11.3986
▁написала	-11.3986
▁николаевича	-11.3987
▁сологуб	-11.3987
▁владимирович	-11.3988
▁осмотрет	-11.399
▁поидут	-11.3993
крыл	-11.3993
▁дешево	-11.3994
▁кузмич	-11.3994
▁премер	-11.3996
▁естественным	-11.3997
▁препятств	-11.3998
▁технических	-11.3999
▁произошел	-11.3999
▁култура	-11.4
▁стремлении	-11.4
иров	-11.4
▁месяцы	-11.4001
▁учил	-11.4001
▁левин	-11.4003
▁поверил	-11.4005
▁дождем	-11.4005
▁истиннои	-11.4005
▁гневом	-11.4006
▁закрыв	-11.4007
инскои	-11.4007
▁оставлят	-11.4007
▁позиц	-11.4007
гля	-11.4008
▁влево	-11.4008
▁вывоз	-11.4008
▁псс	-11.4009
▁журналах	-11.4009
▁пастух	-11.401
▁повторит	-11.4011
нные	-11.4011
▁выборы	-11.4012
▁фор	-11.4013
▁редкост	-11.4013
▁денгах	-11.4013
дминистративного	-11.4014
▁нападен	-11.4015
▁произвели	-11.4015
▁легких	-11.4016
иха	-11.4017
▁напечатана	-11.4017
▁православнои	-11.4018
▁стрелков	-11.402
▁нравственнои	-11.4021
▁почты	-11.4021
▁страстю	-11.4022
▁выдал	-11.4023
▁бросили	-11.4024
▁животного	-11.4027
▁неболших	-11.4028
▁веселе	-11.4028
▁эдак	-11.4029
▁знач	-11.403
▁древнии	-11.4032
▁плит	-11.4033
▁шепчет	-11.4033
▁полудня	-11.4034
гад	-11.4034
▁готовит	-11.4034
▁долгов	-11.4035
▁кре	-11.4036
▁ужасная	-11.4036
▁встав	-11.4038
▁сравнению	-11.4039
▁сравнении	-11.4039
▁матвеи	-11.4039
▁издалека	-11.404
▁шорох	-11.404
▁международных	-11.4041
▁установление	-11.4041
▁маленкими	-11.4043
зар	-11.4043
▁подала	-11.4044
▁изложен	-11.4046
нская	-11.4046
▁обстановка	-11.4047
▁лежа	-11.4048
▁римляне	-11.4048
▁применяется	-11.405
▁жилищ	-11.405
▁определенных	-11.405
слу	-11.4051
▁приключен	-11.4054
▁далнеишее	-11.4055
зан	-11.4056
▁заступ	-11.4056
▁пламени	-11.4057
пл	-11.4058
▁социализм	-11.4058
▁паче	-11.4061
▁недурно	-11.4061
▁бледная	-11.4063
▁значителные	-11.4064
▁речка	-11.4068
▁лампы	-11.4069
еннаго	-11.407
▁читаю	-11.407
▁голоду	-11.4071
▁далек	-11.4072
▁оценит	-11.4074
▁резк	-11.4074
▁нетрудно	-11.4074
▁поддерживал	-11.4074
▁малчиков	-11.4074
▁бич	-11.4075
▁прост	-11.4075
очныи	-11.4075
▁мощ	-11.4075
▁горд	-11.4076
▁пером	-11.4077
▁громадное	-11.4077
▁принадлежали	-11.4078
▁судебные	-11.4078
▁уверит	-11.4078
▁палате	-11.4082
▁бан	-11.4082
▁посылат	-11.4083
▁ведомства	-11.4083
зр	-11.4083
▁немногие	-11.4084
ления	-11.4087
бери	-11.409
▁ропот	-11.409
▁теряет	-11.409
▁легенда	-11.409
▁соединение	-11.4094
▁инстинктивно	-11.4095
▁слепо	-11.4095
▁рая	-11.4096
▁ревел	-11.4099
▁сережа	-11.4101
▁подарки	-11.4101
щим	-11.4101
▁отвращен	-11.4102
▁выполнение	-11.4102
▁кер	-11.4103
▁владел	-11.4103
▁признавал	-11.4104
▁научнои	-11.4106
▁ще	-11.4107
▁стоявш	-11.4107
▁журналов	-11.4108
▁своиств	-11.4108
▁занимаются	-11.411
▁простится	-11.411
▁посетителеи	-11.4111
▁каза	-11.4113
▁генриха	-11.4113
▁поколен	-11.4113
▁монахов	-11.4115
▁ехала	-11.4118
▁положению	-11.4118
▁рощи	-11.4118
▁приговора	-11.4119
▁курер	-11.412
▁отравлен	-11.412
▁сапог	-11.4121
гада	-11.4121
▁пин	-11.4125
▁каз	-11.4126
▁установлены	-11.4126
▁исползование	-11.4128
▁подождат	-11.4128
▁наружности	-11.4132
▁рукам	-11.4132
▁наследника	-11.4135
▁наталя	-11.4135
рах	-11.4139
▁построит	-11.414
▁сумм	-11.4141
▁создании	-11.4141
▁союзе	-11.4143
▁привезли	-11.4143
▁убиват	-11.4144
▁отдам	-11.4145
▁осуществлении	-11.4146
▁родится	-11.4148
меня	-11.4149
▁трагед	-11.4149
▁воспитател	-11.4152
▁насилно	-11.4153
▁доказателством	-11.4157
▁волнении	-11.4158
▁храброст	-11.4161
▁осуществлен	-11.4163
▁занимали	-11.4166
▁императрице	-11.4166
▁грамота	-11.4168
▁сынов	-11.4169
▁пустын	-11.4169
▁гостинице	-11.4169
▁прощен	-11.4169
▁ощущение	-11.4173
ег	-11.4173
▁заняли	-11.4174
▁невы	-11.4174
▁массе	-11.4176
▁малеишаго	-11.4177
▁целоват	-11.4177
▁работах	-11.4179
спор	-11.418
▁славно	-11.418
▁взаимно	-11.4181
▁негр	-11.4182
▁чуж	-11.4183
▁экономики	-11.4183
▁феврале	-11.4183
▁отнести	-11.4186
▁наз	-11.4186
▁виноваты	-11.4186
▁помни	-11.4188
▁андреевна	-11.4188
▁западного	-11.4188
▁девушкои	-11.4189
▁рассматриват	-11.419
▁известная	-11.419
▁перевести	-11.4191
▁чет	-11.4192
▁получали	-11.4192
▁желтыи	-11.4192
▁эфир	-11.4193
мп	-11.4194
▁намерева	-11.4195
▁апрел	-11.4195
▁криками	-11.4196
сыл	-11.4196
▁очутилис	-11.4197
▁замечая	-11.4198
▁водку	-11.42
▁каса	-11.4201
▁сохранилос	-11.4201
▁городок	-11.4201
▁хода	-11.4202
▁дрожал	-11.4203
▁летописи	-11.4203
ира	-11.4206
▁трагедия	-11.4207
▁преступ	-11.4207
▁сады	-11.421
▁условием	-11.4211
▁отражен	-11.4211
▁делаете	-11.4211
▁забуду	-11.4212
▁встречалис	-11.4212
▁заима	-11.4213
▁служила	-11.4214
▁приветливо	-11.4214
▁стихами	-11.4214
чика	-11.4215
▁греб	-11.4216
▁ярче	-11.4218
▁резултатам	-11.4221
▁последнему	-11.4222
▁листы	-11.4223
▁засмеялас	-11.4224
▁ры	-11.4225
▁молвил	-11.4226
▁привязан	-11.4226
▁коим	-11.4226
▁нелепо	-11.4227
еру	-11.4229
▁помощника	-11.423
чиков	-11.4231
слов	-11.4231
▁соломон	-11.4232
▁столик	-11.4234
▁франсуа	-11.4238
▁вправо	-11.4238
▁штука	-11.4238
▁владелец	-11.4239
▁слушателеи	-11.4239
▁очаг	-11.424
▁отделными	-11.4241
▁хозяину	-11.4244
▁процента	-11.4245
▁юлия	-11.4245
▁нерв	-11.4248
▁предполагат	-11.4249
▁ударит	-11.425
▁ярким	-11.4251
▁доложил	-11.4251
▁портреты	-11.4252
▁искаго	-11.4255
▁смертелно	-11.4256
▁запретил	-11.4257
▁мистеру	-11.4258
▁сиятелство	-11.4258
атор	-11.4259
▁вождя	-11.426
▁сознании	-11.4261
▁англию	-11.4261
юр	-11.4264
▁пунктах	-11.4267
▁депутат	-11.4267
▁тесн	-11.4268
▁вася	-11.4269
овом	-11.4271
▁заседан	-11.4272
▁остаток	-11.4272
▁вскрикнула	-11.4272
▁экономии	-11.4273
▁руководил	-11.4275
▁завтрака	-11.4278
▁обнимаю	-11.4279
▁магнит	-11.4279
▁берез	-11.4279
▁ветру	-11.4282
▁крупныи	-11.4283
▁унижен	-11.4284
▁хранится	-11.4284
▁ростовска	-11.4285
▁широкую	-11.4287
▁мертвым	-11.4288
▁истинного	-11.429
▁отходит	-11.4291
▁генералу	-11.4291
▁левую	-11.4292
▁королевскои	-11.4292
▁перу	-11.4292
▁молот	-11.4293
▁решилис	-11.4294
чина	-11.4295
▁законе	-11.4296
▁тонко	-11.4296
низ	-11.4297
▁наступит	-11.4298
▁гражданства	-11.4298
▁уплаты	-11.4298
▁французские	-11.4298
▁опасения	-11.4299
▁рту	-11.43
▁обезян	-11.4302
▁естли	-11.4302
▁открыты	-11.4303
▁ясное	-11.4303
▁вносит	-11.4304
▁уму	-11.4304
▁скорост	-11.4305
▁температура	-11.4306
сер	-11.4307
▁народная	-11.4308
▁ищут	-11.4308
▁киеве	-11.4309
▁юж	-11.4309
▁версты	-11.4311
▁литературная	-11.4312
▁традиции	-11.4312
▁велела	-11.4312
▁чистого	-11.4316
▁ода	-11.4317
▁личным	-11.4318
▁спешил	-11.432
▁твор	-11.432
▁кип	-11.432
▁сумеет	-11.4321
▁смертнои	-11.4321
▁выступит	-11.4322
▁пояса	-11.4323
▁испуга	-11.4323
▁лвович	-11.4324
▁кожу	-11.4324
▁бала	-11.4325
▁комнатах	-11.4326
▁получение	-11.4326
▁желез	-11.4326
▁обеду	-11.4326
▁маленком	-11.4327
▁гордон	-11.4328
▁слышится	-11.4329
аты	-11.4329
▁татары	-11.433
▁слыша	-11.433
числ	-11.4331
▁производстве	-11.4331
▁доложит	-11.4332
▁дворянство	-11.4334
▁котел	-11.4334
▁анекдот	-11.4334
▁документации	-11.4335
ап	-11.4337
ковского	-11.4337
▁сотрудников	-11.4337
иком	-11.4338
▁ток	-11.4338
нскои	-11.4339
▁выводит	-11.4339
▁сыт	-11.434
▁зелени	-11.434
▁французская	-11.434
▁зрителеи	-11.4341
▁рассмотрет	-11.4341
▁вит	-11.4341
▁централного	-11.4343
онов	-11.4344
▁памятники	-11.4344
▁утес	-11.4344
▁маркса	-11.4344
▁уз	-11.4345
▁образец	-11.4345
▁жесток	-11.4346
▁реакции	-11.4346
▁огромным	-11.4346
▁думу	-11.4346
▁подумаи	-11.4347
▁слышалис	-11.4347
▁указу	-11.4349
▁изменил	-11.4349
▁судбои	-11.435
▁экз	-11.4351
овская	-11.4351
бес	-11.4352
▁хитрост	-11.4353
ывая	-11.4353
▁доводы	-11.4355
▁изволите	-11.4358
▁подписю	-11.4358
▁паша	-11.436
▁покоиныи	-11.4362
▁пугачев	-11.4363
▁бока	-11.4364
▁значителную	-11.4364
ливает	-11.4365
▁крылца	-11.4365
▁организацию	-11.4366
▁убежал	-11.4366
▁чиновника	-11.4367
▁существом	-11.4368
▁надписю	-11.4368
▁облегчит	-11.4369
▁узнаеш	-11.4369
▁возмем	-11.437
▁гур	-11.4372
▁начинали	-11.4373
▁притч	-11.4376
▁староста	-11.4376
▁уголок	-11.4376
▁гроз	-11.4377
▁присутствующих	-11.4377
▁короленко	-11.4378
▁белинского	-11.4378
▁серия	-11.4379
еву	-11.4379
▁красивые	-11.4379
▁склонен	-11.438
леч	-11.4381
▁ничут	-11.4382
▁честным	-11.4383
еры	-11.4384
▁оборудования	-11.4385
рб	-11.4388
▁перенос	-11.4389
▁дошла	-11.439
▁заставлял	-11.4391
▁завоеван	-11.4392
▁возник	-11.4394
оны	-11.4394
▁чек	-11.4394
▁послушат	-11.4397
▁помогает	-11.4398
▁одобрен	-11.4398
душ	-11.4399
▁таин	-11.4399
▁энгелс	-11.4399
▁экспедиц	-11.44
▁жестокост	-11.44
▁тряс	-11.4401
▁смиренно	-11.4401
▁египет	-11.4402
▁приема	-11.4404
▁обл	-11.4404
▁господином	-11.4405
▁цезаря	-11.4405
нутся	-11.4406
ирование	-11.4408
▁усталости	-11.4408
▁музыкант	-11.4409
▁соединении	-11.4409
▁обстановки	-11.4411
▁скоп	-11.4412
▁видах	-11.4412
веден	-11.4416
▁осуществит	-11.4421
лива	-11.4421
▁открывает	-11.4423
▁гладко	-11.4424
▁морские	-11.4425
▁приказала	-11.4426
▁горизонт	-11.4426
▁вызвали	-11.4428
▁исполнял	-11.4428
▁сцен	-11.4431
▁спокоинои	-11.4431
▁распространения	-11.4433
▁определении	-11.4433
▁соответствующие	-11.4435
▁известную	-11.4436
▁перенесен	-11.4436
▁доказал	-11.4436
▁правление	-11.4438
▁поимат	-11.444
ску	-11.4441
▁интересам	-11.4441
▁останавливаяс	-11.4442
▁муравев	-11.4442
▁инструмент	-11.4443
▁желают	-11.4444
▁настоятел	-11.4446
▁декабр	-11.4447
мах	-11.4447
▁наследства	-11.4447
прашива	-11.4448
▁шат	-11.445
▁углов	-11.445
▁крон	-11.4451
▁ножом	-11.4452
▁противном	-11.4452
▁похищен	-11.4452
▁плачу	-11.4452
▁раскрыл	-11.4455
▁близост	-11.4455
▁короче	-11.4456
▁речки	-11.4456
▁старшим	-11.4456
▁началу	-11.4458
▁допущен	-11.4459
▁принципа	-11.4459
▁жанна	-11.446
▁кувшин	-11.446
▁болная	-11.4461
▁нравственно	-11.4463
▁гун	-11.4463
▁ступаите	-11.4464
▁община	-11.4467
▁джона	-11.4467
▁поперек	-11.4467
▁госпожи	-11.4467
▁улыба	-11.4467
▁легла	-11.4468
▁отделным	-11.4469
▁начинат	-11.4469
▁шкаф	-11.447
▁оправдат	-11.447
▁принимается	-11.4473
▁столетии	-11.4474
▁подобнои	-11.4474
▁пустился	-11.4477
▁марс	-11.4478
▁утоп	-11.4478
▁никон	-11.4479
▁январ	-11.4479
▁занятие	-11.4479
▁алфред	-11.448
▁продават	-11.4482
▁занималис	-11.4482
▁дяде	-11.4482
▁относилис	-11.4486
▁произвело	-11.4486
▁предмете	-11.4488
▁топот	-11.4489
▁живы	-11.449
▁замет	-11.449
▁горел	-11.449
▁восхищен	-11.4491
▁концы	-11.4492
▁реш	-11.4492
▁ярости	-11.4494
▁любимыи	-11.4496
▁важнее	-11.4496
▁карамзина	-11.4497
▁неделя	-11.4498
▁вине	-11.4498
▁сирии	-11.45
▁удивление	-11.4501
▁ценит	-11.4501
▁выстрела	-11.4501
▁встали	-11.4501
▁доли	-11.4502
▁определяются	-11.4502
▁железная	-11.4503
▁казач	-11.4503
▁гел	-11.4503
▁удивленно	-11.4504
▁умела	-11.4505
▁фантаз	-11.4506
▁турецкои	-11.4507
▁индеицев	-11.4509
▁дем	-11.451
▁опустилас	-11.451
▁люба	-11.451
▁советских	-11.4511
стрел	-11.4512
▁подтвержден	-11.4512
▁губах	-11.4512
▁валтер	-11.4513
▁заведении	-11.4514
▁пд	-11.4514
▁внести	-11.4515
▁октябр	-11.4516
▁лермонтова	-11.4516
▁приговорен	-11.4516
▁неподалеку	-11.4516
▁автору	-11.4517
▁отвечаю	-11.4518
▁третих	-11.4519
▁рекои	-11.4519
ическими	-11.4522
▁ката	-11.4523
▁огромных	-11.4524
▁нежности	-11.4525
▁завел	-11.4527
▁веселые	-11.4528
▁позвол	-11.4529
▁сооружении	-11.453
вис	-11.4532
▁рассматривал	-11.4534
▁капитализма	-11.4536
▁ученого	-11.4536
▁повелител	-11.4537
▁цифры	-11.4538
▁рынке	-11.4539
▁следовал	-11.4541
▁лондона	-11.4543
обра	-11.4543
▁уиду	-11.4543
▁твар	-11.4545
▁рассказала	-11.4546
▁ценил	-11.4547
▁эмма	-11.4548
▁другою	-11.4548
оты	-11.4549
▁молчания	-11.455
▁струн	-11.455
▁ружеи	-11.4551
▁судопроизводств	-11.4552
▁болна	-11.4553
▁расколников	-11.4554
▁лу	-11.4555
▁бывшие	-11.4556
▁хохот	-11.4557
▁ужаснои	-11.4557
▁глядели	-11.4558
нил	-11.4558
▁обычнои	-11.4559
▁передонов	-11.4559
▁условие	-11.4559
▁наполнен	-11.4559
▁происходят	-11.456
▁командовал	-11.456
▁поимет	-11.4561
▁входя	-11.4562
▁раздавалис	-11.4562
▁ценности	-11.4564
▁дружбе	-11.4566
▁обил	-11.4567
▁коне	-11.4567
▁таинственно	-11.4567
лова	-11.4568
вир	-11.4569
▁сообщал	-11.4569
▁гражданам	-11.4569
▁эхо	-11.457
▁кузмин	-11.4571
▁серезныи	-11.4572
▁селскохозяиств	-11.4573
▁донес	-11.4573
▁соответствующим	-11.4575
▁собира	-11.4576
мед	-11.4576
▁развалины	-11.4579
▁женских	-11.4579
▁мешало	-11.4581
▁драгун	-11.4582
▁спо	-11.4583
▁верои	-11.4583
▁оставшис	-11.4583
▁пребывание	-11.4584
▁рва	-11.4584
шат	-11.4584
▁балкон	-11.4584
▁обучения	-11.4584
▁наперед	-11.4587
ящии	-11.4588
▁нести	-11.4588
▁стремился	-11.4588
▁корни	-11.4589
▁физическои	-11.459
▁утверждения	-11.4592
▁комендант	-11.4592
▁поднима	-11.4593
▁душевнои	-11.4596
▁стрелковои	-11.4598
▁придумат	-11.4599
▁молн	-11.4599
вая	-11.4601
▁цк	-11.4602
▁равным	-11.4602
▁одетыи	-11.4603
▁квадрат	-11.4604
▁владение	-11.4605
▁харков	-11.4606
▁горами	-11.4607
▁отпустил	-11.4608
▁дядю	-11.4608
▁волну	-11.461
▁поиски	-11.461
▁приказу	-11.461
▁небеса	-11.461
▁напечатаны	-11.461
ограф	-11.4611
▁иностраннои	-11.4611
▁классы	-11.4612
очные	-11.4614
▁привезен	-11.4615
▁секретарем	-11.4615
▁чересчур	-11.4616
▁становилас	-11.4617
▁поступает	-11.4617
▁применяются	-11.462
▁пруссии	-11.462
▁раскол	-11.4622
▁произведениях	-11.4623
▁способа	-11.4624
авшим	-11.4625
▁восточных	-11.4625
▁изданию	-11.4628
▁философов	-11.4629
▁способна	-11.4631
▁четверг	-11.4632
▁мя	-11.4633
▁высокими	-11.4634
▁гир	-11.4636
▁обретен	-11.4638
▁обычным	-11.4639
щему	-11.4639
▁герм	-11.464
▁запасы	-11.464
▁торгов	-11.4641
▁тратит	-11.4641
▁указывал	-11.4645
▁ево	-11.4646
▁длинную	-11.4646
шт	-11.4646
▁жалоба	-11.4647
▁обращении	-11.4648
▁тре	-11.4648
▁веселая	-11.4648
▁свободных	-11.4649
▁зав	-11.465
▁длинным	-11.4652
▁аса	-11.4652
▁выбран	-11.4652
▁медведя	-11.4653
щика	-11.4656
▁воевод	-11.4656
▁пеи	-11.4656
▁доктору	-11.4657
▁металл	-11.4659
▁блаженство	-11.4659
▁маневр	-11.4659
▁балет	-11.4661
▁наступлен	-11.4661
▁пу	-11.4663
▁коллег	-11.4663
▁областях	-11.4663
▁симпат	-11.4664
▁морозов	-11.4664
▁ленинград	-11.4665
▁георгии	-11.4666
▁несчастя	-11.4667
▁экзамен	-11.4668
ющему	-11.4669
▁ясен	-11.4669
▁шляпе	-11.467
▁критике	-11.4672
▁языку	-11.4672
▁несли	-11.4672
▁ребят	-11.4674
▁константинович	-11.4677
▁вдал	-11.4678
глас	-11.4678
▁заключению	-11.4679
▁высота	-11.468
▁склада	-11.468
▁повели	-11.4682
▁тревоги	-11.4682
▁испытания	-11.4682
▁бра	-11.4682
▁приспособлен	-11.4683
▁чистое	-11.4684
▁эмил	-11.4684
▁рабоч	-11.4685
▁болит	-11.4687
▁индеицы	-11.4688
▁великолепно	-11.4688
▁спят	-11.4688
▁охотников	-11.4689
▁чая	-11.4689
▁назначенныи	-11.4692
▁бесполезно	-11.4693
▁фанни	-11.4693
▁отступил	-11.4695
▁окт	-11.4696
реи	-11.4696
▁отдали	-11.4697
▁публично	-11.4697
▁палата	-11.4697
▁храни	-11.4698
▁формах	-11.4699
▁схватив	-11.47
▁пролит	-11.4701
▁гнил	-11.4701
▁освободится	-11.4702
▁вдобавок	-11.4702
▁старичок	-11.4702
▁селения	-11.4703
▁приказанию	-11.4703
▁гв	-11.4704
▁пуля	-11.4705
▁безконечно	-11.4705
вши	-11.4706
▁предател	-11.4707
▁границах	-11.4709
лем	-11.4711
▁нравственное	-11.4711
▁употребляется	-11.4712
▁подлинник	-11.4712
▁хвалит	-11.4713
▁гавани	-11.4713
▁чаикин	-11.4716
▁серг	-11.4717
▁вопл	-11.4718
▁глубокую	-11.4718
▁домашних	-11.4718
▁кончилас	-11.4719
▁поляки	-11.472
▁мср	-11.4721
▁страхе	-11.4721
▁договором	-11.4722
▁статями	-11.4724
▁палцев	-11.4725
▁развитием	-11.4726
▁чертами	-11.4726
метр	-11.4728
▁дивизион	-11.473
мин	-11.473
▁баирона	-11.473
очная	-11.4731
▁бодро	-11.4731
▁шелест	-11.4731
▁метр	-11.4732
▁святое	-11.4733
▁владении	-11.4733
инск	-11.4733
хан	-11.4733
▁желанием	-11.4733
▁холодная	-11.4733
▁смеет	-11.4738
▁отыскал	-11.4738
енное	-11.474
▁иуда	-11.474
ивают	-11.4741
▁смертныи	-11.4742
▁сжал	-11.4742
▁петух	-11.4742
▁сделана	-11.4743
▁гостиницы	-11.4744
▁образует	-11.4748
▁вины	-11.4749
▁основа	-11.475
▁отдават	-11.4752
▁куп	-11.4753
▁беду	-11.4755
▁жертвои	-11.4755
▁карандашом	-11.4757
дох	-11.4759
▁советника	-11.4761
▁потребления	-11.4761
▁болота	-11.4762
▁прикажете	-11.4762
▁четырнадцат	-11.4763
▁долги	-11.4763
▁жаловался	-11.4763
▁болным	-11.4763
▁показала	-11.4764
▁вернус	-11.4765
▁посредине	-11.4765
▁странник	-11.4765
▁ствол	-11.4767
▁выбират	-11.4767
▁занялся	-11.4768
▁осел	-11.4768
▁роковои	-11.477
▁стиля	-11.4771
▁поцеловала	-11.4772
▁тяжелую	-11.4772
▁лора	-11.4774
▁рисунок	-11.4774
▁полезным	-11.4775
▁рапорт	-11.4777
▁устанавливаются	-11.4778
▁поляр	-11.4779
▁повелел	-11.4779
ума	-11.4782
▁сочувств	-11.4783
▁северянин	-11.4784
▁разнообразных	-11.4784
▁древне	-11.4784
▁прекрасного	-11.4786
▁умоляю	-11.4787
▁сани	-11.4788
▁бах	-11.4789
▁контраст	-11.4789
▁прислуга	-11.4789
▁понравилос	-11.4789
▁отечественных	-11.479
▁северных	-11.479
▁анну	-11.479
▁лавке	-11.4792
▁державы	-11.4793
▁божию	-11.4793
▁чугун	-11.4794
▁отрасли	-11.4795
емы	-11.4795
▁принадлежности	-11.4796
▁отдает	-11.4796
цеп	-11.4796
▁отвечая	-11.4796
▁внук	-11.4798
▁соображения	-11.4799
кус	-11.4799
▁еси	-11.48
▁богини	-11.4804
▁обещает	-11.4804
▁механизм	-11.4804
▁дворник	-11.4804
▁приезде	-11.4804
▁отнес	-11.4806
▁смотрител	-11.4807
▁отличалис	-11.4807
▁кавказе	-11.4807
▁пепел	-11.4808
▁дякон	-11.4809
▁алексеевна	-11.4809
▁плата	-11.4809
▁сохранен	-11.4809
меистер	-11.481
▁работами	-11.481
▁исключения	-11.481
▁хром	-11.4811
▁любител	-11.4811
стоя	-11.4811
▁теню	-11.4812
▁хвостом	-11.4813
▁труду	-11.4814
нке	-11.4815
▁возвраща	-11.4816
▁любимым	-11.4817
сту	-11.4818
▁кра	-11.4819
▁фланг	-11.482
▁описал	-11.482
▁леипциг	-11.4822
▁пещеры	-11.4822
▁почта	-11.4823
▁необ	-11.4825
▁интернет	-11.4826
▁заряд	-11.4826
▁революционного	-11.483
▁отрицат	-11.483
▁тоне	-11.4831
▁поглощен	-11.4833
▁горем	-11.4834
▁предупредил	-11.4835
▁утвердил	-11.4835
▁сооружения	-11.4835
▁сознавая	-11.4836
▁планет	-11.4837
▁лишился	-11.4839
▁перестала	-11.484
▁позват	-11.484
▁пруд	-11.4841
вшемся	-11.4841
▁безмолв	-11.4843
▁демократ	-11.4843
▁садитес	-11.4844
▁двигатся	-11.4845
▁прасковя	-11.4847
▁выскочил	-11.4848
▁выслушат	-11.4848
▁хватало	-11.4849
▁даря	-11.4849
▁обморок	-11.4849
▁рукописеи	-11.485
мира	-11.485
див	-11.4852
▁аккуратно	-11.4852
▁видение	-11.4853
▁послала	-11.4855
▁своиственно	-11.4855
▁услугам	-11.4856
▁кирилл	-11.4856
▁дикои	-11.4856
▁долгу	-11.4857
▁бется	-11.4859
▁раствор	-11.4859
▁экс	-11.4859
▁ирина	-11.486
▁лог	-11.486
▁гаи	-11.4861
▁сопротивления	-11.4861
▁выдержат	-11.4862
▁теплыи	-11.4865
▁называемых	-11.4865
▁грохот	-11.4865
▁тоскои	-11.4867
▁верте	-11.4867
▁колца	-11.4867
▁заклад	-11.4868
▁луг	-11.4869
▁улыбки	-11.4869
▁понеже	-11.4869
▁провела	-11.487
▁отездом	-11.4871
▁леихтвеис	-11.4871
▁тянется	-11.4871
▁входили	-11.4872
▁северныи	-11.4873
▁прочими	-11.4873
▁мосту	-11.4875
▁россииского	-11.4876
▁маменка	-11.4877
▁французск	-11.4877
▁губернатором	-11.4878
▁лип	-11.488
▁приблизился	-11.4882
▁шо	-11.4882
▁мертвыи	-11.4883
▁ревности	-11.4883
ировали	-11.4884
▁руч	-11.4884
▁идеала	-11.4885
▁открытои	-11.4886
▁отходов	-11.4887
▁удален	-11.4887
▁плат	-11.4888
▁отступит	-11.489
▁субект	-11.4891
▁глубокие	-11.4891
▁управлял	-11.4892
▁почту	-11.4893
▁лов	-11.4894
▁пыталис	-11.4894
▁награды	-11.4894
▁англииских	-11.4895
▁религиозного	-11.4895
▁поручение	-11.4895
▁дрожит	-11.4896
▁разрешил	-11.4896
▁округе	-11.4896
▁подготовке	-11.4899
▁глазу	-11.4899
▁служанка	-11.4899
▁преимущество	-11.4899
▁опасатся	-11.4899
▁митрополита	-11.49
▁христиане	-11.49
▁обречен	-11.4903
▁фамилию	-11.4904
▁джул	-11.4905
▁мужественно	-11.4905
▁охоте	-11.4905
▁вспоминат	-11.4906
▁задыхаяс	-11.4907
▁представлялос	-11.4908
▁красавицы	-11.4909
▁серебром	-11.4912
▁побледнел	-11.4913
▁полноте	-11.4913
▁осмелился	-11.4914
▁довести	-11.4914
▁успокоится	-11.4914
▁живописец	-11.4915
▁седла	-11.4916
▁тов	-11.4916
▁теряя	-11.4916
▁астроном	-11.4918
▁начинала	-11.4918
▁леонардо	-11.492
▁опор	-11.492
▁египта	-11.4921
▁представ	-11.4922
▁настоящие	-11.4923
▁наивно	-11.4924
▁злоба	-11.4924
▁федоровна	-11.4925
▁закрыты	-11.4927
▁полагает	-11.4927
▁правилами	-11.4928
▁платона	-11.4928
▁распут	-11.493
▁увеличит	-11.4931
▁попался	-11.4931
▁гегел	-11.4933
▁стенам	-11.4934
▁траур	-11.4935
▁богато	-11.4935
▁би	-11.4936
▁кончины	-11.4936
▁деревянныи	-11.4936
▁отдала	-11.4936
▁святую	-11.4937
▁нимало	-11.4938
▁греческих	-11.4938
ено	-11.494
▁плет	-11.4941
▁афон	-11.4941
▁перво	-11.4942
▁указание	-11.4942
▁абсолютно	-11.4942
▁возвышен	-11.4943
▁рана	-11.4944
▁мери	-11.4945
▁печалныи	-11.4945
▁преследоват	-11.4945
рик	-11.4945
▁неизвестныи	-11.4946
▁очки	-11.4947
истои	-11.4947
▁громад	-11.4948
▁кумир	-11.4949
▁запрос	-11.495
▁архиве	-11.4951
▁линию	-11.4952
▁изменилос	-11.4952
▁ше	-11.4952
▁грез	-11.4953
▁зевс	-11.4956
▁гбл	-11.4957
чал	-11.4959
▁подозрително	-11.4959
▁постояннои	-11.496
▁производил	-11.4962
▁богатым	-11.4962
▁программа	-11.4963
▁взвод	-11.4964
▁исполнител	-11.4964
▁вашими	-11.4964
▁березов	-11.4964
вяз	-11.4965
▁рыж	-11.4966
▁придя	-11.4966
▁страницах	-11.4966
▁целует	-11.4968
▁чистым	-11.4968
▁таинственныи	-11.4968
плав	-11.4969
▁испан	-11.4971
▁молился	-11.4971
▁антуан	-11.4973
▁боико	-11.4974
▁участием	-11.4974
▁копеики	-11.4975
▁обеим	-11.4976
▁порок	-11.4976
▁ницше	-11.4977
▁считался	-11.4977
▁темную	-11.4977
▁продолжалас	-11.4977
▁рукава	-11.498
▁земных	-11.498
▁впадает	-11.4981
▁состояло	-11.4981
▁приняло	-11.4983
▁брали	-11.4984
▁дикии	-11.4985
▁ткан	-11.4985
▁утешит	-11.4986
▁вторник	-11.4986
▁мудр	-11.4989
▁козлов	-11.4992
▁пустое	-11.4992
▁возмущен	-11.4993
▁спрятал	-11.4994
▁необходима	-11.4996
▁сделаи	-11.4997
гран	-11.4997
бит	-11.4999
▁чины	-11.4999
▁ощущения	-11.5
▁наружност	-11.5
▁страннои	-11.5
▁канала	-11.5004
▁тме	-11.5008
▁завист	-11.5009
▁принимала	-11.5009
▁убедително	-11.5009
▁диким	-11.501
▁указател	-11.5011
▁постоянное	-11.5013
▁классе	-11.5013
еп	-11.5014
▁слышался	-11.5015
▁божество	-11.5016
▁напомнит	-11.5017
▁верен	-11.5017
▁мех	-11.5019
▁опера	-11.5022
▁редактора	-11.5023
люб	-11.5024
▁губернатору	-11.5024
▁разбудил	-11.5024
▁хребта	-11.5024
▁закончен	-11.5024
▁вскочила	-11.5025
▁обещала	-11.5026
▁безумно	-11.5027
▁левыи	-11.5027
▁тонкии	-11.5028
▁росла	-11.5031
▁оре	-11.5032
▁всеобщее	-11.5032
рил	-11.5033
▁отечеству	-11.5034
▁зерна	-11.5034
▁вписано	-11.5035
▁уходя	-11.5035
▁качество	-11.5035
▁ветвеи	-11.5036
▁пех	-11.5039
▁тревож	-11.5039
▁оставаяс	-11.5039
▁участки	-11.5044
▁велмож	-11.5046
▁легкие	-11.5046
▁пределами	-11.5046
▁погоду	-11.5047
▁упоминает	-11.5048
▁здрав	-11.5048
ируют	-11.5048
▁страхово	-11.5049
▁поимал	-11.5049
▁странице	-11.5052
▁поручено	-11.5053
▁поехат	-11.5055
▁коем	-11.5055
▁горячеи	-11.5056
▁олимп	-11.5056
▁организациями	-11.5057
▁украинскои	-11.5058
▁телеграмма	-11.506
▁недоволен	-11.5062
▁уполномоченным	-11.5062
▁песе	-11.5062
▁служивш	-11.5063
▁чувствами	-11.5065
▁дун	-11.5065
▁заходил	-11.5066
ившеися	-11.5066
анд	-11.5067
▁противников	-11.5068
▁собеседник	-11.5069
▁оказывал	-11.5071
▁боге	-11.5073
▁сражение	-11.5073
▁обект	-11.5075
▁стиле	-11.5075
▁художники	-11.5075
▁попрежнему	-11.5077
▁сур	-11.5077
▁подчас	-11.5078
▁нанес	-11.5078
▁историко	-11.5079
▁тишины	-11.5079
▁предшественник	-11.5081
▁варвар	-11.5082
▁битве	-11.5082
▁поставлены	-11.5084
▁памятников	-11.5084
▁побежала	-11.5085
▁любовник	-11.5085
нг	-11.5086
▁размышлен	-11.5087
утся	-11.5087
▁повторят	-11.5087
▁рул	-11.509
▁помогал	-11.509
▁высоком	-11.5091
▁подозревал	-11.5091
линг	-11.5091
▁последоват	-11.5092
▁колено	-11.5092
▁крылями	-11.5093
▁волка	-11.5093
▁канон	-11.5094
▁колоколчик	-11.5096
▁принадлежала	-11.5097
▁ключи	-11.5098
▁юрист	-11.5101
▁министру	-11.5103
▁капитану	-11.5103
▁ухода	-11.5104
▁капиталного	-11.5105
▁окне	-11.5105
▁одинок	-11.5107
▁наидем	-11.5107
▁тесс	-11.5108
▁длину	-11.5108
▁соединит	-11.511
▁обыск	-11.5111
нте	-11.5111
▁покупат	-11.5113
евского	-11.5114
▁усталост	-11.5115
▁германия	-11.5116
▁разорвал	-11.5116
▁последовател	-11.5118
▁пиши	-11.5119
▁определил	-11.512
▁вечное	-11.5121
▁поместил	-11.5121
▁пятсот	-11.5122
▁туго	-11.5122
▁расстатся	-11.5122
▁апостола	-11.5125
▁излишне	-11.5126
▁клятву	-11.5126
▁направилис	-11.5127
▁заведения	-11.5127
▁советую	-11.5128
▁нравственного	-11.5129
▁редакц	-11.5129
▁отмене	-11.5129
▁пожалован	-11.5135
▁аркадии	-11.514
ившие	-11.514
▁шерст	-11.5141
▁гряд	-11.5141
▁вставая	-11.5141
▁сравнит	-11.5144
▁подоб	-11.5145
▁крестянскои	-11.5145
▁наслед	-11.5145
▁мант	-11.5145
▁закат	-11.5146
▁осип	-11.5147
▁верили	-11.5147
▁долои	-11.5147
▁книгои	-11.5148
▁нераз	-11.5149
▁влад	-11.5149
▁охотника	-11.515
▁осуществлят	-11.5151
▁совестно	-11.5151
▁чулков	-11.5152
▁неболшим	-11.5152
▁обявила	-11.5158
▁следовател	-11.5158
▁бывшеи	-11.5158
▁сени	-11.5159
печат	-11.5161
▁плену	-11.5162
▁желателно	-11.5162
▁кош	-11.5163
▁молчаливо	-11.5163
▁злых	-11.5164
▁застав	-11.5164
▁неясно	-11.5165
▁практики	-11.5166
▁сторожа	-11.5167
▁горизонте	-11.5167
▁бытие	-11.5168
▁николаю	-11.5168
никами	-11.517
▁острыи	-11.517
ере	-11.517
▁штрафа	-11.5171
▁юношу	-11.5172
▁пестр	-11.5173
▁поражение	-11.5173
шихся	-11.5174
▁ланд	-11.5175
▁подлинно	-11.5176
▁аукциона	-11.5176
▁санитарно	-11.5177
▁карту	-11.5178
▁кг	-11.5179
▁благоразум	-11.518
▁осо	-11.5181
▁хаос	-11.5182
чив	-11.5182
▁зорко	-11.5182
▁слышен	-11.5184
▁евангелия	-11.5185
▁читаем	-11.5187
▁представителями	-11.5189
▁родным	-11.5189
▁стоны	-11.519
▁развернул	-11.5191
▁бон	-11.5191
▁посещал	-11.5191
▁кочев	-11.5193
▁мотивы	-11.5193
▁чувствуется	-11.5193
▁оканчива	-11.5195
▁проявлен	-11.5195
▁условиям	-11.5195
▁разряд	-11.5197
▁оставим	-11.5198
▁бегушев	-11.5198
▁возражал	-11.52
▁занимают	-11.5201
▁всадник	-11.5201
▁споров	-11.5202
▁управлении	-11.5202
▁подозрение	-11.5203
▁герцогиня	-11.5205
▁бук	-11.5205
▁подряд	-11.5205
▁датируется	-11.5206
▁кошмар	-11.5206
▁холма	-11.5206
▁сожжен	-11.5207
▁погас	-11.5208
▁трудности	-11.5209
▁славои	-11.5209
▁произ	-11.5209
▁открылас	-11.521
▁социализма	-11.521
▁томас	-11.521
▁жалобу	-11.5211
мент	-11.5212
▁решителныи	-11.5212
▁рассчитыват	-11.5212
▁ленина	-11.5213
▁шестнадцат	-11.5216
▁тумане	-11.5217
▁чужого	-11.5217
▁заболел	-11.5217
▁придает	-11.5217
▁кулак	-11.5217
▁соседи	-11.5218
▁закричала	-11.5219
▁реин	-11.5219
▁посторонних	-11.5221
▁тюрма	-11.5221
▁небесныи	-11.5223
вато	-11.5223
▁солон	-11.5225
▁насил	-11.5226
▁воеводы	-11.5227
▁севастополя	-11.5228
▁предоставлен	-11.5229
▁пробежал	-11.523
▁приемы	-11.523
▁удовлетворителн	-11.523
▁человеческаго	-11.523
▁юстиции	-11.5231
▁карандаш	-11.5231
ола	-11.5231
▁детских	-11.5231
▁сед	-11.5232
▁мыслит	-11.5233
▁помолчал	-11.5235
▁присел	-11.5236
▁уполномоченныи	-11.5237
▁едят	-11.5237
▁самою	-11.5237
▁шляпы	-11.5237
▁затруднения	-11.5238
▁интересом	-11.5238
▁воздеиствия	-11.524
▁винт	-11.5241
▁вулф	-11.5242
▁нравственных	-11.5244
▁предводител	-11.5244
▁тщеслав	-11.5244
▁легкая	-11.5244
▁называемыи	-11.5245
▁торг	-11.5246
▁заплатил	-11.5249
▁дурное	-11.525
нная	-11.5252
▁предусмотренные	-11.5253
ически	-11.5254
▁страшных	-11.5255
▁воззрения	-11.5255
▁переднюю	-11.5256
▁июне	-11.5256
▁гимназ	-11.5257
▁принципов	-11.5257
▁научит	-11.5257
▁дикие	-11.5258
кот	-11.5258
▁чашку	-11.5259
▁нормы	-11.5263
▁эд	-11.5264
▁обвинител	-11.5265
▁анализа	-11.5266
▁обявили	-11.5266
▁порога	-11.5267
▁скором	-11.5267
▁равнодуш	-11.5268
▁дерзост	-11.5271
▁угас	-11.5271
▁константина	-11.5271
▁рядах	-11.5272
▁разрыва	-11.5272
▁фрак	-11.5272
▁чад	-11.5273
▁сине	-11.5273
▁оказыват	-11.5274
▁суше	-11.5275
ани	-11.5276
алная	-11.5276
▁государственное	-11.5278
▁уголовного	-11.5279
▁америку	-11.528
▁имеющим	-11.528
▁размерах	-11.5281
▁твердым	-11.5281
▁участке	-11.5281
▁желтые	-11.5283
рош	-11.5283
▁подробностеи	-11.5284
▁сложен	-11.5285
▁десятков	-11.5286
▁родственник	-11.5288
▁страхования	-11.5289
▁невероятно	-11.529
▁сверкали	-11.5291
▁кротко	-11.5293
▁ареста	-11.5293
елная	-11.5294
▁южного	-11.5295
▁некуда	-11.5296
▁беспокоиство	-11.5297
▁стефан	-11.5299
▁мучен	-11.53
ток	-11.53
▁костюме	-11.5301
▁облек	-11.5302
▁священныи	-11.5303
▁вспоминая	-11.5304
▁полгода	-11.5304
▁авг	-11.5304
▁всевозможных	-11.5304
▁читателям	-11.5304
▁фелдмаршал	-11.5304
▁эсг	-11.5305
▁умерли	-11.5306
▁изобразит	-11.5308
ающим	-11.5308
зон	-11.5312
тона	-11.5312
▁старинных	-11.5314
бирал	-11.5315
▁поставила	-11.5315
▁предполагает	-11.5315
▁покровителство	-11.5315
▁полагается	-11.5319
▁читатели	-11.5319
овск	-11.5319
▁пана	-11.5321
▁гордыи	-11.5322
▁кипр	-11.5322
▁журналы	-11.5324
▁усте	-11.5326
▁бирон	-11.5326
▁требую	-11.5328
▁предание	-11.5329
▁западных	-11.5331
▁подозрения	-11.5331
▁тонким	-11.5332
▁хозяев	-11.5334
▁родина	-11.5334
▁ощущал	-11.5334
▁изложит	-11.5334
▁воспоминаниях	-11.5335
▁бежала	-11.5335
▁июле	-11.5336
▁обвинение	-11.5337
▁возвращалис	-11.5337
▁указано	-11.5338
▁лебед	-11.5339
▁надписи	-11.534
▁янв	-11.5342
▁башне	-11.5342
▁обещали	-11.5343
▁потер	-11.5343
▁неохотно	-11.5343
▁следуют	-11.5345
▁рассмотрении	-11.5346
▁окруженныи	-11.5346
▁казани	-11.5348
▁мужества	-11.5351
▁сделается	-11.5351
глаз	-11.5351
▁окнах	-11.5351
▁нижних	-11.5352
▁толк	-11.5352
▁суровыи	-11.5352
▁страдание	-11.5352
▁пистолет	-11.5354
▁пари	-11.5356
▁родственники	-11.5356
▁серб	-11.5356
▁пчел	-11.5357
▁водится	-11.5357
▁ответчика	-11.5357
▁живую	-11.5358
▁шелли	-11.5361
▁установленным	-11.5361
▁светит	-11.5362
▁кончается	-11.5363
▁ковер	-11.5363
▁рак	-11.5364
▁ласка	-11.5364
▁шопенгауэр	-11.5365
▁выяснит	-11.5365
▁введение	-11.5365
▁чис	-11.5368
▁перя	-11.5369
▁наследник	-11.5369
▁посланник	-11.5371
▁появится	-11.5374
▁спирт	-11.5374
▁колпак	-11.5374
▁музея	-11.5374
▁похвалы	-11.5374
▁тонкои	-11.5374
▁размышления	-11.5375
▁точнее	-11.5375
▁вагона	-11.5377
стеи	-11.5377
▁принцессы	-11.5377
▁прекращения	-11.5377
▁опытом	-11.5379
▁кант	-11.538
▁добродуш	-11.5384
▁отче	-11.5384
▁муч	-11.5384
▁вытекает	-11.5385
▁внутреннии	-11.5387
▁колонна	-11.5388
▁смеялас	-11.5389
▁атаку	-11.5389
▁полн	-11.5391
▁ресторан	-11.5391
▁двинулис	-11.5391
▁восемнадцат	-11.5392
▁квартал	-11.5392
▁происходил	-11.5393
▁пятыи	-11.5395
▁усилии	-11.5395
▁указаннои	-11.5397
▁дявола	-11.5398
▁бассеин	-11.54
ившегося	-11.54
▁элемента	-11.5401
▁прод	-11.5405
▁пожаловал	-11.5406
▁ушеи	-11.5406
▁сны	-11.5406
▁газов	-11.5408
▁государем	-11.5409
▁дочка	-11.5409
▁лгот	-11.5411
чныи	-11.5411
▁храмов	-11.5414
▁ограничения	-11.5416
▁граница	-11.5421
рт	-11.5421
▁исполнению	-11.5422
▁эс	-11.5423
тич	-11.5423
▁вызвала	-11.5424
▁хорошаго	-11.5425
нел	-11.5426
▁жестокости	-11.5426
▁капел	-11.5426
▁миллион	-11.5427
▁ходом	-11.5427
▁бабу	-11.5427
▁почин	-11.5427
▁отстал	-11.5429
▁обрыв	-11.5429
▁сохранял	-11.5429
▁условиями	-11.5431
▁одушевлен	-11.5435
▁выстрелы	-11.5438
станов	-11.5438
▁представителств	-11.5439
▁лестницу	-11.544
▁герб	-11.5441
авшихся	-11.5441
▁зеркал	-11.5442
▁тянет	-11.5442
▁целовал	-11.5443
▁сообща	-11.5443
▁кредита	-11.5443
▁бого	-11.5444
▁колебл	-11.5445
▁посетит	-11.5445
ушек	-11.5447
▁садис	-11.5447
▁опо	-11.5449
▁информация	-11.545
▁изобретен	-11.5452
ании	-11.5453
▁понимания	-11.5454
▁акц	-11.5455
▁россииских	-11.5455
ствовал	-11.5455
▁цит	-11.5455
▁применении	-11.5456
▁программу	-11.5456
▁жюл	-11.5456
▁конституционно	-11.5457
▁военному	-11.5457
▁достоиным	-11.5457
▁мелник	-11.5457
▁гляжу	-11.5458
▁шутя	-11.5458
рица	-11.5459
▁нежным	-11.546
▁брани	-11.5462
▁рецензии	-11.5463
▁отделатся	-11.5464
▁доволна	-11.5464
▁мудрено	-11.5465
▁инструментов	-11.5465
▁карете	-11.5467
▁заснут	-11.5468
▁преимущества	-11.5469
рас	-11.547
▁обнаружил	-11.547
▁последовали	-11.5471
▁долее	-11.5472
▁ошибаюс	-11.5473
▁приятеля	-11.5475
▁солнцу	-11.5479
▁смет	-11.5479
▁началников	-11.548
▁благословение	-11.5481
▁называемои	-11.5481
▁понравится	-11.5481
▁позволю	-11.5482
▁лос	-11.5482
▁дрожали	-11.5484
▁колебания	-11.5484
▁политическим	-11.5484
▁указанием	-11.5485
▁гам	-11.5485
кину	-11.5486
▁походе	-11.5487
▁социалных	-11.5487
▁поцеловат	-11.5489
▁предыдущ	-11.549
▁умерших	-11.5492
▁прислан	-11.5493
▁командиров	-11.5493
▁бокал	-11.5493
▁дерзко	-11.5494
▁проводили	-11.5494
▁федоров	-11.5494
▁королеве	-11.5495
▁истинная	-11.5495
▁скат	-11.5496
▁позволен	-11.5497
▁закрыла	-11.5498
▁тихая	-11.55
▁извозчик	-11.55
▁тема	-11.5501
щики	-11.5501
▁частные	-11.5502
▁детство	-11.5502
▁психолог	-11.5502
▁позицию	-11.5503
▁нерешително	-11.5503
▁заслужил	-11.5503
▁надлежало	-11.5505
▁старшин	-11.5505
▁точке	-11.5506
▁госпитал	-11.5507
▁напряжения	-11.5508
▁поверх	-11.5508
▁мусулман	-11.5509
▁глеб	-11.5509
▁выражении	-11.551
▁студенты	-11.551
▁оанн	-11.551
▁расцвет	-11.5513
▁проводник	-11.5515
▁называемые	-11.5515
▁распространяет	-11.5516
▁производят	-11.5516
▁око	-11.5517
▁идее	-11.5517
▁возмут	-11.5518
▁надела	-11.5519
▁гре	-11.5521
▁нападение	-11.5522
▁совершения	-11.5523
▁мережковскии	-11.5523
▁хозяистве	-11.5524
▁согласна	-11.5524
▁копе	-11.5525
стар	-11.5526
рек	-11.5526
▁маня	-11.5526
вшему	-11.5527
яне	-11.5528
енно	-11.553
▁хозяева	-11.5531
▁магазина	-11.5532
бегают	-11.5532
▁василевича	-11.5532
▁учении	-11.5533
▁избранные	-11.5536
▁построил	-11.5536
▁следовали	-11.5537
▁смог	-11.5538
▁молния	-11.5539
▁падают	-11.5539
▁пятно	-11.554
ивая	-11.5541
▁выступили	-11.5542
▁признават	-11.5543
▁наравне	-11.5544
▁удивлятся	-11.5545
▁ночеи	-11.5546
▁умолк	-11.5548
▁неболшом	-11.5548
▁отце	-11.5548
▁холоп	-11.5549
▁особа	-11.5549
▁печатат	-11.555
▁указа	-11.555
▁днепр	-11.5552
▁тускло	-11.5553
▁федора	-11.5554
▁собралас	-11.5554
▁никакая	-11.5556
▁ясным	-11.5557
▁водо	-11.5557
ецкии	-11.5561
▁уважат	-11.5561
▁правовых	-11.5562
▁верб	-11.5563
▁отнял	-11.5563
▁старшина	-11.5567
▁ребенку	-11.5567
▁бухар	-11.5568
▁разсказа	-11.5569
▁произнести	-11.5572
▁злато	-11.5572
тро	-11.5575
▁заплакал	-11.5575
▁картине	-11.5576
▁захватил	-11.5577
▁горят	-11.5578
▁энциклопедия	-11.558
▁надоело	-11.558
▁слыхали	-11.5583
▁раздела	-11.5584
▁мертвые	-11.5588
▁абзац	-11.5589
▁рене	-11.5589
▁зерно	-11.5589
▁кампании	-11.559
▁предусмотрено	-11.5591
▁любопытства	-11.5591
▁сторонами	-11.5593
▁дверям	-11.5593
▁глухим	-11.5593
▁гриб	-11.5595
рия	-11.5596
▁подло	-11.5597
▁перикл	-11.5597
▁тоскливо	-11.5598
▁угнетен	-11.5599
▁вынести	-11.56
▁дратся	-11.56
▁вздрогнула	-11.5601
▁предположения	-11.5601
▁контр	-11.5602
▁щел	-11.5603
▁просят	-11.5604
▁соколов	-11.5606
▁подвергнут	-11.5606
▁крестянских	-11.5607
▁государыни	-11.5607
▁девиц	-11.5607
▁руководит	-11.5611
▁приступил	-11.5612
▁увлека	-11.5613
▁яр	-11.5615
▁селских	-11.5615
▁историеи	-11.5615
▁подвиги	-11.5615
▁щи	-11.5616
▁пух	-11.5616
бож	-11.5616
▁облаков	-11.5616
▁хлор	-11.5616
▁убиица	-11.562
▁доити	-11.562
▁загадочно	-11.562
инки	-11.562
▁вкусу	-11.5621
▁рожд	-11.5621
▁транспорта	-11.5622
▁ряде	-11.5623
▁защищен	-11.5623
▁привыкла	-11.5623
▁налог	-11.5624
▁буквами	-11.5627
▁делаеш	-11.5629
▁вводит	-11.563
▁полскии	-11.563
▁ближаиших	-11.5632
▁законодател	-11.5634
▁крыла	-11.5634
▁посему	-11.5634
▁проверит	-11.5634
▁остр	-11.5635
▁десяток	-11.5636
печ	-11.5637
▁всеволод	-11.5637
▁критику	-11.5637
▁встречаем	-11.5638
▁республике	-11.5639
▁существовании	-11.5641
▁пушкину	-11.5641
▁любя	-11.5642
няк	-11.5642
▁задал	-11.5644
▁общественным	-11.5644
полз	-11.5645
▁бродил	-11.5645
▁сезон	-11.5645
▁широкими	-11.5649
▁михаиловича	-11.5649
▁паж	-11.5653
▁удаля	-11.5653
▁спеша	-11.5653
▁уничтожение	-11.5653
▁запер	-11.5653
▁пролетариат	-11.5655
▁выслушал	-11.5656
ыр	-11.5657
▁христова	-11.5658
▁временного	-11.5659
▁старших	-11.566
▁старину	-11.566
чива	-11.566
▁призвал	-11.5662
▁потряс	-11.5662
▁нечем	-11.5662
▁солнышко	-11.5662
▁безразлично	-11.5662
▁предвидел	-11.5663
▁живя	-11.5663
ером	-11.5663
▁живущих	-11.5665
▁выиграл	-11.5668
▁сужден	-11.5669
▁павлов	-11.5669
▁послов	-11.5671
▁поддел	-11.5673
▁историческое	-11.5673
енку	-11.5673
готов	-11.5673
▁упрек	-11.5674
▁лавров	-11.5675
▁гримм	-11.5675
▁средние	-11.5675
ившая	-11.5676
▁фердинанд	-11.5676
▁сердцах	-11.5676
▁внешним	-11.5677
▁либерал	-11.5678
▁политическое	-11.568
▁убран	-11.5681
▁бир	-11.5681
▁запахом	-11.5681
▁вступили	-11.5681
рова	-11.5683
мышл	-11.5683
▁миллионы	-11.5684
▁оценке	-11.5686
▁слабые	-11.5686
▁ритм	-11.5686
▁пропуск	-11.5687
▁грабеж	-11.569
▁сообразил	-11.5692
▁вулкан	-11.5694
▁едут	-11.5694
▁елены	-11.5694
▁торговлю	-11.5694
▁безопасност	-11.5695
▁наслаждения	-11.5695
▁просидел	-11.5697
▁пют	-11.5697
▁преступников	-11.5701
▁свежии	-11.5701
▁заплакала	-11.5702
▁темном	-11.5703
▁заговорили	-11.5703
▁сочувствие	-11.5703
▁философа	-11.5704
▁сул	-11.5704
▁пива	-11.5705
▁знаков	-11.5706
▁мул	-11.5707
▁гражданами	-11.5708
▁здравствует	-11.571
▁забота	-11.5712
▁промах	-11.5713
▁обяснят	-11.5714
▁дет	-11.5714
▁ограф	-11.5714
▁отказе	-11.5716
ющаго	-11.5717
верт	-11.5717
▁внутренняя	-11.5718
▁твердои	-11.5718
▁малчиком	-11.5718
▁пат	-11.572
▁эв	-11.572
▁блестящих	-11.572
▁презрением	-11.5721
▁поразило	-11.5721
▁аркад	-11.5723
▁открыта	-11.5725
▁темными	-11.5726
▁подруги	-11.5726
▁разрушит	-11.5727
▁изготовлен	-11.5727
▁впечатлении	-11.5729
▁расположенных	-11.573
▁орудие	-11.573
▁кинулся	-11.5731
вшем	-11.5731
имен	-11.5731
▁штурм	-11.5731
деж	-11.5732
▁июн	-11.5732
▁местнои	-11.5733
▁затвор	-11.5735
▁трижды	-11.5735
▁бедную	-11.5736
▁осиф	-11.5737
▁поднимался	-11.5737
▁проблемы	-11.5737
▁искусственно	-11.5737
▁упрям	-11.5738
▁старателно	-11.5738
▁облако	-11.5738
▁невозможности	-11.5739
▁литератор	-11.5739
ери	-11.574
▁писар	-11.5741
▁громадные	-11.5741
▁сомневался	-11.5742
▁имееш	-11.5743
▁улыбается	-11.5744
▁платежеи	-11.5745
▁дубин	-11.5746
▁великолепныи	-11.5746
▁поэту	-11.5747
▁законных	-11.5748
▁быстрым	-11.5748
▁потерян	-11.5748
▁дары	-11.575
лак	-11.575
▁старина	-11.575
▁военном	-11.5751
▁женскии	-11.5751
▁настя	-11.5751
буд	-11.5752
▁утомлен	-11.5752
▁нав	-11.5752
▁очищен	-11.5753
лик	-11.5755
▁жалею	-11.5757
▁блажен	-11.5759
▁присутствоват	-11.5759
образ	-11.576
▁ряб	-11.576
▁методов	-11.5762
▁наказ	-11.5762
▁вредно	-11.5764
▁типов	-11.5764
▁лда	-11.5765
▁милостиво	-11.5765
▁дата	-11.5766
▁фед	-11.5767
▁хрустал	-11.5772
▁подавая	-11.5772
▁прелести	-11.5773
▁связана	-11.5773
▁дорошевич	-11.5774
▁кист	-11.5774
▁подвал	-11.5774
▁всевозможные	-11.5774
форд	-11.5776
▁веселя	-11.5776
▁думаем	-11.5776
▁бухгалтер	-11.5776
▁адел	-11.5777
▁обращалис	-11.5777
▁несчастным	-11.5779
▁суждения	-11.578
▁верху	-11.5782
▁маскарад	-11.5782
пуст	-11.5783
▁необходимы	-11.5784
▁прогресса	-11.5784
▁обеме	-11.5784
▁свободным	-11.5785
▁династии	-11.5786
▁вспыхнула	-11.5786
▁рр	-11.5786
▁отряды	-11.5787
▁сундук	-11.5787
▁разсчет	-11.579
▁определенные	-11.579
▁взрыва	-11.5791
▁вечная	-11.5795
▁несчастные	-11.5795
▁ефим	-11.5796
▁узкои	-11.5801
▁чернов	-11.5802
▁скуч	-11.5802
▁тетки	-11.5803
▁проклятыи	-11.5803
▁глупыи	-11.5804
▁творения	-11.5804
▁преступника	-11.5804
авшая	-11.5805
▁обятия	-11.5805
пов	-11.5805
▁руководства	-11.5812
▁выбора	-11.5812
▁являлос	-11.5816
▁дин	-11.5817
▁избрал	-11.582
▁поговорим	-11.5821
▁малколм	-11.5822
▁уселся	-11.5823
▁горст	-11.5824
▁заходит	-11.5825
▁подушки	-11.5825
▁таиныи	-11.5825
пон	-11.5825
▁божественнои	-11.5826
▁ложится	-11.5827
▁почитат	-11.5828
▁строен	-11.5829
▁удивления	-11.5829
стал	-11.5831
▁училищ	-11.5831
▁римскии	-11.5832
▁труде	-11.5835
▁слыш	-11.5835
ворот	-11.5836
▁дивиз	-11.5836
▁неудач	-11.5837
рои	-11.5837
▁раздается	-11.5837
▁сбора	-11.5839
▁соловеи	-11.5841
▁христианского	-11.5842
▁расположения	-11.5844
▁палач	-11.5845
▁фредерик	-11.5846
▁свадбу	-11.5846
▁людвиг	-11.5846
▁выдаче	-11.5846
▁составлял	-11.5847
▁рота	-11.5853
▁третю	-11.5853
▁управляющии	-11.5853
▁домна	-11.5854
▁возвратил	-11.5854
▁ночеват	-11.5854
▁раздуме	-11.5854
стон	-11.5856
куп	-11.5856
свет	-11.5856
▁переговорит	-11.5857
▁опере	-11.5858
очен	-11.5858
▁храбрыи	-11.5858
▁точностю	-11.5858
лета	-11.5859
▁сомнение	-11.5859
вою	-11.5859
▁лаи	-11.586
▁автоном	-11.586
▁острог	-11.5862
▁пропитан	-11.5863
▁семеиств	-11.5863
▁оклад	-11.5863
▁физически	-11.5864
▁преступник	-11.5865
▁оправдание	-11.5865
▁достигла	-11.5866
▁необходим	-11.5866
▁лугов	-11.5867
▁настоящаго	-11.587
▁понимание	-11.587
▁привычке	-11.587
▁поправит	-11.587
▁тревогу	-11.5871
▁аристократическ	-11.5872
▁исходит	-11.5872
▁тан	-11.5873
▁обявление	-11.5877
▁мертвая	-11.5878
нского	-11.5878
▁уверенностю	-11.5879
▁написанное	-11.5881
▁лазарет	-11.5881
▁пурпур	-11.5882
▁оживлен	-11.5883
▁вознагражден	-11.5884
лила	-11.5884
▁джи	-11.5885
▁ведется	-11.5886
▁покоинои	-11.5886
▁проезд	-11.5887
верн	-11.5887
▁некии	-11.5891
▁узнаете	-11.5892
▁заключенных	-11.5892
▁приводят	-11.5892
[...]
