<unk>	0
<s>	0
</s>	0
▁и	-3.26507
▁в	-3.68863
и	-4.17197
а	-4.25842
▁не	-4.29302
▁с	-4.39298
▁на	-4.44552
е	-4.61231
▁а	-4.62941
▁я	-4.68642
▁что	-4.75456
▁е	-4.81582
▁о	-4.92899
▁он	-5.06637
▁по	-5.07458
▁к	-5.08053
▁как	-5.24878
у	-5.25066
▁его	-5.35309
м	-5.36265
▁за	-5.37176
ы	-5.4018
▁но	-5.49965
▁то	-5.50642
▁от	-5.51396
о	-5.53019
▁из	-5.53305
▁у	-5.58367
ом	-5.68143
▁все	-5.71003
▁это	-5.7202
ов	-5.82803
я	-5.83258
▁так	-5.87049
ии	-5.88599
▁же	-5.89323
▁вы	-5.94771
ся	-6.00943
х	-6.04014
▁она	-6.04641
ю	-6.0655
▁для	-6.0836
▁при	-6.10971
▁бы	-6.11868
▁до	-6.14199
▁было	-6.14235
т	-6.17647
▁г	-6.18697
▁толко	-6.20324
▁был	-6.23244
▁мне	-6.25482
▁или	-6.29318
ия	-6.31273
ие	-6.32667
▁их	-6.33885
ных	-6.34631
ныи	-6.35566
▁мы	-6.36054
ои	-6.36064
▁под	-6.36433
▁ее	-6.37562
▁р	-6.39822
▁ты	-6.40156
▁когда	-6.40244
▁меня	-6.40344
▁да	-6.43766
ами	-6.46973
ные	-6.47783
▁ни	-6.49445
▁еще	-6.49495
ая	-6.51493
▁они	-6.55105
нои	-6.57949
▁ему	-6.57997
▁если	-6.60337
ет	-6.61078
▁раз	-6.61433
▁со	-6.62955
▁во	-6.63526
ка	-6.67057
▁быт	-6.68857
го	-6.69622
ми	-6.69802
ки	-6.70748
▁об	-6.71369
▁ли	-6.73331
еи	-6.73509
▁чтобы	-6.76496
▁т	-6.76578
ным	-6.76641
▁уже	-6.76905
ем	-6.77841
ная	-6.78767
ит	-6.79263
с	-6.79828
л	-6.84388
ного	-6.86411
▁время	-6.88077
▁без	-6.88114
▁м	-6.89651
н	-6.92629
▁нет	-6.92798
▁вот	-6.93536
▁были	-6.94594
▁была	-6.94718
ию	-6.95402
▁может	-6.95499
но	-6.96085
▁тем	-6.97571
ах	-6.97599
▁тепер	-6.989
▁где	-7.00659
▁того	-7.01841
ую	-7.02431
▁него	-7.03054
▁чем	-7.0306
им	-7.03174
ис	-7.03572
ого	-7.04495
▁этого	-7.05139
▁себя	-7.05628
ли	-7.08257
▁п	-7.08706
▁сказал	-7.09009
▁про	-7.0905
▁ест	-7.09469
ную	-7.10233
▁очен	-7.10309
▁ю	-7.1056
ку	-7.10628
▁том	-7.1298
▁даже	-7.13273
ное	-7.13684
на	-7.13959
ых	-7.1475
их	-7.14845
▁будет	-7.16359
▁нас	-7.19353
▁себе	-7.19493
▁вас	-7.20485
в	-7.2114
▁после	-7.24292
▁д	-7.25224
▁вам	-7.25621
▁мои	-7.25698
▁между	-7.26647
▁еи	-7.26925
▁б	-7.27354
▁более	-7.28236
▁н	-7.28626
ыи	-7.28802
▁свои	-7.2905
ла	-7.2936
ам	-7.30617
▁этот	-7.31169
ым	-7.31493
▁всех	-7.31842
▁них	-7.32976
▁там	-7.33081
▁этом	-7.33475
▁которыи	-7.33573
▁кто	-7.33599
▁здес	-7.3595
ил	-7.36737
▁своеи	-7.36805
▁л	-7.37473
▁человек	-7.3863
▁которые	-7.39001
▁один	-7.4037
▁над	-7.40595
▁потому	-7.41151
ос	-7.43388
ен	-7.43935
ас	-7.44133
ется	-7.44781
▁х	-7.45279
▁эти	-7.45291
ок	-7.45319
ые	-7.46153
▁перед	-7.4654
▁ну	-7.4661
▁ничего	-7.47426
ными	-7.48313
аго	-7.48452
ст	-7.48547
▁нибуд	-7.49087
▁жизни	-7.49136
▁сам	-7.49357
скои	-7.49497
ат	-7.49557
▁говорит	-7.50053
ном	-7.50053
▁ним	-7.50654
▁им	-7.51391
▁тогда	-7.51883
ке	-7.53588
▁дело	-7.55074
▁несколко	-7.56705
ны	-7.56736
▁тебя	-7.56891
▁лет	-7.5711
▁нам	-7.57233
▁тебе	-7.57641
▁также	-7.5777
▁свою	-7.58789
ят	-7.58953
▁пере	-7.6064
▁своего	-7.6103
▁ден	-7.61321
▁можно	-7.61894
наго	-7.62253
ое	-7.62932
▁вед	-7.62982
лис	-7.63607
▁много	-7.63985
▁своих	-7.6421
▁потом	-7.65811
▁года	-7.65834
скии	-7.66979
▁ем	-7.67147
▁через	-7.68011
ского	-7.68159
ш	-7.68745
▁этои	-7.68991
▁ко	-7.69251
ло	-7.698
▁болше	-7.70752
▁част	-7.72164
к	-7.73165
▁жизн	-7.73618
▁тут	-7.74391
▁мог	-7.74519
▁лиш	-7.75304
▁всего	-7.76237
▁ор	-7.76442
▁против	-7.77289
не	-7.7733
тся	-7.77484
▁пр	-7.7793
му	-7.78506
▁хотя	-7.78587
п	-7.78639
▁се	-7.79049
ится	-7.7936
▁см	-7.79814
▁ея	-7.79917
ою	-7.80631
яс	-7.80801
▁статя	-7.80839
▁ж	-7.81146
▁всегда	-7.81449
▁надо	-7.82584
▁тот	-7.82712
лас	-7.82741
ют	-7.83428
▁два	-7.83671
▁ра	-7.83672
▁свое	-7.84392
▁стр	-7.84552
▁которых	-7.85198
ск	-7.85896
▁уж	-7.86407
б	-7.86465
▁друг	-7.86628
ием	-7.87545
▁всем	-7.87801
д	-7.88577
ал	-7.88679
▁этих	-7.89207
▁людеи	-7.89253
▁наконец	-7.89342
▁какои	-7.90096
▁которои	-7.90148
▁другои	-7.90293
▁эта	-7.90733
▁те	-7.91125
та	-7.91544
▁совершенно	-7.93001
▁нем	-7.93046
▁сказат	-7.93322
▁глаза	-7.94185
ских	-7.94464
▁почти	-7.94651
те	-7.947
▁ф	-7.94898
▁слова	-7.95387
▁чего	-7.96373
▁своим	-7.96424
▁опят	-7.96642
▁такои	-7.97063
▁которая	-7.97069
лся	-7.97207
▁времени	-7.97391
▁человека	-7.97466
▁вместе	-7.97562
▁никогда	-7.97625
▁хорошо	-7.98505
▁три	-7.99024
ив	-7.99042
ныя	-7.99106
▁люди	-7.9988
▁стал	-8.00079
▁должен	-8.00178
ни	-8.00734
ев	-8.0078
▁чтоб	-8.00781
▁вдруг	-8.01152
▁тех	-8.0125
ному	-8.01805
▁неи	-8.02853
▁конечно	-8.03907
ин	-8.03929
▁однако	-8.03942
ются	-8.03945
▁оно	-8.03978
▁вес	-8.03981
▁образом	-8.04151
ков	-8.04239
кои	-8.04986
▁эту	-8.07205
▁знаю	-8.08419
ж	-8.08527
ну	-8.08879
▁пред	-8.08901
▁таким	-8.09249
сти	-8.09939
▁одно	-8.10318
▁тоже	-8.10453
▁затем	-8.10624
▁та	-8.1133
▁этим	-8.11399
▁совсем	-8.11494
▁лучше	-8.1161
▁будто	-8.11781
ает	-8.11994
▁мало	-8.12543
▁руки	-8.12975
▁дела	-8.1305
ел	-8.13376
г	-8.13879
▁случае	-8.14018
▁тому	-8.14536
▁стороны	-8.14904
▁других	-8.15129
еш	-8.15304
▁ех	-8.15349
или	-8.15595
▁кроме	-8.1563
▁которое	-8.15793
его	-8.15875
▁пока	-8.15956
ыми	-8.16449
▁лицо	-8.16782
▁говорил	-8.17363
▁пор	-8.17393
▁ш	-8.17788
▁одного	-8.1788
ер	-8.18993
ля	-8.19666
▁ч	-8.20153
▁россиискои	-8.20834
ская	-8.20843
ями	-8.21737
▁прежде	-8.22276
▁спросил	-8.22285
▁точно	-8.22311
▁такое	-8.22391
▁могу	-8.22811
▁году	-8.2333
▁снова	-8.2335
▁право	-8.24248
▁де	-8.24248
▁однои	-8.24474
▁нелзя	-8.24842
ч	-8.24877
ому	-8.24904
▁страница	-8.24929
ился	-8.25064
▁пуст	-8.25181
▁бог	-8.25332
илис	-8.25593
▁должны	-8.2567
▁го	-8.25826
▁сердце	-8.26081
▁федерации	-8.26139
▁кажется	-8.2668
▁нужно	-8.26708
▁место	-8.26794
▁мир	-8.26879
нее	-8.27143
▁моя	-8.27397
▁з	-8.27839
▁руку	-8.2857
ском	-8.29498
▁которого	-8.29813
▁особенно	-8.30012
▁ре	-8.30164
▁сеичас	-8.30665
▁дома	-8.31967
▁свет	-8.32215
▁двух	-8.32395
▁долго	-8.32656
ня	-8.32718
▁стол	-8.3298
▁гор	-8.33131
▁мат	-8.33143
▁сказала	-8.33204
ф	-8.33204
▁скоро	-8.33827
ства	-8.34025
▁куда	-8.34082
▁пол	-8.34253
▁одна	-8.34417
▁город	-8.34819
▁должно	-8.35058
▁именно	-8.35152
▁просто	-8.3583
ности	-8.35976
▁разве	-8.36148
ова	-8.36462
▁части	-8.36479
▁нему	-8.36562
▁ст	-8.36733
▁среди	-8.3681
ские	-8.36934
▁всю	-8.36951
▁около	-8.36992
▁дня	-8.37014
ец	-8.37696
ее	-8.38211
ками	-8.38439
▁голову	-8.38745
▁ис	-8.38832
▁ноч	-8.39105
▁моеи	-8.39246
▁кон	-8.39672
▁почему	-8.40265
▁род	-8.40601
▁часто	-8.40709
▁писмо	-8.40738
▁мое	-8.40916
цы	-8.40954
ник	-8.41026
ност	-8.41277
ите	-8.41396
лос	-8.41579
▁брат	-8.42144
▁дом	-8.42613
▁своем	-8.43004
▁ту	-8.43692
▁имеет	-8.43696
▁которую	-8.43712
▁год	-8.43866
▁либо	-8.44045
ина	-8.44495
ва	-8.45109
▁любов	-8.45228
▁первыи	-8.45243
ях	-8.45485
▁хот	-8.45507
али	-8.45976
▁деиствително	-8.46159
▁народ	-8.46282
иш	-8.46569
▁сколко	-8.46778
▁собои	-8.46963
▁россии	-8.46968
▁начал	-8.47059
▁рас	-8.47469
▁отец	-8.4752
▁отвечал	-8.47752
ком	-8.47909
цев	-8.48351
▁голос	-8.48701
ты	-8.4962
▁э	-8.49622
да	-8.49687
▁сын	-8.49769
▁ро	-8.49784
ают	-8.4995
▁цар	-8.49973
▁минуту	-8.50559
ским	-8.50771
ко	-8.5085
▁никто	-8.50897
▁котором	-8.51141
▁доволно	-8.51175
▁деле	-8.51591
▁ними	-8.51636
ич	-8.51682
▁хотел	-8.51899
ими	-8.5215
▁вопрос	-8.52412
▁слишком	-8.52428
▁значит	-8.52497
▁могут	-8.52775
▁дел	-8.53019
▁жит	-8.53167
ство	-8.53179
▁каждыи	-8.53938
▁слово	-8.53969
▁нее	-8.53979
ское	-8.5411
ца	-8.54257
▁прямо	-8.54298
▁лица	-8.54462
▁иногда	-8.54532
▁ал	-8.54537
▁смерти	-8.54926
▁пят	-8.55105
▁этому	-8.55297
▁ум	-8.55371
ила	-8.55622
▁менее	-8.55902
▁быстро	-8.56388
▁мысл	-8.57343
▁мысли	-8.57609
▁буду	-8.57665
он	-8.57769
▁давно	-8.57814
га	-8.58116
р	-8.58118
▁две	-8.58335
▁сегодня	-8.58727
▁делат	-8.58957
▁наш	-8.59119
▁какое	-8.59151
▁вообще	-8.59485
скаго	-8.59673
ут	-8.59758
▁сделат	-8.59841
▁ка	-8.60044
▁ах	-8.60419
▁собою	-8.6053
илас	-8.60552
лен	-8.6062
▁пут	-8.60715
▁могли	-8.61234
▁видел	-8.61546
▁которым	-8.61924
▁весма	-8.62032
ц	-8.62056
▁самом	-8.6223
▁смерт	-8.62651
▁ибо	-8.62922
▁своему	-8.63335
▁моего	-8.63608
▁пер	-8.64002
▁княз	-8.64158
▁дал	-8.64392
▁стати	-8.64569
▁имя	-8.64611
ан	-8.64793
▁казалос	-8.64816
▁суд	-8.64892
▁вид	-8.65107
▁генерал	-8.6526
▁знат	-8.65417
ле	-8.65801
от	-8.65884
▁ос	-8.65992
▁права	-8.66075
▁идет	-8.66149
▁пре	-8.66518
▁пункт	-8.66622
▁вместо	-8.67008
▁кого	-8.6716
▁правда	-8.67282
з	-8.67854
▁места	-8.67995
▁будут	-8.6824
▁твои	-8.68258
▁любви	-8.6837
▁знал	-8.68488
▁ответил	-8.68616
овои	-8.68786
▁назад	-8.68792
▁земли	-8.689
▁сама	-8.68923
ши	-8.69557
вал	-8.70163
▁стало	-8.70181
▁суда	-8.70576
▁матери	-8.70759
▁едва	-8.71069
▁своими	-8.71109
▁граф	-8.71351
▁воз	-8.71541
▁закон	-8.71661
ту	-8.71749
▁дат	-8.71867
▁таких	-8.71887
▁города	-8.72243
▁ваше	-8.72269
▁такого	-8.72529
▁иван	-8.72677
▁отца	-8.72766
▁должна	-8.72819
▁впрочем	-8.72861
ятся	-8.73121
▁легко	-8.73188
▁какая	-8.7337
▁реч	-8.7339
▁полу	-8.73491
оват	-8.73651
▁стоит	-8.73723
▁другие	-8.73724
▁наши	-8.73758
▁могла	-8.73758
▁часов	-8.73817
ман	-8.74167
▁тсд	-8.74243
▁самого	-8.74318
▁вполне	-8.74832
▁власти	-8.75041
▁одним	-8.75464
лет	-8.7557
▁сюда	-8.75677
▁общества	-8.7604
▁знает	-8.76133
скую	-8.76362
▁равно	-8.76649
▁стали	-8.76765
▁видет	-8.76811
нут	-8.76958
▁месте	-8.77323
▁вероятно	-8.7736
ват	-8.77438
▁мере	-8.77497
ус	-8.77693
▁самое	-8.77882
▁виде	-8.78082
▁ответ	-8.78264
▁взят	-8.78299
▁двер	-8.78438
▁каким	-8.78626
ост	-8.78708
▁поэтому	-8.78808
▁жил	-8.7898
▁час	-8.79293
▁тихо	-8.79397
ыя	-8.7958
щ	-8.80009
▁денги	-8.80019
▁зачем	-8.80131
▁болшои	-8.80273
▁глава	-8.8028
▁сторону	-8.80489
▁является	-8.80493
▁др	-8.80616
лю	-8.80672
▁мар	-8.80942
▁души	-8.81048
тер	-8.81141
скому	-8.81399
▁вся	-8.81452
▁сил	-8.81626
▁далеко	-8.81649
ра	-8.81786
▁выше	-8.81909
ба	-8.8199
▁продолжал	-8.82154
▁мнои	-8.82157
ям	-8.82472
▁силы	-8.82546
▁принят	-8.82613
са	-8.82743
▁глаз	-8.82755
▁писма	-8.82846
▁бога	-8.83011
▁труд	-8.83036
▁молодои	-8.83135
▁силно	-8.8319
▁нашего	-8.83239
▁вперед	-8.83407
▁самои	-8.83499
▁следует	-8.84147
▁нашеи	-8.84191
▁получил	-8.84305
ик	-8.84356
▁прав	-8.84504
▁глазами	-8.84683
▁слов	-8.85201
▁думал	-8.8557
вер	-8.85667
▁имел	-8.85691
▁петр	-8.8587
▁чут	-8.85986
▁тои	-8.8602
▁ясно	-8.86097
▁днеи	-8.86399
▁говорят	-8.86412
▁мною	-8.86519
ек	-8.86527
▁таки	-8.86568
ница	-8.86613
овых	-8.8688
▁ц	-8.86973
▁наших	-8.87334
▁чест	-8.87388
▁вер	-8.87426
▁лес	-8.87893
▁пар	-8.87911
▁хочу	-8.87935
▁тотчас	-8.8802
▁понят	-8.88072
▁кор	-8.8822
вин	-8.88385
ян	-8.88431
▁одну	-8.88497
▁сделал	-8.88965
вы	-8.89031
▁немного	-8.89373
▁друга	-8.89407
▁сел	-8.89452
▁кол	-8.89462
ша	-8.89662
▁всеи	-8.89677
э	-8.89787
▁несмотря	-8.89957
за	-8.90337
▁проч	-8.90654
▁муж	-8.90727
ках	-8.90906
▁ар	-8.91286
ала	-8.91417
▁св	-8.91479
▁видно	-8.91537
▁характер	-8.92056
▁силу	-8.92153
же	-8.92299
▁трех	-8.92587
▁старик	-8.9268
лы	-8.9274
нет	-8.93323
▁имет	-8.93523
че	-8.93597
мен	-8.93767
▁бар	-8.93983
▁заметил	-8.94201
юс	-8.94226
▁кров	-8.94309
▁ла	-8.94327
▁ан	-8.94496
▁взял	-8.94568
▁лиц	-8.94572
ав	-8.9466
▁земле	-8.94902
▁камен	-8.9495
ною	-8.94969
▁море	-8.94991
▁сами	-8.95033
ри	-8.95172
▁душе	-8.95452
▁землю	-8.95778
▁бур	-8.95825
▁церкви	-8.96093
▁детеи	-8.96127
▁конце	-8.96259
▁например	-8.96742
▁мистер	-8.96839
▁	-8.96937
▁области	-8.96989
ист	-8.97307
▁народа	-8.97544
▁мою	-8.97679
▁известно	-8.97703
▁тысяч	-8.97779
▁какие	-8.9784
▁государ	-8.98196
▁ма	-8.98228
▁туда	-8.98276
▁истории	-8.98321
ему	-8.98323
во	-8.98352
дел	-8.98552
▁пути	-8.98621
▁женщина	-8.98628
▁моих	-8.98702
▁ас	-8.98708
▁любит	-8.98717
▁александр	-8.98859
▁работы	-8.99014
пол	-8.99189
▁нами	-8.99479
ович	-8.9987
▁лев	-8.99877
стве	-9.00086
▁господ	-9.0021
▁умер	-9.00406
▁самыи	-9.00511
▁эсбе	-9.00819
ре	-9.00825
▁пришел	-9.01074
▁ях	-9.01316
▁мол	-9.01811
▁доч	-9.01946
▁завтра	-9.02084
▁деятелности	-9.02163
▁дух	-9.02217
▁руках	-9.02916
итес	-9.02933
▁готов	-9.03168
▁писал	-9.03232
▁жена	-9.0324
▁случаи	-9.03467
▁столко	-9.03554
▁само	-9.03575
▁пошел	-9.03597
▁взгляд	-9.0361
▁мил	-9.03894
▁вокруг	-9.03905
▁стоял	-9.03928
иеи	-9.03929
▁думаю	-9.04008
▁связи	-9.04027
▁иначе	-9.04078
▁отношении	-9.04203
▁вовсе	-9.04241
▁говорю	-9.04243
▁буд	-9.0435
▁автор	-9.04478
атся	-9.04485
▁ха	-9.04553
▁далее	-9.04879
це	-9.04913
▁доме	-9.04926
по	-9.05048
▁десят	-9.05079
▁воины	-9.05171
ним	-9.05244
▁положен	-9.05393
▁дон	-9.05428
▁такие	-9.05619
▁солнце	-9.05678
▁минут	-9.05799
▁корол	-9.05803
▁изд	-9.0584
▁обо	-9.05878
▁женщины	-9.05951
▁рода	-9.05995
гу	-9.06036
▁воды	-9.06117
▁господин	-9.06496
▁вечер	-9.06566
ников	-9.06643
▁домои	-9.0667
▁другим	-9.06939
▁сер	-9.07142
▁мира	-9.07228
▁счет	-9.07429
неи	-9.07586
▁сих	-9.07756
ор	-9.07782
▁верно	-9.07843
▁имени	-9.08093
▁которому	-9.08298
▁вышел	-9.08299
▁другого	-9.08317
▁начала	-9.0837
▁мер	-9.0862
▁постоянно	-9.08659
▁знаете	-9.08664
чи	-9.08753
▁всеми	-9.08956
▁церков	-9.08973
▁второи	-9.08984
▁одном	-9.09081
▁князя	-9.09183
▁цвет	-9.0935
▁разговор	-9.09389
▁словно	-9.09798
▁шел	-9.09854
из	-9.10046
▁организации	-9.10085
дер	-9.10176
ве	-9.10275
▁далше	-9.10426
▁цел	-9.10557
▁трудно	-9.10718
▁первои	-9.10775
▁ужас	-9.1087
ры	-9.1097
▁спокоино	-9.11017
▁книги	-9.11061
▁скорее	-9.11212
мер	-9.11269
ион	-9.1149
▁русскои	-9.11554
▁дни	-9.11619
▁сначала	-9.11622
ею	-9.11854
род	-9.11923
▁шест	-9.11945
▁сына	-9.12088
▁пал	-9.12091
▁иванович	-9.12146
▁такая	-9.12151
ду	-9.12166
▁па	-9.12234
▁лице	-9.12309
▁сразу	-9.12347
ти	-9.1236
стю	-9.12457
▁четыре	-9.12694
▁мин	-9.13014
▁ноги	-9.1307
об	-9.13077
▁некоторые	-9.13167
▁виду	-9.13295
▁земля	-9.1349
гор	-9.13619
▁степени	-9.13744
▁свете	-9.13847
▁доктор	-9.13856
▁ради	-9.13861
▁другое	-9.13899
▁хочет	-9.13984
ар	-9.1412
▁стала	-9.14132
▁мед	-9.14156
▁петербург	-9.14286
▁иии	-9.14369
▁двор	-9.1457
▁лож	-9.14747
▁голосом	-9.14808
▁отдел	-9.15285
▁власт	-9.15319
ги	-9.1545
▁губ	-9.1554
▁пит	-9.15545
▁числе	-9.15548
ид	-9.16214
▁вскоре	-9.16217
▁рядом	-9.16719
ес	-9.16879
тел	-9.16951
▁служит	-9.17042
▁капитан	-9.17052
▁бел	-9.17097
▁котораго	-9.17162
▁первых	-9.17205
▁достаточно	-9.17234
▁ваш	-9.17287
▁головои	-9.17298
▁идти	-9.17396
▁оба	-9.17526
▁необходимо	-9.17675
▁совета	-9.17733
▁говорили	-9.17932
▁вами	-9.17949
▁кар	-9.18089
ше	-9.18118
▁которыя	-9.18246
▁союз	-9.18392
▁ряд	-9.18494
▁назначен	-9.18569
▁говоря	-9.18845
▁обыкновенно	-9.18879
▁шум	-9.18918
▁никакого	-9.19493
▁очевидно	-9.19768
кат	-9.19809
▁душа	-9.19902
▁комнату	-9.20111
▁дети	-9.20127
▁какую	-9.20236
▁денег	-9.20303
▁гораздо	-9.20373
▁положение	-9.20636
ева	-9.20667
▁крест	-9.20692
чат	-9.20806
▁течение	-9.20848
▁боже	-9.21051
▁увидел	-9.21062
▁мор	-9.21074
▁возможност	-9.21095
нул	-9.21159
▁возможно	-9.21161
▁конца	-9.21192
▁многих	-9.21224
ню	-9.21541
бер	-9.21616
де	-9.21819
ству	-9.21877
▁чувство	-9.21949
▁краинеи	-9.22161
ницы	-9.22211
▁спб	-9.2225
▁сердца	-9.22331
кин	-9.22405
ости	-9.22447
▁наше	-9.22634
▁впервые	-9.22879
▁николаи	-9.23178
▁другом	-9.23226
▁откуда	-9.23355
▁перевод	-9.2339
▁сто	-9.23472
▁вижу	-9.23618
▁богу	-9.2374
▁находится	-9.23762
▁руками	-9.23885
▁новыи	-9.23964
▁поле	-9.24055
▁горе	-9.2429
▁глазах	-9.24325
▁крестян	-9.24385
▁какого	-9.24444
▁сем	-9.24473
▁девушка	-9.24529
▁ранше	-9.2462
▁вз	-9.24639
ды	-9.24718
▁основан	-9.24722
▁благодаря	-9.24769
▁самых	-9.24813
▁бес	-9.24926
то	-9.24953
▁жал	-9.25035
иями	-9.2525
▁рол	-9.25459
▁черт	-9.25541
▁будем	-9.25553
▁солдат	-9.25662
▁знаеш	-9.25915
▁ночи	-9.25963
▁язык	-9.26027
тон	-9.26072
ается	-9.26249
▁утра	-9.26461
▁сидел	-9.26585
▁кому	-9.26608
▁таком	-9.26736
бит	-9.26824
▁рукои	-9.26879
ров	-9.26932
▁господа	-9.26982
▁берегу	-9.27021
ину	-9.27039
▁душу	-9.27133
ившис	-9.27136
лож	-9.27182
▁сквоз	-9.27282
▁чувства	-9.27345
вол	-9.27383
▁дороги	-9.27473
▁лицом	-9.27552
▁делу	-9.27672
▁ход	-9.27681
▁могло	-9.2779
▁воскликнул	-9.27795
▁пришлос	-9.27891
▁самым	-9.2794
вед	-9.2802
▁ями	-9.28169
▁гг	-9.28192
▁оп	-9.28195
жен	-9.28213
▁радост	-9.28323
▁кур	-9.2842
ро	-9.28462
▁сторон	-9.28598
▁тобои	-9.28786
▁словом	-9.29072
▁порт	-9.2908
▁интерес	-9.2909
▁поэт	-9.29293
▁сон	-9.29342
лин	-9.29361
кою	-9.2944
ения	-9.29558
очка	-9.2976
су	-9.2978
ван	-9.29843
▁соответствии	-9.30207
▁ес	-9.30472
▁занят	-9.30523
▁совет	-9.30535
▁англ	-9.3062
▁деиств	-9.30628
▁закона	-9.30636
ол	-9.30771
▁груд	-9.30783
ника	-9.30859
▁вещи	-9.31031
▁хлеб	-9.31081
вес	-9.31132
▁двери	-9.31199
▁нашел	-9.31322
▁сад	-9.31352
▁отлич	-9.31385
ели	-9.31527
▁дар	-9.31873
▁спас	-9.31973
чу	-9.32006
▁москве	-9.3204
▁партии	-9.3208
ча	-9.32092
▁философ	-9.32251
▁мест	-9.32588
▁неужели	-9.32682
▁ползу	-9.32802
▁русских	-9.32952
рон	-9.33031
▁люблю	-9.33043
▁двадцат	-9.33148
▁срок	-9.33192
ож	-9.33231
ние	-9.33547
▁тело	-9.3364
▁весело	-9.33867
▁века	-9.33965
▁пан	-9.34026
▁внов	-9.34033
▁комнате	-9.34108
▁бал	-9.34327
пер	-9.34341
▁общество	-9.34382
овые	-9.34394
ул	-9.34484
▁нечего	-9.34701
▁дороге	-9.34754
▁думат	-9.34804
ило	-9.34853
▁мисс	-9.34939
▁бол	-9.34954
нов	-9.34965
цу	-9.35178
▁старыи	-9.35239
▁вечером	-9.35247
▁имеют	-9.35257
овым	-9.35299
▁росс	-9.3536
▁план	-9.35515
ак	-9.35591
▁чувствовал	-9.3567
▁собрание	-9.35755
▁малчик	-9.35847
▁словами	-9.35922
▁отношен	-9.36006
▁разумеется	-9.36025
▁рублеи	-9.36158
▁конец	-9.36207
▁рус	-9.36245
▁убит	-9.36397
▁бо	-9.36403
▁открыт	-9.3643
▁мая	-9.36451
▁значение	-9.36573
▁порядке	-9.36577
▁страшно	-9.36716
▁многие	-9.3681
▁относително	-9.36848
щу	-9.37259
жи	-9.37261
▁подобно	-9.37266
▁написал	-9.37343
▁чему	-9.37462
▁республики	-9.37622
▁просит	-9.37622
емся	-9.37641
▁труда	-9.37646
▁истор	-9.37648
ера	-9.37689
▁огон	-9.37716
▁приказ	-9.37742
▁голова	-9.37747
еля	-9.37756
▁руб	-9.37873
▁роз	-9.37924
▁зло	-9.37978
▁однажды	-9.38203
со	-9.38332
алис	-9.38555
▁вчера	-9.38566
▁ночю	-9.38567
▁медленно	-9.38618
▁состав	-9.38706
▁которыми	-9.38815
вод	-9.38918
▁рук	-9.39021
▁моему	-9.39037
▁дает	-9.3906
▁бывает	-9.39207
ден	-9.39223
▁говорила	-9.39261
ния	-9.39265
▁берег	-9.39274
нии	-9.39362
лу	-9.39425
▁образ	-9.39554
би	-9.39577
▁одни	-9.39648
▁стат	-9.39703
▁бор	-9.3972
▁момент	-9.39843
▁спросила	-9.39944
▁работа	-9.39969
▁невозможно	-9.39974
▁хотелос	-9.40044
вшис	-9.40049
▁пен	-9.40149
чин	-9.40178
▁семи	-9.40188
бр	-9.40235
▁мимо	-9.40246
▁марта	-9.40252
▁ума	-9.40417
сс	-9.40482
▁вашего	-9.40544
▁кн	-9.40577
ика	-9.40617
▁число	-9.40738
▁ман	-9.40801
▁ветер	-9.40911
цов	-9.40915
ины	-9.40942
илос	-9.40953
овал	-9.41075
▁христ	-9.41168
▁часа	-9.41204
▁вод	-9.41342
▁наша	-9.41392
вил	-9.41397
ался	-9.41458
▁комнаты	-9.41732
ща	-9.41756
сы	-9.41776
▁первое	-9.4178
▁хи	-9.41872
▁наиболее	-9.41904
▁государственнои	-9.42082
▁спор	-9.42359
мет	-9.42379
▁случилос	-9.42389
▁частю	-9.42474
нич	-9.42481
▁сего	-9.42497
▁император	-9.42518
иях	-9.4257
▁ныне	-9.42677
▁августа	-9.42687
▁сэр	-9.42785
до	-9.42788
▁плате	-9.42833
▁живет	-9.42871
▁средств	-9.42891
▁разных	-9.42961
▁небо	-9.42977
▁бер	-9.43098
▁благо	-9.43293
▁наити	-9.43342
▁дан	-9.43398
ики	-9.43501
лом	-9.43505
чик	-9.43534
▁лошад	-9.43538
▁моря	-9.43737
▁такую	-9.43759
▁рад	-9.43875
зы	-9.43925
▁царя	-9.44077
▁годы	-9.4408
▁пет	-9.441
▁хотите	-9.4413
▁несчаст	-9.44363
▁случаях	-9.44398
▁напротив	-9.44435
ски	-9.44486
▁мужа	-9.44539
▁опыт	-9.44561
▁рассказ	-9.44664
▁узнал	-9.44752
▁утром	-9.4484
▁услов	-9.44874
▁каких	-9.44978
▁любил	-9.45033
мир	-9.45043
▁смотрел	-9.4505
▁никак	-9.45066
▁отсюда	-9.45127
си	-9.45196
ран	-9.45218
▁головы	-9.45225
▁получит	-9.45346
▁должност	-9.45365
▁вашеи	-9.45475
▁прелест	-9.45495
▁сила	-9.4552
вит	-9.45533
▁удар	-9.4559
▁период	-9.4564
суд	-9.45647
▁хочеш	-9.45712
▁государства	-9.45764
▁последнее	-9.45791
▁знаком	-9.46056
▁людми	-9.46118
▁помощи	-9.4615
▁коп	-9.46153
лит	-9.46202
▁качестве	-9.46302
ант	-9.46302
▁рот	-9.46317
нос	-9.46321
▁стран	-9.46325
▁самые	-9.46469
нем	-9.46506
▁октября	-9.46513
▁внимание	-9.46529
▁чаи	-9.46529
▁новои	-9.46561
▁ген	-9.46571
▁слезы	-9.46585
▁страх	-9.46638
▁тер	-9.46741
▁короля	-9.4677
▁чрез	-9.4683
▁ста	-9.46891
▁ею	-9.46938
▁работу	-9.4702
▁остров	-9.47106
вен	-9.47122
▁ком	-9.47123
▁женщин	-9.47233
аются	-9.47246
▁воздух	-9.47287
▁мел	-9.47426
▁настоящего	-9.47501
▁чрезвычаино	-9.47543
▁желан	-9.47879
▁решително	-9.47931
се	-9.47979
▁последнии	-9.48018
▁антон	-9.48075
▁некоторых	-9.48094
▁другими	-9.4812
▁глубоко	-9.48182
▁эл	-9.48185
▁бр	-9.48197
▁нос	-9.48205
▁разум	-9.48321
ете	-9.48443
ди	-9.4857
▁городе	-9.48716
▁угодно	-9.4873
▁минуты	-9.48733
▁немедленно	-9.48754
▁брата	-9.48757
▁вошел	-9.48785
▁угол	-9.48796
▁целыи	-9.48825
▁цели	-9.48857
▁иллюстрация	-9.48888
▁фаил	-9.48967
▁франц	-9.48985
▁подумал	-9.49056
▁моим	-9.49073
▁счасте	-9.49156
▁ваши	-9.49175
▁русского	-9.49267
▁ног	-9.49359
▁отчего	-9.49404
▁памят	-9.49426
▁стороне	-9.49504
пад	-9.49574
ма	-9.49584
▁непременно	-9.4962
▁кат	-9.49814
▁пушкин	-9.49845
▁ран	-9.49878
▁менше	-9.49897
▁армии	-9.50022
▁нею	-9.50041
изм	-9.5007
▁воиска	-9.50072
бо	-9.50164
шка	-9.50294
▁идеи	-9.50323
▁воиск	-9.50409
▁возможности	-9.50426
▁реки	-9.50482
▁га	-9.50552
▁офицер	-9.50559
▁всему	-9.50715
▁чисто	-9.50765
▁голуб	-9.50845
ических	-9.50962
▁произведен	-9.51081
▁искусства	-9.51269
▁произведению	-9.51353
ющих	-9.51362
▁людям	-9.51433
▁жив	-9.51457
▁никаких	-9.51481
▁новые	-9.51494
▁речи	-9.51535
▁касается	-9.51555
▁ходит	-9.51567
▁новых	-9.51675
▁тяжело	-9.51894
▁голове	-9.51902
▁груди	-9.52054
▁ус	-9.52159
▁след	-9.52171
чит	-9.52191
жу	-9.52242
▁удалос	-9.52246
▁духа	-9.5228
▁крепко	-9.52281
бу	-9.52287
▁печат	-9.52363
▁декабря	-9.52367
▁другую	-9.52409
мы	-9.52545
▁скажу	-9.52616
вор	-9.52628
▁путем	-9.52642
лив	-9.52668
сон	-9.52669
▁ти	-9.52674
▁средства	-9.52692
▁пожалуи	-9.52739
ует	-9.52774
вид	-9.52793
▁кос	-9.52793
▁рабочих	-9.52806
▁человеком	-9.52884
▁странно	-9.52967
▁сеи	-9.53003
▁горы	-9.53004
▁тип	-9.53036
▁месяц	-9.53088
▁писат	-9.53092
▁писател	-9.53104
▁окна	-9.53138
▁прошу	-9.532
▁раздел	-9.53201
▁природы	-9.53284
▁новое	-9.53349
▁страны	-9.53356
▁чу	-9.53395
▁туман	-9.53416
▁смысле	-9.5351
▁правил	-9.53749
стан	-9.53761
▁гр	-9.53777
▁порядок	-9.53782
▁кое	-9.53784
▁процесс	-9.53905
цами	-9.54058
▁следователно	-9.54068
▁кругом	-9.54103
▁полное	-9.54143
ники	-9.54164
кам	-9.54298
▁участ	-9.54393
▁холод	-9.54421
жа	-9.5444
▁начало	-9.54478
оз	-9.54478
▁подошел	-9.54479
оп	-9.54508
▁света	-9.5452
▁ссср	-9.54588
енка	-9.5464
▁остается	-9.54643
▁прос	-9.54661
▁понял	-9.54759
кон	-9.54886
▁способ	-9.5491
▁одному	-9.54944
▁стар	-9.54988
кс	-9.55001
▁близко	-9.55126
чен	-9.55126
▁вон	-9.55128
▁января	-9.5524
▁узнат	-9.5527
▁назван	-9.5531
ыч	-9.55319
▁поля	-9.55438
▁начале	-9.55492
щи	-9.55506
▁мал	-9.55583
▁направлен	-9.55719
▁особенности	-9.55742
▁произнес	-9.55779
▁слышал	-9.55809
▁граждан	-9.5585
▁работ	-9.55934
тор	-9.56031
вяз	-9.5606
нув	-9.56073
▁ри	-9.56299
▁сан	-9.56365
па	-9.56489
▁сосед	-9.56514
▁вел	-9.56617
▁сочинении	-9.5666
▁дам	-9.56731
▁страст	-9.56912
▁дорогу	-9.56935
▁деиствия	-9.56962
▁русскии	-9.56986
уч	-9.56999
▁ноября	-9.57067
▁герман	-9.57083
▁болшим	-9.57143
▁всякого	-9.57239
▁уб	-9.57245
▁связ	-9.57347
▁первая	-9.57355
▁представляет	-9.57523
▁христиан	-9.57524
ыват	-9.57636
ще	-9.57638
▁молча	-9.57651
▁видели	-9.57654
ступ	-9.5768
▁уверен	-9.57813
▁выражен	-9.57854
▁несколких	-9.5791
▁помощ	-9.58012
▁принял	-9.58093
▁слез	-9.58113
▁самому	-9.58123
▁история	-9.58123
▁человеку	-9.58191
очки	-9.58326
▁гал	-9.5843
ру	-9.58432
▁недо	-9.58507
ун	-9.58569
▁крепост	-9.58662
▁идеал	-9.58724
▁движения	-9.58767
оч	-9.5883
вар	-9.58852
▁смотрет	-9.5894
▁ехат	-9.59046
▁гости	-9.59114
▁скажи	-9.59148
▁апреля	-9.59153
▁обе	-9.59291
▁громко	-9.59299
▁двумя	-9.59317
▁нового	-9.59438
▁итак	-9.59554
▁солнца	-9.59591
▁голод	-9.59627
▁решил	-9.59643
▁вследствие	-9.59662
она	-9.59722
▁тела	-9.5982
▁долг	-9.59825
▁везде	-9.60122
▁делает	-9.60155
▁представит	-9.60191
уд	-9.60193
▁остановился	-9.60263
▁поводу	-9.60283
▁гл	-9.60307
▁неволно	-9.60382
▁труб	-9.60458
▁болшая	-9.60458
▁вечно	-9.60524
▁монастыр	-9.60574
енко	-9.6067
▁никого	-9.60867
▁зап	-9.61005
▁плохо	-9.6101
▁анна	-9.61118
▁владимир	-9.61131
▁июля	-9.6125
▁ян	-9.61252
▁вниман	-9.61333
▁твое	-9.61372
▁гол	-9.61381
▁числа	-9.61416
ица	-9.61438
▁статеи	-9.61604
▁основании	-9.61637
▁уст	-9.61656
▁писме	-9.61776
ял	-9.61792
▁никакои	-9.61812
▁состоян	-9.61831
▁правителства	-9.61874
▁исключително	-9.61895
▁вещ	-9.61926
▁настоящее	-9.62066
скими	-9.62152
▁жены	-9.62284
▁строго	-9.62339
▁обед	-9.62385
кова	-9.62522
▁положения	-9.62623
▁дочери	-9.6264
▁крик	-9.62727
▁твоя	-9.62773
▁понимаю	-9.62831
▁шли	-9.62866
▁книга	-9.62886
▁первым	-9.62985
▁первого	-9.6306
▁последние	-9.63115
▁проект	-9.63228
▁этими	-9.63246
▁главным	-9.63255
▁дожд	-9.6333
▁целю	-9.63414
▁образован	-9.63516
▁нечто	-9.63545
▁состоит	-9.63577
дал	-9.636
▁приказал	-9.63641
▁ниже	-9.63671
▁стрел	-9.6368
▁сентября	-9.63723
про	-9.63838
▁будучи	-9.64034
▁очеред	-9.64055
ение	-9.64089
▁непр	-9.64157
▁прекрасно	-9.64237
▁ваша	-9.64239
лов	-9.64278
▁состоянии	-9.64287
▁первые	-9.64301
▁выходит	-9.6431
▁отвечала	-9.64331
стр	-9.64431
▁небес	-9.64433
гр	-9.64481
▁милыи	-9.64493
евич	-9.64504
▁ба	-9.64508
▁окончателно	-9.64534
▁отдал	-9.646
▁цен	-9.64609
▁оттуда	-9.64676
▁вал	-9.64679
▁роман	-9.6472
шеи	-9.64774
▁утро	-9.64845
▁напр	-9.64929
▁можете	-9.64933
▁оставит	-9.65024
▁карл	-9.65055
▁текст	-9.65158
▁ди	-9.65314
▁весел	-9.65326
▁деятелност	-9.65331
▁париж	-9.65361
▁ру	-9.65419
▁пишет	-9.65424
▁серезно	-9.65426
▁запад	-9.65435
▁времен	-9.65527
▁поклон	-9.65549
▁прошло	-9.65581
вш	-9.65602
▁избран	-9.65738
реш	-9.65848
▁остался	-9.65905
▁указ	-9.65998
▁покои	-9.66247
▁петра	-9.66326
ешся	-9.66341
▁проговорил	-9.66401
▁расположен	-9.66431
ед	-9.66445
▁всяком	-9.66453
▁хуже	-9.66453
▁петербурге	-9.66483
▁пап	-9.66506
▁определен	-9.66559
▁болшую	-9.66601
▁высоко	-9.66611
ге	-9.66694
▁плен	-9.66697
▁можем	-9.6677
▁заключен	-9.66772
▁взор	-9.66853
▁печал	-9.66891
▁видит	-9.66894
▁стихи	-9.66943
▁дым	-9.67007
▁велел	-9.6701
▁имели	-9.67039
▁любим	-9.67057
ушка	-9.67148
▁июня	-9.67154
ироват	-9.67156
изма	-9.67325
ирован	-9.6737
▁ср	-9.67423
▁развития	-9.6751
▁успел	-9.67577
шу	-9.67614
дан	-9.67654
▁факт	-9.67695
▁выход	-9.67706
ывал	-9.67762
▁издан	-9.67895
▁зато	-9.67898
▁вопросы	-9.67908
▁настоящеи	-9.67961
▁герцог	-9.67973
▁толстои	-9.68135
▁баб	-9.68216
лер	-9.68278
▁зелен	-9.68328
▁намерен	-9.68354
ницу	-9.68367
▁становится	-9.68378
рен	-9.68401
▁молод	-9.68579
▁помню	-9.686
▁знак	-9.68627
▁открыл	-9.68632
▁журнал	-9.68665
▁просил	-9.68707
▁вслед	-9.68734
воз	-9.68766
▁ад	-9.68822
бе	-9.68837
▁лежит	-9.68851
▁послан	-9.68853
▁создан	-9.68906
▁напрасно	-9.6892
▁великии	-9.68976
▁николаевич	-9.69033
▁крас	-9.69161
▁пяти	-9.69215
др	-9.69237
▁участие	-9.69254
▁близ	-9.69281
▁вышла	-9.69302
▁матер	-9.69333
▁лист	-9.69452
▁стихотворения	-9.69461
▁стен	-9.69492
▁дорогои	-9.69529
ум	-9.69568
▁считал	-9.69714
▁лошади	-9.69719
▁обратно	-9.69722
▁барон	-9.69722
▁берега	-9.69777
▁моем	-9.6979
▁принадлежит	-9.69831
имся	-9.69882
▁меч	-9.69952
▁воду	-9.69985
▁горяч	-9.70005
▁судя	-9.70041
▁пес	-9.70082
▁законом	-9.70087
чки	-9.70102
▁другая	-9.70133
эн	-9.70148
▁представлен	-9.70206
▁ключ	-9.70207
▁пост	-9.7029
▁англии	-9.70372
ир	-9.70483
▁жен	-9.70505
▁причем	-9.70523
▁болшое	-9.70551
▁вернулся	-9.70577
▁всякии	-9.70582
енных	-9.70742
▁годов	-9.70892
▁портрет	-9.70893
леи	-9.70957
▁местах	-9.70983
▁февраля	-9.70987
▁развит	-9.71007
ине	-9.7103
рез	-9.71118
▁мнен	-9.71153
енныи	-9.71202
▁нежели	-9.71255
раз	-9.7128
▁будеш	-9.7146
пал	-9.71478
▁обязан	-9.71642
▁видимому	-9.71705
▁плот	-9.71725
▁пошли	-9.71725
мо	-9.71725
▁лит	-9.71726
▁шар	-9.71735
▁куп	-9.71817
▁сестра	-9.71827
▁ужасно	-9.71853
▁леса	-9.71867
▁службы	-9.71952
▁скрыт	-9.71974
▁фр	-9.72065
▁форме	-9.721
▁хозяин	-9.72231
▁пора	-9.72249
▁стены	-9.72285
▁всякои	-9.72287
▁последн	-9.72311
▁отправился	-9.72329
▁ле	-9.72428
▁рсфср	-9.7243
▁гроз	-9.72504
▁воина	-9.72572
▁вне	-9.72645
▁крикнул	-9.72659
▁великого	-9.72751
▁стоят	-9.72801
▁тен	-9.72809
▁пришли	-9.72857
▁форм	-9.72894
▁собран	-9.73017
▁москва	-9.73056
ностю	-9.73098
▁пример	-9.73128
▁впоследствии	-9.73316
▁неизвестно	-9.73318
▁завод	-9.73522
ало	-9.73527
▁ушел	-9.73548
▁другу	-9.73605
▁совершен	-9.73628
▁фе	-9.73719
▁ворот	-9.73747
▁верит	-9.73774
▁литературы	-9.73816
▁добро	-9.73827
▁герои	-9.73875
▁вест	-9.73879
ицы	-9.74009
▁вниз	-9.74053
▁редко	-9.74103
▁месяца	-9.74144
мел	-9.74213
пр	-9.74235
▁четверт	-9.74256
▁голоса	-9.74285
▁михаил	-9.74317
▁лошадеи	-9.74401
▁стояла	-9.74416
▁скажите	-9.74453
▁ер	-9.74468
сов	-9.74666
▁твоеи	-9.74688
▁государственно	-9.74709
▁учен	-9.74713
▁нож	-9.74713
▁курс	-9.7472
▁сен	-9.74848
▁улице	-9.74911
гн	-9.74925
▁господи	-9.74934
▁прочим	-9.74998
бл	-9.75001
▁неожиданно	-9.75025
▁хотела	-9.75054
▁волосы	-9.75098
цен	-9.75157
зов	-9.75214
▁слав	-9.75283
рос	-9.75311
▁чувств	-9.75351
ован	-9.75396
▁смысл	-9.75433
▁став	-9.75456
▁членов	-9.75554
▁наук	-9.7561
▁пыл	-9.75622
▁крови	-9.75632
▁своею	-9.75679
▁множество	-9.7568
▁петрович	-9.75687
▁свод	-9.7571
▁слава	-9.75724
▁глядя	-9.7573
▁оставил	-9.75731
▁именем	-9.75752
▁принес	-9.75825
▁област	-9.75916
рав	-9.75924
чер	-9.75966
▁причин	-9.75997
▁края	-9.76023
▁ям	-9.76049
рам	-9.76125
▁прием	-9.76203
▁движен	-9.76241
▁недавно	-9.7633
▁правителство	-9.76334
▁схватил	-9.76358
▁книг	-9.76426
зе	-9.76496
▁полно	-9.76647
▁стояли	-9.76664
▁гроб	-9.767
▁главное	-9.76705
▁пришла	-9.76744
рин	-9.76754
▁самая	-9.76802
▁ду	-9.76861
лев	-9.76908
▁век	-9.7695
вел	-9.77
▁праздник	-9.77013
▁друзя	-9.7703
▁устав	-9.7704
▁проклят	-9.77046
▁внезапно	-9.7706
▁свободы	-9.7709
шит	-9.77175
щик	-9.77203
▁ничто	-9.77208
▁придется	-9.77243
▁жизню	-9.77326
▁станет	-9.77344
▁договор	-9.77364
истов	-9.77432
▁ми	-9.77445
емых	-9.77472
▁дворе	-9.77475
▁обявил	-9.77513
▁читат	-9.77533
▁люб	-9.77575
▁голов	-9.77606
ися	-9.77611
▁согласно	-9.77843
▁твердо	-9.7787
▁ге	-9.77948
▁ближе	-9.77982
ву	-9.78072
▁чин	-9.78098
▁читал	-9.78125
▁гряз	-9.78136
работ	-9.78145
▁собственно	-9.78221
▁формы	-9.78246
ового	-9.78296
▁жар	-9.78308
▁художник	-9.78309
мор	-9.78346
▁служил	-9.78354
▁явился	-9.78358
▁пожалуиста	-9.78364
▁обратился	-9.78395
▁вар	-9.78419
▁движение	-9.78437
очку	-9.78437
▁ребенка	-9.78505
▁вечера	-9.78515
▁гар	-9.78583
▁спат	-9.7859
▁убежден	-9.78598
▁дворян	-9.78679
▁видя	-9.78682
ез	-9.78696
▁тур	-9.78705
▁бож	-9.78706
▁правду	-9.78734
▁ша	-9.78808
▁бу	-9.78852
▁вести	-9.78882
▁шт	-9.78899
▁ярко	-9.78926
пу	-9.78989
▁отношения	-9.79001
▁обычно	-9.79031
▁прибавил	-9.7905
▁силои	-9.79064
▁душ	-9.7911
▁графа	-9.79173
ря	-9.79181
▁посмотрел	-9.79182
▁мон	-9.79339
▁театр	-9.79523
▁велик	-9.79535
▁лун	-9.79556
нит	-9.79568
▁франции	-9.79577
▁мире	-9.79718
▁успех	-9.79719
▁спустя	-9.7976
▁раб	-9.79861
тов	-9.79965
▁кем	-9.79983
щен	-9.8002
▁ев	-9.80044
▁дядя	-9.80095
▁вор	-9.80122
▁послал	-9.80125
▁встал	-9.80284
▁входит	-9.80287
▁поднял	-9.80301
▁уходит	-9.80315
▁губерн	-9.80326
▁ред	-9.80339
▁переход	-9.80368
▁удоволств	-9.80375
▁труп	-9.80395
▁волос	-9.80414
▁сочинения	-9.80425
▁вспомнил	-9.80426
▁смел	-9.80449
▁являются	-9.80571
▁бывало	-9.80607
▁рх	-9.80635
▁искат	-9.80645
иков	-9.80751
▁рука	-9.80765
▁вера	-9.8077
▁настолко	-9.8085
▁бен	-9.8086
▁глуп	-9.8091
▁органов	-9.80919
брос	-9.80924
▁вода	-9.80984
▁дик	-9.8104
пор	-9.81065
▁знали	-9.81078
▁каждои	-9.81115
▁василевич	-9.81233
▁хор	-9.81292
▁брак	-9.81294
ющихся	-9.81316
▁каждого	-9.81445
▁краи	-9.81465
▁решения	-9.81468
▁резко	-9.8154
▁естественно	-9.81561
▁мо	-9.81563
▁первом	-9.81619
▁сделан	-9.81704
▁зная	-9.81814
▁ля	-9.81831
▁воли	-9.81831
▁борбы	-9.81835
▁лишен	-9.81939
▁ежели	-9.82076
▁живот	-9.82095
▁знала	-9.82107
▁радости	-9.82115
▁меры	-9.82162
▁поход	-9.82203
▁лицу	-9.82207
▁книгу	-9.82325
▁тепло	-9.82333
▁песни	-9.82346
▁бросил	-9.82382
▁профессор	-9.82535
▁рано	-9.8255
▁оз	-9.82556
▁никому	-9.82573
▁приходилос	-9.82584
▁непосредственно	-9.82586
▁существует	-9.82775
▁рим	-9.8283
ировал	-9.82856
▁революции	-9.8289
▁делал	-9.82902
▁стан	-9.82909
▁смотря	-9.82915
▁закричал	-9.82941
жив	-9.82951
▁видом	-9.82987
▁материал	-9.82999
▁территории	-9.83008
▁кро	-9.83022
▁службу	-9.8303
пит	-9.83069
▁сол	-9.8307
▁точки	-9.83134
▁видите	-9.83148
▁вещеи	-9.83209
▁пароход	-9.83225
▁четырех	-9.83237
енные	-9.83246
▁днем	-9.83263
▁притом	-9.83267
▁решение	-9.83362
▁извест	-9.83407
▁желая	-9.83451
▁рыб	-9.83503
▁положении	-9.83531
▁меж	-9.83543
▁заговорил	-9.83707
мон	-9.83774
▁принц	-9.83778
▁чуд	-9.83784
▁ангел	-9.83816
▁товарищ	-9.83835
▁краине	-9.83847
▁каком	-9.83857
▁вкус	-9.83912
мар	-9.83933
▁языка	-9.84002
ско	-9.84008
мест	-9.84013
▁надобно	-9.84014
▁лично	-9.84021
▁соч	-9.84032
▁сведения	-9.84035
▁сне	-9.84067
▁произведения	-9.84312
▁хлеба	-9.84412
▁склад	-9.84439
дар	-9.84454
▁сед	-9.8448
ющ	-9.84529
▁находился	-9.84569
▁верст	-9.84614
ска	-9.8464
лег	-9.84663
цем	-9.84827
▁орган	-9.84968
▁началник	-9.8497
ством	-9.84974
▁пян	-9.85001
▁упал	-9.85052
▁повер	-9.85068
▁обещал	-9.8508
стер	-9.85092
▁поэта	-9.8513
▁оказалос	-9.85271
▁звук	-9.85323
▁деятел	-9.85394
▁строи	-9.85418
▁федералного	-9.855
▁обман	-9.85502
▁судба	-9.85508
▁несомненно	-9.85538
▁сущности	-9.85538
▁составлен	-9.85559
бор	-9.85584
▁улыбкои	-9.85791
▁относится	-9.85851
▁комитет	-9.85898
▁поздно	-9.85972
▁председател	-9.8598
▁науки	-9.8607
▁москву	-9.86099
▁часы	-9.86127
▁сбор	-9.86139
▁замуж	-9.862
бы	-9.86209
▁старался	-9.86385
▁острова	-9.86412
▁главе	-9.86473
▁сомнен	-9.86481
▁толпа	-9.86506
▁шла	-9.86538
▁приговор	-9.86548
иц	-9.86626
▁епископ	-9.86628
▁черн	-9.86732
▁гром	-9.86762
▁север	-9.86784
яв	-9.86953
▁приход	-9.86956
▁руч	-9.86984
▁расчет	-9.87072
▁бои	-9.87118
▁имею	-9.87179
▁дур	-9.87216
▁девушки	-9.87236
▁всякое	-9.8724
▁говорите	-9.87295
▁цеп	-9.873
▁видим	-9.87307
▁василии	-9.8733
▁императора	-9.87361
▁обществе	-9.87376
▁кара	-9.87396
▁предложил	-9.87409
▁ок	-9.87418
▁полк	-9.87428
▁языке	-9.87455
▁трудом	-9.87458
▁возле	-9.87545
▁ваших	-9.87601
▁забыт	-9.87625
кнул	-9.87641
▁бег	-9.87714
▁семеи	-9.87717
▁безум	-9.87771
▁толстого	-9.87782
▁всяких	-9.87792
▁друзеи	-9.87813
▁системы	-9.87846
▁надеюс	-9.87857
▁запис	-9.8787
▁видиш	-9.87887
▁круг	-9.87926
ош	-9.87978
▁отлично	-9.87978
дав	-9.8798
▁коли	-9.87983
▁управления	-9.88081
▁груст	-9.88092
▁сборник	-9.88113
▁хочется	-9.88129
▁сыр	-9.88156
▁добрыи	-9.88206
▁прошел	-9.88238
▁стате	-9.88285
▁русские	-9.88295
▁осталос	-9.88372
▁принимал	-9.88379
иг	-9.88385
уз	-9.88389
▁счастлив	-9.88437
гар	-9.88623
бел	-9.88657
▁гул	-9.88693
лан	-9.88798
ции	-9.8883
▁тысячи	-9.88937
▁храм	-9.88964
▁отчаян	-9.8899
▁полковник	-9.8901
том	-9.89019
▁имен	-9.89073
▁сказано	-9.89075
аите	-9.89092
▁запас	-9.891
▁мелк	-9.89114
▁слушат	-9.89147
▁верховного	-9.89184
▁времена	-9.89241
▁ча	-9.89255
▁бсэ	-9.8952
жал	-9.89549
аеш	-9.89554
▁пир	-9.89555
▁различных	-9.89612
кол	-9.89674
нер	-9.8973
▁постепенно	-9.89743
▁написан	-9.89762
люб	-9.89817
▁искусство	-9.89881
▁михаилович	-9.89892
▁кот	-9.89942
▁священник	-9.89958
▁ры	-9.90015
▁последних	-9.90016
▁шаг	-9.90029
фа	-9.90038
▁грех	-9.90142
▁комиссии	-9.90194
▁евреи	-9.90198
аз	-9.902
▁признан	-9.90221
▁тре	-9.90244
ющие	-9.90277
▁эр	-9.90333
▁рез	-9.90352
▁лесу	-9.90389
ход	-9.90395
▁поп	-9.90436
▁впереди	-9.90489
▁алексеи	-9.90576
овскии	-9.90607
▁построен	-9.90612
▁можеш	-9.90627
▁степ	-9.90648
▁составляет	-9.90669
▁андреи	-9.90698
▁обяснит	-9.90699
▁надежды	-9.90702
▁лен	-9.90711
▁разсказ	-9.90893
▁здорове	-9.90926
шки	-9.90946
▁рис	-9.91013
▁дурак	-9.91021
▁александра	-9.91102
▁некоторое	-9.91129
▁силнее	-9.91168
▁москвы	-9.91233
▁приходится	-9.91358
сел	-9.9141
▁площад	-9.91544
кар	-9.91639
вали	-9.91652
вшихся	-9.91653
▁кап	-9.91683
чест	-9.91706
▁начали	-9.91739
ющии	-9.91785
▁ждат	-9.91804
▁знаем	-9.91831
▁течен	-9.9187
▁финансов	-9.91874
▁памяти	-9.91975
▁пожар	-9.91983
▁каждом	-9.91987
▁деиствие	-9.92015
▁сидит	-9.92086
олог	-9.92096
▁происходит	-9.92127
▁словах	-9.92144
▁месяцев	-9.92154
▁сут	-9.92196
▁значително	-9.92209
▁вып	-9.92211
▁устал	-9.92251
▁окно	-9.92281
▁тобою	-9.92287
▁жителеи	-9.92292
рад	-9.92299
говор	-9.92302
зем	-9.92312
▁павел	-9.92401
▁соглас	-9.92452
▁выс	-9.92507
▁забыл	-9.92523
▁предмет	-9.92588
▁бе	-9.92593
▁самую	-9.92641
▁школы	-9.92738
▁опасност	-9.92758
▁свеж	-9.92819
▁нашим	-9.92822
овна	-9.92834
▁молодая	-9.92887
ниц	-9.92929
од	-9.92966
алас	-9.93001
▁нея	-9.9305
▁союза	-9.93054
▁отряд	-9.93112
▁предан	-9.93131
▁предложен	-9.93152
▁теле	-9.93169
▁выбор	-9.93175
▁приходит	-9.93188
▁ново	-9.93267
▁звезд	-9.93275
шен	-9.93291
▁руке	-9.93319
дет	-9.93421
▁некогда	-9.93435
сен	-9.93443
▁федор	-9.93498
слуш	-9.93505
▁маг	-9.93537
▁автора	-9.9357
▁дитя	-9.93594
▁мак	-9.93624
▁стих	-9.9363
вших	-9.93647
▁внимания	-9.9365
▁звер	-9.9368
▁начинал	-9.93727
▁игра	-9.93764
ище	-9.9377
▁тени	-9.93782
▁почувствовал	-9.93827
вшии	-9.93834
иват	-9.93846
▁дорога	-9.93868
чев	-9.93884
▁видимо	-9.93888
▁последнеи	-9.93929
▁внутри	-9.93934
▁недели	-9.93956
▁смотрит	-9.9396
пе	-9.94006
▁нашу	-9.9408
▁жену	-9.94155
▁дали	-9.94176
▁корабл	-9.94192
▁кодекса	-9.94221
▁пошла	-9.9433
▁отчет	-9.94418
▁русская	-9.94477
▁широко	-9.9451
▁другому	-9.9457
▁дому	-9.94596
▁словам	-9.94596
▁холодно	-9.94623
зор	-9.94633
▁отчасти	-9.94675
▁работат	-9.9473
инг	-9.9486
▁вина	-9.94869
▁издание	-9.94876
▁навсегда	-9.94891
▁получен	-9.94977
▁десяти	-9.95032
▁вашим	-9.95085
ог	-9.95157
▁содержание	-9.95197
▁болезни	-9.95313
▁акт	-9.9532
▁возразил	-9.95375
▁вдол	-9.95442
▁дев	-9.95467
▁васил	-9.95607
▁бумаги	-9.95616
▁готовы	-9.95684
цион	-9.95701
▁ехал	-9.95748
▁придет	-9.95755
▁приехал	-9.9579
тин	-9.95879
▁приятно	-9.95911
▁култур	-9.95987
▁обоих	-9.96002
пел	-9.96045
▁помог	-9.96065
▁миг	-9.96088
▁вред	-9.96209
▁верх	-9.96217
мысл	-9.96381
▁болших	-9.96463
▁ответила	-9.96482
▁темно	-9.96489
▁фон	-9.96497
▁удивлен	-9.96516
▁болшие	-9.96571
▁православ	-9.96592
▁исполнен	-9.96631
▁че	-9.96666
▁позволте	-9.96681
▁нашем	-9.96695
▁тон	-9.96721
▁опасности	-9.96807
▁зем	-9.96811
▁болшинство	-9.96812
кро	-9.96832
▁идут	-9.96854
▁круп	-9.96863
нин	-9.96872
ста	-9.96875
▁болезн	-9.96912
▁мам	-9.96919
▁пояс	-9.96947
▁думает	-9.96984
▁чаще	-9.96986
▁милая	-9.96999
▁снег	-9.9702
▁воздухе	-9.97044
▁мод	-9.97045
▁александрович	-9.9706
▁ил	-9.97109
▁губы	-9.97114
▁нашли	-9.97141
▁разные	-9.97196
▁повест	-9.97273
▁учител	-9.97333
▁состояние	-9.97365
▁отцу	-9.9737
ическои	-9.97408
▁название	-9.97538
▁арм	-9.97584
жит	-9.97616
▁желал	-9.97641
▁тел	-9.97749
▁доклад	-9.97762
▁огня	-9.97823
▁значен	-9.97829
щии	-9.9783
▁вол	-9.97905
▁рос	-9.97916
▁деревя	-9.9813
▁плач	-9.98179
▁пушкина	-9.98236
ющим	-9.98374
етес	-9.98489
▁взглядом	-9.98573
рат	-9.98587
▁анти	-9.986
тив	-9.98703
▁сход	-9.98722
▁врач	-9.98738
▁мужчин	-9.98742
ена	-9.98778
▁тоном	-9.98794
овая	-9.98841
▁поступил	-9.98844
▁взглянул	-9.98883
▁константин	-9.98965
кан	-9.9903
▁тар	-9.99054
▁упрек	-9.99296
лич	-9.99304
▁лег	-9.99386
▁количество	-9.99392
▁боюс	-9.99399
дон	-9.99432
▁папа	-9.99442
ана	-9.99473
▁слегка	-9.99515
ган	-9.99516
▁архив	-9.99518
▁вестник	-9.99532
▁светло	-9.99594
▁столб	-9.9961
▁всяк	-9.99626
уш	-9.99628
ивая	-9.99648
▁глас	-9.997
▁капитал	-9.99708
няя	-9.99712
▁нашему	-9.99713
▁покор	-9.99747
▁судов	-9.99751
▁делается	-9.99768
▁скал	-9.99873
▁имела	-9.99949
▁приведен	-10
▁класс	-10.0002
▁поставлен	-10.0007
▁зрения	-10.001
▁требует	-10.0014
▁пожал	-10.0017
▁талант	-10.0021
▁насколко	-10.0026
зна	-10.0027
▁общего	-10.003
▁счастя	-10.0031
ида	-10.0035
▁ох	-10.0036
▁обращен	-10.0038
▁показалос	-10.0044
▁впечатление	-10.0047
▁характера	-10.0047
▁одновременно	-10.0048
▁показал	-10.0055
▁двое	-10.0065
ации	-10.0065
▁газеты	-10.0078
▁бит	-10.0078
▁гост	-10.0081
▁деиствителности	-10.0081
▁див	-10.0089
кал	-10.0092
▁вашу	-10.0101
▁клуб	-10.0103
уют	-10.011
▁углу	-10.0124
▁населения	-10.0124
▁слушал	-10.0125
▁вышли	-10.0127
▁народу	-10.0127
▁аз	-10.0137
▁зла	-10.014
▁му	-10.0141
чал	-10.0141
▁мама	-10.0148
▁центр	-10.0152
▁думала	-10.0156
зар	-10.0161
▁имея	-10.0163
▁братя	-10.0164
мол	-10.0164
▁престол	-10.0165
▁фер	-10.0166
▁будете	-10.0166
▁перемен	-10.0173
▁вывод	-10.018
▁веру	-10.0182
▁академии	-10.0188
▁лап	-10.0189
▁надежда	-10.0191
▁считат	-10.0193
▁законов	-10.0194
нице	-10.0195
▁губернии	-10.0196
▁сделали	-10.0201
▁воин	-10.0203
▁фил	-10.0207
▁веры	-10.0218
▁гнев	-10.0223
▁отдат	-10.0225
▁желание	-10.023
▁дав	-10.0233
▁новгород	-10.0235
▁молодого	-10.0236
▁необходимости	-10.0244
ывая	-10.0249
жат	-10.0253
щих	-10.0254
▁начинает	-10.0256
▁мнение	-10.0256
▁села	-10.0262
▁филипп	-10.0262
▁ничем	-10.0263
▁раза	-10.0266
▁стране	-10.0267
▁картин	-10.0268
▁самим	-10.0273
▁дю	-10.0277
▁называется	-10.028
▁тепл	-10.0282
▁поднят	-10.0283
▁пара	-10.0289
▁держат	-10.0293
▁удивително	-10.0295
▁причины	-10.0295
▁делом	-10.0295
▁европы	-10.031
▁великои	-10.0313
кур	-10.0318
жил	-10.032
шис	-10.0322
▁богом	-10.0324
▁книге	-10.0329
▁адвокат	-10.0331
▁собственности	-10.0332
▁вашему	-10.0334
▁волны	-10.0338
▁встреча	-10.0339
▁спросит	-10.0342
▁вверх	-10.0346
лог	-10.0348
емые	-10.0356
▁деревне	-10.0359
▁старин	-10.036
▁неделю	-10.0364
▁уме	-10.0365
▁белыи	-10.0368
▁стола	-10.0372
ител	-10.0372
став	-10.0397
▁гогол	-10.0402
пат	-10.041
▁болшеи	-10.0415
▁лед	-10.0417
▁рыцар	-10.0423
▁решился	-10.0425
▁ребенок	-10.0428
▁слаб	-10.0433
▁иса	-10.0437
▁банк	-10.0437
меня	-10.0438
▁марк	-10.0438
▁помоч	-10.0438
тес	-10.0439
град	-10.044
прав	-10.044
при	-10.044
▁золото	-10.0441
▁лежал	-10.0444
▁помещен	-10.0459
▁новая	-10.046
▁твоего	-10.0462
▁контрол	-10.0464
▁общее	-10.0465
▁государя	-10.0469
▁старуха	-10.047
▁описан	-10.0472
▁важно	-10.0476
▁бюджет	-10.0479
рош	-10.0482
▁рскд	-10.0484
▁решен	-10.0488
▁народов	-10.0494
▁забот	-10.0495
▁мнению	-10.0499
▁преимущественно	-10.0509
▁правилно	-10.0509
зи	-10.0509
▁хотели	-10.0511
▁повторил	-10.0518
▁расп	-10.0519
лез	-10.052
шии	-10.0522
иан	-10.0531
▁шут	-10.0532
▁обязанности	-10.0534
▁занял	-10.0539
▁милост	-10.054
▁условия	-10.054
▁слух	-10.054
▁нисколко	-10.055
▁смех	-10.0557
сил	-10.0557
▁печ	-10.056
▁инд	-10.0563
▁борис	-10.0565
▁писем	-10.0567
яет	-10.0568
тал	-10.0571
чка	-10.0573
▁следовало	-10.0574
▁нужны	-10.0576
▁любовю	-10.0579
▁видела	-10.058
доб	-10.0582
▁европе	-10.0585
▁государственных	-10.0586
▁казан	-10.0591
▁хан	-10.0592
рев	-10.0601
▁маря	-10.0602
▁собрания	-10.0604
▁постели	-10.0606
▁система	-10.0606
▁графиня	-10.061
енки	-10.061
▁хорош	-10.0613
▁ответа	-10.0614
▁влияние	-10.0614
▁отношение	-10.0618
быт	-10.062
▁луч	-10.062
▁поезд	-10.0621
▁трав	-10.0628
▁лов	-10.063
под	-10.0635
▁провел	-10.0639
▁един	-10.064
▁ел	-10.064
▁довер	-10.0641
▁живут	-10.0645
▁товаров	-10.0648
▁бок	-10.0652
▁мног	-10.0657
тр	-10.0658
▁рост	-10.0658
▁воле	-10.0659
▁писан	-10.0662
▁концов	-10.0665
▁горд	-10.0668
▁сум	-10.0669
▁последнего	-10.0669
▁ут	-10.067
▁старика	-10.0671
▁носит	-10.0671
щие	-10.0679
шев	-10.0679
▁начат	-10.0682
▁сделался	-10.069
▁отделных	-10.0691
▁берет	-10.0693
▁корм	-10.0702
▁дуб	-10.0703
вет	-10.0708
▁поспешно	-10.0711
чет	-10.0714
▁оттого	-10.0721
▁встретил	-10.0727
▁осталис	-10.0732
эм	-10.0735
▁дра	-10.0736
▁париже	-10.0737
▁тор	-10.0741
▁вступил	-10.0742
▁требования	-10.0742
▁личност	-10.0743
▁сказали	-10.0747
▁явление	-10.0749
▁колени	-10.0749
▁батюшка	-10.0756
▁правила	-10.0762
▁мужик	-10.0769
зд	-10.0773
▁вопроса	-10.0779
▁обеда	-10.078
▁исход	-10.079
▁договора	-10.0791
▁сорок	-10.0792
▁девят	-10.0793
▁груз	-10.0795
▁двора	-10.0796
▁народных	-10.0799
▁полка	-10.08
▁тридцат	-10.08
▁группы	-10.0802
▁случаино	-10.0803
▁оборот	-10.0804
▁населен	-10.0808
леп	-10.0809
▁иск	-10.0812
▁живо	-10.0813
▁указан	-10.0813
ур	-10.0814
▁целую	-10.0818
▁склон	-10.0821
▁ногами	-10.0825
ително	-10.0827
▁раст	-10.0832
▁бат	-10.0834
▁молодых	-10.0838
▁посвящен	-10.0839
▁словар	-10.084
▁сверх	-10.0846
▁тургенев	-10.0854
▁михаилов	-10.0857
тар	-10.0861
гла	-10.0865
▁кле	-10.0874
▁нужда	-10.0876
▁пи	-10.0878
▁общеи	-10.0881
▁звон	-10.0886
▁ненавист	-10.0887
▁поидем	-10.0897
▁производства	-10.0903
▁каждое	-10.0908
▁новую	-10.0909
▁семя	-10.0909
ред	-10.0915
водит	-10.0916
▁вино	-10.092
ент	-10.0924
▁источник	-10.093
▁деиствии	-10.0935
▁прежнему	-10.0937
▁подле	-10.0937
▁лоб	-10.0937
▁лорд	-10.0945
▁выражение	-10.0945
▁имеется	-10.0948
▁казн	-10.0958
инскии	-10.0958
▁родился	-10.0963
▁животных	-10.0972
▁знают	-10.0973
▁возми	-10.0974
▁выити	-10.0979
▁фи	-10.0982
▁жили	-10.0983
▁ранен	-10.0984
▁богат	-10.0995
▁дед	-10.0997
▁городов	-10.0999
▁воспоминания	-10.1008
гра	-10.1009
сп	-10.1022
▁свер	-10.1026
ические	-10.1028
▁внимателно	-10.1028
▁показат	-10.1032
▁земел	-10.1033
▁позднее	-10.1033
▁порядка	-10.1035
▁непо	-10.1038
▁комитета	-10.104
▁черты	-10.104
▁борба	-10.1043
▁превосход	-10.1046
▁частеи	-10.1049
ания	-10.105
рожден	-10.1051
▁сергеи	-10.1052
▁корабля	-10.1052
▁заметит	-10.1052
ад	-10.1055
▁звуки	-10.1058
▁сидела	-10.1066
▁друж	-10.1069
гре	-10.107
▁сперва	-10.1074
бои	-10.1076
▁оригинал	-10.1076
▁иду	-10.1079
▁девочка	-10.1079
▁лин	-10.1081
▁сомнения	-10.1082
▁противника	-10.1082
▁ходил	-10.1085
▁болно	-10.1088
▁следующее	-10.1093
▁прост	-10.1102
▁осталные	-10.1106
▁пил	-10.1108
▁продолжала	-10.1112
▁третии	-10.1116
▁картины	-10.1116
▁безопасности	-10.1117
▁лук	-10.1123
▁условии	-10.1126
▁украшен	-10.1127
▁нередко	-10.113
▁всюду	-10.1133
▁дама	-10.1136
▁даи	-10.1136
ывает	-10.1139
▁наряд	-10.1141
▁благодарю	-10.1145
цам	-10.1151
▁носил	-10.1153
▁сидя	-10.1156
▁исполнит	-10.1158
▁уезд	-10.1162
▁неудач	-10.1162
▁настоящим	-10.1162
▁влюблен	-10.1165
▁слабо	-10.1166
▁различ	-10.1166
ств	-10.1167
▁работе	-10.1169
▁далек	-10.1171
▁играт	-10.1176
вшееся	-10.1176
▁должности	-10.1181
▁поставил	-10.1182
раж	-10.1184
▁класса	-10.1185
▁рожден	-10.1186
▁потерял	-10.1186
▁джон	-10.1188
▁экипаж	-10.1189
▁поиду	-10.1189
▁печати	-10.119
▁арбитражного	-10.119
▁лондон	-10.1191
▁мыслеи	-10.1194
▁спуска	-10.1194
▁бран	-10.1199
служ	-10.12
▁поток	-10.1201
▁значения	-10.1204
рек	-10.1206
▁гер	-10.121
▁бросился	-10.121
дач	-10.1211
рож	-10.1211
▁явлен	-10.1219
▁губернатор	-10.1224
▁ят	-10.1236
▁пел	-10.1243
▁метод	-10.1244
▁почтен	-10.1245
▁положил	-10.1248
ического	-10.1249
▁остав	-10.125
▁жене	-10.125
▁цветы	-10.1252
▁судит	-10.1262
▁слезами	-10.1265
▁пристав	-10.1268
▁член	-10.1269
▁слышат	-10.1271
▁кавалер	-10.1273
дум	-10.1278
рд	-10.1279
▁толпы	-10.128
▁чи	-10.1282
▁россия	-10.1285
▁находит	-10.1288
▁нежно	-10.1292
▁вооружен	-10.1295
раст	-10.13
▁громад	-10.13
дов	-10.1309
ницеи	-10.1309
▁произошло	-10.1313
▁намек	-10.1315
еннои	-10.1316
▁виктор	-10.1318
▁форма	-10.132
▁бежат	-10.1321
бил	-10.1322
рус	-10.1328
▁документов	-10.133
▁инженер	-10.1331
▁посредством	-10.1331
▁легче	-10.1334
ху	-10.1337
бин	-10.1339
авших	-10.134
▁освещен	-10.1344
▁исключением	-10.1346
▁депутатов	-10.1347
▁твоих	-10.1347
▁христа	-10.1348
▁роскош	-10.1351
▁муч	-10.1351
▁плав	-10.1358
▁номер	-10.1363
▁кабинет	-10.1365
▁заявил	-10.1366
▁первую	-10.1367
▁полном	-10.1368
▁охотно	-10.1372
▁похвал	-10.1374
▁камер	-10.138
пи	-10.1387
▁умел	-10.1389
▁клад	-10.1392
▁помощю	-10.1394
▁бедныи	-10.1398
▁читател	-10.1402
▁такими	-10.1405
▁жестоко	-10.1405
▁волю	-10.1408
▁мечта	-10.1408
▁работал	-10.141
▁максим	-10.1414
▁замок	-10.1416
гля	-10.1417
▁изменения	-10.1418
▁указал	-10.142
▁явля	-10.142
евои	-10.1424
▁назвал	-10.1429
▁скот	-10.1431
▁иванов	-10.1432
▁петров	-10.1445
фт	-10.1447
▁почет	-10.1447
ическое	-10.1448
▁товар	-10.145
▁плат	-10.1454
ви	-10.1455
▁одинаково	-10.1459
▁услышал	-10.1461
▁занимал	-10.1467
год	-10.1467
▁птиц	-10.1468
▁замет	-10.1472
▁обстоятелства	-10.1474
▁понятно	-10.1474
▁уз	-10.1474
▁вин	-10.1476
▁скорб	-10.1477
▁рассказал	-10.1478
енная	-10.148
▁борбе	-10.1483
тан	-10.1485
▁стул	-10.1487
▁зале	-10.1494
▁коня	-10.1498
▁ранее	-10.1498
▁эк	-10.15
▁полнои	-10.15
▁поднялся	-10.1501
▁цвета	-10.1503
▁школ	-10.1504
▁бан	-10.1514
▁желез	-10.1514
нят	-10.1517
▁тыс	-10.1517
▁принцип	-10.1524
▁образования	-10.1527
▁обратил	-10.1529
▁свободу	-10.1529
▁вскочил	-10.153
▁прибыл	-10.153
▁страха	-10.1532
▁условиях	-10.1532
▁мари	-10.1534
▁плод	-10.1538
▁увидал	-10.1544
▁свободно	-10.1552
▁смотри	-10.1553
▁виноват	-10.1555
▁сестры	-10.1556
▁утвержден	-10.1557
▁бывают	-10.1558
▁новым	-10.1561
▁степан	-10.157
ела	-10.158
▁сочинен	-10.1588
▁маи	-10.1592
зв	-10.1597
вшиися	-10.16
▁необыкновенно	-10.1601
▁зад	-10.1601
▁кад	-10.1601
▁град	-10.1602
▁сообщил	-10.1606
▁радостно	-10.1606
▁разрешен	-10.1607
▁достиг	-10.1611
▁слуга	-10.1613
▁собор	-10.1616
▁побед	-10.1624
▁порыв	-10.1625
тро	-10.1627
▁навстречу	-10.1632
▁счаст	-10.1633
▁мощ	-10.1636
леч	-10.1637
▁песн	-10.164
▁снял	-10.1645
рик	-10.165
▁скажет	-10.1651
▁кал	-10.1661
▁окруж	-10.1663
▁делах	-10.1666
▁редактор	-10.1673
▁арх	-10.1675
▁сп	-10.1676
▁умерет	-10.1678
▁степен	-10.168
▁рок	-10.1687
тои	-10.169
ющеи	-10.1691
▁личности	-10.1695
▁спал	-10.1699
ическая	-10.17
▁дум	-10.1701
пут	-10.1702
ову	-10.1705
▁суди	-10.1706
▁киев	-10.1708
▁стакан	-10.1714
▁рф	-10.1717
▁подпис	-10.1719
иров	-10.1728
▁рукою	-10.1731
▁доктора	-10.1734
▁думаете	-10.1736
▁добродетел	-10.1738
▁сред	-10.1739
▁стыд	-10.1739
▁маленкии	-10.1742
▁кредит	-10.1748
▁члены	-10.1751
▁нравится	-10.1751
вест	-10.1756
▁адрес	-10.1764
вала	-10.1766
строи	-10.1766
руч	-10.1775
▁свист	-10.1776
▁ровно	-10.1781
▁жесток	-10.1788
ющего	-10.1792
▁роде	-10.1793
▁законы	-10.1794
▁хвост	-10.1794
▁вроде	-10.1799
▁гре	-10.1804
▁содержан	-10.1808
▁реке	-10.1812
▁мен	-10.1812
нс	-10.1821
кор	-10.1824
аж	-10.1827
▁состоял	-10.1828
▁рукопис	-10.1829
▁издател	-10.183
▁слеп	-10.1837
▁согласился	-10.1839
▁ласково	-10.1839
стат	-10.1839
▁воине	-10.1847
рит	-10.1852
▁слуг	-10.1865
▁ы	-10.1866
▁святои	-10.1866
▁остатся	-10.1867
▁ящик	-10.1869
атор	-10.1871
▁делам	-10.1871
нула	-10.1874
▁ск	-10.1874
▁подпункт	-10.1878
▁каждым	-10.1881
▁низко	-10.1882
авш	-10.1883
▁положит	-10.1884
▁изумлен	-10.1885
▁линии	-10.189
▁барин	-10.1893
▁обязанност	-10.1894
▁делают	-10.1895
▁ведет	-10.1896
▁германии	-10.1896
▁отделно	-10.1897
ора	-10.1897
▁прим	-10.1898
▁вскричал	-10.1902
▁устроит	-10.1905
ген	-10.1905
▁брос	-10.1905
има	-10.1906
▁непри	-10.1908
▁поидет	-10.1909
вшегося	-10.1913
▁постел	-10.1914
бол	-10.1916
▁находятся	-10.1919
▁признат	-10.1919
▁благород	-10.1933
▁подобных	-10.1934
▁уити	-10.1947
▁воину	-10.1948
▁верхов	-10.1952
▁фз	-10.1954
▁временем	-10.1959
▁произведении	-10.1959
▁повел	-10.1963
▁матушка	-10.1967
▁гостеи	-10.1973
▁уехал	-10.1974
▁товарищеи	-10.1976
гал	-10.1977
▁считает	-10.198
▁страсти	-10.1982
▁блеск	-10.1984
▁наверное	-10.1985
▁рев	-10.1986
ишся	-10.1988
▁врагов	-10.199
фе	-10.1991
▁молодые	-10.1994
▁неза	-10.1996
▁кан	-10.1998
пан	-10.2002
дор	-10.2002
дом	-10.2003
▁грустно	-10.2004
ике	-10.2004
▁оставлен	-10.2007
▁стараяс	-10.2013
▁узнав	-10.2016
▁река	-10.2019
▁воля	-10.2027
▁солдаты	-10.2029
▁противоположно	-10.2036
▁природа	-10.2039
ливо	-10.2039
▁кул	-10.204
лян	-10.2041
ция	-10.2042
▁здоров	-10.2042
▁вернутся	-10.2043
▁имущества	-10.2046
▁уд	-10.2049
зу	-10.2052
▁рассказывал	-10.2056
▁сидели	-10.2057
щего	-10.2062
▁великолеп	-10.2067
▁оставалос	-10.2068
▁представил	-10.2078
▁нигде	-10.2081
▁поехал	-10.2081
▁улицу	-10.2081
▁поспешил	-10.2088
▁законодателство	-10.209
ообраз	-10.2091
▁записки	-10.2096
▁уступ	-10.2097
▁мастер	-10.2098
▁старого	-10.2098
▁государственныи	-10.2102
▁разд	-10.2102
очек	-10.2104
роч	-10.2105
▁дявол	-10.2105
▁раси	-10.211
▁нынче	-10.2113
▁продолжат	-10.2117
▁болшого	-10.2121
▁ло	-10.2121
▁погиб	-10.2121
▁изображен	-10.2125
▁существо	-10.2131
▁зуб	-10.2132
тен	-10.2134
▁сердцем	-10.2134
ившии	-10.2137
▁очерк	-10.2138
▁топ	-10.2144
город	-10.215
▁бра	-10.215
▁неба	-10.2159
енным	-10.2168
▁желаю	-10.2169
▁русск	-10.217
нка	-10.2171
▁хотят	-10.2172
▁газет	-10.2174
▁щ	-10.218
▁величество	-10.2181
▁опер	-10.2183
▁историю	-10.2183
▁двадцати	-10.2184
▁татар	-10.2189
▁историк	-10.2192
▁мгновен	-10.2193
▁каждая	-10.22
▁дер	-10.2201
▁оставатся	-10.2202
▁сухо	-10.2203
▁картина	-10.2206
нки	-10.2206
▁ед	-10.2207
▁двенадцат	-10.221
▁веков	-10.2221
▁таины	-10.2221
▁заключается	-10.2222
▁спасен	-10.2222
▁впечатлен	-10.2227
▁чудес	-10.2229
▁старои	-10.2236
▁сделала	-10.2238
▁деиствоват	-10.2238
▁воспитан	-10.2241
ата	-10.2242
▁люд	-10.2248
▁син	-10.2249
▁воскликнула	-10.2254
▁министра	-10.2256
▁литературе	-10.2257
▁касс	-10.2259
▁разу	-10.2262
▁сест	-10.2262
▁сознан	-10.2264
▁бежал	-10.2265
▁насчет	-10.2269
иям	-10.227
▁надел	-10.227
▁услуг	-10.2271
▁господина	-10.2273
▁каса	-10.2274
▁всп	-10.2274
▁документ	-10.2274
▁восем	-10.228
▁видал	-10.228
▁передат	-10.2287
▁написат	-10.229
▁отвечает	-10.2292
▁вдали	-10.2293
▁смело	-10.2294
пла	-10.2296
▁данных	-10.2299
ци	-10.2304
ложен	-10.2305
ивает	-10.2305
шат	-10.2306
▁супруг	-10.231
▁столом	-10.2312
▁мет	-10.2312
▁попал	-10.2316
▁скореи	-10.2327
▁улицы	-10.2327
знач	-10.2327
▁генрих	-10.2328
овыи	-10.2331
зин	-10.2336
лд	-10.2338
▁дают	-10.2341
елен	-10.2342
▁повидимому	-10.2342
чку	-10.2345
▁иоанн	-10.2348
▁писателя	-10.2351
пет	-10.2351
▁говори	-10.2352
▁рек	-10.2352
▁осталас	-10.2354
▁раздался	-10.2358
ация	-10.2361
хот	-10.2368
▁канал	-10.2369
▁живои	-10.2372
▁великим	-10.2376
▁трое	-10.2376
▁университет	-10.238
▁интересов	-10.2382
▁события	-10.2382
▁исполнител	-10.2384
▁ивановна	-10.239
▁саду	-10.2394
▁справедливо	-10.2397
▁ударил	-10.24
▁принимат	-10.24
▁заставит	-10.2406
нд	-10.2407
▁собак	-10.2408
▁семе	-10.2408
▁песня	-10.2418
▁округа	-10.2422
▁горко	-10.2428
веща	-10.243
▁позор	-10.243
▁апостол	-10.2431
▁способност	-10.2432
▁товарищи	-10.2436
▁возраста	-10.2437
луч	-10.2437
▁зубы	-10.2438
енного	-10.244
▁хлоп	-10.2446
▁собака	-10.2447
сто	-10.2449
▁святых	-10.2454
▁направлении	-10.2456
остю	-10.2456
▁езд	-10.2457
▁рабоч	-10.2463
▁швеицар	-10.2464
ивш	-10.2469
▁ворота	-10.2469
▁знамен	-10.247
чек	-10.2471
▁спрашивает	-10.2474
▁деревни	-10.2475
▁хх	-10.2477
▁особ	-10.2477
▁ивана	-10.2494
▁консул	-10.2494
вшиеся	-10.2496
▁проповед	-10.2497
▁директор	-10.2497
▁гус	-10.2499
▁общем	-10.25
▁парт	-10.2504
▁пу	-10.2505
▁понятия	-10.2509
▁органа	-10.2509
нова	-10.2516
▁торгов	-10.2521
▁президент	-10.2527
▁неболшои	-10.2528
▁греческ	-10.2532
▁песен	-10.2535
▁торжественно	-10.2538
▁жир	-10.2539
▁необходимост	-10.2541
шего	-10.2542
▁воде	-10.2545
▁подчинен	-10.2546
▁подробно	-10.255
▁увидет	-10.2555
▁коров	-10.2556
▁старая	-10.2558
▁подоб	-10.2558
▁вопросов	-10.2559
▁всякаго	-10.2562
▁царство	-10.2563
▁водои	-10.2563
▁бас	-10.2571
▁слыхал	-10.2573
▁повод	-10.2575
▁домов	-10.2582
вшаяся	-10.2583
▁даст	-10.2583
▁мрачно	-10.2583
▁крыл	-10.2584
▁шу	-10.2586
▁каждому	-10.2586
▁останется	-10.2587
▁скрип	-10.2589
иди	-10.259
вшие	-10.2592
▁окружен	-10.2593
▁небе	-10.2594
▁судно	-10.2595
▁рож	-10.2599
▁выгод	-10.2603
▁ант	-10.2606
▁мужчины	-10.2607
▁думы	-10.2609
▁обыкновен	-10.261
▁сине	-10.261
▁поэтическ	-10.2616
▁возвышен	-10.2618
▁пле	-10.262
▁цензур	-10.262
шт	-10.2621
▁наука	-10.2623
шир	-10.2637
▁убил	-10.2638
▁осад	-10.2638
▁корпус	-10.2639
▁леди	-10.2643
шедш	-10.2644
▁назват	-10.2645
▁иностранных	-10.2648
▁охран	-10.2649
▁машин	-10.265
▁присутств	-10.2651
▁отзыв	-10.2654
▁наполеон	-10.2657
▁бело	-10.2659
▁глубине	-10.2661
▁чел	-10.2665
▁истинно	-10.2666
▁чувствую	-10.2668
▁тан	-10.2669
▁отправля	-10.267
▁чер	-10.2672
▁положително	-10.2672
▁издания	-10.2676
▁жан	-10.2678
▁летом	-10.268
▁заметила	-10.2683
▁дават	-10.2688
▁поэзии	-10.2692
▁хр	-10.2692
анов	-10.2693
ающих	-10.2694
▁примет	-10.2697
▁вторая	-10.27
▁корен	-10.2708
▁медвед	-10.271
▁сезд	-10.2714
▁твою	-10.2714
▁либерал	-10.2716
▁лад	-10.2716
▁поставит	-10.2717
▁враг	-10.2717
▁прости	-10.2721
▁отправлен	-10.2723
▁дорого	-10.2724
▁молчан	-10.2724
▁приятел	-10.2726
▁принимает	-10.2727
исты	-10.2728
▁единственно	-10.2729
▁орлов	-10.273
▁холм	-10.2731
тра	-10.2732
▁проводит	-10.2733
▁красоты	-10.2736
▁соединя	-10.2737
▁нрав	-10.2743
пар	-10.2744
▁службе	-10.2751
гад	-10.2751
▁баз	-10.2755
▁карт	-10.2756
▁мудр	-10.2759
▁одет	-10.276
▁шею	-10.2763
фер	-10.2764
▁искал	-10.2765
▁дерево	-10.2768
▁ждал	-10.2769
▁ши	-10.2771
▁империи	-10.2778
▁стои	-10.2779
▁общин	-10.2781
▁связан	-10.2786
▁николая	-10.2789
▁женои	-10.279
ены	-10.2795
▁шести	-10.2795
▁крут	-10.2796
▁проходит	-10.2799
валис	-10.2801
▁подумат	-10.2801
▁полос	-10.2802
крас	-10.2805
пот	-10.2807
▁актер	-10.2808
▁театра	-10.2813
ач	-10.2815
▁держал	-10.2816
▁какими	-10.2817
▁монарх	-10.282
▁нерв	-10.2821
▁крепости	-10.2825
▁думаеш	-10.2827
▁оста	-10.283
ицу	-10.2834
▁флот	-10.2837
▁духом	-10.2839
▁совести	-10.2841
полз	-10.2842
▁вида	-10.2843
▁звезды	-10.2843
▁народного	-10.2846
▁обр	-10.2855
▁отцом	-10.2864
ател	-10.2864
▁колес	-10.2864
▁гармон	-10.2869
▁кстати	-10.2877
▁высшеи	-10.2877
слав	-10.2879
▁сердцу	-10.288
эт	-10.2883
▁внутренних	-10.2883
▁принадлежат	-10.2888
▁литература	-10.2893
▁исполнение	-10.2896
▁ше	-10.2898
▁будущем	-10.2898
▁главныи	-10.2899
вшеися	-10.29
▁королев	-10.2903
▁кровю	-10.2908
▁поступ	-10.291
▁кра	-10.2913
▁россию	-10.2915
▁милости	-10.2922
▁смут	-10.2923
▁взяла	-10.2924
▁дурно	-10.2924
▁осторожно	-10.2925
нулся	-10.2929
▁снят	-10.2929
щая	-10.2933
▁глин	-10.2936
▁свин	-10.2939
нен	-10.2939
▁княгиня	-10.2939
▁петербурга	-10.294
авшии	-10.2943
▁запах	-10.2943
▁туч	-10.2949
гнут	-10.295
▁проводил	-10.2956
шку	-10.296
▁дж	-10.2963
ук	-10.2964
▁смотрели	-10.2965
▁побежал	-10.2966
▁привык	-10.2972
▁подат	-10.2973
▁религ	-10.2973
▁социал	-10.2977
▁бак	-10.2977
▁сибир	-10.2981
▁ятно	-10.2983
щат	-10.2983
▁страдан	-10.2984
пп	-10.2987
▁внизу	-10.299
▁маленкая	-10.2991
▁наслед	-10.2994
▁желает	-10.2996
ическии	-10.2997
▁ошиб	-10.3
▁ставит	-10.3
▁ворон	-10.3003
▁грубо	-10.3003
▁черные	-10.3007
▁привести	-10.3011
▁закрыт	-10.3016
ших	-10.3016
▁вл	-10.3019
▁вышло	-10.302
▁полныи	-10.3021
▁спи	-10.3024
фи	-10.3028
▁беда	-10.3028
▁примечания	-10.303
▁выступил	-10.3031
▁журнала	-10.3032
▁причине	-10.3048
▁болш	-10.3058
стрел	-10.3058
▁од	-10.3061
▁петровна	-10.3062
ац	-10.3063
▁приготовлен	-10.3063
▁ждет	-10.3065
▁вошли	-10.3065
▁собственнои	-10.3068
▁женится	-10.3069
кра	-10.308
▁принужден	-10.3081
▁поражен	-10.3087
▁кир	-10.309
▁сар	-10.3091
▁простои	-10.3094
▁бл	-10.3095
▁брал	-10.3095
▁фридрих	-10.3096
▁чести	-10.3097
енную	-10.31
▁случаю	-10.3103
нюю	-10.3103
▁местного	-10.3105
▁советник	-10.3107
▁испан	-10.3109
▁тесно	-10.3112
▁отказ	-10.3113
▁бул	-10.3113
▁масса	-10.3113
▁проход	-10.3114
▁выразил	-10.3116
▁женщину	-10.3118
▁размере	-10.3118
▁тал	-10.312
▁истины	-10.3121
▁мэсбе	-10.3121
▁мост	-10.3126
▁команд	-10.3126
▁огнем	-10.3132
▁мария	-10.3132
▁старых	-10.3134
руб	-10.3137
▁гон	-10.3137
▁посмотрет	-10.3144
гол	-10.3147
рас	-10.3151
уча	-10.3151
▁смотрела	-10.3152
тре	-10.3153
▁студент	-10.3158
рет	-10.316
▁пас	-10.316
▁сует	-10.3161
▁образование	-10.3162
▁соединен	-10.3166
▁иди	-10.3166
ющиеся	-10.3169
▁написано	-10.317
▁мрак	-10.3174
▁лик	-10.3175
▁государство	-10.3178
овали	-10.3178
▁хорошенко	-10.3179
▁гу	-10.3179
▁юж	-10.318
▁болшом	-10.318
▁велич	-10.3186
▁руже	-10.3186
дра	-10.3187
▁незнаком	-10.3194
▁кончил	-10.3195
▁самаго	-10.3196
▁штаб	-10.3197
▁худо	-10.32
▁расход	-10.3204
▁вынужден	-10.3207
пуст	-10.3209
▁причина	-10.3212
▁круж	-10.3213
ющее	-10.3213
▁поверхност	-10.3216
▁последняя	-10.3218
▁ухо	-10.3219
▁введен	-10.3222
▁известныи	-10.3227
шие	-10.3227
▁площади	-10.3227
▁распространен	-10.3232
▁добра	-10.3236
▁суде	-10.3236
образ	-10.3238
▁виден	-10.324
▁верн	-10.324
▁природе	-10.3242
▁указанных	-10.3242
▁жених	-10.3243
▁развитие	-10.3244
▁обращаяс	-10.3245
вшая	-10.3248
▁веществ	-10.325
ске	-10.325
▁оставался	-10.3251
▁фронта	-10.3253
▁явится	-10.3257
жига	-10.3258
▁штат	-10.3262
▁начинается	-10.3266
▁полицеиск	-10.3267
▁подал	-10.327
▁ур	-10.3276
▁статю	-10.3277
▁начиная	-10.3277
▁чехов	-10.3284
ице	-10.3285
▁понимал	-10.3287
веч	-10.3287
бег	-10.3287
▁основания	-10.3292
▁любила	-10.3294
▁страдал	-10.3295
▁голосов	-10.3295
▁жила	-10.3297
▁следующие	-10.3299
▁семен	-10.3301
▁австрии	-10.3305
дит	-10.3306
пле	-10.3307
▁италянск	-10.3313
▁университета	-10.3314
▁определение	-10.3315
▁признал	-10.3317
▁производит	-10.3317
ряд	-10.3317
толк	-10.3323
стоя	-10.3324
▁обстоятелство	-10.3324
чеи	-10.3329
▁предложение	-10.333
▁спасибо	-10.3332
▁северо	-10.3334
▁общим	-10.3335
▁первоначално	-10.3339
▁наиден	-10.3341
▁реал	-10.3343
▁бед	-10.3344
▁юноша	-10.3347
▁жалко	-10.3347
вои	-10.3347
▁едино	-10.335
▁фигур	-10.3351
тянул	-10.3351
▁похорон	-10.3359
▁рам	-10.3359
▁дерев	-10.3372
▁изложен	-10.3373
▁народнои	-10.3374
▁тих	-10.3377
▁верил	-10.3378
▁устроен	-10.3378
▁надпис	-10.338
▁коз	-10.3381
▁варвар	-10.3386
▁увлечен	-10.3389
▁печално	-10.3389
▁дерева	-10.3394
фор	-10.3396
▁судар	-10.3402
▁ответит	-10.3402
▁воскрес	-10.3403
▁агент	-10.3404
▁село	-10.3405
▁глядел	-10.3407
▁оказался	-10.3409
▁дамы	-10.341
дат	-10.3413
▁нарочно	-10.3417
▁учит	-10.3419
дол	-10.3421
▁генерала	-10.3422
▁старые	-10.3423
▁артиллерии	-10.3424
▁последовал	-10.3424
▁паш	-10.3427
вшего	-10.343
▁черныи	-10.3431
▁отказыва	-10.3442
▁хих	-10.3443
шим	-10.3444
▁усил	-10.3444
дем	-10.345
▁последним	-10.3451
▁чувством	-10.3454
▁судеи	-10.3455
▁евреев	-10.3459
▁судом	-10.3462
дин	-10.3464
▁явно	-10.3469
рис	-10.347
▁колокол	-10.3471
▁проник	-10.3471
▁монах	-10.3477
тек	-10.3483
▁ню	-10.3484
▁ученик	-10.3488
▁жертву	-10.3493
ища	-10.3494
▁мороз	-10.3495
▁оскорблен	-10.3498
нт	-10.3501
жет	-10.3502
▁малчика	-10.3503
▁лиза	-10.3506
▁дивизии	-10.3506
овую	-10.3508
учен	-10.3509
▁озера	-10.3513
▁резултате	-10.3515
▁каждую	-10.3517
▁костюм	-10.3518
ание	-10.3522
▁будте	-10.3525
▁наказан	-10.3525
▁обита	-10.353
▁рат	-10.3531
▁передал	-10.3531
▁учение	-10.3538
▁оруж	-10.3539
▁почита	-10.354
кли	-10.354
▁посел	-10.3541
▁золотои	-10.3542
▁развива	-10.3542
▁свеч	-10.3543
сед	-10.3544
▁сим	-10.3544
▁силах	-10.3551
▁совест	-10.3552
кус	-10.3553
▁обявлен	-10.3555
▁находил	-10.3559
▁морал	-10.3559
▁учителя	-10.3564
▁ме	-10.3565
▁обрат	-10.3567
▁силе	-10.357
▁идея	-10.357
▁осужден	-10.3572
нев	-10.3575
▁провер	-10.3579
нку	-10.358
▁сцена	-10.3587
▁даром	-10.3589
учит	-10.3592
ении	-10.3599
як	-10.3604
▁парк	-10.3606
пил	-10.3607
▁законодател	-10.3609
▁павлович	-10.3609
унд	-10.3612
▁приводит	-10.3614
▁требовал	-10.3618
▁двои	-10.3619
▁гран	-10.3624
▁силами	-10.3626
▁океан	-10.3626
▁библ	-10.3633
▁руд	-10.3634
▁крив	-10.3634
рина	-10.3635
▁достигнут	-10.3635
▁давид	-10.364
▁эпохи	-10.365
анс	-10.3651
▁находилис	-10.3659
▁буржуаз	-10.366
▁останов	-10.3661
▁классов	-10.3663
неиш	-10.3668
лек	-10.3669
▁отража	-10.367
след	-10.367
▁тщателно	-10.367
▁ожидат	-10.3671
▁наоборот	-10.3673
мат	-10.3675
овое	-10.3676
ическим	-10.3677
▁волн	-10.3678
▁злоб	-10.3685
пт	-10.3686
▁шелков	-10.3686
▁юго	-10.3687
коп	-10.369
▁установлен	-10.369
▁дала	-10.3692
▁страстно	-10.3694
жда	-10.3701
овского	-10.3704
▁ограничен	-10.3707
▁сторож	-10.3708
▁определения	-10.3708
▁возбужден	-10.3714
▁живопис	-10.3719
▁жители	-10.372
▁фигура	-10.3726
▁пору	-10.3729
▁увы	-10.3729
▁лестнице	-10.3732
▁фар	-10.3735
▁храбр	-10.3738
еж	-10.3739
▁слышно	-10.3742
▁опустил	-10.3743
ряж	-10.3743
▁исполнителнои	-10.3744
▁белые	-10.3744
▁проб	-10.3745
▁протест	-10.3746
тил	-10.3747
▁доход	-10.3747
▁гамлет	-10.3747
▁алексеевич	-10.3747
▁требовании	-10.3747
буд	-10.3752
▁редакции	-10.3752
▁реформ	-10.3754
▁донос	-10.3754
▁эн	-10.3757
▁отношению	-10.3758
▁еслиб	-10.3758
▁зависит	-10.3759
▁воздуха	-10.3762
▁арест	-10.3764
▁горячо	-10.3767
▁требоват	-10.377
▁карман	-10.3774
▁случаев	-10.3774
вшеи	-10.3774
▁главы	-10.3775
▁представителеи	-10.3785
▁мелоч	-10.3786
▁выидет	-10.3787
▁коих	-10.379
▁обстоятелств	-10.3792
▁тверд	-10.3794
▁чист	-10.3799
▁мистрис	-10.3799
▁похож	-10.3799
▁человеческои	-10.3801
ушки	-10.3801
▁материалы	-10.3804
▁офицеров	-10.3807
▁правом	-10.3807
▁романа	-10.381
▁турецк	-10.3812
▁покрыт	-10.3815
берг	-10.3817
▁писателеи	-10.3817
▁возврат	-10.3818
▁существа	-10.3818
нц	-10.3825
▁политическои	-10.3825
▁шат	-10.3829
▁решит	-10.3838
▁мертв	-10.384
▁эи	-10.3841
нец	-10.3849
писан	-10.385
▁дабы	-10.385
▁сократ	-10.3852
▁человечества	-10.3858
▁скуч	-10.3858
▁давал	-10.3859
▁религии	-10.3865
▁трон	-10.3866
ником	-10.3866
▁месту	-10.3868
▁критическ	-10.3874
▁организация	-10.3877
▁мах	-10.3882
▁плечо	-10.3883
▁улыбаяс	-10.3885
▁отвечат	-10.3885
шая	-10.3887
▁границу	-10.3889
▁монастыря	-10.3892
▁русском	-10.3893
▁могуч	-10.3894
▁здрав	-10.3898
▁влиянием	-10.3901
▁узк	-10.3905
▁казак	-10.3906
▁министров	-10.3907
▁маленкои	-10.3909
ланд	-10.3909
ушку	-10.3912
▁трудов	-10.3918
▁призрак	-10.3919
пис	-10.392
▁горя	-10.3921
▁спасти	-10.3923
▁позже	-10.3925
ард	-10.3927
ыр	-10.3928
▁освобожден	-10.3928
▁подвиг	-10.3929
ствоват	-10.3932
▁министр	-10.3932
▁ган	-10.3937
▁пул	-10.3938
▁атмосфер	-10.3939
тир	-10.3939
▁показан	-10.3943
▁дорог	-10.3944
▁вправе	-10.3945
▁провод	-10.395
▁обер	-10.3951
▁сфере	-10.3953
▁платон	-10.3954
жим	-10.3955
▁взрыв	-10.396
▁вере	-10.3963
▁мнения	-10.3966
▁вошла	-10.3967
▁сара	-10.397
шко	-10.3972
рем	-10.3972
шин	-10.3974
гер	-10.3976
▁француз	-10.3976
▁яков	-10.3982
енц	-10.3983
▁плечами	-10.3989
▁пункта	-10.3993
▁рассказы	-10.3999
▁пад	-10.3999
▁мужчина	-10.4
печат	-10.4001
щеи	-10.4002
▁одних	-10.4005
▁заб	-10.4006
▁сенат	-10.4006
ари	-10.4009
▁правило	-10.401
▁пропал	-10.4011
▁поч	-10.4013
▁встречал	-10.4014
▁путешеств	-10.402
▁италии	-10.4021
▁сделано	-10.4021
инов	-10.4022
▁удал	-10.4023
ющая	-10.4024
▁душои	-10.4026
▁бояр	-10.4028
гнат	-10.4031
бирал	-10.4034
▁началника	-10.4036
вшуюся	-10.4039
▁шаги	-10.404
▁раи	-10.404
▁секретар	-10.404
лл	-10.4044
очен	-10.4046
▁волнен	-10.4047
▁цветов	-10.4049
▁политики	-10.4049
▁кам	-10.4049
стра	-10.4052
▁ак	-10.4056
▁джентлмен	-10.4057
▁двереи	-10.4059
▁защиты	-10.406
▁отд	-10.406
▁закрыл	-10.4062
▁озер	-10.4062
▁достоин	-10.4065
емыи	-10.4066
▁содержания	-10.4067
▁встретит	-10.4072
гин	-10.4073
▁потреб	-10.4075
▁годах	-10.4078
▁следующии	-10.4079
▁говориш	-10.4081
▁пределах	-10.4088
▁стану	-10.4091
▁завет	-10.4094
▁приближа	-10.4096
▁роли	-10.4098
▁эх	-10.41
▁достоинства	-10.4101
ане	-10.4103
▁военных	-10.4105
▁укреплен	-10.4105
▁целые	-10.4113
▁взгляда	-10.4113
▁хо	-10.4118
ику	-10.412
цк	-10.4128
▁ожидал	-10.413
изации	-10.4131
▁федералным	-10.4131
пом	-10.4133
▁боятся	-10.4135
ира	-10.4139
▁увидев	-10.414
лил	-10.4143
▁коридор	-10.4145
▁толст	-10.4146
▁сели	-10.4148
▁скучно	-10.415
▁президента	-10.415
▁средство	-10.4151
гло	-10.4152
▁светом	-10.4153
▁маиор	-10.4161
▁сотни	-10.4161
▁шагов	-10.4164
фон	-10.4165
дж	-10.4167
▁сообщит	-10.4167
▁учреждения	-10.4169
▁представлял	-10.4171
нскои	-10.4172
▁нит	-10.4174
пиш	-10.4176
▁шп	-10.4176
сте	-10.4179
▁палат	-10.4184
▁удел	-10.4186
▁бумаг	-10.4187
▁предварително	-10.419
▁ветра	-10.4192
▁попросил	-10.4194
▁мур	-10.4195
▁манер	-10.4202
▁называем	-10.4202
▁неприятел	-10.4203
▁исключен	-10.4204
▁взяли	-10.4206
▁даите	-10.4206
▁остр	-10.4208
▁принялся	-10.4209
▁смертю	-10.4214
▁прекрасныи	-10.4214
вис	-10.4214
▁описание	-10.4219
▁обяснил	-10.422
▁балмонт	-10.4222
▁твор	-10.4224
▁раду	-10.4224
▁заранее	-10.4224
▁сцены	-10.4225
▁сыном	-10.4228
▁казен	-10.4229
▁органы	-10.4229
▁создал	-10.423
▁сидет	-10.423
кос	-10.4231
▁повсюду	-10.4231
▁смешно	-10.4232
▁простор	-10.4233
чем	-10.4247
▁исчез	-10.4248
▁сал	-10.4251
▁показывал	-10.4251
▁прошла	-10.4253
▁московского	-10.4258
▁австр	-10.4259
▁своиства	-10.426
▁автограф	-10.4264
▁кофе	-10.4264
▁маленк	-10.4264
аф	-10.4266
▁богослов	-10.4267
утся	-10.4267
▁беле	-10.4272
▁новом	-10.4274
ящ	-10.4274
▁вдов	-10.4276
числ	-10.4276
▁собира	-10.4278
оне	-10.428
▁судна	-10.4283
▁ров	-10.4287
▁роберт	-10.4296
слов	-10.4298
▁следы	-10.4298
▁хозяиства	-10.43
ивал	-10.43
▁ричард	-10.4304
нг	-10.4304
▁философии	-10.4305
▁доказат	-10.4306
▁вели	-10.4313
▁плечи	-10.4314
▁сахар	-10.4316
▁лучших	-10.4317
рк	-10.4318
▁черно	-10.4319
▁волк	-10.432
нимат	-10.432
кина	-10.4322
▁баба	-10.4327
▁коротк	-10.4327
двинул	-10.4327
▁серебрян	-10.4328
▁возвращен	-10.4328
▁еле	-10.4329
цом	-10.4329
▁раион	-10.433
▁явления	-10.4331
▁показывает	-10.4332
▁будущее	-10.4333
▁остановил	-10.4333
▁устроил	-10.4335
▁половины	-10.4336
▁замка	-10.4337
▁шир	-10.4338
▁бывал	-10.434
▁федорович	-10.4345
▁называл	-10.435
кая	-10.4353
▁фонар	-10.4358
▁повести	-10.4358
▁дневник	-10.4358
▁полон	-10.4358
▁безобраз	-10.436
▁производство	-10.4361
▁представляется	-10.4364
евскии	-10.4364
▁составляют	-10.4366
▁леитенант	-10.4367
▁зал	-10.4371
▁неподвижно	-10.4374
▁посколку	-10.4379
▁смущен	-10.438
▁комнат	-10.4382
▁презрен	-10.4385
▁христос	-10.4387
▁юр	-10.4387
ром	-10.4391
▁компании	-10.4395
▁улыбнулся	-10.4396
▁роднои	-10.4397
▁парламент	-10.4399
▁второго	-10.4399
▁помнит	-10.4404
▁мрамор	-10.4407
▁клянус	-10.4408
▁кричал	-10.4408
▁составе	-10.4412
▁стене	-10.4412
▁султан	-10.4413
▁говорится	-10.4413
▁напечатан	-10.4413
▁птицы	-10.4417
▁вследств	-10.4418
очных	-10.4419
▁сознание	-10.442
▁второе	-10.442
уж	-10.4423
▁капитана	-10.4424
▁чувствует	-10.4424
▁крестяне	-10.4424
▁вынес	-10.4427
▁чт	-10.4427
▁кост	-10.4428
▁зовут	-10.4428
▁предприятия	-10.4431
▁представления	-10.4431
▁лицами	-10.4432
▁тро	-10.4432
▁восток	-10.4436
скою	-10.444
▁борбу	-10.4445
руж	-10.4448
инои	-10.445
▁собаки	-10.4454
▁трепет	-10.4454
▁уч	-10.4455
▁мух	-10.4459
▁едет	-10.4459
▁эпоху	-10.4459
▁анализ	-10.4463
▁общественнои	-10.4464
▁жертв	-10.4465
▁болот	-10.4468
▁приглашен	-10.4468
▁руси	-10.4469
▁просвещен	-10.447
емои	-10.4476
▁морскои	-10.4479
▁разбит	-10.4483
▁сев	-10.4484
▁спутник	-10.4487
▁желт	-10.4489
▁артист	-10.449
▁павлов	-10.4492
▁окончил	-10.4493
▁венец	-10.4495
▁прилич	-10.4496
▁национал	-10.4497
▁славян	-10.4499
беж	-10.4504
▁управление	-10.4505
▁царю	-10.4506
▁чорт	-10.4507
▁форму	-10.4507
▁исповед	-10.4509
▁бабушка	-10.4509
▁массы	-10.4511
▁энерг	-10.4519
▁благ	-10.4519
чив	-10.4523
▁хар	-10.4528
▁охот	-10.453
авшего	-10.4532
▁платя	-10.4534
▁могил	-10.4535
руш	-10.4538
▁работник	-10.4539
▁солнечн	-10.4541
▁леп	-10.4543
▁привез	-10.4551
▁фа	-10.4551
▁доступ	-10.4554
▁понимает	-10.4555
▁спрашивал	-10.4556
▁учрежден	-10.4556
▁болнои	-10.4559
▁забав	-10.456
▁случая	-10.4561
▁стук	-10.4561
▁комната	-10.4562
▁справ	-10.4563
▁вторых	-10.4566
рес	-10.4566
▁половине	-10.4568
▁немецк	-10.457
▁французскии	-10.4571
▁вздор	-10.4573
▁производил	-10.4574
▁череп	-10.4576
▁страш	-10.4577
▁египет	-10.4585
▁играл	-10.4586
аны	-10.4592
▁врага	-10.4592
▁возвыша	-10.4594
▁посе	-10.4595
▁бесед	-10.4595
▁имена	-10.4597
▁настроен	-10.4597
свет	-10.4599
▁институт	-10.4605
▁изменении	-10.4607
рел	-10.4608
▁задача	-10.4614
▁немало	-10.4614
▁кре	-10.4619
▁штаба	-10.462
▁представител	-10.4621
▁опасно	-10.4622
лят	-10.4622
▁царевич	-10.4623
бан	-10.4623
нувшис	-10.4628
ирует	-10.4631
▁бесконечно	-10.4632
▁воисками	-10.4633
▁сцене	-10.4634
▁общ	-10.4638
▁цыган	-10.4638
▁самих	-10.4641
аг	-10.4642
▁худ	-10.4643
▁бедная	-10.4645
▁сказан	-10.4647
▁богов	-10.4651
▁определит	-10.4653
▁бред	-10.4654
▁сплош	-10.4658
▁баталон	-10.4662
яли	-10.4665
ток	-10.4668
▁маркиз	-10.467
▁какому	-10.4672
▁прис	-10.4674
▁вагон	-10.4674
▁соверша	-10.4679
▁строг	-10.468
▁задумчиво	-10.468
▁пчел	-10.4682
▁верю	-10.4683
▁силныи	-10.4684
▁печатается	-10.4685
▁князю	-10.4685
▁бос	-10.4685
▁фу	-10.4685
▁красныи	-10.4685
▁заключение	-10.4686
фф	-10.4688
▁сравнително	-10.4688
▁уши	-10.4688
ово	-10.469
▁составил	-10.4691
▁позади	-10.4692
▁министерства	-10.4694
▁получили	-10.4694
▁зимн	-10.4705
▁твоим	-10.4705
▁блед	-10.4705
уха	-10.4707
▁болгар	-10.471
▁расс	-10.4711
▁участвовал	-10.4711
▁многое	-10.4715
▁срока	-10.4716
стро	-10.4716
▁золота	-10.472
▁покрыты	-10.4723
▁санкт	-10.4727
▁газ	-10.473
▁берегов	-10.4733
▁купит	-10.4733
▁стыдно	-10.4734
▁разговора	-10.4735
▁героя	-10.4736
▁ежедневно	-10.4736
еров	-10.474
▁русским	-10.4743
▁стоя	-10.4744
▁цезар	-10.4745
▁стихотворении	-10.4747
шек	-10.4749
▁хозяина	-10.4756
▁понес	-10.4757
▁шло	-10.4758
▁деревев	-10.4759
▁пестр	-10.476
▁сзади	-10.476
▁сущност	-10.4763
▁недалеко	-10.4763
ствен	-10.4766
▁субекта	-10.4767
▁огне	-10.4768
▁хии	-10.4771
▁берлин	-10.4772
▁основ	-10.4773
▁труды	-10.4775
лес	-10.4776
онос	-10.4777
сты	-10.478
▁подходит	-10.4781
чиков	-10.4783
▁купил	-10.4785
▁аппарат	-10.4785
▁китаиск	-10.4788
▁пром	-10.4791
▁живых	-10.4794
▁божии	-10.4796
▁сочувств	-10.4797
щим	-10.48
▁золот	-10.48
еев	-10.4801
▁знаменит	-10.4801
▁сказав	-10.4804
▁прах	-10.4804
▁пик	-10.4805
▁накануне	-10.4807
зр	-10.4809
▁табак	-10.4811
▁знан	-10.4814
▁боя	-10.4816
▁прошли	-10.4816
▁военнои	-10.4817
▁пространство	-10.482
▁половину	-10.4821
▁спит	-10.4826
няго	-10.4828
▁представление	-10.483
▁языком	-10.483
▁известны	-10.4831
▁захотел	-10.4831
▁лежат	-10.4833
▁командир	-10.4834
ума	-10.4835
▁помеща	-10.4838
▁забыв	-10.4838
нцев	-10.4838
тянут	-10.4845
лад	-10.4848
▁фронт	-10.4851
▁обяснен	-10.4851
ивших	-10.4852
▁полез	-10.4853
реч	-10.4853
▁охотник	-10.4854
▁протокол	-10.4858
▁повторял	-10.4859
▁рукописи	-10.486
▁крым	-10.4863
▁председателя	-10.4863
люс	-10.4867
▁тишина	-10.4869
▁вопросам	-10.487
▁выпуск	-10.4872
▁боялся	-10.4876
▁индии	-10.4879
ича	-10.488
▁гибел	-10.488
нулас	-10.488
▁жалоб	-10.4881
▁културы	-10.4881
▁таину	-10.4882
▁налогов	-10.4885
▁столе	-10.4889
▁позволил	-10.4895
▁пород	-10.4895
▁подобные	-10.4896
▁музыка	-10.4896
▁фин	-10.4896
▁этак	-10.4897
еет	-10.4897
▁заказ	-10.4899
▁отделные	-10.4901
▁продолжен	-10.4904
▁интересно	-10.4904
▁картину	-10.491
▁основе	-10.4916
▁качества	-10.4919
авшие	-10.4921
▁трои	-10.4922
▁чар	-10.4924
▁дворец	-10.4927
оф	-10.4928
▁достал	-10.4928
▁существу	-10.4929
▁разрушен	-10.493
▁называет	-10.493
▁джо	-10.4932
▁покров	-10.4937
▁праве	-10.494
лага	-10.4943
▁радостю	-10.4945
▁мягко	-10.4946
▁диван	-10.4946
▁лето	-10.4948
▁централ	-10.495
▁древних	-10.4953
▁перебил	-10.4955
▁взяв	-10.4959
▁всякую	-10.4962
▁проити	-10.4964
▁членом	-10.4966
▁домик	-10.4968
▁общественных	-10.497
един	-10.4973
▁глав	-10.4976
▁кр	-10.4977
▁караул	-10.4978
▁правител	-10.4978
нная	-10.4983
▁заме	-10.4988
▁истин	-10.4988
▁отказался	-10.4989
▁ххи	-10.4997
▁думали	-10.5001
▁корон	-10.5005
▁целях	-10.5006
▁толку	-10.5007
фр	-10.5008
▁вызван	-10.501
▁восторг	-10.5013
нис	-10.5013
▁некоторым	-10.5013
▁формул	-10.5013
▁точ	-10.5017
▁публика	-10.5019
▁отправится	-10.5033
▁ногу	-10.5035
▁сыну	-10.5035
▁русское	-10.5036
▁пастор	-10.5038
▁среды	-10.5039
▁боев	-10.5044
▁пришло	-10.5045
▁втором	-10.5047
▁великих	-10.5049
▁понимат	-10.5055
▁военно	-10.5057
▁луна	-10.5057
▁посреди	-10.5063
▁удовлетворен	-10.5064
▁фл	-10.5066
▁величаиш	-10.5066
▁называют	-10.5067
▁змеи	-10.5069
▁вынул	-10.507
▁нужна	-10.5072
▁правителством	-10.5072
▁раствор	-10.5072
▁жа	-10.5075
▁требован	-10.5077
▁ленин	-10.5081
▁урок	-10.5083
▁сударыня	-10.5085
▁население	-10.5087
▁гур	-10.5088
▁низк	-10.5092
▁умерла	-10.5094
▁оказывается	-10.5094
▁полным	-10.5095
▁тесн	-10.5101
▁вожд	-10.5102
▁высоты	-10.5102
▁некрасов	-10.5104
▁сторонам	-10.5107
▁иваныч	-10.5111
▁опуска	-10.5113
▁сибири	-10.5115
▁занавес	-10.5116
▁ага	-10.5124
▁дне	-10.5126
▁гоголя	-10.5126
▁величества	-10.5126
▁европеиск	-10.5128
▁уничтожен	-10.513
▁ездил	-10.5131
зн	-10.5134
ически	-10.5135
▁запер	-10.5137
▁застав	-10.5139
овыми	-10.5141
иста	-10.5146
▁сведении	-10.5148
▁адам	-10.515
▁похожи	-10.5153
▁гос	-10.5154
▁сумел	-10.5155
пре	-10.5156
▁простите	-10.5165
▁готова	-10.5165
▁проп	-10.5168
▁масс	-10.5169
▁состоящ	-10.517
▁временам	-10.5172
▁деревню	-10.5173
▁духов	-10.5175
▁приближен	-10.5175
▁случится	-10.5175
▁одинок	-10.5175
▁импер	-10.5179
▁желания	-10.518
▁прощаи	-10.518
▁выразит	-10.5184
▁благополучно	-10.5185
▁оде	-10.5186
▁нужды	-10.5191
пл	-10.5197
▁воспоминан	-10.5197
▁ушла	-10.5198
▁болшими	-10.52
▁зеркал	-10.5201
▁полз	-10.5202
▁лип	-10.5202
▁делали	-10.5203
▁сирот	-10.5204
▁тогдашн	-10.5206
▁судбы	-10.5207
нского	-10.5207
▁братев	-10.5208
▁опо	-10.5209
еха	-10.5209
▁согласится	-10.5223
▁завист	-10.5226
▁страна	-10.5226
▁держав	-10.5231
▁прервал	-10.5232
▁держа	-10.5233
ита	-10.5236
▁плох	-10.5237
▁детск	-10.5238
▁лежала	-10.5239
▁хозяика	-10.5239
▁направления	-10.5239
рал	-10.524
▁усерд	-10.524
шеств	-10.524
▁недел	-10.524
▁зван	-10.5243
▁миссис	-10.5245
еннаго	-10.5247
▁каш	-10.5249
▁ол	-10.525
▁отстав	-10.525
▁театре	-10.525
▁магазин	-10.5251
▁тра	-10.5251
клад	-10.5253
▁представляют	-10.5254
▁проникнут	-10.5254
▁окон	-10.5254
▁обеих	-10.5254
▁следующ	-10.5255
▁современник	-10.5256
▁флаг	-10.5256
▁отношениях	-10.5256
▁топор	-10.5259
▁заговор	-10.5262
▁данном	-10.5262
▁доказателства	-10.5263
мент	-10.5264
▁сделает	-10.5268
▁хорошее	-10.5268
▁учеб	-10.527
▁документы	-10.5276
▁замечателно	-10.5277
▁молодым	-10.5277
▁остановилас	-10.5279
▁содержащ	-10.5279
▁опубликован	-10.528
▁продолжение	-10.528
вшую	-10.528
▁роста	-10.5287
▁проговорила	-10.5287
▁играет	-10.5288
ющеися	-10.5291
ствовал	-10.5292
▁акта	-10.5293
вшимся	-10.5296
ление	-10.5296
▁заниматся	-10.5297
▁лат	-10.5299
▁взгляды	-10.5301
ющимся	-10.5302
очке	-10.5306
▁недостаточно	-10.5306
▁высокои	-10.5308
▁дмитр	-10.5309
ющиися	-10.5311
▁промышленности	-10.5314
▁теории	-10.5314
▁куш	-10.5316
емое	-10.5316
▁издании	-10.5318
ере	-10.5322
▁думая	-10.5323
▁силою	-10.5326
▁плакат	-10.5327
▁закат	-10.5329
учи	-10.5333
▁молчал	-10.5337
▁приняли	-10.5338
▁ладно	-10.5343
▁поговорит	-10.5343
▁прислал	-10.5343
▁успеха	-10.5343
▁ступаи	-10.5344
▁красота	-10.5345
▁депутат	-10.5348
▁замечал	-10.5351
▁обещан	-10.5353
▁предметы	-10.5355
▁мотив	-10.5355
▁отцов	-10.5358
▁ван	-10.5358
▁патриарх	-10.5359
▁отдален	-10.536
▁квартиру	-10.5367
енное	-10.5367
▁шан	-10.5367
падает	-10.5368
▁телеграф	-10.5369
▁куб	-10.5369
▁мистера	-10.5371
▁полиции	-10.5372
▁пустын	-10.5374
▁обид	-10.5375
▁пятдесят	-10.5376
▁втор	-10.5376
▁ближаиш	-10.5378
▁сл	-10.538
▁уста	-10.5387
▁ятел	-10.5388
▁оставив	-10.539
▁белои	-10.5392
▁сообщ	-10.5392
кла	-10.5394
▁строки	-10.5396
▁долю	-10.5399
▁существование	-10.54
▁ступен	-10.5401
▁отказатся	-10.5405
▁продолжителн	-10.5406
▁сурово	-10.5407
▁вступит	-10.5407
ании	-10.5408
отвор	-10.5411
жд	-10.5411
чил	-10.5412
▁великое	-10.5413
щиков	-10.5417
ивают	-10.5418
▁кричит	-10.542
неш	-10.5422
▁пропаст	-10.5423
▁потребовал	-10.5425
▁кости	-10.5426
груз	-10.5426
сл	-10.5428
▁очи	-10.5429
идут	-10.5429
▁прочих	-10.5429
▁кум	-10.5431
▁выражал	-10.5432
▁последовател	-10.5437
▁свобода	-10.5437
▁таино	-10.5443
▁исправ	-10.5444
▁матерю	-10.5444
▁деревенск	-10.5444
▁авторитет	-10.5448
▁правды	-10.5451
▁элемент	-10.5453
▁норм	-10.5453
▁изящн	-10.5454
▁политических	-10.5455
▁приступ	-10.5456
▁критик	-10.5457
▁таина	-10.5458
▁лежащ	-10.5459
ическ	-10.5462
▁поверхности	-10.5463
▁сладко	-10.5465
▁таково	-10.5466
▁сделалос	-10.5466
▁подверг	-10.5468
▁подыма	-10.5469
▁руга	-10.5469
▁славы	-10.5469
▁понятие	-10.5472
▁порок	-10.5474
▁транспорт	-10.5475
бур	-10.5477
▁повернул	-10.5479
ывают	-10.548
▁столу	-10.5482
▁перваго	-10.5482
▁бросит	-10.5482
▁заметно	-10.5482
▁обязателно	-10.5485
▁обектов	-10.5488
▁обязателств	-10.549
▁настоящии	-10.5492
▁таковы	-10.5495
▁лог	-10.5498
иду	-10.5499
▁вилл	-10.5499
▁соловев	-10.55
▁офицера	-10.5501
▁любезныи	-10.5502
▁титул	-10.5505
▁доволен	-10.5509
▁всякая	-10.5509
▁младш	-10.5511
▁здешн	-10.5512
▁входил	-10.5512
▁ползоватся	-10.5518
▁облака	-10.5519
▁тр	-10.5522
▁жалк	-10.5525
▁нужд	-10.5526
▁говор	-10.5526
▁местности	-10.553
▁стоящ	-10.553
▁помимо	-10.553
▁основател	-10.5531
▁отсутств	-10.5533
▁матрос	-10.5534
▁сладк	-10.5534
▁божествен	-10.5536
▁примеч	-10.5536
инского	-10.5537
▁немножко	-10.554
▁удобно	-10.5544
▁свидетел	-10.5547
▁сожален	-10.5551
▁общих	-10.5551
▁двига	-10.5552
ерс	-10.5553
▁шал	-10.5555
▁уважен	-10.5555
▁экономическ	-10.5557
▁казался	-10.5559
▁упомина	-10.5561
▁последств	-10.5562
езжал	-10.5562
▁олга	-10.5562
▁воити	-10.5563
бал	-10.5567
▁воиско	-10.5567
▁надзор	-10.5568
▁рассказа	-10.5569
▁соответствующ	-10.557
▁лент	-10.5575
▁погреб	-10.5577
▁границы	-10.5579
▁проведен	-10.5581
▁количестве	-10.5581
▁перешел	-10.5584
▁текста	-10.5587
▁принадлежащ	-10.5591
▁екатерина	-10.5591
▁бре	-10.5592
▁храма	-10.5592
▁торопливо	-10.5592
▁лом	-10.5594
▁иерусалим	-10.5594
▁хорошии	-10.5595
▁вершин	-10.5597
▁ник	-10.5598
▁предмета	-10.5602
▁девушку	-10.5602
▁бет	-10.5605
▁лор	-10.561
▁человеческого	-10.5611
▁торг	-10.5611
▁отверг	-10.5611
▁страдания	-10.5612
▁святого	-10.5614
нутся	-10.5614
▁славу	-10.5614
▁привел	-10.5615
▁государств	-10.5618
резал	-10.5619
▁случалос	-10.5623
мена	-10.5624
▁вход	-10.563
▁княж	-10.5631
▁стихов	-10.5634
бар	-10.5636
▁постановление	-10.564
▁сверху	-10.564
▁живу	-10.564
▁видов	-10.5644
сса	-10.5647
▁ужаса	-10.5647
▁латинск	-10.5648
▁призван	-10.5648
▁вашем	-10.5649
▁обязаны	-10.565
▁кв	-10.5658
▁груб	-10.5659
▁кандидат	-10.5661
▁журнале	-10.5662
▁подруг	-10.5662
нок	-10.5663
ящим	-10.5665
нскии	-10.5666
▁отдыха	-10.5667
▁длинно	-10.5668
▁умеет	-10.567
▁неизбежно	-10.5674
▁независимо	-10.5677
▁вспомнит	-10.5678
▁сведен	-10.568
▁сохранит	-10.5682
▁путешественник	-10.5683
▁упор	-10.5684
▁пуд	-10.5684
▁художника	-10.5689
▁бумаж	-10.5695
▁вздохнул	-10.5701
▁подошла	-10.5701
▁закону	-10.5701
▁поворот	-10.5702
▁выстрел	-10.5703
▁открыто	-10.5705
▁имевш	-10.5707
▁протянул	-10.5707
▁самостоятелно	-10.5708
числен	-10.5711
▁низ	-10.5713
▁состояния	-10.5713
▁лучи	-10.5714
▁елена	-10.5714
спе	-10.5716
▁западнои	-10.5718
▁лу	-10.5718
▁морд	-10.572
▁чернои	-10.572
▁подвод	-10.572
▁дрож	-10.5725
▁вернее	-10.5731
плет	-10.5732
▁партия	-10.5732
▁берт	-10.5733
ившихся	-10.574
▁прочел	-10.5741
▁краю	-10.5743
▁сумму	-10.5744
▁разнообраз	-10.5748
ялся	-10.5748
▁постав	-10.5749
▁подробности	-10.575
▁арестант	-10.5751
▁постановления	-10.5752
▁греб	-10.5754
▁телом	-10.5756
▁сна	-10.576
▁пл	-10.5761
▁обез	-10.5765
равн	-10.5766
▁головою	-10.5767
▁суммы	-10.577
▁имущество	-10.577
▁родител	-10.5778
▁ав	-10.5779
▁деиствовал	-10.5788
▁станов	-10.5789
▁недоумен	-10.5791
▁тоска	-10.5793
▁королева	-10.5794
▁изменил	-10.5801
нется	-10.5803
▁борт	-10.5803
▁прусск	-10.5803
▁предметом	-10.5804
▁платит	-10.5805
▁молчание	-10.5805
▁групп	-10.5809
▁гад	-10.5809
ино	-10.5809
▁торговли	-10.581
▁поэз	-10.581
▁вопросу	-10.5812
овскои	-10.5812
▁эв	-10.5812
▁лю	-10.5812
▁обединен	-10.5813
▁легк	-10.5814
▁гостя	-10.5815
держан	-10.5815
▁чиновник	-10.5816
▁библиотека	-10.5816
▁ловко	-10.5819
▁детми	-10.5822
▁секрет	-10.5823
живал	-10.5827
▁дет	-10.5828
▁органом	-10.5832
▁единственныи	-10.5834
▁смеша	-10.5835
▁увлека	-10.5835
▁изменит	-10.5837
▁газета	-10.5837
яют	-10.5838
▁страшныи	-10.584
▁считаю	-10.584
еры	-10.5842
▁оживлен	-10.5843
▁резултат	-10.5844
▁оружие	-10.5844
ене	-10.5845
▁кусок	-10.5846
уется	-10.5846
▁монет	-10.5846
▁испанск	-10.5847
▁дмитрии	-10.5847
▁такою	-10.5849
▁трет	-10.5855
▁обем	-10.5855
▁улыбка	-10.5862
▁принято	-10.5866
▁получа	-10.5866
▁эс	-10.5868
▁помещик	-10.5872
▁металл	-10.5872
▁кричат	-10.5873
▁шкур	-10.5874
▁интересы	-10.5875
▁наклон	-10.5878
шее	-10.5879
▁реку	-10.5879
▁писменно	-10.588
анныи	-10.5881
тка	-10.5882
▁бил	-10.5886
▁молитв	-10.5888
▁похоже	-10.589
▁опор	-10.589
▁смотрите	-10.589
▁кратк	-10.5892
▁госпожа	-10.5895
▁ряда	-10.5896
▁иосиф	-10.5898
▁слышу	-10.59
▁зов	-10.5903
▁август	-10.5905
▁привет	-10.5906
▁помощник	-10.5909
▁высок	-10.5912
▁зав	-10.5912
ража	-10.5912
▁остановилис	-10.5918
▁заседании	-10.5921
▁погода	-10.5922
▁доволны	-10.5923
▁восми	-10.5923
готов	-10.5926
верен	-10.5927
▁далнеиш	-10.5927
езжа	-10.5928
▁красиво	-10.5931
▁сжал	-10.5935
▁базар	-10.5935
▁книж	-10.5939
▁заключа	-10.5941
▁попов	-10.5942
▁получив	-10.5944
▁обороны	-10.5945
▁имеем	-10.5946
▁тол	-10.5947
▁решет	-10.5948
▁селен	-10.595
▁осен	-10.5954
▁обще	-10.5954
▁выбрал	-10.5957
▁спец	-10.5958
вели	-10.5958
▁отсутствие	-10.5959
▁чужои	-10.5961
лива	-10.5963
▁изгнан	-10.5966
▁горло	-10.5966
▁слон	-10.5969
▁остроум	-10.5971
▁частности	-10.5973
резан	-10.5974
▁замечателны	-10.5974
гнул	-10.5975
▁снаряд	-10.5976
▁свиреп	-10.5978
▁севернои	-10.5982
▁увидели	-10.5986
▁адмирал	-10.5987
▁тысячу	-10.5988
▁наполнен	-10.5989
▁народом	-10.5992
▁меш	-10.5997
обра	-10.5998
лоп	-10.5998
▁застал	-10.6
чков	-10.6001
▁бессмерт	-10.6004
▁мужем	-10.6005
▁преступлен	-10.6008
бен	-10.6008
▁самоуправления	-10.6009
▁скор	-10.6009
▁сообщен	-10.601
▁обряд	-10.6011
▁проходил	-10.6013
▁религиозно	-10.6016
бра	-10.6016
▁ци	-10.6017
▁покоя	-10.6018
▁учреждении	-10.6021
лок	-10.6034
▁мистрисс	-10.6037
▁мут	-10.6039
ющими	-10.6042
▁строка	-10.6044
чная	-10.6044
▁сотрудник	-10.6049
▁сцену	-10.605
▁подобное	-10.6051
▁мала	-10.6051
онов	-10.6052
▁стон	-10.6054
▁группа	-10.6058
крыл	-10.6058
▁наст	-10.6058
▁любят	-10.6059
▁мечты	-10.6061
▁крики	-10.6062
▁встреч	-10.6064
▁строител	-10.6064
▁сохранил	-10.6065
цвет	-10.6067
рв	-10.607
▁существован	-10.6071
живат	-10.6073
▁необходимым	-10.6074
▁сет	-10.6075
чке	-10.6075
мин	-10.6079
▁безпокои	-10.608
▁исследования	-10.6081
▁штраф	-10.609
▁луи	-10.609
▁николаев	-10.6095
стоян	-10.6096
▁риме	-10.6096
▁обеспечения	-10.6098
анг	-10.6099
▁сие	-10.6099
ающ	-10.6099
▁различные	-10.61
нке	-10.6102
кид	-10.6105
▁издали	-10.6108
▁преступления	-10.6111
▁парен	-10.6114
▁сигнал	-10.6115
▁местных	-10.6119
▁краснореч	-10.6122
▁следил	-10.6125
▁мгновение	-10.6125
▁предел	-10.6126
шке	-10.6127
▁ужин	-10.6128
знан	-10.613
▁постиг	-10.6132
▁палаты	-10.6133
▁кус	-10.6136
▁упорно	-10.6137
▁полагаю	-10.6137
▁крепк	-10.6139
▁птица	-10.614
▁располага	-10.6141
▁чеи	-10.6141
▁силное	-10.6144
▁порог	-10.6144
▁реша	-10.6147
▁боярин	-10.6148
▁собр	-10.615
▁лан	-10.615
гул	-10.6151
▁нац	-10.6152
цел	-10.6153
ннои	-10.6155
▁пот	-10.6157
▁возвраща	-10.6159
▁полную	-10.616
овича	-10.6162
▁богатство	-10.6162
▁пламен	-10.6162
ением	-10.6162
▁государю	-10.6163
▁лиз	-10.6163
андр	-10.6165
▁начинают	-10.6165
▁приказан	-10.6165
▁священ	-10.6165
▁баран	-10.6166
▁инстанции	-10.6166
▁обычаи	-10.6166
▁совершил	-10.6168
▁допустит	-10.6169
▁термин	-10.6169
▁павла	-10.6169
енок	-10.6171
▁родителеи	-10.6171
▁крыш	-10.6177
яд	-10.6178
▁потер	-10.618
▁смехом	-10.618
гиб	-10.6181
способ	-10.6183
▁стоило	-10.6183
▁казни	-10.6184
▁железнои	-10.6185
лот	-10.6186
тол	-10.6187
▁нужен	-10.6191
▁странное	-10.6191
▁пускаи	-10.6192
ающим	-10.6197
▁извините	-10.6199
▁фамил	-10.6202
▁изредка	-10.6203
▁казалас	-10.6212
▁станции	-10.6214
▁итал	-10.6217
▁грош	-10.622
▁домашн	-10.6222
нныи	-10.6223
берт	-10.6224
▁суду	-10.6228
▁визит	-10.6228
бегал	-10.623
ара	-10.623
▁лав	-10.6231
опол	-10.6232
▁кучер	-10.6233
▁лагер	-10.6233
▁рыба	-10.624
▁ир	-10.6242
▁выступ	-10.6246
нимал	-10.6247
▁покинут	-10.6248
▁таинственно	-10.6251
▁сенор	-10.6253
▁послат	-10.6254
▁роза	-10.6254
▁белых	-10.6254
емая	-10.6256
ическую	-10.6257
▁получила	-10.6258
▁водо	-10.6259
▁свят	-10.626
ссе	-10.6262
▁таможенн	-10.6266
▁наград	-10.6268
ования	-10.627
▁концу	-10.6271
▁советов	-10.6273
▁удастся	-10.6274
▁тес	-10.6276
▁вздох	-10.6277
гли	-10.6279
▁звезда	-10.6281
▁обстоятелствах	-10.6283
▁относятся	-10.6286
▁прощаите	-10.6289
▁женщине	-10.6291
шиб	-10.6294
▁искус	-10.6294
▁органами	-10.6297
▁прошлом	-10.6298
▁выражения	-10.6298
▁золотом	-10.6299
▁символ	-10.6299
▁ногах	-10.6301
▁перво	-10.6305
▁невер	-10.6308
▁сент	-10.6309
емого	-10.6309
▁призыв	-10.6311
▁наблюдател	-10.6312
▁озеро	-10.6313
▁решили	-10.6314
▁глухо	-10.6314
ирующ	-10.6316
▁богатства	-10.6316
▁саж	-10.6316
ап	-10.6318
▁счастю	-10.632
ления	-10.6321
▁доставит	-10.6322
▁городу	-10.6328
▁бросал	-10.6329
▁взаимно	-10.6332
▁билет	-10.6332
нел	-10.6333
▁достат	-10.6335
▁появился	-10.6342
эр	-10.6343
▁увидим	-10.6344
▁французскои	-10.6348
▁пристално	-10.635
▁указывая	-10.635
▁существующ	-10.6353
▁считается	-10.6356
▁направление	-10.6357
▁актов	-10.6358
▁знакомых	-10.6358
▁летопис	-10.6359
кр	-10.6365
▁бесс	-10.6365
вшимися	-10.6367
▁обят	-10.6367
▁исполнения	-10.6369
▁замечан	-10.6369
▁прожив	-10.6373
▁прот	-10.6374
▁имело	-10.6375
▁приветств	-10.6377
▁вызов	-10.6377
рн	-10.638
▁детям	-10.638
▁прибав	-10.638
▁иска	-10.6382
▁ап	-10.6385
▁старшин	-10.639
▁наследник	-10.6392
▁соблазн	-10.6393
ограф	-10.6393
▁откровенно	-10.6395
елная	-10.6399
кул	-10.6402
▁всеобщ	-10.6403
▁даваи	-10.6407
▁горк	-10.6408
▁вызвал	-10.641
▁отнес	-10.6411
▁рабочие	-10.6412
▁мыслю	-10.6413
тяж	-10.6418
▁обратится	-10.6419
истыи	-10.6419
▁тургенева	-10.642
▁бодр	-10.642
▁осмотр	-10.6421
▁брату	-10.6422
▁заставлял	-10.6424
▁комиссар	-10.6425
▁разрешения	-10.6425
▁знания	-10.6425
▁выкуп	-10.6427
▁брюсов	-10.6428
▁чтения	-10.6431
▁незаметно	-10.6433
▁строя	-10.6434
▁чудо	-10.6435
▁сергеевич	-10.6435
ливат	-10.6439
▁противореч	-10.644
▁числу	-10.6441
жел	-10.6442
▁рабочего	-10.6443
▁мит	-10.6443
▁заключения	-10.6445
▁герцен	-10.6446
рг	-10.6447
пс	-10.6447
▁американск	-10.6447
▁строителства	-10.6447
▁адютант	-10.645
нск	-10.6451
▁андреевич	-10.6455
▁камни	-10.6458
▁свидан	-10.6459
▁указывает	-10.6459
▁лют	-10.6461
▁событ	-10.6464
▁данным	-10.6464
иса	-10.6465
▁отправилис	-10.6465
▁занимался	-10.6465
эл	-10.6465
роб	-10.6465
▁кук	-10.6466
▁рубеж	-10.6469
▁посад	-10.6471
▁восползоватся	-10.6474
▁глупо	-10.6474
▁гнева	-10.6474
▁заключит	-10.6475
▁воображен	-10.6475
▁согласен	-10.6483
▁считая	-10.6485
▁допрос	-10.6488
ившего	-10.649
▁уходил	-10.6491
▁творчества	-10.6491
▁дол	-10.6493
▁якор	-10.6494
▁зак	-10.6495
▁полезно	-10.6496
▁материалов	-10.6497
▁вздумал	-10.6498
▁лицам	-10.6499
▁получал	-10.6502
▁служащ	-10.6503
▁гордо	-10.6504
▁процентов	-10.6505
▁муз	-10.6505
▁неприятно	-10.6506
чист	-10.6507
▁мучен	-10.6508
▁араб	-10.6508
▁разбор	-10.6509
▁чувствоват	-10.651
▁григории	-10.651
▁селе	-10.6512
▁плащ	-10.6513
▁уезда	-10.6515
▁задачи	-10.6515
▁возвратился	-10.6521
▁акты	-10.6521
▁переведен	-10.6523
▁константинопол	-10.6524
▁покинул	-10.6525
▁королю	-10.6525
нимая	-10.6526
▁март	-10.6526
▁поступит	-10.6527
▁сух	-10.6527
▁хват	-10.6532
▁противник	-10.6533
▁чуж	-10.6533
авшеи	-10.6533
лон	-10.6537
▁иностран	-10.6538
▁денежн	-10.6539
чина	-10.6539
▁племен	-10.654
▁ползы	-10.6541
▁явилас	-10.6541
▁укр	-10.6543
▁школе	-10.6544
▁производится	-10.6546
▁сердеч	-10.6547
▁перенес	-10.6547
▁средствами	-10.6548
▁бархат	-10.6548
▁покровител	-10.6549
▁стремится	-10.655
▁дорогая	-10.655
▁долга	-10.655
пас	-10.6551
▁республик	-10.6553
яз	-10.6554
рил	-10.6556
леж	-10.6558
▁пособ	-10.6558
▁подлинник	-10.6558
▁беларус	-10.6559
▁кри	-10.6561
▁коротко	-10.6563
зан	-10.6568
▁южнои	-10.657
спо	-10.6573
▁красив	-10.6574
▁дыхан	-10.6576
хар	-10.6578
▁обратит	-10.6579
▁муки	-10.6585
зен	-10.6587
▁скромно	-10.6587
▁смол	-10.659
▁буря	-10.6595
▁полюбил	-10.6596
▁вырос	-10.6598
▁дву	-10.6599
▁содержат	-10.66
▁притвор	-10.6602
▁получает	-10.6602
разум	-10.6602
▁пс	-10.6603
▁следующим	-10.6605
▁сир	-10.6607
▁проф	-10.6607
▁слабост	-10.6611
▁городах	-10.6612
▁отрыв	-10.6615
▁утоп	-10.6616
▁волшебн	-10.6618
▁пах	-10.6621
▁продолжает	-10.6625
▁отправил	-10.6625
▁пятнадцат	-10.6625
енными	-10.6625
бират	-10.6626
▁осталных	-10.663
▁сторона	-10.663
▁новаго	-10.6633
▁сделатся	-10.6635
даст	-10.6639
▁учения	-10.664
▁ул	-10.6642
▁атак	-10.6644
▁дворца	-10.6646
▁краснои	-10.6647
ушке	-10.6648
▁третеи	-10.6649
▁употреблен	-10.6653
▁шляпу	-10.6656
▁целом	-10.6656
▁подем	-10.6659
▁сб	-10.666
▁салтыков	-10.6662
▁молодости	-10.6664
▁грез	-10.6665
▁местност	-10.6666
▁демократ	-10.6666
▁моск	-10.6669
яч	-10.667
▁явилис	-10.6672
▁глух	-10.6673
▁чувствовала	-10.6677
▁электро	-10.6678
▁прекрасная	-10.6681
▁журналист	-10.6683
▁жертвы	-10.6684
▁задн	-10.6685
▁силным	-10.6685
▁мужу	-10.6686
тур	-10.6688
щем	-10.669
▁милл	-10.6691
▁простит	-10.6692
▁чинов	-10.6693
▁узнали	-10.6695
▁заставил	-10.6698
▁одиннадцат	-10.6701
▁таков	-10.6703
▁вилгелм	-10.6704
▁произвол	-10.6707
▁ссор	-10.6709
рап	-10.671
мут	-10.671
▁закрыв	-10.6711
▁последнюю	-10.6713
▁бир	-10.6714
▁завид	-10.6716
дох	-10.6716
▁великому	-10.6717
▁герцога	-10.6718
▁иисус	-10.6719
нных	-10.672
▁риск	-10.6721
▁мозг	-10.6721
▁сознания	-10.6722
▁нашла	-10.6722
кт	-10.6723
▁полиц	-10.6724
ивается	-10.6728
▁поити	-10.6728
▁пригласил	-10.6731
реб	-10.6731
▁учил	-10.6736
▁ответчик	-10.6737
▁психолог	-10.6738
▁приходил	-10.6739
▁макар	-10.674
ающии	-10.674
▁раздражен	-10.6747
ношен	-10.675
▁грамот	-10.6752
▁ответственност	-10.6753
▁покое	-10.6753
▁поправ	-10.6755
▁показался	-10.6758
▁перо	-10.6759
▁провести	-10.6761
▁пророк	-10.6762
елную	-10.6765
▁внутреннеи	-10.6765
▁настал	-10.6766
▁молот	-10.6767
▁главного	-10.6767
▁мартин	-10.6768
▁зависимости	-10.6772
▁выпил	-10.6774
пин	-10.6774
▁живым	-10.6774
▁удоволствием	-10.6779
▁переправ	-10.6779
нк	-10.6783
▁вдохновен	-10.6785
▁военного	-10.6787
▁аббат	-10.6788
▁усы	-10.6796
ывающ	-10.6796
▁служеб	-10.6797
юр	-10.68
вание	-10.6801
▁што	-10.6801
▁гражданского	-10.6802
▁понимаете	-10.6803
▁языков	-10.6803
▁жу	-10.6804
▁мадам	-10.6805
▁мясо	-10.6807
▁сор	-10.6809
▁белого	-10.6809
▁успели	-10.681
▁духе	-10.6811
▁гам	-10.6814
▁препятств	-10.6815
щее	-10.6817
▁весенн	-10.6817
овка	-10.6817
ложения	-10.6819
лыи	-10.6821
▁собственност	-10.6821
шив	-10.6822
▁боли	-10.6824
▁обязанностеи	-10.6825
▁искренне	-10.6826
▁эконом	-10.6827
▁провинции	-10.683
▁правы	-10.6833
▁общественного	-10.6834
▁критика	-10.6835
▁нужным	-10.6838
▁полная	-10.6841
кажу	-10.6841
▁толпе	-10.6845
ающие	-10.6848
▁разстоян	-10.6848
▁отечества	-10.6849
▁читает	-10.685
▁бунт	-10.6851
рог	-10.6852
▁удоволствие	-10.6853
чика	-10.6854
▁систем	-10.6859
▁безусловно	-10.6861
▁реин	-10.6862
▁денгами	-10.6864
▁искренно	-10.6871
▁бумагу	-10.6871
▁защитник	-10.6878
▁королевск	-10.6879
неиших	-10.6881
▁хе	-10.6882
▁электрическ	-10.6885
▁добрым	-10.6885
▁офицеры	-10.6886
вез	-10.6887
верн	-10.6888
ступают	-10.689
строен	-10.689
▁список	-10.6894
▁итог	-10.6894
▁старшии	-10.6895
▁внешн	-10.6895
▁букв	-10.6897
▁шотланд	-10.69
▁такому	-10.6903
мана	-10.6907
▁справедливости	-10.6908
▁ана	-10.6909
▁гил	-10.6909
▁искр	-10.691
▁забор	-10.6912
дела	-10.6913
▁разбоиник	-10.6916
▁кроват	-10.6917
▁перес	-10.6918
пен	-10.6921
▁эдуард	-10.6922
▁несчастныи	-10.6924
▁увеличива	-10.6925
евых	-10.6926
▁стихотворение	-10.6926
ливыи	-10.6927
▁исполнил	-10.6928
▁редк	-10.6931
▁определяется	-10.6931
▁странах	-10.6933
чок	-10.6934
▁арт	-10.6936
▁товарища	-10.6938
▁душевно	-10.6938
▁кожа	-10.6943
▁мук	-10.6943
▁франк	-10.6945
плыл	-10.6949
▁василев	-10.6949
ковскии	-10.6952
▁любезно	-10.6952
▁валентин	-10.6953
▁шеи	-10.6953
▁утомлен	-10.6953
▁возник	-10.6954
▁митрополит	-10.6955
▁идем	-10.6959
нскаго	-10.696
▁белом	-10.6961
▁известие	-10.6961
▁поэтов	-10.6962
▁щит	-10.6962
▁заключил	-10.6965
▁вопл	-10.6967
▁профессора	-10.6967
▁красно	-10.6968
уса	-10.6972
▁старш	-10.6972
▁отделен	-10.6974
▁реш	-10.6975
▁документа	-10.6976
▁тревож	-10.6977
▁совету	-10.6978
▁запрещен	-10.6981
▁верхом	-10.6981
▁шо	-10.6981
▁хиии	-10.6983
▁тяжк	-10.6985
▁позволит	-10.6985
▁мундир	-10.6986
ацию	-10.6992
▁инстинкт	-10.6992
▁доказателств	-10.6992
▁платы	-10.6993
▁участник	-10.6994
ящих	-10.6996
▁обрыв	-10.6996
▁тряс	-10.7003
пустит	-10.7007
▁окружающ	-10.7008
▁сослов	-10.7008
▁карты	-10.701
▁климат	-10.701
▁установленном	-10.701
▁флор	-10.7012
▁корпуса	-10.7012
▁выполнен	-10.7014
▁андреев	-10.7015
▁настоящем	-10.7016
бург	-10.7016
гел	-10.7019
▁зрен	-10.7019
▁камня	-10.7021
▁мокр	-10.7021
▁мягк	-10.7022
▁евр	-10.7022
▁здоровя	-10.7024
елеи	-10.7024
▁отнюд	-10.7026
▁хлопот	-10.7027
мот	-10.7028
▁клин	-10.7029
▁вспыхнул	-10.7029
▁наташа	-10.7029
вшим	-10.7031
▁джордж	-10.7032
▁счастливы	-10.7034
▁еслибы	-10.7035
▁щек	-10.7035
▁острог	-10.7035
▁сажен	-10.7036
▁удивля	-10.7038
▁шекспир	-10.7041
▁высших	-10.7045
▁семеиства	-10.7045
▁школа	-10.7046
▁пугачев	-10.7048
▁добавил	-10.7049
сан	-10.7049
▁белая	-10.7049
▁леч	-10.7053
ющую	-10.7054
▁предпринимател	-10.7055
▁путешествие	-10.7055
▁полков	-10.7055
▁заявлен	-10.7057
▁фет	-10.7057
▁кут	-10.7058
▁чет	-10.706
▁республика	-10.7064
▁доброе	-10.7065
тит	-10.7068
▁находилас	-10.7069
▁следующем	-10.7069
▁волна	-10.707
▁деиствующ	-10.7071
▁международно	-10.7072
▁законодателства	-10.7073
▁усилия	-10.7074
▁занятия	-10.7076
▁событии	-10.7079
евым	-10.7081
▁шептал	-10.7082
▁промысл	-10.7085
▁делами	-10.7086
▁кулак	-10.7086
▁важное	-10.7087
▁греч	-10.7087
▁предусмотренных	-10.7089
▁чаш	-10.7095
▁рыж	-10.7097
▁каз	-10.7097
▁детства	-10.7097
ива	-10.71
▁прошептал	-10.71
▁великая	-10.7101
яла	-10.7107
▁называли	-10.7108
▁казаки	-10.7109
▁заявление	-10.711
ывается	-10.7111
▁георг	-10.7112
▁ламп	-10.7112
▁произведение	-10.7121
▁колон	-10.7122
▁послышался	-10.7122
вр	-10.7123
лина	-10.7123
▁кровати	-10.7124
▁штук	-10.7124
▁состоят	-10.7125
▁считали	-10.7125
▁драматическ	-10.7126
▁поклонился	-10.7127
▁безмолв	-10.7127
▁отступ	-10.7129
▁слове	-10.7129
▁распоряжен	-10.713
▁перестал	-10.713
спор	-10.7131
бран	-10.7132
▁публицист	-10.7135
▁естествен	-10.7136
▁песы	-10.7139
▁собственных	-10.7147
▁парус	-10.7147
▁уничтожит	-10.7149
▁англичан	-10.715
▁держит	-10.7152
▁угроз	-10.7153
ющегося	-10.7156
▁марии	-10.7158
▁строк	-10.7159
▁пыш	-10.716
▁левои	-10.7161
▁стоявш	-10.7162
▁ребята	-10.7163
▁выража	-10.7164
▁назнача	-10.7165
днев	-10.7167
▁предположен	-10.717
тат	-10.7175
ватся	-10.7177
▁получат	-10.7177
кот	-10.7178
▁требованиям	-10.7178
▁помните	-10.7179
топ	-10.718
▁собрат	-10.718
▁егор	-10.718
▁изо	-10.7182
▁восп	-10.7183
▁упала	-10.7184
▁императрицы	-10.7185
▁короб	-10.7187
ающеи	-10.7187
▁лучшим	-10.7188
▁пусто	-10.7188
▁бросилас	-10.7192
▁нач	-10.7193
▁арестован	-10.7193
▁мусулман	-10.7194
▁официално	-10.7194
▁момента	-10.7196
телеи	-10.7199
▁брови	-10.7199
▁предназначен	-10.72
▁стремлен	-10.7202
▁распространя	-10.7203
▁ужасом	-10.7203
▁специално	-10.7205
▁горизонт	-10.7207
▁подписан	-10.7208
▁хохот	-10.7213
▁любо	-10.7213
▁саша	-10.7215
▁довод	-10.7215
▁типа	-10.7216
▁готово	-10.7216
▁смирен	-10.7217
▁галл	-10.7218
▁демон	-10.7221
▁началас	-10.7222
▁воевод	-10.7223
▁разврат	-10.7224
овск	-10.7224
▁жалобы	-10.7224
▁движении	-10.7225
▁сада	-10.7226
▁уход	-10.7227
▁мя	-10.7231
▁веч	-10.7232
▁ученыи	-10.7237
▁мелко	-10.7238
▁молчат	-10.7238
вшее	-10.7239
▁сидевш	-10.7239
▁менш	-10.724
▁единственным	-10.7241
▁отправ	-10.7242
▁высшего	-10.7243
▁взглянут	-10.7244
▁встав	-10.7245
▁персидск	-10.7246
▁высокии	-10.7247
▁боротся	-10.7248
▁возраст	-10.7249
▁ревност	-10.725
▁известных	-10.7251
▁новеиш	-10.7253
нули	-10.7256
▁страхом	-10.7259
▁фед	-10.7261
▁называт	-10.7263
▁следств	-10.7265
▁хороша	-10.7266
▁благодетел	-10.727
чувств	-10.7272
▁аристократ	-10.7272
▁пруд	-10.7273
▁происходило	-10.7275
▁трете	-10.7277
▁фигуры	-10.7278
▁высказал	-10.7279
▁бывшии	-10.7281
▁полчаса	-10.7286
▁прод	-10.7288
▁оружия	-10.7289
▁добрые	-10.7289
бир	-10.7293
▁блестящ	-10.7295
▁лар	-10.7296
них	-10.7297
▁усилен	-10.7298
▁огорчен	-10.7298
еву	-10.7299
▁здоровы	-10.7301
▁маленкую	-10.7301
▁недолго	-10.7302
рыт	-10.7302
▁разделен	-10.7302
▁прежних	-10.7303
▁еэбе	-10.7305
▁злодеи	-10.7306
▁олен	-10.7306
▁операции	-10.7308
▁сделаю	-10.7308
низ	-10.7309
▁лакеи	-10.7309
▁жандарм	-10.7314
ирования	-10.7318
▁давали	-10.7318
▁энергии	-10.7318
▁главных	-10.732
▁самуил	-10.7322
нил	-10.7322
▁музыкалн	-10.7324
▁дико	-10.7328
▁празд	-10.7328
▁дисциплин	-10.733
▁заметив	-10.7333
▁израил	-10.7333
чан	-10.7334
▁убор	-10.7334
очныи	-10.7336
▁маркс	-10.7339
▁поверит	-10.7339
▁способности	-10.734
пред	-10.734
стор	-10.7342
▁камин	-10.7342
▁работои	-10.7343
▁лета	-10.7345
стран	-10.7348
▁успехом	-10.7349
▁пишу	-10.7349
▁любящ	-10.7351
дев	-10.7351
▁университете	-10.7351
▁прикрыт	-10.7352
▁зо	-10.7354
▁секунд	-10.7354
ющееся	-10.7355
▁находим	-10.7356
▁семеиств	-10.7357
▁тюрме	-10.7362
▁разом	-10.7363
▁братом	-10.7367
▁армия	-10.7367
▁услуги	-10.7367
▁густ	-10.7368
▁переводчик	-10.7368
▁супруга	-10.7369
▁однакож	-10.7371
▁судбу	-10.7371
▁старым	-10.7376
▁памятник	-10.7378
▁купец	-10.7378
▁жи	-10.7378
▁обмен	-10.7379
▁сенатор	-10.738
▁вил	-10.7384
▁смею	-10.7385
▁учится	-10.7385
все	-10.7387
▁защиту	-10.7389
▁фонд	-10.7389
▁ставил	-10.739
вался	-10.739
▁тетрад	-10.7391
▁рбс	-10.7391
▁трактир	-10.7393
▁царства	-10.7394
▁предусмотрен	-10.7395
брат	-10.7395
скал	-10.7397
▁входят	-10.7399
▁многим	-10.7399
▁участка	-10.7401
▁целое	-10.7401
▁черных	-10.7402
яр	-10.7403
▁наслажден	-10.7404
▁животное	-10.7408
▁ступ	-10.7409
бре	-10.741
▁осуществляется	-10.7412
▁скуп	-10.7412
▁колен	-10.7413
▁мад	-10.7413
ело	-10.7414
▁приняты	-10.7416
▁ученых	-10.7416
▁длинные	-10.7416
▁публики	-10.7416
▁избу	-10.742
▁хим	-10.7421
иком	-10.7421
▁включен	-10.7422
ливы	-10.7427
▁половина	-10.7428
чных	-10.743
▁распоряжение	-10.743
▁романов	-10.7431
▁обход	-10.7433
ившие	-10.7434
▁всякому	-10.7437
▁посмотрите	-10.7439
▁зон	-10.744
▁аг	-10.744
▁судбе	-10.7441
▁дл	-10.7446
нз	-10.7449
▁победы	-10.7449
▁исползования	-10.745
▁пресс	-10.745
▁страну	-10.7451
▁которою	-10.7453
▁молодеж	-10.7454
▁посыл	-10.7455
лик	-10.7455
▁оставили	-10.7456
кевич	-10.7456
неишим	-10.7457
▁яр	-10.7458
▁деиствует	-10.7459
▁заставляет	-10.7461
бес	-10.7461
акт	-10.7462
мед	-10.7465
▁корзин	-10.7467
▁катерина	-10.7469
▁тиран	-10.747
▁странным	-10.7472
▁приносит	-10.7474
▁оруд	-10.7475
▁милосерд	-10.7475
▁известнои	-10.7476
▁обвинен	-10.7481
▁повелител	-10.7482
▁борода	-10.7482
▁темноте	-10.7482
▁помол	-10.7483
▁утес	-10.7486
ываем	-10.7487
▁воскресене	-10.7488
▁дума	-10.7488
▁выделя	-10.7489
▁расста	-10.7489
▁ответственности	-10.749
▁сот	-10.749
▁стер	-10.749
▁предпр	-10.7491
▁истину	-10.7491
▁маленких	-10.7492
телным	-10.7493
▁опубликовано	-10.7494
▁гас	-10.7495
▁вблизи	-10.7496
▁предметов	-10.7496
▁встала	-10.7496
▁креп	-10.7498
▁бежит	-10.7498
▁плакал	-10.7499
▁торжеств	-10.7501
▁чтен	-10.7503
▁маленкие	-10.7504
▁указат	-10.7505
▁обнял	-10.7505
виз	-10.7506
▁дура	-10.7506
▁существования	-10.7508
▁выехал	-10.7508
▁направля	-10.7509
сер	-10.7511
сар	-10.7512
▁мещан	-10.7513
▁заступ	-10.7513
▁брю	-10.7514
▁родственник	-10.7516
▁бледно	-10.752
▁горн	-10.7521
▁гражданин	-10.7521
▁серг	-10.7522
▁оказалас	-10.7525
ственно	-10.7525
▁спину	-10.7526
▁угла	-10.7527
▁поняла	-10.7529
▁образовал	-10.753
▁луж	-10.753
ствует	-10.7531
▁замечает	-10.7533
▁надежд	-10.7533
▁какою	-10.7534
▁повторяю	-10.7534
▁занимает	-10.7534
скат	-10.7534
▁гору	-10.7534
▁дес	-10.7534
▁уединен	-10.7535
▁публично	-10.7539
лат	-10.7542
▁глубокои	-10.7543
зо	-10.7545
реи	-10.7546
▁признает	-10.7547
▁участия	-10.7547
▁увидела	-10.7548
▁экзамен	-10.7549
▁справедливост	-10.7549
еро	-10.755
▁скол	-10.7551
▁последующ	-10.7552
▁ром	-10.7555
▁орд	-10.7557
▁священно	-10.7557
▁слуги	-10.7559
▁глубины	-10.756
▁спин	-10.7561
▁равнодуш	-10.7562
▁марш	-10.7563
▁системе	-10.7565
▁советскои	-10.7566
▁городскои	-10.7568
▁оратор	-10.7569
▁часу	-10.7572
▁малыи	-10.7572
▁расходов	-10.7572
▁ежегодно	-10.7577
▁эпизод	-10.7578
ворот	-10.7578
▁общии	-10.7584
▁искусстве	-10.7585
▁благодат	-10.7589
▁тюрму	-10.7594
▁эм	-10.7595
▁паст	-10.7595
▁функции	-10.7596
▁фунтов	-10.7596
▁разбил	-10.7597
губ	-10.7599
▁собрал	-10.76
▁николаевна	-10.76
▁замолчал	-10.7601
▁резерв	-10.7601
▁содеиств	-10.7604
▁строит	-10.7605
никами	-10.7608
▁богатыр	-10.7609
▁известия	-10.761
▁вечерн	-10.761
▁твоему	-10.7616
▁гот	-10.7618
▁оси	-10.7618
▁шагом	-10.7619
ящии	-10.7619
▁полов	-10.7619
▁небу	-10.762
▁подтвердил	-10.7621
▁смеяс	-10.7621
▁военныи	-10.7623
▁комед	-10.7625
три	-10.7626
▁куст	-10.7627
▁вплот	-10.7631
▁нынешн	-10.7632
▁заменит	-10.7633
▁образу	-10.7634
ляет	-10.7635
▁происхождения	-10.7636
оид	-10.7638
порт	-10.7643
▁кои	-10.7643
фу	-10.7644
▁досад	-10.7644
▁берез	-10.7645
▁синор	-10.7645
▁поручен	-10.7645
▁молится	-10.7646
▁обяснения	-10.7648
▁исе	-10.7648
▁толпу	-10.765
▁лэди	-10.765
▁цветами	-10.7652
▁ствол	-10.7654
▁тул	-10.7657
▁посторонн	-10.7658
▁вэ	-10.7659
▁направился	-10.7659
ег	-10.7661
▁люси	-10.7663
▁мелких	-10.7663
▁музыки	-10.7663
▁слышали	-10.7666
▁чаю	-10.7666
▁указания	-10.7667
▁усердно	-10.7667
▁рима	-10.7671
▁размер	-10.7672
цин	-10.7675
▁посланник	-10.7675
▁поры	-10.7676
▁новост	-10.768
емы	-10.768
▁умом	-10.7682
▁веселыи	-10.7689
чел	-10.769
▁музыкант	-10.7691
важ	-10.7693
▁отличается	-10.7694
▁выдел	-10.7694
▁данные	-10.7695
▁субектов	-10.7696
▁затруднен	-10.7696
▁слышала	-10.7699
▁показалас	-10.77
▁толк	-10.7701
▁известен	-10.7701
авшая	-10.7705
▁мот	-10.7706
крыт	-10.7706
▁ищет	-10.7707
▁узнала	-10.7708
▁парижа	-10.7711
▁тягот	-10.7713
▁сюжет	-10.7713
ично	-10.7714
▁французского	-10.7715
▁истина	-10.7717
▁полного	-10.7719
▁целеи	-10.7722
▁полностю	-10.7723
▁аполлон	-10.7726
▁литератор	-10.7729
ившиися	-10.773
▁прекратил	-10.7731
▁владел	-10.7731
лиз	-10.7732
▁передо	-10.7733
▁песню	-10.7738
▁ушли	-10.774
кнут	-10.774
▁князеи	-10.7744
▁воен	-10.7745
▁ходили	-10.7749
▁стрелков	-10.7751
▁выпис	-10.7752
▁изменен	-10.7754
▁позвал	-10.7757
▁виды	-10.7761
▁бояс	-10.7762
▁экз	-10.7762
▁верт	-10.7762
▁художеств	-10.7764
▁беспокои	-10.7767
▁сохрани	-10.7768
▁алтар	-10.7769
▁благоразум	-10.7769
▁миру	-10.777
▁теор	-10.777
▁сестре	-10.7772
крашен	-10.7773
▁осеню	-10.7774
▁совершит	-10.7775
▁катя	-10.7778
▁удаля	-10.7778
▁новому	-10.7779
ывали	-10.7784
▁императрица	-10.7786
▁крестянин	-10.7788
▁следит	-10.7789
▁старалис	-10.7789
▁тяжел	-10.779
▁рассматрива	-10.7794
▁гел	-10.7796
▁евангел	-10.7796
▁каждаго	-10.7799
▁миров	-10.7802
▁свободе	-10.7804
▁лез	-10.7804
▁доказателство	-10.7804
▁круга	-10.7805
▁еду	-10.7806
▁инструмент	-10.7808
▁цепи	-10.7809
▁атаман	-10.781
▁позвол	-10.781
▁рада	-10.7811
пира	-10.7812
▁покачал	-10.7812
▁зол	-10.7814
▁деревня	-10.7816
▁бого	-10.7819
▁наверно	-10.7819
▁создат	-10.7822
енно	-10.7825
▁кресло	-10.7826
▁последнем	-10.7827
▁ярослав	-10.7827
▁скрывал	-10.7832
▁высоких	-10.7835
▁знаменитыи	-10.7836
▁подходил	-10.7838
▁актив	-10.7839
▁погребен	-10.784
▁вез	-10.784
▁имеются	-10.7841
▁анны	-10.7842
зон	-10.7845
▁виш	-10.7845
▁критики	-10.7848
▁информации	-10.7852
очнои	-10.7854
▁яко	-10.7855
▁привлечен	-10.7857
▁оказалис	-10.7858
▁влияния	-10.7859
ляр	-10.7861
тик	-10.7861
▁прерыва	-10.7862
▁тридцати	-10.7862
▁кер	-10.7862
▁собеседник	-10.7862
▁факты	-10.7863
▁заснул	-10.7865
▁преступ	-10.7866
▁прокурор	-10.7866
▁валя	-10.7867
чива	-10.7867
▁оборон	-10.7867
▁дано	-10.787
елю	-10.7873
▁уклон	-10.7873
▁дор	-10.7873
▁восточнои	-10.7873
▁казалис	-10.7874
▁временно	-10.7876
▁сумасшедш	-10.7876
▁франков	-10.7877
▁мировои	-10.7878
кинут	-10.7878
▁никол	-10.7879
▁перестан	-10.788
▁составит	-10.788
▁запрос	-10.7884
▁раскрыт	-10.7887
▁появилас	-10.7888
стар	-10.7888
▁волосами	-10.7891
▁решении	-10.7892
▁собрании	-10.7894
▁разуме	-10.7895
▁заняты	-10.7896
▁промышлен	-10.7896
▁суров	-10.7899
▁откровен	-10.79
▁процент	-10.79
▁волно	-10.7905
▁каково	-10.791
▁реестр	-10.791
▁ползовался	-10.7911
▁сети	-10.7912
валас	-10.7912
пон	-10.7913
нные	-10.7913
▁государственным	-10.7918
▁подав	-10.7918
▁голланд	-10.7919
ившеи	-10.792
▁дяде	-10.7921
▁упрям	-10.7922
▁огромныи	-10.7923
▁кабак	-10.7924
▁ведущ	-10.7926
▁проидет	-10.7927
▁залив	-10.793
▁пищи	-10.7936
▁слушаи	-10.7937
▁взглянула	-10.7938
▁роду	-10.794
▁свято	-10.7944
▁разбира	-10.7944
▁принести	-10.7944
▁бедств	-10.7946
▁терпен	-10.7947
▁племянник	-10.7948
▁пунктом	-10.7949
гард	-10.7951
▁длинныи	-10.7953
▁поцеловал	-10.7954
▁боб	-10.7954
▁прошедш	-10.7954
▁переходит	-10.7956
▁встречается	-10.7957
мал	-10.7957
▁чтение	-10.7957
кре	-10.7959
▁внук	-10.7959
атов	-10.7959
сом	-10.796
▁извозчик	-10.796
▁сошел	-10.7961
▁вихр	-10.7961
▁помогал	-10.7962
▁благословен	-10.7963
▁сообща	-10.7964
▁болшею	-10.7966
▁звери	-10.7969
▁собралис	-10.7969
▁контроля	-10.7971
▁монгол	-10.7972
▁монастыре	-10.7976
ада	-10.7977
▁ладон	-10.7977
▁ехали	-10.7977
▁велико	-10.7981
▁полагал	-10.7981
▁дружески	-10.7981
▁орден	-10.7981
▁процесса	-10.7982
▁колцо	-10.7983
▁лил	-10.7983
▁жорж	-10.7987
▁форт	-10.7989
енд	-10.799
▁сосредоточен	-10.7991
очные	-10.7993
▁старост	-10.7994
▁дяди	-10.7999
▁конституции	-10.8001
▁особо	-10.8001
▁гимн	-10.8002
▁молодец	-10.8003
▁отдохнут	-10.8004
▁сказки	-10.8007
сущ	-10.8008
▁оливер	-10.8011
оватся	-10.8012
▁провал	-10.8013
▁зараз	-10.8015
нием	-10.8015
▁луны	-10.8015
лам	-10.8016
сад	-10.8017
▁фор	-10.8021
▁пола	-10.8024
▁рабочии	-10.8029
▁канцеляр	-10.8029
учил	-10.8034
▁ярк	-10.8036
▁разно	-10.8036
▁племени	-10.8036
▁нечист	-10.8037
▁указывал	-10.8037
▁умственно	-10.8038
▁родину	-10.8039
гл	-10.804
▁боевых	-10.8043
▁поднялас	-10.8044
▁порох	-10.8045
▁коллектив	-10.8045
▁голода	-10.8046
▁узнает	-10.8047
▁станц	-10.8047
олд	-10.805
▁встречаются	-10.805
▁нарушение	-10.805
▁залог	-10.8051
▁виноград	-10.8052
▁ще	-10.8052
▁осталное	-10.8052
▁встречи	-10.8052
▁остановится	-10.8055
▁основных	-10.8055
▁пролетар	-10.8057
▁духовнои	-10.8057
▁преступление	-10.8059
▁лучшее	-10.8061
▁вопросом	-10.8061
▁существ	-10.8062
▁банка	-10.8063
▁горел	-10.8065
▁перевоз	-10.8066
щика	-10.8068
▁сд	-10.8068
рот	-10.8068
▁расстоянии	-10.8069
▁поэмы	-10.807
▁скорост	-10.8071
▁пирог	-10.8073
гам	-10.8078
▁путешествия	-10.8078
▁милостивыи	-10.8079
▁следующих	-10.808
▁украин	-10.8082
▁волч	-10.8082
озна	-10.8084
▁посме	-10.8084
▁обществу	-10.8089
▁гете	-10.8089
▁равнодушно	-10.8092
▁всякие	-10.8093
▁барабан	-10.8093
щет	-10.8097
▁наблюден	-10.8097
▁жрец	-10.8097
▁хорошим	-10.8099
▁исползован	-10.81
▁поскорее	-10.81
▁передел	-10.81
▁свыше	-10.81
▁обраща	-10.81
▁собач	-10.8101
▁держатся	-10.8101
▁феодал	-10.8104
▁чувствуя	-10.8104
▁ласка	-10.8108
▁леонид	-10.8112
▁твер	-10.8115
▁надобности	-10.8117
▁проведения	-10.8117
штеин	-10.8119
▁абсолютно	-10.8119
▁имеющ	-10.812
▁прекраснои	-10.8121
▁получения	-10.8121
▁шерст	-10.8121
дают	-10.8123
▁подлинно	-10.8124
хат	-10.8125
▁появилис	-10.8126
▁умолк	-10.8133
▁настроение	-10.8139
▁нов	-10.814
▁обращал	-10.8142
алных	-10.8142
▁расходы	-10.8143
▁королем	-10.8144
▁увидите	-10.8145
▁нашими	-10.8146
▁зрелище	-10.8148
▁третего	-10.8149
▁лебед	-10.8149
▁современнои	-10.8151
▁копе	-10.8154
▁административно	-10.8155
кали	-10.8156
▁служат	-10.8156
▁лодка	-10.8156
▁овладел	-10.8158
пят	-10.816
▁надежду	-10.8161
▁побледнел	-10.8166
▁познан	-10.8167
▁отезд	-10.8171
яне	-10.8171
стол	-10.8172
▁достоинство	-10.8174
ливая	-10.8175
▁уничтож	-10.8175
хан	-10.8176
▁мыш	-10.8178
▁враги	-10.8179
▁дежур	-10.818
▁смог	-10.8181
▁испуган	-10.8181
сек	-10.8184
▁сокол	-10.8185
▁пробормотал	-10.8186
▁огни	-10.8186
▁фрак	-10.8187
▁меди	-10.819
▁горах	-10.8191
ирование	-10.8192
▁кармана	-10.8194
▁надеятся	-10.8194
мышля	-10.8195
▁передан	-10.8196
▁ярост	-10.8197
▁ремесл	-10.8197
▁окончании	-10.8199
▁общие	-10.8199
▁разговоры	-10.82
▁организм	-10.8201
▁алексеев	-10.8201
▁резултаты	-10.8201
▁востоке	-10.8201
▁жестокост	-10.8202
▁предлагал	-10.8202
▁последствия	-10.8202
лки	-10.8203
▁достав	-10.8204
▁тигр	-10.8209
▁женился	-10.8209
вре	-10.8211
▁хитр	-10.8217
▁дочерю	-10.8218
▁научно	-10.8219
▁марс	-10.822
▁автомобил	-10.8221
иды	-10.8221
рр	-10.8222
▁недостаток	-10.8225
▁тише	-10.8226
рица	-10.8227
гат	-10.8227
▁несчасте	-10.8232
бери	-10.8234
нную	-10.8235
▁экземпляр	-10.8237
▁целовал	-10.8237
бах	-10.8238
▁попытки	-10.8239
▁направо	-10.824
▁установит	-10.8241
▁черном	-10.8241
▁быстр	-10.8242
▁палто	-10.8248
▁водян	-10.8248
▁обнаружил	-10.8249
▁жарко	-10.8249
▁палач	-10.8249
▁грац	-10.8251
▁сокр	-10.8252
▁иоанна	-10.8252
▁местами	-10.8253
елныи	-10.8253
▁назначил	-10.8254
▁родов	-10.8255
▁возмет	-10.8256
▁мебел	-10.8257
▁ремонт	-10.8258
ившая	-10.8258
▁наидет	-10.8259
▁днях	-10.8259
▁сек	-10.8261
▁лежали	-10.8262
▁перс	-10.8264
▁колод	-10.8267
▁попаст	-10.8268
▁допуска	-10.827
▁революция	-10.827
▁казач	-10.827
▁нижн	-10.8272
▁отряда	-10.8273
▁приложен	-10.8274
▁предыдущ	-10.8274
▁законами	-10.8275
▁сердито	-10.8275
▁огород	-10.828
бат	-10.828
▁немецкии	-10.8281
▁кивнул	-10.8285
▁соглаша	-10.8287
▁древне	-10.8288
▁нераз	-10.8289
▁заявления	-10.8289
▁воров	-10.8292
▁пуг	-10.8295
▁неизвестны	-10.8296
▁лучшие	-10.8298
▁песчан	-10.8299
▁почтително	-10.83
▁пределы	-10.8301
▁трагическ	-10.8302
▁востока	-10.8304
▁боится	-10.8307
▁прекрасное	-10.8308
▁открыты	-10.8309
▁властю	-10.831
▁оставалис	-10.8311
▁слушаю	-10.8316
▁герб	-10.8319
алнои	-10.832
▁понимаеш	-10.8322
▁ари	-10.8323
▁сложил	-10.8324
▁черв	-10.8325
▁унес	-10.8326
▁деиствителност	-10.8328
инск	-10.8328
▁верстах	-10.833
▁пыта	-10.8332
▁отвод	-10.8332
▁унижен	-10.8333
▁екатерины	-10.8334
каз	-10.8334
▁бабы	-10.8335
▁кардинал	-10.8336
▁оказал	-10.8337
▁блок	-10.834
▁приблизително	-10.834
▁желто	-10.8341
▁гуд	-10.8342
▁патр	-10.8342
▁теми	-10.8343
цер	-10.8343
ером	-10.8343
▁гостинои	-10.8344
▁дедушка	-10.8345
▁приезж	-10.8346
▁сумм	-10.8347
авшим	-10.8348
ющаяся	-10.8348
▁машины	-10.8348
▁палцы	-10.8349
▁признак	-10.835
▁мужики	-10.8351
▁стремление	-10.8352
▁округ	-10.8355
▁страхов	-10.8355
▁избирател	-10.8355
▁могуществен	-10.8358
▁це	-10.836
▁невидим	-10.8362
▁бешен	-10.8363
▁подобного	-10.8363
▁переворот	-10.8366
▁переводе	-10.8372
▁здания	-10.8372
▁падает	-10.8372
▁уверенност	-10.8374
▁хорошего	-10.8378
▁анне	-10.8379
▁устранен	-10.838
▁существуют	-10.8382
▁плет	-10.8382
▁рукав	-10.8383
▁тяжелым	-10.8384
евского	-10.8386
▁доброволно	-10.8386
▁тянул	-10.8387
▁рождения	-10.8391
▁казаков	-10.8391
гран	-10.8393
▁доста	-10.8394
▁газете	-10.8395
▁звали	-10.8395
▁ун	-10.8396
▁горест	-10.8399
▁цин	-10.84
▁смутно	-10.8402
▁ограничива	-10.8403
сказ	-10.8404
▁покуда	-10.8404
▁помалу	-10.8407
▁живущ	-10.8408
▁позволял	-10.8409
▁отход	-10.8416
▁представители	-10.8418
▁практическ	-10.8429
▁братец	-10.8429
▁сожалению	-10.8431
▁потребност	-10.8432
▁метр	-10.8433
▁противо	-10.8434
▁элементов	-10.8436
▁началство	-10.8437
▁тремя	-10.8438
▁тщетно	-10.8439
▁сорт	-10.844
▁удоволствия	-10.844
▁основание	-10.844
▁доволств	-10.8444
▁ходу	-10.8446
▁содержит	-10.8449
▁платок	-10.845
▁думают	-10.8452
▁ружя	-10.8455
нских	-10.8455
▁пламя	-10.846
нцы	-10.8461
▁умирающ	-10.8464
▁такова	-10.8465
▁перси	-10.8466
▁каприз	-10.8468
рт	-10.8469
▁школу	-10.8472
▁блестяще	-10.8473
пек	-10.8474
шил	-10.8474
▁открыв	-10.8475
очкои	-10.8479
▁состава	-10.848
▁робко	-10.8481
сона	-10.8482
еп	-10.8482
▁красавица	-10.8483
▁треск	-10.8483
▁коля	-10.8483
▁роб	-10.8486
▁одежды	-10.8486
▁обекта	-10.849
▁утверждает	-10.849
▁кирпич	-10.8492
▁разряд	-10.8494
▁улицам	-10.8497
▁карер	-10.8497
▁кризис	-10.85
▁добродетели	-10.85
▁друзями	-10.8501
▁молитвы	-10.8505
▁око	-10.8507
▁математик	-10.8507
▁квартал	-10.8507
жден	-10.8508
▁малеиш	-10.851
▁страж	-10.8513
▁аромат	-10.8514
▁фланг	-10.8514
ревосходителство	-10.8516
чивал	-10.8517
▁всадник	-10.8518
▁смысла	-10.852
▁устроиство	-10.852
▁помещения	-10.8523
▁совместно	-10.8526
▁раск	-10.8528
овала	-10.8529
▁отваж	-10.853
лка	-10.853
ивали	-10.8531
рю	-10.8532
▁игры	-10.8532
▁любили	-10.8536
▁арбитражныи	-10.8539
▁степанович	-10.8541
имыи	-10.8546
▁брошен	-10.8547
▁струи	-10.8551
▁дем	-10.8552
▁горит	-10.8554
▁будущего	-10.8557
▁учет	-10.856
▁особои	-10.8562
▁знакомыи	-10.8564
▁необычаино	-10.8564
▁заместител	-10.8565
нное	-10.8566
▁приобрел	-10.8568
▁курт	-10.8568
▁игру	-10.8568
▁круто	-10.8568
▁русскаго	-10.8569
▁ведут	-10.8569
сход	-10.8569
щую	-10.857
▁знание	-10.857
▁тюрем	-10.8573
▁птич	-10.8573
▁разрешение	-10.8574
▁глядит	-10.8575
▁невест	-10.8575
▁боги	-10.8576
век	-10.8579
▁палцами	-10.8579
▁систему	-10.8581
▁потеря	-10.8582
▁никита	-10.8582
▁япон	-10.8583
▁текущ	-10.8583
▁задач	-10.8584
▁спо	-10.8584
▁тронул	-10.8585
стреб	-10.859
▁привели	-10.859
▁зеркало	-10.8592
▁проблем	-10.8593
▁ленинград	-10.8594
▁гимназии	-10.8594
▁покрывал	-10.8596
▁рассе	-10.8597
лем	-10.86
▁прохлад	-10.86
▁екатерин	-10.8601
▁возмущен	-10.8604
▁присутствие	-10.8606
глу	-10.8606
▁великаго	-10.8608
▁губернатора	-10.8608
ализм	-10.861
▁древнеи	-10.8618
дил	-10.8621
▁остатки	-10.8622
▁московск	-10.8622
▁женат	-10.8622
▁отпуск	-10.8624
нику	-10.8624
▁свобод	-10.8626
▁теперешн	-10.8627
▁барыш	-10.8628
▁бах	-10.8629
▁игнат	-10.863
▁приняла	-10.863
▁третя	-10.863
▁названием	-10.8632
▁налог	-10.8635
▁воспитыва	-10.8637
▁веселе	-10.8641
▁брака	-10.8642
▁принимая	-10.8642
▁скалы	-10.8646
▁фраз	-10.8647
▁кладбище	-10.8647
▁велмож	-10.8647
▁поняли	-10.8648
▁городом	-10.8649
▁позиции	-10.8649
▁брод	-10.8651
▁интеллигент	-10.8651
▁острове	-10.8652
▁началос	-10.8653
▁гордост	-10.8653
▁пота	-10.8654
▁неловко	-10.8655
анка	-10.8655
▁пистолет	-10.8658
▁людях	-10.8659
▁удален	-10.8659
плод	-10.866
▁концерт	-10.866
▁замке	-10.8661
▁впечатления	-10.8661
▁существенно	-10.8661
▁созда	-10.8661
▁тюрмы	-10.8663
▁гора	-10.8667
▁бросилис	-10.8668
▁фонда	-10.8669
▁слобод	-10.8669
▁близк	-10.8671
▁ордена	-10.8671
▁счастливо	-10.8672
▁простым	-10.8673
▁являлся	-10.8673
▁кодекс	-10.8673
▁миллионов	-10.8674
хор	-10.8674
▁подчиня	-10.8674
▁кресла	-10.8675
телно	-10.8678
▁анненков	-10.868
▁любиш	-10.8683
▁проводник	-10.8683
▁отрад	-10.8683
вши	-10.8684
▁подо	-10.8685
▁бала	-10.8686
▁кратко	-10.8686
▁неправилно	-10.8686
▁девиц	-10.8687
▁исправлен	-10.8688
▁вывоз	-10.8688
▁наказания	-10.8689
▁полев	-10.8689
▁шап	-10.8689
▁середине	-10.8691
▁лоп	-10.8693
▁блага	-10.8694
▁умен	-10.8695
▁нор	-10.8696
▁эт	-10.8701
▁поза	-10.8703
▁растении	-10.8704
▁программ	-10.8704
▁крыля	-10.8704
▁обманут	-10.8706
▁начнет	-10.8708
▁резк	-10.8708
▁осуществления	-10.8709
▁охраны	-10.871
дает	-10.8712
▁московскои	-10.8713
▁возлюблен	-10.8713
▁планы	-10.8714
▁сообщения	-10.8715
▁серд	-10.8716
роз	-10.8716
▁миром	-10.8717
▁главная	-10.8717
▁следоват	-10.8721
тона	-10.8723
▁принца	-10.8726
▁типограф	-10.8727
▁волост	-10.8728
ившим	-10.8728
▁порои	-10.873
▁предоставлен	-10.8731
▁обедат	-10.8732
▁лвов	-10.8732
▁коленях	-10.8734
▁известным	-10.8735
▁хозяиство	-10.874
▁переб	-10.8741
▁решено	-10.8741
▁трус	-10.8742
▁отставку	-10.8743
▁клятв	-10.8743
▁установ	-10.8747
▁неоднократно	-10.8749
▁скандал	-10.8749
▁искусств	-10.8751
двига	-10.8752
▁обла	-10.8753
▁верныи	-10.8754
▁медал	-10.8754
▁наполеона	-10.8754
▁произнесла	-10.8755
▁человечество	-10.8757
▁древности	-10.8759
▁щеки	-10.876
▁засмеялся	-10.8761
▁шахт	-10.8761
▁утренн	-10.8763
▁прошен	-10.8768
иею	-10.8768
▁первому	-10.8768
▁плеч	-10.8771
▁ребенком	-10.8771
▁очутился	-10.8771
▁перев	-10.8772
▁участков	-10.8772
▁барышня	-10.8775
▁сосуд	-10.8781
▁представ	-10.8783
▁полноч	-10.8786
▁ласков	-10.8787
▁девица	-10.8787
▁эффект	-10.8788
▁веснои	-10.8788
▁подходя	-10.8789
▁черная	-10.8789
▁мгновенно	-10.8791
▁сравнен	-10.8792
▁андре	-10.8794
▁привязанност	-10.8797
▁поднес	-10.8801
▁зиму	-10.8801
▁палцем	-10.8804
▁сочинение	-10.8804
▁командира	-10.8805
▁наблюдения	-10.8809
▁кормил	-10.881
▁субект	-10.8812
▁троп	-10.8813
▁избе	-10.8814
▁кист	-10.8815
▁волнение	-10.8816
▁правои	-10.8822
▁соображен	-10.8823
▁любопытны	-10.8823
▁лондоне	-10.8824
▁самыя	-10.8825
▁разума	-10.8826
▁хитрост	-10.8826
▁волнения	-10.8828
▁мешает	-10.8828
▁самыми	-10.8828
▁пищу	-10.8829
следован	-10.883
▁отдела	-10.8831
▁свету	-10.8832
▁простира	-10.8835
▁недостатка	-10.8838
▁дороже	-10.8838
▁подавлен	-10.8838
▁мечтал	-10.8839
пы	-10.884
▁наблюдат	-10.8841
▁единиц	-10.8843
▁практически	-10.8845
▁злои	-10.8845
▁возму	-10.8845
▁правде	-10.8846
▁налево	-10.8847
плот	-10.8849
▁цифр	-10.885
▁плачет	-10.8852
▁бюджета	-10.8852
ируем	-10.8853
▁схем	-10.8853
▁почве	-10.8853
▁култ	-10.8854
▁терпет	-10.8854
▁пис	-10.8854
▁водки	-10.8856
▁знач	-10.8857
▁положим	-10.8858
▁несколкими	-10.886
истым	-10.8861
▁считают	-10.8862
рок	-10.8864
▁увидиш	-10.8864
▁сокращен	-10.8864
▁ветр	-10.8866
▁лодки	-10.8871
▁гриб	-10.8873
▁лбу	-10.8874
▁сквер	-10.8876
пыт	-10.8879
лиц	-10.888
▁пережит	-10.888
▁напал	-10.888
▁захватил	-10.8883
▁благодарност	-10.8883
▁зверя	-10.8885
▁плана	-10.8887
▁главнои	-10.8888
▁зрел	-10.889
▁способом	-10.8891
▁поддерживал	-10.8895
▁характеристик	-10.8896
▁древ	-10.8897
▁включа	-10.8898
дур	-10.8899
▁цену	-10.89
▁божие	-10.89
▁разными	-10.8903
▁фал	-10.8903
▁сыновеи	-10.8903
▁землеи	-10.8904
ическими	-10.8907
рак	-10.8907
▁команду	-10.8907
▁александровна	-10.8908
▁тир	-10.8912
▁добры	-10.8912
▁организован	-10.8913
▁голубчик	-10.8913
▁юноше	-10.8913
был	-10.8915
вая	-10.8916
▁недостоин	-10.8917
▁полет	-10.8918
десят	-10.8919
▁папирос	-10.892
▁мило	-10.892
▁мучител	-10.8923
▁зев	-10.8923
▁революц	-10.8926
▁добролюбов	-10.8927
▁изыскан	-10.8927
аюс	-10.8931
аннои	-10.8931
▁долги	-10.8934
▁кинжал	-10.8935
▁рожд	-10.8936
▁смотрят	-10.8937
▁предводител	-10.8938
вич	-10.8941
▁весна	-10.8942
▁развод	-10.8943
▁полку	-10.8944
▁прибор	-10.8946
▁рассвет	-10.8946
▁талантлив	-10.8949
бегает	-10.8952
▁барыня	-10.8952
▁князем	-10.8956
▁воспр	-10.8957
▁человеческих	-10.8958
▁фабрик	-10.8959
▁земск	-10.8959
▁лест	-10.896
▁признатся	-10.8962
▁главные	-10.8963
▁явлении	-10.8965
▁вершины	-10.8967
▁бывш	-10.8968
▁собственник	-10.8968
▁обоим	-10.8969
▁дыхание	-10.897
нина	-10.8971
▁пространстве	-10.8973
▁сав	-10.8974
▁мертвых	-10.8974
▁видны	-10.8974
▁просвещения	-10.8975
▁испытывал	-10.8978
▁среде	-10.898
▁огромное	-10.8982
▁квартире	-10.8983
▁неизменно	-10.8984
▁поручик	-10.8984
▁причину	-10.8987
форд	-10.899
▁утратил	-10.8991
▁вслух	-10.8991
▁степи	-10.8991
▁приносил	-10.8992
▁целым	-10.8995
шем	-10.8997
▁человеке	-10.8998
▁смелост	-10.8999
▁шее	-10.8999
▁прошлого	-10.9
▁бедняк	-10.9002
▁вспоминал	-10.9002
чиват	-10.9003
▁намерение	-10.9004
анные	-10.9004
▁столик	-10.9004
▁дверях	-10.9005
▁ждали	-10.9005
▁пленник	-10.9009
▁осуществление	-10.9009
▁тихонко	-10.9012
▁выхода	-10.9013
▁плю	-10.9013
ляется	-10.9015
▁данте	-10.9016
▁добрая	-10.9016
▁охота	-10.9018
весел	-10.9019
▁задерж	-10.9021
▁вице	-10.9022
▁провинц	-10.9023
▁требуется	-10.9025
▁али	-10.9026
плыв	-10.9027
▁захар	-10.9028
▁земледел	-10.9028
вернут	-10.9031
▁единственное	-10.9031
▁благородно	-10.9032
▁обществом	-10.9034
▁бедных	-10.9035
щему	-10.9035
▁опасен	-10.9035
▁посмотрела	-10.9039
▁масло	-10.9039
▁присутствии	-10.9039
▁взглянув	-10.904
▁сапоги	-10.9041
гада	-10.9042
мерен	-10.9043
▁развед	-10.9044
▁участи	-10.9044
▁сложен	-10.9045
▁восход	-10.9047
▁леон	-10.9049
▁физик	-10.9049
▁подняв	-10.9052
▁утешен	-10.9053
▁государствен	-10.9054
▁велика	-10.9055
ота	-10.9056
▁соф	-10.9058
▁выступал	-10.9059
▁старо	-10.906
шкин	-10.906
▁уехат	-10.9063
▁порядком	-10.9066
зира	-10.9067
живает	-10.9069
▁сумма	-10.907
▁негодяи	-10.907
▁молодежи	-10.9072
▁густо	-10.9073
оза	-10.9074
уются	-10.9074
син	-10.9075
▁раскол	-10.9075
▁закончил	-10.9075
▁причинои	-10.9077
▁народы	-10.9077
▁признавал	-10.9077
▁практик	-10.9077
▁державин	-10.9077
▁спокоиств	-10.9079
▁полномочия	-10.9079
▁отделения	-10.908
▁владык	-10.9082
▁удержат	-10.9082
▁красавиц	-10.9082
▁клевет	-10.9083
ствующ	-10.9083
▁способны	-10.9085
▁пешком	-10.9087
▁возвратится	-10.909
пере	-10.9091
▁превраща	-10.9094
▁фактически	-10.9096
▁способен	-10.9096
▁подумала	-10.9098
▁требование	-10.91
вшагося	-10.91
рах	-10.9101
▁коллег	-10.9101
▁брошюр	-10.9104
овалис	-10.9104
▁всецело	-10.9105
▁имеющих	-10.9105
▁ведомости	-10.9108
▁наблюдал	-10.9112
▁таинственн	-10.9113
вшими	-10.9114
▁некоторои	-10.9115
▁театрал	-10.9117
▁отозвался	-10.9118
енберг	-10.912
▁предполага	-10.9122
лод	-10.9123
▁растет	-10.9125
▁коллегии	-10.9126
▁рыбы	-10.9127
▁бород	-10.9128
идите	-10.9128
▁сул	-10.9128
▁предложения	-10.9129
▁получивш	-10.913
▁моими	-10.913
▁флота	-10.9132
▁дул	-10.9133
▁шепнул	-10.9134
▁надев	-10.9134
▁орудия	-10.9134
▁михаила	-10.9135
▁производител	-10.9139
▁черными	-10.9139
▁ввиду	-10.914
▁идите	-10.914
▁очарован	-10.9142
▁добродуш	-10.9143
кл	-10.9148
▁достоино	-10.9148
▁намерения	-10.9149
▁пещер	-10.9152
ываю	-10.9152
▁висел	-10.9153
▁столет	-10.9154
▁историческ	-10.9155
▁заметили	-10.9156
▁юности	-10.9157
дир	-10.9158
▁стекла	-10.9158
▁первоначал	-10.9161
▁заслуг	-10.9162
▁успокоил	-10.9163
▁страшное	-10.9171
торг	-10.9171
▁страницы	-10.9172
▁лекции	-10.9172
▁взыскан	-10.9173
▁распоряжения	-10.9175
▁увер	-10.9176
▁видят	-10.9179
▁заведен	-10.9183
▁приводил	-10.9184
▁перевел	-10.9184
▁зрител	-10.9186
ическом	-10.9189
джи	-10.9192
▁щел	-10.9192
▁заря	-10.9194
▁пошло	-10.9195
▁сражен	-10.9196
▁царица	-10.9196
▁жадно	-10.9198
езд	-10.9199
▁училище	-10.9202
вра	-10.9203
▁записку	-10.9203
▁одобрен	-10.9203
▁взаимн	-10.9203
▁границеи	-10.9206
▁диа	-10.9206
▁маша	-10.9207
▁расширен	-10.9207
▁завед	-10.9207
▁церемон	-10.9208
▁боевои	-10.9209
▁учеников	-10.921
▁прожил	-10.9211
▁напоминал	-10.9211
▁запреща	-10.9211
▁стад	-10.9211
▁земнои	-10.9212
▁зимои	-10.9212
глас	-10.9222
▁корабле	-10.9223
▁сатир	-10.9226
▁луга	-10.9228
▁моч	-10.9229
▁дворянин	-10.923
шел	-10.9231
▁белинскии	-10.9237
▁плоды	-10.9238
▁полтора	-10.9238
▁бич	-10.9239
▁среднего	-10.924
ению	-10.9243
▁богатыи	-10.9243
▁поселен	-10.9246
▁ща	-10.9248
▁сознателно	-10.925
▁глад	-10.9251
▁сорока	-10.9252
▁залу	-10.9253
▁цветок	-10.9255
истые	-10.9255
ителных	-10.9256
▁заседания	-10.9258
▁дыр	-10.9261
▁шевел	-10.9261
▁размах	-10.9262
▁дворце	-10.9263
▁прежнее	-10.9263
▁рассказат	-10.9263
▁герм	-10.9264
▁комендант	-10.9265
▁разочарован	-10.9265
меистер	-10.9265
▁называ	-10.9266
▁товары	-10.9266
▁сыт	-10.9266
▁старалас	-10.9267
▁посмотрим	-10.9267
▁храброст	-10.9269
▁графу	-10.927
▁предявлен	-10.9271
▁семеиство	-10.9272
▁пляс	-10.9272
▁эмил	-10.9272
▁цены	-10.9272
▁интриг	-10.9273
▁поли	-10.9275
▁лодку	-10.9276
▁радио	-10.9276
▁донес	-10.9276
▁носом	-10.9278
▁смеятся	-10.9278
▁днев	-10.928
ваем	-10.9281
▁глубоким	-10.9282
▁столетия	-10.9283
кру	-10.9284
▁администрации	-10.9284
▁вахт	-10.9284
вания	-10.9285
▁преобразован	-10.9285
▁испытан	-10.9289
▁карла	-10.9289
▁исполнят	-10.9292
инд	-10.9293
ечка	-10.9294
вязат	-10.9296
▁спинои	-10.9299
▁шип	-10.9301
емым	-10.9301
ощ	-10.9301
▁настоящая	-10.9301
зол	-10.9302
уша	-10.9307
▁странныи	-10.9308
▁луг	-10.9308
▁победу	-10.9309
▁внешнеи	-10.9309
▁пункте	-10.9309
▁раионе	-10.931
▁окну	-10.9317
▁страшная	-10.9317
гру	-10.9318
▁крупных	-10.9318
ключ	-10.932
▁своя	-10.932
▁океана	-10.9322
олюб	-10.9326
▁географ	-10.9326
▁живое	-10.9327
▁укор	-10.9328
▁правления	-10.9329
▁играли	-10.9329
▁млн	-10.9331
▁хижин	-10.9332
▁хорошая	-10.9333
▁томах	-10.9336
▁красные	-10.9336
▁обществ	-10.9336
▁выпит	-10.9337
▁образов	-10.9337
▁сделалас	-10.9341
▁геометр	-10.9343
▁обращение	-10.9345
▁парад	-10.9347
▁америке	-10.935
хал	-10.935
▁образа	-10.9351
▁едор	-10.9352
▁заботится	-10.9352
тою	-10.9353
▁подняла	-10.9353
▁предател	-10.9354
▁печали	-10.9354
▁слухи	-10.9355
▁деревен	-10.9356
▁дв	-10.9358
▁собирался	-10.9359
▁молчит	-10.9361
▁сострадан	-10.9362
▁заре	-10.9365
▁часам	-10.9367
▁обоз	-10.9367
▁фамилии	-10.9368
▁негр	-10.9369
▁победа	-10.9371
ленныи	-10.9371
▁жду	-10.9373
▁элементы	-10.9373
▁комментарии	-10.9373
▁битвы	-10.9373
▁звучал	-10.9373
▁связыва	-10.9374
▁лестницы	-10.9375
▁примеру	-10.9377
▁контракт	-10.9378
▁нервно	-10.9379
нским	-10.9379
▁замер	-10.9381
▁восхища	-10.9381
▁напряжен	-10.9383
▁оказан	-10.9384
▁подлежат	-10.9387
▁вопреки	-10.9389
▁испуг	-10.9389
▁камнеи	-10.9397
▁копии	-10.9397
▁некоторыя	-10.9401
▁абсолют	-10.9402
▁суевер	-10.9409
▁норматив	-10.9412
▁принадлежал	-10.9414
▁оправ	-10.9415
▁движением	-10.9415
истои	-10.9416
▁означен	-10.9417
яков	-10.9417
▁случи	-10.9417
▁высказат	-10.9423
▁мятеж	-10.9424
▁исполнял	-10.9424
▁зе	-10.9426
▁железо	-10.9426
▁возражен	-10.943
▁волну	-10.9431
▁грозно	-10.9431
▁рых	-10.9432
▁пастух	-10.9432
▁владения	-10.9433
есси	-10.9434
чком	-10.9437
▁слышиш	-10.9438
иваяс	-10.9438
▁убежал	-10.944
▁мирно	-10.9441
▁гарант	-10.9442
▁рассмотрения	-10.9445
нного	-10.9446
движ	-10.9447
▁малеишего	-10.9447
▁швед	-10.9447
▁куз	-10.9448
▁просбу	-10.9451
▁художественно	-10.9452
ающего	-10.9453
реп	-10.9453
▁прежнеи	-10.9453
▁погон	-10.9453
▁садится	-10.9453
▁разрешит	-10.9455
▁разница	-10.9457
▁андрея	-10.946
▁подобным	-10.9462
▁сочета	-10.9463
▁требуют	-10.9465
▁отрицателно	-10.9465
▁месс	-10.9465
▁взволнован	-10.9466
кач	-10.9466
▁лак	-10.9466
▁писменны	-10.9467
▁поздн	-10.9468
▁нар	-10.9468
▁признаюс	-10.9468
▁данного	-10.9472
▁среднеи	-10.9477
▁целая	-10.9477
ицкии	-10.9477
фелд	-10.9479
▁добр	-10.948
▁глагол	-10.9481
▁буквално	-10.9482
▁основные	-10.9484
▁шепотом	-10.9484
▁бон	-10.9486
▁ущерб	-10.9487
▁платона	-10.9489
куп	-10.9491
▁бут	-10.9495
▁совр	-10.9498
▁юридических	-10.9499
▁следовател	-10.9499
▁сср	-10.95
▁предписан	-10.9502
▁политика	-10.9502
▁спрятал	-10.9504
▁спрашиваю	-10.9506
▁смоленск	-10.9509
▁ходят	-10.951
▁повар	-10.9512
▁стил	-10.9512
кле	-10.9513
ологии	-10.9515
▁листя	-10.9516
▁молоко	-10.9517
▁добыва	-10.9518
▁повернулся	-10.9518
▁кожи	-10.9518
▁капитала	-10.9519
▁влажн	-10.9522
▁направлению	-10.9523
кер	-10.9524
▁канон	-10.9525
▁холодныи	-10.9526
▁возможным	-10.9526
▁царем	-10.9526
▁рубл	-10.9527
▁морских	-10.9527
▁прогресс	-10.9528
стон	-10.953
▁запрет	-10.9531
▁румян	-10.9531
▁победител	-10.9531
▁вызывал	-10.9532
▁основыва	-10.9534
ющаго	-10.9535
▁умы	-10.9537
▁потряс	-10.9537
ливост	-10.9538
оте	-10.9538
▁гра	-10.954
▁террас	-10.954
▁скромны	-10.9541
вшаго	-10.9543
▁предложит	-10.9543
▁кабинете	-10.9543
▁тяжко	-10.9544
▁уверял	-10.9544
▁убедится	-10.9547
пов	-10.9547
▁любопытством	-10.9547
▁прибыт	-10.9551
▁шляп	-10.9552
▁массу	-10.9554
▁сибирск	-10.9556
▁здорово	-10.9557
▁удержал	-10.9559
▁умрет	-10.9559
▁доказывает	-10.9559
▁девушке	-10.9559
▁согласия	-10.9559
ливал	-10.956
▁погас	-10.9561
▁мужество	-10.9561
изован	-10.9562
▁другаго	-10.9562
▁изменя	-10.9564
▁старается	-10.9564
▁изучен	-10.9567
▁девочки	-10.9568
▁покоиник	-10.9571
▁превосходно	-10.9574
▁прямои	-10.9577
▁лже	-10.9577
▁невеста	-10.9578
▁натур	-10.9578
▁лукав	-10.9579
▁отнят	-10.9579
▁темные	-10.958
▁нарушен	-10.9581
▁сообщал	-10.9585
▁сфер	-10.9585
▁красн	-10.9588
▁усилива	-10.959
▁комиссия	-10.959
▁завтрак	-10.9591
▁григоревич	-10.9592
форм	-10.9593
▁знакомство	-10.9595
▁страниц	-10.9595
▁побег	-10.9596
▁пустил	-10.9599
▁покрыл	-10.96
▁изобил	-10.9602
▁постои	-10.9602
▁беднои	-10.9602
▁испуга	-10.9603
▁опыта	-10.9604
▁урал	-10.9604
▁всевозможны	-10.9605
над	-10.9605
▁несет	-10.9605
▁останавлива	-10.9606
▁продолжали	-10.9609
▁отезда	-10.961
▁происхожден	-10.9611
▁целых	-10.9613
▁окружающеи	-10.9616
ческ	-10.9617
▁настоятел	-10.962
▁золотые	-10.962
▁цикл	-10.9621
▁феодор	-10.9623
▁спешит	-10.9623
▁становилос	-10.9624
▁буи	-10.9629
▁доброи	-10.9629
▁забыли	-10.9631
▁старому	-10.9634
плен	-10.9637
▁драгоценны	-10.9638
щаго	-10.9639
▁псков	-10.9639
▁ползуяс	-10.964
▁прочест	-10.9642
▁вернулас	-10.9645
▁бродяг	-10.9647
▁стихотворен	-10.965
▁ивановича	-10.965
▁глубокое	-10.9651
▁угод	-10.9651
▁взором	-10.9653
▁ряды	-10.9655
▁особыи	-10.9656
▁пребывания	-10.9657
▁родители	-10.9657
чих	-10.9658
▁министерство	-10.9658
▁утверждал	-10.9658
▁спешил	-10.966
▁геине	-10.966
▁славянск	-10.966
чики	-10.9662
▁обеспечен	-10.9662
▁приготовил	-10.9665
▁стену	-10.9665
▁доставил	-10.9665
▁вариант	-10.9667
▁глупост	-10.9668
▁фантастическ	-10.9669
▁означает	-10.9671
▁количества	-10.9671
▁влад	-10.9672
▁шах	-10.9674
▁частных	-10.9675
▁увидит	-10.9676
▁затвор	-10.9676
▁владен	-10.9678
▁залива	-10.968
▁назначение	-10.9684
▁насмешливо	-10.9685
▁определил	-10.9686
▁освобожда	-10.9687
▁гарнизон	-10.9687
▁административны	-10.9687
▁пожелал	-10.9687
▁священника	-10.9688
▁людовик	-10.9693
▁фактов	-10.9693
▁наказание	-10.9695
▁захочет	-10.9699
▁афин	-10.9699
▁обезян	-10.9699
▁французов	-10.9699
▁появление	-10.9701
линг	-10.9701
▁помниш	-10.9702
▁послушаите	-10.9703
▁недоволны	-10.9704
▁верте	-10.9704
▁станут	-10.9704
▁старости	-10.9705
▁сыновя	-10.9706
▁промолвил	-10.9707
▁але	-10.9707
везти	-10.9709
▁наказ	-10.971
▁владимира	-10.9712
▁мелод	-10.9715
▁тверды	-10.9716
▁широкои	-10.9719
сор	-10.972
▁турок	-10.972
▁посылал	-10.9721
▁сознавал	-10.9722
▁тяжелыи	-10.9724
▁чеп	-10.9728
рач	-10.9729
▁старушка	-10.973
▁балкон	-10.9731
▁следующеи	-10.9731
▁представлят	-10.9732
▁рог	-10.9732
▁особое	-10.9735
▁паден	-10.9737
▁заплатит	-10.9738
▁старше	-10.9743
▁всячески	-10.9745
▁баш	-10.9745
▁легким	-10.9746
нным	-10.9747
▁привлек	-10.9747
▁прикрыв	-10.9748
▁опис	-10.9748
▁основнои	-10.9749
▁сделав	-10.975
тти	-10.9751
▁посадил	-10.9752
▁англиискии	-10.9752
▁снабжен	-10.9753
▁назначения	-10.9753
врат	-10.9754
▁юг	-10.9755
▁шер	-10.9756
▁сестру	-10.9757
▁оправдан	-10.9758
▁икон	-10.9759
▁азии	-10.976
▁зят	-10.976
▁островов	-10.976
▁позднеиш	-10.9762
▁посмотри	-10.9763
▁раны	-10.9764
▁могилу	-10.9765
▁зовет	-10.9768
▁толка	-10.9769
▁поразил	-10.9771
▁инспектор	-10.9772
▁футов	-10.9772
▁героев	-10.9773
▁нетерпен	-10.9776
▁блажен	-10.9777
▁таин	-10.9777
▁прижал	-10.9779
▁мертвец	-10.9779
▁военные	-10.9781
▁соответственно	-10.9781
▁рассказывает	-10.9785
▁создания	-10.9785
▁цветущ	-10.9786
ающая	-10.9786
▁отдавал	-10.9788
▁добится	-10.9788
монт	-10.979
▁воск	-10.979
▁изследован	-10.9791
▁софя	-10.9793
▁морю	-10.9793
▁благодар	-10.9794
бок	-10.9796
▁вряд	-10.9797
▁болен	-10.9797
▁успела	-10.9797
эк	-10.9798
▁стихотвор	-10.9801
▁прошлое	-10.9803
фин	-10.9805
▁периода	-10.9806
▁переселен	-10.9808
▁соли	-10.9808
▁бух	-10.981
▁становятся	-10.9811
▁наместник	-10.9811
▁двум	-10.9811
▁густои	-10.9812
мб	-10.9813
▁корч	-10.9814
▁дрожал	-10.9814
▁следующего	-10.9817
▁жид	-10.9817
рост	-10.9818
▁хватит	-10.9819
▁растения	-10.982
▁недоразумен	-10.982
▁телефон	-10.9821
▁философск	-10.9822
▁кругу	-10.9822
▁позволен	-10.9824
▁дек	-10.9824
▁комедии	-10.9825
▁поручил	-10.9826
▁стеклян	-10.9826
▁оставалас	-10.9826
абел	-10.9827
▁читателя	-10.9827
▁ничтожны	-10.9827
▁красивыи	-10.983
▁известност	-10.9833
▁проснулся	-10.9836
▁присоединен	-10.9837
▁соблюден	-10.9837
▁предстоящ	-10.9837
▁дно	-10.9839
▁далнеишем	-10.9839
▁создание	-10.9842
▁сюртук	-10.9845
▁наиболш	-10.9846
▁палм	-10.9847
▁днепр	-10.9847
колот	-10.9849
▁гимназ	-10.9849
▁пристал	-10.9851
▁капли	-10.9851
▁глубок	-10.9853
▁человеч	-10.9856
▁жаловане	-10.9856
▁пище	-10.9856
▁побежден	-10.9857
▁пребыва	-10.9858
▁почтов	-10.9861
▁пятидесяти	-10.9861
▁отчаяние	-10.9862
▁полковника	-10.9863
▁доброго	-10.9863
совет	-10.9863
еру	-10.9864
▁водою	-10.9864
▁подлежит	-10.9867
▁митр	-10.9868
▁обект	-10.9868
▁высочаише	-10.9869
алная	-10.9871
▁смеется	-10.9872
▁постановлен	-10.9873
▁честно	-10.9874
▁торжество	-10.9875
▁прощен	-10.9875
кром	-10.9875
▁отдых	-10.9877
покои	-10.9877
▁бомб	-10.9878
▁трубы	-10.9879
▁приехали	-10.9879
▁растен	-10.988
▁воспоминании	-10.988
▁конча	-10.9883
▁гнус	-10.9886
▁отечество	-10.9886
▁служ	-10.9886
▁пережив	-10.9887
▁полномочии	-10.9889
▁продал	-10.9889
▁приготовля	-10.9891
▁важным	-10.9894
▁выдержал	-10.9894
▁прекрасным	-10.9895
▁семю	-10.9895
▁грек	-10.9896
▁квартиры	-10.9896
▁желат	-10.9899
▁принесли	-10.9899
▁юридическ	-10.99
▁дверю	-10.99
▁предприятии	-10.9902
▁сундук	-10.9902
▁развлечен	-10.9903
пев	-10.9906
▁пассажир	-10.9906
▁единство	-10.9909
▁солнцем	-10.9912
▁русскую	-10.9913
▁благополуч	-10.9914
▁работает	-10.9915
▁римлян	-10.9915
лял	-10.9917
▁сутки	-10.9919
▁ирланд	-10.9919
жер	-10.9921
▁читателеи	-10.9922
▁евреиск	-10.9925
▁возвращении	-10.9926
инка	-10.9926
▁социалист	-10.9928
▁ездит	-10.9929
▁остаются	-10.993
▁великолепно	-10.9933
нике	-10.9933
▁милостив	-10.9934
▁освободит	-10.9935
▁произвести	-10.9935
▁последняго	-10.9935
▁алексея	-10.9936
▁выражением	-10.9936
▁женщинои	-10.9938
▁гражданскои	-10.9938
▁непро	-10.9938
▁несравненно	-10.9939
▁лид	-10.9942
▁персонал	-10.9943
▁черта	-10.9943
▁вернулис	-10.9943
▁барона	-10.9943
▁краев	-10.9944
▁доб	-10.9945
енку	-10.9945
▁перепис	-10.9946
истых	-10.9946
думал	-10.9946
▁свободнои	-10.9946
▁потемкин	-10.9948
ичка	-10.9948
▁остановит	-10.9952
▁подвига	-10.9956
▁наступил	-10.9956
▁небрежно	-10.9957
▁пролив	-10.9958
▁советы	-10.9958
▁перекрест	-10.9959
▁лежавш	-10.9963
▁средневеков	-10.9964
▁порядочно	-10.9964
▁высокая	-10.9966
▁религия	-10.9968
▁послушаи	-10.9968
итов	-10.9969
▁высоте	-10.9976
▁звание	-10.9978
▁красоту	-10.9978
▁трава	-10.998
▁неблаго	-10.998
▁харков	-10.9981
▁городских	-10.9981
▁убедит	-10.9984
▁патрон	-10.9985
▁выбрат	-10.9987
▁мудрост	-10.9987
▁трагед	-10.9988
▁литовск	-10.9988
▁подхватил	-10.9989
▁лермонтов	-10.999
рид	-10.999
▁греха	-10.9991
▁долгое	-10.9993
▁кирилл	-10.9994
▁ногам	-10.9994
▁кафедр	-10.9997
▁применение	-10.9998
▁вероятности	-10.9999
▁уходят	-11
▁грот	-11.0002
▁огромные	-11.0002
▁воскресен	-11.0002
▁родине	-11.0003
ливым	-11.0004
▁пров	-11.0004
▁избы	-11.0004
верт	-11.0005
евна	-11.0005
▁тучи	-11.0005
▁смес	-11.0007
▁народе	-11.0007
▁сур	-11.0007
▁потребител	-11.0011
▁просила	-11.0013
▁чужих	-11.0013
▁равны	-11.0014
▁лавр	-11.0016
▁установил	-11.0016
▁автором	-11.0016
▁высокого	-11.0017
изу	-11.0018
▁кричали	-11.002
ставлят	-11.0021
▁добрых	-11.0021
▁мучително	-11.0021
цию	-11.0022
▁пытался	-11.0022
▁отказа	-11.0023
▁толстым	-11.0023
▁важнеиш	-11.0024
▁тронут	-11.0026
▁квадрат	-11.0027
▁варвара	-11.0028
▁пустит	-11.0029
▁рассказыват	-11.0033
▁спокоиствие	-11.0034
▁суп	-11.0034
▁вызват	-11.0035
▁самовар	-11.0036
▁любите	-11.0037
▁бледныи	-11.0039
▁выходил	-11.0039
▁софи	-11.004
▁издал	-11.0042
▁пронес	-11.0042
▁взад	-11.0043
▁превращен	-11.0043
щими	-11.0044
▁демократическ	-11.0045
атур	-11.0046
▁минута	-11.0046
▁уголовн	-11.0047
▁одежду	-11.0048
▁приити	-11.0049
▁рыбак	-11.0051
▁литературнои	-11.0051
▁историческии	-11.0052
▁западе	-11.0052
▁департамент	-11.0052
▁муниципалного	-11.0053
▁республиканск	-11.0054
стои	-11.0055
гнет	-11.0055
▁светил	-11.0056
▁прочие	-11.0058
▁слог	-11.0059
▁заповед	-11.0061
ходящ	-11.0062
▁федералныи	-11.0063
▁попытка	-11.0066
▁сторонник	-11.0066
▁кав	-11.0067
чества	-11.0068
▁криком	-11.0069
▁покорно	-11.0069
▁могилы	-11.007
▁чехова	-11.007
▁буржуазии	-11.007
▁чужды	-11.0072
▁тяжелые	-11.0072
▁сопровождал	-11.0077
▁чугун	-11.0077
хожден	-11.0078
▁четверо	-11.0079
▁химическ	-11.008
▁поруч	-11.0082
▁четвертыи	-11.0082
▁блюд	-11.0085
▁судебного	-11.0086
▁поцелуи	-11.0089
▁вяз	-11.0089
кост	-11.0089
▁греков	-11.009
елные	-11.009
▁женою	-11.0091
▁звонк	-11.0092
▁шлюп	-11.0094
▁приложение	-11.0095
▁оказат	-11.01
▁белым	-11.01
▁вздрогнул	-11.01
▁поступок	-11.0101
▁звал	-11.0101
▁исчезла	-11.0102
▁русскому	-11.0102
ног	-11.0104
▁ожидая	-11.0106
▁допущен	-11.0106
▁потерян	-11.0107
▁великие	-11.0108
елна	-11.0109
точ	-11.0109
▁отправит	-11.011
пир	-11.0111
▁трактат	-11.0114
вл	-11.0114
▁воспитание	-11.0115
▁дорожн	-11.0116
▁квартир	-11.0116
лоб	-11.0118
▁приток	-11.012
лия	-11.012
ини	-11.0123
неишии	-11.0123
▁увлек	-11.0124
▁великодуш	-11.0124
▁обращения	-11.0124
ицеи	-11.0128
▁случаиност	-11.0132
▁мих	-11.0133
▁лот	-11.0134
▁достигает	-11.0134
▁переднеи	-11.0137
▁благоприятн	-11.014
▁находивш	-11.0141
▁многими	-11.0141
▁наиду	-11.0143
рест	-11.0143
▁перем	-11.0145
оде	-11.0148
▁темнои	-11.0149
щики	-11.015
▁суждено	-11.0151
▁принятия	-11.0151
▁наслажда	-11.0152
▁револвер	-11.0152
▁пласт	-11.0153
▁никон	-11.0153
▁посту	-11.0154
▁дарован	-11.0156
▁любопытно	-11.0157
▁псал	-11.0158
▁благочестив	-11.016
▁сдержива	-11.016
▁мн	-11.0162
▁травы	-11.0164
▁астроном	-11.0165
▁убииство	-11.0165
▁устроиства	-11.0167
алныи	-11.0167
▁впоследств	-11.0169
▁настоящую	-11.0169
▁чело	-11.0173
▁необыкновен	-11.0174
▁выпуска	-11.0176
душ	-11.0178
▁яблок	-11.0178
▁юл	-11.0179
шую	-11.0179
▁хорошие	-11.0179
▁пространства	-11.018
нах	-11.0181
стал	-11.0182
▁ночнои	-11.0182
▁отнял	-11.0183
▁пенс	-11.0183
▁наследство	-11.0184
▁болезненно	-11.0185
глы	-11.0186
▁нации	-11.0187
▁кредитор	-11.0188
▁стихах	-11.0189
▁исторических	-11.019
▁беседы	-11.0191
▁министерств	-11.0191
лена	-11.0192
▁честолюб	-11.0197
▁получают	-11.0198
▁изготовлен	-11.0199
▁воспитател	-11.02
▁боков	-11.02
▁помер	-11.0201
▁находя	-11.0203
▁надзора	-11.0203
▁походил	-11.0205
исто	-11.0206
▁гвозд	-11.0207
фир	-11.0208
▁позволяет	-11.0209
▁лва	-11.0211
▁дипломат	-11.0211
▁кротк	-11.0212
▁носят	-11.0212
▁веке	-11.0215
▁покровителство	-11.0215
▁выпустил	-11.0216
▁лод	-11.0217
▁обяснение	-11.0218
твор	-11.0222
▁красным	-11.0223
▁советом	-11.0226
▁соперник	-11.0226
▁кавказ	-11.0228
▁погружен	-11.0229
▁стефан	-11.0229
ющему	-11.0229
▁старое	-11.0231
кала	-11.0233
▁неожидан	-11.0236
▁успешно	-11.0237
▁приподнял	-11.0237
▁пустыне	-11.0243
▁семенов	-11.0244
▁капел	-11.0245
▁возмите	-11.0246
▁ловк	-11.0246
чкои	-11.0248
▁жилищ	-11.025
▁неведом	-11.0252
▁медицинск	-11.0252
▁свидания	-11.0252
▁скажем	-11.0253
опр	-11.0255
▁казатся	-11.0256
чится	-11.0257
елнои	-11.0259
анных	-11.0262
▁неиз	-11.0265
▁добром	-11.0265
▁арр	-11.0266
▁искренн	-11.0267
▁пустои	-11.0268
ничат	-11.0271
ивши	-11.0276
▁гир	-11.0276
очным	-11.0277
▁обладал	-11.0281
▁французы	-11.0283
▁поэзия	-11.0284
▁экспедиц	-11.0286
▁тревожно	-11.0287
▁комп	-11.0288
▁кант	-11.0288
▁дева	-11.029
▁упр	-11.0291
▁домом	-11.0292
ходящих	-11.0295
▁московском	-11.0296
няк	-11.0298
щит	-11.0299
▁дрян	-11.03
▁василевна	-11.0304
▁ошибки	-11.0304
▁стандарт	-11.0305
▁пыли	-11.0305
▁вост	-11.0306
▁молчи	-11.0311
▁спине	-11.0311
▁америки	-11.0311
▁отворил	-11.0312
▁шкаф	-11.0315
▁берн	-11.0316
▁учился	-11.0316
▁важност	-11.0316
▁шекспира	-11.032
▁слышит	-11.0325
ецкии	-11.0329
▁писар	-11.0333
▁кун	-11.0333
▁здан	-11.0334
▁лихо	-11.0335
ющимися	-11.0337
▁плакала	-11.0337
шаго	-11.0338
▁интер	-11.034
▁жак	-11.0341
▁сходство	-11.0342
▁спирт	-11.0342
▁пеш	-11.0342
▁лесов	-11.0343
▁дохода	-11.0344
▁граждане	-11.0344
▁возвращается	-11.0344
▁громким	-11.0346
▁судебнои	-11.0349
▁угля	-11.0349
▁сект	-11.035
▁прибавила	-11.0353
▁отошел	-11.0353
▁глупости	-11.0355
▁григорев	-11.0356
▁александров	-11.0358
▁кислот	-11.0359
▁бэ	-11.036
ално	-11.036
▁цена	-11.0363
▁скаме	-11.0364
▁ложе	-11.0365
иде	-11.0366
▁кругл	-11.0368
▁богатых	-11.0368
▁господину	-11.0369
▁сердечно	-11.0369
▁обоснован	-11.037
▁сношен	-11.0371
▁золотых	-11.0375
▁соц	-11.0375
чар	-11.0376
▁ветви	-11.0376
▁молчалив	-11.0377
▁падение	-11.0379
ителныи	-11.0379
▁воззрен	-11.0379
▁сказка	-11.038
▁прежнего	-11.0381
▁павловна	-11.0385
▁ожесточен	-11.0386
▁купца	-11.0387
▁кафтан	-11.0387
▁иску	-11.0389
▁конверт	-11.039
▁пух	-11.039
▁экономическои	-11.039
▁стараго	-11.0391
▁раскрыл	-11.0391
▁умоляю	-11.0392
▁вечност	-11.0392
▁одева	-11.0392
сматриват	-11.0392
енс	-11.0395
▁беседу	-11.0395
▁творческ	-11.0395
▁подозрен	-11.0396
▁розы	-11.0396
▁гибели	-11.0398
▁болного	-11.0401
▁черного	-11.0402
▁падал	-11.0402
▁восклицан	-11.0404
▁оказывал	-11.0404
▁улыба	-11.0404
▁зубами	-11.0405
▁встречу	-11.0406
▁папы	-11.0407
елями	-11.0407
▁граб	-11.041
▁тонко	-11.0414
▁духу	-11.0416
▁бассеин	-11.0417
кса	-11.0417
▁служба	-11.0418
лист	-11.042
вании	-11.042
▁насил	-11.0421
▁красная	-11.0421
▁переговоры	-11.0425
▁лекц	-11.0426
▁скажут	-11.0426
▁впред	-11.0428
▁государственные	-11.0432
▁поверил	-11.0432
▁задачу	-11.0433
▁электрон	-11.0433
▁главнокомандующ	-11.0435
жев	-11.0435
▁паспорт	-11.0435
▁работников	-11.0436
▁любовник	-11.0436
▁душою	-11.0436
▁убедил	-11.0437
имые	-11.0438
олов	-11.0439
▁собственного	-11.044
▁появлен	-11.0441
метр	-11.0442
▁легенд	-11.0442
▁павл	-11.0444
▁фур	-11.0446
▁изображение	-11.0446
▁дружин	-11.0447
▁эпи	-11.0448
оген	-11.045
прос	-11.0451
▁забыла	-11.0452
▁научил	-11.0452
▁контор	-11.0453
раб	-11.0453
▁переити	-11.0454
▁революционер	-11.0456
▁костя	-11.0457
чество	-11.0457
▁хол	-11.0458
▁помин	-11.0459
▁прыг	-11.046
▁семенович	-11.0461
▁проявля	-11.0461
▁жад	-11.0461
▁ослаб	-11.0463
нч	-11.0463
▁рыс	-11.0464
▁совеща	-11.0464
▁снос	-11.0466
▁хватает	-11.0469
▁всяким	-11.0469
▁беи	-11.0472
▁члена	-11.0473
▁правителству	-11.0476
▁продукт	-11.0478
▁тоску	-11.0478
нес	-11.0479
чнаго	-11.048
▁ждала	-11.048
▁отвратителн	-11.0484
сме	-11.0484
▁экономическим	-11.0486
▁безумно	-11.0488
▁барын	-11.0489
▁крае	-11.0491
▁правлен	-11.0492
▁обижа	-11.0493
ковои	-11.0494
▁частях	-11.0495
▁придавал	-11.0498
олюбив	-11.0499
▁проезж	-11.0502
▁целои	-11.0502
жеч	-11.0502
▁стоимост	-11.0503
▁страшным	-11.0504
богат	-11.0507
▁плут	-11.0508
▁кип	-11.0508
▁делая	-11.0508
▁родины	-11.0509
▁оппозиц	-11.0509
▁современных	-11.0511
▁отступил	-11.0514
чес	-11.0514
▁деятелностю	-11.0517
▁марте	-11.0518
▁стенах	-11.0518
▁епископа	-11.0518
▁жест	-11.0518
▁московскии	-11.0519
▁науке	-11.0519
▁болных	-11.052
▁поту	-11.052
▁открытым	-11.052
▁мысленно	-11.0524
овался	-11.0524
▁веселым	-11.0525
▁улыбнулас	-11.0526
▁чемодан	-11.0526
▁скоп	-11.0527
▁эд	-11.0527
▁крещен	-11.0528
▁вдвоем	-11.0529
▁олимп	-11.0529
▁известное	-11.0531
▁обернулся	-11.0531
▁дерзост	-11.0532
▁писала	-11.0532
писывал	-11.0535
▁творит	-11.0535
▁противоположны	-11.0539
▁размышлен	-11.054
▁овраг	-11.054
▁послов	-11.0545
▁чиновников	-11.0548
▁спасител	-11.0548
пля	-11.0549
знаком	-11.0549
▁гляди	-11.055
▁маз	-11.0552
▁мул	-11.0553
▁дышал	-11.0553
печ	-11.0553
▁лок	-11.0553
▁симон	-11.0555
▁встрече	-11.0555
▁елизавета	-11.0556
▁умею	-11.0557
▁тихим	-11.0558
▁обратилас	-11.0558
▁кру	-11.0558
▁керри	-11.0562
▁руководство	-11.0562
▁сравнив	-11.0563
▁выдал	-11.0564
▁своиств	-11.0564
▁попада	-11.0565
▁прибавит	-11.0569
▁заговорила	-11.0569
▁известного	-11.0569
▁собора	-11.057
▁мудрец	-11.0571
▁славно	-11.0571
▁наверх	-11.0573
▁министром	-11.0574
▁услыхал	-11.0574
▁применения	-11.0576
▁конеи	-11.0577
▁книжка	-11.0578
▁женск	-11.0579
▁архитектур	-11.0579
▁компан	-11.0581
▁установленных	-11.0583
▁княжна	-11.0584
зер	-11.0584
▁познания	-11.0585
▁молодост	-11.0586
▁ожидан	-11.0587
▁независим	-11.0588
▁предупредит	-11.0591
▁зловещ	-11.0593
▁настоящ	-11.0593
иваются	-11.0593
▁вечеру	-11.0598
▁удобны	-11.0599
▁наряду	-11.06
▁поступат	-11.06
▁симпат	-11.0602
▁юноши	-11.0605
▁обладает	-11.0606
▁колос	-11.0606
▁дворов	-11.0606
▁убииц	-11.0607
кину	-11.0608
▁обязателства	-11.061
▁разруша	-11.0613
▁бухар	-11.0614
▁рем	-11.0617
▁шума	-11.0618
ившеися	-11.0619
▁глазам	-11.0619
▁записи	-11.0623
▁трезв	-11.0624
стил	-11.0624
▁зв	-11.0626
▁джа	-11.0626
ителным	-11.0627
▁пуш	-11.0628
▁обращается	-11.063
ура	-11.0632
▁наидется	-11.0633
▁огромным	-11.0633
▁одежда	-11.0635
▁открывал	-11.0639
▁управлен	-11.0639
▁драмы	-11.0639
▁девушек	-11.0641
▁московских	-11.0642
▁надежде	-11.0642
▁точка	-11.0642
▁наступление	-11.0644
▁прок	-11.0646
▁дозвол	-11.0651
▁публику	-11.0653
▁надеялся	-11.0654
существ	-11.0656
▁манифест	-11.0658
▁двору	-11.0659
▁хмур	-11.066
▁даннои	-11.0662
▁иорк	-11.0662
▁садов	-11.0663
▁измучен	-11.0664
▁происходил	-11.0664
▁внес	-11.0665
▁собственным	-11.0665
▁ощущен	-11.0668
▁фразы	-11.0668
инскои	-11.0669
▁престола	-11.0671
▁вчерашн	-11.0672
▁умру	-11.0675
▁счастливым	-11.0676
▁рак	-11.068
▁переменил	-11.0681
▁редакция	-11.0682
▁услышав	-11.0684
▁данное	-11.0684
▁бою	-11.0687
▁винтов	-11.0689
▁материала	-11.0689
▁поможет	-11.069
▁боязн	-11.069
▁целиком	-11.0693
▁мус	-11.0694
▁первобытн	-11.0695
▁эг	-11.0697
▁французских	-11.0697
▁бедно	-11.0698
▁спрос	-11.0699
▁судебном	-11.07
▁стара	-11.07
▁божественно	-11.0701
▁согласны	-11.0701
▁никит	-11.0701
▁белыми	-11.0703
▁границ	-11.0703
▁никуда	-11.0703
▁свечи	-11.0707
▁артиллер	-11.0707
▁обявит	-11.0708
страда	-11.0709
▁помеша	-11.0709
▁числ	-11.0709
▁законам	-11.071
▁личного	-11.0711
▁овладев	-11.0717
▁поднос	-11.0717
▁чужим	-11.0718
▁живем	-11.0718
▁ненависти	-11.072
▁родных	-11.0721
▁помогат	-11.0722
▁мыслями	-11.0723
▁выдат	-11.0724
▁напечатано	-11.0725
▁произ	-11.0726
▁рассмотрение	-11.0727
▁сапог	-11.0728
▁кустарник	-11.0728
▁приспособлен	-11.073
▁жалост	-11.073
▁непонятно	-11.0732
▁каза	-11.0732
▁прислан	-11.0734
▁восм	-11.0735
▁преемник	-11.0735
▁пили	-11.0739
▁свидетелство	-11.0742
тру	-11.0742
▁эфир	-11.0743
анта	-11.0745
стеи	-11.0747
▁скончался	-11.0749
▁святым	-11.0749
▁разорен	-11.0751
▁принцесса	-11.0751
ево	-11.0755
▁ветром	-11.0755
▁производ	-11.0758
▁возвратит	-11.0759
▁оказыва	-11.0759
▁фалшив	-11.0761
▁шапку	-11.0762
чную	-11.0764
▁крупные	-11.0768
▁частями	-11.0769
▁губами	-11.0769
▁поврежден	-11.077
▁прибыли	-11.077
▁восторга	-11.0773
▁защищат	-11.0774
езжат	-11.0774
▁тенденц	-11.0775
тяг	-11.0775
▁дерзк	-11.0775
▁игумен	-11.0776
▁величествен	-11.0776
вшемуся	-11.0776
ады	-11.0776
▁слабости	-11.0777
▁стоимости	-11.0777
▁коже	-11.0778
▁продолжая	-11.0779
▁торговля	-11.078
▁прекратит	-11.0781
зав	-11.0782
▁заботы	-11.0782
▁атом	-11.0783
▁финлянд	-11.0783
▁колдун	-11.0784
▁мэри	-11.0787
жин	-11.0788
▁католическ	-11.0788
▁вторично	-11.0789
▁взросл	-11.0789
▁фут	-11.0792
▁оспарива	-11.0793
▁приказчик	-11.0796
▁драма	-11.0796
▁указанные	-11.0797
▁башмак	-11.0797
▁разобрат	-11.0798
▁добыт	-11.0798
▁октябр	-11.0799
ившиеся	-11.0801
▁бывали	-11.0801
▁вызывает	-11.0802
нта	-11.0804
▁духовных	-11.0805
▁захват	-11.0805
▁контр	-11.0806
▁перемены	-11.0806
▁делала	-11.0808
▁обеспечение	-11.0808
▁седм	-11.081
▁пиво	-11.0814
▁писмом	-11.0814
▁достижен	-11.0815
▁мешал	-11.0816
▁рыдан	-11.0818
▁общая	-11.0818
▁жаром	-11.0822
▁умныи	-11.0822
▁чад	-11.0823
кры	-11.0825
▁устраива	-11.0828
▁разсматрива	-11.0828
▁недаром	-11.083
▁подвергнут	-11.083
▁завода	-11.0832
▁голосе	-11.0832
бед	-11.0834
▁дошли	-11.0834
▁удалился	-11.0834
▁ученые	-11.0835
▁пех	-11.084
▁исследовател	-11.0841
▁баи	-11.0842
▁литературных	-11.0842
рж	-11.0843
▁исключ	-11.0843
▁многочислен	-11.0843
▁соседн	-11.0845
▁внутренн	-11.0847
▁уверены	-11.0847
▁неприятеля	-11.0852
▁составляли	-11.0852
▁воинов	-11.0854
▁общен	-11.0856
▁михаиловна	-11.0857
▁млад	-11.0859
▁зр	-11.0859
▁рес	-11.0859
здоров	-11.0859
▁компания	-11.0861
▁алмаз	-11.0861
▁обясняется	-11.0862
▁испытал	-11.0863
▁исползу	-11.0863
▁царского	-11.0867
▁взоры	-11.0867
▁обнажен	-11.0869
▁грамматик	-11.0869
▁чудовищ	-11.0871
▁пели	-11.0872
▁анекдот	-11.0874
▁сидят	-11.0874
▁предчувств	-11.0874
▁голицын	-11.0875
▁программы	-11.0875
▁мечтател	-11.0876
▁горст	-11.0877
▁катастроф	-11.0878
▁минерал	-11.0879
▁дуэл	-11.088
▁общаго	-11.088
▁окончан	-11.088
▁наставлен	-11.0882
▁сладост	-11.0884
▁планет	-11.0884
▁ура	-11.0884
▁достоинств	-11.0885
ировали	-11.0887
▁догадыва	-11.0888
▁живого	-11.089
▁стоп	-11.0893
▁одинаковы	-11.0893
▁улучшен	-11.0893
▁фиг	-11.0895
▁приют	-11.0896
▁перспектив	-11.0896
▁двести	-11.0899
▁гун	-11.09
▁подошли	-11.0901
▁наполнил	-11.0901
▁вавилон	-11.0906
▁скажеш	-11.0906
▁черту	-11.0906
▁мешок	-11.0906
▁поведение	-11.0906
▁вывел	-11.0906
▁судеб	-11.0907
▁кончено	-11.0908
▁суббот	-11.0908
▁сорвал	-11.0911
▁обясн	-11.0913
▁представителя	-11.0913
▁честныи	-11.0915
▁драматург	-11.0915
▁тютчев	-11.0915
▁прошептала	-11.0915
▁враждебно	-11.0915
▁источника	-11.0915
▁достоевскии	-11.0915
▁глубже	-11.0916
▁широк	-11.0919
▁прем	-11.092
▁шам	-11.0921
▁помнил	-11.0921
▁бегал	-11.0924
очник	-11.0926
▁смотрю	-11.0928
▁очаг	-11.0928
▁колумб	-11.0928
▁третем	-11.0929
▁социално	-11.093
▁существоват	-11.093
▁особым	-11.0931
▁григор	-11.0932
▁дяк	-11.0934
ску	-11.0935
▁газетах	-11.0937
▁напоминает	-11.0937
лаг	-11.0938
▁удивился	-11.0939
ушкои	-11.0941
нями	-11.0942
▁умирает	-11.0942
▁природу	-11.0943
мес	-11.0946
нда	-11.0948
▁детал	-11.0951
▁окажется	-11.0951
▁слева	-11.0952
дея	-11.0953
▁пошлин	-11.0956
▁мученик	-11.0957
▁немцы	-11.0959
▁ветх	-11.096
▁киргиз	-11.096
▁вскричала	-11.0963
▁варен	-11.0964
измом	-11.0966
▁значило	-11.0966
аган	-11.0967
ящего	-11.0967
▁новыми	-11.0968
▁значителнои	-11.0969
▁суворова	-11.0972
▁грозит	-11.0973
▁кихот	-11.0974
▁оркестр	-11.0974
▁удары	-11.0975
угол	-11.0975
▁реже	-11.0975
▁обыск	-11.0976
▁искусно	-11.0977
▁убииства	-11.0978
▁грядущ	-11.0978
▁лицемер	-11.0979
▁ударом	-11.0979
▁развалин	-11.0981
▁гэ	-11.0982
▁доказал	-11.0983
▁ошибка	-11.0984
▁пряч	-11.0986
▁нападен	-11.0987
▁отрасл	-11.0988
▁удивителны	-11.0988
эд	-11.099
▁заинтересован	-11.0992
▁доверенност	-11.0993
▁восторгом	-11.0994
▁доставлен	-11.0995
▁экспедиции	-11.0997
▁физ	-11.0998
▁провинциал	-11.0999
▁жилище	-11.1
теч	-11.1002
▁особенност	-11.1003
▁лука	-11.1005
▁подарок	-11.1007
▁недавн	-11.1007
▁петру	-11.101
▁махнул	-11.1011
▁лос	-11.1013
▁зубов	-11.1015
▁примечание	-11.1018
▁служивш	-11.1019
енныя	-11.1021
▁выбран	-11.1023
▁подарил	-11.1023
▁бывшего	-11.1025
▁японск	-11.1027
▁употребля	-11.103
▁образы	-11.1031
▁нетерпеливо	-11.1032
унов	-11.1032
▁узор	-11.1034
▁твердост	-11.1034
▁директора	-11.1035
▁чудеса	-11.1035
▁умно	-11.1037
▁возмут	-11.1038
▁кланя	-11.1038
▁бегство	-11.1039
▁шагах	-11.104
▁отпустил	-11.104
▁хороших	-11.1041
▁враща	-11.1041
очная	-11.1043
▁предпринят	-11.1043
▁малу	-11.1044
вз	-11.1045
▁посетител	-11.1046
▁гражданскии	-11.1047
▁общественное	-11.1047
▁поместил	-11.1049
дам	-11.105
нно	-11.1052
ковых	-11.1061
▁судебных	-11.1061
▁новыя	-11.1061
▁стесн	-11.1064
ящеи	-11.1064
▁решится	-11.1064
▁чернышевскии	-11.1065
▁успокоит	-11.1065
▁признаки	-11.1066
вшему	-11.1068
▁племя	-11.1068
▁приготовит	-11.1069
▁ждут	-11.1069
▁составлял	-11.1069
▁началством	-11.107
▁задумался	-11.1071
▁миф	-11.1072
▁дружбы	-11.1072
влад	-11.1073
▁историческои	-11.1076
▁хотим	-11.1076
▁увеличен	-11.1077
▁окрест	-11.1077
▁желала	-11.1077
▁грязи	-11.1078
▁житеиск	-11.1081
▁забвен	-11.1082
▁близких	-11.1085
▁одною	-11.1086
▁смет	-11.1086
▁римскои	-11.1087
▁зашел	-11.1087
▁точку	-11.1088
▁внутр	-11.109
овод	-11.1093
▁фигуру	-11.1094
▁изобретен	-11.1094
▁чудесно	-11.1096
▁верхнеи	-11.1097
▁правилам	-11.1097
▁бытия	-11.1098
▁жюл	-11.1098
▁сатан	-11.1099
сматривал	-11.11
▁перевода	-11.11
▁двенадцати	-11.1101
▁примирен	-11.1101
▁пакет	-11.1104
деи	-11.1104
▁отзыва	-11.1105
▁конгресс	-11.1108
▁поеду	-11.1111
▁евген	-11.1112
▁систематическ	-11.1112
▁доходов	-11.1113
▁источников	-11.1113
▁огранич	-11.1114
▁поклонник	-11.1114
▁глубину	-11.1116
▁политике	-11.1118
▁режима	-11.1118
▁любопытство	-11.1121
▁пустяки	-11.1122
▁билл	-11.1123
▁великую	-11.1123
▁кораблеи	-11.1127
▁считатся	-11.1129
▁астрахан	-11.1131
▁раскаян	-11.1133
▁спящ	-11.1134
вир	-11.1137
▁распределен	-11.1139
овская	-11.1142
▁непрерывно	-11.1142
ничество	-11.1144
▁регистр	-11.1145
▁тщеслав	-11.1145
▁оставте	-11.1146
▁выполня	-11.1147
▁вещества	-11.1148
▁верным	-11.1148
▁помешал	-11.1148
▁наверху	-11.1149
▁преследован	-11.115
▁необходимы	-11.115
▁охоты	-11.1151
▁истинныи	-11.1151
▁ростов	-11.1152
▁громк	-11.1153
▁режим	-11.1154
▁вернется	-11.1156
▁завещан	-11.1156
▁обил	-11.1157
гов	-11.1157
▁китаи	-11.1158
▁рапорт	-11.116
ору	-11.1162
▁газету	-11.1163
▁пушки	-11.1165
▁чернил	-11.1167
▁прощан	-11.1171
▁дошел	-11.1171
▁саратов	-11.1171
▁предположит	-11.1173
▁господствующ	-11.1175
веж	-11.1175
▁поколен	-11.1176
▁несчастных	-11.1176
▁придав	-11.1176
▁бюро	-11.1178
вад	-11.118
▁ползуется	-11.118
▁исчезли	-11.118
▁фамилия	-11.1182
▁терпел	-11.1182
▁педагог	-11.1183
ающее	-11.1184
▁аркад	-11.1187
▁жуковскии	-11.1187
▁серб	-11.1188
▁самодержав	-11.1188
▁спора	-11.1188
▁ада	-11.1188
▁брус	-11.1189
▁дешев	-11.1189
▁сообщает	-11.1191
▁сердит	-11.1191
менит	-11.1192
▁повторен	-11.1192
▁принимали	-11.1195
парт	-11.1196
▁защища	-11.12
▁завоеван	-11.1201
▁возвращался	-11.1202
▁подробн	-11.1203
▁знакомые	-11.1204
▁ххх	-11.1204
▁силных	-11.1206
▁важных	-11.1206
▁органическ	-11.1207
▁сти	-11.1207
▁просбе	-11.1209
▁опустив	-11.121
▁лома	-11.1211
жир	-11.1213
▁запо	-11.1214
▁бродил	-11.1215
▁чертков	-11.1216
▁упомянут	-11.1216
▁рои	-11.1216
лип	-11.1218
руга	-11.1218
▁столице	-11.1219
▁шарл	-11.122
цах	-11.1221
▁отдан	-11.1222
▁чрезвычаин	-11.1223
▁нарушения	-11.1224
▁собственное	-11.1224
▁посол	-11.1228
▁розанов	-11.1229
▁услыш	-11.123
куша	-11.123
▁применен	-11.1233
▁коммерческ	-11.1234
▁торговле	-11.1234
▁эскадр	-11.1235
▁причинам	-11.1237
▁пробежал	-11.1239
жан	-11.1241
очно	-11.1242
▁звука	-11.1243
▁пропад	-11.1244
▁паруса	-11.1244
▁остро	-11.1244
▁оставлял	-11.1245
▁снега	-11.1246
▁употребит	-11.1247
▁рта	-11.1248
▁твоем	-11.1248
▁попечен	-11.1249
▁тит	-11.1249
▁учетом	-11.1251
▁вооруж	-11.1253
▁лам	-11.1254
рызг	-11.1254
▁морозов	-11.1256
▁расцвет	-11.1256
▁осторожност	-11.1257
▁маленкое	-11.1258
▁ведомств	-11.126
▁трубку	-11.1262
▁джек	-11.1262
▁столовои	-11.1262
▁привязан	-11.1262
▁социалистическ	-11.1263
▁слабыи	-11.1265
▁удивлением	-11.1266
▁полден	-11.1267
▁ногои	-11.1269
▁произвел	-11.127
▁ткан	-11.1271
▁преподавател	-11.1272
▁музыку	-11.1272
▁восхищен	-11.1272
▁гавр	-11.1276
▁распут	-11.1277
▁постанов	-11.1277
▁платеж	-11.1277
▁помп	-11.1277
▁особливо	-11.1278
▁осенн	-11.1281
▁границе	-11.1282
▁поста	-11.1284
чивост	-11.1285
▁творен	-11.1286
▁песок	-11.1286
лагает	-11.1286
▁писмах	-11.1286
▁заглавием	-11.1287
веден	-11.1288
▁просба	-11.1291
крат	-11.1292
▁института	-11.1293
▁творчество	-11.1295
ставив	-11.1296
▁деян	-11.1298
▁архиепископ	-11.13
▁попечител	-11.13
▁тонким	-11.13
▁угрюмо	-11.1304
▁композитор	-11.1305
▁увижу	-11.1305
▁дмитриевич	-11.1308
▁центра	-11.1308
▁ядовит	-11.131
▁мае	-11.131
▁служили	-11.1314
▁подтвержден	-11.1314
▁оканчива	-11.1314
▁презрително	-11.1314
▁нехорошо	-11.1316
▁хром	-11.1317
▁воспоминание	-11.1317
▁скота	-11.1317
▁пороге	-11.1318
▁комплекс	-11.1319
▁проходя	-11.1319
▁соответствующих	-11.1319
▁румын	-11.1319
▁орудии	-11.132
▁кузнец	-11.1321
▁руководством	-11.1323
▁длинными	-11.1323
▁общему	-11.1324
бул	-11.1324
▁осмотрел	-11.1326
▁каковы	-11.1327
▁посла	-11.1328
▁справа	-11.1329
▁преступник	-11.133
▁фантаз	-11.133
▁тяжелое	-11.1333
▁мелкие	-11.1333
▁лопат	-11.1336
▁идею	-11.1336
▁дров	-11.1337
▁догмат	-11.1343
зел	-11.1343
▁красотои	-11.1345
▁полоса	-11.1345
▁боялас	-11.1346
▁современника	-11.1346
▁определяет	-11.1347
▁иисуса	-11.1347
▁побужден	-11.1347
▁мант	-11.1348
▁димитрия	-11.1348
лова	-11.1349
авшихся	-11.135
▁разсказал	-11.135
▁морем	-11.1351
▁приключен	-11.1351
▁перемена	-11.1351
▁обстоятелствам	-11.1353
▁председателем	-11.1356
▁сохранен	-11.1356
▁помещении	-11.1359
▁яковлевич	-11.136
▁потери	-11.136
▁дикар	-11.1362
енке	-11.1362
▁собиралис	-11.1363
▁суворов	-11.1363
▁согласие	-11.1364
▁вздума	-11.1364
▁началис	-11.1365
▁облегчен	-11.1365
звон	-11.1366
лых	-11.1367
▁собол	-11.1367
▁убили	-11.1367
шими	-11.1368
▁болта	-11.1368
▁отклик	-11.137
▁познакомится	-11.137
▁низш	-11.1371
▁урод	-11.1372
▁фотограф	-11.1378
▁сношения	-11.1379
▁болшинстве	-11.1381
▁чистои	-11.1383
▁смотрител	-11.1387
▁мужика	-11.1388
▁управ	-11.1389
▁заметки	-11.1389
▁решила	-11.139
▁покажу	-11.1391
▁погоди	-11.1394
▁политик	-11.1395
▁европеиских	-11.1396
▁обзор	-11.1397
▁шагу	-11.1398
▁вызыва	-11.14
▁записок	-11.1401
▁плотно	-11.1401
цо	-11.1402
▁строен	-11.1404
▁обращатся	-11.1405
▁обрет	-11.1405
▁поидемте	-11.1406
▁замечания	-11.1406
▁благотворител	-11.1407
▁бумага	-11.1408
▁змея	-11.141
▁мэ	-11.141
▁каб	-11.1411
▁волок	-11.1416
▁теория	-11.1418
▁княжеск	-11.142
▁малого	-11.1421
▁фонтан	-11.1421
▁территор	-11.1421
▁возглас	-11.1421
▁предислов	-11.1423
▁последователно	-11.1423
▁слушая	-11.1424
▁кончится	-11.1425
▁необходимые	-11.1426
опа	-11.1427
ничества	-11.1428
▁прекрасные	-11.1428
▁правдив	-11.1428
▁неопределенно	-11.1428
▁братцы	-11.1429
▁сему	-11.1431
▁советовал	-11.1435
▁решилас	-11.1437
▁встретили	-11.1438
▁конституционно	-11.1439
▁сомнева	-11.1439
▁русски	-11.1439
▁закончен	-11.144
▁кош	-11.1442
▁федоров	-11.1443
▁смеет	-11.1446
▁посредник	-11.1449
▁фунт	-11.1449
▁склонност	-11.145
▁убеждения	-11.1454
▁личнои	-11.1455
ываются	-11.1455
▁словесности	-11.1456
▁свидетелеи	-11.1457
▁поведен	-11.1457
▁исков	-11.1457
▁баирон	-11.1459
▁несо	-11.1459
шему	-11.1459
валд	-11.1461
▁попа	-11.1462
▁подход	-11.1462
▁щегол	-11.1466
▁дроб	-11.1466
анда	-11.1471
▁здание	-11.1471
▁предо	-11.1473
▁тяжест	-11.1474
▁страшнои	-11.1475
▁наедине	-11.1479
чныи	-11.148
▁хмел	-11.1481
▁репутац	-11.1481
▁ночам	-11.1483
▁слову	-11.1483
▁публичн	-11.1484
▁стасов	-11.1484
▁гусар	-11.1486
▁профессионал	-11.1486
▁отвращен	-11.1487
▁богатств	-11.1487
нтов	-11.1489
▁счел	-11.1489
▁сущ	-11.1491
▁соответствует	-11.1491
▁говорим	-11.1491
▁долларов	-11.1492
стит	-11.1492
▁радикал	-11.1493
▁немцев	-11.1495
▁кормит	-11.1496
▁полях	-11.1496
▁приходили	-11.1497
▁очерки	-11.1498
▁уступит	-11.1499
▁огненны	-11.1499
▁чувству	-11.1499
▁связанных	-11.15
▁общины	-11.15
▁рул	-11.1502
▁осмел	-11.1502
▁беседа	-11.1502
ливается	-11.1503
▁продав	-11.1504
▁металлическ	-11.1505
▁единственная	-11.1506
▁разговариват	-11.1506
▁названия	-11.1509
▁счастлива	-11.151
▁выскочил	-11.151
▁установлено	-11.1513
▁неправда	-11.1515
▁доблест	-11.1515
▁дипломатическ	-11.1517
▁кабинета	-11.1517
▁изволте	-11.1518
гут	-11.1519
▁осуществлен	-11.152
▁вклад	-11.1521
▁покрыв	-11.1525
▁клар	-11.1525
▁верховныи	-11.1526
▁хранит	-11.1527
▁козл	-11.1534
▁буфет	-11.1534
▁надолго	-11.1535
▁мяса	-11.1536
▁обедом	-11.1542
▁ярким	-11.1542
▁сша	-11.1542
▁составляющ	-11.1543
▁существовал	-11.1544
▁знаи	-11.1544
▁значении	-11.1544
▁рен	-11.1544
▁аксаков	-11.1545
строит	-11.1545
▁сдав	-11.1545
▁камыш	-11.1546
▁натуры	-11.1546
▁принципа	-11.1546
▁социалистическо	-11.1547
▁императору	-11.1547
▁тонк	-11.1547
▁лис	-11.1547
▁воображение	-11.1548
▁августе	-11.1552
▁просвет	-11.1552
▁владим	-11.1556
▁гнет	-11.1556
▁муравев	-11.1558
▁негодован	-11.1558
▁небом	-11.1559
▁устремил	-11.1561
прям	-11.1563
▁вознагражден	-11.1563
▁албом	-11.1564
▁актрис	-11.1565
▁вдвое	-11.1565
▁спокоиным	-11.1565
▁условиям	-11.1565
дут	-11.1566
▁хищн	-11.1566
▁скрылся	-11.1566
▁десятин	-11.1566
▁гаван	-11.1568
▁продолж	-11.1568
▁раиона	-11.1569
▁уверяю	-11.157
▁удачно	-11.157
ившегося	-11.1571
▁вначале	-11.1571
▁преклон	-11.1571
▁внутреннего	-11.1572
▁слушаите	-11.1573
▁уважение	-11.1575
▁твар	-11.1576
ациеи	-11.1576
▁политические	-11.1576
▁французском	-11.1577
▁недостатки	-11.1578
▁озабочен	-11.1578
▁ответчика	-11.1581
▁скажете	-11.1581
▁посвящ	-11.1582
▁занятии	-11.1582
▁пропитан	-11.1583
▁стояло	-11.1584
лея	-11.1586
▁корабли	-11.1587
▁пристани	-11.1587
алные	-11.1587
▁подозревал	-11.1588
▁спорит	-11.1592
▁вселеннои	-11.1593
▁включая	-11.1594
▁грозил	-11.1596
▁рыбу	-11.1598
▁спрята	-11.1598
▁защит	-11.1599
▁любител	-11.16
▁приду	-11.1603
▁тимо	-11.1604
▁завел	-11.1605
▁краиности	-11.1605
▁ожидали	-11.1606
▁добива	-11.1606
иска	-11.1606
пуга	-11.1607
▁соглашения	-11.1607
▁заклад	-11.1607
▁спасения	-11.1607
▁таланта	-11.1609
зрел	-11.1609
▁ожидании	-11.1611
▁почин	-11.1613
▁повышен	-11.1614
▁прежние	-11.1614
▁вдова	-11.1616
бирает	-11.1616
▁живописи	-11.1616
▁колоколчик	-11.1617
▁шара	-11.1618
▁склоня	-11.1619
нна	-11.1622
▁вела	-11.1625
▁предполагал	-11.1626
▁ужасное	-11.1626
▁болшинства	-11.1627
▁изменник	-11.1631
▁бывших	-11.1631
▁плодов	-11.1633
▁кружев	-11.1634
▁вторую	-11.1635
▁беспрестанно	-11.1637
▁идее	-11.1637
▁уменша	-11.1637
▁кремл	-11.1637
нию	-11.1638
тич	-11.1638
▁государственном	-11.1638
▁сак	-11.1639
▁пала	-11.1641
▁относящ	-11.1641
▁разяснен	-11.1642
▁принесла	-11.1647
▁управляющ	-11.1647
▁желающ	-11.1648
▁весны	-11.1649
▁вотчин	-11.1651
▁страстеи	-11.1653
▁забрал	-11.1653
▁достоевского	-11.1654
лагат	-11.1654
▁бежали	-11.1655
▁чех	-11.1655
▁процессе	-11.1656
▁заставили	-11.166
шкои	-11.166
▁девка	-11.166
▁жарк	-11.1661
▁обманул	-11.1661
ствовавш	-11.1664
▁караван	-11.1665
▁милои	-11.1665
▁долины	-11.1666
▁ценност	-11.1667
▁мавр	-11.167
▁нездоров	-11.1671
▁имп	-11.1673
▁жидкост	-11.1673
сол	-11.1675
▁трагедии	-11.1677
оны	-11.1679
лак	-11.1681
▁блеском	-11.1682
▁истине	-11.1683
▁андр	-11.1684
▁жениха	-11.1684
▁машина	-11.1684
▁дерз	-11.1684
▁возразила	-11.1685
▁загорел	-11.1685
▁долина	-11.169
▁продукции	-11.1691
▁своиственно	-11.1693
▁качал	-11.1695
▁тетка	-11.1698
▁испании	-11.1699
▁триста	-11.1699
▁обяснял	-11.17
▁служител	-11.17
▁поставили	-11.1702
▁канат	-11.1703
▁целого	-11.1704
▁показалис	-11.1707
▁маршал	-11.1709
▁рубля	-11.171
▁структур	-11.171
▁опекун	-11.171
▁рене	-11.1714
▁башни	-11.1715
▁скрыват	-11.1717
▁руководител	-11.1717
▁короткое	-11.1717
▁дун	-11.1717
▁высокие	-11.172
▁лучш	-11.1721
▁книжки	-11.1722
▁книгах	-11.1724
ченко	-11.1725
▁жития	-11.1725
▁размеров	-11.1725
▁звуков	-11.1727
▁знаки	-11.1729
▁товара	-11.173
▁вокзал	-11.173
▁маркиза	-11.173
▁сделалис	-11.1731
▁враждебны	-11.1731
▁средн	-11.1732
▁возмуща	-11.1733
▁налога	-11.1733
▁велит	-11.1733
▁привоз	-11.1734
▁обычаю	-11.1735
глаз	-11.174
деж	-11.174
▁славянофил	-11.174
▁чая	-11.1741
▁маленкого	-11.1743
▁мускул	-11.1745
▁продат	-11.1748
▁ряду	-11.1748
▁реп	-11.1749
нял	-11.1751
▁поворачива	-11.1752
▁холоднои	-11.1753
▁искажен	-11.1754
▁кончилос	-11.1754
глядел	-11.1755
▁полше	-11.1756
▁принимают	-11.1758
▁стреми	-11.1758
▁шеств	-11.1759
▁коллегия	-11.1759
▁любои	-11.1761
▁ползуются	-11.1761
▁поступка	-11.1761
▁понимая	-11.1762
авшиися	-11.1762
▁жгуч	-11.1763
▁взялся	-11.1763
▁физическ	-11.1763
▁необходим	-11.1764
▁обывател	-11.1765
▁убежда	-11.1766
общ	-11.1768
▁уверена	-11.1769
▁охоту	-11.1769
▁халат	-11.177
▁щедро	-11.177
кажите	-11.1773
▁расположение	-11.1773
▁соединит	-11.1779
▁преследовал	-11.178
▁брач	-11.178
▁просбои	-11.1782
▁питер	-11.1784
▁интересовал	-11.1784
▁соломон	-11.1785
▁рога	-11.1785
▁благодарит	-11.1786
▁убив	-11.1787
▁запада	-11.1789
▁механизм	-11.179
▁авраам	-11.179
▁участок	-11.179
▁популярн	-11.179
▁знамя	-11.1794
▁награжден	-11.1795
▁столкновен	-11.1795
▁берут	-11.1798
▁ланд	-11.1798
дина	-11.1798
▁наступила	-11.1799
ведения	-11.1799
▁ягод	-11.1803
▁удовлетворит	-11.1803
▁борисов	-11.1803
▁зеленыи	-11.1804
▁помещение	-11.1807
▁конкурс	-11.1809
вела	-11.1811
вшем	-11.1812
▁разсказывал	-11.1813
▁долине	-11.1813
▁педагогическ	-11.1813
▁отнести	-11.1816
▁переплет	-11.1817
▁однообраз	-11.1818
▁пару	-11.1819
▁европеискои	-11.1819
▁училища	-11.1819
▁четырнадцат	-11.1819
▁входа	-11.182
▁сообщение	-11.182
▁лесом	-11.1821
шками	-11.1821
▁известные	-11.1823
▁государстве	-11.1824
▁развитии	-11.1824
▁русскими	-11.1826
▁рисовал	-11.1826
▁молодому	-11.1827
▁банкир	-11.1828
▁хлор	-11.1829
▁кадет	-11.1831
▁цареи	-11.1831
▁схватит	-11.1832
▁неболшим	-11.1834
▁состояла	-11.1834
▁механик	-11.1835
хнут	-11.1835
▁прилично	-11.1835
▁военным	-11.1836
▁глухои	-11.1837
▁слепо	-11.1838
▁знавш	-11.1838
▁улицах	-11.1839
▁понемногу	-11.1839
▁путеи	-11.1842
▁кач	-11.1843
▁началником	-11.1843
▁звереи	-11.1845
▁потрясен	-11.1846
▁элег	-11.1846
▁протестант	-11.1847
▁обеими	-11.1847
▁полагает	-11.1847
▁тягост	-11.1847
▁здравствуите	-11.1848
▁сказ	-11.1848
▁царев	-11.185
▁салон	-11.1851
ющем	-11.1851
▁создает	-11.1852
▁петух	-11.1853
▁средних	-11.1853
▁встает	-11.1854
▁тюр	-11.1854
▁курил	-11.1855
▁скуд	-11.1858
▁художников	-11.1858
▁несут	-11.1859
клон	-11.1859
▁свадбы	-11.1859
▁диких	-11.1861
фен	-11.1862
▁даваите	-11.1863
▁нахожу	-11.1864
▁фелетон	-11.1864
▁доверие	-11.1865
▁свободны	-11.1866
▁бот	-11.1867
▁вытащил	-11.1867
▁напев	-11.1867
▁явилос	-11.1867
▁отделение	-11.187
▁посещен	-11.1872
▁обидел	-11.1874
люд	-11.1874
▁элинор	-11.1874
▁отличаются	-11.1875
нца	-11.1876
▁брон	-11.1876
▁поимет	-11.1877
▁тяг	-11.1877
▁переводы	-11.1879
▁факел	-11.188
▁вреда	-11.188
▁толщ	-11.1882
▁стремления	-11.1883
▁широт	-11.1884
▁красного	-11.1885
▁многочисленных	-11.1886
ившее	-11.1888
▁приказание	-11.1888
▁татяна	-11.1889
▁турки	-11.1891
▁держи	-11.1891
ируя	-11.1892
▁переносит	-11.1894
▁молодую	-11.1895
▁пишут	-11.1896
▁ничтожно	-11.1898
▁заглав	-11.1898
голос	-11.1898
ившаяся	-11.1902
▁прощал	-11.1903
▁течет	-11.1903
▁календар	-11.1904
▁деиствиях	-11.1905
▁отчетливо	-11.1906
▁гнил	-11.1907
▁равня	-11.1907
▁услышат	-11.1909
▁спрашиват	-11.191
телства	-11.191
вари	-11.191
▁отрицател	-11.1911
▁категории	-11.1912
▁благородныи	-11.1912
▁удовлетвор	-11.1914
сердеч	-11.1914
▁аршин	-11.1916
▁расправ	-11.1916
▁освобождение	-11.1917
▁высшим	-11.1918
▁беды	-11.1921
▁закрыты	-11.1923
▁подавал	-11.1925
▁публике	-11.1925
▁отстал	-11.1927
▁красоте	-11.1927
▁народные	-11.1928
▁нерешително	-11.193
▁любезност	-11.1931
▁высшее	-11.1932
▁алекс	-11.1935
▁академ	-11.1937
▁совершается	-11.1937
▁некоторыми	-11.1938
▁пин	-11.1939
▁плит	-11.1939
▁поддерживат	-11.1941
▁славныи	-11.1941
падают	-11.1942
▁крестянам	-11.1943
▁штурм	-11.1944
▁королевы	-11.1945
▁находящихся	-11.1945
▁туалет	-11.1945
▁морщин	-11.1947
▁кверху	-11.195
▁пролет	-11.195
▁довел	-11.1952
звуч	-11.1954
▁потребности	-11.1955
▁производят	-11.1956
▁струн	-11.1957
▁итти	-11.1958
▁робк	-11.1958
▁познакомился	-11.1958
▁плоск	-11.196
▁разным	-11.1961
▁гомер	-11.1961
▁прес	-11.1964
▁становился	-11.1965
▁кружка	-11.1967
▁постоял	-11.1968
смотрев	-11.1969
▁современ	-11.1971
▁вину	-11.1971
юшка	-11.1971
▁черным	-11.1971
▁подверга	-11.1971
▁стекло	-11.1973
▁городского	-11.1974
▁представляющ	-11.1974
▁ходатаиств	-11.1975
▁особого	-11.1975
▁гуман	-11.1979
▁стоян	-11.1981
▁участников	-11.1983
▁приобрет	-11.1985
▁секретаря	-11.1985
деев	-11.1986
▁величины	-11.1987
▁распоряжении	-11.1993
▁подезд	-11.1994
▁некрасова	-11.1995
▁расстояние	-11.1995
елем	-11.1996
▁огарев	-11.1998
▁надет	-11.1998
▁достигли	-11.1999
▁поднялис	-11.1999
▁избрал	-11.1999
▁запира	-11.2
▁искренност	-11.2
▁госпитал	-11.2
гром	-11.2001
▁артур	-11.2001
▁опущен	-11.2001
▁вернувшис	-11.2003
дыш	-11.2004
▁перенос	-11.2007
▁скверно	-11.2009
▁резултатов	-11.2009
▁членами	-11.201
▁состоявш	-11.2011
▁допустим	-11.2011
▁сужден	-11.2011
▁кавказск	-11.2014
▁праву	-11.2016
телныи	-11.2016
валос	-11.2018
▁веки	-11.2023
шал	-11.2024
идеш	-11.2024
▁человеческое	-11.2025
▁впал	-11.2026
▁восемнадцат	-11.2026
▁напаст	-11.2026
▁факта	-11.2027
▁благодарен	-11.2029
▁корреспондент	-11.2031
▁встретится	-11.2035
страт	-11.2035
▁черед	-11.2036
▁епарх	-11.2037
▁показыват	-11.2038
▁социалного	-11.204
▁особенным	-11.2041
▁уменшен	-11.2042
▁брит	-11.2042
▁влечет	-11.2042
▁интересах	-11.2043
нувши	-11.2045
▁эстетическ	-11.2045
▁делаю	-11.2046
▁покоиного	-11.2047
▁одежде	-11.2049
▁листа	-11.2049
▁перечен	-11.2051
▁гражданина	-11.2051
▁посетил	-11.2052
плю	-11.2054
▁выборов	-11.2055
▁колонии	-11.2055
▁изучение	-11.2058
▁чистыи	-11.2059
лач	-11.2061
нимаем	-11.2062
▁смеха	-11.2062
▁отчаянно	-11.2063
начал	-11.2063
▁богато	-11.2063
▁наслаждение	-11.2063
▁удара	-11.2064
▁убран	-11.2066
▁имение	-11.2067
▁илич	-11.2067
ствуют	-11.2068
чим	-11.207
▁облич	-11.2073
▁проповедник	-11.2073
работат	-11.2074
▁терят	-11.2074
лился	-11.2075
▁шагами	-11.2075
▁социалнои	-11.2075
▁отпустит	-11.2078
▁яснее	-11.2079
юк	-11.208
▁политическим	-11.208
▁принялис	-11.2083
▁прежним	-11.2084
▁осени	-11.2086
памят	-11.2088
▁цезаря	-11.209
▁признание	-11.209
знат	-11.2091
▁кротко	-11.2092
▁старец	-11.2094
▁кончит	-11.2095
▁основа	-11.21
▁мера	-11.21
▁придат	-11.2101
▁убедился	-11.2101
▁играла	-11.2101
▁главнеиш	-11.2101
▁санчо	-11.2103
▁поднятся	-11.2103
▁полна	-11.2104
▁обеспечит	-11.2104
▁секунду	-11.2105
▁дважды	-11.2108
▁вене	-11.2108
ируется	-11.2108
▁эск	-11.2108
▁гетман	-11.2109
▁оставляет	-11.2112
▁исползоват	-11.2113
чаиш	-11.2113
▁покушен	-11.2113
▁рассыпа	-11.2117
▁курса	-11.2117
▁классическ	-11.2117
▁произошла	-11.2118
▁грохот	-11.2118
▁общую	-11.2118
фан	-11.2119
▁проезд	-11.2119
▁финанс	-11.2123
▁опира	-11.2123
▁рассказов	-11.2123
▁фру	-11.2124
▁почта	-11.2124
▁таинои	-11.2124
▁самолюб	-11.2125
телных	-11.2125
▁лир	-11.2126
ическаго	-11.2126
▁уча	-11.2128
▁карта	-11.2128
ивался	-11.2129
арх	-11.2129
▁предлагает	-11.2132
▁известна	-11.2134
ружен	-11.2134
▁ввоз	-11.2135
▁хранил	-11.2135
елнее	-11.2138
▁чудно	-11.2139
▁единого	-11.214
▁происшеств	-11.2142
▁здании	-11.2143
▁белокур	-11.2145
▁привычн	-11.2145
▁бланк	-11.2146
▁уезде	-11.2147
▁мех	-11.2148
▁отпуска	-11.2148
▁боитес	-11.2153
▁бенедикт	-11.2154
▁кристалл	-11.2154
▁арнолд	-11.2154
▁возбудил	-11.2154
▁лазур	-11.2154
▁принадлежност	-11.2156
пост	-11.2157
▁защите	-11.2158
нское	-11.2158
▁палец	-11.2158
▁живые	-11.216
▁архангелск	-11.2161
▁набор	-11.2161
▁спорам	-11.2161
▁амур	-11.2165
▁устя	-11.2165
▁старую	-11.2166
▁тороп	-11.2166
▁связаны	-11.2167
▁добав	-11.2167
▁знакомым	-11.2169
▁обнаружен	-11.2169
▁принадлежавш	-11.217
▁завтрака	-11.2171
▁отражен	-11.2172
▁играют	-11.2172
▁присутствовал	-11.2172
▁знакомства	-11.2173
▁находилос	-11.2173
▁усиленно	-11.2175
▁товарищами	-11.2183
▁аппетит	-11.2185
▁трети	-11.2186
▁гладк	-11.2186
▁скорби	-11.2187
▁хорошенк	-11.2187
▁креста	-11.219
▁предстоит	-11.219
▁поглядел	-11.2193
▁сезда	-11.2193
▁личных	-11.22
▁палестин	-11.22
▁жизненно	-11.2201
▁относился	-11.2202
▁ют	-11.2204
▁графини	-11.2204
▁читали	-11.2205
▁предупрежден	-11.2206
▁питал	-11.2207
▁хил	-11.2208
▁поимал	-11.2209
нар	-11.2211
▁силные	-11.2212
▁экономического	-11.2212
▁дина	-11.2213
▁поэты	-11.2215
▁серезным	-11.2216
▁следовал	-11.2217
▁колонн	-11.2217
▁угас	-11.2221
▁даря	-11.2221
▁гвард	-11.2226
▁изволил	-11.2227
▁мистическ	-11.2227
▁разрыв	-11.2227
▁сонет	-11.2228
▁лавров	-11.2228
▁куски	-11.223
▁пристраст	-11.2232
▁грабеж	-11.2233
▁происхождение	-11.2235
▁синод	-11.2239
▁тоски	-11.2239
▁нареч	-11.2239
▁диким	-11.2242
▁молн	-11.2244
▁навеки	-11.2246
▁качеств	-11.2251
▁общественным	-11.2252
▁обозначен	-11.2257
▁построики	-11.2258
▁образцов	-11.2258
лаз	-11.2262
▁заимствован	-11.2263
▁ружеи	-11.2267
чивы	-11.2268
ставляют	-11.2269
▁зала	-11.2269
▁огнев	-11.2273
▁вспомни	-11.2273
анием	-11.2274
▁переписка	-11.2274
▁ефим	-11.2276
▁мучит	-11.2278
▁слушала	-11.2278
▁рабов	-11.2278
▁равным	-11.2279
▁поднима	-11.2281
▁видат	-11.2283
▁собственныи	-11.2284
▁ходила	-11.2285
▁обижен	-11.2285
▁заходил	-11.2285
▁терял	-11.2286
▁допускается	-11.2286
▁разбиты	-11.2288
▁чаадаев	-11.2289
▁интеллигенции	-11.229
▁печен	-11.229
▁лечен	-11.2291
▁точности	-11.2291
▁дадут	-11.2292
▁узел	-11.2292
▁палубе	-11.2293
▁нервы	-11.2293
▁дубов	-11.2295
▁пересел	-11.2296
▁немец	-11.2298
уры	-11.2299
▁выборах	-11.23
▁давала	-11.2305
▁выпал	-11.2307
▁слабым	-11.2311
▁англичанин	-11.2313
▁любезны	-11.2314
▁толпои	-11.2315
▁ползования	-11.2315
▁василия	-11.2315
▁пустяк	-11.2317
▁освободил	-11.2317
▁траве	-11.2318
▁крупным	-11.2318
▁изменение	-11.2319
▁сената	-11.2322
▁скита	-11.2323
▁проекта	-11.2323
▁спектакл	-11.2323
истом	-11.2323
▁канцлер	-11.2325
▁привычка	-11.2326
▁экс	-11.2328
▁простого	-11.2328
обор	-11.2329
▁доселе	-11.233
▁народност	-11.233
торж	-11.233
▁предявля	-11.2331
▁взяты	-11.2332
▁берлине	-11.2333
▁вином	-11.2335
▁нанес	-11.2336
гил	-11.2339
▁хозяиственно	-11.2341
▁гении	-11.2342
▁странная	-11.2343
▁философия	-11.2343
▁мышлен	-11.2347
▁оглянулся	-11.2347
▁тру	-11.2348
▁стена	-11.2349
мыт	-11.2349
▁оставила	-11.2349
▁поприще	-11.2352
▁желуд	-11.2352
▁вяземск	-11.2355
▁зря	-11.2355
▁фактор	-11.2355
▁заряд	-11.2356
▁забуд	-11.2357
▁случается	-11.2357
▁рассуди	-11.2359
▁копия	-11.236
▁добровол	-11.236
▁стада	-11.2361
▁высот	-11.2362
▁убежище	-11.2362
▁акционер	-11.2362
▁верблюд	-11.2363
▁дыма	-11.2364
▁попросит	-11.2364
▁проклина	-11.2366
▁солдата	-11.2366
▁букет	-11.2367
▁берг	-11.2367
мещ	-11.2368
▁украины	-11.2368
▁дрожа	-11.2369
▁особых	-11.237
▁противно	-11.237
▁помилуите	-11.2371
▁обвиня	-11.2371
▁сухои	-11.2371
▁взглядов	-11.2372
▁лежа	-11.2373
▁духовенство	-11.2373
▁полки	-11.2378
▁задумал	-11.2378
▁мыслител	-11.2378
▁собственные	-11.2378
▁охотнич	-11.2381
▁денежных	-11.2382
авшиеся	-11.2383
анцев	-11.2383
▁имеющие	-11.2383
▁полны	-11.2383
▁указател	-11.2386
▁кале	-11.2388
▁гроба	-11.2388
▁украинск	-11.239
▁могиле	-11.239
▁оанн	-11.239
▁глядет	-11.2393
телство	-11.2399
▁многочисленные	-11.24
▁дворцов	-11.2401
▁хана	-11.2401
▁хороши	-11.2403
▁гончаров	-11.2404
▁зват	-11.2405
▁долгом	-11.2406
▁шведск	-11.2407
лила	-11.2408
▁крем	-11.241
▁продажи	-11.2411
▁диск	-11.2412
елных	-11.2413
▁несправедливост	-11.2414
▁пренебрег	-11.2415
▁уныл	-11.2415
▁будд	-11.2415
▁дождя	-11.2416
▁кида	-11.2416
▁христианство	-11.2418
ставляя	-11.242
▁предков	-11.2422
▁жуан	-11.2423
▁доходы	-11.2425
▁всемогущ	-11.2425
▁загранич	-11.2426
ср	-11.2429
▁бек	-11.243
▁тихии	-11.243
▁молитву	-11.2431
▁регистрации	-11.2431
▁осуществляющ	-11.2432
▁императрице	-11.2436
▁кармане	-11.2436
▁отыскат	-11.2436
▁булвар	-11.2438
▁порядку	-11.2442
▁неподвижны	-11.2442
▁пересек	-11.2442
ническ	-11.2443
▁фирм	-11.2444
ителные	-11.2446
▁пределов	-11.2449
▁искусством	-11.2454
▁иллюстр	-11.2455
▁песа	-11.2456
▁нога	-11.2461
▁прожит	-11.2461
▁дич	-11.2464
▁достаточны	-11.2465
▁траву	-11.2465
▁пятна	-11.2466
▁понимают	-11.2467
▁проси	-11.2468
▁беспо	-11.2468
▁поехали	-11.247
▁почувствовала	-11.2471
▁показатся	-11.2472
▁несчастнои	-11.2472
▁живая	-11.2473
▁колена	-11.2477
▁выходили	-11.2477
▁батареи	-11.2479
▁беру	-11.2479
▁рифм	-11.2481
▁важныи	-11.2481
дре	-11.2481
▁писали	-11.2482
нде	-11.2483
▁лучшего	-11.2485
▁пролетариата	-11.2485
▁хроник	-11.2485
▁доходил	-11.2486
▁успокоен	-11.2489
▁простых	-11.2493
▁единои	-11.2493
▁мыс	-11.2494
▁тринадцат	-11.2495
▁огромнои	-11.2495
▁странник	-11.2496
▁захотелос	-11.2497
▁славе	-11.25
▁параллел	-11.2502
фал	-11.2502
▁раздава	-11.2502
▁берегам	-11.2502
▁запел	-11.2503
▁благодарности	-11.2503
нкои	-11.2505
▁государственная	-11.2507
▁никитич	-11.2507
инки	-11.2507
▁восторженн	-11.2509
▁замечат	-11.251
▁кожу	-11.251
▁сближен	-11.2511
одор	-11.2511
▁французски	-11.2513
▁одарен	-11.2513
▁просили	-11.2513
брод	-11.2514
▁малют	-11.2514
▁талмуд	-11.2516
▁повелен	-11.2517
▁лагеря	-11.2517
▁наружност	-11.2518
▁дышат	-11.2519
▁идол	-11.2519
▁испуганно	-11.252
▁ресторан	-11.2521
▁разсужда	-11.2521
кладыват	-11.2523
▁сравнит	-11.2525
нская	-11.2527
никова	-11.2528
▁привело	-11.2529
▁железа	-11.253
▁положив	-11.253
олет	-11.2531
▁колебл	-11.2532
▁штык	-11.2532
▁стадо	-11.2532
▁смеялся	-11.2534
▁породы	-11.2534
▁зачеркнуто	-11.2534
▁гиб	-11.2536
спешн	-11.2536
▁книжку	-11.2537
▁восстания	-11.2537
▁перешли	-11.2537
▁дрожащ	-11.2538
▁сестер	-11.2541
▁основным	-11.2543
▁рассматриват	-11.2544
▁лодке	-11.2544
▁шутит	-11.2545
▁мелким	-11.2545
▁дрожащим	-11.2546
▁центре	-11.2546
▁наименование	-11.2547
▁армию	-11.2547
▁государыня	-11.2548
▁столицы	-11.2549
▁полетел	-11.2549
▁окончания	-11.2551
▁перу	-11.2552
▁писатели	-11.2552
▁савв	-11.2553
▁тяжелои	-11.2553
▁молитва	-11.2554
▁французск	-11.2555
▁светлост	-11.2555
▁севера	-11.2555
▁жуков	-11.2556
▁телу	-11.2557
▁попадал	-11.2557
зои	-11.2558
олит	-11.2559
▁домах	-11.2559
▁отныне	-11.2559
▁честю	-11.256
▁опасны	-11.2561
▁минувш	-11.2561
▁ползовалис	-11.2562
▁залы	-11.2562
▁богатые	-11.2562
▁иудеи	-11.2563
▁зеленым	-11.2564
▁злобно	-11.2566
сечен	-11.2566
▁встретила	-11.2567
▁несправедливо	-11.2568
▁перевяз	-11.2569
▁заканчива	-11.257
ктор	-11.2571
▁подобныи	-11.2573
▁поэма	-11.2573
▁сходит	-11.2575
▁храме	-11.2575
▁воплощен	-11.2575
▁дошло	-11.2575
▁темныи	-11.2576
▁согласилас	-11.2577
▁пустыни	-11.2577
ходим	-11.2577
▁месяце	-11.2578
дои	-11.2578
▁шага	-11.2578
▁утверждение	-11.2578
▁придумал	-11.2578
▁пища	-11.2582
▁являлис	-11.2584
▁маленком	-11.2584
реж	-11.2586
▁возвращения	-11.2586
телнаго	-11.2586
▁волеи	-11.2587
▁пат	-11.2587
▁девочку	-11.2588
▁происшедш	-11.2588
▁интересам	-11.2588
▁восторге	-11.259
▁шумом	-11.2591
▁ожидает	-11.2591
▁пониман	-11.2591
▁приняв	-11.2592
▁леонтев	-11.2592
▁белое	-11.2594
▁политическии	-11.2594
▁баден	-11.2595
▁необходимых	-11.2595
риг	-11.2595
▁буквы	-11.2596
▁помни	-11.2599
▁лучами	-11.2599
▁препод	-11.26
▁шутка	-11.2602
▁проходили	-11.2603
▁тамошн	-11.2603
▁гостиную	-11.2603
▁выплат	-11.2604
▁неапол	-11.2605
▁возлага	-11.2606
▁получается	-11.2609
▁стрелят	-11.2611
изация	-11.2612
▁факултет	-11.2613
▁собственными	-11.2621
▁благопр	-11.2622
▁грехов	-11.2622
гур	-11.2623
▁артел	-11.2623
▁погибел	-11.2624
▁началства	-11.2625
ущих	-11.2626
▁маменка	-11.2626
зал	-11.2627
▁коего	-11.2627
▁своиство	-11.2627
▁листов	-11.2631
▁святая	-11.2631
▁политическ	-11.2631
▁зима	-11.2631
▁платонов	-11.2632
▁департамента	-11.2633
ииского	-11.2635
▁атлас	-11.2635
▁занятся	-11.2639
▁окружавш	-11.2639
▁стыда	-11.2639
▁тат	-11.264
▁сынов	-11.264
шков	-11.264
▁просбы	-11.2643
▁сегодняшн	-11.2644
▁божия	-11.2644
▁церквеи	-11.2645
▁монте	-11.2645
▁старатся	-11.2646
▁заставило	-11.2651
▁грехи	-11.2651
▁положила	-11.2651
▁слуха	-11.2651
▁пребыван	-11.2654
▁загор	-11.2654
сторон	-11.2656
▁совете	-11.2656
▁заключает	-11.2659
▁мета	-11.2662
▁приобретен	-11.2663
▁жертва	-11.2665
нф	-11.2666
▁отвлечен	-11.2666
▁бедного	-11.2667
зван	-11.2667
▁выражается	-11.2669
▁будущеи	-11.2671
▁друзям	-11.2673
▁привыкли	-11.2673
▁политику	-11.2673
▁столп	-11.2674
▁данныи	-11.2674
▁победил	-11.2675
▁среду	-11.2675
нга	-11.2676
▁артем	-11.2677
▁рады	-11.2678
▁предполагает	-11.268
▁погибш	-11.268
▁сверкающ	-11.268
▁язв	-11.2681
▁избав	-11.2682
▁светлыи	-11.2683
▁убог	-11.2684
▁мурав	-11.2684
нскому	-11.2689
▁премер	-11.2692
▁атрибут	-11.2694
изац	-11.2695
▁находили	-11.2697
▁давая	-11.2698
▁осип	-11.2698
▁заглянул	-11.2699
▁поутру	-11.27
▁собирается	-11.27
▁передачи	-11.27
▁никифор	-11.2701
▁сердится	-11.2701
▁поездки	-11.2702
бон	-11.2703
▁клик	-11.2704
▁предупрежда	-11.2705
▁горничная	-11.2705
▁оружием	-11.2705
▁местом	-11.2705
шер	-11.2706
▁копеек	-11.2707
лера	-11.2708
▁быстрее	-11.271
▁солидн	-11.271
▁напечатал	-11.2711
▁окнами	-11.2711
▁испытат	-11.2713
граф	-11.2714
▁родом	-11.2716
▁гряд	-11.2719
▁устава	-11.272
▁основы	-11.272
▁сохраня	-11.2722
▁отступлен	-11.2723
▁судебная	-11.2724
▁громче	-11.2724
чками	-11.273
▁царицы	-11.2733
▁полза	-11.2735
ола	-11.2736
▁тихон	-11.2738
▁натура	-11.2738
▁немецких	-11.2739
▁разныя	-11.2739
провод	-11.274
▁категор	-11.274
▁серыи	-11.274
▁фома	-11.2741
▁выгоды	-11.2741
▁поколения	-11.2741
▁напомнил	-11.2743
▁реализации	-11.2744
▁проявлен	-11.2745
держат	-11.2746
▁невесты	-11.2746
▁отрывок	-11.2748
▁указанным	-11.2748
▁местечко	-11.2749
▁гулят	-11.2749
пав	-11.2749
▁колеса	-11.275
▁севере	-11.275
▁пятнадцати	-11.2751
▁ловит	-11.2752
▁акции	-11.2753
▁катер	-11.2753
▁колебан	-11.2753
▁кисл	-11.2754
вою	-11.2757
▁мудрости	-11.2757
▁мик	-11.2758
▁шутку	-11.2759
ковым	-11.276
▁почву	-11.2761
▁тариф	-11.2763
▁торгово	-11.2763
рачен	-11.2763
▁пробовал	-11.2766
▁истинное	-11.2767
▁числом	-11.2767
▁туп	-11.2768
▁сопровождении	-11.2768
▁повторила	-11.2769
▁игнатев	-11.277
делат	-11.277
▁вечнои	-11.2772
▁красивая	-11.2772
▁тракт	-11.2773
▁бранд	-11.2773
вавш	-11.2773
лар	-11.2774
▁передаче	-11.2774
▁улица	-11.2774
▁санд	-11.2776
▁метров	-11.2776
▁семена	-11.2776
зат	-11.2777
▁нумер	-11.2777
▁приступил	-11.2778
▁одиноко	-11.2779
▁тупо	-11.2781
▁перенесен	-11.2781
▁опустился	-11.2782
▁добродушно	-11.2783
▁искусственно	-11.2783
▁смертелно	-11.2788
▁разговоров	-11.2788
правил	-11.2789
▁наидете	-11.279
▁здорова	-11.279
▁появляется	-11.2791
▁купцы	-11.2792
▁злоупотреблен	-11.2792
▁трибун	-11.2792
▁тетя	-11.2793
смотрет	-11.2793
▁аре	-11.2795
▁желании	-11.2797
▁отказал	-11.2799
▁соединения	-11.2799
▁произнесен	-11.2799
▁двоюродн	-11.2803
ителя	-11.2806
▁покупа	-11.2807
▁асе	-11.2808
▁кача	-11.2808
▁написана	-11.2808
▁незнакомец	-11.2809
▁тексту	-11.2811
▁подлец	-11.2811
▁петербургскои	-11.2812
дик	-11.2813
▁характером	-11.2814
▁записан	-11.2814
▁громов	-11.2815
▁ослеп	-11.2815
▁муниципалных	-11.2816
▁внешност	-11.2816
▁деревями	-11.2816
▁сопротивление	-11.2817
▁погодин	-11.2818
▁врача	-11.2818
▁хорошеи	-11.282
▁совокупност	-11.2822
▁поверте	-11.2823
▁показания	-11.2824
▁тест	-11.283
див	-11.283
▁четверти	-11.2833
▁прохож	-11.2834
▁развитию	-11.2834
▁колот	-11.2835
лагаем	-11.2836
▁придержива	-11.2837
▁железных	-11.284
▁экипажа	-11.2841
свист	-11.2841
▁преследоват	-11.2843
▁маленким	-11.2843
▁окр	-11.2844
▁кухне	-11.2847
▁исправит	-11.2848
праш	-11.2849
▁ласк	-11.285
пк	-11.2853
▁помещика	-11.2855
▁настаивал	-11.2857
▁задумчив	-11.2857
▁капиталист	-11.2858
▁ходе	-11.2858
▁сережа	-11.2859
▁лжи	-11.2859
▁меншиков	-11.286
▁разбив	-11.286
ращен	-11.2861
▁вещах	-11.2864
▁мошенник	-11.2864
▁животного	-11.2865
▁задумыва	-11.2865
▁слои	-11.2867
▁ясны	-11.2871
▁вероят	-11.2871
▁пехоты	-11.2875
▁хаос	-11.2876
▁древес	-11.2877
▁собственному	-11.2877
▁пробыл	-11.2879
▁криво	-11.2881
▁осталным	-11.2883
▁полагат	-11.2885
▁посылает	-11.2885
▁сомневатся	-11.2885
▁ужасныи	-11.2886
рят	-11.2887
▁недуг	-11.2888
▁бедност	-11.2888
▁отличие	-11.289
▁боле	-11.2891
▁обруши	-11.2891
▁били	-11.2891
▁очищен	-11.2893
▁снизу	-11.2893
▁богатым	-11.2894
▁оренбург	-11.2896
▁темных	-11.2897
▁восстание	-11.2897
▁занимат	-11.2898
▁особенное	-11.2898
▁каин	-11.29
▁размера	-11.29
▁вырыва	-11.2901
▁высоким	-11.2901
▁доля	-11.2904
▁счастливыи	-11.2906
▁знои	-11.2907
▁юрист	-11.2908
▁гнезд	-11.2908
▁коллекц	-11.2908
▁шестнадцат	-11.2909
▁лавки	-11.2909
риф	-11.291
▁христианства	-11.291
нист	-11.2911
▁грыз	-11.2916
ните	-11.2916
▁грязно	-11.2918
▁муром	-11.2919
▁соглашение	-11.292
▁внушен	-11.292
истая	-11.2921
вив	-11.2922
ственност	-11.2922
▁литературные	-11.2923
▁приятны	-11.2924
▁хутор	-11.2926
▁выходя	-11.2927
▁предлогом	-11.2928
▁дядю	-11.2929
▁висели	-11.2931
▁волтер	-11.2931
▁цит	-11.2932
▁клавд	-11.2933
▁страдании	-11.2933
▁ошибся	-11.2935
телем	-11.2936
▁оператор	-11.2937
▁инозем	-11.2937
▁венер	-11.2938
глав	-11.2939
рма	-11.2941
▁ссылки	-11.2942
вато	-11.2942
▁пошл	-11.2943
▁смятен	-11.2946
▁роял	-11.2946
▁поедем	-11.2949
▁пропуск	-11.295
закон	-11.2951
▁подозрително	-11.2953
▁сознатся	-11.2953
▁бездеиств	-11.2953
▁паж	-11.2953
▁зыб	-11.2954
▁землею	-11.2954
▁бури	-11.2955
били	-11.2956
▁воспитания	-11.2956
▁окончив	-11.2962
▁испорчен	-11.2964
▁управлят	-11.2965
▁неприятност	-11.2965
▁здравствуи	-11.2966
▁приходят	-11.2969
▁источником	-11.2976
▁подписи	-11.2976
▁идеолог	-11.2976
▁почвы	-11.2978
▁давыдов	-11.2979
▁выполнения	-11.2981
▁кампан	-11.2981
▁сражения	-11.2985
▁литературныи	-11.2986
▁усмехнулся	-11.2986
алного	-11.2986
▁безнадежно	-11.2987
▁важные	-11.2988
▁утверждат	-11.2988
ушек	-11.2988
▁длиннои	-11.299
▁холодным	-11.2997
▁небос	-11.2999
лилас	-11.3004
▁бют	-11.3004
▁спустил	-11.3004
▁моста	-11.3006
▁теряет	-11.3006
▁увидав	-11.3007
▁нерон	-11.3008
▁одеты	-11.3009
▁делалос	-11.301
▁худш	-11.301
▁гордости	-11.3012
▁простые	-11.3013
▁продаж	-11.3015
▁психическ	-11.3015
▁лиг	-11.3015
▁хозяиств	-11.3016
▁романе	-11.3018
▁приветствовал	-11.3018
▁настоичиво	-11.3019
▁дворянства	-11.302
▁преувеличен	-11.302
▁негодование	-11.3021
лэ	-11.3021
▁евгении	-11.3022
▁усовершенствова	-11.3022
▁марина	-11.3023
▁несчастная	-11.3024
▁шит	-11.3025
▁книгои	-11.3025
▁выносит	-11.3026
▁заслуживает	-11.3026
▁уныло	-11.3026
▁зим	-11.3029
ленным	-11.303
▁дружеск	-11.303
▁жутко	-11.3031
▁линия	-11.3032
▁уважаем	-11.3032
▁бояре	-11.3032
▁политического	-11.3035
▁окном	-11.3036
▁изучения	-11.3037
▁обстановке	-11.3037
▁католик	-11.3037
▁зоны	-11.3038
▁тишине	-11.3039
▁малчишка	-11.304
▁рабочим	-11.304
▁голосования	-11.3042
▁планов	-11.3042
бет	-11.3042
▁прекрасна	-11.3042
рич	-11.3043
▁вырвал	-11.3043
оре	-11.3046
плав	-11.3046
▁подвал	-11.3047
▁линеи	-11.3047
бив	-11.3047
▁жемчуг	-11.3048
▁выбежал	-11.3049
▁трога	-11.3049
▁карета	-11.305
▁лекарств	-11.305
сур	-11.305
▁миновал	-11.3052
▁решимост	-11.3052
▁почтенныи	-11.3054
▁дверям	-11.3057
▁потух	-11.3058
▁цитат	-11.306
▁лучеи	-11.3062
▁встат	-11.3063
вля	-11.3064
▁таня	-11.3064
▁эксперт	-11.3065
▁выступает	-11.3066
▁головами	-11.3066
▁хлебом	-11.3066
очками	-11.3067
▁малчиш	-11.3068
▁окраин	-11.3069
▁обуча	-11.3069
▁прикосновен	-11.307
▁улов	-11.307
▁княгини	-11.3071
▁тетушка	-11.3071
▁влечен	-11.3071
зг	-11.3072
▁музеи	-11.3073
▁начался	-11.3074
▁прекрасных	-11.3074
▁знакомы	-11.3076
▁подготовлен	-11.3076
▁глуб	-11.3077
хватывает	-11.3078
▁богомол	-11.3078
ыз	-11.3081
▁петроград	-11.3082
▁вечныи	-11.3082
▁учета	-11.3083
▁исходя	-11.3083
▁мужиков	-11.3084
▁ленив	-11.3085
▁хранится	-11.3086
▁стенами	-11.3086
▁похода	-11.3087
▁поддержки	-11.3088
сыпал	-11.3089
тина	-11.309
▁находят	-11.3091
▁маргарита	-11.3092
▁мес	-11.3092
▁дружба	-11.3098
▁валер	-11.3099
явлен	-11.3101
▁подумаите	-11.3102
▁вылез	-11.3102
▁языки	-11.3103
иватся	-11.3104
▁конкрет	-11.3105
▁погубит	-11.3105
▁пощад	-11.3106
уар	-11.3107
▁подан	-11.3108
мышл	-11.3109
▁шелк	-11.3109
▁кресле	-11.311
▁уровня	-11.3111
нуло	-11.3111
▁морского	-11.3114
▁вздохом	-11.3115
шар	-11.3115
▁похожа	-11.3116
▁математическ	-11.3116
▁расстрел	-11.3116
▁быстрым	-11.3119
оха	-11.312
очного	-11.312
▁речеи	-11.3121
▁рассуждения	-11.3122
▁церковно	-11.3124
▁предмету	-11.3125
ыча	-11.3127
▁неболшая	-11.3129
▁жажда	-11.313
▁употреблял	-11.313
▁годится	-11.3132
▁аренд	-11.3132
▁отметит	-11.3133
▁понятии	-11.3136
▁силен	-11.3138
▁иллюз	-11.3139
▁отличался	-11.3139
▁лицах	-11.314
▁промышленност	-11.3141
▁грин	-11.3141
бегая	-11.3142
авшее	-11.3142
▁дже	-11.3144
▁вошедш	-11.3145
жар	-11.3146
▁хозяева	-11.3147
цкии	-11.3149
▁квартира	-11.315
▁техническо	-11.315
▁предосторожност	-11.315
▁благосостоян	-11.315
▁аристотел	-11.315
ителная	-11.315
▁литератур	-11.3151
▁снегу	-11.3151
▁бессо	-11.3151
ичност	-11.3151
▁печи	-11.3152
▁грив	-11.3152
▁сообразно	-11.3153
▁избирателно	-11.3157
▁имеющим	-11.3157
▁способствовал	-11.3157
▁едем	-11.3157
елного	-11.3158
▁косы	-11.3159
▁покорност	-11.316
▁обретен	-11.316
▁замерз	-11.316
▁споры	-11.3161
▁специалист	-11.3161
▁лампад	-11.3163
▁соверш	-11.3165
▁подняли	-11.3166
▁голубои	-11.3167
▁плоскост	-11.3169
▁поддержан	-11.3169
енном	-11.3171
▁белинск	-11.3171
▁гостям	-11.3171
▁пророка	-11.3171
ируют	-11.3171
▁возникает	-11.3173
▁окончен	-11.3173
▁важности	-11.3173
▁англииского	-11.3174
▁казарм	-11.3174
▁фат	-11.3176
▁юге	-11.3176
▁индивидуалн	-11.3176
▁моро	-11.3178
▁бегут	-11.3179
▁дядюшка	-11.318
▁предисловие	-11.318
▁прогул	-11.3181
▁государственную	-11.3181
▁устанавливается	-11.3181
▁выразител	-11.3182
▁изображения	-11.3183
▁направит	-11.3184
▁вовремя	-11.3184
▁чистым	-11.3185
вея	-11.3186
▁попали	-11.3188
▁осуществит	-11.3188
▁ясност	-11.3188
▁транс	-11.3189
▁внешних	-11.3194
▁младшии	-11.3197
▁националнои	-11.3197
▁ценит	-11.3199
▁террор	-11.3199
▁истца	-11.3199
▁говорилос	-11.32
▁раска	-11.32
▁стеснен	-11.3201
▁свидетелствует	-11.3201
▁фраза	-11.3201
▁добычу	-11.3201
▁позабыл	-11.3202
▁высказыва	-11.3203
▁византии	-11.3203
▁воронеж	-11.3203
▁савел	-11.3203
▁восстановлен	-11.3204
▁разрыва	-11.3205
▁врагом	-11.3206
▁подтверждаю	-11.3207
ителную	-11.3208
▁публикации	-11.3208
▁шур	-11.3209
▁земств	-11.321
крад	-11.3211
▁невинност	-11.3211
▁суворин	-11.3213
▁хххи	-11.3217
ющуюся	-11.3217
▁старухи	-11.3219
▁предлагаю	-11.3219
▁сигар	-11.3221
▁желаем	-11.3222
▁детстве	-11.3222
▁собаку	-11.3222
▁никаким	-11.3222
▁якобы	-11.3222
▁отдает	-11.3222
▁верност	-11.3223
▁пуля	-11.3223
▁чя	-11.3224
▁супруги	-11.3227
▁управля	-11.3227
▁желали	-11.3228
▁естественным	-11.3228
онка	-11.3229
▁новости	-11.3231
▁злост	-11.3233
▁немногих	-11.3233
▁невинно	-11.3236
▁гигантск	-11.3238
▁оправдат	-11.3239
▁англичане	-11.3239
▁пела	-11.3241
нится	-11.3242
▁исаченко	-11.3242
▁прочно	-11.3244
▁тарас	-11.3244
▁смолк	-11.3246
▁ветв	-11.3249
▁полит	-11.3249
▁жива	-11.3252
▁поляк	-11.3252
▁юля	-11.3253
▁горю	-11.3253
правлял	-11.3253
▁графом	-11.3254
глад	-11.3255
вс	-11.3256
▁мука	-11.3256
стру	-11.3257
▁жуковского	-11.3258
▁пробужден	-11.3259
▁канцелярии	-11.3263
▁нравственности	-11.3265
▁исключая	-11.3266
▁смеялис	-11.3267
▁следующую	-11.3267
▁болным	-11.3268
▁стихии	-11.3273
▁договору	-11.3275
▁пузыр	-11.3276
▁правую	-11.3277
▁мертвым	-11.3278
▁местные	-11.328
▁студентов	-11.3282
▁реформы	-11.3282
▁дна	-11.3282
▁участвоват	-11.3282
▁прежн	-11.3283
▁грудю	-11.3283
▁анри	-11.3284
лав	-11.3285
▁освящен	-11.3286
▁ловкост	-11.3287
▁посвятил	-11.3288
▁страдат	-11.3288
▁раввин	-11.3289
▁мести	-11.329
изме	-11.3291
▁полевои	-11.3291
▁мили	-11.3292
▁исаак	-11.3292
▁имуществ	-11.3294
▁пек	-11.3295
▁заставила	-11.3295
▁предоставит	-11.3295
▁общественные	-11.3295
▁волков	-11.3298
▁густым	-11.3299
▁шлем	-11.3299
▁продолжалос	-11.3299
▁обнаж	-11.33
▁гибк	-11.3302
▁сокровища	-11.3303
▁перелом	-11.3303
▁цивилизац	-11.3304
▁исследовании	-11.3305
▁пулемет	-11.3305
▁шутки	-11.3306
▁честное	-11.3307
▁удивил	-11.3307
▁лорда	-11.3307
▁теря	-11.3308
▁отворя	-11.3308
▁полеи	-11.3308
▁хозяистве	-11.331
▁замкнут	-11.3311
▁отцы	-11.3312
▁победит	-11.3314
▁владелца	-11.3316
▁эф	-11.3317
▁началом	-11.3317
▁ерес	-11.3318
▁дрова	-11.3319
▁причаст	-11.3319
▁образуют	-11.332
▁протянула	-11.3321
едеш	-11.3321
ование	-11.3322
▁обыкновению	-11.3322
▁езж	-11.3324
▁передавал	-11.3326
▁свободным	-11.3328
▁бумаге	-11.3334
▁удержатся	-11.3337
▁возрасте	-11.3338
▁статистик	-11.3338
▁густав	-11.3339
▁книжке	-11.3339
▁бороду	-11.3341
▁президентом	-11.3341
овав	-11.3342
▁отчета	-11.3344
▁прокурора	-11.3345
▁армян	-11.3345
▁бод	-11.3347
▁успенск	-11.3348
▁чиновника	-11.3348
▁знаток	-11.3349
▁бедным	-11.335
▁ученым	-11.335
бек	-11.3351
▁юнкер	-11.3352
везен	-11.3352
▁молоденк	-11.3352
▁провиден	-11.3353
▁чернышев	-11.3354
▁высказан	-11.3354
▁распад	-11.3356
▁сказывал	-11.3356
▁развил	-11.3356
▁удостоверен	-11.3357
▁подготовки	-11.3357
▁биограф	-11.3358
▁фаз	-11.3358
зим	-11.3359
▁прилив	-11.3359
▁просыпа	-11.3359
▁желанию	-11.3363
▁разсужден	-11.3363
▁вступает	-11.3365
▁достоевск	-11.3367
▁перенести	-11.3368
▁уважения	-11.3368
правлят	-11.3369
▁почва	-11.3369
▁полтав	-11.3369
▁таможеннои	-11.337
▁франциск	-11.3371
▁достоян	-11.3371
▁серебра	-11.3371
▁захватит	-11.3372
▁кали	-11.3373
▁тим	-11.3374
▁бла	-11.3375
▁прихода	-11.3377
▁чес	-11.3378
▁красных	-11.3378
▁обращая	-11.3379
рева	-11.3379
▁бестужев	-11.338
▁баронесса	-11.338
▁дозволен	-11.3381
▁быстротои	-11.3382
▁шен	-11.3382
▁холода	-11.3383
▁встретилис	-11.3383
▁упоминается	-11.3383
▁матвеи	-11.3384
▁младен	-11.3385
▁дополнен	-11.3385
▁абзац	-11.3385
▁событие	-11.3386
▁бедные	-11.3388
▁кабы	-11.3389
▁продоволств	-11.3389
▁основу	-11.3389
▁карпов	-11.339
▁созерцан	-11.3392
▁надзирател	-11.3392
▁видали	-11.3392
▁александрии	-11.3393
▁совершал	-11.3398
▁начато	-11.34
▁заблужден	-11.34
▁тифлис	-11.34
▁страшные	-11.3401
▁блуд	-11.3401
▁девяти	-11.3402
бирая	-11.3404
▁служа	-11.3404
ленных	-11.3405
▁воевода	-11.3405
▁меру	-11.3405
▁народное	-11.3406
гина	-11.3408
▁признают	-11.3408
▁постараюс	-11.341
▁беспокоиство	-11.341
ослав	-11.3411
▁процессуалного	-11.3415
▁пурпур	-11.3415
▁овладет	-11.3416
▁началнику	-11.3416
▁положением	-11.3416
▁коммунист	-11.3417
▁правителственны	-11.3418
▁поте	-11.3419
▁оставляя	-11.3421
▁сергеевна	-11.3421
▁распа	-11.3421
везли	-11.3424
▁шиллер	-11.3426
▁полск	-11.3426
▁эволюц	-11.3427
▁старики	-11.3428
▁рассеян	-11.3428
▁доложил	-11.3428
▁наличии	-11.3428
▁великом	-11.3429
▁строф	-11.343
▁калит	-11.3433
▁хрип	-11.3436
▁романтическ	-11.3438
▁свободного	-11.3439
▁летит	-11.344
▁пропуска	-11.344
очное	-11.3441
резат	-11.3441
ившимся	-11.3441
▁покоиныи	-11.3442
▁плыл	-11.3442
▁бабушки	-11.3444
▁меланхол	-11.3445
▁входя	-11.3445
▁станислав	-11.3445
▁охватил	-11.3446
▁открытие	-11.3446
▁перст	-11.3449
▁снегом	-11.345
▁очевидн	-11.3451
▁сыск	-11.3454
▁совершенства	-11.3457
▁вождя	-11.3457
▁взгляде	-11.3458
ходящее	-11.3459
▁уровне	-11.3459
▁раздалис	-11.3459
▁зор	-11.3462
▁цирк	-11.3462
▁коммун	-11.3462
▁присоединя	-11.3462
▁злобы	-11.3464
▁декабре	-11.3464
▁нежным	-11.3465
▁неболшое	-11.3465
▁учреждение	-11.3465
▁попала	-11.3466
▁краски	-11.3466
▁малеишаго	-11.3466
▁ятеля	-11.3466
▁преступлении	-11.3466
▁буш	-11.3467
▁вторым	-11.3467
▁долше	-11.3467
▁образе	-11.3471
▁коко	-11.3471
▁доказывал	-11.3471
▁проведение	-11.3472
▁верхне	-11.3473
▁свт	-11.3473
кнув	-11.3473
▁приезжал	-11.3473
▁духовенства	-11.3474
▁возбуждал	-11.3474
▁бедн	-11.3475
▁местам	-11.3475
▁практике	-11.3476
оро	-11.3476
▁избежат	-11.3478
▁пеи	-11.3478
▁лыс	-11.3479
▁вполголоса	-11.348
▁взаимодеиств	-11.348
▁трен	-11.348
▁близок	-11.3481
▁произносит	-11.3482
▁открыла	-11.3483
▁донесен	-11.3483
▁слыш	-11.3484
▁выделен	-11.3484
▁великан	-11.3485
ленные	-11.3486
▁сперанск	-11.3486
▁смешны	-11.3487
▁глуш	-11.3488
▁моею	-11.3488
▁зеленые	-11.3489
▁фураж	-11.3492
▁пронзителн	-11.3492
▁шапки	-11.3493
▁работали	-11.3493
▁исторического	-11.3496
выс	-11.3497
▁звания	-11.3498
▁отто	-11.3499
хлеб	-11.3499
▁освобождения	-11.3499
▁соблюда	-11.3501
вон	-11.3502
▁траур	-11.3503
тверд	-11.3503
▁формално	-11.3503
▁нижегородск	-11.3504
▁записка	-11.3506
▁копыт	-11.3506
▁заслужил	-11.3506
▁пробу	-11.3508
▁нижнеи	-11.3508
▁прочитал	-11.351
▁святые	-11.3511
▁порою	-11.3511
▁вступления	-11.3511
▁моряк	-11.3513
▁настаива	-11.3516
чивая	-11.3517
▁суды	-11.3519
▁суток	-11.3519
▁паша	-11.3519
▁посылаю	-11.352
▁течения	-11.3521
обед	-11.3522
▁падали	-11.3523
▁языческ	-11.3523
ожде	-11.3524
▁статистическ	-11.3525
▁пение	-11.3526
▁пунктов	-11.3527
▁дочереи	-11.3527
▁наталя	-11.353
▁испугался	-11.353
▁земного	-11.3532
▁годунов	-11.3533
▁активно	-11.3535
▁валтер	-11.3537
▁немецкои	-11.3538
▁защитит	-11.3538
▁уроки	-11.3539
▁попробовал	-11.3539
▁европу	-11.354
труд	-11.3541
▁кана	-11.3541
▁возложен	-11.3541
▁разсмотрен	-11.3543
▁перечислен	-11.3544
▁зари	-11.3545
▁извол	-11.3545
▁франция	-11.3547
▁октябре	-11.3547
▁патрик	-11.3548
▁размеры	-11.355
▁рав	-11.355
▁гражданам	-11.355
▁предостав	-11.355
▁наполнял	-11.3551
▁северу	-11.3553
▁статями	-11.3556
▁поразително	-11.3557
авшую	-11.3558
▁вернут	-11.3558
▁смешива	-11.356
▁костер	-11.3561
▁поднимается	-11.3566
овыя	-11.3571
▁резв	-11.3571
▁военную	-11.3572
▁грозныи	-11.3572
▁потеряли	-11.3573
▁раба	-11.3574
▁выидя	-11.3575
▁отсутствии	-11.3576
▁груш	-11.3578
▁праздно	-11.3578
▁повторя	-11.358
▁эгоизм	-11.3581
▁меншеи	-11.3583
▁конституц	-11.3584
щина	-11.3585
▁хуан	-11.3585
▁внешним	-11.3586
▁команды	-11.3586
▁кухню	-11.3586
▁брам	-11.3587
риц	-11.3587
▁леи	-11.3588
▁ужина	-11.3588
▁значителное	-11.3591
▁псевдоним	-11.3592
▁герствуд	-11.3592
▁перевал	-11.3593
▁встретив	-11.3593
▁невероятно	-11.3595
щимися	-11.3597
▁костеи	-11.3598
▁предшественник	-11.3598
▁португал	-11.3598
▁несоглас	-11.3599
▁мастера	-11.3599
▁верован	-11.3602
▁зимы	-11.3604
▁преград	-11.3605
▁представлении	-11.3605
▁указанного	-11.3605
▁спеша	-11.3605
▁повторит	-11.3606
▁справится	-11.3609
▁счита	-11.361
▁грем	-11.361
▁знании	-11.361
▁прут	-11.3613
▁призыва	-11.3613
▁судами	-11.3613
▁понт	-11.3614
▁утру	-11.3615
▁согласилис	-11.3615
▁мщен	-11.3616
▁возмещен	-11.3616
▁трапез	-11.3617
▁появилос	-11.3618
▁энергичн	-11.3619
▁написаны	-11.362
▁разговоре	-11.362
▁кроваво	-11.3622
дернул	-11.3622
▁бриллиант	-11.3622
▁похищен	-11.3622
▁покаян	-11.3623
▁розыск	-11.3623
▁грим	-11.3624
▁резултатом	-11.3624
копа	-11.3626
▁праздника	-11.3626
ичныи	-11.3627
енбург	-11.3628
▁ученики	-11.3628
орд	-11.3629
▁мене	-11.363
▁показывая	-11.363
▁фан	-11.3631
▁положили	-11.3632
▁цк	-11.3633
▁спала	-11.3633
цкои	-11.3633
▁подоидя	-11.3634
▁разбудил	-11.3634
▁неволник	-11.3635
▁полезным	-11.3636
▁обязателны	-11.3636
▁клеи	-11.3637
рп	-11.3637
▁бориса	-11.3638
▁учебных	-11.3638
▁матросы	-11.3639
▁смугл	-11.3639
▁отрез	-11.364
▁последствии	-11.3641
▁писму	-11.3642
▁петровича	-11.3642
▁окончателн	-11.3643
▁установленным	-11.3644
▁некотором	-11.3646
▁пожалован	-11.3647
▁следуя	-11.3647
▁согласован	-11.3648
▁помилуи	-11.3648
торов	-11.3649
▁искали	-11.365
сток	-11.3651
▁производстве	-11.3652
▁воротам	-11.3655
▁модел	-11.3655
▁десятки	-11.3656
▁опроверг	-11.3656
▁отстаива	-11.3656
▁существовало	-11.3658
▁плане	-11.3659
▁людовика	-11.3661
фра	-11.3661
▁мечет	-11.3664
▁выдающ	-11.3664
▁источники	-11.3667
▁колца	-11.3669
▁подоити	-11.3671
▁занес	-11.3673
▁актами	-11.3675
▁будущност	-11.3676
▁живы	-11.3677
▁рые	-11.3677
▁приступит	-11.3677
▁закуп	-11.3678
▁номера	-11.3678
ящая	-11.3679
▁разрешил	-11.368
▁вступлен	-11.368
носим	-11.3681
▁перерыв	-11.3684
▁декабр	-11.3684
▁научных	-11.3684
▁просим	-11.3685
▁военная	-11.3686
▁старух	-11.3686
▁этаж	-11.3687
▁правосуд	-11.3687
уру	-11.3687
▁заплатил	-11.3688
▁семнадцат	-11.3688
▁приехат	-11.3689
▁горели	-11.3693
▁характере	-11.3694
▁покупател	-11.3694
▁мемуар	-11.3694
▁устремлен	-11.3694
▁мош	-11.3694
▁правит	-11.3695
поч	-11.3696
▁особа	-11.3698
алную	-11.3698
▁леснои	-11.3698
идов	-11.3699
▁нежныи	-11.37
▁июл	-11.3701
▁платил	-11.3701
▁выходят	-11.3702
▁девицы	-11.3703
нские	-11.3705
▁показывают	-11.3705
▁уполномочен	-11.3706
▁клон	-11.3707
▁любимои	-11.3707
▁настоящему	-11.3707
шедших	-11.3707
▁избавится	-11.371
▁возбудит	-11.3711
▁искусству	-11.3713
▁прямым	-11.3713
▁греции	-11.3718
▁различие	-11.3718
▁увеличил	-11.3718
▁элиз	-11.3719
честву	-11.3719
▁жаловатся	-11.372
▁представляли	-11.3721
▁уидет	-11.3722
▁поступки	-11.3723
▁архитектор	-11.3724
▁переменит	-11.3725
▁образовании	-11.3725
▁происходящ	-11.3727
▁забуду	-11.373
изирован	-11.373
▁обрадовал	-11.373
▁беллетрист	-11.373
▁поближе	-11.373
▁особенного	-11.3733
▁захвачен	-11.3733
▁наступило	-11.3733
▁плечах	-11.3738
ящие	-11.374
▁турц	-11.374
▁скрыв	-11.3741
▁флигел	-11.3742
▁одеяло	-11.3744
▁профессором	-11.3744
▁различными	-11.3749
▁самоубииств	-11.3749
▁услугу	-11.3749
▁прусс	-11.375
▁подехал	-11.375
▁отдават	-11.3751
▁еретик	-11.3752
▁станем	-11.3752
алным	-11.3755
▁стремително	-11.3755
▁операц	-11.3757
▁переходил	-11.3759
▁принцесс	-11.376
▁подчеркива	-11.3761
▁поправил	-11.3762
▁человеческая	-11.3762
▁облако	-11.3764
▁повинност	-11.3766
▁грешник	-11.3766
▁жилища	-11.3767
▁деятелеи	-11.3768
▁старшего	-11.3769
▁советская	-11.377
▁черное	-11.377
▁посредстве	-11.3773
▁царскои	-11.3774
▁блаженство	-11.3779
▁забавля	-11.3779
стают	-11.3781
▁интересны	-11.3782
▁цензор	-11.3784
▁христианин	-11.3785
▁жалованя	-11.3785
▁масла	-11.3786
▁стиха	-11.3786
▁соседнеи	-11.3786
▁горды	-11.3786
▁танк	-11.3787
против	-11.3788
▁бук	-11.3788
▁держался	-11.3788
дова	-11.3788
▁нижнем	-11.3789
▁кулаком	-11.379
▁пеизаж	-11.3791
▁беглец	-11.3791
▁летел	-11.3792
▁спали	-11.3793
▁признается	-11.3795
▁построил	-11.3795
▁эллин	-11.3796
▁огромная	-11.3797
▁полн	-11.38
▁ручку	-11.38
▁разделит	-11.3801
▁находяс	-11.3802
▁всемирно	-11.3804
▁заявител	-11.3804
▁губам	-11.3807
▁отталкива	-11.3809
▁успехи	-11.3809
▁свободное	-11.3811
▁отыскива	-11.3813
▁отказат	-11.3814
▁исследование	-11.3815
▁услугам	-11.3817
▁простая	-11.3821
▁серые	-11.3821
▁русско	-11.3821
▁заведения	-11.3823
▁лагере	-11.3825
▁излишн	-11.3827
▁прекраща	-11.3827
▁роспис	-11.383
▁короленко	-11.3831
▁выпущен	-11.3834
▁зина	-11.3836
▁проявил	-11.3837
▁личным	-11.3837
▁юрев	-11.3838
▁угнетен	-11.3841
ковского	-11.3842
▁знамена	-11.3842
▁изящно	-11.3842
▁малеишеи	-11.3843
▁духовного	-11.3846
▁отсроч	-11.3846
▁внутренност	-11.3848
▁невероят	-11.3849
▁библиотеки	-11.385
▁стоил	-11.3852
▁ненавидел	-11.3852
▁вообразит	-11.3852
▁снисходително	-11.3853
▁январе	-11.3854
▁простодуш	-11.3854
▁орел	-11.3854
▁видна	-11.3855
▁унтер	-11.3855
▁принялас	-11.3855
▁плену	-11.3855
нными	-11.3856
▁окружающих	-11.3856
▁отвращение	-11.3857
▁удалится	-11.3857
▁вскрикнул	-11.3858
▁словес	-11.386
▁дмитриев	-11.386
вик	-11.386
▁пробужда	-11.386
▁обещание	-11.386
▁джем	-11.386
▁спасение	-11.3862
коват	-11.3863
▁слышите	-11.3864
▁инвалид	-11.3864
▁алфред	-11.3864
▁помещиков	-11.3865
▁узнаю	-11.3867
▁подписал	-11.3867
▁виноваты	-11.3867
▁страд	-11.3869
▁дурного	-11.3869
▁потихонку	-11.387
▁алексеевна	-11.3872
▁боися	-11.3872
▁спустился	-11.3872
▁покажется	-11.3873
▁мужеи	-11.3874
▁вернул	-11.3875
▁генриха	-11.3875
▁редакц	-11.3875
▁основанием	-11.3876
▁обморок	-11.3876
▁монт	-11.3877
▁пережил	-11.3879
рка	-11.388
▁лениво	-11.3881
▁сроки	-11.3882
▁переехал	-11.3883
▁вывести	-11.3884
▁уступил	-11.3884
▁гимназист	-11.3884
▁капуст	-11.3885
▁апреле	-11.3887
▁празднеств	-11.3888
▁указывают	-11.3889
▁возда	-11.389
▁вопросах	-11.3891
овским	-11.3892
▁берегах	-11.3893
▁ступени	-11.3894
▁проехал	-11.3896
▁понимала	-11.3897
▁ответом	-11.3898
▁воспитанник	-11.3898
▁кружок	-11.3899
▁родителям	-11.3899
опас	-11.3899
хвачен	-11.39
▁прозрачны	-11.3901
▁малых	-11.3903
▁отечественнои	-11.3904
▁алп	-11.3906
▁конфликт	-11.3907
▁виднелис	-11.3907
▁голо	-11.3908
▁наружу	-11.3908
сал	-11.391
▁полши	-11.3911
▁почерк	-11.3912
▁отмечен	-11.3914
▁сража	-11.3915
▁шумно	-11.3918
▁наивно	-11.3918
▁противодеиств	-11.3919
▁воздухом	-11.3922
охран	-11.3924
▁вздохнула	-11.3925
▁лаборатор	-11.3925
▁земелного	-11.3927
▁рудник	-11.3927
▁потерят	-11.3927
▁безмолвно	-11.3928
▁открытия	-11.3929
▁проверки	-11.3929
▁выходе	-11.3929
▁британск	-11.393
▁становилис	-11.3931
▁тексте	-11.3933
▁разрез	-11.3935
▁нападения	-11.3936
лилис	-11.3936
▁рощи	-11.3937
▁угрожа	-11.3939
▁добратся	-11.394
▁добычи	-11.394
▁джемс	-11.3941
▁библеиск	-11.3942
▁кучу	-11.3943
▁леж	-11.3944
▁послужил	-11.3944
▁нарушит	-11.3945
▁горящ	-11.3945
[...]
